<unk>	0
<s>	0
</s>	0
▁t	-0
he	-1
▁a	-2
in	-3
▁the	-4
re	-5
on	-6
▁s	-7
er	-8
▁w	-9
▁o	-10
▁c	-11
an	-12
▁b	-13
at	-14
en	-15
ed	-16
is	-17
it	-18
▁in	-19
▁p	-20
▁f	-21
ar	-22
or	-23
es	-24
▁of	-25
▁m	-26
▁an	-27
al	-28
▁d	-29
▁h	-30
ing	-31
▁to	-32
as	-33
ic	-34
ou	-35
▁and	-36
▁l	-37
ion	-38
ro	-39
▁th	-40
il	-41
▁e	-42
▁n	-43
▁re	-44
ent	-45
▁g	-46
▁be	-47
st	-48
le	-49
ly	-50
▁u	-51
om	-52
ve	-53
ol	-54
ur	-55
ct	-56
▁on	-57
ce	-58
id	-59
▁he	-60
ad	-61
▁is	-62
im	-63
▁it	-64
ut	-65
▁was	-66
ot	-67
▁st	-68
▁for	-69
ver	-70
▁al	-71
et	-72
▁as	-73
ir	-74
ow	-75
ig	-76
ch	-77
ter	-78
▁wh	-79
▁that	-80
se	-81
▁r	-82
am	-83
ay	-84
▁de	-85
ation	-86
▁1	-87
▁con	-88
ith	-89
▁with	-90
est	-91
▁se	-92
▁we	-93
th	-94
and	-95
her	-96
um	-97
ld	-98
▁at	-99
▁by	-100
ul	-101
ain	-102
ate	-103
ill	-104
▁un	-105
rom	-106
▁ch	-107
op	-108
▁his	-109
▁k	-110
ri	-111
▁v	-112
▁mo	-113
if	-114
▁j	-115
▁y	-116
oun	-117
▁are	-118
▁com	-119
▁ha	-120
ers	-121
pe	-122
▁ne	-123
ge	-124
red	-125
res	-126
ts	-127
ment	-128
ac	-129
us	-130
▁ex	-131
▁from	-132
ab	-133
ies	-134
▁pro	-135
un	-136
▁this	-137
▁have	-138
ich	-139
em	-140
art	-141
out	-142
▁le	-143
▁were	-144
iv	-145
ity	-146
▁tr	-147
el	-148
▁"	-149
our	-150
▁su	-151
▁has	-152
▁wor	-153
igh	-154
ial	-155
▁pl	-156
ast	-157
end	-158
ian	-159
▁ab	-160
▁but	-161
ak	-162
ess	-163
ia	-164
▁2	-165
ist	-166
ap	-167
cc	-168
ong	-169
ust	-170
ear	-171
ould	-172
▁had	-173
od	-174
os	-175
▁ar	-176
▁which	-177
ud	-178
ren	-179
▁not	-180
qu	-181
ive	-182
ard	-183
▁19	-184
▁af	-185
ther	-186
▁whe	-187
ber	-188
der	-189
▁sh	-190
ish	-191
▁sp	-192
▁their	-193
so	-194
ant	-195
▁20	-196
▁ag	-197
▁or	-198
▁cont	-199
ie	-200
▁i	-201
▁cl	-202
ok	-203
pp	-204
mer	-205
ical	-206
▁they	-207
▁year	-208
gh	-209
ous	-210
▁int	-211
▁who	-212
pt	-213
ace	-214
ans	-215
ort	-216
ated	-217
▁new	-218
ction	-219
▁been	-220
▁go	-221
▁br	-222
▁sa	-223
▁dis	-224
▁also	-225
▁me	-226
▁all	-227
▁her	-228
oc	-229
all	-230
ree	-231
▁ad	-232
▁us	-233
▁can	-234
▁comp	-235
▁more	-236
▁after	-237
ame	-238
per	-239
ound	-240
ide	-241
ore	-242
ure	-243
▁man	-244
▁mar	-245
▁one	-246
▁tim	-247
ition	-248
ke	-249
▁pe	-250
▁tw	-251
ight	-252
▁will	-253
one	-254
▁inc	-255
▁its	-256
▁about	-257
▁there	-258
ip	-259
ub	-260
ack	-261
ire	-262
▁rep	-263
ll	-264
og	-265
act	-266
ary	-267
ine	-268
ost	-269
▁up	-270
▁inv	-271
lic	-272
▁en	-273
ance	-274
reat	-275
▁pol	-276
▁she	-277
▁would	-278
ally	-279
ough	-280
▁pres	-281
fe	-282
we	-283
age	-284
ome	-285
ord	-286
▁em	-287
▁acc	-288
▁per	-289
▁time	-290
ag	-291
uc	-292
ass	-293
ice	-294
▁fir	-295
▁ind	-296
▁two	-297
▁part	-298
av	-299
ib	-300
▁(	-301
▁res	-302
▁work	-303
▁first	-304
vel	-305
▁im	-306
▁bec	-307
▁dur	-308
▁out	-309
00	-310
lo	-311
ne	-312
te	-313
ory	-314
ose	-315
▁gr	-316
ions	-317
▁off	-318
▁war	-319
▁peop	-320
▁than	-321
▁during	-322
ach	-323
ens	-324
▁li	-325
▁sc	-326
▁so	-327
▁dec	-328
ign	-329
ors	-330
▁ap	-331
able	-332
ence	-333
▁bet	-334
▁car	-335
▁nor	-336
▁other	-337
ep	-338
ue	-339
con	-340
ult	-341
▁te	-342
land	-343
▁201	-344
▁said	-345
▁inter	-346
▁people	-347
▁3	-348
ade	-349
hed	-350
low	-351
row	-352
▁ev	-353
▁no	-354
vern	-355
iz	-356
ays	-357
ied	-358
orm	-359
▁pr	-360
ount	-361
▁col	-362
▁into	-363
▁many	-364
▁over	-365
▁years	-366
ru	-367
are	-368
ild	-369
▁am	-370
▁how	-371
▁par	-372
▁reg	-373
▁when	-374
au	-375
ry	-376
▁“	-377
ric	-378
ved	-379
▁eu	-380
▁gu	-381
ater	-382
ween	-383
▁fin	-384
▁rec	-385
▁like	-386
▁under	-387
▁govern	-388
▁between	-389
▁do	-390
very	-391
▁exp	-392
▁mon	-393
▁sur	-394
▁invest	-395
,"	-396
ff	-397
ina	-398
ite	-399
urn	-400
▁co	-401
▁fr	-402
ings	-403
ious	-404
▁des	-405
▁ear	-406
▁pre	-407
▁win	-408
ident	-409
ublic	-410
▁cent	-411
▁only	-412
ations	-413
▁world	-414
▁government	-415
ph	-416
ail	-417
ake	-418
ces	-419
erm	-420
ert	-421
own	-422
▁rem	-423
▁euro	-424
wn	-425
ang	-426
gan	-427
ile	-428
ilm	-429
rent	-430
▁est	-431
▁him	-432
▁ret	-433
meric	-434
▁most	-435
▁such	-436
▁great	-437
▁americ	-438
rit	-439
▁lo	-440
ents	-441
▁app	-442
▁imp	-443
▁pow	-444
▁city	-445
▁comm	-446
▁cons	-447
▁film	-448
▁land	-449
▁last	-450
▁some	-451
ational	-452
ane	-453
ced	-454
ell	-455
ise	-456
yst	-457
▁bl	-458
▁bu	-459
▁op	-460
▁ro	-461
iver	-462
▁med	-463
▁hist	-464
▁north	-465
▁where	-466
iss	-467
les	-468
▁fe	-469
ared	-470
ates	-471
eral	-472
form	-473
outh	-474
▁fol	-475
▁min	-476
▁sch	-477
▁dire	-478
▁mark	-479
▁them	-480
▁again	-481
▁could	-482
aw	-483
day	-484
ife	-485
ink	-486
ium	-487
lud	-488
old	-489
ton	-490
ury	-491
▁ph	-492
ased	-493
cial	-494
cted	-495
ific	-496
▁att	-497
▁ele	-498
▁gen	-499
▁hel	-500
▁may	-501
▁sea	-502
▁spe	-503
ained	-504
velop	-505
▁appe	-506
▁grow	-507
▁play	-508
▁well	-509
▁these	-510
ds	-511
ict	-512
the	-513
▁bo	-514
▁if	-515
▁kn	-516
▁ma	-517
▁qu	-518
ever	-519
fore	-520
ists	-521
ning	-522
tern	-523
ting	-524
ward	-525
▁200	-526
▁art	-527
▁bot	-528
▁lar	-529
▁lit	-530
▁met	-531
▁num	-532
▁rel	-533
▁thr	-534
▁vot	-535
ately	-536
ather	-537
▁brit	-538
▁cour	-539
▁stud	-540
▁used	-541
▁what	-542
▁south	-543
▁state	-544
▁follow	-545
▁includ	-546
▁century	-547
▁develop	-548
io	-549
ps	-550
000	-551
ten	-552
▁18	-553
▁dr	-554
▁ed	-555
ause	-556
ians	-557
ress	-558
▁act	-559
▁bel	-560
▁did	-561
▁aust	-562
▁just	-563
▁sign	-564
▁took	-565
▁being	-566
▁count	-567
▁compan	-568
▁however	-569
be	-570
du	-571
xt	-572
▁5	-573
ful	-574
get	-575
ily	-576
ons	-577
ral	-578
tle	-579
▁ca	-580
▁sm	-581
ines	-582
ital	-583
ited	-584
▁cap	-585
▁day	-586
▁pop	-587
▁rom	-588
▁ser	-589
▁unt	-590
ative	-591
ished	-592
ystem	-593
▁back	-594
▁both	-595
▁high	-596
▁need	-597
▁prov	-598
▁power	-599
▁trans	-600
▁europe	-601
▁return	-602
0,	-603
2,	-604
co	-605
amp	-606
ank	-607
err	-608
iew	-609
ock	-610
ood	-611
ool	-612
sel	-613
ump	-614
uss	-615
▁ke	-616
▁ob	-617
ided	-618
olog	-619
read	-620
ving	-621
▁arm	-622
▁bor	-623
▁mor	-624
▁now	-625
▁own	-626
▁rev	-627
▁tri	-628
ating	-629
ister	-630
ities	-631
ments	-632
ought	-633
▁conf	-634
▁mill	-635
▁post	-636
▁allow	-637
▁china	-638
▁month	-639
▁place	-640
▁polit	-641
▁three	-642
▁until	-643
▁before	-644
▁direct	-645
▁president	-646
,”	-647
."	-648
ek	-649
ft	-650
ty	-651
▁-	-652
▁z	-653
ark	-654
ath	-655
cts	-656
duc	-657
▁cr	-658
▁jo	-659
▁po	-660
aced	-661
gest	-662
ived	-663
osed	-664
ures	-665
vent	-666
▁199	-667
▁air	-668
▁dem	-669
▁end	-670
▁ext	-671
▁set	-672
▁you	-673
ually	-674
ution	-675
▁char	-676
▁germ	-677
▁long	-678
ically	-679
▁began	-680
▁found	-681
▁large	-682
▁popul	-683
▁sever	-684
▁contin	-685
▁school	-686
▁system	-687
▁against	-688
gr	-689
li	-690
ss	-691
abl	-692
aly	-693
enc	-694
oss	-695
ted	-696
uch	-697
ves	-698
ames	-699
ants	-700
lear	-701
▁cur	-702
▁def	-703
▁dep	-704
▁dif	-705
▁emp	-706
▁ent	-707
▁get	-708
▁leg	-709
▁nat	-710
▁pri	-711
anish	-712
conom	-713
ision	-714
▁area	-715
▁decl	-716
▁each	-717
▁form	-718
▁hand	-719
▁help	-720
▁lead	-721
▁open	-722
▁accord	-723
▁around	-724
▁econom	-725
▁establ	-726
▁market	-727
▁public	-728
▁region	-729
▁because	-730
▁million	-731
▁several	-732
▁through	-733
▁national	-734
gy	-735
als	-736
cto	-737
its	-738
jor	-739
rop	-740
way	-741
ason	-742
ince	-743
pect	-744
▁add	-745
▁alb	-746
▁ass	-747
▁lab	-748
▁occ	-749
▁tar	-750
aking	-751
ented	-752
ility	-753
ivers	-754
ology	-755
other	-756
ption	-757
▁disp	-758
▁gree	-759
▁much	-760
▁octo	-761
▁says	-762
▁tech	-763
▁then	-764
▁incre	-765
▁major	-766
▁offic	-767
▁while	-768
▁became	-769
▁german	-770
▁intern	-771
▁island	-772
▁police	-773
▁austral	-774
▁british	-775
▁history	-776
▁october	-777
▁republic	-778
▁political	-779
).	-780
6,	-781
az	-782
ug	-783
up	-784
ale	-785
alk	-786
arr	-787
ave	-788
hes	-789
ism	-790
rib	-791
▁ac	-792
▁bc	-793
▁ge	-794
▁ir	-795
▁my	-796
▁sw	-797
ange	-798
ania	-799
ered	-800
ible	-801
ives	-802
ters	-803
▁191	-804
▁bre	-805
▁chr	-806
▁dom	-807
▁fam	-808
▁fri	-809
▁fur	-810
▁hum	-811
▁low	-812
▁old	-813
▁put	-814
▁sec	-815
▁str	-816
▁sub	-817
ience	-818
orted	-819
▁army	-820
▁bank	-821
▁dist	-822
▁head	-823
▁inst	-824
▁life	-825
▁made	-826
▁rece	-827
▁rele	-828
▁show	-829
▁take	-830
ctions	-831
▁child	-832
▁diffe	-833
▁every	-834
▁secon	-835
▁start	-836
▁trump	-837
▁appear	-838
▁comple	-839
▁repres	-840
▁result	-841
▁allowed	-842
▁without	-843
▁american	-844
▁according	-845
5,	-846
ha	-847
je	-848
ls	-849
oy	-850
sc	-851
wh	-852
▁£	-853
ase	-854
ata	-855
ery	-856
ged	-857
hen	-858
hip	-859
inc	-860
iod	-861
man	-862
ney	-863
ains	-864
cent	-865
ient	-866
ivil	-867
ized	-868
rend	-869
ries	-870
ross	-871
ural	-872
▁bat	-873
▁big	-874
▁don	-875
▁equ	-876
▁far	-877
▁giv	-878
▁lat	-879
▁law	-880
▁loc	-881
▁mid	-882
▁sit	-883
▁soc	-884
▁sum	-885
anean	-886
ccess	-887
iterr	-888
ready	-889
▁best	-890
▁bill	-891
▁clim	-892
▁dest	-893
▁disc	-894
▁four	-895
▁mean	-896
▁name	-897
▁russ	-898
▁told	-899
▁very	-900
▁week	-901
aining	-902
▁belie	-903
▁civil	-904
▁emper	-905
▁exper	-906
▁later	-907
▁level	-908
▁since	-909
▁still	-910
▁techn	-911
▁those	-912
▁treat	-913
▁water	-914
▁friend	-915
▁number	-916
▁partic	-917
▁period	-918
▁record	-919
▁second	-920
▁social	-921
▁winter	-922
▁already	-923
▁company	-924
▁further	-925
▁general	-926
▁success	-927
▁election	-928
▁mediterr	-929
▁released	-930
▁mediterranean	-931
".	-932
),	-933
19	-934
60	-935
fl	-936
▁'	-937
aim	-938
air	-939
ble	-940
ere	-941
gin	-942
ilt	-943
int	-944
ner	-945
ont	-946
ual	-947
uck	-948
ute	-949
▁10	-950
▁el	-951
▁fl	-952
▁si	-953
▁sl	-954
ched	-955
ency	-956
ides	-957
ised	-958
itch	-959
lect	-960
lled	-961
mber	-962
most	-963
orts	-964
ried	-965
ured	-966
used	-967
ying	-968
▁age	-969
▁ant	-970
▁any	-971
▁bon	-972
▁bro	-973
▁bur	-974
▁bus	-975
▁cre	-976
▁deb	-977
▁imm	-978
▁mil	-979
▁our	-980
▁see	-981
▁use	-982
▁var	-983
▁way	-984
▁why	-985
ature	-986
ember	-987
iness	-988
wards	-989
▁able	-990
▁aver	-991
▁coun	-992
▁data	-993
▁even	-994
▁expl	-995
▁good	-996
▁keep	-997
▁king	-998
▁left	-999
▁news	-1000
▁pass	-1001
▁pers	-1002
▁poss	-1003
▁prom	-1004
▁sout	-1005
▁term	-1006
▁thir	-1007
ential	-1008
▁afric	-1009
▁build	-1010
▁clear	-1011
▁colon	-1012
▁contr	-1013
▁event	-1014
▁known	-1015
▁often	-1016
▁produ	-1017
▁quest	-1018
▁stand	-1019
▁think	-1020
▁course	-1021
▁histor	-1022
▁recent	-1023
▁states	-1024
▁summer	-1025
▁worked	-1026
▁average	-1027
▁spanish	-1028
▁univers	-1029
▁investig	-1030
.”	-1031
1,	-1032
ae	-1033
ai	-1034
ck	-1035
ij	-1036
lt	-1037
tt	-1038
▁4	-1039
▁8	-1040
ape	-1041
ara	-1042
bal	-1043
ern	-1044
ffe	-1045
ick	-1046
min	-1047
ond	-1048
ots	-1049
ove	-1050
par	-1051
ril	-1052
son	-1053
une	-1054
unt	-1055
urs	-1056
▁14	-1057
▁15	-1058
▁gl	-1059
▁ru	-1060
▁sk	-1061
▁uk	-1062
ages	-1063
arch	-1064
atic	-1065
bers	-1066
cept	-1067
dern	-1068
hern	-1069
hing	-1070
ices	-1071
igin	-1072
lict	-1073
oman	-1074
ones	-1075
self	-1076
side	-1077
uary	-1078
▁197	-1079
▁adv	-1080
▁due	-1081
▁eas	-1082
▁ful	-1083
▁hop	-1084
▁lim	-1085
▁mus	-1086
▁oce	-1087
▁opp	-1088
▁pot	-1089
▁rad	-1090
▁rul	-1091
▁sal	-1092
▁sug	-1093
▁sus	-1094
▁ter	-1095
▁won	-1096
alled	-1097
allen	-1098
duced	-1099
epend	-1100
ights	-1101
ories	-1102
▁come	-1103
▁conc	-1104
▁cost	-1105
▁does	-1106
▁fore	-1107
▁free	-1108
▁hard	-1109
▁look	-1110
▁make	-1111
▁next	-1112
▁plan	-1113
▁real	-1114
▁resp	-1115
▁rich	-1116
▁same	-1117
▁spec	-1118
▁supp	-1119
▁agree	-1120
▁april	-1121
▁const	-1122
▁domin	-1123
▁early	-1124
▁given	-1125
▁least	-1126
▁party	-1127
▁revol	-1128
▁small	-1129
▁study	-1130
▁trade	-1131
ificant	-1132
imately	-1133
ruction	-1134
vention	-1135
▁access	-1136
▁change	-1137
▁christ	-1138
▁contro	-1139
▁france	-1140
▁growth	-1141
▁likely	-1142
▁modern	-1143
▁months	-1144
▁origin	-1145
▁america	-1146
▁decided	-1147
▁emperor	-1148
▁suggest	-1149
▁whether	-1150
▁business	-1151
▁conflict	-1152
▁independ	-1153
▁received	-1154
▁southern	-1155
▁agreement	-1156
▁following	-1157
▁including	-1158
▁investors	-1159
▁population	-1160
▁development	-1161
▁significant	-1162
7.	-1163
ax	-1164
ef	-1165
hn	-1166
me	-1167
yn	-1168
aff	-1169
ald	-1170
ama	-1171
aph	-1172
arm	-1173
arn	-1174
cil	-1175
dle	-1176
erv	-1177
flu	-1178
ger	-1179
led	-1180
ork	-1181
ple	-1182
rew	-1183
ues	-1184
ung	-1185
vir	-1186
xic	-1187
▁--	-1188
▁av	-1189
▁er	-1190
▁wr	-1191
alle	-1192
alth	-1193
atch	-1194
augh	-1195
gypt	-1196
ling	-1197
omet	-1198
ours	-1199
ouse	-1200
ular	-1201
vers	-1202
▁198	-1203
▁ach	-1204
▁ann	-1205
▁aud	-1206
▁aug	-1207
▁div	-1208
▁fed	-1209
▁fre	-1210
▁led	-1211
▁let	-1212
▁liv	-1213
▁mod	-1214
▁pat	-1215
▁pet	-1216
▁ref	-1217
▁run	-1218
▁say	-1219
▁sim	-1220
▁six	-1221
▁ste	-1222
▁tem	-1223
▁top	-1224
ament	-1225
erest	-1226
ified	-1227
illed	-1228
inese	-1229
thern	-1230
while	-1231
▁book	-1232
▁care	-1233
▁chur	-1234
▁clin	-1235
▁cult	-1236
▁date	-1237
▁educ	-1238
▁effe	-1239
▁find	-1240
▁hong	-1241
▁jour	-1242
▁kong	-1243
▁line	-1244
▁port	-1245
▁rese	-1246
▁rest	-1247
▁seem	-1248
▁song	-1249
▁star	-1250
▁stop	-1251
▁trad	-1252
▁vict	-1253
▁vote	-1254
▁wife	-1255
acedon	-1256
anuary	-1257
ending	-1258
ertain	-1259
iation	-1260
idered	-1261
▁along	-1262
▁among	-1263
▁begin	-1264
▁built	-1265
▁conqu	-1266
▁earli	-1267
▁egypt	-1268
▁euros	-1269
▁films	-1270
▁games	-1271
▁gener	-1272
▁greek	-1273
▁human	-1274
▁italy	-1275
▁liter	-1276
▁milit	-1277
▁mount	-1278
▁press	-1279
▁prote	-1280
▁right	-1281
▁river	-1282
ibility	-1283
ization	-1284
▁august	-1285
▁battle	-1286
▁become	-1287
▁border	-1288
▁empire	-1289
▁family	-1290
▁ground	-1291
▁having	-1292
▁health	-1293
▁indust	-1294
▁little	-1295
▁needed	-1296
▁rather	-1297
▁reason	-1298
▁russia	-1299
▁target	-1300
▁treaty	-1301
▁united	-1302
▁voting	-1303
▁capital	-1304
▁chinese	-1305
▁climate	-1306
▁country	-1307
▁current	-1308
▁increas	-1309
▁macedon	-1310
▁respons	-1311
▁working	-1312
▁declared	-1313
▁economic	-1314
▁european	-1315
▁northern	-1316
▁reported	-1317
▁companies	-1318
▁countries	-1319
▁different	-1320
▁tradition	-1321
▁considered	-1322
▁revolution	-1323
▁established	-1324
▁international	-1325
3,	-1326
3.	-1327
5.	-1328
bo	-1329
bs	-1330
by	-1331
dr	-1332
ec	-1333
go	-1334
mb	-1335
ms	-1336
pl	-1337
▁9	-1338
aps	-1339
ars	-1340
ash	-1341
bin	-1342
bur	-1343
com	-1344
eds	-1345
ges	-1346
ier	-1347
iet	-1348
igr	-1349
ime	-1350
ind	-1351
ino	-1352
ior	-1353
isl	-1354
lam	-1355
ler	-1356
loy	-1357
ody	-1358
ogr	-1359
ole	-1360
ops	-1361
pic	-1362
ret	-1363
str	-1364
tal	-1365
ubl	-1366
ued	-1367
uff	-1368
umb	-1369
ven	-1370
▁16	-1371
▁es	-1372
▁ii	-1373
▁je	-1374
▁ju	-1375
▁la	-1376
▁pa	-1377
aint	-1378
akes	-1379
amer	-1380
anes	-1381
angu	-1382
bean	-1383
ield	-1384
ills	-1385
ired	-1386
less	-1387
lied	-1388
pped	-1389
ring	-1390
rote	-1391
tely	-1392
ways	-1393
▁amb	-1394
▁aut	-1395
▁bar	-1396
▁cat	-1397
▁cor	-1398
▁det	-1399
▁eng	-1400
▁ess	-1401
▁few	-1402
▁flo	-1403
▁fun	-1404
▁gir	-1405
▁iss	-1406
▁ott	-1407
▁reb	-1408
▁sun	-1409
▁ten	-1410
▁tro	-1411
▁vis	-1412
aimed	-1413
iting	-1414
ively	-1415
olved	-1416
oseph	-1417
ously	-1418
rench	-1419
ustom	-1420
▁anim	-1421
▁came	-1422
▁coll	-1423
▁days	-1424
▁dece	-1425
▁deep	-1426
▁desc	-1427
▁fact	-1428
▁food	-1429
▁gold	-1430
▁june	-1431
▁meet	-1432
▁near	-1433
▁oper	-1434
▁priv	-1435
▁proc	-1436
▁publ	-1437
▁read	-1438
▁requ	-1439
▁seen	-1440
▁sold	-1441
▁sour	-1442
▁spok	-1443
▁stru	-1444
▁town	-1445
▁west	-1446
▁youn	-1447
ibbean	-1448
ishing	-1449
ission	-1450
ograph	-1451
▁appro	-1452
▁chang	-1453
▁class	-1454
▁coast	-1455
▁conne	-1456
▁court	-1457
▁cross	-1458
▁earth	-1459
▁front	-1460
▁influ	-1461
▁langu	-1462
▁liber	-1463
▁ocean	-1464
▁paris	-1465
▁parts	-1466
▁princ	-1467
▁roman	-1468
▁separ	-1469
▁somet	-1470
osition	-1471
▁africa	-1472
▁almost	-1473
▁always	-1474
▁cities	-1475
▁commun	-1476
▁custom	-1477
▁forced	-1478
▁former	-1479
▁french	-1480
▁inform	-1481
▁joseph	-1482
▁limits	-1483
▁living	-1484
▁middle	-1485
▁played	-1486
▁powers	-1487
▁should	-1488
▁territ	-1489
▁within	-1490
▁albania	-1491
▁another	-1492
▁britain	-1493
▁brought	-1494
▁challen	-1495
▁clinton	-1496
▁command	-1497
▁council	-1498
▁distric	-1499
▁earlier	-1500
▁federal	-1501
▁friends	-1502
▁january	-1503
▁percent	-1504
▁present	-1505
▁thought	-1506
▁underst	-1507
▁various	-1508
▁building	-1509
▁children	-1510
▁followed	-1511
▁interest	-1512
▁majority	-1513
▁minister	-1514
▁official	-1515
▁remained	-1516
▁returned	-1517
▁students	-1518
▁australia	-1519
▁meanwhile	-1520
▁completely	-1521
▁eventually	-1522
▁technology	-1523
▁throughout	-1524
▁transition	-1525
▁university	-1526
1.	-1527
20	-1528
30	-1529
bc	-1530
br	-1531
ca	-1532
lf	-1533
ma	-1534
ra	-1535
ua	-1536
ze	-1537
▁6	-1538
▁q	-1539
anc	-1540
app	-1541
ats	-1542
car	-1543
ele	-1544
ham	-1545
ned	-1546
ocr	-1547
ona	-1548
osp	-1549
roy	-1550
sol	-1551
tar	-1552
tic	-1553
yal	-1554
zer	-1555
▁13	-1556
▁17	-1557
▁kr	-1558
▁mr	-1559
▁ms	-1560
▁ur	-1561
abor	-1562
aces	-1563
ades	-1564
ails	-1565
aken	-1566
alys	-1567
ards	-1568
athe	-1569
ator	-1570
emen	-1571
face	-1572
fill	-1573
fort	-1574
istr	-1575
line	-1576
mark	-1577
olic	-1578
oney	-1579
reet	-1580
uted	-1581
view	-1582
▁ans	-1583
▁beh	-1584
▁blo	-1585
▁clo	-1586
▁cod	-1587
▁glo	-1588
▁hig	-1589
▁ide	-1590
▁iii	-1591
▁jap	-1592
▁mat	-1593
▁mem	-1594
▁mot	-1595
▁pal	-1596
▁pay	-1597
▁pen	-1598
▁san	-1599
▁sen	-1600
▁too	-1601
▁tre	-1602
▁tum	-1603
▁ult	-1604
▁und	-1605
▁val	-1606
▁vol	-1607
▁yet	-1608
5,000	-1609
acked	-1610
akers	-1611
ality	-1612
ances	-1613
anted	-1614
atory	-1615
cture	-1616
ended	-1617
ently	-1618
iding	-1619
ijing	-1620
ising	-1621
lands	-1622
ongol	-1623
onium	-1624
rence	-1625
royed	-1626
there	-1627
vious	-1628
▁alth	-1629
▁asia	-1630
▁away	-1631
▁camp	-1632
▁crit	-1633
▁down	-1634
▁east	-1635
▁enem	-1636
▁exec	-1637
▁expe	-1638
▁face	-1639
▁fall	-1640
▁fire	-1641
▁five	-1642
▁flow	-1643
▁geor	-1644
▁hero	-1645
▁john	-1646
▁july	-1647
▁know	-1648
▁leav	-1649
▁link	-1650
▁lord	-1651
▁main	-1652
▁male	-1653
▁mart	-1654
▁meas	-1655
▁nove	-1656
▁once	-1657
▁park	-1658
▁past	-1659
▁phot	-1660
▁qing	-1661
▁rate	-1662
▁refe	-1663
▁rise	-1664
▁sept	-1665
▁serv	-1666
▁shen	-1667
▁ship	-1668
▁sing	-1669
▁spot	-1670
▁step	-1671
▁surp	-1672
▁tool	-1673
▁view	-1674
▁writ	-1675
▁your	-1676
gether	-1677
iction	-1678
selves	-1679
uation	-1680
utions	-1681
▁above	-1682
▁admin	-1683
▁album	-1684
▁alone	-1685
▁bonds	-1686
▁canad	-1687
▁daugh	-1688
▁death	-1689
▁displ	-1690
▁examp	-1691
▁finan	-1692
▁islam	-1693
▁leave	-1694
▁local	-1695
▁lower	-1696
▁makes	-1697
▁mexic	-1698
▁might	-1699
▁money	-1700
▁morav	-1701
▁moved	-1702
▁occup	-1703
▁occur	-1704
▁organ	-1705
▁peace	-1706
▁point	-1707
▁reach	-1708
▁relig	-1709
▁short	-1710
▁shown	-1711
▁sites	-1712
▁space	-1713
▁spent	-1714
▁terms	-1715
▁third	-1716
▁times	-1717
▁total	-1718
▁union	-1719
▁using	-1720
▁whose	-1721
▁young	-1722
artment	-1723
mercial	-1724
▁artist	-1725
▁church	-1726
▁democr	-1727
▁design	-1728
▁disney	-1729
▁donald	-1730
▁entire	-1731
▁events	-1732
▁forces	-1733
▁global	-1734
▁greece	-1735
▁impact	-1736
▁import	-1737
▁instit	-1738
▁legisl	-1739
▁longer	-1740
▁making	-1741
▁mongol	-1742
▁office	-1743
▁person	-1744
▁proble	-1745
▁proper	-1746
▁review	-1747
▁scient	-1748
▁signed	-1749
▁temper	-1750
▁tumour	-1751
▁brother	-1752
▁certain	-1753
▁conserv	-1754
▁describ	-1755
▁effects	-1756
▁getting	-1757
▁greater	-1758
▁include	-1759
▁islands	-1760
▁natural	-1761
▁numbers	-1762
▁outside	-1763
▁pattern	-1764
▁perform	-1765
▁playing	-1766
▁someone	-1767
▁special	-1768
▁started	-1769
▁addition	-1770
▁although	-1771
▁appeared	-1772
▁audience	-1773
▁cloister	-1774
▁continue	-1775
▁contract	-1776
▁director	-1777
▁internet	-1778
▁military	-1779
▁november	-1780
▁polonium	-1781
▁resulted	-1782
▁together	-1783
▁beginning	-1784
▁destroyed	-1785
▁developed	-1786
▁interview	-1787
▁questions	-1788
▁september	-1789
▁australian	-1790
▁commercial	-1791
▁historical	-1792
▁macedonian	-1793
▁particular	-1794
▁themselves	-1795
▁destruction	-1796
▁information	-1797
▁represented	-1798
2.	-1799
4.	-1800
50	-1801
7,	-1802
8,	-1803
9,	-1804
bn	-1805
ik	-1806
kn	-1807
na	-1808
no	-1809
oh	-1810
sp	-1811
to	-1812
yc	-1813
yl	-1814
yp	-1815
ys	-1816
án	-1817
▁7	-1818
▁—	-1819
ban	-1820
bit	-1821
bon	-1822
bor	-1823
can	-1824
dom	-1825
emp	-1826
eng	-1827
gel	-1828
gen	-1829
hel	-1830
hib	-1831
hit	-1832
hor	-1833
iam	-1834
ift	-1835
ima	-1836
ins	-1837
iot	-1838
iqu	-1839
lev	-1840
lym	-1841
oes	-1842
off	-1843
ogn	-1844
olf	-1845
omp	-1846
pis	-1847
pre	-1848
set	-1849
soc	-1850
ube	-1851
ude	-1852
ugh	-1853
urp	-1854
xim	-1855
▁3%	-1856
▁50	-1857
▁fa	-1858
▁ic	-1859
▁py	-1860
▁ve	-1861
▁wa	-1862
▁£1	-1863
ably	-1864
ague	-1865
aign	-1866
aine	-1867
ales	-1868
ands	-1869
aret	-1870
asty	-1871
berg	-1872
cour	-1873
enty	-1874
erty	-1875
esha	-1876
ests	-1877
haps	-1878
hers	-1879
ican	-1880
igen	-1881
ille	-1882
imes	-1883
irth	-1884
itar	-1885
ivid	-1886
ject	-1887
king	-1888
kish	-1889
like	-1890
more	-1891
oked	-1892
omen	-1893
oric	-1894
orms	-1895
pite	-1896
rief	-1897
rupt	-1898
scar	-1899
ties	-1900
ucas	-1901
utes	-1902
wide	-1903
▁(19	-1904
▁100	-1905
▁149	-1906
▁188	-1907
▁192	-1908
▁aff	-1909
▁ago	-1910
▁anc	-1911
▁bad	-1912
▁bbc	-1913
▁ben	-1914
▁bog	-1915
▁bud	-1916
▁cal	-1917
▁cop	-1918
▁cut	-1919
▁dyn	-1920
▁eit	-1921
▁fav	-1922
▁fel	-1923
▁fut	-1924
▁har	-1925
▁hit	-1926
▁hom	-1927
▁jew	-1928
▁jud	-1929
▁kil	-1930
▁men	-1931
▁mur	-1932
▁net	-1933
▁obs	-1934
▁pap	-1935
▁pil	-1936
▁ram	-1937
▁red	-1938
▁sam	-1939
▁sol	-1940
▁tit	-1941
▁tra	-1942
▁tur	-1943
▁ven	-1944
▁wat	-1945
aemen	-1946
aging	-1947
andid	-1948
araoh	-1949
artph	-1950
assad	-1951
bitat	-1952
eland	-1953
ences	-1954
erred	-1955
error	-1956
estic	-1957
gress	-1958
iable	-1959
itchc	-1960
light	-1961
lying	-1962
ondon	-1963
ounts	-1964
stone	-1965
tario	-1966
vered	-1967
virke	-1968
▁1960	-1969
▁ages	-1970
▁alph	-1971
▁balk	-1972
▁born	-1973
▁capt	-1974
▁case	-1975
▁cele	-1976
▁cell	-1977
▁coal	-1978
▁cond	-1979
▁dane	-1980
▁deal	-1981
▁defe	-1982
▁didn	-1983
▁died	-1984
▁dies	-1985
▁earn	-1986
▁emer	-1987
▁ener	-1988
▁enro	-1989
▁epis	-1990
▁espe	-1991
▁exce	-1992
▁forg	-1993
▁full	-1994
▁game	-1995
▁golf	-1996
▁grew	-1997
▁grou	-1998
▁here	-1999
▁home	-2000
▁iron	-2001
▁kore	-2002
▁late	-2003
▁laun	-2004
▁less	-2005
▁love	-2006
▁lung	-2007
▁mass	-2008
▁mess	-2009
▁moon	-2010
▁must	-2011
▁olym	-2012
▁pred	-2013
▁prim	-2014
▁prot	-2015
▁purp	-2016
▁purs	-2017
▁race	-2018
▁raff	-2019
▁reve	-2020
▁rome	-2021
▁rona	-2022
▁rout	-2023
▁sail	-2024
▁seas	-2025
▁self	-2026
▁send	-2027
▁sent	-2028
▁swit	-2029
▁tell	-2030
▁turn	-2031
▁upon	-2032
▁vers	-2033
▁vill	-2034
▁wind	-2035
▁york	-2036
aching	-2037
action	-2038
ailing	-2039
alysis	-2040
arring	-2041
atives	-2042
cepted	-2043
cially	-2044
ducing	-2045
ellion	-2046
ension	-2047
ensive	-2048
ention	-2049
ession	-2050
estern	-2051
icians	-2052
idence	-2053
istant	-2054
itions	-2055
laimed	-2056
onment	-2057
rences	-2058
urally	-2059
▁adver	-2060
▁assoc	-2061
▁birth	-2062
▁blunt	-2063
▁bound	-2064
▁brief	-2065
▁camer	-2066
▁champ	-2067
▁close	-2068
▁drama	-2069
▁eight	-2070
▁elect	-2071
▁estim	-2072
▁field	-2073
▁final	-2074
▁force	-2075
▁grand	-2076
▁grown	-2077
▁guide	-2078
▁heart	-2079
▁helps	-2080
▁herod	-2081
▁hours	-2082
▁house	-2083
▁ident	-2084
▁intro	-2085
▁issue	-2086
▁kesha	-2087
▁labor	-2088
▁legal	-2089
▁light	-2090
▁lived	-2091
▁mater	-2092
▁media	-2093
▁model	-2094
▁music	-2095
▁needs	-2096
▁never	-2097
▁offer	-2098
▁opium	-2099
▁order	-2100
▁plant	-2101
▁pract	-2102
▁prior	-2103
▁royal	-2104
▁schol	-2105
▁secur	-2106
▁seems	-2107
▁seven	-2108
▁spain	-2109
▁story	-2110
▁surve	-2111
▁taken	-2112
▁tried	-2113
▁urban	-2114
▁women	-2115
▁worst	-2116
▁wrote	-2117
aemenid	-2118
agement	-2119
igenous	-2120
▁agency	-2121
▁agents	-2122
▁announ	-2123
▁attend	-2124
▁better	-2125
▁candid	-2126
▁carbon	-2127
▁career	-2128
▁chance	-2129
▁consum	-2130
▁create	-2131
▁critic	-2132
▁danish	-2133
▁debate	-2134
▁either	-2135
▁employ	-2136
▁estate	-2137
▁expect	-2138
▁formed	-2139
▁higher	-2140
▁immigr	-2141
▁indian	-2142
▁killed	-2143
▁latest	-2144
▁levels	-2145
▁london	-2146
▁nature	-2147
▁opened	-2148
▁others	-2149
▁recogn	-2150
▁rights	-2151
▁senate	-2152
▁series	-2153
▁specif	-2154
▁spokes	-2155
▁spring	-2156
▁street	-2157
▁strong	-2158
▁taking	-2159
▁things	-2160
▁transp	-2161
▁troops	-2162
▁withdr	-2163
▁account	-2164
▁actions	-2165
▁biggest	-2166
▁charact	-2167
▁charged	-2168
▁concern	-2169
▁content	-2170
▁contrib	-2171
▁defence	-2172
▁despite	-2173
▁discuss	-2174
▁dynasty	-2175
▁economy	-2176
▁foreign	-2177
▁forward	-2178
▁fulfill	-2179
▁germany	-2180
▁growing	-2181
▁habitat	-2182
▁helping	-2183
▁himself	-2184
▁journey	-2185
▁largely	-2186
▁markets	-2187
▁married	-2188
▁moravia	-2189
▁morning	-2190
▁olympic	-2191
▁ontario	-2192
▁ottoman	-2193
▁paralle	-2194
▁perhaps	-2195
▁pharaoh	-2196
▁portion	-2197
▁princip	-2198
▁private	-2199
▁regions	-2200
▁richard	-2201
▁smartph	-2202
▁station	-2203
▁stories	-2204
▁support	-2205
▁surface	-2206
▁towards	-2207
▁victory	-2208
▁weather	-2209
▁workers	-2210
▁written	-2211
ification	-2212
▁actually	-2213
▁ambassad	-2214
▁campaign	-2215
▁canadian	-2216
▁daughter	-2217
▁december	-2218
▁decision	-2219
▁defeated	-2220
▁directed	-2221
▁egyptian	-2222
▁industry	-2223
▁language	-2224
▁launched	-2225
▁material	-2226
▁mongolia	-2227
▁officers	-2228
▁possible	-2229
▁pressure	-2230
▁problems	-2231
▁rafferty	-2232
▁administr	-2233
▁assistant	-2234
▁caribbean	-2235
▁christian	-2236
▁conquered	-2237
▁danevirke	-2238
▁described	-2239
▁education	-2240
▁essential	-2241
▁establish	-2242
▁financial	-2243
▁important	-2244
▁increases	-2245
▁published	-2246
▁rebellion	-2247
▁religious	-2248
▁sometimes	-2249
▁territory	-2250
▁achaemenid	-2251
▁appearance	-2252
▁businesses	-2253
▁convention	-2254
▁department	-2255
▁especially	-2256
▁indigenous	-2257
▁republican	-2258
▁successful	-2259
▁ultimately	-2260
▁investments	-2261
▁independence	-2262
▁specifically	-2263
▁responsibility	-2264
..	-2265
16	-2266
33	-2267
4,	-2268
9.	-2269
ee	-2270
fr	-2271
gg	-2272
ka	-2273
ks	-2274
nn	-2275
rd	-2276
ti	-2277
-19	-2278
...	-2279
aan	-2280
acy	-2281
ado	-2282
alf	-2283
anz	-2284
apt	-2285
asm	-2286
aud	-2287
aut	-2288
avy	-2289
bby	-2290
bed	-2291
cca	-2292
ead	-2293
edi	-2294
edy	-2295
ema	-2296
ets	-2297
gar	-2298
ico	-2299
ics	-2300
ief	-2301
iev	-2302
iff	-2303
ify	-2304
isb	-2305
ius	-2306
joy	-2307
ked	-2308
ley	-2309
lin	-2310
lov	-2311
mar	-2312
mit	-2313
nal	-2314
nes	-2315
new	-2316
nic	-2317
nry	-2318
oid	-2319
orn	-2320
ott	-2321
reg	-2322
rey	-2323
rie	-2324
sea	-2325
sec	-2326
tin	-2327
utm	-2328
wer	-2329
win	-2330
yer	-2331
▁1%	-2332
▁1,	-2333
▁33	-2334
▁36	-2335
▁ec	-2336
▁fu	-2337
▁hy	-2338
▁lu	-2339
▁ra	-2340
▁rh	-2341
▁sn	-2342
▁ti	-2343
▁vo	-2344
,000	-2345
abet	-2346
acks	-2347
agal	-2348
ainy	-2349
akia	-2350
aled	-2351
apid	-2352
auty	-2353
avid	-2354
body	-2355
burg	-2356
ches	-2357
cket	-2358
duce	-2359
eded	-2360
ened	-2361
gram	-2362
haan	-2363
ibly	-2364
icip	-2365
icol	-2366
iday	-2367
ideo	-2368
iety	-2369
ilar	-2370
ilic	-2371
illy	-2372
inea	-2373
itan	-2374
ites	-2375
ival	-2376
ldom	-2377
ming	-2378
oons	-2379
ords	-2380
ores	-2381
orth	-2382
ouds	-2383
quar	-2384
ream	-2385
reme	-2386
rial	-2387
rich	-2388
rise	-2389
semb	-2390
sequ	-2391
this	-2392
tled	-2393
uals	-2394
uffy	-2395
wers	-2396
work	-2397
ycle	-2398
year	-2399
▁177	-2400
▁183	-2401
▁194	-2402
▁195	-2403
▁abs	-2404
▁ale	-2405
▁arg	-2406
▁bab	-2407
▁bal	-2408
▁ban	-2409
▁bas	-2410
▁ber	-2411
▁che	-2412
▁cnn	-2413
▁cot	-2414
▁cou	-2415
▁cum	-2416
▁den	-2417
▁dev	-2418
▁die	-2419
▁dig	-2420
▁dri	-2421
▁dro	-2422
▁eff	-2423
▁fem	-2424
▁fig	-2425
▁fit	-2426
▁got	-2427
▁hol	-2428
▁hun	-2429
▁isn	-2430
▁jes	-2431
▁kip	-2432
▁las	-2433
▁lin	-2434
▁lot	-2435
▁mps	-2436
▁nam	-2437
▁non	-2438
▁ord	-2439
▁ori	-2440
▁pac	-2441
▁pig	-2442
▁pus	-2443
▁rac	-2444
▁sat	-2445
▁tal	-2446
▁tex	-2447
▁unc	-2448
▁usa	-2449
▁vig	-2450
0,000	-2451
acing	-2452
alter	-2453
anded	-2454
anese	-2455
arden	-2456
arent	-2457
aring	-2458
asion	-2459
board	-2460
enced	-2461
enses	-2462
ental	-2463
esses	-2464
ested	-2465
garet	-2466
ially	-2467
icial	-2468
illes	-2469
isted	-2470
itter	-2471
jects	-2472
olina	-2473
olves	-2474
oming	-2475
onstr	-2476
opher	-2477
othes	-2478
oting	-2479
place	-2480
ropol	-2481
ropri	-2482
round	-2483
rying	-2484
sized	-2485
solve	-2486
thing	-2487
tonio	-2488
umbus	-2489
under	-2490
unity	-2491
vings	-2492
ximum	-2493
▁2013	-2494
▁alps	-2495
▁amaz	-2496
▁arri	-2497
▁body	-2498
▁bogd	-2499
▁burg	-2500
▁call	-2501
▁card	-2502
▁cast	-2503
▁cath	-2504
▁comb	-2505
▁dead	-2506
▁done	-2507
▁draw	-2508
▁easy	-2509
▁ever	-2510
▁feel	-2511
▁fell	-2512
▁fine	-2513
▁girl	-2514
▁guys	-2515
▁happ	-2516
▁held	-2517
▁hill	-2518
▁hope	-2519
▁hosp	-2520
▁idea	-2521
▁init	-2522
▁inqu	-2523
▁jasm	-2524
▁kill	-2525
▁lack	-2526
▁list	-2527
▁mach	-2528
▁maya	-2529
▁mind	-2530
▁mish	-2531
▁miss	-2532
▁mult	-2533
▁note	-2534
▁opin	-2535
▁outp	-2536
▁paul	-2537
▁phil	-2538
▁pict	-2539
▁plat	-2540
▁poin	-2541
▁prec	-2542
▁prem	-2543
▁prof	-2544
▁prop	-2545
▁rare	-2546
▁remo	-2547
▁role	-2548
▁roma	-2549
▁rule	-2550
▁seek	-2551
▁shot	-2552
▁side	-2553
▁site	-2554
▁soon	-2555
▁stat	-2556
▁surg	-2557
▁susp	-2558
▁swed	-2559
▁tall	-2560
▁text	-2561
▁thai	-2562
▁thom	-2563
▁trib	-2564
▁trou	-2565
▁tues	-2566
▁uber	-2567
▁unit	-2568
▁walk	-2569
▁went	-2570
antage	-2571
atever	-2572
atures	-2573
called	-2574
contin	-2575
earing	-2576
elines	-2577
ellect	-2578
entino	-2579
isbane	-2580
isions	-2581
makers	-2582
mother	-2583
ocking	-2584
orship	-2585
ricult	-2586
ructed	-2587
thouse	-2588
ucasus	-2589
utmose	-2590
vering	-2591
▁1492,	-2592
▁2014.	-2593
▁2015,	-2594
▁agent	-2595
▁alarm	-2596
▁alive	-2597
▁areas	-2598
▁assum	-2599
▁athen	-2600
▁based	-2601
▁behav	-2602
▁benef	-2603
▁blame	-2604
▁blood	-2605
▁books	-2606
▁brand	-2607
▁bring	-2608
▁broke	-2609
▁canal	-2610
▁capit	-2611
▁chape	-2612
▁chose	-2613
▁claim	-2614
▁colle	-2615
▁conte	-2616
▁costs	-2617
▁defin	-2618
▁disco	-2619
▁doesn	-2620
▁dress	-2621
▁drink	-2622
▁enjoy	-2623
▁envir	-2624
▁exact	-2625
▁exped	-2626
▁famil	-2627
▁fault	-2628
▁fight	-2629
▁freed	-2630
▁frequ	-2631
▁funds	-2632
▁guard	-2633
▁hands	-2634
▁henry	-2635
▁hills	-2636
▁hopes	-2637
▁india	-2638
▁khaan	-2639
▁lobby	-2640
▁march	-2641
▁means	-2642
▁names	-2643
▁nicol	-2644
▁oscar	-2645
▁papua	-2646
▁photo	-2647
▁plans	-2648
▁posts	-2649
▁price	-2650
▁reput	-2651
▁ruler	-2652
▁rules	-2653
▁saint	-2654
▁seeds	-2655
▁shows	-2656
▁stead	-2657
▁throw	-2658
▁title	-2659
▁trend	-2660
▁trial	-2661
▁vague	-2662
▁video	-2663
▁voice	-2664
▁watch	-2665
▁weeks	-2666
▁wheel	-2667
▁works	-2668
fiction	-2669
hington	-2670
itation	-2671
lovakia	-2672
mission	-2673
ography	-2674
viously	-2675
zerland	-2676
▁across	-2677
▁advert	-2678
▁affair	-2679
▁allies	-2680
▁altern	-2681
▁appeal	-2682
▁approx	-2683
▁assemb	-2684
▁austri	-2685
▁author	-2686
▁beauty	-2687
▁belief	-2688
▁belong	-2689
▁borrow	-2690
▁called	-2691
▁caused	-2692
▁celebr	-2693
▁clouds	-2694
▁combin	-2695
▁coming	-2696
▁common	-2697
▁compet	-2698
▁cotton	-2699
▁deeply	-2700
▁depend	-2701
▁desert	-2702
▁desire	-2703
▁diesel	-2704
▁distin	-2705
▁emails	-2706
▁encour	-2707
▁energy	-2708
▁episod	-2709
▁execut	-2710
▁father	-2711
▁future	-2712
▁gained	-2713
▁garden	-2714
▁groups	-2715
▁guinea	-2716
▁hitchc	-2717
▁immedi	-2718
▁income	-2719
▁incred	-2720
▁itself	-2721
▁korean	-2722
▁lasted	-2723
▁latter	-2724
▁looked	-2725
▁mainly	-2726
▁martin	-2727
▁mexico	-2728
▁mother	-2729
▁murder	-2730
▁nether	-2731
▁option	-2732
▁overse	-2733
▁parade	-2734
▁plants	-2735
▁primar	-2736
▁prompt	-2737
▁really	-2738
▁reform	-2739
▁remark	-2740
▁report	-2741
▁rocket	-2742
▁seagal	-2743
▁season	-2744
▁secure	-2745
▁shared	-2746
▁skills	-2747
▁source	-2748
▁spread	-2749
▁stated	-2750
▁strugg	-2751
▁sunday	-2752
▁tariff	-2753
▁terror	-2754
▁thirty	-2755
▁thrace	-2756
▁threat	-2757
▁travel	-2758
▁trying	-2759
▁unlike	-2760
▁volcan	-2761
▁wanted	-2762
▁wonder	-2763
▁wright	-2764
gressive	-2765
isations	-2766
rounding	-2767
starring	-2768
▁african	-2769
▁ancient	-2770
▁animals	-2771
▁answers	-2772
▁antonio	-2773
▁appears	-2774
▁applied	-2775
▁artists	-2776
▁beijing	-2777
▁believe	-2778
▁briefly	-2779
▁central	-2780
▁changed	-2781
▁clearly	-2782
▁constit	-2783
▁contact	-2784
▁control	-2785
▁created	-2786
▁decline	-2787
▁digital	-2788
▁divided	-2789
▁dropped	-2790
▁eastern	-2791
▁element	-2792
▁enemies	-2793
▁england	-2794
▁example	-2795
▁exposed	-2796
▁express	-2797
▁extreme	-2798
▁feature	-2799
▁finally	-2800
▁founded	-2801
▁iceland	-2802
▁individ	-2803
▁instead	-2804
▁islamic	-2805
▁jasmine	-2806
▁journal	-2807
▁kipling	-2808
▁leaving	-2809
▁located	-2810
▁looking	-2811
▁maximum	-2812
▁meaning	-2813
▁members	-2814
▁mishima	-2815
▁musical	-2816
▁nations	-2817
▁pacific	-2818
▁parties	-2819
▁peoples	-2820
▁popular	-2821
▁prevent	-2822
▁process	-2823
▁produce	-2824
▁program	-2825
▁provide	-2826
▁purpose	-2827
▁refused	-2828
▁remains	-2829
▁reports	-2830
▁respect	-2831
▁russian	-2832
▁science	-2833
▁service	-2834
▁similar	-2835
▁sources	-2836
▁subject	-2837
▁surrend	-2838
▁suspect	-2839
▁systems	-2840
▁tallest	-2841
▁tuesday	-2842
▁turkish	-2843
▁twitter	-2844
▁unclear	-2845
▁usually	-2846
▁version	-2847
▁visited	-2848
ropolitan	-2849
▁accepted	-2850
▁accounts	-2851
▁agricult	-2852
▁alphabet	-2853
▁analysis	-2854
▁aviation	-2855
▁bankrupt	-2856
▁brisbane	-2857
▁carolina	-2858
▁catholic	-2859
▁champion	-2860
▁collabor	-2861
▁colonies	-2862
▁columbus	-2863
▁comments	-2864
▁composed	-2865
▁consumer	-2866
▁contains	-2867
▁contrace	-2868
▁demonstr	-2869
▁dissolve	-2870
▁district	-2871
▁electric	-2872
▁hospital	-2873
▁included	-2874
▁increase	-2875
▁interior	-2876
▁involved	-2877
▁involves	-2878
▁japanese	-2879
▁landmark	-2880
▁margaret	-2881
▁mountain	-2882
▁parallel	-2883
▁position	-2884
▁produced	-2885
▁question	-2886
▁reducing	-2887
▁research	-2888
▁revealed	-2889
▁scholars	-2890
▁security	-2891
▁spending	-2892
▁starting	-2893
▁suggests	-2894
▁thinking	-2895
▁thutmose	-2896
▁training	-2897
▁whatever	-2898
▁winstone	-2899
▁withdraw	-2900
▁announced	-2901
▁criticism	-2902
▁customers	-2903
▁districts	-2904
▁hitchcock	-2905
▁influence	-2906
▁initially	-2907
▁institute	-2908
▁intellect	-2909
▁naturally	-2910
▁particles	-2911
▁potential	-2912
▁presented	-2913
▁relations	-2914
▁remaining	-2915
▁represent	-2916
▁spokesman	-2917
▁therefore	-2918
▁transform	-2919
▁valentino	-2920
▁workplace	-2921
▁worldwide	-2922
▁challenges	-2923
▁commission	-2924
▁controlled	-2925
▁experience	-2926
▁increasing	-2927
▁industrial	-2928
▁introduced	-2929
▁literature	-2930
▁proclaimed	-2931
▁protection	-2932
▁provisions	-2933
▁represents	-2934
▁reputation	-2935
▁scientists	-2936
▁smartphone	-2937
▁understand	-2938
▁understood	-2939
▁washington	-2940
▁association	-2941
▁christopher	-2942
▁differences	-2943
▁environment	-2944
▁grandmother	-2945
▁immediately	-2946
▁independent	-2947
▁legislation	-2948
▁netherlands	-2949
▁performance	-2950
▁recognition	-2951
▁surrounding	-2952
▁switzerland	-2953
▁traditional	-2954
▁agricultural	-2955
▁developments	-2956
▁intervention	-2957
▁metropolitan	-2958
▁particularly	-2959
▁approximately	-2960
▁investigating	-2961
▁investigation	-2962
",	-2963
0%	-2964
10	-2965
5-	-2966
94	-2967
gl	-2968
jm	-2969
my	-2970
nd	-2971
ny	-2972
of	-2973
ov	-2974
rr	-2975
zl	-2976
zá	-2977
1.4	-2978
1.5	-2979
19,	-2980
adr	-2981
ael	-2982
akh	-2983
amm	-2984
ano	-2985
arc	-2986
aro	-2987
asa	-2988
asc	-2989
asg	-2990
awn	-2991
aya	-2992
bot	-2993
boy	-2994
but	-2995
cce	-2996
cel	-2997
cen	-2998
chu	-2999
de	-3000
ez	-3001
fc	-3002
hi	-3003
sh	-3004
tr	-3005
ann	-3006
cri	-3007
den	-3008
dro	-3009
eas	-3010
ect	-3011
een	-3012
egr	-3013
els	-3014
emy	-3015
ene	-3016
eou	-3017
ett	-3018
hab	-3019
han	-3020
het	-3021
hod	-3022
hot	-3023
hum	-3024
ias	-3025
icy	-3026
ida	-3027
iji	-3028
ils	-3029
ipp	-3030
ira	-3031
iri	-3032
isf	-3033
key	-3034
let	-3035
mbl	-3036
not	-3037
occ	-3038
oen	-3039
oll	-3040
oln	-3041
oma	-3042
oon	-3043
opp	-3044
orc	-3045
pap	-3046
pay	-3047
por	-3048
rog	-3049
ros	-3050
roz	-3051
sat	-3052
sts	-3053
tre	-3054
uce	-3055
uge	-3056
uit	-3057
ull	-3058
ums	-3059
urb	-3060
val	-3061
war	-3062
who	-3063
xed	-3064
yle	-3065
zes	-3066
▁11	-3067
▁21	-3068
▁45	-3069
▁53	-3070
▁90	-3071
▁di	-3072
▁fi	-3073
▁ga	-3074
▁ho	-3075
▁ol	-3076
▁os	-3077
▁sy	-3078
▁tv	-3079
▁yu	-3080
▁ze	-3081
▁£7	-3082
aded	-3083
agan	-3084
aker	-3085
alid	-3086
alry	-3087
amin	-3088
anco	-3089
apse	-3090
aska	-3091
ayer	-3092
azil	-3093
back	-3094
book	-3095
chat	-3096
comm	-3097
core	-3098
ctic	-3099
'.	-3100
32	-3101
ya	-3102
ena	-3103
lta	-3104
ope	-3105
pey	-3106
ris	-3107
uke	-3108
ula	-3109
xit	-3110
▁12	-3111
▁cu	-3112
aean	-3113
aged	-3114
alin	-3115
anta	-3116
arty	-3117
bots	-3118
cked	-3119
drin	-3120
eing	-3121
enda	-3122
ense	-3123
eouf	-3124
esar	-3125
fasc	-3126
ford	-3127
gree	-3128
greg	-3129
hara	-3130
here	-3131
hold	-3132
icro	-3133
ieve	-3134
iliz	-3135
inet	-3136
ipul	-3137
ique	-3138
isis	-3139
ison	-3140
itiz	-3141
itor	-3142
korn	-3143
lain	-3144
leet	-3145
lein	-3146
lift	-3147
miss	-3148
mone	-3149
ndar	-3150
ocum	-3151
ogan	-3152
omin	-3153
onal	-3154
onne	-3155
onze	-3156
onzá	-3157
ored	-3158
oret	-3159
oted	-3160
ouch	-3161
ouis	-3162
over	-3163
oyne	-3164
phas	-3165
reco	-3166
reed	-3167
resh	-3168
selm	-3169
uish	-3170
ults	-3171
unar	-3172
unta	-3173
urie	-3174
west	-3175
writ	-3176
xand	-3177
ysts	-3178
zech	-3179
zens	-3180
▁...	-3181
▁107	-3182
▁156	-3183
▁16,	-3184
▁185	-3185
▁30,	-3186
▁31,	-3187
▁330	-3188
▁500	-3189
▁ang	-3190
▁bul	-3191
▁cha	-3192
▁cin	-3193
▁cir	-3194
▁cle	-3195
▁cow	-3196
▁cup	-3197
▁dan	-3198
▁dar	-3199
eth	-3200
ize	-3201
los	-3202
mog	-3203
mus	-3204
rol	-3205
ths	-3206
uct	-3207
▁ba	-3208
▁mc	-3209
▁vi	-3210
▁vw	-3211
gers	-3212
gian	-3213
ires	-3214
onom	-3215
oper	-3216
rena	-3217
tles	-3218
usal	-3219
utri	-3220
yang	-3221
▁cab	-3222
▁cub	-3223
▁ded	-3224
▁del	-3225
▁der	-3226
▁din	-3227
▁dna	-3228
▁era	-3229
▁erd	-3230
▁eth	-3231
▁exc	-3232
▁fif	-3233
▁god	-3234
▁gop	-3235
▁hon	-3236
▁hus	-3237
▁inj	-3238
▁inn	-3239
▁jer	-3240
▁jim	-3241
▁job	-3242
▁jol	-3243
▁jut	-3244
▁key	-3245
▁lad	-3246
▁lam	-3247
▁lay	-3248
▁len	-3249
▁lev	-3250
▁lif	-3251
▁mel	-3252
▁mer	-3253
▁mun	-3254
▁nap	-3255
▁neg	-3256
▁pan	-3257
▁pom	-3258
▁pra	-3259
▁pun	-3260
▁pup	-3261
▁ran	-3262
▁ren	-3263
▁sic	-3264
▁son	-3265
▁tax	-3266
▁tes	-3267
▁typ	-3268
▁ukr	-3269
▁unb	-3270
▁une	-3271
▁ver	-3272
▁via	-3273
▁vul	-3274
▁zay	-3275
▁zod	-3276
ademy	-3277
adesh	-3278
adrid	-3279
affic	-3280
alano	-3281
alley	-3282
ancis	-3283
andal	-3284
archy	-3285
astic	-3286
ators	-3287
based	-3288
burgh	-3289
ctive	-3290
eding	-3291
elect	-3292
eliev	-3293
elled	-3294
empts	-3295
ening	-3296
ering	-3297
erous	-3298
ersed	-3299
uv	-3300
”.	-3301
iac	-3302
iao	-3303
lez	-3304
mon	-3305
que	-3306
vie	-3307
▁iv	-3308
▁pu	-3309
arez	-3310
bish	-3311
ighb	-3312
lass	-3313
last	-3314
ness	-3315
nish	-3316
ocus	-3317
oles	-3318
onic	-3319
vive	-3320
wise	-3321
▁190	-3322
▁196	-3323
▁20,	-3324
▁alv	-3325
▁dil	-3326
▁hot	-3327
▁jul	-3328
▁log	-3329
▁pel	-3330
▁squ	-3331
▁sud	-3332
antly	-3333
curie	-3334
endit	-3335
erson	-3336
fered	-3337
field	-3338
geron	-3339
ickly	-3340
ients	-3341
iment	-3342
inary	-3343
inery	-3344
ingen	-3345
ional	-3346
ipped	-3347
itchy	-3348
itive	-3349
itude	-3350
ivity	-3351
known	-3352
laced	-3353
lines	-3354
lobin	-3355
mical	-3356
neath	-3357
oking	-3358
oleon	-3359
omans	-3360
ompan	-3361
onent	-3362
orial	-3363
osits	-3364
otten	-3365
owman	-3366
pania	-3367
paper	-3368
party	-3369
plete	-3370
redit	-3371
roved	-3372
rozen	-3373
scape	-3374
selmi	-3375
south	-3376
state	-3377
teers	-3378
thmus	-3379
tress	-3380
uated	-3381
urday	-3382
urned	-3383
urred	-3384
ustic	-3385
utely	-3386
ville	-3387
wered	-3388
worth	-3389
▁1912	-3390
▁1916	-3391
▁1970	-3392
▁1980	-3393
▁1990	-3394
▁1991	-3395
▁2004	-3396
▁2008	-3397
▁2016	-3398
▁2017	-3399
-£	-3400
6%	-3401
af	-3402
sar	-3403
acts	-3404
empt	-3405
hist	-3406
icle	-3407
oned	-3408
rate	-3409
urer	-3410
▁187	-3411
▁cav	-3412
▁lag	-3413
▁mag	-3414
▁meg	-3415
▁saf	-3416
▁von	-3417
ackle	-3418
ansas	-3419
asgow	-3420
avity	-3421
icine	-3422
itage	-3423
llers	-3424
lling	-3425
orary	-3426
riage	-3427
▁2010	-3428
▁adds	-3429
▁adop	-3430
▁aged	-3431
▁alle	-3432
▁anal	-3433
▁andy	-3434
▁anne	-3435
▁apul	-3436
▁arab	-3437
▁arch	-3438
▁arid	-3439
▁bapt	-3440
▁barr	-3441
▁bass	-3442
▁blin	-3443
▁blog	-3444
▁blow	-3445
▁budd	-3446
▁cape	-3447
▁caus	-3448
▁cens	-3449
▁chat	-3450
▁circ	-3451
▁clos	-3452
▁club	-3453
▁code	-3454
▁cool	-3455
▁crop	-3456
▁cuba	-3457
▁dark	-3458
▁debt	-3459
▁diff	-3460
▁doss	-3461
▁drop	-3462
▁duke	-3463
▁dust	-3464
▁ecos	-3465
▁edge	-3466
▁edin	-3467
▁evac	-3468
▁exch	-3469
▁feas	-3470
▁felt	-3471
▁fert	-3472
▁flic	-3473
▁flor	-3474
▁ford	-3475
▁fuel	-3476
▁fund	-3477
▁give	-3478
▁goal	-3479
▁guid	-3480
▁hair	-3481
▁half	-3482
▁hall	-3483
▁harm	-3484
▁hold	-3485
▁hort	-3486
▁host	-3487
▁hour	-3488
▁hous	-3489
▁huge	-3490
▁imag	-3491
▁insp	-3492
▁jews	-3493
▁jobs	-3494
▁join	-3495
▁jump	-3496
▁kare	-3497
▁kept	-3498
▁khit	-3499
▁28	-3500
▁31	-3501
▁34	-3502
erry	-3503
▁row	-3504
ailis	-3505
erved	-3506
going	-3507
▁cors	-3508
▁grad	-3509
▁grie	-3510
▁horm	-3511
▁knew	-3512
▁lear	-3513
▁leng	-3514
▁liao	-3515
▁ligh	-3516
▁linc	-3517
▁live	-3518
▁lose	-3519
▁lost	-3520
▁luck	-3521
▁mere	-3522
▁mich	-3523
▁mild	-3524
▁mojm	-3525
▁mood	-3526
▁myst	-3527
▁narr	-3528
▁nile	-3529
▁nine	-3530
▁ones	-3531
▁pain	-3532
▁pair	-3533
▁palm	-3534
▁peak	-3535
▁pebe	-3536
▁poll	-3537
▁pope	-3538
▁pugh	-3539
▁rail	-3540
▁ramb	-3541
▁rang	-3542
▁rast	-3543
▁reco	-3544
▁resc	-3545
▁rhet	-3546
▁rift	-3547
▁room	-3548
▁ruin	-3549
▁safe	-3550
▁sami	-3551
▁sara	-3552
▁scri	-3553
▁seat	-3554
▁sens	-3555
▁silt	-3556
▁slav	-3557
▁soft	-3558
▁stab	-3559
▁tact	-3560
▁tail	-3561
▁talk	-3562
▁teac	-3563
▁team	-3564
▁tele	-3565
▁tens	-3566
▁tina	-3567
▁tiss	-3568
▁trix	-3569
▁unco	-3570
▁unus	-3571
▁vast	-3572
▁wall	-3573
▁wang	-3574
▁want	-3575
▁webs	-3576
▁wide	-3577
▁wild	-3578
▁wine	-3579
▁wood	-3580
▁word	-3581
▁yuan	-3582
▁£760	-3583
aanite	-3584
ancing	-3585
arctic	-3586
assing	-3587
atolog	-3588
bility	-3589
cement	-3590
commun	-3591
ducted	-3592
encing	-3593
engers	-3594
ferent	-3595
fortun	-3596
govern	-3597
ground	-3598
hering	-3599
icient	-3600
idency	-3601
ifying	-3602
ighted	-3603
ightly	-3604
ilding	-3605
ilizer	-3606
illery	-3607
insula	-3608
ipment	-3609
isfied	-3610
iverse	-3611
llment	-3612
loving	-3613
onding	-3614
otsman	-3615
places	-3616
rendum	-3617
retary	-3618
ricone	-3619
rights	-3620
romise	-3621
ulated	-3622
urance	-3623
ursday	-3624
xander	-3625
▁1770,	-3626
▁1832,	-3627
▁1911,	-3628
▁1914,	-3629
▁2010,	-3630
▁2011,	-3631
▁2012,	-3632
▁2017.	-3633
▁aband	-3634
▁accur	-3635
▁added	-3636
▁anaya	-3637
▁andes	-3638
▁apply	-3639
▁argue	-3640
▁armed	-3641
▁asked	-3642
▁award	-3643
▁below	-3644
▁black	-3645
▁block	-3646
▁board	-3647
▁bonus	-3648
▁break	-3649
▁cause	-3650
▁ceded	-3651
▁cells	-3652
▁chief	-3653
▁chris	-3654
▁citiz	-3655
▁color	-3656
▁comes	-3657
▁czech	-3658
▁david	-3659
▁delta	-3660
▁disas	-3661
▁docum	-3662
▁dream	-3663
▁duffy	-3664
▁elite	-3665
▁emerg	-3666
▁enemy	-3667
▁equal	-3668
▁exhib	-3669
▁exist	-3670
▁faced	-3671
▁fewer	-3672
▁fleet	-3673
▁flood	-3674
▁focus	-3675
▁frank	-3676
▁fresh	-3677
▁gathe	-3678
▁geyer	-3679
▁girls	-3680
▁goals	-3681
▁gonzá	-3682
▁goods	-3683
▁grade	-3684
▁grain	-3685
▁grave	-3686
▁heavy	-3687
▁hemog	-3688
▁herzl	-3689
▁hydro	-3690
▁inapp	-3691
▁james	-3692
▁japan	-3693
▁jesus	-3694
▁karel	-3695
▁kings	-3696
▁klein	-3697
▁krist	-3698
▁label	-3699
▁lands	-3700
▁latin	-3701
▁laugh	-3702
▁learn	-3703
▁leive	-3704
▁litre	-3705
▁lives	-3706
▁louis	-3707
▁loved	-3708
▁lunar	-3709
▁males	-3710
▁marco	-3711
▁marks	-3712
▁mayor	-3713
▁medal	-3714
▁meiji	-3715
▁metro	-3716
▁multi	-3717
▁mycen	-3718
▁named	-3719
▁night	-3720
▁nutri	-3721
▁obama	-3722
▁outer	-3723
▁penal	-3724
▁phoen	-3725
▁plane	-3726
▁plate	-3727
▁polls	-3728
▁ports	-3729
▁punta	-3730
▁pyong	-3731
▁radar	-3732
▁radio	-3733
▁rainy	-3734
▁rapid	-3735
▁recon	-3736
▁reign	-3737
▁relax	-3738
▁resol	-3739
▁rival	-3740
▁ruins	-3741
▁sahel	-3742
▁santa	-3743
▁scope	-3744
▁score	-3745
▁scott	-3746
▁shake	-3747
▁shape	-3748
▁shock	-3749
▁shoes	-3750
▁signs	-3751
▁silic	-3752
▁spart	-3753
▁speak	-3754
▁spons	-3755
▁stage	-3756
▁stock	-3757
▁stood	-3758
▁stopp	-3759
▁style	-3760
▁succe	-3761
▁super	-3762
▁suspe	-3763
▁table	-3764
▁tarlo	-3765
▁telev	-3766
▁texts	-3767
▁theme	-3768
▁thous	-3769
▁today	-3770
▁tools	-3771
▁tourn	-3772
▁tower	-3773
▁toxic	-3774
▁train	-3775
▁trave	-3776
▁trips	-3777
▁troub	-3778
▁usage	-3779
▁users	-3780
▁value	-3781
▁vigor	-3782
▁volun	-3783
▁votes	-3784
▁wants	-3785
▁waste	-3786
▁white	-3787
▁whole	-3788
▁witch	-3789
▁woman	-3790
▁worth	-3791
▁write	-3792
aborate	-3793
archers	-3794
athetic	-3795
beijing	-3796
berland	-3797
eastern	-3798
fascist	-3799
holders	-3800
ication	-3801
igation	-3802
ilities	-3803
illance	-3804
isation	-3805
issions	-3806
istance	-3807
istered	-3808
istical	-3809
lighted	-3810
orcycle	-3811
otional	-3812
western	-3813
winning	-3814
▁abbots	-3815
▁action	-3816
▁agreed	-3817
▁alaska	-3818
▁aldrin	-3819
▁allian	-3820
▁animal	-3821
▁annual	-3822
▁athens	-3823
▁attack	-3824
▁awards	-3825
▁babies	-3826
▁brazil	-3827
▁brexit	-3828
▁bronze	-3829
▁budget	-3830
▁burial	-3831
▁caesar	-3832
▁capita	-3833
▁carlos	-3834
▁carson	-3835
▁center	-3836
▁charge	-3837
▁claims	-3838
▁closed	-3839
▁combat	-3840
▁comedy	-3841
▁copies	-3842
▁copper	-3843
▁couple	-3844
▁crisis	-3845
▁danube	-3846
▁decade	-3847
▁decide	-3848
▁demand	-3849
▁detail	-3850
▁disapp	-3851
▁dozens	-3852
▁driver	-3853
▁effort	-3854
▁emphas	-3855
▁enjoys	-3856
▁enough	-3857
▁ethnic	-3858
▁expert	-3859
▁extent	-3860
▁fallen	-3861
▁favour	-3862
▁female	-3863
▁fights	-3864
▁frozen	-3865
▁gather	-3866
▁george	-3867
▁giving	-3868
▁golden	-3869
▁guitar	-3870
▁handle	-3871
▁hardly	-3872
▁highly	-3873
▁humans	-3874
▁integr	-3875
▁joliot	-3876
▁kadesh	-3877
▁kansas	-3878
▁knight	-3879
▁lamarr	-3880
▁leaves	-3881
▁letter	-3882
▁linked	-3883
▁madrid	-3884
▁mailis	-3885
▁manchu	-3886
▁margin	-3887
▁matter	-3888
▁member	-3889
▁meters	-3890
▁method	-3891
▁minist	-3892
▁mostly	-3893
▁moving	-3894
▁nation	-3895
▁native	-3896
▁neighb	-3897
▁norway	-3898
▁oceans	-3899
▁opport	-3900
▁orders	-3901
▁output	-3902
▁persec	-3903
▁philip	-3904
▁phones	-3905
▁pilots	-3906
▁placed	-3907
▁plenty	-3908
▁points	-3909
▁poland	-3910
▁policy	-3911
▁pompey	-3912
▁prayer	-3913
▁prepar	-3914
▁prizes	-3915
▁produc	-3916
▁punish	-3917
▁raised	-3918
▁reagan	-3919
▁rebels	-3920
▁reduce	-3921
▁regard	-3922
▁regret	-3923
▁relied	-3924
▁remove	-3925
▁rising	-3926
▁rivers	-3927
▁romans	-3928
▁routes	-3929
▁sahara	-3930
▁sailed	-3931
▁saying	-3932
▁seeing	-3933
▁seldom	-3934
▁select	-3935
▁served	-3936
▁serves	-3937
▁sevent	-3938
▁sicily	-3939
▁simple	-3940
▁single	-3941
▁spared	-3942
▁starts	-3943
▁storms	-3944
▁strain	-3945
▁studio	-3946
▁talent	-3947
▁theory	-3948
▁thomas	-3949
▁though	-3950
▁thrown	-3951
▁toward	-3952
▁tracks	-3953
▁twenty	-3954
▁valley	-3955
▁venice	-3956
▁verbal	-3957
▁victor	-3958
▁vision	-3959
▁warned	-3960
▁waters	-3961
▁zodiac	-3962
caucasus	-3963
domestic	-3964
electric	-3965
historic	-3966
itecture	-3967
mblances	-3968
minister	-3969
ographic	-3970
ompanied	-3971
quarters	-3972
reaching	-3973
ropriate	-3974
▁ability	-3975
▁academy	-3976
▁accused	-3977
▁achieve	-3978
▁airline	-3979
▁alvarez	-3980
▁anselmi	-3981
▁anticip	-3982
▁arrived	-3983
▁attempt	-3984
▁austria	-3985
▁balkans	-3986
▁battles	-3987
▁beliefs	-3988
▁benefit	-3989
▁billion	-3990
▁cabinet	-3991
▁carried	-3992
▁caution	-3993
▁cavalry	-3994
▁changes	-3995
▁chapels	-3996
▁claimed	-3997
▁clothes	-3998
▁coastal	-3999
▁colours	-4000
▁comfort	-4001
▁concept	-4002
▁concert	-4003
▁consequ	-4004
▁consult	-4005
▁contain	-4006
▁context	-4007
▁covered	-4008
▁crossed	-4009
▁culture	-4010
▁decades	-4011
▁dismiss	-4012
▁display	-4013
▁diverse	-4014
▁edition	-4015
▁equally	-4016
▁erdogan	-4017
▁experts	-4018
▁filming	-4019
▁finding	-4020
▁finnish	-4021
▁fishing	-4022
▁forgone	-4023
▁francis	-4024
▁glasgow	-4025
▁gravity	-4026
▁healthy	-4027
▁holiday	-4028
▁housing	-4029
▁impacts	-4030
▁implied	-4031
▁invalid	-4032
▁isthmus	-4033
▁jutting	-4034
▁kingdom	-4035
▁labeouf	-4036
▁landing	-4037
▁largest	-4038
▁leaders	-4039
▁leading	-4040
▁legally	-4041
▁letters	-4042
▁lincoln	-4043
▁lowland	-4044
▁marched	-4045
▁measure	-4046
▁meeting	-4047
▁message	-4048
▁michael	-4049
▁mineral	-4050
▁minutes	-4051
▁nicolai	-4052
▁nothing	-4053
▁obvious	-4054
▁offered	-4055
▁officer	-4056
▁opinion	-4057
▁opposed	-4058
▁organiz	-4059
▁overall	-4060
▁passing	-4061
▁persist	-4062
▁posthum	-4063
▁predict	-4064
▁premium	-4065
▁product	-4066
▁protect	-4067
▁protest	-4068
▁pursued	-4069
▁quickly	-4070
▁radical	-4071
▁railway	-4072
▁receive	-4073
▁records	-4074
▁reduced	-4075
▁retreat	-4076
▁running	-4077
▁savings	-4078
▁scandal	-4079
▁section	-4080
▁secured	-4081
▁seeking	-4082
▁settled	-4083
▁shortly	-4084
▁sighted	-4085
▁sitting	-4086
▁skilled	-4087
▁species	-4088
▁spotify	-4089
▁staging	-4090
▁starlin	-4091
▁starred	-4092
▁stephen	-4093
▁studied	-4094
▁surgery	-4095
▁survive	-4096
▁suspend	-4097
▁swedish	-4098
▁theater	-4099
▁theoret	-4100
▁thunder	-4101
▁tissues	-4102
▁traffic	-4103
▁treated	-4104
▁turning	-4105
▁ukraine	-4106
▁variety	-4107
▁waiting	-4108
▁western	-4109
▁william	-4110
ationists	-4111
caribbean	-4112
elievable	-4113
enditures	-4114
ferential	-4115
governing	-4116
ominantly	-4117
▁accorded	-4118
▁americas	-4119
▁analysts	-4120
▁apparent	-4121
▁approach	-4122
▁artistic	-4123
▁assembly	-4124
▁attempts	-4125
▁augustus	-4126
▁becoming	-4127
▁behavior	-4128
▁believed	-4129
▁believes	-4130
▁billions	-4131
▁boundary	-4132
▁breaking	-4133
▁burgoyne	-4134
▁cameroun	-4135
▁captured	-4136
▁catalano	-4137
▁centered	-4138
▁chemical	-4139
▁churches	-4140
▁citizens	-4141
▁collapse	-4142
▁colonial	-4143
▁combined	-4144
▁contamin	-4145
▁controls	-4146
▁covering	-4147
▁cultures	-4148
▁defenses	-4149
▁deposits	-4150
▁directly	-4151
▁displays	-4152
▁domestic	-4153
▁dominant	-4154
▁earnings	-4155
▁educated	-4156
▁emperors	-4157
▁enrolled	-4158
▁entirely	-4159
▁episodes	-4160
▁equipped	-4161
▁everyone	-4162
▁evidence	-4163
▁examples	-4164
▁exchange	-4165
▁expected	-4166
▁expelled	-4167
▁facebook	-4168
▁families	-4169
▁features	-4170
▁fighting	-4171
▁finished	-4172
▁flicking	-4173
▁foremost	-4174
▁gathered	-4175
▁gonzález	-4176
▁governor	-4177
▁heritage	-4178
▁hispania	-4179
▁hormonal	-4180
▁humanity	-4181
▁improved	-4182
▁incident	-4183
▁includes	-4184
▁intended	-4185
▁invasion	-4186
▁judicial	-4187
▁learning	-4188
▁literary	-4189
▁measures	-4190
▁medicine	-4191
▁napoleon	-4192
▁numerous	-4193
▁nutrient	-4194
▁occupied	-4195
▁oriented	-4196
▁ottomans	-4197
▁overseas	-4198
▁particip	-4199
▁petition	-4200
▁pictures	-4201
▁platform	-4202
▁presides	-4203
▁princess	-4204
▁products	-4205
▁projects	-4206
▁promptly	-4207
▁proposed	-4208
▁protests	-4209
▁provided	-4210
▁provides	-4211
▁publicly	-4212
▁ramesses	-4213
▁reaction	-4214
▁referred	-4215
▁removing	-4216
▁replaced	-4217
▁requests	-4218
▁resolved	-4219
▁rhetoric	-4220
▁saturday	-4221
▁scotsman	-4222
▁separate	-4223
▁services	-4224
▁slightly	-4225
▁slovakia	-4226
▁speakers	-4227
▁standing	-4228
▁steadily	-4229
▁struggle	-4230
▁surprise	-4231
▁swearing	-4232
▁targeted	-4233
▁teachers	-4234
▁teaching	-4235
▁thursday	-4236
▁unlikely	-4237
ertainment	-4238
▁advantage	-4239
▁alexander	-4240
▁ambitions	-4241
▁americans	-4242
▁antarctic	-4243
▁artillery	-4244
▁attention	-4245
▁borrowing	-4246
▁canaanite	-4247
▁candidate	-4248
▁challenge	-4249
▁character	-4250
▁coalition	-4251
▁commander	-4252
▁community	-4253
▁completed	-4254
▁condition	-4255
▁conducted	-4256
▁confident	-4257
▁continent	-4258
▁continued	-4259
▁currently	-4260
▁democrats	-4261
▁directors	-4262
▁discontin	-4263
▁discussed	-4264
▁dominance	-4265
▁dominated	-4266
▁ecosystem	-4267
▁edinburgh	-4268
▁elaborate	-4269
▁encourage	-4270
▁endurance	-4271
▁equipment	-4272
▁estimated	-4273
▁estimates	-4274
▁exception	-4275
▁executive	-4276
▁explained	-4277
▁extension	-4278
▁forgotten	-4279
▁gathering	-4280
▁hospitals	-4281
▁icelandic	-4282
▁increased	-4283
▁intention	-4284
▁interests	-4285
▁landscape	-4286
▁languages	-4287
▁lawmakers	-4288
▁liberties	-4289
▁lobbyists	-4290
▁machinery	-4291
▁modifying	-4292
▁morricone	-4293
▁mycenaean	-4294
▁newspaper	-4295
▁otherwise	-4296
▁peninsula	-4297
▁practices	-4298
▁primarily	-4299
▁privately	-4300
▁programme	-4301
▁provision	-4302
▁pyongyang	-4303
▁requested	-4304
▁sanctions	-4305
▁secondary	-4306
▁separated	-4307
▁something	-4308
▁standards	-4309
▁structure	-4310
▁suggested	-4311
▁technique	-4312
▁transport	-4313
▁wonderful	-4314
fortunately	-4315
▁abbotsford	-4316
▁afterwards	-4317
▁characters	-4318
▁climatolog	-4319
▁completing	-4320
▁compromise	-4321
▁connection	-4322
▁cumberland	-4323
▁democratic	-4324
▁discovered	-4325
▁empathetic	-4326
▁enrollment	-4327
▁evacuation	-4328
▁everything	-4329
▁expedition	-4330
▁experiment	-4331
▁explaining	-4332
▁fertilizer	-4333
▁frequently	-4334
▁friendship	-4335
▁generation	-4336
▁guidelines	-4337
▁hemoglobin	-4338
▁historians	-4339
▁identified	-4340
▁immigrants	-4341
▁incredible	-4342
▁influenced	-4343
▁investment	-4344
▁invitation	-4345
▁lighthouse	-4346
▁management	-4347
▁meaningful	-4348
▁motorcycle	-4349
▁occupation	-4350
▁originally	-4351
▁passengers	-4352
▁presidency	-4353
▁previously	-4354
▁production	-4355
▁profession	-4356
▁publishing	-4357
▁referendum	-4358
▁reportedly	-4359
▁resistance	-4360
▁scientific	-4361
▁socialists	-4362
▁supporting	-4363
▁surpassing	-4364
▁television	-4365
▁tournament	-4366
▁underneath	-4367
▁vigorously	-4368
▁volunteers	-4369
▁winterkorn	-4370
▁accompanied	-4371
▁advertising	-4372
▁alternative	-4373
▁ambassadors	-4374
▁authorities	-4375
▁communities	-4376
▁composition	-4377
▁constructed	-4378
▁distinction	-4379
▁furthermore	-4380
▁governments	-4381
▁individuals	-4382
▁interesting	-4383
▁interviewed	-4384
▁legislative	-4385
▁opportunity	-4386
▁persecution	-4387
▁possibility	-4388
▁potentially	-4389
▁prehistoric	-4390
▁progressive	-4391
▁researchers	-4392
▁responsible	-4393
▁sponsorship	-4394
▁surrendered	-4395
▁temperament	-4396
▁transported	-4397
▁underground	-4398
▁consequences	-4399
▁demonstrated	-4400
▁establishing	-4401
▁expenditures	-4402
▁headquarters	-4403
▁increasingly	-4404
▁intellectual	-4405
▁marketplaces	-4406
▁preferential	-4407
▁presidential	-4408
▁principality	-4409
▁relationship	-4410
▁resemblances	-4411
▁respectively	-4412
▁surveillance	-4413
▁unbelievable	-4414
▁urbanization	-4415
▁civilisations	-4416
▁contraception	-4417
▁contributions	-4418
▁entertainment	-4419
▁environmental	-4420
▁hydroelectric	-4421
▁inappropriate	-4422
▁predominantly	-4423
▁theoretically	-4424
▁understanding	-4425
▁classification	-4426
▁collaborations	-4427
-10	-4428
.5-	-4429
1-£	-4430
165	-4431
335	-4432
99.	-4433
fcs	-4434
hik	-4435
nov	-4436
rrh	-4437
▁71	-4438
-196	-4439
-197	-4440
-198	-4441
19,9	-4442
2016	-4443
50),	-4444
94).	-4445
anni	-4446
atán	-4447
bedd	-4448
ecel	-4449
elfr	-4450
eneu	-4451
glas	-4452
glom	-4453
ikai	-4454
rado	-4455
shak	-4456
ubei	-4457
ucca	-4458
uett	-4459
ulla	-4460
umov	-4461
yche	-4462
ylae	-4463
ylum	-4464
zett	-4465
áhor	-4466
▁1,3	-4467
▁40%	-4468
▁53%	-4469
▁70%	-4470
▁833	-4471
▁baj	-4472
▁hyp	-4473
▁kfc	-4474
▁kik	-4475
▁lux	-4476
▁osw	-4477
▁ouv	-4478
▁rsp	-4479
▁sán	-4480
▁veg	-4481
-1970	-4482
-1980	-4483
000-£	-4484
001-£	-4485
19,99	-4486
2016.	-4487
30-10	-4488
8,000	-4489
achel	-4490
adaan	-4491
annis	-4492
anzir	-4493
aptop	-4494
atoma	-4495
bably	-4496
celle	-4497
chief	-4498
cibly	-4499
-20	-4500
20.	-4501
30.	-4502
▁6%	-4503
▁62	-4504
-201	-4505
brid	-4506
emma	-4507
itra	-4508
lfri	-4509
mosp	-4510
otyp	-4511
prep	-4512
rael	-4513
solv	-4514
▁134	-4515
▁600	-4516
▁62%	-4517
▁700	-4518
▁830	-4519
-2014	-4520
andra	-4521
brace	-4522
cript	-4523
david	-4524
denum	-4525
eltic	-4526
enico	-4527
entee	-4528
ffrey	-4529
frast	-4530
gener	-4531
hibit	-4532
hiker	-4533
holic	-4534
hotha	-4535
iamon	-4536
icnic	-4537
idiot	-4538
iegel	-4539
iqued	-4540
knuck	-4541
levit	-4542
lliot	-4543
lrich	-4544
lshit	-4545
maker	-4546
north	-4547
occup	-4548
offsh	-4549
olmar	-4550
ordsm	-4551
osped	-4552
phrey	-4553
ppets	-4554
preme	-4555
racts	-4556
rique	-4557
ritti	-4558
rocca	-4559
rosos	-4560
roval	-4561
rrhus	-4562
scarf	-4563
shaky	-4564
stopp	-4565
taken	-4566
tenna	-4567
words	-4568
yalty	-4569
ylist	-4570
ángel	-4571
▁(191	-4572
▁1,36	-4573
▁1.5-	-4574
▁1200	-4575
▁1350	-4576
▁1492	-4577
▁1632	-4578
▁1777	-4579
▁1886	-4580
▁1904	-4581
▁1925	-4582
▁1933	-4583
▁1950	-4584
▁2050	-4585
▁3300	-4586
▁363.	-4587
▁alej	-4588
▁beno	-4589
▁coup	-4590
▁cuar	-4591
▁doll	-4592
▁gaul	-4593
▁gema	-4594
▁graf	-4595
▁haze	-4596
▁holy	-4597
▁hugh	-4598
▁husb	-4599
▁137	-4600
▁161	-4601
▁lah	-4602
lanes	-4603
prote	-4604
track	-4605
wrote	-4606
▁catf	-4607
▁engl	-4608
▁jeff	-4609
▁juan	-4610
▁kras	-4611
▁kven	-4612
▁levy	-4613
▁loll	-4614
▁luis	-4615
▁merd	-4616
▁miam	-4617
▁mund	-4618
▁noma	-4619
▁nude	-4620
▁pluv	-4621
▁pomp	-4622
▁pupp	-4623
▁roof	-4624
▁samn	-4625
▁sams	-4626
▁siri	-4627
▁sony	-4628
▁suez	-4629
▁sánc	-4630
▁talm	-4631
▁tenn	-4632
▁tesl	-4633
▁ultr	-4634
▁unde	-4635
▁viol	-4636
▁watt	-4637
▁zeit	-4638
-1962,	-4639
19,999	-4640
5,000.	-4641
achida	-4642
adless	-4643
alterc	-4644
ambrid	-4645
amchat	-4646
arison	-4647
asurer	-4648
audens	-4649
bdenum	-4650
berius	-4651
bsburg	-4652
ctonic	-4653
earths	-4654
emming	-4655
employ	-4656
enberg	-4657
enseth	-4658
erberg	-4659
genies	-4660
gregor	-4661
hanced	-4662
hanzir	-4663
heless	-4664
ialize	-4665
iences	-4666
intado	-4667
iquity	-4668
issipp	-4669
itness	-4670
jadaan	-4671
laints	-4672
lassic	-4673
letion	-4674
levitt	-4675
lliott	-4676
mbolic	-4677
mitted	-4678
nesday	-4679
nowman	-4680
ocoons	-4681
ontvie	-4682
oppers	-4683
opylae	-4684
ouglas	-4685
preced	-4686
preted	-4687
stands	-4688
thened	-4689
ucatán	-4690
uctant	-4691
ucting	-4692
uettes	-4693
uppets	-4694
worthy	-4695
writer	-4696
ychell	-4697
áhorie	-4698
▁1,335	-4699
3.7	-4700
35.	-4701
oby	-4702
arsh	-4703
ashi	-4704
gesh	-4705
ieth	-4706
imea	-4707
inox	-4708
lcom	-4709
pret	-4710
suff	-4711
ugby	-4712
▁cec	-4713
▁£3,	-4714
103.7	-4715
chler	-4716
etime	-4717
icino	-4718
inded	-4719
oller	-4720
oyars	-4721
plane	-4722
uffed	-4723
▁atms	-4724
▁cash	-4725
▁diet	-4726
▁maps	-4727
▁mash	-4728
▁migr	-4729
▁vind	-4730
artime	-4731
binson	-4732
comers	-4733
coming	-4734
inoxes	-4735
lcomed	-4736
noyars	-4737
offset	-4738
xtieth	-4739
▁1075.	-4740
▁1492;	-4741
▁1519,	-4742
▁1530.	-4743
▁1610,	-4744
▁1879,	-4745
▁1882.	-4746
▁1887.	-4747
▁1903,	-4748
▁1917,	-4749
▁1926,	-4750
▁1945.	-4751
▁1948,	-4752
▁1955.	-4753
▁1960.	-4754
▁1961,	-4755
▁1969,	-4756
▁2001.	-4757
▁2002.	-4758
▁2007,	-4759
▁2014,	-4760
▁2035.	-4761
▁adopt	-4762
▁alpha	-4763
▁altar	-4764
▁angel	-4765
▁anshi	-4766
▁aquar	-4767
▁arrog	-4768
▁avoid	-4769
▁basin	-4770
▁basis	-4771
▁boats	-4772
▁booby	-4773
▁branc	-4774
▁bruce	-4775
▁buena	-4776
▁calif	-4777
▁campb	-4778
▁capua	-4779
▁cecel	-4780
▁chaos	-4781
▁cinem	-4782
▁codes	-4783
▁cools	-4784
▁corin	-4785
▁cycle	-4786
▁decca	-4787
▁deeds	-4788
▁delhi	-4789
▁diess	-4790
▁drawn	-4791
▁edgar	-4792
▁energ	-4793
▁error	-4794
▁essay	-4795
▁extra	-4796
▁favou	-4797
▁feats	-4798
▁fifty	-4799
nox	-4800
▁avo	-4801
itled	-4802
▁1984	-4803
▁1987	-4804
▁1988	-4805
▁avro	-4806
▁erik	-4807
▁eros	-4808
▁mode	-4809
alleus	-4810
ledged	-4811
remark	-4812
ungary	-4813
▁1913,	-4814
▁1975.	-4815
▁1987.	-4816
▁2003,	-4817
▁2004.	-4818
▁crash	-4819
▁divor	-4820
▁fireb	-4821
▁firew	-4822
▁floor	-4823
▁flows	-4824
▁folks	-4825
▁gaunt	-4826
▁georg	-4827
▁gerry	-4828
▁gezer	-4829
▁glind	-4830
▁greet	-4831
▁group	-4832
▁harsh	-4833
▁highe	-4834
▁hilly	-4835
▁holly	-4836
▁homes	-4837
▁horte	-4838
▁hotel	-4839
▁hubei	-4840
▁husum	-4841
▁ideas	-4842
▁idiot	-4843
▁inhab	-4844
▁insat	-4845
▁irony	-4846
▁jeans	-4847
▁joked	-4848
▁judge	-4849
▁kilow	-4850
▁knott	-4851
▁korea	-4852
▁lasse	-4853
▁lasts	-4854
▁lenny	-4855
▁linds	-4856
▁links	-4857
▁loops	-4858
▁lucas	-4859
▁lungs	-4860
▁magma	-4861
▁maior	-4862
▁maker	-4863
▁match	-4864
▁megab	-4865
▁megar	-4866
▁memes	-4867
▁merch	-4868
▁meyer	-4869
▁motoc	-4870
▁murph	-4871
▁nitra	-4872
▁nonet	-4873
▁norma	-4874
▁obser	-4875
▁offsp	-4876
▁osbor	-4877
▁ouvri	-4878
▁paire	-4879
▁palma	-4880
▁parma	-4881
▁pelop	-4882
▁piety	-4883
▁piggy	-4884
▁plato	-4885
▁pluvi	-4886
▁portr	-4887
▁preca	-4888
▁prime	-4889
▁puert	-4890
▁races	-4891
▁raise	-4892
▁ready	-4893
▁rehab	-4894
▁renew	-4895
▁rests	-4896
▁robot	-4897
▁route	-4898
▁rugby	-4899
axy	-4900
uyn	-4901
ynt	-4902
▁7.	-4903
arna	-4904
heme	-4905
hnic	-4906
ifax	-4907
ynop	-4908
▁7.5	-4909
▁zex	-4910
alaxy	-4911
aphic	-4912
armed	-4913
arnak	-4914
axact	-4915
igger	-4916
moneg	-4917
oices	-4918
yntas	-4919
▁darn	-4920
▁tanz	-4921
▁zexu	-4922
alifax	-4923
arming	-4924
eremon	-4925
ervous	-4926
ethnic	-4927
ferred	-4928
giance	-4929
olades	-4930
phones	-4931
▁afflu	-4932
▁bruyn	-4933
▁comey	-4934
▁limit	-4935
▁looks	-4936
▁muses	-4937
▁oppos	-4938
▁realm	-4939
▁ruled	-4940
▁safeg	-4941
▁safer	-4942
▁salam	-4943
▁salas	-4944
▁sales	-4945
▁scrip	-4946
▁seats	-4947
▁sewer	-4948
▁shenz	-4949
▁shipb	-4950
▁simon	-4951
▁slavs	-4952
▁soils	-4953
▁solhe	-4954
▁solid	-4955
▁squad	-4956
▁stabb	-4957
▁steal	-4958
▁steel	-4959
▁steps	-4960
▁stole	-4961
▁stuff	-4962
▁surpr	-4963
▁synop	-4964
▁telek	-4965
▁tellt	-4966
▁tempe	-4967
▁tesla	-4968
▁texas	-4969
▁tough	-4970
▁towns	-4971
▁traum	-4972
▁trees	-4973
▁types	-4974
▁uneth	-4975
▁unnot	-4976
▁unoff	-4977
▁urged	-4978
▁venet	-4979
▁versa	-4980
▁veter	-4981
▁vivid	-4982
▁waits	-4983
▁wales	-4984
▁wildl	-4985
▁writh	-4986
▁wrong	-4987
▁ángel	-4988
25,000.	-4989
5,001-£	-4990
acturer	-4991
akhalin	-4992
aldives	-4993
alified	-4994
amental	-4995
amework	-4996
araging	-4997
ardoned	-4998
arsberg	-4999
rtt	-5000
▁42	-5001
▁49	-5002
▁80	-5003
▁9,	-5004
aurs	-5005
balt	-5006
erno	-5007
ltic	-5008
ttes	-5009
yond	-5010
▁120	-5011
▁15.	-5012
▁153	-5013
▁hij	-5014
aeans	-5015
amson	-5016
henck	-5017
ickel	-5018
inson	-5019
roots	-5020
udson	-5021
▁15.5	-5022
▁1538	-5023
▁aunt	-5024
▁bern	-5025
▁glor	-5026
▁gond	-5027
▁hack	-5028
▁hamm	-5029
▁petr	-5030
▁salz	-5031
accept	-5032
atican	-5033
celtic	-5034
kinson	-5035
osaurs	-5036
ursors	-5037
▁click	-5038
▁concl	-5039
▁glory	-5040
▁hunan	-5041
▁injur	-5042
▁ruper	-5043
▁shots	-5044
▁skill	-5045
▁stern	-5046
▁suffe	-5047
▁undes	-5048
antages	-5049
arettes	-5050
assonne	-5051
axactun	-5052
berlain	-5053
borough	-5054
carious	-5055
choking	-5056
classic	-5057
ctorial	-5058
culated	-5059
earldom	-5060
ensburg	-5061
ereotyp	-5062
etlands	-5063
frastru	-5064
gaudens	-5065
geronim	-5066
graphic	-5067
gregate	-5068
gthened	-5069
hitting	-5070
iamonds	-5071
idenced	-5072
iencing	-5073
igrated	-5074
ilicata	-5075
itarian	-5076
itaries	-5077
itchcra	-5078
january	-5079
lasting	-5080
lerance	-5081
lfriend	-5082
looking	-5083
married	-5084
mitting	-5085
monegas	-5086
mopylae	-5087
ometers	-5088
omplete	-5089
onicles	-5090
onomous	-5091
ositive	-5092
ospedal	-5093
ouchard	-5094
picious	-5095
ponding	-5096
pretent	-5097
ricanes	-5098
rospect	-5099
sae	-5100
▁11,	-5101
uency	-5102
vanni	-5103
▁anti	-5104
▁bono	-5105
▁slap	-5106
atched	-5107
course	-5108
esides	-5109
member	-5110
oussae	-5111
scured	-5112
▁antip	-5113
▁brook	-5114
▁debit	-5115
▁hides	-5116
▁keeps	-5117
▁lying	-5118
▁milan	-5119
▁movie	-5120
▁slate	-5121
▁tailb	-5122
iovanni	-5123
koussae	-5124
lectors	-5125
settled	-5126
snowman	-5127
stances	-5128
tailing	-5129
theless	-5130
tingham	-5131
tresses	-5132
ulously	-5133
umbashi	-5134
unglass	-5135
uscript	-5136
vailing	-5137
version	-5138
vialize	-5139
ylistic	-5140
▁advice	-5141
▁afford	-5142
▁agglom	-5143
▁albums	-5144
▁amarna	-5145
▁ancest	-5146
▁andino	-5147
▁antill	-5148
▁anyone	-5149
▁anyway	-5150
▁apulia	-5151
▁argued	-5152
▁assets	-5153
▁bachel	-5154
▁balked	-5155
▁baltic	-5156
▁banned	-5157
▁barrie	-5158
▁behalf	-5159
▁behind	-5160
▁berlin	-5161
▁bigger	-5162
▁births	-5163
▁blocks	-5164
▁bogart	-5165
▁brooks	-5166
▁buddha	-5167
▁buried	-5168
▁bursts	-5169
▁calend	-5170
▁cameos	-5171
▁cannot	-5172
▁causes	-5173
▁cecily	-5174
▁celtic	-5175
▁census	-5176
▁chapel	-5177
▁cheery	-5178
▁cinema	-5179
▁circum	-5180
▁claret	-5181
▁cobalt	-5182
▁corner	-5183
▁corpor	-5184
▁corres	-5185
▁counse	-5186
▁cowboy	-5187
▁credit	-5188
▁crying	-5189
▁cultic	-5190
▁darius	-5191
▁deceit	-5192
▁degree	-5193
▁deline	-5194
▁denver	-5195
▁detect	-5196
▁determ	-5197
▁diffic	-5198
▁dinner	-5199
360	-5200
▁60	-5201
360.	-5202
luck	-5203
pair	-5204
ront	-5205
ucks	-5206
▁10%	-5207
▁10-	-5208
inema	-5209
intin	-5210
umble	-5211
▁fair	-5212
▁farm	-5213
▁flap	-5214
▁situ	-5215
▁skyl	-5216
airman	-5217
cinema	-5218
entuck	-5219
listed	-5220
ooting	-5221
orized	-5222
ptying	-5223
recent	-5224
▁1879.	-5225
▁1928,	-5226
▁bills	-5227
▁ducks	-5228
▁flock	-5229
▁haute	-5230
▁isner	-5231
▁pilot	-5232
▁rhine	-5233
▁sudet	-5234
▁weekd	-5235
▁£360.	-5236
airment	-5237
entucky	-5238
intment	-5239
jeffrey	-5240
luckily	-5241
rendous	-5242
▁batter	-5243
▁billed	-5244
▁discom	-5245
▁divine	-5246
▁drinks	-5247
▁drones	-5248
▁drople	-5249
▁easing	-5250
▁editor	-5251
▁effect	-5252
▁embedd	-5253
▁encore	-5254
▁excell	-5255
▁except	-5256
▁excess	-5257
▁exclud	-5258
▁explan	-5259
▁explod	-5260
▁explor	-5261
▁factor	-5262
▁famili	-5263
▁farmer	-5264
▁fellow	-5265
▁figaro	-5266
▁figure	-5267
▁flames	-5268
▁flight	-5269
▁florid	-5270
▁flowed	-5271
▁forums	-5272
▁fourth	-5273
▁franco	-5274
▁fueled	-5275
▁galaxy	-5276
▁gamson	-5277
▁gaulle	-5278
▁genius	-5279
▁gently	-5280
▁glides	-5281
▁glinda	-5282
▁gloria	-5283
▁gondol	-5284
▁grainy	-5285
▁greeks	-5286
▁guards	-5287
▁harley	-5288
▁harmon	-5289
▁helena	-5290
▁heroin	-5291
▁holden	-5292
▁hoping	-5293
▁hopley	-5294
▁hudson	-5295
▁humble	-5296
▁hunted	-5297
▁immort	-5298
▁impreg	-5299
hoy	-5300
ghai	-5301
▁56%	-5302
▁ern	-5303
▁gez	-5304
▁irr	-5305
▁rsc	-5306
burse	-5307
ephen	-5308
hoyon	-5309
range	-5310
rible	-5311
ribut	-5312
scone	-5313
white	-5314
▁acid	-5315
▁brem	-5316
▁inje	-5317
▁irid	-5318
▁subd	-5319
▁£1.4	-5320
anghai	-5321
arters	-5322
ellery	-5323
hoyono	-5324
incide	-5325
ingsha	-5326
itters	-5327
opters	-5328
raging	-5329
▁5,000	-5330
▁banks	-5331
▁feder	-5332
▁fiore	-5333
▁headw	-5334
▁irrit	-5335
▁older	-5336
▁rains	-5337
▁subst	-5338
▁swath	-5339
imburse	-5340
ossible	-5341
ostered	-5342
ributor	-5343
stephen	-5344
▁anglic	-5345
▁bremen	-5346
▁ernest	-5347
▁gezira	-5348
▁incumb	-5349
▁infill	-5350
▁inquis	-5351
▁inside	-5352
▁insolv	-5353
▁inspir	-5354
▁insuff	-5355
▁issues	-5356
▁johnny	-5357
▁julian	-5358
▁juliet	-5359
▁khitan	-5360
▁kilter	-5361
▁kramer	-5362
▁ladder	-5363
▁larger	-5364
▁lennox	-5365
▁livest	-5366
▁locate	-5367
▁logist	-5368
▁lollip	-5369
▁looper	-5370
▁maglev	-5371
▁manner	-5372
▁mediev	-5373
▁mental	-5374
▁merely	-5375
▁milice	-5376
▁missed	-5377
▁mocked	-5378
▁models	-5379
▁monkey	-5380
▁morocc	-5381
▁naming	-5382
▁nearly	-5383
▁nobody	-5384
▁observ	-5385
▁online	-5386
▁oppose	-5387
▁oswald	-5388
▁overto	-5389
▁palmer	-5390
▁parent	-5391
▁patrol	-5392
▁persia	-5393
▁piqued	-5394
▁plains	-5395
▁planet	-5396
▁poised	-5397
▁precip	-5398
▁prepay	-5399
aza	-5400
azi	-5401
▁6,	-5402
aism	-5403
aits	-5404
thug	-5405
ugal	-5406
uier	-5407
valk	-5408
xism	-5409
▁yaz	-5410
azing	-5411
front	-5412
omery	-5413
tship	-5414
▁astr	-5415
▁garr	-5416
▁grop	-5417
▁nazi	-5418
▁redd	-5419
▁reje	-5420
enches	-5421
parent	-5422
season	-5423
stices	-5424
tified	-5425
valkar	-5426
▁1918,	-5427
▁1996,	-5428
▁6,000	-5429
▁alban	-5430
▁alger	-5431
▁chalk	-5432
▁dried	-5433
▁fifte	-5434
▁jason	-5435
▁plaza	-5436
▁stale	-5437
▁sulla	-5438
▁units	-5439
▁yazid	-5440
ability	-5441
chology	-5442
emption	-5443
ropical	-5444
▁albany	-5445
▁assass	-5446
▁assert	-5447
▁associ	-5448
▁brands	-5449
▁counts	-5450
▁gomery	-5451
▁gropes	-5452
▁labour	-5453
▁levies	-5454
▁morals	-5455
▁openly	-5456
▁prerog	-5457
▁prison	-5458
▁prohib	-5459
▁promin	-5460
▁propag	-5461
▁proxim	-5462
▁puerto	-5463
▁puppet	-5464
▁pushes	-5465
▁quoted	-5466
▁rachel	-5467
▁racial	-5468
▁racist	-5469
▁rambow	-5470
▁rastiz	-5471
▁reclam	-5472
▁recove	-5473
▁reddit	-5474
▁remedy	-5475
▁rental	-5476
▁rescue	-5477
▁revers	-5478
▁revolt	-5479
▁runner	-5480
▁runway	-5481
▁sacked	-5482
▁safegu	-5483
▁secret	-5484
▁seemed	-5485
▁serena	-5486
▁shenan	-5487
▁shikai	-5488
▁silica	-5489
▁skerry	-5490
▁slapst	-5491
▁sparta	-5492
▁specul	-5493
▁speeds	-5494
▁spoken	-5495
▁square	-5496
▁static	-5497
▁steady	-5498
▁sternl	-5499
ssi	-5500
grim	-5501
▁141	-5502
ichen	-5503
icken	-5504
inted	-5505
itted	-5506
ssaly	-5507
▁1415	-5508
▁degr	-5509
▁drew	-5510
▁entr	-5511
▁extr	-5512
▁loss	-5513
▁nato	-5514
▁onto	-5515
▁sett	-5516
▁yves	-5517
grated	-5518
ichenb	-5519
itants	-5520
liable	-5521
ointed	-5522
uclear	-5523
▁celeb	-5524
▁charg	-5525
▁enter	-5526
▁entry	-5527
▁essen	-5528
▁forms	-5529
▁parli	-5530
▁rossi	-5531
▁settl	-5532
▁tells	-5533
noyarsk	-5534
ographs	-5535
utional	-5536
▁amazed	-5537
▁breast	-5538
▁depart	-5539
▁entert	-5540
▁extend	-5541
▁extens	-5542
▁extrav	-5543
▁format	-5544
▁lahore	-5545
▁megrim	-5546
▁oblast	-5547
▁priest	-5548
▁stipul	-5549
▁stones	-5550
▁stored	-5551
▁stores	-5552
▁strate	-5553
▁stream	-5554
▁stuffy	-5555
▁suburb	-5556
▁sudden	-5557
▁summit	-5558
▁superv	-5559
▁survey	-5560
▁sweden	-5561
▁sánche	-5562
▁tackle	-5563
▁tailor	-5564
▁temple	-5565
▁tended	-5566
▁tennes	-5567
▁thirte	-5568
▁ticino	-5569
▁tients	-5570
▁tintin	-5571
▁tioman	-5572
▁tories	-5573
▁traces	-5574
▁trails	-5575
▁tribes	-5576
▁turned	-5577
▁ulrich	-5578
▁ultras	-5579
▁unless	-5580
▁uplift	-5581
▁useful	-5582
▁viable	-5583
▁victim	-5584
▁vulner	-5585
▁walter	-5586
▁winham	-5587
▁winner	-5588
▁wolmar	-5589
▁wooden	-5590
▁worthy	-5591
▁writer	-5592
▁yazidi	-5593
▁zayion	-5594
ackleton	-5595
actively	-5596
altering	-5597
amentary	-5598
american	-5599
4),	-5600
kug	-5601
tym	-5602
▁zo	-5603
54),	-5604
arko	-5605
enya	-5606
food	-5607
grat	-5608
soft	-5609
type	-5610
week	-5611
▁joe	-5612
▁obt	-5613
▁pae	-5614
▁rai	-5615
▁zer	-5616
▁zim	-5617
▁zoo	-5618
ainty	-5619
arkoz	-5620
kugaw	-5621
▁1994	-5622
▁1998	-5623
▁airp	-5624
▁bath	-5625
▁ends	-5626
▁etym	-5627
▁iran	-5628
▁oath	-5629
▁obes	-5630
▁poet	-5631
▁vein	-5632
▁wool	-5633
▁zero	-5634
▁zone	-5635
arkozy	-5636
athina	-5637
ceived	-5638
gratul	-5639
kugawa	-5640
ussian	-5641
▁1990,	-5642
▁1992,	-5643
▁1998.	-5644
▁autos	-5645
▁bread	-5646
▁crust	-5647
▁demol	-5648
▁forty	-5649
▁kenya	-5650
▁paeon	-5651
▁plano	-5652
▁reviv	-5653
▁spark	-5654
icating	-5655
inister	-5656
orities	-5657
russian	-5658
▁10,000	-5659
▁allows	-5660
▁canoes	-5661
▁colony	-5662
▁dollar	-5663
▁fought	-5664
▁nickel	-5665
▁passer	-5666
▁poetry	-5667
▁posted	-5668
▁salary	-5669
▁shockw	-5670
▁sister	-5671
▁zimmer	-5672
ammatory	-5673
answered	-5674
antastic	-5675
ashville	-5676
atically	-5677
canology	-5678
centrate	-5679
communal	-5680
communic	-5681
complete	-5682
cription	-5683
earldoms	-5684
ednesday	-5685
elfranco	-5686
emporary	-5687
ertified	-5688
estament	-5689
geronimo	-5690
icrosoft	-5691
ierarchy	-5692
imension	-5693
llingham	-5694
llingsha	-5695
marsberg	-5696
mosphere	-5697
offshore	-5698
ointment	-5699
20,	-5700
lyde	-5701
roco	-5702
wood	-5703
▁50;	-5704
▁cai	-5705
2,000	-5706
antee	-5707
erran	-5708
saint	-5709
▁capl	-5710
▁feli	-5711
▁nank	-5712
▁neck	-5713
▁rspb	-5714
▁serb	-5715
▁smar	-5716
▁smog	-5717
▁tons	-5718
▁untr	-5719
aceful	-5720
acroco	-5721
amples	-5722
errani	-5723
getown	-5724
igines	-5725
imited	-5726
ralian	-5727
rative	-5728
united	-5729
▁1820,	-5730
▁2000,	-5731
▁bloom	-5732
▁cairo	-5733
▁cares	-5734
▁clock	-5735
▁clyde	-5736
▁curio	-5737
▁romeo	-5738
▁smith	-5739
▁vital	-5740
▁walks	-5741
arantee	-5742
limited	-5743
redited	-5744
▁analys	-5745
▁backed	-5746
▁caplan	-5747
▁childb	-5748
▁crouch	-5749
▁errani	-5750
▁felipe	-5751
▁flying	-5752
▁lilles	-5753
▁provin	-5754
▁smarag	-5755
▁wished	-5756
acrococc	-5757
amchatka	-5758
olescent	-5759
onomical	-5760
orcement	-5761
origines	-5762
ormously	-5763
peaceful	-5764
phically	-5765
porating	-5766
reliable	-5767
renville	-5768
rmopylae	-5769
rogenies	-5770
rttember	-5771
ructions	-5772
solutely	-5773
tegrated	-5774
ucrative	-5775
udhoyono	-5776
uishable	-5777
umulated	-5778
urbished	-5779
ychelles	-5780
ychology	-5781
ysicians	-5782
zerainty	-5783
▁(1954),	-5784
▁(1994).	-5785
▁100,000	-5786
▁168,000	-5787
▁600,000	-5788
▁acutely	-5789
▁advance	-5790
▁affairs	-5791
▁afterno	-5792
▁alarmed	-5793
▁algeria	-5794
▁amyntas	-5795
▁annexed	-5796
▁antenna	-5797
▁antipas	-5798
▁anybody	-5799
6).	-5800
bec	-5801
hio	-5802
ixt	-5803
nio	-5804
46).	-5805
ebec	-5806
ilbe	-5807
pson	-5808
sixt	-5809
text	-5810
time	-5811
▁184	-5812
846).	-5813
ilbea	-5814
▁1000	-5815
▁1842	-5816
▁3000	-5817
▁abbe	-5818
▁belg	-5819
▁casa	-5820
▁ohio	-5821
ifacts	-5822
ressed	-5823
resses	-5824
ritten	-5825
▁abbey	-5826
▁activ	-5827
▁confu	-5828
▁drast	-5829
▁ennio	-5830
▁facts	-5831
▁fixed	-5832
▁maint	-5833
▁metal	-5834
▁potat	-5835
▁probe	-5836
▁renov	-5837
▁voter	-5838
duction	-5839
iansand	-5840
inately	-5841
marital	-5842
ressing	-5843
sixties	-5844
▁auster	-5845
▁clause	-5846
▁potato	-5847
▁quebec	-5848
▁voters	-5849
ilbeault	-5850
▁apulian	-5851
▁arrange	-5852
▁arrival	-5853
▁article	-5854
▁austerl	-5855
▁baptism	-5856
▁battery	-5857
▁beating	-5858
▁belgium	-5859
▁benches	-5860
▁bernard	-5861
▁besides	-5862
▁blinder	-5863
▁bloomed	-5864
▁bluffed	-5865
▁booming	-5866
▁borough	-5867
▁calling	-5868
▁capitol	-5869
▁capture	-5870
▁carries	-5871
▁causing	-5872
▁caustic	-5873
▁charles	-5874
▁chicken	-5875
▁choices	-5876
▁circuit	-5877
▁clients	-5878
▁climbed	-5879
▁cocoons	-5880
▁college	-5881
▁commons	-5882
▁commune	-5883
▁complet	-5884
▁conclus	-5885
▁confuse	-5886
▁connect	-5887
▁continu	-5888
▁corinth	-5889
▁corrado	-5890
▁corslet	-5891
▁counter	-5892
▁courant	-5893
▁cracked	-5894
▁crumble	-5895
▁darling	-5896
▁daytime	-5897
▁debated	-5898
▁declare	-5899
inks	-5900
told	-5901
▁boy	-5902
▁phr	-5903
▁pyj	-5904
▁rhs	-5905
arium	-5906
ascar	-5907
their	-5908
threw	-5909
▁2000	-5910
▁2005	-5911
▁2007	-5912
▁baby	-5913
▁boat	-5914
▁buck	-5915
▁dict	-5916
▁sink	-5917
▁unaw	-5918
antium	-5919
apting	-5920
bishop	-5921
▁1947.	-5922
▁artic	-5923
▁bloch	-5924
▁boost	-5925
▁botan	-5926
▁clash	-5927
▁congo	-5928
▁genet	-5929
▁larry	-5930
▁maybe	-5931
▁occas	-5932
▁playw	-5933
▁pyjam	-5934
▁wells	-5935
▁winds	-5936
ificial	-5937
tonight	-5938
zantium	-5939
▁andrew	-5940
▁attach	-5941
▁behavi	-5942
▁corona	-5943
▁extern	-5944
▁famine	-5945
▁nascar	-5946
▁newton	-5947
▁passed	-5948
▁player	-5949
▁pupils	-5950
▁struct	-5951
▁weller	-5952
ificates	-5953
occupies	-5954
▁alleged	-5955
▁deepest	-5956
▁defense	-5957
▁defined	-5958
▁definit	-5959
▁degener	-5960
▁demands	-5961
▁descend	-5962
▁desired	-5963
▁discour	-5964
▁disrupt	-5965
▁divides	-5966
▁douglas	-5967
▁drivers	-5968
▁drought	-5969
▁eliding	-5970
▁elliott	-5971
▁embrace	-5972
▁emerged	-5973
▁employs	-5974
▁engaged	-5975
▁enjoyed	-5976
▁enrique	-5977
▁entrust	-5978
▁episode	-5979
▁equator	-5980
▁exceeds	-5981
▁existed	-5982
▁explain	-5983
▁explode	-5984
▁failing	-5985
▁farmers	-5986
▁females	-5987
▁fifteen	-5988
▁fiorell	-5989
▁firebom	-5990
▁florida	-5991
▁fontvie	-5992
▁frankly	-5993
▁freedom	-5994
▁futures	-5995
▁garrard	-5996
▁genetic	-5997
▁geology	-5998
▁gilding	-5999
raw	-6000
angz	-6001
ella	-6002
film	-6003
rang	-6004
rawl	-6005
twin	-6006
▁buy	-6007
anger	-6008
angzh	-6009
ceded	-6010
geles	-6011
iciss	-6012
inise	-6013
olise	-6014
rengo	-6015
▁1600	-6016
▁bang	-6017
▁buen	-6018
▁este	-6019
▁feet	-6020
▁folk	-6021
▁hyst	-6022
▁mcne	-6023
▁mini	-6024
abella	-6025
aurent	-6026
cedure	-6027
herent	-6028
inrich	-6029
orters	-6030
ranged	-6031
renced	-6032
rities	-6033
twined	-6034
urrent	-6035
▁1997,	-6036
▁2012.	-6037
▁absur	-6038
▁appet	-6039
▁apple	-6040
▁arise	-6041
▁bangk	-6042
▁blast	-6043
▁caref	-6044
▁dates	-6045
▁impos	-6046
▁irish	-6047
▁loose	-6048
▁negan	-6049
▁potom	-6050
▁sails	-6051
▁schle	-6052
▁schul	-6053
angzhou	-6054
icissit	-6055
isement	-6056
perform	-6057
utinise	-6058
▁35,000	-6059
▁absurd	-6060
▁applic	-6061
▁asylum	-6062
▁begins	-6063
▁boeing	-6064
▁buenos	-6065
▁commut	-6066
▁consol	-6067
▁devout	-6068
▁fallon	-6069
▁hyster	-6070
▁induce	-6071
▁minare	-6072
▁molise	-6073
▁retail	-6074
▁schlei	-6075
▁sprawl	-6076
getation	-6077
pulously	-6078
rutinise	-6079
stranger	-6080
urrently	-6081
▁330,000	-6082
▁angeles	-6083
▁attacks	-6084
▁bangkok	-6085
▁derives	-6086
▁figures	-6087
▁glitchy	-6088
▁golfers	-6089
▁gondola	-6090
▁grafton	-6091
▁granted	-6092
▁grazing	-6093
▁greeted	-6094
▁grounds	-6095
▁guarded	-6096
▁guiding	-6097
▁hammers	-6098
▁handful	-6099
3.4	-6100
aily	-6101
osph	-6102
phur	-6103
3.45.	-6104
aches	-6105
inced	-6106
islav	-6107
itely	-6108
nings	-6109
phard	-6110
▁blur	-6111
▁cert	-6112
▁coin	-6113
▁fail	-6114
▁frag	-6115
▁gaud	-6116
▁poor	-6117
▁wake	-6118
▁wint	-6119
accent	-6120
ailand	-6121
arings	-6122
osphor	-6123
ources	-6124
ubious	-6125
ulphur	-6126
vinced	-6127
warmer	-6128
▁alert	-6129
▁clown	-6130
▁daily	-6131
▁defic	-6132
▁deser	-6133
▁euroz	-6134
▁fragr	-6135
▁proof	-6136
▁pupae	-6137
▁remis	-6138
▁slave	-6139
▁spite	-6140
▁trail	-6141
▁winst	-6142
accentu	-6143
achings	-6144
ectable	-6145
ennings	-6146
phardic	-6147
▁23.45.	-6148
▁sucked	-6149
▁taxpay	-6150
▁wholes	-6151
inations	-6152
osphorus	-6153
utations	-6154
▁adopted	-6155
▁alerted	-6156
▁catfish	-6157
▁coinage	-6158
▁deficit	-6159
▁deserts	-6160
▁dubious	-6161
▁educate	-6162
▁failure	-6163
▁headwat	-6164
▁hearing	-6165
▁hechler	-6166
▁herself	-6167
▁hijinks	-6168
▁hillary	-6169
▁honored	-6170
▁hortefe	-6171
▁humbleb	-6172
▁hungary	-6173
▁husband	-6174
▁idiotic	-6175
▁imports	-6176
▁impregn	-6177
▁indians	-6178
▁indones	-6179
▁injured	-6180
▁intense	-6181
▁invaded	-6182
▁johnson	-6183
▁judaism	-6184
▁justice	-6185
▁kenseth	-6186
▁khanzir	-6187
▁khitans	-6188
▁killing	-6189
▁kilowat	-6190
▁kristin	-6191
▁lagoons	-6192
▁laurent	-6193
▁leaking	-6194
▁lengths	-6195
▁liberal	-6196
▁limited	-6197
▁machine	-6198
▁malleus	-6199
aft	-6200
bul	-6201
owo	-6202
ply	-6203
rum	-6204
abri	-6205
ayal	-6206
down	-6207
idge	-6208
imum	-6209
ises	-6210
isms	-6211
nest	-6212
rina	-6213
uled	-6214
▁atl	-6215
▁eld	-6216
▁ros	-6217
▁wil	-6218
abowo	-6219
anbul	-6220
anite	-6221
ffred	-6222
nesty	-6223
ruled	-6224
sight	-6225
▁band	-6226
▁bump	-6227
▁crim	-6228
▁dean	-6229
▁hans	-6230
▁lina	-6231
▁mand	-6232
▁mest	-6233
▁nest	-6234
▁suff	-6235
▁wars	-6236
▁wilk	-6237
abrian	-6238
abrina	-6239
anisms	-6240
atists	-6241
ffredo	-6242
istina	-6243
ostrum	-6244
ptural	-6245
tanbul	-6246
zettel	-6247
▁1839,	-6248
▁1955,	-6249
▁1992.	-6250
▁banan	-6251
▁belgr	-6252
▁cumae	-6253
▁draft	-6254
▁elder	-6255
▁forth	-6256
▁greco	-6257
▁mandl	-6258
▁negot	-6259
▁peaks	-6260
▁staff	-6261
allions	-6262
ibingen	-6263
idental	-6264
ventful	-6265
▁atlant	-6266
▁bridge	-6267
▁conver	-6268
▁crimin	-6269
▁deploy	-6270
▁herber	-6271
▁marina	-6272
▁mestre	-6273
▁negoti	-6274
▁nestus	-6275
▁rosane	-6276
▁simply	-6277
▁suffer	-6278
▁vastly	-6279
▁wilkes	-6280
amatists	-6281
chanisms	-6282
ulptural	-6283
▁advises	-6284
▁amnesty	-6285
▁bananas	-6286
▁granite	-6287
▁herbert	-6288
▁linares	-6289
▁marengo	-6290
▁margins	-6291
▁marital	-6292
▁massive	-6293
▁matches	-6294
▁matters	-6295
▁medical	-6296
▁megabaz	-6297
▁melania	-6298
▁mexican	-6299
aig	-6300
ams	-6301
die	-6302
hir	-6303
uir	-6304
ush	-6305
adow	-6306
aiga	-6307
cous	-6308
esto	-6309
hirs	-6310
igal	-6311
iman	-6312
irit	-6313
orch	-6314
tter	-6315
utch	-6316
▁suk	-6317
after	-6318
ellig	-6319
emuir	-6320
igali	-6321
imanj	-6322
udeau	-6323
▁1858	-6324
▁ackn	-6325
▁boem	-6326
▁disb	-6327
▁kind	-6328
▁nary	-6329
▁penc	-6330
▁rasa	-6331
▁stir	-6332
ptives	-6333
tterly	-6334
▁brush	-6335
▁dutch	-6336
▁exams	-6337
▁sesto	-6338
▁taiga	-6339
▁torch	-6340
riemuir	-6341
▁acknow	-6342
▁boemer	-6343
▁canada	-6344
▁cuaron	-6345
▁debris	-6346
▁glenda	-6347
▁kigali	-6348
▁shadow	-6349
▁spirit	-6350
▁thanos	-6351
imanjaro	-6352
▁amazing	-6353
▁boundar	-6354
▁compete	-6355
▁evening	-6356
▁menhirs	-6357
▁militia	-6358
▁monarch	-6359
▁monitor	-6360
▁monthly	-6361
▁morocco	-6362
▁mounted	-6363
▁muppets	-6364
▁mystery	-6365
▁nanking	-6366
▁neglect	-6367
▁nervous	-6368
▁network	-6369
▁nicolas	-6370
▁nuclear	-6371
▁obesity	-6372
▁objects	-6373
▁oceanic	-6374
▁onboard	-6375
▁osborne	-6376
▁outpost	-6377
▁outputs	-6378
▁pelucca	-6379
▁petrass	-6380
▁philipp	-6381
▁phrased	-6382
▁picture	-6383
▁pintado	-6384
▁planned	-6385
▁plantag	-6386
▁plastic	-6387
▁players	-6388
▁pollack	-6389
▁pompous	-6390
▁possess	-6391
▁posters	-6392
▁postwar	-6393
▁potomac	-6394
▁praised	-6395
▁premier	-6396
▁pretext	-6397
▁project	-6398
▁protein	-6399
12	-6400
uk	-6401
12-	-6402
328	-6403
ims	-6404
itz	-6405
yuk	-6406
12-5	-6407
aden	-6408
ario	-6409
capp	-6410
cers	-6411
imen	-6412
iree	-6413
mith	-6414
tsch	-6415
▁lut	-6416
▁map	-6417
▁mum	-6418
▁nar	-6419
▁rum	-6420
▁saq	-6421
▁tin	-6422
▁upp	-6423
▁wip	-6424
12-51	-6425
akhon	-6426
asons	-6427
baden	-6428
sebot	-6429
uting	-6430
verly	-6431
▁(328	-6432
▁aims	-6433
▁brow	-6434
▁epic	-6435
▁inim	-6436
▁rena	-6437
▁save	-6438
▁tiny	-6439
▁zuck	-6440
12-511	-6441
capped	-6442
dbaden	-6443
enario	-6444
idents	-6445
▁bonap	-6446
▁deter	-6447
▁ended	-6448
▁faces	-6449
▁jesse	-6450
▁jimmy	-6451
▁mummy	-6452
▁owned	-6453
▁saqib	-6454
▁surge	-6455
▁upper	-6456
▁wiped	-6457
assebot	-6458
tschmer	-6459
▁browse	-6460
▁freshw	-6461
▁inimit	-6462
▁luther	-6463
▁motors	-6464
▁narrow	-6465
▁operas	-6466
▁procon	-6467
▁remain	-6468
▁rumors	-6469
▁string	-6470
▁walked	-6471
cassonne	-6472
hanakhon	-6473
ptionist	-6474
▁512-511	-6475
▁actress	-6476
▁beverly	-6477
▁cancers	-6478
▁cuticle	-6479
▁observe	-6480
▁procons	-6481
▁pushing	-6482
▁pyrrhus	-6483
▁quoting	-6484
▁rachida	-6485
▁railing	-6486
▁reasons	-6487
▁reconst	-6488
▁regards	-6489
▁regimen	-6490
▁reigned	-6491
▁related	-6492
▁remarks	-6493
▁removed	-6494
▁renaiss	-6495
▁resides	-6496
▁resting	-6497
▁results	-6498
▁retiree	-6499
.,	-6500
sl	-6501
iox	-6502
lle	-6503
olm	-6504
sid	-6505
sln	-6506
adiv	-6507
cher	-6508
hect	-6509
held	-6510
uend	-6511
uras	-6512
▁bce	-6513
▁bid	-6514
▁hep	-6515
▁hes	-6516
▁mir	-6517
ladiv	-6518
▁diox	-6519
▁dolm	-6520
▁foun	-6521
▁fsln	-6522
▁hepb	-6523
▁jail	-6524
▁nect	-6525
▁tort	-6526
arthed	-6527
hothai	-6528
oucher	-6529
sidies	-6530
uendos	-6531
urasia	-6532
▁1399.	-6533
▁adden	-6534
▁chaot	-6535
▁gives	-6536
▁hesit	-6537
▁mirac	-6538
▁remot	-6539
▁theat	-6540
▁tolle	-6541
▁troop	-6542
coholic	-6543
hectare	-6544
respect	-6545
▁addenb	-6546
▁declar	-6547
▁expand	-6548
▁horton	-6549
▁jerked	-6550
▁joined	-6551
▁laughs	-6552
▁nectar	-6553
▁pursue	-6554
▁remote	-6555
▁theatr	-6556
▁vladiv	-6557
ansfield	-6558
▁chaotic	-6559
▁cutting	-6560
▁dioxide	-6561
▁dolmens	-6562
▁eurasia	-6563
▁founder	-6564
▁hepburn	-6565
▁lindsay	-6566
▁miracle	-6567
▁reviews	-6568
▁romania	-6569
▁romanov	-6570
▁ruperts	-6571
▁sabrina	-6572
▁samnium	-6573
▁samples	-6574
▁samsung	-6575
▁schenck	-6576
▁scholar	-6577
▁schools	-6578
▁scritti	-6579
▁seasons	-6580
▁seconds	-6581
▁sellers	-6582
▁selling	-6583
▁serbian	-6584
▁serious	-6585
▁setback	-6586
▁sharing	-6587
▁signals	-6588
▁signify	-6589
▁silicon	-6590
▁singing	-6591
▁skylark	-6592
▁smaragd	-6593
▁snowman	-6594
▁soldier	-6595
▁southas	-6596
▁spelled	-6597
▁spotted	-6598
▁spurred	-6599
500	-6600
asu	-6601
chq	-6602
gun	-6603
sty	-6604
▁5.	-6605
▁84	-6606
▁gt	-6607
anch	-6608
omal	-6609
only	-6610
ster	-6611
ulte	-6612
yasu	-6613
▁367	-6614
▁5.7	-6615
▁96,	-6616
▁cig	-6617
▁gta	-6618
▁ire	-6619
▁los	-6620
▁sle	-6621
▁som	-6622
▁web	-6623
etent	-6624
▁1794	-6625
▁1927	-6626
▁asty	-6627
▁beat	-6628
▁fest	-6629
▁gate	-6630
▁gchq	-6631
▁grac	-6632
▁harv	-6633
▁ille	-6634
▁seam	-6635
▁sele	-6636
ainous	-6637
ieyasu	-6638
lessly	-6639
ultere	-6640
▁1820.	-6641
▁1979.	-6642
▁absor	-6643
▁aside	-6644
▁begun	-6645
▁homer	-6646
▁illeg	-6647
▁sleep	-6648
▁stepp	-6649
▁undis	-6650
ulterer	-6651
▁16,500	-6652
▁1794),	-6653
▁absorb	-6654
▁branch	-6655
▁edward	-6656
▁fellin	-6657
▁ieyasu	-6658
▁incomp	-6659
▁lacked	-6660
▁prices	-6661
▁somers	-6662
▁titles	-6663
▁undisp	-6664
▁casting	-6665
▁fellini	-6666
▁festive	-6667
▁harvard	-6668
▁ireland	-6669
▁loyalty	-6670
▁monster	-6671
▁scripts	-6672
▁stables	-6673
▁stalled	-6674
▁statute	-6675
▁stoller	-6676
▁stopped	-6677
▁storybo	-6678
▁straits	-6679
▁strathe	-6680
▁subsequ	-6681
▁sudeten	-6682
▁sulphur	-6683
▁sunrise	-6684
▁surging	-6685
▁sánchez	-6686
▁telekom	-6687
▁textile	-6688
▁thrones	-6689
▁townspe	-6690
▁tracked	-6691
▁transit	-6692
▁tribune	-6693
▁tribute	-6694
▁trigger	-6695
▁trouble	-6696
▁twitchy	-6697
▁unarmed	-6698
▁unaware	-6699
ji	-6700
100	-6701
6%.	-6702
fit	-6703
oji	-6704
▁ew	-6705
▁ey	-6706
▁nh	-6707
▁ps	-6708
100%	-6709
dent	-6710
dest	-6711
enth	-6712
hero	-6713
mate	-6714
renc	-6715
▁1%,	-6716
▁cas	-6717
▁dee	-6718
▁eag	-6719
▁eye	-6720
▁lic	-6721
▁nhs	-6722
▁oil	-6723
▁sil	-6724
alith	-6725
enter	-6726
ksome	-6727
rency	-6728
traps	-6729
ureau	-6730
▁66%.	-6731
▁anch	-6732
▁crow	-6733
▁ewan	-6734
▁scot	-6735
▁wasp	-6736
▁whom	-6737
aliths	-6738
heroes	-6739
ingent	-6740
inmate	-6741
oudest	-6742
penter	-6743
▁"100%	-6744
▁1072,	-6745
▁andre	-6746
▁cases	-6747
▁crowd	-6748
▁durán	-6749
▁eagle	-6750
▁emoji	-6751
▁franz	-6752
▁joint	-6753
▁unfit	-6754
▁visit	-6755
issippi	-6756
▁anchor	-6757
▁ardent	-6758
▁bureau	-6759
▁inquir	-6760
▁licens	-6761
▁mining	-6762
▁oldest	-6763
▁shipbu	-6764
▁silver	-6765
▁belongs	-6766
▁editing	-6767
▁firstly	-6768
▁hallstr	-6769
▁inquiry	-6770
▁irksome	-6771
▁lateral	-6772
▁legions	-6773
▁promise	-6774
▁restric	-6775
▁underco	-6776
▁unknown	-6777
▁unnotic	-6778
▁unusual	-6779
▁vaguely	-6780
▁vantage	-6781
▁vatican	-6782
▁viewing	-6783
▁viguier	-6784
▁village	-6785
▁viscous	-6786
▁warming	-6787
▁warning	-6788
▁wartime	-6789
▁watched	-6790
▁wearing	-6791
▁website	-6792
▁wheeler	-6793
▁whereas	-6794
▁winston	-6795
▁worried	-6796
▁worries	-6797
▁younger	-6798
▁yucatán	-6799
mn	-6800
ask	-6801
gca	-6802
las	-6803
xon	-6804
you	-6805
angi	-6806
askt	-6807
azet	-6808
geal	-6809
thia	-6810
uent	-6811
vole	-6812
xonm	-6813
▁alt	-6814
▁cis	-6815
▁crt	-6816
▁fee	-6817
▁ris	-6818
onant	-6819
sened	-6820
xonmo	-6821
ygeal	-6822
ythia	-6823
▁amur	-6824
▁burd	-6825
▁crtc	-6826
▁hymn	-6827
▁inde	-6828
▁mlas	-6829
▁ping	-6830
▁pull	-6831
▁risk	-6832
▁wing	-6833
acular	-6834
asktel	-6835
azette	-6836
icious	-6837
ifuent	-6838
xonmob	-6839
▁1997.	-6840
▁2015-	-6841
▁curie	-6842
▁forec	-6843
▁isles	-6844
eration	-6845
ference	-6846
general	-6847
▁amurru	-6848
▁audrey	-6849
▁buying	-6850
▁cather	-6851
▁friday	-6852
▁indeed	-6853
▁marvel	-6854
▁peking	-6855
▁veneto	-6856
alicious	-6857
anesians	-6858
apidated	-6859
ifuentes	-6860
xonmobil	-6861
▁adverse	-6862
▁burdens	-6863
▁carangi	-6864
▁darnand	-6865
▁gazette	-6866
▁sasktel	-6867
▁scythia	-6868
▁serving	-6869
▁trained	-6870
▁záhorie	-6871
▁£12,000	-6872
abilities	-6873
amberlain	-6874
certified	-6875
continent	-6876
elligence	-6877
emissions	-6878
eremonies	-6879
ersonator	-6880
etectable	-6881
forcement	-6882
gratulate	-6883
hekoussae	-6884
ichenbach	-6885
icipality	-6886
ilitaries	-6887
inization	-6888
irriemuir	-6889
istration	-6890
itchcraft	-6891
itchhiker	-6892
oamerican	-6893
ongwriter	-6894
operative	-6895
orrendous	-6896
oslovakia	-6897
perheroes	-6898
qualified	-6899
%,	-6900
'"	-6901
-2	-6902
2)	-6903
fb	-6904
za	-6905
-29	-6906
900	-6907
92)	-6908
?'"	-6909
adv	-6910
ids	-6911
ien	-6912
nut	-6913
ori	-6914
vet	-6915
▁ak	-6916
▁dp	-6917
enet	-6918
esta	-6919
yvet	-6920
▁akp	-6921
▁bob	-6922
▁dfb	-6923
▁dpa	-6924
▁mud	-6925
▁nom	-6926
advis	-6927
mesta	-6928
▁1860	-6929
▁20%,	-6930
▁2900	-6931
▁aids	-6932
▁bark	-6933
▁ital	-6934
▁kori	-6935
▁meza	-6936
▁mudd	-6937
▁unim	-6938
▁wasn	-6939
perial	-6940
redged	-6941
▁alien	-6942
▁lines	-6943
▁lyvet	-6944
▁muddy	-6945
▁palms	-6946
▁thing	-6947
erscore	-6948
▁(1992)	-6949
▁nomine	-6950
▁unimag	-6951
aintings	-6952
▁amiable	-6953
▁dredged	-6954
▁inhibit	-6955
▁italian	-6956
▁nominee	-6957
▁phoenic	-6958
▁primary	-6959
▁resided	-6960
▁routine	-6961
▁salerno	-6962
▁supreme	-6963
▁unadvis	-6964
▁winning	-6965
rontation	-6966
rttemberg	-6967
satisfied	-6968
secretary	-6969
stoppable	-6970
unglasses	-6971
uspicious	-6972
ustralian	-6973
velations	-6974
ventional	-6975
▁absentee	-6976
▁accurate	-6977
▁achaeans	-6978
▁actively	-6979
▁activity	-6980
▁adapting	-6981
▁addenbro	-6982
▁admitted	-6983
▁affluent	-6984
▁afforded	-6985
▁airplane	-6986
▁alliance	-6987
▁allowing	-6988
▁anglican	-6989
▁animated	-6990
▁annivers	-6991
▁answered	-6992
▁antillas	-6993
▁antilles	-6994
▁anything	-6995
▁appetite	-6996
▁applying	-6997
▁approved	-6998
▁aquarium	-6999
):	-7000
fj	-7001
ada	-7002
alo	-7003
ese	-7004
hey	-7005
mly	-7006
ears	-7007
hors	-7008
igur	-7009
itic	-7010
itig	-7011
peal	-7012
sion	-7013
vada	-7014
zing	-7015
▁189	-7016
▁sir	-7017
atred	-7018
erber	-7019
ffalo	-7020
▁belt	-7021
▁cran	-7022
▁gory	-7023
▁kier	-7024
▁syll	-7025
▁vain	-7026
akness	-7027
endous	-7028
ganese	-7029
irable	-7030
oritic	-7031
ripped	-7032
ulsion	-7033
▁(1918	-7034
▁1896,	-7035
▁alice	-7036
▁brant	-7037
▁fried	-7038
▁gorye	-7039
▁helic	-7040
▁kiera	-7041
▁mitig	-7042
▁sigur	-7043
▁tears	-7044
eoritic	-7045
geshire	-7046
mendous	-7047
▁donors	-7048
▁firmly	-7049
▁formid	-7050
▁goryeo	-7051
▁harbor	-7052
▁hatred	-7053
▁kerber	-7054
▁laptop	-7055
▁monday	-7056
▁nearby	-7057
▁nevada	-7058
▁purpos	-7059
▁repeal	-7060
assroots	-7061
davidson	-7062
▁(1918),	-7063
▁assumed	-7064
▁authors	-7065
▁buffalo	-7066
▁cleared	-7067
▁cranach	-7068
▁expects	-7069
▁funeral	-7070
▁gripped	-7071
▁ongoing	-7072
▁quality	-7073
▁ranging	-7074
▁veteran	-7075
▁arrogant	-7076
▁assassin	-7077
▁atlantic	-7078
▁attacked	-7079
▁attended	-7080
▁attitude	-7081
▁attracts	-7082
▁balances	-7083
▁baptized	-7084
▁barrosos	-7085
▁beatings	-7086
▁belgrade	-7087
▁bergeron	-7088
▁bloggers	-7089
▁boarding	-7090
▁bonapart	-7091
▁bouchard	-7092
▁branches	-7093
▁breasted	-7094
▁bullshit	-7095
▁bullying	-7096
▁calendar	-7097
▁californ	-7098
▁cameroon	-7099
oe	-7100
tv	-7101
wa	-7102
xy	-7103
zi	-7104
alu	-7105
ati	-7106
bru	-7107
tzi	-7108
beat	-7109
cans	-7110
eary	-7111
ousy	-7112
vels	-7113
▁90-	-7114
▁ctv	-7115
▁das	-7116
▁esp	-7117
▁jok	-7118
▁mei	-7119
▁oxy	-7120
▁pla	-7121
▁unw	-7122
febru	-7123
imens	-7124
orses	-7125
uming	-7126
weary	-7127
▁acts	-7128
▁beam	-7129
▁dati	-7130
▁dump	-7131
▁mare	-7132
▁poem	-7133
▁seed	-7134
▁whip	-7135
aluate	-7136
terday	-7137
usalem	-7138
▁1976,	-7139
▁2006,	-7140
▁canoe	-7141
▁jokow	-7142
▁lousy	-7143
▁marta	-7144
▁phase	-7145
▁regre	-7146
▁sanct	-7147
fection	-7148
▁burned	-7149
▁catast	-7150
▁dashed	-7151
▁espous	-7152
▁horses	-7153
▁jokowi	-7154
▁novels	-7155
▁oxygen	-7156
▁penist	-7157
▁plaice	-7158
▁unwill	-7159
▁upbeat	-7160
assuming	-7161
esterday	-7162
february	-7163
▁posting	-7164
▁regrets	-7165
▁tactile	-7166
▁brothers	-7167
▁campbell	-7168
▁carefree	-7169
▁catastro	-7170
▁caucasus	-7171
▁chairman	-7172
▁changing	-7173
▁charging	-7174
▁classics	-7175
▁clinical	-7176
▁coincide	-7177
▁colorado	-7178
▁commuter	-7179
▁compared	-7180
▁conceded	-7181
▁concerns	-7182
▁confused	-7183
▁connects	-7184
▁conquers	-7185
▁conquest	-7186
▁contrary	-7187
▁cospedal	-7188
▁councils	-7189
▁countess	-7190
▁credited	-7191
▁cristina	-7192
▁cultural	-7193
▁currency	-7194
▁customer	-7195
▁deceased	-7196
▁deciding	-7197
▁degraded	-7198
▁demanded	-7199
di	-7200
alt	-7201
arp	-7202
see	-7203
▁("	-7204
▁fá	-7205
▁jr	-7206
arth	-7207
born	-7208
iege	-7209
oron	-7210
▁fát	-7211
▁hur	-7212
▁odi	-7213
arpur	-7214
eless	-7215
heren	-7216
moron	-7217
woman	-7218
▁2012	-7219
▁appl	-7220
▁bant	-7221
▁beer	-7222
▁bian	-7223
▁ende	-7224
▁fans	-7225
▁gill	-7226
▁rocc	-7227
▁shif	-7228
▁vass	-7229
▁walt	-7230
▁advan	-7231
▁bantu	-7232
▁garth	-7233
▁rocco	-7234
▁siege	-7235
▁touch	-7236
▁words	-7237
herents	-7238
ionship	-7239
thology	-7240
▁amount	-7241
▁endeav	-7242
▁fátima	-7243
▁luxury	-7244
▁murphy	-7245
▁numism	-7246
▁shifts	-7247
▁throne	-7248
▁unborn	-7249
▁unions	-7250
▁vassal	-7251
▁viewed	-7252
▁applies	-7253
▁closure	-7254
▁erosion	-7255
▁fiction	-7256
▁finland	-7257
▁gillard	-7258
▁lightly	-7259
▁pelopon	-7260
▁placing	-7261
▁politti	-7262
▁reading	-7263
▁sending	-7264
▁advanced	-7265
▁badarpur	-7266
▁democrat	-7267
▁deserved	-7268
▁designed	-7269
▁detailed	-7270
▁develops	-7271
▁diamonds	-7272
▁dictated	-7273
▁dietrich	-7274
▁disaster	-7275
▁disposed	-7276
▁disputed	-7277
▁disputes	-7278
▁distance	-7279
▁distinct	-7280
▁divorced	-7281
▁document	-7282
▁domenico	-7283
▁dressing	-7284
▁drinking	-7285
▁earliest	-7286
▁eibingen	-7287
▁embedded	-7288
▁emitters	-7289
▁emphasis	-7290
▁employed	-7291
▁employee	-7292
▁emptying	-7293
▁endeavor	-7294
▁enhanced	-7295
▁enraging	-7296
▁entering	-7297
▁entirety	-7298
▁espoused	-7299
',	-7300
uo	-7301
ux	-7302
ora	-7303
▁(6	-7304
ects	-7305
ider	-7306
iles	-7307
omes	-7308
sson	-7309
star	-7310
▁(6.	-7311
▁gay	-7312
▁gre	-7313
▁kuo	-7314
▁mic	-7315
▁tom	-7316
▁tot	-7317
agora	-7318
ieved	-7319
inate	-7320
▁doct	-7321
▁feed	-7322
▁hasn	-7323
▁issu	-7324
▁vega	-7325
▁wave	-7326
ackham	-7327
anship	-7328
flight	-7329
▁chand	-7330
▁clean	-7331
▁diary	-7332
▁guest	-7333
▁hardw	-7334
▁nause	-7335
ialects	-7336
othesis	-7337
starred	-7338
tersson	-7339
▁asking	-7340
▁greens	-7341
▁hosted	-7342
▁images	-7343
▁lifted	-7344
▁messen	-7345
▁nausea	-7346
▁prince	-7347
▁subdue	-7348
▁surren	-7349
▁talmad	-7350
▁yannis	-7351
▁becomes	-7352
▁decider	-7353
▁doctors	-7354
▁issuing	-7355
▁leather	-7356
▁lovings	-7357
▁packham	-7358
▁release	-7359
▁targets	-7360
▁totally	-7361
▁(6.30-10	-7362
▁appalled	-7363
▁chandler	-7364
▁constant	-7365
▁counsell	-7366
▁designer	-7367
▁dialects	-7368
▁eurozone	-7369
▁evaluate	-7370
▁everyday	-7371
▁everyman	-7372
▁expanded	-7373
▁expenses	-7374
▁explains	-7375
▁expropri	-7376
▁extended	-7377
▁external	-7378
▁extravag	-7379
▁factions	-7380
▁familiar	-7381
▁favoured	-7382
▁federico	-7383
▁financed	-7384
▁firewall	-7385
▁floating	-7386
▁flocking	-7387
▁florence	-7388
▁focusing	-7389
▁follower	-7390
▁forcibly	-7391
▁forecast	-7392
▁foretold	-7393
▁formerly	-7394
▁fostered	-7395
▁founding	-7396
▁freedoms	-7397
▁frequent	-7398
▁friendly	-7399
21	-7400
ba	-7401
gi	-7402
ki	-7403
su	-7404
221	-7405
nki	-7406
phe	-7407
▁30	-7408
arat	-7409
bass	-7410
eman	-7411
erba	-7412
este	-7413
outs	-7414
phew	-7415
unch	-7416
when	-7417
▁3%,	-7418
▁alp	-7419
▁cgi	-7420
▁fat	-7421
▁mom	-7422
▁nun	-7423
▁pad	-7424
▁saw	-7425
antle	-7426
bassy	-7427
ichol	-7428
icket	-7429
nkiel	-7430
▁aren	-7431
▁bush	-7432
▁nuns	-7433
▁oliv	-7434
▁paid	-7435
▁pear	-7436
▁scan	-7437
abouts	-7438
aratog	-7439
nkieli	-7440
ormous	-7441
ubbish	-7442
▁1,365	-7443
▁bunch	-7444
▁fatal	-7445
▁keste	-7446
▁meant	-7447
▁miami	-7448
▁pearl	-7449
▁quits	-7450
▁regul	-7451
▁scary	-7452
▁soldi	-7453
▁yerba	-7454
aratoga	-7455
essions	-7456
icholas	-7457
▁alpine	-7458
▁lining	-7459
▁mantle	-7460
▁marked	-7461
▁moment	-7462
▁nephew	-7463
▁offers	-7464
▁olivia	-7465
▁scheme	-7466
▁tablet	-7467
▁ticket	-7468
enormous	-7469
facturer	-7470
prepared	-7471
▁curious	-7472
▁embassy	-7473
▁employe	-7474
▁english	-7475
▁execute	-7476
▁farming	-7477
▁freeman	-7478
▁putting	-7479
▁rambler	-7480
▁refusal	-7481
▁revoked	-7482
▁rubbish	-7483
ufacturer	-7484
▁criminal	-7485
▁fraction	-7486
▁germaine	-7487
▁germanic	-7488
▁giovanni	-7489
▁goffredo	-7490
▁gracious	-7491
▁grieving	-7492
▁habsburg	-7493
▁handover	-7494
▁happened	-7495
▁hardened	-7496
▁hardware	-7497
▁hearings	-7498
▁heinrich	-7499
fi	-7500
gb	-7501
bre	-7502
med	-7503
tul	-7504
▁fj	-7505
anda	-7506
dred	-7507
pton	-7508
rose	-7509
▁adn	-7510
▁gca	-7511
▁mes	-7512
▁mgb	-7513
break	-7514
dleia	-7515
dreds	-7516
estim	-7517
tulce	-7518
urism	-7519
▁2003	-7520
▁amin	-7521
▁arms	-7522
▁lady	-7523
▁lake	-7524
▁ster	-7525
acking	-7526
ampton	-7527
apchat	-7528
hammed	-7529
inable	-7530
inting	-7531
tulcea	-7532
▁adnan	-7533
▁arose	-7534
▁colog	-7535
▁flown	-7536
▁metti	-7537
▁quite	-7538
▁walls	-7539
ription	-7540
▁expans	-7541
▁fjords	-7542
▁motion	-7543
▁poster	-7544
▁pushed	-7545
▁rogers	-7546
prussian	-7547
▁airport	-7548
▁careful	-7549
▁cologne	-7550
▁efforts	-7551
▁fuelled	-7552
▁furious	-7553
▁oratory	-7554
▁playboy	-7555
▁tourism	-7556
estimated	-7557
scription	-7558
▁commands	-7559
▁communal	-7560
▁herodias	-7561
▁historic	-7562
▁homeland	-7563
▁homeless	-7564
▁honorary	-7565
▁humanism	-7566
▁humanoid	-7567
▁humphrey	-7568
▁hundreds	-7569
▁hysteria	-7570
▁identity	-7571
▁immersed	-7572
▁imperial	-7573
▁imposing	-7574
▁inherent	-7575
▁injuries	-7576
▁inquired	-7577
▁inspired	-7578
▁instance	-7579
▁investor	-7580
▁inviting	-7581
▁isabella	-7582
▁istanbul	-7583
▁jennings	-7584
▁kentucky	-7585
▁kesteven	-7586
▁keyboard	-7587
▁labelled	-7588
▁labrocca	-7589
▁liberate	-7590
▁lifetime	-7591
▁lighting	-7592
▁literacy	-7593
▁lowlands	-7594
▁markings	-7595
▁marriage	-7596
▁massebot	-7597
▁mattress	-7598
▁mcgregor	-7599
▁x	-7600
att	-7601
don	-7602
jan	-7603
▁bi	-7604
▁bj	-7605
▁wi	-7606
alet	-7607
apie	-7608
cape	-7609
ilst	-7610
sure	-7611
term	-7612
▁arc	-7613
▁ecb	-7614
▁jin	-7615
▁try	-7616
▁voc	-7617
ieces	-7618
these	-7619
treal	-7620
▁adri	-7621
▁dise	-7622
▁fast	-7623
▁gain	-7624
▁icon	-7625
▁seap	-7626
▁stri	-7627
iforms	-7628
person	-7629
umably	-7630
▁1973.	-7631
▁favor	-7632
▁grows	-7633
▁ideal	-7634
▁lakes	-7635
▁moral	-7636
▁segel	-7637
▁shepp	-7638
▁slack	-7639
▁stick	-7640
▁tapie	-7641
▁trust	-7642
▁upset	-7643
▁venue	-7644
▁vocal	-7645
▁chalet	-7646
▁colour	-7647
▁ensure	-7648
▁escape	-7649
▁pieces	-7650
▁strike	-7651
▁trojan	-7652
▁whilst	-7653
▁airlift	-7654
▁amounts	-7655
▁angular	-7656
▁barratt	-7657
▁compens	-7658
▁disease	-7659
▁georges	-7660
▁mothers	-7661
▁persian	-7662
▁restore	-7663
▁salaman	-7664
▁spiegel	-7665
▁swordsm	-7666
▁timings	-7667
▁typeset	-7668
▁adriatic	-7669
▁ancestry	-7670
▁avoiding	-7671
▁eighteen	-7672
▁executed	-7673
▁mcneilly	-7674
▁measured	-7675
▁meetings	-7676
▁megarian	-7677
▁memories	-7678
▁messages	-7679
▁mexicans	-7680
▁militant	-7681
▁millican	-7682
▁millions	-7683
▁minarets	-7684
▁minerals	-7685
▁ministry	-7686
▁mitigate	-7687
▁mobility	-7688
▁montreal	-7689
▁moravian	-7690
▁musicals	-7691
▁narrates	-7692
▁nicholas	-7693
▁obscured	-7694
▁observed	-7695
▁occasion	-7696
▁occupies	-7697
▁operates	-7698
▁opinions	-7699
cop	-7700
met	-7701
oto	-7702
pit	-7703
voy	-7704
▁ia	-7705
iant	-7706
idow	-7707
▁ham	-7708
▁iag	-7709
▁ped	-7710
▁spi	-7711
▁yum	-7712
copal	-7713
otter	-7714
▁1900	-7715
▁baja	-7716
▁chil	-7717
▁indo	-7718
▁infl	-7719
▁move	-7720
▁toad	-7721
orders	-7722
▁desks	-7723
▁envoy	-7724
▁going	-7725
▁griev	-7726
▁guess	-7727
▁incor	-7728
▁inord	-7729
▁legit	-7730
▁luiss	-7731
▁lured	-7732
▁pedro	-7733
▁round	-7734
▁siber	-7735
▁spike	-7736
▁toads	-7737
▁trace	-7738
▁widow	-7739
▁woods	-7740
section	-7741
▁active	-7742
▁chilia	-7743
▁easily	-7744
▁hammer	-7745
▁helmet	-7746
▁maroto	-7747
▁parker	-7748
▁plates	-7749
▁snatch	-7750
▁sports	-7751
alarming	-7752
ductions	-7753
▁blinded	-7754
▁borders	-7755
▁cambrid	-7756
▁closely	-7757
▁complic	-7758
▁devices	-7759
▁differs	-7760
▁discord	-7761
▁hostage	-7762
▁martial	-7763
▁moscone	-7764
▁plotter	-7765
▁rescind	-7766
▁sarkozy	-7767
▁siberia	-7768
▁streets	-7769
▁talking	-7770
▁variant	-7771
▁articles	-7772
▁energies	-7773
▁guessing	-7774
▁medieval	-7775
▁offering	-7776
▁opponent	-7777
▁opposite	-7778
▁ordinary	-7779
▁oriental	-7780
▁original	-7781
▁outgoing	-7782
▁outposts	-7783
▁overtook	-7784
▁papworth	-7785
▁pardoned	-7786
▁passages	-7787
▁patients	-7788
▁peaceful	-7789
▁personal	-7790
▁petrassi	-7791
▁planning	-7792
▁pluviose	-7793
▁politics	-7794
▁populace	-7795
▁populate	-7796
▁portions	-7797
▁portugal	-7798
▁positive	-7799
mal	-7800
▁km	-7801
high	-7802
ople	-7803
▁kim	-7804
▁mrs	-7805
▁rud	-7806
▁tun	-7807
imate	-7808
izure	-7809
stain	-7810
ument	-7811
▁2015	-7812
▁blad	-7813
▁carn	-7814
▁dumb	-7815
▁fate	-7816
▁hadn	-7817
▁hate	-7818
▁mate	-7819
▁rain	-7820
▁rico	-7821
▁ring	-7822
▁rudy	-7823
▁till	-7824
▁zinc	-7825
ibrate	-7826
licacy	-7827
lowish	-7828
▁1,165	-7829
▁1952,	-7830
▁1993.	-7831
▁blown	-7832
▁brain	-7833
▁chain	-7834
▁poole	-7835
▁tunip	-7836
atching	-7837
▁denied	-7838
▁emerge	-7839
▁emicro	-7840
▁facing	-7841
▁grants	-7842
▁normal	-7843
▁photos	-7844
▁picnic	-7845
▁ranges	-7846
▁ruling	-7847
▁settle	-7848
▁shores	-7849
▁smoked	-7850
▁stalin	-7851
▁subian	-7852
▁tennis	-7853
catching	-7854
ellowish	-7855
▁assured	-7856
▁bladder	-7857
▁buddies	-7858
▁details	-7859
▁relaxed	-7860
▁rudyard	-7861
▁seizure	-7862
▁sustain	-7863
▁vibrate	-7864
protected	-7865
▁carnival	-7866
▁delicacy	-7867
▁droplets	-7868
▁generals	-7869
▁monument	-7870
▁possibly	-7871
▁powerful	-7872
▁presided	-7873
▁pressing	-7874
▁printing	-7875
▁priority	-7876
▁probably	-7877
▁producer	-7878
▁profound	-7879
▁progress	-7880
▁promised	-7881
▁promoted	-7882
▁proudest	-7883
▁province	-7884
▁provoked	-7885
▁purposes	-7886
▁quarters	-7887
▁realized	-7888
▁recently	-7889
▁reconcil	-7890
▁recorded	-7891
▁recovery	-7892
▁regarded	-7893
▁rejected	-7894
▁reliable	-7895
▁relieved	-7896
▁remarked	-7897
▁required	-7898
▁resolver	-7899
▁ss	-7900
▁£2	-7901
ache	-7902
idas	-7903
nter	-7904
pear	-7905
pres	-7906
usen	-7907
▁400	-7908
▁gif	-7909
▁haw	-7910
▁hua	-7911
▁mos	-7912
▁nec	-7913
▁vat	-7914
▁yas	-7915
ipole	-7916
ivion	-7917
izing	-7918
▁1997	-7919
▁2020	-7920
▁aoun	-7921
▁barn	-7922
▁cass	-7923
▁gifs	-7924
▁moly	-7925
▁navy	-7926
▁ores	-7927
appear	-7928
livion	-7929
▁1566,	-7930
▁2002,	-7931
▁2013,	-7932
▁beria	-7933
▁cache	-7934
▁comic	-7935
▁depth	-7936
▁forts	-7937
▁huawe	-7938
▁inner	-7939
▁marat	-7940
▁opens	-7941
▁peter	-7942
▁sarah	-7943
▁songs	-7944
▁spend	-7945
▁twice	-7946
▁yemen	-7947
present	-7948
▁actual	-7949
▁adidas	-7950
▁adults	-7951
▁dating	-7952
▁dipole	-7953
▁huawei	-7954
▁laying	-7955
▁league	-7956
▁medics	-7957
▁necess	-7958
▁slated	-7959
▁sunder	-7960
▁widely	-7961
▁barrack	-7962
▁coating	-7963
▁comment	-7964
▁derived	-7965
▁elected	-7966
▁hawkish	-7967
▁leveled	-7968
▁liberty	-7969
▁passera	-7970
▁prabowo	-7971
▁£10,000	-7972
▁carrying	-7973
▁oblivion	-7974
▁occurred	-7975
▁properly	-7976
▁restrict	-7977
▁retained	-7978
▁reunited	-7979
▁reverend	-7980
▁reversed	-7981
▁revivals	-7982
▁sakhalin	-7983
▁salzburg	-7984
▁saratoga	-7985
▁scenario	-7986
▁schoolch	-7987
▁schulman	-7988
▁scottish	-7989
▁seasonal	-7990
▁securing	-7991
▁selected	-7992
▁sessions	-7993
▁settlers	-7994
▁severity	-7995
▁shanghai	-7996
▁shenzhen	-7997
▁sheppard	-7998
▁shocking	-7999
aco	-8000
iva	-8001
▁39	-8002
norm	-8003
roso	-8004
xies	-8005
▁1%.	-8006
▁ade	-8007
▁dav	-8008
▁lee	-8009
▁upt	-8010
andes	-8011
avier	-8012
ifies	-8013
irena	-8014
odies	-8015
▁393.	-8016
▁exil	-8017
▁flat	-8018
▁gong	-8019
▁guam	-8020
▁hook	-8021
▁kiki	-8022
▁lies	-8023
▁pros	-8024
▁reac	-8025
▁thus	-8026
▁ties	-8027
15,000	-8028
akumov	-8029
degree	-8030
norman	-8031
▁2009,	-8032
▁adept	-8033
▁aviva	-8034
▁bible	-8035
▁chart	-8036
▁crack	-8037
▁davis	-8038
▁fraud	-8039
▁newly	-8040
▁phone	-8041
▁safet	-8042
▁ships	-8043
▁austro	-8044
▁balkan	-8045
▁bodies	-8046
▁exiled	-8047
▁hariri	-8048
▁javier	-8049
▁monaco	-8050
▁morgan	-8051
▁pilate	-8052
▁safety	-8053
▁scores	-8054
carriage	-8055
ensifies	-8056
odenberg	-8057
▁assumes	-8058
▁barroso	-8059
▁belgian	-8060
▁bracing	-8061
▁charted	-8062
▁evolved	-8063
▁factual	-8064
▁floated	-8065
▁gongmin	-8066
▁iridium	-8067
▁penalty	-8068
▁problem	-8069
▁prosper	-8070
▁proxies	-8071
▁rapidly	-8072
▁reached	-8073
▁seafood	-8074
▁abakumov	-8075
▁mystical	-8076
▁patterns	-8077
▁peniston	-8078
▁scotland	-8079
▁shockwav	-8080
▁shooting	-8081
▁shoppers	-8082
▁shortage	-8083
▁situated	-8084
▁sixtieth	-8085
▁snapchat	-8086
▁somebody	-8087
▁somerset	-8088
▁songwrit	-8089
▁southsea	-8090
▁sparking	-8091
▁springer	-8092
▁stabbing	-8093
▁starring	-8094
▁stealers	-8095
▁stemming	-8096
▁stepping	-8097
▁sternlie	-8098
▁stickers	-8099
iaf	-8100
uno	-8101
▁24	-8102
▁27	-8103
▁8.	-8104
east	-8105
ends	-8106
essa	-8107
iade	-8108
xist	-8109
▁10,	-8110
▁cbc	-8111
▁£12	-8112
aying	-8113
ender	-8114
heast	-8115
rises	-8116
▁arts	-8117
▁jets	-8118
▁joan	-8119
▁piaf	-8120
▁rian	-8121
▁scru	-8122
▁stap	-8123
▁tsar	-8124
▁£125	-8125
odessa	-8126
ouring	-8127
quence	-8128
ranted	-8129
▁1856,	-8130
▁1977,	-8131
▁beast	-8132
▁brice	-8133
▁bruno	-8134
▁butts	-8135
▁mundo	-8136
▁plain	-8137
▁reads	-8138
▁retro	-8139
▁roles	-8140
▁spoke	-8141
▁tends	-8142
▁tesco	-8143
endment	-8144
essment	-8145
▁county	-8146
▁feasts	-8147
▁gender	-8148
▁latium	-8149
▁length	-8150
▁manage	-8151
▁radium	-8152
▁script	-8153
▁sexist	-8154
▁staple	-8155
▁turkey	-8156
▁marxism	-8157
▁pursuit	-8158
▁staying	-8159
▁whoever	-8160
▁critical	-8161
▁enlisted	-8162
▁hesitant	-8163
▁offences	-8164
▁outbreak	-8165
▁sequence	-8166
▁standard	-8167
▁stopping	-8168
▁strategy	-8169
▁stresses	-8170
▁strongly	-8171
▁subianto	-8172
▁suffered	-8173
▁supplied	-8174
▁supports	-8175
▁supposed	-8176
▁suspects	-8177
▁switched	-8178
▁symbolic	-8179
▁synoptic	-8180
▁tactical	-8181
▁tailbone	-8182
▁talmadge	-8183
▁tanzania	-8184
▁tectonic	-8185
▁tempered	-8186
▁tensions	-8187
▁teratoma	-8188
▁terrible	-8189
▁textiles	-8190
▁theology	-8191
▁theories	-8192
▁thompson	-8193
▁thoughts	-8194
▁tiberius	-8195
▁tientsin	-8196
▁tokugawa	-8197
▁totaling	-8198
▁tracking	-8199
").	-8200
tap	-8201
▁gm	-8202
aive	-8203
aped	-8204
from	-8205
game	-8206
osen	-8207
pted	-8208
soon	-8209
udes	-8210
▁spy	-8211
acall	-8212
ostok	-8213
▁1976	-8214
▁2011	-8215
▁arre	-8216
▁egan	-8217
▁fish	-8218
▁gear	-8219
▁leap	-8220
▁ober	-8221
▁pall	-8222
▁rice	-8223
▁tong	-8224
acalla	-8225
icable	-8226
isting	-8227
outube	-8228
tapper	-8229
▁1563,	-8230
▁550),	-8231
▁beust	-8232
▁cites	-8233
▁curve	-8234
▁naive	-8235
▁olney	-8236
▁opted	-8237
▁stake	-8238
▁stren	-8239
▁wheat	-8240
veloped	-8241
▁agenda	-8242
▁beyond	-8243
▁cattle	-8244
▁chosen	-8245
▁condos	-8246
▁elaine	-8247
▁finish	-8248
▁israel	-8249
▁lagoon	-8250
▁lawful	-8251
▁praise	-8252
▁regime	-8253
▁shaped	-8254
▁singer	-8255
▁sought	-8256
▁stands	-8257
▁tongue	-8258
▁willow	-8259
▁arrests	-8260
▁compact	-8261
▁factors	-8262
▁feeling	-8263
▁halifax	-8264
▁maiorum	-8265
▁minimum	-8266
▁monsoon	-8267
▁notable	-8268
▁origins	-8269
▁partner	-8270
▁pyjamas	-8271
▁singers	-8272
▁torture	-8273
▁wintour	-8274
▁youtube	-8275
▁altitude	-8276
▁amicable	-8277
▁breaches	-8278
▁breeding	-8279
▁disunity	-8280
▁entitled	-8281
▁incurred	-8282
▁mohammed	-8283
▁nobility	-8284
▁rocketed	-8285
▁soldiers	-8286
▁thousand	-8287
▁troopers	-8288
▁tropical	-8289
▁troubled	-8290
▁uaxactun	-8291
▁unaccept	-8292
▁underest	-8293
▁undersea	-8294
▁unearths	-8295
▁unemploy	-8296
▁uniforms	-8297
▁unpreced	-8298
▁upcoming	-8299
▁25	-8300
ruit	-8301
▁adm	-8302
igans	-8303
orely	-8304
▁ball	-8305
▁crav	-8306
▁cups	-8307
▁keen	-8308
▁marr	-8309
▁mead	-8310
▁none	-8311
▁sand	-8312
▁saul	-8313
▁sort	-8314
▁tide	-8315
▁uses	-8316
▁vern	-8317
▁warf	-8318
antial	-8319
▁avery	-8320
▁disin	-8321
▁fruit	-8322
▁rites	-8323
▁share	-8324
itioned	-8325
ruption	-8326
▁amazon	-8327
▁bluish	-8328
▁closer	-8329
▁crimea	-8330
▁devoid	-8331
▁height	-8332
▁hitler	-8333
▁intent	-8334
▁rename	-8335
▁search	-8336
▁slavic	-8337
▁sorely	-8338
▁weight	-8339
▁willis	-8340
▁admired	-8341
▁charges	-8342
▁contest	-8343
▁craving	-8344
▁gaining	-8345
▁highest	-8346
▁indiana	-8347
▁mildred	-8348
▁nowhere	-8349
▁warfare	-8350
▁witness	-8351
ubumbashi	-8352
▁consists	-8353
▁creation	-8354
▁dispatch	-8355
▁freezing	-8356
▁informed	-8357
▁knocking	-8358
▁marcelle	-8359
▁property	-8360
▁telltale	-8361
▁thailand	-8362
▁thessaly	-8363
▁upturned	-8364
▁vicissit	-8365
▁villeneu	-8366
▁violence	-8367
▁visiting	-8368
▁volcanic	-8369
▁watching	-8370
▁waterway	-8371
▁weakness	-8372
▁websites	-8373
▁weekdays	-8374
▁welcomed	-8375
▁wetlands	-8376
▁wildlife	-8377
▁williams	-8378
▁witching	-8379
▁worrying	-8380
▁worsened	-8381
▁writhing	-8382
▁zodiacal	-8383
▁£3,000-£	-8384
australian	-8385
detectable	-8386
ibodenberg	-8387
monegasque	-8388
ologically	-8389
physicians	-8390
remarkable	-8391
rospective	-8392
songwriter	-8393
tremendous	-8394
▁2013-2014	-8395
▁abandoned	-8396
▁abilities	-8397
▁acclaimed	-8398
▁accolades	-8399
cbs	-8400
eta	-8401
gur	-8402
ibs	-8403
ipo	-8404
anne	-8405
iple	-8406
mail	-8407
nine	-8408
ogle	-8409
some	-8410
▁dry	-8411
allow	-8412
every	-8413
merit	-8414
onely	-8415
ordon	-8416
▁gods	-8417
▁pact	-8418
▁shed	-8419
▁tipo	-8420
▁vine	-8421
▁wait	-8422
active	-8423
storms	-8424
▁1340,	-8425
▁1882,	-8426
▁aires	-8427
▁breat	-8428
▁creat	-8429
▁haste	-8430
▁keira	-8431
▁noble	-8432
▁noise	-8433
▁outlo	-8434
▁sally	-8435
▁stone	-8436
▁vance	-8437
▁weiss	-8438
▁caribs	-8439
▁chilly	-8440
▁google	-8441
▁gordon	-8442
▁indies	-8443
▁invent	-8444
▁lonely	-8445
▁notice	-8446
▁petrol	-8447
▁charter	-8448
▁factory	-8449
▁greatly	-8450
▁managed	-8451
▁manipul	-8452
▁outlook	-8453
▁pointed	-8454
▁shallow	-8455
▁solheim	-8456
▁trudeau	-8457
▁utterly	-8458
▁voucher	-8459
▁workout	-8460
▁breathes	-8461
▁corsican	-8462
▁creative	-8463
▁division	-8464
▁findings	-8465
▁fiorello	-8466
▁imported	-8467
▁monarchy	-8468
▁multiple	-8469
▁obtained	-8470
▁rational	-8471
▁requires	-8472
▁roadless	-8473
▁robinson	-8474
▁socially	-8475
▁spartans	-8476
▁syllable	-8477
▁activated	-8478
▁addiction	-8479
▁adherents	-8480
▁admission	-8481
▁adulterer	-8482
▁advancing	-8483
▁affection	-8484
▁afternoon	-8485
▁aggregate	-8486
▁alcoholic	-8487
▁alejandra	-8488
▁alienated	-8489
▁alliances	-8490
▁allowance	-8491
▁alongside	-8492
▁amendment	-8493
▁analysing	-8494
▁anthology	-8495
▁antiquity	-8496
▁apartment	-8497
▁appealing	-8498
▁artifacts	-8499
oke	-8500
▁35	-8501
▁bá	-8502
made	-8503
sade	-8504
tech	-8505
▁eon	-8506
▁guy	-8507
▁wiz	-8508
fired	-8509
nesus	-8510
never	-8511
orset	-8512
▁1981	-8513
▁2019	-8514
▁352,	-8515
▁apse	-8516
▁cars	-8517
▁cold	-8518
▁else	-8519
▁eras	-8520
▁hfcs	-8521
▁slow	-8522
▁sole	-8523
▁teen	-8524
▁true	-8525
▁vary	-8526
▁ways	-8527
ildren	-8528
▁apart	-8529
▁betel	-8530
▁burst	-8531
▁carlo	-8532
▁finer	-8533
▁param	-8534
▁prank	-8535
▁scene	-8536
▁sense	-8537
▁stays	-8538
▁steep	-8539
▁uncon	-8540
▁villa	-8541
elected	-8542
garonne	-8543
▁assume	-8544
▁breach	-8545
▁carter	-8546
▁dorset	-8547
▁filmed	-8548
▁finale	-8549
▁jewish	-8550
▁karnak	-8551
▁panama	-8552
▁relate	-8553
▁rustic	-8554
▁salmon	-8555
▁showed	-8556
▁stages	-8557
▁stance	-8558
▁unable	-8559
▁washed	-8560
▁cecelia	-8561
▁denmark	-8562
▁dilemma	-8563
▁drawing	-8564
▁fencing	-8565
▁imagine	-8566
▁nostrum	-8567
▁atkinson	-8568
▁bachelor	-8569
▁blockage	-8570
▁interact	-8571
▁maldives	-8572
▁moreover	-8573
▁musician	-8574
▁presence	-8575
▁religion	-8576
▁sinister	-8577
▁sterling	-8578
▁ushering	-8579
▁whenever	-8580
▁assembled	-8581
▁athenians	-8582
▁attending	-8583
▁audiences	-8584
▁austrians	-8585
▁autosomal	-8586
▁balancing	-8587
▁behaviour	-8588
▁benefited	-8589
▁billboard	-8590
▁biography	-8591
▁blindleia	-8592
▁bonaparte	-8593
▁bordering	-8594
▁bosphorus	-8595
▁botanical	-8596
▁bothering	-8597
▁breakdown	-8598
▁buildings	-8599
▁crew	-8600
▁doing	-8601
▁guild	-8602
▁monte	-8603
▁saved	-8604
▁runoff	-8605
▁struck	-8606
▁invested	-8607
▁burgesses	-8608
▁byzantium	-8609
▁calabrian	-8610
▁cameroons	-8611
▁candidacy	-8612
▁captained	-8613
▁caracalla	-8614
▁carefully	-8615
▁carpenter	-8616
▁cassation	-8617
▁catherine	-8618
▁cautioned	-8619
▁celebrity	-8620
▁certainty	-8621
▁churchill	-8622
▁cifuentes	-8623
▁cinematic	-8624
▁civilians	-8625
▁classical	-8626
▁collected	-8627
▁collision	-8628
▁colonised	-8629
▁colonists	-8630
▁combative	-8631
▁commented	-8632
▁committed	-8633
▁communist	-8634
▁competing	-8635
▁component	-8636
▁conceived	-8637
▁concerned	-8638
▁conferred	-8639
▁consisted	-8640
▁consolate	-8641
▁consonant	-8642
▁consulted	-8643
▁consumers	-8644
▁contained	-8645
▁contested	-8646
▁continues	-8647
▁converted	-8648
▁convinced	-8649
▁courtship	-8650
▁cowritten	-8651
▁criticize	-8652
▁customary	-8653
▁daughters	-8654
▁deducting	-8655
▁defending	-8656
▁deficient	-8657
▁delighted	-8658
▁departure	-8659
▁dependent	-8660
▁depletion	-8661
▁designers	-8662
▁difficult	-8663
▁dimension	-8664
▁dinosaurs	-8665
▁direction	-8666
▁disappear	-8667
▁disasters	-8668
▁disbanded	-8669
▁discourse	-8670
▁discovery	-8671
▁discredit	-8672
▁discusses	-8673
▁dismissal	-8674
▁dismisses	-8675
▁dispersed	-8676
▁displaced	-8677
▁disrupted	-8678
▁dominican	-8679
▁downsized	-8680
▁economics	-8681
▁effective	-8682
▁elections	-8683
▁emergence	-8684
▁emergency	-8685
▁emigrated	-8686
▁emissions	-8687
▁emotional	-8688
▁employees	-8689
▁episcopal	-8690
▁equinoxes	-8691
▁estranged	-8692
▁europeans	-8693
▁evidenced	-8694
▁excellent	-8695
▁excessive	-8696
▁excluding	-8697
▁exhibited	-8698
▁existence	-8699
▁expansive	-8700
▁expectant	-8701
▁expecting	-8702
▁expensive	-8703
▁expressed	-8704
▁extending	-8705
▁extensive	-8706
▁extremely	-8707
▁fantastic	-8708
▁finalized	-8709
▁flensburg	-8710
▁followers	-8711
▁fortified	-8712
▁fragrance	-8713
▁framework	-8714
▁frontline	-8715
▁generally	-8716
▁generated	-8717
▁generator	-8718
▁geography	-8719
▁germinate	-8720
▁gradation	-8721
▁graduated	-8722
▁grenville	-8723
▁grievance	-8724
▁guangzhou	-8725
▁guarantee	-8726
▁guardians	-8727
▁guitarist	-8728
▁happening	-8729
▁happiness	-8730
▁headlines	-8731
▁headscarf	-8732
▁hierarchy	-8733
▁historian	-8734
▁hollywood	-8735
▁hortefeux	-8736
▁idealized	-8737
▁illegally	-8738
▁imaginary	-8739
▁immigrant	-8740
▁impressed	-8741
▁incumbent	-8742
▁indisting	-8743
▁infrastru	-8744
▁injection	-8745
▁innuendos	-8746
▁inspiring	-8747
▁intensive	-8748
▁interface	-8749
▁introduce	-8750
▁irritated	-8751
▁jerusalem	-8752
▁jewellery	-8753
▁justified	-8754
▁kamchatka	-8755
▁kilowatts	-8756
▁knightley	-8757
▁legalised	-8758
▁licensing	-8759
▁lillesand	-8760
▁listening	-8761
▁literally	-8762
▁livestock	-8763
▁locations	-8764
▁lollipops	-8765
▁lucrative	-8766
▁macedonia	-8767
▁malicious	-8768
▁manganese	-8769
▁materials	-8770
▁megabazus	-8771
▁megaliths	-8772
▁merchants	-8773
▁merdingen	-8774
▁messenian	-8775
▁microsoft	-8776
▁migration	-8777
▁miniature	-8778
▁mongolian	-8779
▁motocross	-8780
▁mutations	-8781
▁narrative	-8782
▁nashville	-8783
▁necessary	-8784
▁newcomers	-8785
▁northwest	-8786
▁obsession	-8787
▁obviously	-8788
▁occasions	-8789
▁occurring	-8790
▁offensive	-8791
▁offerings	-8792
▁officials	-8793
▁offspring	-8794
▁operating	-8795
▁operation	-8796
▁operators	-8797
▁orogenies	-8798
▁oversight	-8799
▁overthrew	-8800
▁paeonians	-8801
▁paintings	-8802
▁panvalkar	-8803
▁parallels	-8804
▁paralysis	-8805
▁parenting	-8806
▁passwords	-8807
▁penalties	-8808
▁pencilled	-8809
▁performed	-8810
▁plantains	-8811
▁pollution	-8812
▁portrayal	-8813
▁possessed	-8814
▁practical	-8815
▁precision	-8816
▁predicted	-8817
▁preferred	-8818
▁preparing	-8819
▁presenter	-8820
▁primaries	-8821
▁principle	-8822
▁prisoners	-8823
▁procedure	-8824
▁proconsul	-8825
▁producers	-8826
▁producing	-8827
▁prominent	-8828
▁promoting	-8829
▁prompting	-8830
▁protected	-8831
▁providing	-8832
▁proximity	-8833
▁racetrack	-8834
▁radically	-8835
▁rastislav	-8836
▁recording	-8837
▁recovered	-8838
▁reference	-8839
▁regretted	-8840
▁regulates	-8841
▁reimburse	-8842
▁relatives	-8843
▁reluctant	-8844
▁renewable	-8845
▁renovated	-8846
▁reporters	-8847
▁residence	-8848
▁residents	-8849
▁resources	-8850
▁responses	-8851
▁sacrococc	-8852
▁safeguard	-8853
▁sallyanne	-8854
▁sanctuary	-8855
▁satisfied	-8856
▁scholarly	-8857
▁seaplanes	-8858
▁secretary	-8859
▁sectorial	-8860
▁sensation	-8861
▁sensitive	-8862
▁sephardic	-8863
▁seventeen	-8864
▁seventies	-8865
▁shoulders	-8866
▁situation	-8867
▁slapstick	-8868
▁smaragdis	-8869
▁socialist	-8870
▁solstices	-8871
▁solutions	-8872
▁southeast	-8873
▁specimens	-8874
▁spotlight	-8875
▁stallions	-8876
▁standings	-8877
▁stereotyp	-8878
▁sternlieb	-8879
▁stoplight	-8880
▁stylistic	-8881
▁subsidies	-8882
▁succeeded	-8883
▁successes	-8884
▁successor	-8885
▁sukhothai	-8886
▁supervise	-8887
▁supported	-8888
▁surrender	-8889
▁surveying	-8890
▁suspected	-8891
▁taxpayers	-8892
▁teachings	-8893
▁temperate	-8894
▁tennessee	-8895
▁testament	-8896
▁theorized	-8897
▁thousands	-8898
▁throwback	-8899
▁timelines	-8900
▁tolerance	-8901
▁traceable	-8902
▁travelled	-8903
▁treasurer	-8904
▁treatment	-8905
▁troubling	-8906
▁typically	-8907
▁unearthed	-8908
▁unethical	-8909
▁universal	-8910
▁universes	-8911
▁unlimited	-8912
▁unnoticed	-8913
▁unpretent	-8914
▁unsettled	-8915
▁untrained	-8916
▁unusually	-8917
▁unwilling	-8918
▁victorias	-8919
▁visionary	-8920
▁volcanoes	-8921
▁warranted	-8922
▁wednesday	-8923
▁wholesale	-8924
▁withdrawn	-8925
▁withdraws	-8926
▁yellowish	-8927
▁yesterday	-8928
▁yudhoyono	-8929
▁£15,001-£	-8930
altercation	-8931
performance	-8932
superheroes	-8933
▁2015-2016.	-8934
▁aborigines	-8935
▁absolutely	-8936
▁accessible	-8937
▁accidental	-8938
▁accurately	-8939
▁additional	-8940
▁addressing	-8941
▁adolescent	-8942
▁advantages	-8943
▁aggressive	-8944
▁allegiance	-8945
▁ambassador	-8946
▁antarctica	-8947
▁anticipate	-8948
▁apparently	-8949
▁applicable	-8950
▁archbishop	-8951
▁artificial	-8952
▁assessment	-8953
▁associated	-8954
▁atmosphere	-8955
▁auspicious	-8956
▁austerlitz	-8957
▁autonomous	-8958
▁basilicata	-8959
▁bellingham	-8960
▁bellingsha	-8961
▁boundaries	-8962
▁bransfield	-8963
▁buttresses	-8964
▁caesarians	-8965
▁calculated	-8966
▁california	-8967
▁carbonated	-8968
▁cellphones	-8969
▁censorship	-8970
▁ceremonies	-8971
▁chalkstone	-8972
▁challenged	-8973
▁christians	-8974
▁chronicles	-8975
▁cigarettes	-8976
▁classified	-8977
▁coastlines	-8978
▁collection	-8979
▁collectors	-8980
▁combatants	-8981
▁compaction	-8982
▁comparison	-8983
▁complaints	-8984
▁completion	-8985
▁compulsion	-8986
▁conceptual	-8987
▁conditions	-8988
▁conference	-8989
▁confidence	-8990
▁connective	-8991
▁conquering	-8992
▁containing	-8993
▁continents	-8994
▁contingent	-8995
▁conversion	-8996
▁courthouse	-8997
▁culturally	-8998
▁curtailing	-8999
▁dedication	-9000
▁definitely	-9001
▁delineates	-9002
▁demolished	-9003
▁descendant	-9004
▁describing	-9005
▁determines	-9006
▁developing	-9007
▁difference	-9008
▁discomfort	-9009
▁discussion	-9010
▁dispatched	-9011
▁disruption	-9012
▁distinctly	-9013
▁documented	-9014
▁domination	-9015
▁dramatists	-9016
▁economical	-9017
▁economists	-9018
▁ecosystems	-9019
▁emphasised	-9020
▁engagement	-9021
▁enormously	-9022
▁executives	-9023
▁exhibition	-9024
▁expression	-9025
▁exxonmobil	-9026
▁favourable	-9027
▁filmmakers	-9028
▁firebombed	-9029
▁floridians	-9030
▁foreigners	-9031
▁formidable	-9032
▁foundation	-9033
▁freshwater	-9034
▁generating	-9035
▁generators	-9036
▁georgetown	-9037
▁girlfriend	-9038
▁grassroots	-9039
▁groundwork	-9040
▁guilbeault	-9041
▁harmonious	-9042
▁headwaters	-9043
▁hitchhiker	-9044
▁horrendous	-9045
▁humblebums	-9046
▁hurricanes	-9047
▁hypothesis	-9048
▁impairment	-9049
▁importance	-9050
▁impossible	-9051
▁incomplete	-9052
▁incredibly	-9053
▁indicating	-9054
▁individual	-9055
▁indonesian	-9056
▁inimitably	-9057
▁insatiable	-9058
▁insolvency	-9059
▁instructed	-9060
▁integrated	-9061
▁interested	-9062
▁inventions	-9063
▁irrigation	-9064
▁journalist	-9065
▁kilometers	-9066
▁kirriemuir	-9067
▁laboratory	-9068
▁liberation	-9069
▁litigation	-9070
▁logistical	-9071
▁lubumbashi	-9072
▁mahanakhon	-9073
▁maintained	-9074
▁manageable	-9075
▁manuscript	-9076
▁mechanisms	-9077
▁meteoritic	-9078
▁mindlessly	-9079
▁ministries	-9080
▁minorities	-9081
▁molybdenum	-9082
▁monarchies	-9083
▁neighbours	-9084
▁noteworthy	-9085
▁nottingham	-9086
▁numismatic	-9087
▁occurrence	-9088
▁officially	-9089
▁operations	-9090
▁opposition	-9091
▁originates	-9092
▁overseeing	-9093
▁permission	-9094
▁persistent	-9095
▁personally	-9096
▁pettersson	-9097
▁phoenician	-9098
▁popularity	-9099
▁possession	-9100
▁posthumous	-9101
▁precarious	-9102
▁precursors	-9103
▁prepayment	-9104
▁presenting	-9105
▁presumably	-9106
▁prevailing	-9107
▁preventing	-9108
▁principles	-9109
▁processing	-9110
▁propaganda	-9111
▁properties	-9112
▁protestant	-9113
▁protesting	-9114
▁provincial	-9115
▁psychology	-9116
▁racecourse	-9117
▁reasonable	-9118
▁reasonably	-9119
▁recognized	-9120
▁redemption	-9121
▁reductions	-9122
▁referenced	-9123
▁references	-9124
▁regardless	-9125
▁registered	-9126
▁relaxation	-9127
▁remarkable	-9128
▁resolution	-9129
▁responding	-9130
▁scrutinise	-9131
▁sculptural	-9132
▁separately	-9133
▁separation	-9134
▁seychelles	-9135
▁shackleton	-9136
▁shockwaves	-9137
▁situations	-9138
▁southasian	-9139
▁southwards	-9140
▁statuettes	-9141
▁strathearn	-9142
▁structures	-9143
▁struggling	-9144
▁subduction	-9145
▁submission	-9146
▁subsequent	-9147
▁succeeding	-9148
▁suggesting	-9149
▁sunderland	-9150
▁sunglasses	-9151
▁surprising	-9152
▁surrenders	-9153
▁suspension	-9154
▁suzerainty	-9155
▁theatrical	-9156
▁thirteenth	-9157
▁travellers	-9158
▁treatments	-9159
▁trivialize	-9160
▁ultrasound	-9161
▁unanswered	-9162
▁unassuming	-9163
▁uncommunic	-9164
▁uncovering	-9165
▁undercover	-9166
▁underlying	-9167
▁underscore	-9168
▁undertaken	-9169
▁undisputed	-9170
▁uneventful	-9171
▁unofficial	-9172
▁unreliable	-9173
▁vegetation	-9174
▁vernacular	-9175
▁versailles	-9176
▁villainous	-9177
▁villeneuve	-9178
▁waterfront	-9179
▁witchcraft	-9180
▁zuckerberg	-9181
accentuating	-9182
architecture	-9183
domesticated	-9184
pithekoussae	-9185
▁abandonment	-9186
▁accumulated	-9187
▁achievement	-9188
▁addenbrooke	-9189
▁anniversary	-9190
▁anticipated	-9191
▁appointment	-9192
▁attachments	-9193
▁australians	-9194
▁battlefield	-9195
▁candidature	-9196
▁carcassonne	-9197
▁cardholders	-9198
▁celebrating	-9199
▁celebration	-9200
▁celebrities	-9201
▁chamberlain	-9202
▁ciscaucasus	-9203
▁combination	-9204
▁comfortable	-9205
▁commercials	-9206
▁competition	-9207
▁complicated	-9208
▁concentrate	-9209
▁conclusions	-9210
▁connections	-9211
▁constituted	-9212
▁constitutes	-9213
▁continental	-9214
▁contracting	-9215
▁contributed	-9216
▁corporation	-9217
▁counsellors	-9218
▁countryside	-9219
▁declaration	-9220
▁demographic	-9221
▁demonstrate	-9222
▁dilapidated	-9223
▁disapproval	-9224
▁discordance	-9225
▁disparaging	-9226
▁distributor	-9227
▁drastically	-9228
▁electricity	-9229
▁enforcement	-9230
▁entertained	-9231
▁ethnicities	-9232
▁exceptional	-9233
▁existential	-9234
▁expeditions	-9235
▁exploration	-9236
▁extensively	-9237
▁extravagant	-9238
▁feasibility	-9239
▁fontvieille	-9240
▁forecasting	-9241
▁franciscans	-9242
▁fulfillment	-9243
▁fundamental	-9244
▁grandstands	-9245
▁hammersmith	-9246
▁heartwarmer	-9247
▁helicopters	-9248
▁highlighted	-9249
▁iconography	-9250
▁immigration	-9251
▁immortality	-9252
▁importantly	-9253
▁impregnable	-9254
▁incompetent	-9255
▁influential	-9256
▁inhabitants	-9257
▁inquisition	-9258
▁inscription	-9259
▁instruction	-9260
▁integration	-9261
▁intensifies	-9262
▁intercepted	-9263
▁interpreted	-9264
▁intertwined	-9265
▁journalists	-9266
▁kilimanjaro	-9267
▁krasnoyarsk	-9268
▁melanesians	-9269
▁mississippi	-9270
▁nationalism	-9271
▁nationality	-9272
▁nonetheless	-9273
▁northampton	-9274
▁observatory	-9275
▁overlooking	-9276
▁partitioned	-9277
▁percentages	-9278
▁philippines	-9279
▁phoenicians	-9280
▁photographs	-9281
▁planetarium	-9282
▁plantagenet	-9283
▁playwrights	-9284
▁politicians	-9285
▁populations	-9286
▁practically	-9287
▁precautions	-9288
▁predictable	-9289
▁preoccupies	-9290
▁preparation	-9291
▁prerogative	-9292
▁proactively	-9293
▁problematic	-9294
▁prohibiting	-9295
▁promotional	-9296
▁punishments	-9297
▁reclamation	-9298
▁reformation	-9299
▁refurbished	-9300
▁reichenbach	-9301
▁renaissance	-9302
▁republicans	-9303
▁restrictive	-9304
▁revelations	-9305
▁rupertsberg	-9306
▁settlements	-9307
▁shenanigans	-9308
▁smartphones	-9309
▁songwriting	-9310
▁specialized	-9311
▁spokeswoman	-9312
▁statistical	-9313
▁stipulation	-9314
▁storyboards	-9315
▁substantial	-9316
▁suggestions	-9317
▁technicians	-9318
▁telegraphic	-9319
▁temperature	-9320
▁territorial	-9321
▁territories	-9322
▁thermopylae	-9323
▁topographic	-9324
▁townspeople	-9325
▁transformed	-9326
▁transitions	-9327
▁unadvisable	-9328
▁undesirable	-9329
▁undeveloped	-9330
▁universiade	-9331
▁unqualified	-9332
▁unstoppable	-9333
▁vindication	-9334
▁vladivostok	-9335
▁volcanology	-9336
▁vulcanology	-9337
▁whereabouts	-9338
▁withdrawing	-9339
unfortunately	-9340
▁acknowledged	-9341
▁administered	-9342
▁alternatives	-9343
▁ambassadress	-9344
▁announcement	-9345
▁architecture	-9346
▁arrangements	-9347
▁astronomical	-9348
▁cabinetmaker	-9349
▁castelfranco	-9350
▁certificates	-9351
▁championship	-9352
▁childbearing	-9353
▁civilization	-9354
▁collaborates	-9355
▁colonisation	-9356
▁commissioned	-9357
▁compensation	-9358
▁concurrently	-9359
▁confidential	-9360
▁congratulate	-9361
▁conservative	-9362
▁conservatory	-9363
▁constituency	-9364
▁construction	-9365
▁consultation	-9366
▁contaminants	-9367
▁contemporary	-9368
▁continuation	-9369
▁continuously	-9370
▁contributing	-9371
▁declinations	-9372
▁definitively	-9373
▁degenerative	-9374
▁disabilities	-9375
▁disappointed	-9376
▁discontinued	-9377
▁domesticated	-9378
▁expectations	-9379
▁experiencing	-9380
▁explanations	-9381
▁hillsborough	-9382
▁humanitarian	-9383
▁impersonator	-9384
▁inflammatory	-9385
▁inordinately	-9386
▁institutions	-9387
▁insufficient	-9388
▁intelligence	-9389
▁intermarried	-9390
▁intersection	-9391
▁investigated	-9392
▁investigator	-9393
▁kristiansand	-9394
▁legitimately	-9395
▁logistically	-9396
▁manipulating	-9397
▁manufacturer	-9398
▁mesoamerican	-9399
▁municipality	-9400
▁negotiations	-9401
▁neighbouring	-9402
▁nevertheless	-9403
▁northwestern	-9404
▁obermarsberg	-9405
▁organization	-9406
▁participants	-9407
▁peloponnesus	-9408
▁performances	-9409
▁persistently	-9410
▁posthumously	-9411
▁prescription	-9412
▁productivity	-9413
▁professional	-9414
▁questionings	-9415
▁receptionist	-9416
▁registration	-9417
▁romanization	-9418
▁salinization	-9419
▁scrupulously	-9420
▁shipbuilding	-9421
▁similarities	-9422
▁speculations	-9423
▁stakeholders	-9424
▁strengthened	-9425
▁successfully	-9426
▁temperatures	-9427
▁thematically	-9428
▁transmitting	-9429
▁transporting	-9430
▁unacceptable	-9431
▁unemployment	-9432
▁unimaginable	-9433
▁vicissitudes	-9434
▁administrator	-9435
▁advertisement	-9436
▁agglomeration	-9437
▁assassination	-9438
▁characterised	-9439
▁circumstances	-9440
▁climatologies	-9441
▁confrontation	-9442
▁conservatives	-9443
▁constructions	-9444
▁contamination	-9445
▁corresponding	-9446
▁disibodenberg	-9447
▁disintegrated	-9448
▁encouragement	-9449
▁exceptionally	-9450
▁expropriating	-9451
▁incorporating	-9452
▁independently	-9453
▁institutional	-9454
▁intellectuals	-9455
▁intentionally	-9456
▁investigative	-9457
▁justification	-9458
▁organisations	-9459
▁organizations	-9460
▁parliamentary	-9461
▁participation	-9462
▁precipitation	-9463
▁professionals	-9464
▁relationships	-9465
▁retrospective	-9466
▁revolutionary	-9467
▁significantly	-9468
▁stereotypical	-9469
▁swordsmanship	-9470
▁thunderstorms	-9471
▁traditionally	-9472
▁transcaucasus	-9473
▁uncooperative	-9474
▁undercarriage	-9475
▁underestimate	-9476
▁unfortunately	-9477
▁unprecedented	-9478
▁unpretentious	-9479
▁vulnerability	-9480
▁£3,000-£5,000	-9481
▁administration	-9482
▁administrative	-9483
▁bellingshausen	-9484
▁cambridgeshire	-9485
▁capitalisation	-9486
▁climatologists	-9487
▁contraceptives	-9488
▁czechoslovakia	-9489
▁federalization	-9490
▁identification	-9491
▁infrastructure	-9492
▁organizational	-9493
▁paramilitaries	-9494
▁reconciliation	-9495
▁reconstruction	-9496
▁sacrococcygeal	-9497
▁schoolchildren	-9498
▁transportation	-9499
▁unconventional	-9500
▁administrations	-9501
▁commercializing	-9502
▁discontinuation	-9503
▁representatives	-9504
▁technologically	-9505
▁transformations	-9506
▁uncommunicative	-9507
▁£15,001-£19,999	-9508
0),	-9509
03.	-9510
191	-9511
195	-9512
197	-9513
198	-9514
25,	-9515
28,	-9516
30-	-9517
519	-9518
55,	-9519
55.	-9520
60.	-9521
61,	-9522
69,	-9523
75.	-9524
79,	-9525
82.	-9526
87.	-9527
axp	-9528
cra	-9529
cyc	-9530
dha	-9531
dra	-9532
hai	-9533
hnn	-9534
lae	-9535
lhi	-9536
lsh	-9537
noy	-9538
oys	-9539
scu	-9540
upa	-9541
ybo	-9542
£19	-9543
£5,	-9544
▁66	-9545
▁70	-9546
▁83	-9547
▁án	-9548
5,00	-9549
5-20	-9550
agma	-9551
aims	-9552
alax	-9553
alma	-9554
amme	-9555
aphs	-9556
appo	-9557
arao	-9558
arby	-9559
ashv	-9560
atka	-9561
axed	-9562
bled	-9563
bler	-9564
bsit	-9565
bune	-9566
bute	-9567
cano	-9568
caut	-9569
chae	-9570
cils	-9571
cind	-9572
crib	-9573
cuit	-9574
curs	-9575
cute	-9576
dden	-9577
ecut	-9578
eleb	-9579
enae	-9580
enef	-9581
enno	-9582
erem	-9583
erns	-9584
flam	-9585
gery	-9586
ggle	-9587
gins	-9588
gued	-9589
hens	-9590
hind	-9591
ietr	-9592
iker	-9593
immy	-9594
iogr	-9595
joys	-9596
kiel	-9597
laim	-9598
lave	-9599
26,	-9600
56,	-9601
6,5	-9602
66,	-9603
76,	-9604
sca	-9605
abaz	-9606
ambr	-9607
azed	-9608
azon	-9609
ccup	-9610
iggy	-9611
lebr	-9612
lney	-9613
loye	-9614
mbol	-9615
ntal	-9616
nual	-9617
nuck	-9618
ontv	-9619
otha	-9620
otsf	-9621
ougl	-9622
pels	-9623
pisc	-9624
rats	-9625
rged	-9626
riev	-9627
sbor	-9628
sett	-9629
sman	-9630
soci	-9631
ssal	-9632
sues	-9633
uenc	-9634
ulls	-9635
umae	-9636
ungs	-9637
vann	-9638
venc	-9639
xico	-9640
ypes	-9641
ypot	-9642
yway	-9643
zhen	-9644
zále	-9645
£19,	-9646
ánge	-9647
▁135	-9648
▁139	-9649
▁163	-9650
▁168	-9651
▁179	-9652
▁35,	-9653
▁512	-9654
▁550	-9655
▁ack	-9656
▁gey	-9657
▁hyd	-9658
▁irk	-9659
▁myc	-9660
▁pyr	-9661
▁rug	-9662
▁sky	-9663
▁syn	-9664
aglev	-9665
agoon	-9666
alern	-9667
alkan	-9668
alked	-9669
altic	-9670
amero	-9671
anakh	-9672
anama	-9673
anned	-9674
anube	-9675
apole	-9676
appro	-9677
armon	-9678
arrat	-9679
atisf	-9680
atute	-9681
avell	-9682
axpay	-9683
blems	-9684
bling	-9685
botsf	-9686
bours	-9687
brity	-9688
bsbur	-9689
celia	-9690
cenae	-9691
centr	-9692
cgreg	-9693
cient	-9694
clear	-9695
comed	-9696
ctual	-9697
cycle	-9698
dered	-9699
eks	-9700
▁zá	-9701
alty	-9702
celt	-9703
grap	-9704
irty	-9705
lark	-9706
liam	-9707
nson	-9708
wald	-9709
ysic	-9710
▁poo	-9711
▁zin	-9712
athol	-9713
berty	-9714
dives	-9715
dless	-9716
dogan	-9717
ducts	-9718
edged	-9719
eking	-9720
emale	-9721
emple	-9722
enche	-9723
enged	-9724
ereot	-9725
erked	-9726
ervat	-9727
esale	-9728
ettel	-9729
event	-9730
eving	-9731
fects	-9732
fused	-9733
garon	-9734
gency	-9735
ggest	-9736
glect	-9737
gular	-9738
heery	-9739
helor	-9740
hetic	-9741
hitan	-9742
icata	-9743
idenc	-9744
idual	-9745
ieves	-9746
igins	-9747
ijink	-9748
ilica	-9749
illsb	-9750
ilots	-9751
imals	-9752
imits	-9753
incip	-9754
incol	-9755
indic	-9756
indle	-9757
inetm	-9758
inner	-9759
insul	-9760
inued	-9761
ioman	-9762
irety	-9763
irman	-9764
irths	-9765
itchh	-9766
itler	-9767
itute	-9768
itzer	-9769
ividu	-9770
jured	-9771
lamic	-9772
lectu	-9773
leged	-9774
leted	-9775
litch	-9776
loyed	-9777
mbled	-9778
natch	-9779
nects	-9780
nexed	-9781
ocrat	-9782
olars	-9783
oliot	-9784
ollip	-9785
ompey	-9786
omple	-9787
optic	-9788
orges	-9789
orias	-9790
orida	-9791
orner	-9792
orthy	-9793
ortug	-9794
oslov	-9795
osphe	-9796
ossib	-9797
otogr	-9798
oving	-9799
12,	-9800
32,	-9801
40,	-9802
62,	-9803
70,	-9804
82,	-9805
90,	-9806
coh	-9807
ext	-9808
xti	-9809
▁56	-9810
alks	-9811
ampb	-9812
arah	-9813
coop	-9814
cove	-9815
gets	-9816
hanz	-9817
haus	-9818
kily	-9819
lock	-9820
ockw	-9821
pons	-9822
rodu	-9823
selv	-9824
xtil	-9825
▁obv	-9826
▁£1.	-9827
afton	-9828
ample	-9829
ankly	-9830
arget	-9831
attle	-9832
awful	-9833
erful	-9834
ettle	-9835
geted	-9836
hesis	-9837
iewed	-9838
intad	-9839
nolog	-9840
ooden	-9841
orget	-9842
owboy	-9843
perty	-9844
pired	-9845
pital	-9846
posed	-9847
ptual	-9848
raine	-9849
ralia	-9850
reets	-9851
reshw	-9852
ribed	-9853
roduc	-9854
rogen	-9855
shore	-9856
spect	-9857
starr	-9858
stood	-9859
stron	-9860
tests	-9861
thnic	-9862
tized	-9863
toric	-9864
uages	-9865
ucker	-9866
udhoy	-9867
uliet	-9868
unner	-9869
unway	-9870
upied	-9871
ursue	-9872
ushes	-9873
ussed	-9874
usses	-9875
usual	-9876
varez	-9877
vency	-9878
vente	-9879
versa	-9880
vices	-9881
xygen	-9882
ylark	-9883
ynast	-9884
▁"100	-9885
▁1,16	-9886
▁1,33	-9887
▁1519	-9888
▁1530	-9889
▁168,	-9890
▁1914	-9891
▁1973	-9892
▁1975	-9893
▁1977	-9894
▁1996	-9895
▁23.4	-9896
▁330,	-9897
▁512-	-9898
▁acha	-9899
63.	-9900
ebe	-9901
iov	-9902
000.	-9903
adio	-9904
cily	-9905
gthe	-9906
omps	-9907
rips	-9908
tenn	-9909
thel	-9910
then	-9911
urio	-9912
▁boe	-9913
▁gio	-9914
▁mah	-9915
▁mai	-9916
▁maj	-9917
▁max	-9918
▁que	-9919
ctica	-9920
dress	-9921
gests	-9922
icted	-9923
ictim	-9924
ictor	-9925
nians	-9926
onses	-9927
opted	-9928
terns	-9929
ugust	-9930
yists	-9931
▁2002	-9932
▁2006	-9933
▁2009	-9934
▁acro	-9935
▁actu	-9936
▁acut	-9937
▁affl	-9938
▁airl	-9939
▁aldr	-9940
▁alex	-9941
▁amyn	-9942
▁answ	-9943
▁asyl	-9944
▁batt	-9945
▁beij	-9946
▁benc	-9947
▁boom	-9948
▁braz	-9949
▁calc	-9950
▁caut	-9951
▁cere	-9952
▁corr	-9953
▁cras	-9954
▁cris	-9955
▁crum	-9956
▁curt	-9957
▁debr	-9958
▁duck	-9959
▁duff	-9960
▁elab	-9961
▁elid	-9962
▁equi	-9963
▁font	-9964
▁fulf	-9965
▁geog	-9966
▁glas	-9967
▁glin	-9968
▁habs	-9969
▁hube	-9970
▁icel	-9971
▁infr	-9972
▁karn	-9973
▁knoc	-9974
▁lapt	-9975
▁larg	-9976
▁lawm	-9977
▁litt	-9978
▁madr	-9979
▁matc	-9980
▁matt	-9981
▁meij	-9982
▁mett	-9983
▁nerv	-9984
▁netw	-9985
▁nick	-9986
▁numb	-9987
▁obsc	-9988
▁occu	-9989
▁onbo	-9990
▁ongo	-9991
▁panv	-9992
▁papw	-9993
▁pelu	-9994
▁piet	-9995
▁pint	-9996
▁piqu	-9997
▁pois	-9998
▁priz	-9999
aws	-10000
gaw	-10001
cocc	-10002
dsay	-10003
fict	-10004
fton	-10005
gium	-10006
ictu	-10007
jink	-10008
life	-10009
lude	-10010
mium	-10011
oldi	-10012
onds	-10013
raps	-10014
regn	-10015
rink	-10016
sday	-10017
sung	-10018
toni	-10019
ucky	-10020
unds	-10021
xury	-10022
▁pho	-10023
adium	-10024
atium	-10025
cials	-10026
conds	-10027
ected	-10028
esday	-10029
inton	-10030
lains	-10031
ludes	-10032
offic	-10033
olden	-10034
outhw	-10035
rased	-10036
tific	-10037
unday	-10038
xtiet	-10039
▁fict	-10040
▁geni	-10041
▁phar	-10042
▁phas	-10043
▁phon	-10044
▁punt	-10045
▁quit	-10046
▁quot	-10047
▁reli	-10048
▁ross	-10049
▁secu	-10050
▁setb	-10051
▁seyc	-10052
▁sker	-10053
▁subj	-10054
▁subm	-10055
▁sull	-10056
▁summ	-10057
▁terr	-10058
▁tint	-10059
▁unkn	-10060
▁vari	-10061
▁yann	-10062
▁£10,	-10063
▁£360	-10064
00,000	-10065
1-£19,	-10066
5-2016	-10067
abinet	-10068
achers	-10069
acific	-10070
adress	-10071
affert	-10072
agoons	-10073
ailway	-10074
alised	-10075
alking	-10076
allels	-10077
alleng	-10078
allstr	-10079
alties	-10080
alysts	-10081
anches	-10082
ancial	-10083
ancisc	-10084
andful	-10085
anevir	-10086
anking	-10087
anolog	-10088
apidly	-10089
approp	-10090
aptism	-10091
arians	-10092
arital	-10093
arling	-10094
arning	-10095
arrard	-10096
arried	-10097
arsber	-10098
asised	-10099
4).	-10100
aise	-10101
aiss	-10102
anev	-10103
bell	-10104
cret	-10105
ellt	-10106
issi	-10107
issu	-10108
mars	-10109
ples	-10110
rane	-10111
tise	-10112
uell	-10113
upae	-10114
uvri	-10115
vise	-10116
▁eri	-10117
▁lob	-10118
▁lov	-10119
▁loy	-10120
▁rob	-10121
▁roc	-10122
▁rog	-10123
▁rol	-10124
▁roo	-10125
ables	-10126
apels	-10127
arles	-10128
ellin	-10129
icles	-10130
inked	-10131
iples	-10132
issal	-10133
issis	-10134
issit	-10135
itles	-10136
niver	-10137
orced	-10138
ratic	-10139
riter	-10140
▁appa	-10141
▁bloc	-10142
▁buil	-10143
▁cosp	-10144
▁feat	-10145
▁impa	-10146
▁impl	-10147
▁nash	-10148
▁obje	-10149
▁quic	-10150
▁road	-10151
▁syst	-10152
asmine	-10153
asonab	-10154
astern	-10155
astisl	-10156
asured	-10157
asures	-10158
atants	-10159
avalry	-10160
bative	-10161
bished	-10162
bruary	-10163
bsites	-10164
canoes	-10165
cedent	-10166
cember	-10167
centag	-10168
change	-10169
chatka	-10170
chbish	-10171
cholog	-10172
cializ	-10173
cision	-10174
comple	-10175
concil	-10176
conomy	-10177
cooper	-10178
covery	-10179
ctober	-10180
ctress	-10181
ctures	-10182
dament	-10183
derest	-10184
dingen	-10185
domest	-10186
ecelia	-10187
elanes	-10188
elania	-10189
ematic	-10190
embers	-10191
emenid	-10192
eneral	-10193
engths	-10194
ensbur	-10195
entful	-10196
entsin	-10197
eraliz	-10198
erived	-10199
phy	-10200
wns	-10201
▁55	-10202
▁£3	-10203
ailb	-10204
azid	-10205
erms	-10206
fran	-10207
hile	-10208
ilmm	-10209
ilms	-10210
inds	-10211
nown	-10212
phon	-10213
phor	-10214
ritt	-10215
russ	-10216
sert	-10217
tale	-10218
tile	-10219
uert	-10220
ulph	-10221
urph	-10222
vail	-10223
wned	-10224
ailor	-10225
anged	-10226
anges	-10227
ertif	-10228
ertil	-10229
etail	-10230
ettes	-10231
ffert	-10232
ganiz	-10233
hearn	-10234
ilmed	-10235
irrit	-10236
organ	-10237
rator	-10238
unted	-10239
▁acce	-10240
▁dail	-10241
▁estr	-10242
▁lang	-10243
▁seph	-10244
actile	-10245
anging	-10246
arrack	-10247
ernard	-10248
errane	-10249
esians	-10250
ething	-10251
etting	-10252
evelop	-10253
ferend	-10254
ffects	-10255
fident	-10256
forman	-10257
franco	-10258
gative	-10259
gesses	-10260
ggling	-10261
gramme	-10262
hitans	-10263
iances	-10264
ibited	-10265
icolai	-10266
icolas	-10267
ictory	-10268
idians	-10269
ieille	-10270
iginal	-10271
igrant	-10272
igures	-10273
ilapid	-10274
ilians	-10275
ilming	-10276
ilomet	-10277
imates	-10278
inants	-10279
inates	-10280
incess	-10281
incial	-10282
incoln	-10283
ingful	-10284
ingham	-10285
ington	-10286
inking	-10287
inning	-10288
ionals	-10289
ishima	-10290
ississ	-10291
issues	-10292
istrib	-10293
italis	-10294
itting	-10295
itures	-10296
ituted	-10297
itutes	-10298
ivided	-10299
39,	-10300
bum	-10301
cul	-10302
ffs	-10303
ffy	-10304
onv	-10305
pul	-10306
ulf	-10307
uli	-10308
umm	-10309
wse	-10310
ymb	-10311
▁rs	-10312
anam	-10313
aris	-10314
ctiv	-10315
draw	-10316
eent	-10317
ffed	-10318
ffic	-10319
ffre	-10320
hina	-10321
ibit	-10322
opyl	-10323
site	-10324
umed	-10325
umou	-10326
umst	-10327
void	-10328
▁atm	-10329
▁bil	-10330
▁cul	-10331
▁dum	-10332
▁obj	-10333
▁osc	-10334
▁unq	-10335
alarm	-10336
ansit	-10337
asing	-10338
carri	-10339
chite	-10340
dings	-10341
ducer	-10342
ffort	-10343
idson	-10344
ingsh	-10345
inite	-10346
itect	-10347
kings	-10348
lared	-10349
osite	-10350
pturn	-10351
sters	-10352
tings	-10353
▁2001	-10354
▁aler	-10355
▁burn	-10356
▁caes	-10357
▁coat	-10358
▁crou	-10359
▁desi	-10360
▁durá	-10361
▁earl	-10362
▁frid	-10363
▁mail	-10364
▁pref	-10365
▁preh	-10366
▁preo	-10367
▁prep	-10368
▁spor	-10369
▁stra	-10370
▁winn	-10371
25,000	-10372
erings	-10373
erious	-10374
etings	-10375
herine	-10376
icates	-10377
igious	-10378
inares	-10379
iously	-10380
ivilis	-10381
iviliz	-10382
jandra	-10383
lances	-10384
leared	-10385
learly	-10386
leased	-10387
legian	-10388
leting	-10389
likely	-10390
lished	-10391
lision	-10392
llings	-10393
luding	-10394
lution	-10395
lympic	-10396
matory	-10397
merged	-10398
merica	-10399
")	-10400
ku	-10401
rp	-10402
zh	-10403
£5	-10404
amn	-10405
auc	-10406
dam	-10407
hep	-10408
lce	-10409
olk	-10410
pth	-10411
riz	-10412
thi	-10413
thw	-10414
tig	-10415
use	-10416
ype	-10417
zay	-10418
zir	-10419
▁ea	-10420
alia	-10421
arad	-10422
cest	-10423
dary	-10424
enic	-10425
gand	-10426
geab	-10427
herl	-10428
idel	-10429
idly	-10430
iest	-10431
inth	-10432
mand	-10433
nand	-10434
onen	-10435
pand	-10436
peak	-10437
rith	-10438
thas	-10439
thou	-10440
thre	-10441
vere	-10442
▁fer	-10443
▁seg	-10444
▁sei	-10445
▁sep	-10446
▁ups	-10447
▁wee	-10448
abell	-10449
andar	-10450
andon	-10451
atest	-10452
ccoun	-10453
enden	-10454
ensor	-10455
esand	-10456
ether	-10457
imbur	-10458
inder	-10459
ither	-10460
ithin	-10461
ithou	-10462
orado	-10463
ortan	-10464
orton	-10465
udget	-10466
ulcan	-10467
▁100,	-10468
▁cong	-10469
▁deve	-10470
▁fron	-10471
▁sere	-10472
▁test	-10473
▁thur	-10474
▁weig	-10475
actual	-10476
alkans	-10477
anding	-10478
asters	-10479
estion	-10480
igners	-10481
ixties	-10482
minist	-10483
missal	-10484
misses	-10485
nation	-10486
nivers	-10487
nology	-10488
ockage	-10489
ocross	-10490
oggers	-10491
ogists	-10492
oister	-10493
olders	-10494
oldier	-10495
oliday	-10496
olitan	-10497
olmens	-10498
ometim	-10499
3-	-10500
47	-10501
tb	-10502
arb	-10503
bam	-10504
cam	-10505
chb	-10506
chl	-10507
chn	-10508
cho	-10509
eam	-10510
ech	-10511
gam	-10512
gim	-10513
gth	-10514
hse	-10515
jam	-10516
lse	-10517
mig	-10518
mol	-10519
nch	-10520
nig	-10521
pec	-10522
ppi	-10523
sch	-10524
sef	-10525
uat	-10526
uri	-10527
wel	-10528
xam	-10529
amat	-10530
andf	-10531
anig	-10532
char	-10533
erat	-10534
ffor	-10535
fter	-10536
imil	-10537
ingl	-10538
ivor	-10539
olch	-10540
onig	-10541
oslo	-10542
perv	-10543
rand	-10544
rass	-10545
rien	-10546
sear	-10547
seas	-10548
sult	-10549
tera	-10550
terc	-10551
terp	-10552
terw	-10553
urat	-10554
urch	-10555
ursu	-10556
xter	-10557
▁gam	-10558
▁gol	-10559
▁nig	-10560
▁ron	-10561
▁rou	-10562
▁rus	-10563
▁sid	-10564
▁sin	-10565
aster	-10566
atter	-10567
chies	-10568
ching	-10569
class	-10570
dance	-10571
ednes	-10572
estig	-10573
herin	-10574
isses	-10575
oured	-10576
stand	-10577
terce	-10578
terly	-10579
terse	-10580
verse	-10581
▁chic	-10582
▁reig	-10583
▁whic	-10584
▁whol	-10585
▁£15,	-10586
apanes	-10587
ctable	-10588
iewing	-10589
omfort	-10590
omists	-10591
ompous	-10592
onised	-10593
onored	-10594
onzále	-10595
orates	-10596
orians	-10597
orslet	-10598
ossess	-10599
oz	-10600
tf	-10601
aby	-10602
adu	-10603
cha	-10604
deg	-10605
dow	-10606
etp	-10607
hig	-10608
ird	-10609
irk	-10610
irm	-10611
jet	-10612
kir	-10613
mou	-10614
net	-10615
now	-10616
oet	-10617
uet	-10618
uly	-10619
usp	-10620
uti	-10621
zet	-10622
zid	-10623
akum	-10624
andl	-10625
anet	-10626
esit	-10627
estm	-10628
etar	-10629
etat	-10630
eten	-10631
eter	-10632
etim	-10633
etro	-10634
ifte	-10635
igar	-10636
igit	-10637
ilow	-10638
ipal	-10639
irid	-10640
iris	-10641
omas	-10642
onet	-10643
ower	-10644
rean	-10645
sess	-10646
turn	-10647
verl	-10648
vert	-10649
▁alg	-10650
▁asi	-10651
▁ask	-10652
▁asy	-10653
▁cob	-10654
▁eig	-10655
▁mig	-10656
▁ras	-10657
▁sty	-10658
aming	-10659
emiss	-10660
erlin	-10661
igher	-10662
liest	-10663
onver	-10664
verit	-10665
▁arro	-10666
▁conq	-10667
▁cred	-10668
▁disr	-10669
▁forw	-10670
▁howe	-10671
▁loop	-10672
▁menh	-10673
▁shor	-10674
americ	-10675
fluent	-10676
▁	-10677
e	-10678
t	-10679
a	-10680
i	-10681
n	-10682
o	-10683
r	-10684
s	-10685
h	-10686
l	-10687
d	-10688
c	-10689
u	-10690
m	-10691
p	-10692
f	-10693
g	-10694
w	-10695
b	-10696
y	-10697
.	-10698
,	-10699
v	-10700
k	-10701
1	-10702
0	-10703
x	-10704
j	-10705
"	-10706
'	-10707
-	-10708
2	-10709
9	-10710
z	-10711
3	-10712
5	-10713
q	-10714
6	-10715
8	-10716
7	-10717
4	-10718
’	-10719
(	-10720
)	-10721
“	-10722
”	-10723
:	-10724
%	-10725
;	-10726
?	-10727
£	-10728
á	-10729
—	-10730
