<unk>	0
<s>	0
</s>	0
an	-0
▁d	-1
er	-2
en	-3
▁m	-4
▁s	-5
▁p	-6
ar	-7
ang	-8
▁t	-9
▁b	-10
in	-11
la	-12
▁k	-13
un	-14
at	-15
ak	-16
▁di	-17
em	-18
ah	-19
▁men	-20
▁se	-21
as	-22
ad	-23
ya	-24
tu	-25
kan	-26
al	-27
▁y	-28
is	-29
▁yang	-30
am	-31
ada	-32
▁dan	-33
▁ke	-34
ik	-35
on	-36
ing	-37
▁i	-38
▁per	-39
▁h	-40
lah	-41
ap	-42
or	-43
▁ber	-44
nya	-45
ga	-46
il	-47
es	-48
eng	-49
us	-50
ara	-51
▁mem	-52
ut	-53
lam	-54
ari	-55
▁in	-56
ek	-57
el	-58
▁r	-59
▁meng	-60
▁ter	-61
▁j	-62
ir	-63
it	-64
ol	-65
▁un	-66
akan	-67
um	-68
id	-69
▁l	-70
ur	-71
tuk	-72
▁untuk	-73
ia	-74
▁n	-75
▁pada	-76
eb	-77
▁ini	-78
▁seb	-79
ung	-80
engan	-81
uk	-82
▁dengan	-83
▁itu	-84
alam	-85
▁dari	-86
ul	-87
asi	-88
▁tah	-89
ti	-90
▁a	-91
▁c	-92
ian	-93
▁dalam	-94
▁tahun	-95
et	-96
ih	-97
▁la	-98
▁g	-99
▁mer	-100
idak	-101
im	-102
▁sa	-103
▁1	-104
ent	-105
▁ada	-106
and	-107
elah	-108
wa	-109
▁tidak	-110
ud	-111
si	-112
uh	-113
▁ba	-114
ama	-115
▁pen	-116
▁memb	-117
emb	-118
ta	-119
per	-120
orang	-121
om	-122
ed	-123
ja	-124
asa	-125
aga	-126
▁pr	-127
ela	-128
▁w	-129
eh	-130
▁ia	-131
▁f	-132
eka	-133
anya	-134
eg	-135
▁bah	-136
▁adalah	-137
tr	-138
oleh	-139
▁mereka	-140
ua	-141
agai	-142
ingg	-143
angan	-144
▁oleh	-145
ep	-146
any	-147
ok	-148
ata	-149
▁pem	-150
up	-151
ub	-152
isi	-153
▁pert	-154
▁sebagai	-155
ant	-156
▁telah	-157
▁akan	-158
▁meny	-159
os	-160
ukan	-161
apa	-162
emp	-163
esar	-164
ikan	-165
▁bahwa	-166
▁orang	-167
ika	-168
lama	-169
adi	-170
▁mend	-171
▁peng	-172
op	-173
atu	-174
end	-175
ter	-176
▁kon	-177
▁menj	-178
ebih	-179
ot	-180
ula	-181
inya	-182
gi	-183
▁2	-184
▁“	-185
ana	-186
▁lebih	-187
▁set	-188
od	-189
▁19	-190
atan	-191
gian	-192
▁sek	-193
▁tent	-194
anyak	-195
ic	-196
amp	-197
ali	-198
▁banyak	-199
▁ju	-200
ahan	-201
int	-202
isa	-203
ulan	-204
▁besar	-205
ob	-206
▁bar	-207
angg	-208
▁kem	-209
▁selama	-210
angk	-211
ab	-212
uah	-213
▁20	-214
▁sem	-215
▁juga	-216
ib	-217
sa	-218
apat	-219
▁kep	-220
▁sebuah	-221
lu	-222
anj	-223
uan	-224
▁ak	-225
aran	-226
▁dib	-227
▁kar	-228
ong	-229
ebut	-230
▁bisa	-231
api	-232
perti	-233
▁satu	-234
uj	-235
hir	-236
▁bulan	-237
▁mengh	-238
▁menjadi	-239
▁setelah	-240
▁tentang	-241
ist	-242
amb	-243
cara	-244
▁saya	-245
uat	-246
▁ant	-247
▁nam	-248
empat	-249
▁seperti	-250
aan	-251
▁ser	-252
▁namun	-253
ota	-254
▁al	-255
▁neg	-256
▁sang	-257
aya	-258
ena	-259
iki	-260
wan	-261
▁as	-262
atas	-263
▁mel	-264
▁terb	-265
▁ters	-266
▁memil	-267
▁v	-268
ind	-269
erja	-270
▁bagian	-271
ati	-272
gun	-273
▁dis	-274
annya	-275
▁tapi	-276
▁tr	-277
ungk	-278
▁saat	-279
anc	-280
iri	-281
ita	-282
atakan	-283
▁sangat	-284
amer	-285
elum	-286
▁pas	-287
▁baru	-288
▁sela	-289
utu	-290
▁ar	-291
▁ka	-292
▁ti	-293
▁mela	-294
▁menc	-295
ki	-296
▁bi	-297
adap	-298
alan	-299
eber	-300
uran	-301
▁pol	-302
▁hari	-303
▁pemb	-304
▁memiliki	-305
ch	-306
▁(	-307
ulai	-308
▁bert	-309
▁para	-310
▁pend	-311
ungkin	-312
ain	-313
▁dit	-314
▁har	-315
▁mus	-316
▁par	-317
▁tan	-318
▁antara	-319
▁negara	-320
▁secara	-321
▁tersebut	-322
00	-323
ami	-324
ris	-325
atau	-326
udah	-327
ungan	-328
▁atau	-329
▁lain	-330
▁masa	-331
angkan	-332
▁pemer	-333
▁ag	-334
▁kek	-335
ingga	-336
▁seorang	-337
▁o	-338
eri	-339
▁re	-340
▁th	-341
aman	-342
anda	-343
onal	-344
usia	-345
▁dip	-346
▁hal	-347
▁kota	-348
est	-349
▁er	-350
▁su	-351
▁201	-352
gunakan	-353
▁karena	-354
▁pemerint	-355
ag	-356
og	-357
ila	-358
▁si	-359
▁dua	-360
▁ked	-361
▁sej	-362
▁beber	-363
▁pertama	-364
▁beberapa	-365
ump	-366
▁ek	-367
elas	-368
ingk	-369
▁dik	-370
▁ker	-371
▁mas	-372
▁amer	-373
▁berb	-374
inggal	-375
▁hingga	-376
▁perang	-377
▁membuat	-378
le	-379
▁3	-380
umb	-381
▁ap	-382
▁me	-383
▁ut	-384
entu	-385
▁kes	-386
▁ket	-387
▁sed	-388
▁sep	-389
▁baik	-390
▁berk	-391
▁terh	-392
▁mulai	-393
▁sudah	-394
▁e	-395
ont	-396
tan	-397
wal	-398
▁lu	-399
itar	-400
uhan	-401
▁dir	-402
▁sel	-403
akhir	-404
ingan	-405
ingin	-406
▁laut	-407
▁pers	-408
ekerja	-409
▁hanya	-410
ans	-411
lik	-412
▁ma	-413
▁sp	-414
ilih	-415
unan	-416
▁keb	-417
▁mar	-418
▁mes	-419
▁pun	-420
▁kemb	-421
▁perj	-422
▁amerika	-423
▁kembali	-424
▁sebelum	-425
ola	-426
orm	-427
ihat	-428
itik	-429
atkan	-430
▁sekitar	-431
▁terhadap	-432
ai	-433
ea	-434
ima	-435
▁ab	-436
▁kh	-437
angi	-438
asil	-439
ustr	-440
▁fil	-441
▁ind	-442
▁kom	-443
▁tet	-444
▁ingg	-445
▁dapat	-446
▁inggris	-447
▁mendapat	-448
oh	-449
ini	-450
▁an	-451
▁de	-452
▁uj	-453
idup	-454
ikut	-455
unia	-456
usah	-457
▁dia	-458
▁kec	-459
▁pal	-460
▁pel	-461
▁wak	-462
▁film	-463
▁kami	-464
▁luar	-465
▁dunia	-466
▁tempat	-467
▁terakhir	-468
ig	-469
pa	-470
ili	-471
las	-472
unj	-473
yah	-474
▁st	-475
agian	-476
angka	-477
kukan	-478
ukkan	-479
▁awal	-480
▁mana	-481
▁sama	-482
▁send	-483
▁musim	-484
▁kepada	-485
▁mungkin	-486
▁selatan	-487
▁sendiri	-488
▁mengatakan	-489
ac	-490
af	-491
aw	-492
ec	-493
ju	-494
ow	-495
imp	-496
und	-497
▁is	-498
▁ja	-499
sung	-500
▁did	-501
arkan	-502
▁bers	-503
▁terl	-504
upakan	-505
▁akhir	-506
▁diper	-507
▁harus	-508
▁kedua	-509
▁waktu	-510
▁pemerintah	-511
iv	-512
har	-513
man	-514
▁br	-515
alia	-516
ania	-517
arah	-518
uang	-519
utus	-520
▁apa	-521
▁pes	-522
▁sen	-523
▁abad	-524
▁peny	-525
▁saja	-526
▁wila	-527
▁semua	-528
▁tetap	-529
ip	-530
ne	-531
ill	-532
ode	-533
opa	-534
tur	-535
uka	-536
unc	-537
▁of	-538
akin	-539
ensi	-540
iter	-541
ulis	-542
▁tak	-543
ahkan	-544
entuk	-545
▁berd	-546
▁berp	-547
▁kons	-548
▁ujar	-549
▁eropa	-550
▁mengg	-551
▁tangg	-552
usahaan	-553
▁wilayah	-554
▁sebagian	-555
▁merupakan	-556
ay	-557
mb	-558
▁z	-559
enc	-560
ger	-561
ogi	-562
ses	-563
usi	-564
antu	-565
emen	-566
iden	-567
luar	-568
main	-569
olah	-570
▁med	-571
▁tek	-572
ampil	-573
inggi	-574
ologi	-575
▁kita	-576
enting	-577
ilihan	-578
▁tiong	-579
angsung	-580
▁digunakan	-581
▁mendapatkan	-582
0-	-583
ov	-584
ers	-585
hen	-586
ium	-587
tus	-588
uku	-589
▁18	-590
▁gr	-591
umum	-592
unga	-593
▁200	-594
▁pos	-595
ambil	-596
udara	-597
▁jika	-598
▁lagi	-599
▁nama	-600
▁hidup	-601
▁salah	-602
▁suara	-603
▁utara	-604
▁bahasa	-605
▁keluar	-606
▁bekerja	-607
▁tanggal	-608
▁perusahaan	-609
,”	-610
gu	-611
if	-612
ug	-613
000	-614
aik	-615
aja	-616
ina	-617
kok	-618
ons	-619
osi	-620
por	-621
tai	-622
uta	-623
▁sm	-624
asan	-625
enal	-626
eral	-627
iran	-628
itas	-629
onom	-630
uasa	-631
usus	-632
vest	-633
▁din	-634
▁kap	-635
▁keh	-636
▁rep	-637
angsa	-638
arang	-639
istem	-640
ublik	-641
ulkan	-642
▁atas	-643
▁lalu	-644
▁pres	-645
▁tiga	-646
anjang	-647
▁inter	-648
▁jelas	-649
▁kemud	-650
▁kontr	-651
▁tanpa	-652
▁khusus	-653
▁paling	-654
▁tiongkok	-655
di	-656
ej	-657
ev	-658
mas	-659
utr	-660
wah	-661
yar	-662
▁ch	-663
▁kr	-664
▁pa	-665
enuh	-666
inta	-667
ulau	-668
urat	-669
▁air	-670
▁dep	-671
▁pan	-672
▁rom	-673
▁tem	-674
anjut	-675
ember	-676
umlah	-677
ungai	-678
▁bagi	-679
▁berl	-680
anjian	-681
erikan	-682
▁austr	-683
▁menga	-684
▁meski	-685
▁berada	-686
▁memper	-687
▁menyer	-688
▁kemudian	-689
▁mengambil	-690
▁pemilihan	-691
▁perjanjian	-692
2,	-693
fr	-694
oc	-695
th	-696
▁5	-697
imb	-698
ira	-699
wak	-700
▁en	-701
▁te	-702
alis	-703
form	-704
land	-705
trik	-706
uduk	-707
▁199	-708
▁alb	-709
▁art	-710
▁ben	-711
ancis	-712
apkan	-713
atang	-714
umber	-715
▁lama	-716
▁bawah	-717
▁biasa	-718
▁menur	-719
▁menya	-720
asional	-721
▁invest	-722
▁sungai	-723
▁melihat	-724
▁akhirnya	-725
▁membantu	-726
▁melakukan	-727
▁meninggal	-728
),	-729
.”	-730
5.	-731
ca	-732
ji	-733
li	-734
se	-735
▁-	-736
ade	-737
ank	-738
ark	-739
lat	-740
omp	-741
tif	-742
ton	-743
▁da	-744
▁dr	-745
▁em	-746
▁ga	-747
▁ob	-748
▁ok	-749
ahun	-750
arik	-751
etak	-752
ikit	-753
ukum	-754
unya	-755
uruh	-756
▁eks	-757
▁jer	-758
▁lah	-759
▁mak	-760
▁mil	-761
▁mod	-762
inggu	-763
irkan	-764
unani	-765
▁anak	-766
▁anda	-767
▁area	-768
▁pern	-769
▁tekn	-770
▁terd	-771
▁terj	-772
▁terp	-773
irikan	-774
▁belum	-775
▁pasar	-776
utuskan	-777
▁ketika	-778
▁sistem	-779
▁tinggi	-780
▁yunani	-781
unjukkan	-782
▁penting	-783
▁politik	-784
▁prancis	-785
▁sedikit	-786
▁sekolah	-787
▁presiden	-788
▁memutuskan	-789
▁menggunakan	-790
na	-791
uc	-792
ard	-793
art	-794
ban	-795
emu	-796
ikl	-797
tob	-798
unt	-799
▁at	-800
▁op	-801
akah	-802
asih	-803
ibat	-804
tumb	-805
ubah	-806
▁dem	-807
▁gel	-808
▁kol	-809
▁kur	-810
▁pul	-811
▁the	-812
ampak	-813
hasil	-814
tober	-815
▁bela	-816
▁juta	-817
▁perb	-818
▁perk	-819
▁rasa	-820
▁tahu	-821
▁tert	-822
emukan	-823
▁batas	-824
▁hukum	-825
▁kecil	-826
▁kerja	-827
▁pulau	-828
▁spany	-829
▁tanah	-830
formasi	-831
ubungan	-832
▁apakah	-833
▁jerman	-834
▁masalah	-835
▁oktober	-836
▁sejarah	-837
▁seluruh	-838
▁semakin	-839
).	-840
6,	-841
ew	-842
mi	-843
pr	-844
ogr	-845
ord	-846
org	-847
ori	-848
son	-849
▁10	-850
▁ge	-851
▁wa	-852
abis	-853
aruh	-854
asti	-855
ebas	-856
ikat	-857
tiap	-858
▁191	-859
▁car	-860
▁dek	-861
▁dil	-862
▁kan	-863
▁met	-864
▁pet	-865
▁pro	-866
▁rek	-867
▁sal	-868
▁tim	-869
angun	-870
endah	-871
icara	-872
lukan	-873
onomi	-874
uatan	-875
ukung	-876
uncul	-877
▁perd	-878
▁perm	-879
▁roma	-880
▁sana	-881
▁tind	-882
▁umum	-883
alanan	-884
asikan	-885
embang	-886
idikan	-887
▁barat	-888
▁masih	-889
▁mener	-890
▁trans	-891
▁trump	-892
ikutnya	-893
▁intern	-894
▁jumlah	-895
▁minggu	-896
▁muncul	-897
▁polisi	-898
enangkan	-899
▁bersama	-900
▁menurut	-901
▁spanyol	-902
▁tentara	-903
▁tinggal	-904
▁penduduk	-905
▁sekarang	-906
▁australia	-907
▁berkembang	-908
▁menyatakan	-909
▁menunjukkan	-910
0,	-911
ku	-912
me	-913
ou	-914
”.	-915
▁£	-916
ala	-917
aru	-918
erd	-919
ern	-920
han	-921
ine	-922
kap	-923
nis	-924
ond	-925
oni	-926
ott	-927
pan	-928
▁el	-929
▁il	-930
▁pe	-931
aksi	-932
awat	-933
erah	-934
ilan	-935
ilis	-936
iode	-937
itan	-938
oduk	-939
ungi	-940
▁and	-941
▁bel	-942
▁dih	-943
▁hit	-944
▁ikl	-945
▁kal	-946
▁ped	-947
▁res	-948
▁sah	-949
▁seh	-950
▁tel	-951
▁tuj	-952
▁und	-953
engah	-954
ikuti	-955
iring	-956
olusi	-957
▁dila	-958
▁kali	-959
▁kari	-960
▁keka	-961
▁lagu	-962
▁pria	-963
▁raja	-964
encana	-965
entara	-966
landia	-967
wakili	-968
▁diter	-969
▁empat	-970
▁ingin	-971
▁keras	-972
▁rusia	-973
▁sejak	-974
▁udara	-975
ibatkan	-976
▁bangsa	-977
▁lanjut	-978
▁mengur	-979
▁partai	-980
▁pernah	-981
▁rendah	-982
▁setiap	-983
▁bermain	-984
▁ekonomi	-985
▁pekerja	-986
▁periode	-987
▁seiring	-988
▁berbagai	-989
▁kekuatan	-990
▁keluarga	-991
▁nasional	-992
▁tindakan	-993
▁menghadap	-994
▁berikutnya	-995
▁memberikan	-996
▁sebelumnya	-997
▁pemerintahan	-998
1,	-999
3,	-1000
de	-1001
ei	-1002
▁'	-1003
ail	-1004
ani	-1005
egi	-1006
eks	-1007
esa	-1008
fer	-1009
get	-1010
tik	-1011
uda	-1012
urn	-1013
wab	-1014
▁ad	-1015
▁bl	-1016
▁cl	-1017
▁up	-1018
akat	-1019
anti	-1020
caya	-1021
inan	-1022
irim	-1023
isar	-1024
oman	-1025
pada	-1026
rata	-1027
tudi	-1028
uari	-1029
uruk	-1030
▁197	-1031
▁afr	-1032
▁dim	-1033
▁dom	-1034
▁her	-1035
▁jam	-1036
▁kas	-1037
▁kel	-1038
▁lis	-1039
▁mat	-1040
▁mor	-1041
▁nor	-1042
▁pak	-1043
▁rum	-1044
▁ten	-1045
edung	-1046
emuan	-1047
erita	-1048
impin	-1049
inasi	-1050
isasi	-1051
jalan	-1052
masuk	-1053
uanya	-1054
▁angg	-1055
▁buku	-1056
▁data	-1057
▁jauh	-1058
▁rata	-1059
▁sosi	-1060
anggap	-1061
anusia	-1062
anyaan	-1063
oritas	-1064
ubahan	-1065
undang	-1066
▁bukan	-1067
▁depan	-1068
▁makan	-1069
▁menja	-1070
▁serta	-1071
▁surat	-1072
▁timur	-1073
atannya	-1074
empuran	-1075
▁afrika	-1076
▁dingin	-1077
▁kaisar	-1078
▁mengak	-1079
▁publik	-1080
▁sumber	-1081
andingan	-1082
embangan	-1083
ungkinan	-1084
▁mediter	-1085
▁menarik	-1086
▁pasukan	-1087
▁pertumb	-1088
▁terjadi	-1089
▁daripada	-1090
▁hubungan	-1091
▁langsung	-1092
▁menerima	-1093
▁termasuk	-1094
▁khususnya	-1095
▁membentuk	-1096
▁sementara	-1097
▁teknologi	-1098
▁menghadapi	-1099
▁perjalanan	-1100
▁berlangsung	-1101
▁kemungkinan	-1102
▁pertempuran	-1103
▁pertandingan	-1104
7.	-1105
aj	-1106
av	-1107
ha	-1108
ka	-1109
ra	-1110
ui	-1111
aft	-1112
bor	-1113
eda	-1114
elu	-1115
inc	-1116
iss	-1117
ity	-1118
jar	-1119
ona	-1120
ril	-1121
uri	-1122
uru	-1123
zin	-1124
▁gl	-1125
▁he	-1126
▁it	-1127
▁sw	-1128
.000	-1129
amai	-1130
apan	-1131
asal	-1132
atif	-1133
engg	-1134
esai	-1135
gkap	-1136
ican	-1137
isah	-1138
mark	-1139
pert	-1140
yang	-1141
▁198	-1142
▁bud	-1143
▁eur	-1144
▁kat	-1145
▁kor	-1146
▁leg	-1147
▁min	-1148
▁pop	-1149
▁rev	-1150
▁sam	-1151
▁tar	-1152
▁war	-1153
▁win	-1154
adaan	-1155
adang	-1156
alkan	-1157
ancur	-1158
atian	-1159
enuhi	-1160
henti	-1161
ikasi	-1162
imana	-1163
onton	-1164
tahun	-1165
uhkan	-1166
ulasi	-1167
ustri	-1168
▁agar	-1169
▁alam	-1170
▁alas	-1171
▁cara	-1172
▁diri	-1173
▁hong	-1174
▁kata	-1175
▁keti	-1176
▁kong	-1177
▁kont	-1178
▁laki	-1179
▁mili	-1180
▁sisi	-1181
▁suku	-1182
▁uang	-1183
▁univ	-1184
anding	-1185
andung	-1186
empuan	-1187
isaran	-1188
porkan	-1189
▁album	-1190
▁april	-1191
▁biara	-1192
▁drama	-1193
▁masuk	-1194
▁musik	-1195
▁panas	-1196
▁studi	-1197
▁terus	-1198
▁daerah	-1199
▁gedung	-1200
▁italia	-1201
▁menyel	-1202
▁pember	-1203
▁sedang	-1204
▁ungkap	-1205
▁awalnya	-1206
▁bertemu	-1207
▁listrik	-1208
▁makanan	-1209
▁serikat	-1210
▁industri	-1211
▁investor	-1212
▁mewakili	-1213
▁revolusi	-1214
▁terletak	-1215
▁mendukung	-1216
▁perempuan	-1217
▁perubahan	-1218
▁sepanjang	-1219
▁kekaisaran	-1220
▁mengurangi	-1221
▁pertumbuhan	-1222
▁meninggalkan	-1223
eo	-1224
ey	-1225
ro	-1226
▁4	-1227
▁6	-1228
▁8	-1229
awa	-1230
bat	-1231
ber	-1232
bia	-1233
edi	-1234
esi	-1235
eta	-1236
gab	-1237
her	-1238
oba	-1239
one	-1240
pen	-1241
ran	-1242
uli	-1243
umi	-1244
urg	-1245
yak	-1246
▁--	-1247
▁14	-1248
▁15	-1249
▁ed	-1250
▁ib	-1251
▁ii	-1252
▁im	-1253
▁pu	-1254
adar	-1255
adis	-1256
ahas	-1257
akup	-1258
apai	-1259
ator	-1260
edon	-1261
eksi	-1262
enar	-1263
enda	-1264
epat	-1265
flik	-1266
iaya	-1267
iksi	-1268
obil	-1269
olak	-1270
truk	-1271
unuh	-1272
▁196	-1273
▁ang	-1274
▁bek	-1275
▁fed	-1276
▁ger	-1277
▁gol	-1278
▁hak	-1279
▁huj	-1280
▁ins	-1281
▁kej	-1282
▁new	-1283
▁pat	-1284
▁ses	-1285
▁tur	-1286
adisi	-1287
ampir	-1288
egitu	-1289
gerak	-1290
itkan	-1291
orong	-1292
ustus	-1293
▁agen	-1294
▁alat	-1295
▁angk	-1296
▁asli	-1297
▁bank	-1298
▁batu	-1299
▁berm	-1300
▁dipr	-1301
▁euro	-1302
▁istr	-1303
▁jend	-1304
▁kini	-1305
▁naik	-1306
▁penc	-1307
▁tant	-1308
ahanan	-1309
anuari	-1310
ingkat	-1311
uangan	-1312
uannya	-1313
▁acara	-1314
▁akses	-1315
▁berla	-1316
▁iklim	-1317
▁kapal	-1318
▁lahan	-1319
▁memas	-1320
▁mengk	-1321
▁mesir	-1322
▁north	-1323
▁penga	-1324
▁puluh	-1325
▁siapa	-1326
▁teman	-1327
▁upaya	-1328
▁utama	-1329
agangan	-1330
engahan	-1331
enuhnya	-1332
idaknya	-1333
intangi	-1334
yarakat	-1335
▁akibat	-1336
▁begitu	-1337
▁berita	-1338
▁datang	-1339
▁diberi	-1340
▁hampir	-1341
▁mengej	-1342
▁menimb	-1343
▁produk	-1344
▁sekali	-1345
▁selain	-1346
▁target	-1347
ingkatan	-1348
▁berusia	-1349
▁diikuti	-1350
▁dikenal	-1351
▁dinasti	-1352
▁dirinya	-1353
▁disebut	-1354
▁konflik	-1355
▁melawan	-1356
▁memberi	-1357
▁meminta	-1358
▁menulis	-1359
▁panjang	-1360
▁penggun	-1361
▁penulis	-1362
▁rencana	-1363
▁selesai	-1364
▁terbuka	-1365
▁tradisi	-1366
▁univers	-1367
▁jenderal	-1368
▁mencakup	-1369
▁republik	-1370
▁didirikan	-1371
▁informasi	-1372
▁diperlukan	-1373
▁masyarakat	-1374
▁sepenuhnya	-1375
▁mediterania	-1376
▁memenangkan	-1377
▁menimbulkan	-1378
▁peningkatan	-1379
▁perdagangan	-1380
▁pertengahan	-1381
▁mengakibatkan	-1382
19	-1383
20	-1384
3.	-1385
7,	-1386
co	-1387
ef	-1388
ez	-1389
ly	-1390
mu	-1391
ri	-1392
▁9	-1393
▁q	-1394
eja	-1395
ell	-1396
ens	-1397
eph	-1398
era	-1399
erb	-1400
ess	-1401
gar	-1402
ice	-1403
iko	-1404
ney	-1405
oto	-1406
pil	-1407
pun	-1408
rat	-1409
ros	-1410
tug	-1411
ugh	-1412
uni	-1413
▁16	-1414
▁fr	-1415
▁ir	-1416
▁ol	-1417
adai	-1418
adan	-1419
aian	-1420
akwa	-1421
ance	-1422
arat	-1423
baru	-1424
ecah	-1425
edia	-1426
engk	-1427
ersi	-1428
fung	-1429
hati	-1430
isir	-1431
isme	-1432
izin	-1433
laki	-1434
laut	-1435
ling	-1436
obal	-1437
teri	-1438
tiwa	-1439
tual	-1440
ulit	-1441
ungg	-1442
upun	-1443
utan	-1444
utri	-1445
yata	-1446
▁bag	-1447
▁bay	-1448
▁cat	-1449
▁dat	-1450
▁den	-1451
▁des	-1452
▁fin	-1453
▁ide	-1454
▁jos	-1455
▁kab	-1456
▁lam	-1457
▁lok	-1458
▁may	-1459
▁mis	-1460
▁mon	-1461
▁nov	-1462
▁ott	-1463
▁ric	-1464
▁sak	-1465
▁sas	-1466
▁uni	-1467
▁wal	-1468
adara	-1469
ayaan	-1470
edaan	-1471
egara	-1472
ektur	-1473
ender	-1474
entar	-1475
ilang	-1476
inton	-1477
isten	-1478
istik	-1479
kenal	-1480
unggu	-1481
utkan	-1482
▁asal	-1483
▁asia	-1484
▁baga	-1485
▁bias	-1486
▁ditu	-1487
▁hati	-1488
▁lima	-1489
▁memp	-1490
▁pand	-1491
▁pela	-1492
▁post	-1493
▁prib	-1494
▁prot	-1495
▁real	-1496
▁samp	-1497
▁sese	-1498
▁usia	-1499
adinya	-1500
angani	-1501
edonia	-1502
erdeka	-1503
fungsi	-1504
lahkan	-1505
tember	-1506
utusan	-1507
▁bangk	-1508
▁belak	-1509
▁dewan	-1510
▁gadis	-1511
▁gelar	-1512
▁hujan	-1513
▁jawab	-1514
▁karya	-1515
▁keber	-1516
▁mobil	-1517
▁paris	-1518
▁rumah	-1519
▁sipil	-1520
▁tentu	-1521
▁titik	-1522
abiskan	-1523
asilkan	-1524
ebaskan	-1525
eluaran	-1526
engaruh	-1527
esaikan	-1528
ingkali	-1529
izinkan	-1530
unungan	-1531
▁budaya	-1532
▁joseph	-1533
▁ketiga	-1534
▁konser	-1535
▁mengad	-1536
▁miliar	-1537
▁modern	-1538
▁pemain	-1539
▁penyel	-1540
▁selalu	-1541
▁sosial	-1542
▁tampak	-1543
▁tenaga	-1544
▁tujuan	-1545
▁undang	-1546
ilangkan	-1547
utradara	-1548
▁berasal	-1549
▁berbeda	-1550
▁berubah	-1551
▁clinton	-1552
▁distrik	-1553
▁federal	-1554
▁januari	-1555
▁kalinya	-1556
▁keadaan	-1557
▁kehidup	-1558
▁kontrak	-1559
▁lainnya	-1560
▁manusia	-1561
▁memilih	-1562
▁mencoba	-1563
▁mengapa	-1564
▁menolak	-1565
▁menteri	-1566
▁militer	-1567
▁pelangg	-1568
▁peluang	-1569
▁pembuat	-1570
▁pesawat	-1571
▁pesisir	-1572
▁terbaik	-1573
▁terdiri	-1574
▁bergerak	-1575
▁berhasil	-1576
▁berjalan	-1577
▁biasanya	-1578
▁dibangun	-1579
▁internet	-1580
▁memenuhi	-1581
▁mengirim	-1582
▁menyeber	-1583
▁tertentu	-1584
▁transisi	-1585
▁bagaimana	-1586
▁berbicara	-1587
▁berfungsi	-1588
▁ditemukan	-1589
▁kemerdeka	-1590
▁makedonia	-1591
▁pemberont	-1592
▁perbedaan	-1593
▁pertemuan	-1594
▁seseorang	-1595
▁tantangan	-1596
▁mengandung	-1597
▁pertahanan	-1598
▁pertanyaan	-1599
▁seringkali	-1600
▁setidaknya	-1601
▁pengeluaran	-1602
▁menghasilkan	-1603
▁perkembangan	-1604
▁menghilangkan	-1605
-1	-1606
30	-1607
5,	-1608
bc	-1609
ex	-1610
hi	-1611
ho	-1612
ry	-1613
ty	-1614
▁7	-1615
aca	-1616
ach	-1617
agi	-1618
arl	-1619
ast	-1620
ate	-1621
cha	-1622
den	-1623
eij	-1624
eli	-1625
etu	-1626
fat	-1627
fek	-1628
ino	-1629
iti	-1630
jak	-1631
lan	-1632
ler	-1633
lui	-1634
ock	-1635
ohn	-1636
ric	-1637
rut	-1638
sud	-1639
tin	-1640
ual	-1641
yek	-1642
▁17	-1643
▁am	-1644
▁co	-1645
▁ep	-1646
▁fl	-1647
▁go	-1648
▁os	-1649
▁po	-1650
▁sc	-1651
▁sh	-1652
▁sk	-1653
anak	-1654
anan	-1655
ario	-1656
aris	-1657
asar	-1658
ater	-1659
avia	-1660
burg	-1661
elak	-1662
elam	-1663
elis	-1664
enti	-1665
epas	-1666
erti	-1667
gaan	-1668
gera	-1669
hard	-1670
ikel	-1671
ikir	-1672
iksa	-1673
insi	-1674
isla	-1675
iswa	-1676
jian	-1677
miah	-1678
onis	-1679
otal	-1680
udra	-1681
umor	-1682
usat	-1683
▁bid	-1684
▁bin	-1685
▁bis	-1686
▁cap	-1687
▁col	-1688
▁deb	-1689
▁end	-1690
▁era	-1691
▁est	-1692
▁fak	-1693
▁gun	-1694
▁hab	-1695
▁iii	-1696
▁int	-1697
▁jep	-1698
▁lab	-1699
▁mei	-1700
▁org	-1701
▁put	-1702
▁rut	-1703
▁sch	-1704
▁sig	-1705
▁sta	-1706
▁sud	-1707
▁top	-1708
5.000	-1709
aftar	-1710
alent	-1711
atasi	-1712
egang	-1713
enang	-1714
ening	-1715
enter	-1716
igasi	-1717
ikian	-1718
lican	-1719
ograf	-1720
onald	-1721
onium	-1722
takan	-1723
tugas	-1724
uhnya	-1725
ukses	-1726
vensi	-1727
wasan	-1728
▁acha	-1729
▁bala	-1730
▁bayi	-1731
▁bumi	-1732
▁cina	-1733
▁cont	-1734
▁dana	-1735
▁diny	-1736
▁efek	-1737
▁enam	-1738
▁foto	-1739
▁hill	-1740
▁isti	-1741
▁john	-1742
▁juli	-1743
▁juni	-1744
▁kand	-1745
▁kaum	-1746
▁kuat	-1747
▁mata	-1748
▁mati	-1749
▁meks	-1750
▁mong	-1751
▁oper	-1752
▁pagi	-1753
▁pola	-1754
▁qing	-1755
▁teks	-1756
▁tumb	-1757
antung	-1758
aranya	-1759
atasan	-1760
eijing	-1761
elapan	-1762
entang	-1763
entuan	-1764
iburan	-1765
intaan	-1766
istiwa	-1767
masing	-1768
negara	-1769
uasaan	-1770
▁asing	-1771
▁badai	-1772
▁bagus	-1773
▁benar	-1774
▁benua	-1775
▁buruk	-1776
▁dasar	-1777
▁dekat	-1778
▁georg	-1779
▁kasus	-1780
▁keter	-1781
▁komun	-1782
▁kulit	-1783
▁lahir	-1784
▁melam	-1785
▁mempr	-1786
▁merek	-1787
▁progr	-1788
▁punya	-1789
▁putri	-1790
▁situs	-1791
▁taman	-1792
▁tengg	-1793
▁terla	-1794
▁total	-1795
▁tumor	-1796
▁zaman	-1797
ampilan	-1798
artemen	-1799
asarkan	-1800
ebutnya	-1801
ediakan	-1802
elaskan	-1803
entukan	-1804
umumkan	-1805
unjungi	-1806
wancara	-1807
▁alasan	-1808
▁analis	-1809
▁bermak	-1810
▁bisnis	-1811
▁cerita	-1812
▁dampak	-1813
▁disney	-1814
▁diterb	-1815
▁donald	-1816
▁global	-1817
▁ilmiah	-1818
▁jepang	-1819
▁karier	-1820
▁kepala	-1821
▁koloni	-1822
▁kurang	-1823
▁masing	-1824
▁maupun	-1825
▁mengaw	-1826
▁menyam	-1827
▁negeri	-1828
▁persen	-1829
▁persis	-1830
▁posisi	-1831
▁proyek	-1832
▁segera	-1833
▁sering	-1834
ambarkan	-1835
ampilkan	-1836
kenalkan	-1837
▁agustus	-1838
▁albania	-1839
▁anggota	-1840
▁belajar	-1841
▁dataran	-1842
▁denmark	-1843
▁karibia	-1844
▁katanya	-1845
▁meksiko	-1846
▁melalui	-1847
▁menging	-1848
▁moravia	-1849
▁ottoman	-1850
▁penghar	-1851
▁percaya	-1852
▁saudara	-1853
▁sebesar	-1854
▁tanaman	-1855
andingkan	-1856
embangkan	-1857
ungkinkan	-1858
▁bangkrut	-1859
▁bertahan	-1860
▁bertahun	-1861
▁binatang	-1862
▁demikian	-1863
▁dianggap	-1864
▁istrinya	-1865
▁mencapai	-1866
▁menjalan	-1867
▁meskipun	-1868
▁november	-1869
▁polonium	-1870
▁populasi	-1871
▁semuanya	-1872
▁terbesar	-1873
▁terlibat	-1874
▁diberikan	-1875
▁investasi	-1876
▁kehidupan	-1877
▁kekuasaan	-1878
▁keputusan	-1879
▁mayoritas	-1880
▁membangun	-1881
▁mendapati	-1882
▁mendorong	-1883
▁menemukan	-1884
▁mengganti	-1885
▁pekerjaan	-1886
▁postingan	-1887
▁september	-1888
▁tertinggi	-1889
▁mendirikan	-1890
▁pendidikan	-1891
▁penggunaan	-1892
▁university	-1893
▁kemerdekaan	-1894
▁membebaskan	-1895
▁mengizinkan	-1896
▁menjelaskan	-1897
▁menyediakan	-1898
▁dibandingkan	-1899
▁memungkinkan	-1900
▁menghabiskan	-1901
▁menyeberangi	-1902
▁penyelidikan	-1903
2.	-1904
60	-1905
8,	-1906
9,	-1907
bi	-1908
bo	-1909
fa	-1910
ge	-1911
he	-1912
ht	-1913
ke	-1914
ma	-1915
ph	-1916
pu	-1917
te	-1918
vi	-1919
án	-1920
▁—	-1921
aba	-1922
ahi	-1923
akl	-1924
aky	-1925
ash	-1926
bon	-1927
car	-1928
ean	-1929
eat	-1930
egr	-1931
ema	-1932
ham	-1933
icu	-1934
ida	-1935
isk	-1936
ive	-1937
jah	-1938
jam	-1939
ley	-1940
mer	-1941
mos	-1942
nif	-1943
odi	-1944
ole	-1945
ork	-1946
ped	-1947
res	-1948
sat	-1949
tor	-1950
tra	-1951
tre	-1952
udi	-1953
uno	-1954
val	-1955
yut	-1956
▁13	-1957
▁3%	-1958
▁31	-1959
▁50	-1960
▁cr	-1961
▁kl	-1962
▁le	-1963
▁mo	-1964
▁my	-1965
▁ta	-1966
▁uk	-1967
▁ur	-1968
▁£1	-1969
aksa	-1970
amen	-1971
anta	-1972
berg	-1973
disi	-1974
elaj	-1975
ener	-1976
epsi	-1977
eran	-1978
esia	-1979
etis	-1980
evel	-1981
evir	-1982
hkan	-1983
iade	-1984
ight	-1985
ihan	-1986
ings	-1987
ital	-1988
itat	-1989
jata	-1990
jual	-1991
laim	-1992
ment	-1993
mewa	-1994
odes	-1995
ohon	-1996
olia	-1997
olik	-1998
oper	-1999
oris	-2000
saya	-2001
ston	-2002
tasi	-2003
tern	-2004
titu	-2005
uman	-2006
umen	-2007
▁(19	-2008
▁100	-2009
▁149	-2010
▁188	-2011
▁192	-2012
▁195	-2013
▁api	-2014
▁ass	-2015
▁bal	-2016
▁bbc	-2017
▁bog	-2018
▁bon	-2019
▁buk	-2020
▁del	-2021
▁dic	-2022
▁dig	-2023
▁ibu	-2024
▁ist	-2025
▁jab	-2026
▁jal	-2027
▁jas	-2028
▁jut	-2029
▁kam	-2030
▁kin	-2031
▁kub	-2032
▁mot	-2033
▁nic	-2034
▁ont	-2035
▁pac	-2036
▁pap	-2037
▁pik	-2038
▁pow	-2039
▁raf	-2040
▁ram	-2041
▁ret	-2042
▁ris	-2043
▁sin	-2044
▁sub	-2045
▁sus	-2046
▁tab	-2047
▁tok	-2048
▁web	-2049
adian	-2050
akter	-2051
amaan	-2052
ambar	-2053
ambut	-2054
andai	-2055
andar	-2056
andat	-2057
angat	-2058
anian	-2059
antan	-2060
ation	-2061
batas	-2062
ferty	-2063
ganya	-2064
harap	-2065
idiki	-2066
iraun	-2067
jakan	-2068
kanan	-2069
muwan	-2070
okter	-2071
ondon	-2072
uasai	-2073
ukaan	-2074
urkan	-2075
usaha	-2076
utama	-2077
utasi	-2078
▁2014	-2079
▁alih	-2080
▁arah	-2081
▁berg	-2082
▁berh	-2083
▁biji	-2084
▁brit	-2085
▁duta	-2086
▁ener	-2087
▁golf	-2088
▁hist	-2089
▁horm	-2090
▁ikan	-2091
▁imig	-2092
▁jadi	-2093
▁juru	-2094
▁kaya	-2095
▁kebi	-2096
▁kira	-2097
▁kris	-2098
▁kuda	-2099
▁land	-2100
▁lemb	-2101
▁maju	-2102
▁muda	-2103
▁pant	-2104
▁pasi	-2105
▁perh	-2106
▁pros	-2107
▁rona	-2108
▁sens	-2109
▁shen	-2110
▁sini	-2111
▁syut	-2112
▁unit	-2113
▁york	-2114
adanya	-2115
adilan	-2116
ailand	-2117
amerun	-2118
angkit	-2119
apatan	-2120
ayakan	-2121
emenid	-2122
empati	-2123
evirke	-2124
gabung	-2125
irakan	-2126
ografi	-2127
ungkan	-2128
unuhan	-2129
utuhan	-2130
▁agama	-2131
▁alpen	-2132
▁angin	-2133
▁artis	-2134
▁badan	-2135
▁bebas	-2136
▁bekas	-2137
▁belas	-2138
▁biaya	-2139
▁boleh	-2140
▁disel	-2141
▁email	-2142
▁great	-2143
▁harga	-2144
▁hitch	-2145
▁india	-2146
▁islam	-2147
▁kalah	-2148
▁keseh	-2149
▁kesha	-2150
▁kisah	-2151
▁korea	-2152
▁kursi	-2153
▁lapor	-2154
▁layak	-2155
▁level	-2156
▁malam	-2157
▁media	-2158
▁menik	-2159
▁mudah	-2160
▁nyata	-2161
▁olimp	-2162
▁opium	-2163
▁organ	-2164
▁pasir	-2165
▁pecah	-2166
▁penak	-2167
▁pengg	-2168
▁repub	-2169
▁resmi	-2170
▁ruang	-2171
▁sakit	-2172
▁senat	-2173
▁suatu	-2174
▁sudut	-2175
▁tepat	-2176
▁terka	-2177
▁tujuh	-2178
▁tulis	-2179
▁turki	-2180
ancuran	-2181
anggung	-2182
angsaan	-2183
arankan	-2184
ational	-2185
atorium	-2186
enangan	-2187
enarnya	-2188
entikan	-2189
hasilan	-2190
ikirkan	-2191
indungi	-2192
nifikan	-2193
truktur	-2194
unduran	-2195
urangan	-2196
utuhkan	-2197
▁bahkan	-2198
▁bicara	-2199
▁bidang	-2200
▁contoh	-2201
▁dekade	-2202
▁dibuat	-2203
▁dijual	-2204
▁estate	-2205
▁firaun	-2206
▁gereja	-2207
▁gunung	-2208
▁hancur	-2209
▁hilang	-2210
▁itulah	-2211
▁kajian	-2212
▁kanada	-2213
▁kereta	-2214
▁kering	-2215
▁langka	-2216
▁lautan	-2217
▁london	-2218
▁menamb	-2219
▁mendek	-2220
▁merasa	-2221
▁penerb	-2222
▁sastra	-2223
▁senang	-2224
▁tampil	-2225
▁tengah	-2226
▁tumbuh	-2227
aklukkan	-2228
ancurkan	-2229
empatkan	-2230
inginkan	-2231
umpulkan	-2232
untungan	-2233
▁belanda	-2234
▁berdiri	-2235
▁berlaku	-2236
▁delapan	-2237
▁dilihat	-2238
▁dimulai	-2239
▁habitat	-2240
▁ilmuwan	-2241
▁kamerun	-2242
▁kinerja	-2243
▁kondisi	-2244
▁konserv	-2245
▁legisla	-2246
▁membawa	-2247
▁membuka	-2248
▁mempert	-2249
▁mencari	-2250
▁menghad	-2251
▁ontario	-2252
▁petugas	-2253
▁pribadi	-2254
▁richard	-2255
▁samudra	-2256
▁syuting	-2257
▁terlalu	-2258
▁ujarnya	-2259
▁winston	-2260
utradarai	-2261
▁belakang	-2262
▁berharap	-2263
▁berhenti	-2264
▁berpikir	-2265
▁desember	-2266
▁dipimpin	-2267
▁diterima	-2268
▁dominasi	-2269
▁hidupnya	-2270
▁historis	-2271
▁istimewa	-2272
▁karakter	-2273
▁keduanya	-2274
▁kematian	-2275
▁komentar	-2276
▁membunuh	-2277
▁menengah	-2278
▁mengubah	-2279
▁menonton	-2280
▁mongolia	-2281
▁pasangan	-2282
▁pemenang	-2283
▁perayaan	-2284
▁rafferty	-2285
▁rekening	-2286
▁sehingga	-2287
▁sejumlah	-2288
▁tenggara	-2289
▁tentunya	-2290
▁terutama	-2291
▁thailand	-2292
▁bergabung	-2293
▁danevirke	-2294
▁dilakukan	-2295
▁ditinggal	-2296
▁kebutuhan	-2297
▁kepadanya	-2298
▁ketentuan	-2299
▁menentang	-2300
▁mengawasi	-2301
▁olimpiade	-2302
▁perhatian	-2303
▁peristiwa	-2304
▁permukaan	-2305
▁pertanian	-2306
▁sedangkan	-2307
▁terbentuk	-2308
andatangani	-2309
▁achaemenid	-2310
▁bergantung	-2311
▁departemen	-2312
▁dibintangi	-2313
▁dilaporkan	-2314
▁kehancuran	-2315
▁kemunduran	-2316
▁mengadakan	-2317
▁menganggap	-2318
▁pembunuhan	-2319
▁penaklukan	-2320
▁pendapatan	-2321
▁pengadilan	-2322
▁perbatasan	-2323
▁permintaan	-2324
▁republican	-2325
▁signifikan	-2326
▁terjadinya	-2327
▁berdasarkan	-2328
▁bertanggung	-2329
▁diterbitkan	-2330
▁menambahkan	-2331
▁mengejutkan	-2332
▁mengumumkan	-2333
▁mengunjungi	-2334
▁menyebutnya	-2335
▁penerbangan	-2336
▁penghargaan	-2337
▁pengunungan	-2338
▁terakhirnya	-2339
▁tradisional	-2340
▁disutradarai	-2341
▁mengingatkan	-2342
▁menggambarkan	-2343
▁menyelesaikan	-2344
▁pemberontakan	-2345
-5	-2346
..	-2347
.3	-2348
16	-2349
32	-2350
9.	-2351
br	-2352
ck	-2353
dr	-2354
nn	-2355
ny	-2356
oy	-2357
pi	-2358
to	-2359
ue	-2360
za	-2361
”,	-2362
-20	-2363
...	-2364
ace	-2365
ado	-2366
aki	-2367
aku	-2368
arm	-2369
arr	-2370
ary	-2371
bil	-2372
cak	-2373
deb	-2374
ebr	-2375
eko	-2376
fab	-2377
gum	-2378
hal	-2379
iam	-2380
ide	-2381
ior	-2382
ire	-2383
ith	-2384
jui	-2385
kem	-2386
lar	-2387
lis	-2388
min	-2389
oal	-2390
obi	-2391
oci	-2392
oks	-2393
oli	-2394
omb	-2395
ood	-2396
orn	-2397
ots	-2398
own	-2399
pos	-2400
rid	-2401
rop	-2402
sar	-2403
set	-2404
tar	-2405
tis	-2406
tiv	-2407
uas	-2408
uck	-2409
uga	-2410
uhu	-2411
ver	-2412
wit	-2413
ybo	-2414
yer	-2415
▁1%	-2416
▁11	-2417
▁30	-2418
▁36	-2419
▁ah	-2420
▁ca	-2421
▁ev	-2422
▁gu	-2423
▁hi	-2424
▁jo	-2425
▁ku	-2426
▁mp	-2427
▁nn	-2428
▁no	-2429
▁ot	-2430
▁py	-2431
▁rh	-2432
▁ri	-2433
▁sn	-2434
▁tn	-2435
▁ub	-2436
▁ul	-2437
▁us	-2438
▁wr	-2439
▁ya	-2440
adah	-2441
adik	-2442
agal	-2443
agam	-2444
ahui	-2445
akar	-2446
alir	-2447
anja	-2448
anyi	-2449
arif	-2450
asus	-2451
atis	-2452
atur	-2453
bane	-2454
batu	-2455
cock	-2456
eban	-2457
edak	-2458
ekan	-2459
elur	-2460
enek	-2461
enic	-2462
enry	-2463
epon	-2464
esus	-2465
guna	-2466
hari	-2467
hena	-2468
hima	-2469
idat	-2470
ideo	-2471
ihak	-2472
ilia	-2473
ille	-2474
ilot	-2475
iman	-2476
imen	-2477
inci	-2478
ingi	-2479
irah	-2480
irsa	-2481
isip	-2482
itif	-2483
jaga	-2484
kami	-2485
kand	-2486
kira	-2487
mine	-2488
mose	-2489
obin	-2490
odoh	-2491
odus	-2492
ogan	-2493
okok	-2494
okus	-2495
onio	-2496
ontr	-2497
ouch	-2498
ough	-2499
paru	-2500
paui	-2501
rasi	-2502
rich	-2503
rist	-2504
sama	-2505
ting	-2506
uaca	-2507
ubuh	-2508
ukup	-2509
ukur	-2510
uler	-2511
upuk	-2512
urie	-2513
urun	-2514
utip	-2515
wasa	-2516
▁177	-2517
▁194	-2518
▁330	-2519
▁amb	-2520
▁anc	-2521
▁ans	-2522
▁arm	-2523
▁bas	-2524
▁bus	-2525
▁cnn	-2526
▁com	-2527
▁cor	-2528
▁dav	-2529
▁duk	-2530
▁for	-2531
▁hel	-2532
▁his	-2533
▁jar	-2534
▁jat	-2535
▁jen	-2536
▁kad	-2537
▁kil	-2538
▁kim	-2539
▁kip	-2540
▁kla	-2541
▁lap	-2542
▁log	-2543
▁lov	-2544
▁mah	-2545
▁mic	-2546
▁mul	-2547
▁nas	-2548
▁nug	-2549
▁obl	-2550
▁out	-2551
▁pin	-2552
▁pla	-2553
▁sla	-2554
▁sol	-2555
▁taw	-2556
▁thr	-2557
▁tib	-2558
▁ven	-2559
▁yah	-2560
▁yud	-2561
abnya	-2562
ahari	-2563
ajaan	-2564
akyat	-2565
alnya	-2566
angga	-2567
anksi	-2568
arian	-2569
asiun	-2570
benar	-2571
buhan	-2572
bulan	-2573
embus	-2574
enden	-2575
ensif	-2576
ental	-2577
ephen	-2578
erang	-2579
esain	-2580
etnis	-2581
fabet	-2582
garet	-2583
harus	-2584
hawat	-2585
ibusi	-2586
ihkan	-2587
illes	-2588
impan	-2589
indah	-2590
indak	-2591
india	-2592
ingen	-2593
insip	-2594
intah	-2595
isode	-2596
jaran	-2597
jelas	-2598
jikan	-2599
lahan	-2600
laman	-2601
lawan	-2602
ocrat	-2603
olina	-2604
omong	-2605
omosi	-2606
ompok	-2607
onjak	-2608
onsel	-2609
opher	-2610
puing	-2611
pulau	-2612
ropol	-2613
tihan	-2614
tikel	-2615
umbus	-2616
umpah	-2617
umpur	-2618
waban	-2619
yakin	-2620
▁2013	-2621
▁ahli	-2622
▁aman	-2623
▁beku	-2624
▁bern	-2625
▁besi	-2626
▁bogd	-2627
▁bris	-2628
▁carl	-2629
▁daya	-2630
▁diak	-2631
▁emas	-2632
▁flor	-2633
▁gaji	-2634
▁ibuk	-2635
▁kaki	-2636
▁kode	-2637
▁kuno	-2638
▁lord	-2639
▁mark	-2640
▁maya	-2641
▁nila	-2642
▁norm	-2643
▁park	-2644
▁paru	-2645
▁paul	-2646
▁pera	-2647
▁perl	-2648
▁plan	-2649
▁plat	-2650
▁prak	-2651
▁pras	-2652
▁prem	-2653
▁pula	-2654
▁raya	-2655
▁rela	-2656
▁rute	-2657
▁seja	-2658
▁seni	-2659
▁seri	-2660
▁siap	-2661
▁sisa	-2662
▁suhu	-2663
▁suka	-2664
▁tamb	-2665
▁temb	-2666
▁teor	-2667
▁thut	-2668
▁tren	-2669
▁twit	-2670
▁uber	-2671
▁wash	-2672
▁will	-2673
adaban	-2674
adikal	-2675
aikkan	-2676
akwaan	-2677
alaman	-2678
amanan	-2679
amanya	-2680
andang	-2681
angkah	-2682
angkat	-2683
angkau	-2684
angkut	-2685
arawan	-2686
asepsi	-2687
atikan	-2688
atuhan	-2689
bagian	-2690
borasi	-2691
ediaan	-2692
ediksi	-2693
ekonom	-2694
enaran	-2695
enteng	-2696
erinya	-2697
etahui	-2698
etujui	-2699
fikasi	-2700
iarkan	-2701
ingkan	-2702
ington	-2703
isinya	-2704
oduksi	-2705
ombang	-2706
otensi	-2707
pedisi	-2708
ucasus	-2709
umpang	-2710
ungnya	-2711
usakan	-2712
▁1492,	-2713
▁1970-	-2714
▁2010,	-2715
▁2014.	-2716
▁2015,	-2717
▁2017.	-2718
▁aktif	-2719
▁alami	-2720
▁angka	-2721
▁bantu	-2722
▁berat	-2723
▁blunt	-2724
▁bodoh	-2725
▁bukti	-2726
▁celah	-2727
▁cepat	-2728
▁chris	-2729
▁cuaca	-2730
▁cukup	-2731
▁damai	-2732
▁danau	-2733
▁emisi	-2734
▁fiksi	-2735
▁fokus	-2736
▁gener	-2737
▁gurun	-2738
▁halus	-2739
▁hasil	-2740
▁henry	-2741
▁hewan	-2742
▁iklan	-2743
▁indep	-2744
▁jalan	-2745
▁jalur	-2746
▁juara	-2747
▁kabar	-2748
▁kanal	-2749
▁kartu	-2750
▁kehil	-2751
▁kelas	-2752
▁kelih	-2753
▁ketur	-2754
▁khaan	-2755
▁lawan	-2756
▁legal	-2757
▁lepas	-2758
▁lingk	-2759
▁liter	-2760
▁massa	-2761
▁menet	-2762
▁merah	-2763
▁modal	-2764
▁model	-2765
▁motor	-2766
▁musuh	-2767
▁nenek	-2768
▁opini	-2769
▁oscar	-2770
▁paksa	-2771
▁palem	-2772
▁papua	-2773
▁pasif	-2774
▁pengh	-2775
▁peran	-2776
▁perlu	-2777
▁pesta	-2778
▁pihak	-2779
▁pilot	-2780
▁pingg	-2781
▁polit	-2782
▁puing	-2783
▁pusat	-2784
▁putih	-2785
▁refer	-2786
▁riset	-2787
▁saham	-2788
▁saint	-2789
▁selam	-2790
▁siswa	-2791
▁swiss	-2792
▁tanda	-2793
▁tarif	-2794
▁tokoh	-2795
▁tubuh	-2796
▁versi	-2797
▁video	-2798
▁warga	-2799
▁warna	-2800
▁yakin	-2801
aftaran	-2802
alisasi	-2803
angunan	-2804
arapkan	-2805
elajari	-2806
empatan	-2807
entuhan	-2808
hentian	-2809
idangan	-2810
inginan	-2811
isahkan	-2812
isipasi	-2813
kirakan	-2814
mainkan	-2815
satunya	-2816
uksesan	-2817
wakilan	-2818
▁associ	-2819
▁athena	-2820
▁balkan	-2821
▁barang	-2822
▁berkeb	-2823
▁christ	-2824
▁dewasa	-2825
▁elemen	-2826
▁gambar	-2827
▁hindia	-2828
▁kadang	-2829
▁karbon	-2830
▁kemamp	-2831
▁kepent	-2832
▁keungg	-2833
▁komand	-2834
▁kontam	-2835
▁kritik	-2836
▁lokasi	-2837
▁mantan	-2838
▁martin	-2839
▁materi	-2840
▁melaju	-2841
▁memang	-2842
▁menang	-2843
▁mengaj	-2844
▁menyes	-2845
▁nicola	-2846
▁nugini	-2847
▁pantai	-2848
▁pantas	-2849
▁parade	-2850
▁pengak	-2851
▁penyeb	-2852
▁perila	-2853
▁pernik	-2854
▁pindah	-2855
▁ponsel	-2856
▁powers	-2857
▁proses	-2858
▁protes	-2859
▁rakyat	-2860
▁saling	-2861
▁sampai	-2862
▁sanksi	-2863
▁sayang	-2864
▁seagal	-2865
▁sebaga	-2866
▁selasa	-2867
▁stabil	-2868
▁sumpah	-2869
▁swedia	-2870
▁tangan	-2871
▁teater	-2872
▁valent	-2873
▁winter	-2874
▁wright	-2875
▁yahudi	-2876
andalkan	-2877
angkaian	-2878
debatkan	-2879
eluruhan	-2880
engaruhi	-2881
harusnya	-2882
jalankan	-2883
▁alfabet	-2884
▁ancaman	-2885
▁angkasa	-2886
▁antonio	-2887
▁asisten	-2888
▁beijing	-2889
▁berpend	-2890
▁catatan	-2891
▁dakwaan	-2892
▁didakwa	-2893
▁digital	-2894
▁dikirim	-2895
▁dirilis	-2896
▁ditarik	-2897
▁ditulis	-2898
▁endapan	-2899
▁episode	-2900
▁genting	-2901
▁herodes	-2902
▁hukuman	-2903
▁imigran	-2904
▁institu	-2905
▁jasmine	-2906
▁jawaban	-2907
▁katolik	-2908
▁ketidak	-2909
▁kipling	-2910
▁koleksi	-2911
▁kontrol	-2912
▁kristen	-2913
▁langkah	-2914
▁meledak	-2915
▁membaca	-2916
▁memulai	-2917
▁menaruh	-2918
▁menjaga	-2919
▁menurun	-2920
▁merebut	-2921
▁merekam	-2922
▁merilis	-2923
▁mishima	-2924
▁operasi	-2925
▁pemirsa	-2926
▁permain	-2927
▁pikiran	-2928
▁program	-2929
▁radikal	-2930
▁sebelah	-2931
▁sekadar	-2932
▁standar	-2933
▁stasiun	-2934
▁susunan	-2935
▁tekanan	-2936
▁telepon	-2937
▁teratas	-2938
▁terkait	-2939
▁twitter	-2940
ekonomian	-2941
olaborasi	-2942
ropolitan	-2943
▁analisis	-2944
▁berakhir	-2945
▁berkuasa	-2946
▁berlayar	-2947
▁brisbane	-2948
▁britania	-2949
▁carolina	-2950
▁columbus	-2951
▁dalamnya	-2952
▁democrat	-2953
▁direktur	-2954
▁kalender	-2955
▁kandidat	-2956
▁keamanan	-2957
▁kerajaan	-2958
▁keuangan	-2959
▁konsumen	-2960
▁landmark	-2961
▁margaret	-2962
▁matahari	-2963
▁melonjak	-2964
▁memegang	-2965
▁memimpin	-2966
▁mendarat	-2967
▁mengalir	-2968
▁mengarah	-2969
▁mengejar	-2970
▁mengerti	-2971
▁menjabat	-2972
▁menunggu	-2973
▁menyerah	-2974
▁menyingk	-2975
▁obligasi	-2976
▁partikel	-2977
▁penguasa	-2978
▁penonton	-2979
▁produksi	-2980
▁reputasi	-2981
▁sebabnya	-2982
▁serangan	-2983
▁sosialis	-2984
▁struktur	-2985
▁terbatas	-2986
▁terbunuh	-2987
▁terburuk	-2988
▁terdapat	-2989
▁terpilih	-2990
▁terpisah	-2991
▁thutmose	-2992
▁winstone	-2993
pertanyaan	-2994
▁bermaksud	-2995
▁bertindak	-2996
▁dengannya	-2997
▁diketahui	-2998
▁dimainkan	-2999
▁dipandang	-3000
▁ekspedisi	-3001
▁finlandia	-3002
▁gelombang	-3003
▁hitchcock	-3004
▁kariernya	-3005
▁keinginan	-3006
▁kejatuhan	-3007
▁kemanusia	-3008
▁kerusakan	-3009
▁keturunan	-3010
▁melampaui	-3011
▁membatasi	-3012
▁menaikkan	-3013
▁menderita	-3014
▁menguasai	-3015
▁meningkat	-3016
▁menyerang	-3017
▁pelanggan	-3018
▁pemeriksa	-3019
▁penumpang	-3020
▁peradaban	-3021
▁pinggiran	-3022
▁sejarawan	-3023
▁tampaknya	-3024
▁tersangka	-3025
▁valentino	-3026
▁wawancara	-3027
▁dijalankan	-3028
▁dinyatakan	-3029
▁diprediksi	-3030
▁independen	-3031
▁intervensi	-3032
▁jabatannya	-3033
▁kehilangan	-3034
▁kemenangan	-3035
▁kesuksesan	-3036
▁keunggulan	-3037
▁keuntungan	-3038
▁melaporkan	-3039
▁memasukkan	-3040
▁membiarkan	-3041
▁membuatnya	-3042
▁memikirkan	-3043
▁menghadiri	-3044
▁mengundang	-3045
▁menjangkau	-3046
▁organisasi	-3047
▁pembangkit	-3048
▁pengalaman	-3049
▁pengawasan	-3050
▁perwakilan	-3051
▁sebenarnya	-3052
▁seharusnya	-3053
▁washington	-3054
▁berpengaruh	-3055
▁christopher	-3056
▁dihancurkan	-3057
▁kepentingan	-3058
▁keseluruhan	-3059
▁kontrasepsi	-3060
▁membintangi	-3061
▁menaklukkan	-3062
▁menampilkan	-3063
▁menjalankan	-3064
▁menyalahkan	-3065
▁menyarankan	-3066
▁menyelidiki	-3067
▁menyerahkan	-3068
▁pelanggaran	-3069
▁pembangunan	-3070
▁pendaftaran	-3071
▁persidangan	-3072
▁ditinggalkan	-3073
▁keberhasilan	-3074
▁kemampuannya	-3075
▁keterampilan	-3076
▁mengharapkan	-3077
▁menghentikan	-3078
▁mengumpulkan	-3079
▁metropolitan	-3080
▁pengembangan	-3081
▁perekonomian	-3082
▁berkebangsaan	-3083
▁diperdebatkan	-3084
▁internasional	-3085
▁mengembangkan	-3086
▁memperkenalkan	-3087
0%	-3088
50	-3089
6%	-3090
8.	-3091
ba	-3092
ce	-3093
ct	-3094
db	-3095
gy	-3096
my	-3097
nd	-3098
ni	-3099
'.	-3100
az	-3101
cb	-3102
cu	-3103
eu	-3104
hu	-3105
ix	-3106
re	-3107
rr	-3108
yn	-3109
yu	-3110
zá	-3111
1,5	-3112
4),	-3113
60.	-3114
760	-3115
ack	-3116
alu	-3117
ame	-3118
aro	-3119
ase	-3120
cap	-3121
dis	-3122
ebo	-3123
eco	-3124
eku	-3125
emy	-3126
eor	-3127
erh	-3128
esh	-3129
esp	-3130
fas	-3131
gen	-3132
gia	-3133
gur	-3134
hai	-3135
iao	-3136
ilb	-3137
ion	-3138
iro	-3139
ish	-3140
jek	-3141
jol	-3142
kah	-3143
les	-3144
low	-3145
mat	-3146
mes	-3147
mon	-3148
nak	-3149
oda	-3150
oga	-3151
olm	-3152
oln	-3153
ool	-3154
ora	-3155
oss	-3156
oti	-3157
ous	-3158
pek	-3159
pir	-3160
put	-3161
ram	-3162
rey	-3163
rik	-3164
rol	-3165
san	-3166
seb	-3167
sek	-3168
ser	-3169
sim	-3170
sin	-3171
sit	-3172
sus	-3173
tel	-3174
tem	-3175
tic	-3176
tih	-3177
tip	-3178
ulu	-3179
uma	-3180
ums	-3181
urv	-3182
usa	-3183
war	-3184
▁12	-3185
▁53	-3186
▁90	-3187
▁ac	-3188
▁av	-3189
▁bo	-3190
▁bu	-3191
▁ex	-3192
▁ik	-3193
▁kn	-3194
▁ng	-3195
▁ph	-3196
▁rs	-3197
▁ru	-3198
▁tv	-3199
,5	-3200
fi	-3201
jm	-3202
att	-3203
cas	-3204
cer	-3205
ebe	-3206
gel	-3207
ges	-3208
ins	-3209
kar	-3210
lak	-3211
lap	-3212
let	-3213
omi	-3214
oya	-3215
ras	-3216
tup	-3217
uki	-3218
yan	-3219
▁21	-3220
▁du	-3221
▁fi	-3222
▁mc	-3223
▁uc	-3224
▁wi	-3225
acun	-3226
adir	-3227
agar	-3228
ajam	-3229
akai	-3230
akia	-3231
amil	-3232
andu	-3233
angl	-3234
anut	-3235
apus	-3236
arab	-3237
arez	-3238
aria	-3239
arkt	-3240
arta	-3241
arth	-3242
asis	-3243
atka	-3244
atus	-3245
bots	-3246
cord	-3247
dewa	-3248
drin	-3249
egia	-3250
ejak	-3251
ekut	-3252
elan	-3253
elek	-3254
elmi	-3255
emat	-3256
emeh	-3257
emui	-3258
enya	-3259
erus	-3260
esan	-3261
esse	-3262
ewat	-3263
fesi	-3264
gesa	-3265
hael	-3266
iami	-3267
ibun	-3268
idik	-3269
ikap	-3270
iker	-3271
ilip	-3272
iron	-3273
isan	-3274
ivid	-3275
korn	-3276
kota	-3277
lagi	-3278
lant	-3279
lasg	-3280
mbut	-3281
nest	-3282
okan	-3283
olis	-3284
omas	-3285
onan	-3286
oner	-3287
onor	-3288
onzá	-3289
otif	-3290
ouis	-3291
ound	-3292
ouse	-3293
ower	-3294
oyne	-3295
part	-3296
pres	-3297
rain	-3298
ring	-3299
fc	-3300
no	-3301
03,	-3302
arn	-3303
eou	-3304
erm	-3305
ewa	-3306
osk	-3307
pet	-3308
ret	-3309
taw	-3310
til	-3311
ube	-3312
▁be	-3313
alih	-3314
andi	-3315
asta	-3316
edah	-3317
emuk	-3318
eouf	-3319
exit	-3320
heel	-3321
ibut	-3322
imat	-3323
lahr	-3324
omer	-3325
sias	-3326
sisa	-3327
tama	-3328
tawa	-3329
timb	-3330
tion	-3331
udid	-3332
uduh	-3333
udul	-3334
ulia	-3335
uluh	-3336
untu	-3337
urah	-3338
usak	-3339
utub	-3340
ward	-3341
▁...	-3342
▁1.3	-3343
▁107	-3344
▁156	-3345
▁183	-3346
▁185	-3347
▁187	-3348
▁500	-3349
▁60-	-3350
▁aku	-3351
▁ana	-3352
▁asm	-3353
▁aug	-3354
▁bet	-3355
▁cab	-3356
▁cak	-3357
▁cec	-3358
▁ced	-3359
▁cel	-3360
▁cot	-3361
▁cup	-3362
▁det	-3363
▁dij	-3364
▁dna	-3365
▁env	-3366
▁erd	-3367
▁fac	-3368
▁gab	-3369
▁gez	-3370
▁gor	-3371
▁gub	-3372
▁hem	-3373
▁hol	-3374
▁hor	-3375
▁inv	-3376
▁jim	-3377
▁jul	-3378
▁keg	-3379
▁kod	-3380
▁las	-3381
▁lay	-3382
▁lib	-3383
▁mad	-3384
▁mos	-3385
▁mps	-3386
▁myc	-3387
▁nap	-3388
▁nil	-3389
▁non	-3390
▁pab	-3391
▁pah	-3392
▁pia	-3393
▁pis	-3394
▁rem	-3395
▁sab	-3396
▁san	-3397
▁sil	-3398
▁sir	-3399
4,	-3400
amm	-3401
dan	-3402
epi	-3403
idi	-3404
jau	-3405
kep	-3406
lev	-3407
oma	-3408
que	-3409
str	-3410
tim	-3411
tok	-3412
uju	-3413
▁28	-3414
▁lo	-3415
cist	-3416
enov	-3417
erla	-3418
irip	-3419
istr	-3420
masa	-3421
onds	-3422
osot	-3423
otes	-3424
sial	-3425
trat	-3426
uali	-3427
uatu	-3428
▁alv	-3429
▁bob	-3430
▁fat	-3431
▁gop	-3432
▁maj	-3433
▁peg	-3434
▁pho	-3435
▁ros	-3436
▁son	-3437
▁sum	-3438
▁tal	-3439
▁tam	-3440
▁tes	-3441
▁tol	-3442
▁tua	-3443
▁von	-3444
▁wan	-3445
▁wil	-3446
▁yan	-3447
▁you	-3448
▁zay	-3449
▁£12	-3450
ademy	-3451
ahami	-3452
ahnya	-3453
alano	-3454
anchu	-3455
ander	-3456
andia	-3457
andum	-3458
anjir	-3459
antor	-3460
aptis	-3461
arlin	-3462
artph	-3463
asaan	-3464
atnya	-3465
benda	-3466
besar	-3467
botsf	-3468
curie	-3469
dalam	-3470
diper	-3471
ebook	-3472
ecual	-3473
eliti	-3474
elola	-3475
empur	-3476
encan	-3477
encar	-3478
endek	-3479
engar	-3480
ernur	-3481
esaan	-3482
esies	-3483
esses	-3484
estik	-3485
evisi	-3486
geron	-3487
getar	-3488
iayai	-3489
ileri	-3490
imbah	-3491
iness	-3492
inkan	-3493
ipuan	-3494
isial	-3495
itasi	-3496
jabat	-3497
jaman	-3498
jemen	-3499
1,4	-3500
hoa	-3501
the	-3502
tuj	-3503
▁vi	-3504
▁vw	-3505
ahab	-3506
ampu	-3507
anco	-3508
awal	-3509
esif	-3510
kita	-3511
lami	-3512
ndar	-3513
roso	-3514
▁20,	-3515
▁bre	-3516
▁buj	-3517
▁dah	-3518
▁def	-3519
▁lar	-3520
▁rib	-3521
▁sis	-3522
amati	-3523
anaan	-3524
burgh	-3525
enanj	-3526
endum	-3527
erdas	-3528
ikota	-3529
intas	-3530
iraan	-3531
kapai	-3532
lasik	-3533
lobin	-3534
nyata	-3535
odiak	-3536
oklam	-3537
okrat	-3538
oleon	-3539
oliot	-3540
omers	-3541
ompey	-3542
ongan	-3543
onjol	-3544
onsor	-3545
orasi	-3546
oskop	-3547
otaan	-3548
otify	-3549
owman	-3550
pania	-3551
pansi	-3552
pihan	-3553
raina	-3554
resif	-3555
rihat	-3556
rolan	-3557
sberg	-3558
sifat	-3559
simal	-3560
sinya	-3561
sungg	-3562
tanda	-3563
trans	-3564
treet	-3565
tunya	-3566
uduki	-3567
ulang	-3568
uncil	-3569
upaya	-3570
urvei	-3571
utupi	-3572
ville	-3573
wegia	-3574
▁(199	-3575
▁1916	-3576
▁1960	-3577
▁1991	-3578
▁2004	-3579
▁2015	-3580
▁akun	-3581
▁alex	-3582
▁antu	-3583
▁arab	-3584
▁awan	-3585
▁ayah	-3586
▁babi	-3587
▁baja	-3588
▁band	-3589
▁bara	-3590
▁bass	-3591
▁berj	-3592
▁bill	-3593
▁blog	-3594
▁burg	-3595
▁cape	-3596
▁ceko	-3597
▁cuma	-3598
▁debu	-3599
zl	-3600
lez	-3601
ore	-3602
sia	-3603
yol	-3604
▁33	-3605
▁34	-3606
▁iv	-3607
▁ms	-3608
agan	-3609
arki	-3610
egah	-3611
lein	-3612
▁len	-3613
▁mag	-3614
▁mau	-3615
▁tip	-3616
agang	-3617
ansas	-3618
turut	-3619
▁agak	-3620
▁akal	-3621
▁comm	-3622
▁diad	-3623
▁dial	-3624
▁disa	-3625
▁diwa	-3626
▁doss	-3627
▁duke	-3628
▁edin	-3629
▁ekos	-3630
▁elit	-3631
▁ford	-3632
▁grav	-3633
▁guru	-3634
▁jurn	-3635
▁kait	-3636
▁kamp	-3637
▁kano	-3638
▁kayu	-3639
▁keag	-3640
▁keen	-3641
▁kena	-3642
▁klub	-3643
▁koal	-3644
▁krim	-3645
▁kuba	-3646
▁lans	-3647
▁liao	-3648
▁linc	-3649
▁main	-3650
▁merd	-3651
▁miss	-3652
▁mojm	-3653
▁mons	-3654
▁news	-3655
▁nutr	-3656
▁opsi	-3657
▁paus	-3658
▁pebe	-3659
▁perc	-3660
▁peta	-3661
▁poin	-3662
▁prov	-3663
▁pugh	-3664
▁purn	-3665
▁rach	-3666
▁radi	-3667
▁ramb	-3668
▁rent	-3669
▁roda	-3670
▁sami	-3671
▁sara	-3672
▁semb	-3673
▁serv	-3674
▁skot	-3675
▁slav	-3676
▁ster	-3677
▁suar	-3678
▁subs	-3679
▁tema	-3680
▁tepi	-3681
▁tiba	-3682
▁timb	-3683
▁tina	-3684
▁town	-3685
▁trix	-3686
▁turn	-3687
▁ucap	-3688
▁visi	-3689
▁wang	-3690
▁well	-3691
▁yuan	-3692
▁zona	-3693
▁£760	-3694
5.000.	-3695
abisan	-3696
adatan	-3697
adikan	-3698
ahasia	-3699
ainkan	-3700
akaian	-3701
akuasi	-3702
alangi	-3703
alatan	-3704
alenta	-3705
ameran	-3706
arahan	-3707
arakan	-3708
arinya	-3709
aterai	-3710
awanya	-3711
bangsa	-3712
cayaan	-3713
ebasan	-3714
ebriti	-3715
edakan	-3716
egahan	-3717
ejarah	-3718
ekutif	-3719
enaean	-3720
enakan	-3721
enjata	-3722
entasi	-3723
epatan	-3724
erahan	-3725
erhana	-3726
ersial	-3727
esalan	-3728
estasi	-3729
etakan	-3730
eteksi	-3731
gumkan	-3732
ibutor	-3733
igrasi	-3734
ikanya	-3735
ikinya	-3736
indari	-3737
inding	-3738
intasi	-3739
invest	-3740
isikan	-3741
kandal	-3742
kemuka	-3743
lantik	-3744
lasgow	-3745
likasi	-3746
muasal	-3747
oduser	-3748
ompong	-3749
ontrol	-3750
osiasi	-3751
otanya	-3752
paikan	-3753
pirasi	-3754
ricone	-3755
sumber	-3756
tawari	-3757
tempat	-3758
truksi	-3759
uaskan	-3760
uburan	-3761
udukan	-3762
ulauan	-3763
ulitan	-3764
urance	-3765
valeri	-3766
yboard	-3767
▁1770,	-3768
▁1911,	-3769
▁1914,	-3770
▁1960-	-3771
▁1976,	-3772
▁1980-	-3773
▁1990-	-3774
▁1997.	-3775
▁2003,	-3776
▁2007,	-3777
▁2011,	-3778
▁2012,	-3779
▁admin	-3780
▁agung	-3781
▁alarm	-3782
▁anaya	-3783
▁andes	-3784
▁angel	-3785
▁arsit	-3786
▁bahan	-3787
▁balik	-3788
▁beban	-3789
▁benda	-3790
▁berga	-3791
▁bersa	-3792
▁bonds	-3793
▁brand	-3794
▁curah	-3795
▁darah	-3796
▁david	-3797
▁debat	-3798
▁delta	-3799
▁diaba	-3800
▁dihar	-3801
▁dimil	-3802
▁diser	-3803
▁domin	-3804
▁edisi	-3805
▁etnis	-3806
▁fakta	-3807
▁final	-3808
▁fitur	-3809
▁ganja	-3810
▁garis	-3811
▁geyer	-3812
▁gitar	-3813
▁gonzá	-3814
▁habis	-3815
▁hadir	-3816
▁hemog	-3817
▁herzl	-3818
▁hijau	-3819
▁hills	-3820
▁hitam	-3821
▁house	-3822
▁human	-3823
▁impor	-3824
▁istri	-3825
▁james	-3826
▁jatuh	-3827
▁jejak	-3828
▁kabut	-3829
▁kamis	-3830
▁kapel	-3831
▁karel	-3832
▁keind	-3833
▁keker	-3834
▁kelah	-3835
▁kenal	-3836
▁keper	-3837
▁kesal	-3838
▁kimia	-3839
▁klasi	-3840
▁klein	-3841
▁kolon	-3842
▁label	-3843
▁labor	-3844
▁latin	-3845
▁layar	-3846
▁leive	-3847
▁lewat	-3848
▁lihat	-3849
▁lokal	-3850
▁louis	-3851
▁mahas	-3852
▁malah	-3853
▁mampu	-3854
▁marco	-3855
▁maret	-3856
▁medis	-3857
▁meiji	-3858
▁melah	-3859
▁meman	-3860
▁memer	-3861
▁memuj	-3862
▁menaw	-3863
▁menit	-3864
▁mercu	-3865
▁meter	-3866
▁metro	-3867
▁milik	-3868
▁mirip	-3869
▁moral	-3870
▁multi	-3871
▁ngeri	-3872
▁nilai	-3873
▁obama	-3874
▁olahr	-3875
▁omong	-3876
▁pajak	-3877
▁pakar	-3878
▁pangl	-3879
▁pasti	-3880
▁patut	-3881
▁pelop	-3882
▁pemuk	-3883
▁perum	-3884
▁pesan	-3885
▁pohon	-3886
▁puisi	-3887
▁pulih	-3888
▁punta	-3889
▁pupuk	-3890
▁pyong	-3891
▁radar	-3892
▁retor	-3893
▁riang	-3894
▁rilis	-3895
▁roman	-3896
▁rutin	-3897
▁sahel	-3898
▁samar	-3899
▁santa	-3900
▁saran	-3901
▁sarat	-3902
▁sehat	-3903
▁strat	-3904
▁super	-3905
▁tajam	-3906
▁teori	-3907
▁tingg	-3908
▁turun	-3909
▁ujung	-3910
▁union	-3911
▁urban	-3912
▁usaha	-3913
▁utang	-3914
▁wadah	-3915
▁wafat	-3916
▁wajah	-3917
▁wheel	-3918
▁yesus	-3919
adangan	-3920
ahankan	-3921
akannya	-3922
aksikan	-3923
amankan	-3924
amannya	-3925
amennya	-3926
amerkan	-3927
anggang	-3928
anginya	-3929
anyakan	-3930
arktika	-3931
asionis	-3932
beijing	-3933
besaran	-3934
ekankan	-3935
elahian	-3936
embakan	-3937
emehkan	-3938
engkapi	-3939
enician	-3940
enovasi	-3941
ensinya	-3942
erjakan	-3943
etakkan	-3944
faatkan	-3945
fascist	-3946
hatikan	-3947
indukan	-3948
iptakan	-3949
lakinya	-3950
lowakia	-3951
okratik	-3952
okteran	-3953
ominasi	-3954
operasi	-3955
ormatan	-3956
orongan	-3957
perimen	-3958
perinci	-3959
residen	-3960
tivitas	-3961
unculan	-3962
unjukan	-3963
yakinan	-3964
▁adanya	-3965
▁akurat	-3966
▁alaska	-3967
▁aldrin	-3968
▁aliran	-3969
▁altern	-3970
▁apulia	-3971
▁armada	-3972
▁asmara	-3973
▁aturan	-3974
▁banjir	-3975
▁belgia	-3976
▁bentuk	-3977
▁berdua	-3978
▁berori	-3979
▁betapa	-3980
▁bilang	-3981
▁brasil	-3982
▁brexit	-3983
▁cabang	-3984
▁caesar	-3985
▁cakram	-3986
▁carlos	-3987
▁carson	-3988
▁cedera	-3989
▁celtic	-3990
▁cendek	-3991
▁cender	-3992
▁cerdas	-3993
▁cotton	-3994
▁cumber	-3995
▁daftar	-3996
▁danube	-3997
▁desain	-3998
▁dibuka	-3999
▁diduga	-4000
▁dinasi	-4001
▁dipicu	-4002
▁ditumb	-4003
▁dokter	-4004
▁energi	-4005
▁faktor	-4006
▁gandum	-4007
▁george	-4008
▁ground	-4009
▁hormat	-4010
▁indian	-4011
▁inilah	-4012
▁invasi	-4013
▁istana	-4014
▁jarang	-4015
▁joliot	-4016
▁kadesh	-4017
▁kanaan	-4018
▁kansas	-4019
▁kantor	-4020
▁kapita	-4021
▁khitan	-4022
▁klimat	-4023
▁komedi	-4024
▁komisi	-4025
▁konsep	-4026
▁konyol	-4027
▁krisis	-4028
▁kristi	-4029
▁kursus	-4030
▁laguna	-4031
▁lamarr	-4032
▁limbah	-4033
▁lumpur	-4034
▁madrid	-4035
▁mailis	-4036
▁maksud	-4037
▁manchu	-4038
▁medali	-4039
▁membay	-4040
▁memicu	-4041
▁menara	-4042
▁mengas	-4043
▁menges	-4044
▁menuju	-4045
▁metode	-4046
▁minyak	-4047
▁naskah	-4048
▁output	-4049
▁pabrik	-4050
▁pacuan	-4051
▁pascap	-4052
▁patung	-4053
▁pelobi	-4054
▁pencal	-4055
▁penutu	-4056
▁persia	-4057
▁petani	-4058
▁petisi	-4059
▁philip	-4060
▁pisang	-4061
▁pompey	-4062
▁poster	-4063
▁puncak	-4064
▁rambut	-4065
▁reagan	-4066
▁reaksi	-4067
▁really	-4068
▁record	-4069
▁rekons	-4070
▁sahara	-4071
▁school	-4072
▁sehari	-4073
▁sejauh	-4074
▁sekutu	-4075
▁seolah	-4076
▁sepatu	-4077
▁setara	-4078
▁sparta	-4079
▁spring	-4080
▁street	-4081
▁studio	-4082
▁sukses	-4083
▁swasta	-4084
▁tangga	-4085
▁tautan	-4086
▁teknik	-4087
▁temper	-4088
▁temuan	-4089
▁terbit	-4090
▁thomas	-4091
▁thrace	-4092
▁tribun	-4093
▁ukuran	-4094
▁vulkan	-4095
▁wanita	-4096
▁zodiak	-4097
ahabatan	-4098
artphone	-4099
botsford	-4100
caucasus	-4101
elektual	-4102
eluarkan	-4103
enanjung	-4104
entangan	-4105
enterian	-4106
fesional	-4107
indahkan	-4108
indungan	-4109
ingannya	-4110
ironment	-4111
omosikan	-4112
partikel	-4113
tifikasi	-4114
ubungkan	-4115
uncurkan	-4116
▁academy	-4117
▁agresif	-4118
▁alvarez	-4119
▁anselmi	-4120
▁artikel	-4121
▁artinya	-4122
▁austria	-4123
▁ayahnya	-4124
▁baiknya	-4125
▁balapan	-4126
▁bantuan	-4127
▁baterai	-4128
▁belling	-4129
▁bencana	-4130
▁berhati	-4131
▁berkomp	-4132
▁bioskop	-4133
▁council	-4134
▁dibudid	-4135
▁dipilih	-4136
▁ditutup	-4137
▁erdogan	-4138
▁florida	-4139
▁glasgow	-4140
▁harapan	-4141
▁hiburan	-4142
▁ibukota	-4143
▁individ	-4144
▁jajaran	-4145
▁jalanan	-4146
▁jutting	-4147
▁kampany	-4148
▁kandung	-4149
▁katakan	-4150
▁kawasan	-4151
▁kecuali	-4152
▁ketingg	-4153
▁koalisi	-4154
▁komando	-4155
▁konseku	-4156
▁konteks	-4157
▁kuburan	-4158
▁labeouf	-4159
▁lakukan	-4160
▁lanskap	-4161
▁laporan	-4162
▁latihan	-4163
▁layanan	-4164
▁liburan	-4165
▁lincoln	-4166
▁lingkup	-4167
▁majelis	-4168
▁memakai	-4169
▁memaksa	-4170
▁membagi	-4171
▁membeli	-4172
▁menangg	-4173
▁menemui	-4174
▁menuduh	-4175
▁michael	-4176
▁mineral	-4177
▁minuman	-4178
▁musikal	-4179
▁nicolai	-4180
▁nutrisi	-4181
▁obrolan	-4182
▁pakaian	-4183
▁pameran	-4184
▁pandang	-4185
▁panduan	-4186
▁pasifik	-4187
▁patahan	-4188
▁pedoman	-4189
▁pejabat	-4190
▁pemilih	-4191
▁penjaga	-4192
▁perdana	-4193
▁pilihan	-4194
▁populer	-4195
▁praktik	-4196
▁premium	-4197
▁prinsip	-4198
▁puluhan	-4199
▁purnama	-4200
▁rahasia	-4201
▁rekaman	-4202
▁relawan	-4203
▁saluran	-4204
▁selamat	-4205
▁seniman	-4206
▁sepuluh	-4207
▁sesuatu	-4208
▁singkat	-4209
▁sisilia	-4210
▁skandal	-4211
▁snowman	-4212
▁spesies	-4213
▁sponsor	-4214
▁spotify	-4215
▁starlin	-4216
▁stephen	-4217
▁tahanan	-4218
▁tekstil	-4219
▁tembaga	-4220
▁terikat	-4221
▁tersisa	-4222
▁tertawa	-4223
▁tingkat	-4224
▁uangnya	-4225
▁ukraina	-4226
▁venesia	-4227
▁william	-4228
elisahkan	-4229
larasikan	-4230
rihatinan	-4231
▁american	-4232
▁anggaran	-4233
▁angkatan	-4234
▁antusias	-4235
▁aplikasi	-4236
▁artileri	-4237
▁artistik	-4238
▁atlantik	-4239
▁augustus	-4240
▁bergetar	-4241
▁bermakna	-4242
▁berpusat	-4243
▁bersifat	-4244
▁bertanya	-4245
▁burgoyne	-4246
▁business	-4247
▁catalano	-4248
▁depannya	-4249
▁diangkut	-4250
▁dibentuk	-4251
▁dipenuhi	-4252
▁disambut	-4253
▁disimpan	-4254
▁ditandai	-4255
▁ditawari	-4256
▁dorongan	-4257
▁ekspansi	-4258
▁evakuasi	-4259
▁facebook	-4260
▁gabungan	-4261
▁generasi	-4262
▁gonzález	-4263
▁gubernur	-4264
▁harganya	-4265
▁hasilnya	-4266
▁hispania	-4267
▁hormonal	-4268
▁intensif	-4269
▁irlandia	-4270
▁islandia	-4271
▁jaringan	-4272
▁jurnalis	-4273
▁karyawan	-4274
▁kavaleri	-4275
▁kejadian	-4276
▁kelompok	-4277
▁kenaikan	-4278
▁kesamaan	-4279
▁konvensi	-4280
▁lapangan	-4281
▁logistik	-4282
▁maksimal	-4283
▁maskapai	-4284
▁melarang	-4285
▁memahami	-4286
▁memasang	-4287
▁membahas	-4288
▁menandai	-4289
▁mencegah	-4290
▁mengadop	-4291
▁mengukur	-4292
▁mengutip	-4293
▁menikahi	-4294
▁menonjol	-4295
▁menutupi	-4296
▁menyelam	-4297
▁miliaran	-4298
▁misalnya	-4299
▁napoleon	-4300
▁national	-4301
▁neneknya	-4302
▁norwegia	-4303
▁olahraga	-4304
▁panglima	-4305
▁pedesaan	-4306
▁pemimpin	-4307
▁peneliti	-4308
▁penemuan	-4309
▁pengaruh	-4310
▁pengguna	-4311
▁penipuan	-4312
▁penyanyi	-4313
▁penyebab	-4314
▁perairan	-4315
▁perilaku	-4316
▁perintah	-4317
▁perunggu	-4318
▁pinjaman	-4319
▁platform	-4320
▁polandia	-4321
▁produser	-4322
▁properti	-4323
▁provinsi	-4324
▁ramesses	-4325
▁sembilan	-4326
▁seminggu	-4327
▁setempat	-4328
▁setengah	-4329
▁tanggung	-4330
▁televisi	-4331
▁teoretis	-4332
▁terampil	-4333
▁terbakar	-4334
▁terlihat	-4335
▁tionghoa	-4336
▁turnamen	-4337
▁undangan	-4338
▁waktunya	-4339
▁walikota	-4340
▁yudisial	-4341
ampilannya	-4342
antisipasi	-4343
hawatirkan	-4344
oklamirkan	-4345
perusahaan	-4346
▁administr	-4347
▁alexander	-4348
▁bangsawan	-4349
▁banyaknya	-4350
▁berbentuk	-4351
▁berempati	-4352
▁berlanjut	-4353
▁bertempur	-4354
▁cenderung	-4355
▁diabaikan	-4356
▁dikatakan	-4357
▁disajikan	-4358
▁edinburgh	-4359
▁ekosistem	-4360
▁eksekutif	-4361
▁endurance	-4362
▁inspirasi	-4363
▁institute	-4364
▁kaitannya	-4365
▁keagamaan	-4366
▁kebiasaan	-4367
▁kebijakan	-4368
▁keindahan	-4369
▁kekalahan	-4370
▁kelahiran	-4371
▁kelihatan	-4372
▁kepulauan	-4373
▁kesehatan	-4374
▁kesulitan	-4375
▁ketenaran	-4376
▁keyakinan	-4377
▁kurangnya	-4378
▁legislasi	-4379
▁mahasiswa	-4380
▁manajemen	-4381
▁melainkan	-4382
▁melintasi	-4383
▁memainkan	-4384
▁menangani	-4385
▁mendaftar	-4386
▁menduduki	-4387
▁mengalami	-4388
▁mengamati	-4389
▁menghapus	-4390
▁mengikuti	-4391
▁mengklaim	-4392
▁menjalani	-4393
▁menyaingi	-4394
▁menyambut	-4395
▁menyesali	-4396
▁morricone	-4397
▁mycenaean	-4398
▁negaranya	-4399
▁pelabuhan	-4400
▁pemberian	-4401
▁pendatang	-4402
▁pengakuan	-4403
▁pengganti	-4404
▁peralatan	-4405
▁perangkat	-4406
▁perkiraan	-4407
▁perkotaan	-4408
▁permainan	-4409
▁progresif	-4410
▁puterinya	-4411
▁pyongyang	-4412
▁reformasi	-4413
▁sayangnya	-4414
▁sederhana	-4415
▁selebriti	-4416
▁sutradara	-4417
▁targetnya	-4418
▁terkemuka	-4419
▁tingginya	-4420
▁ungkapnya	-4421
▁abbotsford	-4422
▁alternatif	-4423
▁antarktika	-4424
▁arsitektur	-4425
▁belakangan	-4426
▁beroperasi	-4427
▁berpakaian	-4428
▁berpotensi	-4429
▁bersenjata	-4430
▁cumberland	-4431
▁demokratik	-4432
▁diandalkan	-4433
▁dibutuhkan	-4434
▁diharapkan	-4435
▁diinginkan	-4436
▁dilengkapi	-4437
▁dipamerkan	-4438
▁eksperimen	-4439
▁gelanggang	-4440
▁hemoglobin	-4441
▁kedokteran	-4442
▁kekurangan	-4443
▁kepresiden	-4444
▁kesempatan	-4445
▁kolaborasi	-4446
▁kontaminan	-4447
▁kontribusi	-4448
▁legislatif	-4449
▁melahirkan	-4450
▁melibatkan	-4451
▁melindungi	-4452
▁membawanya	-4453
▁menawarkan	-4454
▁menetapkan	-4455
▁menjadikan	-4456
▁menyetujui	-4457
▁meremehkan	-4458
▁pasukannya	-4459
▁pegunungan	-4460
▁pembuangan	-4461
▁pendudukan	-4462
▁penembakan	-4463
▁penguburan	-4464
▁penunjukan	-4465
▁pernikahan	-4466
▁persediaan	-4467
▁phoenician	-4468
▁prasejarah	-4469
▁referendum	-4470
▁sedikitnya	-4471
▁sehubungan	-4472
▁sejarahnya	-4473
▁sekitarnya	-4474
▁skotlandia	-4475
▁smartphone	-4476
▁terlupakan	-4477
▁terperinci	-4478
▁urbanisasi	-4479
▁winterkorn	-4480
investasikan	-4481
▁association	-4482
▁berpendapat	-4483
▁bersentuhan	-4484
▁demikianlah	-4485
▁ditampilkan	-4486
▁ditempatkan	-4487
▁ditumbuhkan	-4488
▁ditunjukkan	-4489
▁diwawancara	-4490
▁environment	-4491
▁intelektual	-4492
▁kemanusiaan	-4493
▁kematiannya	-4494
▁kementerian	-4495
▁kepercayaan	-4496
▁klasifikasi	-4497
▁klimatologi	-4498
▁konservatif	-4499
▁mempelajari	-4500
▁memproduksi	-4501
▁menciptakan	-4502
▁mendominasi	-4503
▁menempatkan	-4504
▁mengagumkan	-4505
▁mengalahkan	-4506
▁mengamankan	-4507
▁menghindari	-4508
▁menontonnya	-4509
▁menyaksikan	-4510
▁menyertakan	-4511
▁pascaperang	-4512
▁pembentukan	-4513
▁pemberontak	-4514
▁penghentian	-4515
▁pengurangan	-4516
▁perkelahian	-4517
▁profesional	-4518
▁sebagaimana	-4519
▁semenanjung	-4520
▁serangkaian	-4521
▁berorientasi	-4522
▁dikembangkan	-4523
▁diperhatikan	-4524
▁diselesaikan	-4525
▁kesehatannya	-4526
▁laboratorium	-4527
▁mempengaruhi	-4528
▁mengeluarkan	-4529
▁menggantikan	-4530
▁menyampaikan	-4531
▁menyenangkan	-4532
▁perlindungan	-4533
▁persahabatan	-4534
▁berkembangnya	-4535
▁dibudidayakan	-4536
▁diperkenalkan	-4537
▁international	-4538
▁menghubungkan	-4539
▁menyingkapkan	-4540
▁temperamennya	-4541
▁diproklamirkan	-4542
▁ditandatangani	-4543
▁mempertahankan	-4544
▁menandatangani	-4545
▁menggelisahkan	-4546
▁mendeklarasikan	-4547
▁mengkhawatirkan	-4548
▁pemerintahannya	-4549
-13	-4550
-16	-4551
-51	-4552
-8,	-4553
.16	-4554
16.	-4555
30.	-4556
45,	-4557
6%.	-4558
azi	-4559
euv	-4560
exu	-4561
hio	-4562
uyn	-4563
▁71	-4564
▁ue	-4565
▁án	-4566
-45,	-4567
-511	-4568
.165	-4569
.30-	-4570
03,7	-4571
360.	-4572
50),	-4573
94),	-4574
anni	-4575
ashi	-4576
atán	-4577
bach	-4578
biji	-4579
bria	-4580
erto	-4581
etuj	-4582
euve	-4583
jaza	-4584
kham	-4585
ktel	-4586
lack	-4587
lect	-4588
lstr	-4589
luvi	-4590
mith	-4591
osph	-4592
pets	-4593
pith	-4594
raba	-4595
roli	-4596
serv	-4597
sige	-4598
tabr	-4599
heim	-4600
ratt	-4601
ross	-4602
tima	-4603
urán	-4604
vier	-4605
yboy	-4606
zidi	-4607
ánch	-4608
▁1%,	-4609
▁1,5	-4610
▁134	-4611
▁137	-4612
▁139	-4613
▁168	-4614
▁50;	-4615
▁53%	-4616
▁56%	-4617
▁70-	-4618
▁700	-4619
▁boe	-4620
▁duf	-4621
▁ecb	-4622
▁fre	-4623
▁gof	-4624
▁lee	-4625
▁odi	-4626
▁rhs	-4627
▁rsc	-4628
▁scr	-4629
▁sky	-4630
▁usg	-4631
▁wiz	-4632
▁yay	-4633
▁£10	-4634
.30-1	-4635
103,7	-4636
alifa	-4637
alley	-4638
arbon	-4639
asahi	-4640
asted	-4641
astel	-4642
aturd	-4643
awahi	-4644
baiki	-4645
board	-4646
cerai	-4647
cerit	-4648
chler	-4649
ctori	-4650
dioks	-4651
diser	-4652
ectar	-4653
egrim	-4654
ektar	-4655
evalu	-4656
ewaan	-4657
gabaz	-4658
genet	-4659
halin	-4660
hearn	-4661
hiker	-4662
ianto	-4663
ilbab	-4664
injam	-4665
iorum	-4666
irsar	-4667
iskop	-4668
iskus	-4669
islav	-4670
jahat	-4671
jamin	-4672
kieli	-4673
mener	-4674
ments	-4675
meski	-4676
mesta	-4677
nesty	-4678
nesus	-4679
obalt	-4680
ocket	-4681
odias	-4682
omery	-4683
opley	-4684
orado	-4685
oresp	-4686
orset	-4687
osped	-4688
ostok	-4689
othai	-4690
ought	-4691
owatt	-4692
pelan	-4693
promi	-4694
rassi	-4695
rique	-4696
rosof	-4697
rosos	-4698
sekel	-4699
19,	-4700
19.	-4701
20.	-4702
3.4	-4703
7,5	-4704
93.	-4705
eff	-4706
rie	-4707
▁qu	-4708
19.9	-4709
3.00	-4710
bell	-4711
efin	-4712
ello	-4713
eraa	-4714
erly	-4715
ezat	-4716
sera	-4717
ully	-4718
▁120	-4719
▁7,5	-4720
▁96,	-4721
19.99	-4722
3.45.	-4723
agora	-4724
chmer	-4725
elles	-4726
enset	-4727
erbal	-4728
essen	-4729
garon	-4730
ieraa	-4731
isens	-4732
ortug	-4733
setuj	-4734
sigen	-4735
sikap	-4736
teman	-4737
timis	-4738
tipas	-4739
treal	-4740
ucker	-4741
udens	-4742
udrey	-4743
uluki	-4744
untuh	-4745
ussia	-4746
utube	-4747
viasi	-4748
vings	-4749
▁(191	-4750
▁(195	-4751
▁1.33	-4752
▁1200	-4753
▁1492	-4754
▁1632	-4755
▁1777	-4756
▁1832	-4757
▁1858	-4758
▁1886	-4759
▁1925	-4760
▁393.	-4761
▁amar	-4762
▁ambr	-4763
▁amur	-4764
▁amyn	-4765
▁asty	-4766
▁aver	-4767
▁aviv	-4768
▁avro	-4769
▁beus	-4770
▁biro	-4771
▁corr	-4772
▁cour	-4773
▁dahs	-4774
▁darn	-4775
▁dolm	-4776
▁duff	-4777
▁este	-4778
▁exec	-4779
▁fase	-4780
▁fell	-4781
▁fire	-4782
▁fish	-4783
▁game	-4784
▁garr	-4785
▁gema	-4786
▁gerr	-4787
▁guna	-4788
▁habs	-4789
▁hier	-4790
▁hugh	-4791
▁iden	-4792
▁irid	-4793
▁jeff	-4794
▁jeni	-4795
▁jenn	-4796
▁joan	-4797
▁kamu	-4798
▁kuil	-4799
bro	-4800
rof	-4801
▁45	-4802
▁49	-4803
▁6%	-4804
▁80	-4805
▁84	-4806
berk	-4807
bert	-4808
gumi	-4809
mone	-4810
ngur	-4811
▁141	-4812
▁153	-4813
▁600	-4814
▁eta	-4815
▁exx	-4816
brook	-4817
cedon	-4818
fiksi	-4819
ikrof	-4820
penya	-4821
peten	-4822
uliah	-4823
uther	-4824
▁1415	-4825
▁1538	-4826
▁fran	-4827
▁imaj	-4828
▁iran	-4829
▁labr	-4830
▁lamp	-4831
▁lapt	-4832
▁mcne	-4833
▁mosc	-4834
▁moun	-4835
▁mual	-4836
▁nazi	-4837
▁noma	-4838
▁nusa	-4839
▁oliv	-4840
▁over	-4841
▁papw	-4842
▁piaf	-4843
▁piag	-4844
▁pikn	-4845
▁queb	-4846
▁reco	-4847
▁retr	-4848
▁ribu	-4849
▁rich	-4850
▁rico	-4851
▁roti	-4852
▁roya	-4853
▁sakr	-4854
▁scot	-4855
▁soal	-4856
▁sony	-4857
▁staf	-4858
▁suez	-4859
▁talm	-4860
▁tamu	-4861
▁taun	-4862
▁tipo	-4863
▁usul	-4864
▁wall	-4865
▁walt	-4866
▁wild	-4867
▁wolm	-4868
▁zexu	-4869
▁£1,4	-4870
▁£125	-4871
▁£15.	-4872
.30-10	-4873
19.999	-4874
3.000-	-4875
abutan	-4876
acklet	-4877
ambrid	-4878
ammers	-4879
ampuni	-4880
andera	-4881
anjaro	-4882
armuka	-4883
asting	-4884
atusan	-4885
bawahi	-4886
bijian	-4887
brooke	-4888
burkan	-4889
casson	-4890
ection	-4891
egaria	-4892
egeran	-4893
elakar	-4894
elanan	-4895
elisih	-4896
ematik	-4897
embaca	-4898
empire	-4899
yeo	-4900
adge	-4901
ameo	-4902
eatif	-4903
ismat	-4904
zinah	-4905
▁1981	-4906
▁1984	-4907
▁1987	-4908
▁1988	-4909
▁esai	-4910
▁glor	-4911
▁head	-4912
▁hein	-4913
▁kors	-4914
▁samn	-4915
▁tarl	-4916
▁warn	-4917
ampion	-4918
enetis	-4919
eneuve	-4920
enggan	-4921
engker	-4922
entase	-4923
ention	-4924
entsin	-4925
entuck	-4926
erties	-4927
espons	-4928
etapan	-4929
etrich	-4930
etulan	-4931
everly	-4932
geshir	-4933
herine	-4934
hiasan	-4935
hothai	-4936
iayaan	-4937
iksaan	-4938
ingham	-4939
initif	-4940
ipotes	-4941
jadaan	-4942
jazair	-4943
kadang	-4944
ladewa	-4945
lambat	-4946
lintas	-4947
lorasi	-4948
luvios	-4949
mosfer	-4950
ngurus	-4951
nkieli	-4952
ocross	-4953
odessa	-4954
ogatif	-4955
onesia	-4956
orough	-4957
osting	-4958
outube	-4959
pencar	-4960
pengab	-4961
rospek	-4962
sangat	-4963
schmer	-4964
strang	-4965
tensif	-4966
ukisan	-4967
ulasan	-4968
ultasi	-4969
ungguh	-4970
untess	-4971
valkar	-4972
wenang	-4973
zation	-4974
£5.000	-4975
▁(1918	-4976
▁(1992	-4977
▁1.165	-4978
▁1.335	-4979
▁1399.	-4980
▁1492;	-4981
▁1519,	-4982
▁1530.	-4983
▁1839,	-4984
▁1856,	-4985
▁1860.	-4986
▁1879.	-4987
▁1882,	-4988
▁1887.	-4989
▁1903,	-4990
▁1918,	-4991
▁1926,	-4992
▁1945.	-4993
▁1947.	-4994
▁1950-	-4995
▁1952,	-4996
▁1955.	-4997
▁1962,	-4998
▁1969,	-4999
eiss	-5000
haus	-5001
itra	-5002
uier	-5003
▁cly	-5004
▁upl	-5005
borne	-5006
cayai	-5007
damai	-5008
elaks	-5009
shaus	-5010
studi	-5011
unity	-5012
▁akui	-5013
▁deda	-5014
▁hero	-5015
▁isra	-5016
▁love	-5017
▁praj	-5018
▁rinc	-5019
▁tenn	-5020
▁upay	-5021
binasi	-5022
enaiss	-5023
gedung	-5024
iguier	-5025
linasi	-5026
▁1973.	-5027
▁1975.	-5028
▁1977,	-5029
▁1987.	-5030
▁1993.	-5031
▁2012.	-5032
▁2014,	-5033
▁550),	-5034
▁6.000	-5035
▁alice	-5036
▁amurr	-5037
▁amynt	-5038
▁artef	-5039
▁avery	-5040
▁aviva	-5041
▁award	-5042
▁bakar	-5043
▁bakat	-5044
▁balap	-5045
▁basah	-5046
▁bedah	-5047
▁beogr	-5048
▁bonap	-5049
▁bosph	-5050
▁bouch	-5051
▁bruyn	-5052
▁cagar	-5053
▁capit	-5054
▁carlo	-5055
▁cecil	-5056
▁clyde	-5057
▁comey	-5058
▁conte	-5059
▁crana	-5060
▁cumae	-5061
▁dahsy	-5062
▁dalih	-5063
▁datar	-5064
▁davis	-5065
▁debit	-5066
▁denda	-5067
▁dican	-5068
▁dicap	-5069
▁diess	-5070
▁dipaj	-5071
▁diyak	-5072
▁donor	-5073
▁drast	-5074
▁drone	-5075
▁duffy	-5076
▁energ	-5077
▁essen	-5078
▁euras	-5079
▁fatal	-5080
▁feder	-5081
▁finan	-5082
▁flock	-5083
▁force	-5084
▁frans	-5085
▁gemuk	-5086
▁gerea	-5087
▁gezer	-5088
▁glind	-5089
▁greco	-5090
▁hakim	-5091
▁heart	-5092
▁holly	-5093
▁honor	-5094
▁ideal	-5095
▁isles	-5096
▁istan	-5097
▁jason	-5098
▁jimmy	-5099
vie	-5100
ewab	-5101
ondo	-5102
rani	-5103
▁eld	-5104
asque	-5105
emani	-5106
liott	-5107
otani	-5108
▁adik	-5109
▁club	-5110
▁desa	-5111
▁gond	-5112
▁nott	-5113
▁peju	-5114
▁pond	-5115
▁tell	-5116
▁vine	-5117
anesia	-5118
awatir	-5119
empurn	-5120
enario	-5121
enewab	-5122
eransi	-5123
lastik	-5124
ontvie	-5125
▁2009,	-5126
▁condo	-5127
▁diced	-5128
▁dihit	-5129
▁dihub	-5130
▁elder	-5131
▁faksi	-5132
▁flens	-5133
▁journ	-5134
▁judul	-5135
▁kabin	-5136
▁kagum	-5137
▁kairo	-5138
▁kamch	-5139
▁kejut	-5140
▁kelap	-5141
▁kelem	-5142
▁kemaj	-5143
▁kenya	-5144
▁kerba	-5145
▁ketuj	-5146
▁klaim	-5147
▁klaus	-5148
▁knott	-5149
▁kongo	-5150
▁koran	-5151
▁korin	-5152
▁lampu	-5153
▁larry	-5154
▁larut	-5155
▁lasse	-5156
▁lezat	-5157
▁lisan	-5158
▁luiss	-5159
▁mahal	-5160
▁mahir	-5161
▁mandi	-5162
▁memaj	-5163
▁mongl	-5164
▁monot	-5165
▁mulut	-5166
▁nikel	-5167
▁opera	-5168
▁oswal	-5169
▁outer	-5170
▁pakta	-5171
▁pearl	-5172
▁pelat	-5173
▁plano	-5174
▁plato	-5175
▁plaza	-5176
▁power	-5177
▁price	-5178
▁princ	-5179
▁prote	-5180
▁racun	-5181
▁ragam	-5182
▁ramah	-5183
▁remis	-5184
▁resep	-5185
▁robin	-5186
▁rokok	-5187
▁romeo	-5188
▁rosan	-5189
▁rossi	-5190
▁royal	-5191
▁rumit	-5192
▁rusak	-5193
▁sabtu	-5194
▁sabuk	-5195
▁sains	-5196
▁saksi	-5197
▁sally	-5198
▁saraf	-5199
20,	-5200
▁£2	-5201
alap	-5202
kuad	-5203
romi	-5204
sson	-5205
amson	-5206
ebums	-5207
moneg	-5208
udson	-5209
▁enni	-5210
▁flap	-5211
▁helm	-5212
▁nine	-5213
▁sald	-5214
▁salz	-5215
▁tsar	-5216
astian	-5217
elaine	-5218
enseth	-5219
lebums	-5220
ompson	-5221
▁1820,	-5222
▁1912,	-5223
▁1990,	-5224
▁2000,	-5225
▁break	-5226
▁bruno	-5227
▁dileg	-5228
▁ennio	-5229
▁kabis	-5230
▁kanan	-5231
▁kilim	-5232
▁metti	-5233
▁peter	-5234
▁proak	-5235
▁saldo	-5236
▁schle	-5237
▁scots	-5238
▁scott	-5239
▁sengk	-5240
▁sesto	-5241
▁shenz	-5242
▁sifat	-5243
▁sigur	-5244
▁sinis	-5245
▁sinop	-5246
▁sirku	-5247
▁skuad	-5248
▁slack	-5249
▁smith	-5250
▁solar	-5251
▁stage	-5252
▁stern	-5253
▁sánch	-5254
▁tante	-5255
▁tawar	-5256
▁tawon	-5257
▁telek	-5258
▁tesco	-5259
▁tesla	-5260
▁therm	-5261
▁tolle	-5262
▁topik	-5263
▁tower	-5264
▁tungg	-5265
▁tuntu	-5266
▁ulang	-5267
▁uplif	-5268
▁vanta	-5269
▁venet	-5270
▁vouch	-5271
▁wajar	-5272
▁weiss	-5273
▁zirah	-5274
▁£360.	-5275
▁ángel	-5276
15.000.	-5277
6.30-10	-5278
ampbell	-5279
ancisco	-5280
andingi	-5281
aptisan	-5282
arisnya	-5283
arsberg	-5284
ayatnya	-5285
borough	-5286
cayakan	-5287
chelles	-5288
ctorial	-5289
dinding	-5290
ebankan	-5291
ebruari	-5292
edikasi	-5293
editkan	-5294
egadang	-5295
ejitkan	-5296
ekspres	-5297
ekulasi	-5298
emangat	-5299
4).	-5300
pro	-5301
”).	-5302
avid	-5303
ords	-5304
orie	-5305
tori	-5306
ucca	-5307
vard	-5308
▁atk	-5309
▁yuc	-5310
arden	-5311
david	-5312
horie	-5313
iklan	-5314
iklus	-5315
immer	-5316
itori	-5317
jords	-5318
ordon	-5319
organ	-5320
ories	-5321
▁bono	-5322
▁bruc	-5323
▁jemu	-5324
▁kori	-5325
▁kurv	-5326
▁open	-5327
▁opos	-5328
ictori	-5329
proach	-5330
tumbuh	-5331
áhorie	-5332
▁1996,	-5333
▁atkin	-5334
▁bruce	-5335
▁cecel	-5336
▁edgar	-5337
▁kolek	-5338
▁kurva	-5339
▁nasih	-5340
▁pikir	-5341
ementer	-5342
empelak	-5343
engadah	-5344
enville	-5345
eorikan	-5346
eoritik	-5347
erdilan	-5348
ernakan	-5349
ferensi	-5350
garonne	-5351
geseran	-5352
geshire	-5353
henbach	-5354
ibingen	-5355
ikrofon	-5356
ilitasi	-5357
illican	-5358
indaian	-5359
iniatur	-5360
iorello	-5361
ipulasi	-5362
iskopal	-5363
ismatik	-5364
istance	-5365
itigasi	-5366
kandang	-5367
kporkan	-5368
lawanan	-5369
luviose	-5370
menerus	-5371
misikan	-5372
oduseri	-5373
omerset	-5374
omersil	-5375
omestik	-5376
ompokan	-5377
ondensi	-5378
onnesus	-5379
ontonan	-5380
ontroll	-5381
ortugal	-5382
pektasi	-5383
pitheko	-5384
plorasi	-5385
portasi	-5386
prinsip	-5387
prussia	-5388
rosesan	-5389
sanakan	-5390
shausen	-5391
sungguh	-5392
talenta	-5393
tekanan	-5394
teraksi	-5395
tronomi	-5396
ttember	-5397
tungnya	-5398
udaisme	-5399
cbs	-5400
jij	-5401
oji	-5402
alat	-5403
arko	-5404
gaji	-5405
lark	-5406
lien	-5407
sade	-5408
urio	-5409
▁dre	-5410
▁gag	-5411
▁gay	-5412
▁usk	-5413
anker	-5414
arkoz	-5415
eliat	-5416
jijik	-5417
kunya	-5418
larkm	-5419
▁comp	-5420
▁daun	-5421
▁gala	-5422
▁gaud	-5423
▁gaul	-5424
▁jern	-5425
▁maka	-5426
▁makm	-5427
▁nank	-5428
▁slat	-5429
arkozy	-5430
ompati	-5431
sirkan	-5432
tifkan	-5433
▁balat	-5434
▁buruh	-5435
▁curio	-5436
▁dream	-5437
▁emoji	-5438
▁emosi	-5439
▁gagal	-5440
▁galax	-5441
▁klien	-5442
▁milan	-5443
▁oblas	-5444
▁obses	-5445
▁pasca	-5446
▁petak	-5447
▁rhine	-5448
▁slate	-5449
▁uskup	-5450
januari	-5451
larkmel	-5452
udayaan	-5453
ulihkan	-5454
uluhnya	-5455
umbashi	-5456
umulasi	-5457
unggung	-5458
ungkawa	-5459
vention	-5460
£19.999	-5461
▁1794),	-5462
▁23.45.	-5463
▁35.000	-5464
▁agenda	-5465
▁akuari	-5466
▁amarna	-5467
▁ambisi	-5468
▁amurru	-5469
▁angkuh	-5470
▁arogan	-5471
▁audrey	-5472
▁aviasi	-5473
▁baltik	-5474
▁barrie	-5475
▁berhak	-5476
▁berjam	-5477
▁bernap	-5478
▁berpri	-5479
▁bogart	-5480
▁botani	-5481
▁buatan	-5482
▁cadang	-5483
▁carter	-5484
▁cecily	-5485
▁corona	-5486
▁corpor	-5487
▁cosped	-5488
▁crouch	-5489
▁dahulu	-5490
▁dengar	-5491
▁denver	-5492
▁detail	-5493
▁dialek	-5494
▁dianut	-5495
▁dibagi	-5496
▁dibawa	-5497
▁dihorm	-5498
▁dijaga	-5499
52,	-5500
96,	-5501
yth	-5502
▁51	-5503
alth	-5504
eimb	-5505
fred	-5506
hrey	-5507
orth	-5508
▁512	-5509
▁gca	-5510
▁kru	-5511
▁pae	-5512
▁roc	-5513
eksek	-5514
fredo	-5515
front	-5516
ohamm	-5517
ythia	-5518
▁1994	-5519
▁352,	-5520
▁5000	-5521
▁baca	-5522
▁emic	-5523
▁infr	-5524
▁kaca	-5525
▁pora	-5526
▁simb	-5527
▁tech	-5528
▁urat	-5529
alisis	-5530
esimen	-5531
iapkan	-5532
materi	-5533
▁1896,	-5534
▁1992,	-5535
▁aires	-5536
▁bully	-5537
▁duduk	-5538
▁kacau	-5539
▁lenny	-5540
▁norma	-5541
▁paeon	-5542
▁payah	-5543
▁rocco	-5544
▁techn	-5545
eimbang	-5546
gabelas	-5547
ohammed	-5548
umphrey	-5549
▁albany	-5550
▁assist	-5551
▁benang	-5552
▁berlin	-5553
▁dilema	-5554
▁diubah	-5555
▁diukur	-5556
▁dolmen	-5557
▁dorset	-5558
▁dugaan	-5559
▁dukung	-5560
▁emicro	-5561
▁energy	-5562
▁enggan	-5563
▁ernest	-5564
▁errani	-5565
▁father	-5566
▁fjords	-5567
▁forums	-5568
▁franco	-5569
▁galaxy	-5570
▁gamson	-5571
▁gandar	-5572
▁gaulle	-5573
▁geland	-5574
▁gender	-5575
▁glinda	-5576
▁gloria	-5577
▁goreng	-5578
▁gratis	-5579
▁halifa	-5580
▁hangat	-5581
▁harley	-5582
▁health	-5583
▁hektar	-5584
▁helena	-5585
▁heroin	-5586
▁hister	-5587
▁hollyw	-5588
▁humano	-5589
▁ikatan	-5590
▁imajin	-5591
▁infras	-5592
▁israel	-5593
▁istanb	-5594
▁jantan	-5595
▁javier	-5596
▁jenius	-5597
▁jernih	-5598
▁julian	-5599
6).	-5600
tev	-5601
46).	-5602
diam	-5603
hina	-5604
ooks	-5605
yard	-5606
▁161	-5607
▁cha	-5608
▁pej	-5609
846).	-5610
antai	-5611
artai	-5612
badan	-5613
ecret	-5614
ejand	-5615
emons	-5616
intai	-5617
ipina	-5618
okons	-5619
teven	-5620
▁3000	-5621
▁chap	-5622
▁cons	-5623
▁ejek	-5624
▁kras	-5625
▁nyar	-5626
▁yerb	-5627
athina	-5628
barang	-5629
esitas	-5630
istina	-5631
partai	-5632
secret	-5633
sistem	-5634
udyard	-5635
▁1610,	-5636
▁1928,	-5637
▁chair	-5638
▁chamb	-5639
▁chand	-5640
▁dinos	-5641
▁jenis	-5642
▁kapan	-5643
▁kapas	-5644
▁kapit	-5645
▁mewah	-5646
▁novel	-5647
▁pedas	-5648
▁premi	-5649
▁press	-5650
▁reach	-5651
▁repor	-5652
▁romaw	-5653
▁smara	-5654
▁yerba	-5655
ejandra	-5656
emonstr	-5657
entasan	-5658
okonsul	-5659
setelah	-5660
usulkan	-5661
▁brooks	-5662
▁chapel	-5663
▁consum	-5664
▁dikons	-5665
▁dimund	-5666
▁dinosa	-5667
▁interv	-5668
▁kagumi	-5669
▁karnak	-5670
▁kasasi	-5671
▁kasnya	-5672
▁kedalu	-5673
▁kekaca	-5674
▁kelemb	-5675
▁kelump	-5676
▁kerber	-5677
▁klasik	-5678
▁kobalt	-5679
▁konten	-5680
▁korban	-5681
▁kramer	-5682
▁krasno	-5683
▁krimin	-5684
▁labroc	-5685
▁lahore	-5686
▁lainny	-5687
▁lambat	-5688
▁laptop	-5689
▁lembah	-5690
▁lembar	-5691
▁lilles	-5692
▁lintas	-5693
▁looper	-5694
▁loving	-5695
▁luther	-5696
▁marina	-5697
▁markas	-5698
▁maroto	-5699
50-	-5700
ifu	-5701
iov	-5702
oug	-5703
burn	-5704
ence	-5705
kusi	-5706
ugas	-5707
ugup	-5708
▁184	-5709
antum	-5710
ersea	-5711
essee	-5712
ogers	-5713
sesua	-5714
toman	-5715
ulate	-5716
warsa	-5717
▁1000	-5718
▁1842	-5719
▁cifu	-5720
▁doug	-5721
▁giov	-5722
▁gran	-5723
▁gros	-5724
▁grup	-5725
arurat	-5726
ediden	-5727
epburn	-5728
harles	-5729
ilatus	-5730
sungai	-5731
▁1350-	-5732
▁1913,	-5733
▁2000-	-5734
▁darat	-5735
▁gugup	-5736
▁merug	-5737
▁sunga	-5738
▁yemen	-5739
arutkan	-5740
ightley	-5741
ikologi	-5742
lasemen	-5743
ugaskan	-5744
▁bremen	-5745
▁granit	-5746
▁grosir	-5747
▁masseb	-5748
▁megrim	-5749
▁mempek	-5750
▁mempes	-5751
▁mentok	-5752
▁meraba	-5753
▁mestre	-5754
▁milice	-5755
▁milisi	-5756
▁missis	-5757
▁monson	-5758
▁motion	-5759
▁motors	-5760
▁mutasi	-5761
▁nascar	-5762
▁newton	-5763
▁normal	-5764
▁nyaris	-5765
▁observ	-5766
▁obsesi	-5767
▁olivia	-5768
▁oswald	-5769
▁otonom	-5770
▁panama	-5771
▁pantat	-5772
▁pasien	-5773
▁pastor	-5774
▁paulus	-5775
▁pengej	-5776
▁peraih	-5777
▁perger	-5778
▁petaka	-5779
▁petter	-5780
▁piagam	-5781
▁plaice	-5782
▁planet	-5783
▁planta	-5784
▁prajur	-5785
▁prince	-5786
▁prosed	-5787
▁puerto	-5788
▁quebec	-5789
▁rachel	-5790
▁rambow	-5791
▁remaja	-5792
▁rencan	-5793
▁ribuan	-5794
▁rogers	-5795
▁romawi	-5796
▁runtuh	-5797
▁rupert	-5798
▁salern	-5799
▁ze	-5800
anne	-5801
ayan	-5802
ayer	-5803
ayol	-5804
ency	-5805
fill	-5806
illy	-5807
mbal	-5808
turn	-5809
▁40%	-5810
▁830	-5811
▁off	-5812
▁tay	-5813
chill	-5814
embay	-5815
ictur	-5816
▁andy	-5817
▁mode	-5818
▁taat	-5819
▁vill	-5820
▁zeit	-5821
icture	-5822
larasi	-5823
posisi	-5824
umayan	-5825
▁balok	-5826
▁dijad	-5827
▁imbal	-5828
apembay	-5829
astikan	-5830
ecahkan	-5831
esahkan	-5832
indiran	-5833
istensi	-5834
pertimb	-5835
urchill	-5836
▁agency	-5837
▁agensi	-5838
▁caplan	-5839
▁chilia	-5840
▁gezira	-5841
▁infill	-5842
▁konsel	-5843
▁memunc	-5844
▁offset	-5845
▁pelunc	-5846
▁prayer	-5847
▁reklam	-5848
▁return	-5849
▁salmon	-5850
▁sampel	-5851
▁saturd	-5852
▁schenc	-5853
▁sekret	-5854
▁select	-5855
▁selera	-5856
▁semoga	-5857
▁sensor	-5858
▁sensus	-5859
▁sepert	-5860
▁serial	-5861
▁siklus	-5862
▁sinema	-5863
▁slavik	-5864
▁solusi	-5865
▁spanyo	-5866
▁spayol	-5867
▁stiker	-5868
▁summer	-5869
▁tablet	-5870
▁taktik	-5871
▁tambah	-5872
▁teknon	-5873
▁telegr	-5874
▁teliti	-5875
▁tembok	-5876
▁tenang	-5877
▁tennis	-5878
▁terbay	-5879
▁ternak	-5880
▁terpap	-5881
▁tindak	-5882
▁tioman	-5883
▁tokuga	-5884
▁tories	-5885
▁tunggu	-5886
▁ulrich	-5887
▁utusan	-5888
▁varian	-5889
▁verbal	-5890
▁weller	-5891
▁winham	-5892
▁wolmar	-5893
▁yannis	-5894
▁yazidi	-5895
▁£15.00	-5896
-£19.999	-5897
ackleton	-5898
afsirkan	-5899
new	-5900
owo	-5901
elip	-5902
imne	-5903
ipat	-5904
ipta	-5905
ivat	-5906
iver	-5907
ogne	-5908
olip	-5909
undo	-5910
abowo	-5911
elipe	-5912
imple	-5913
ipnya	-5914
itals	-5915
jekak	-5916
manan	-5917
situs	-5918
undam	-5919
▁amin	-5920
▁anne	-5921
▁gaya	-5922
▁knew	-5923
▁mimp	-5924
desain	-5925
eteran	-5926
ikatif	-5927
olipop	-5928
pitals	-5929
ripnya	-5930
▁1997,	-5931
▁1998.	-5932
▁brant	-5933
▁cipta	-5934
▁diman	-5935
▁erosi	-5936
▁franz	-5937
▁guang	-5938
▁himne	-5939
▁lipat	-5940
▁makna	-5941
▁mundo	-5942
▁peser	-5943
▁river	-5944
25.000.	-5945
ampingi	-5946
ebarkan	-5947
enarkan	-5948
impulan	-5949
jelasan	-5950
kripnya	-5951
▁felipe	-5952
▁fundam	-5953
▁guangz	-5954
▁ketund	-5955
▁norman	-5956
▁penyak	-5957
▁penyer	-5958
▁privat	-5959
▁simple	-5960
▁supaya	-5961
▁terdep	-5962
amiliter	-5963
angkapan	-5964
angkitan	-5965
apkannya	-5966
arasikan	-5967
arbonasi	-5968
ashville	-5969
ayoritas	-5970
batasnya	-5971
berkuasa	-5972
davidson	-5973
desainer	-5974
dioksida	-5975
ecualian	-5976
eformasi	-5977
elaksasi	-5978
emukakan	-5979
encanaan	-5980
endahara	-5981
enewable	-5982
enggelam	-5983
engkaran	-5984
engkeram	-5985
epsionis	-5986
erogatif	-5987
ersihkan	-5988
evaluasi	-5989
frontasi	-5990
hasilkan	-5991
hentikan	-5992
icarakan	-5993
iklankan	-5994
impangan	-5995
intahkan	-5996
intainya	-5997
ipotesis	-5998
isensian	-5999
act	-6000
acu	-6001
ign	-6002
pec	-6003
phy	-6004
ppi	-6005
ugb	-6006
arte	-6007
igih	-6008
okow	-6009
tuju	-6010
ugby	-6011
xact	-6012
▁dpa	-6013
▁fig	-6014
▁kig	-6015
▁low	-6016
▁pig	-6017
ajaib	-6018
atoma	-6019
illas	-6020
islas	-6021
juara	-6022
okowi	-6023
oller	-6024
sippi	-6025
unjuk	-6026
urphy	-6027
▁atap	-6028
▁baju	-6029
▁dewa	-6030
▁diaj	-6031
▁gate	-6032
▁hort	-6033
▁laju	-6034
▁legi	-6035
▁loop	-6036
▁meza	-6037
▁stat	-6038
▁tunj	-6039
awatan	-6040
gereja	-6041
uaxact	-6042
▁dipec	-6043
▁frank	-6044
▁gigih	-6045
▁keceb	-6046
▁monak	-6047
▁piggy	-6048
▁reign	-6049
▁rugby	-6050
▁salas	-6051
▁sandi	-6052
▁ujian	-6053
ajaiban	-6054
ecahnya	-6055
juaraan	-6056
kanisme	-6057
lakukan	-6058
pecahan	-6059
▁figaro	-6060
▁hortef	-6061
▁jokowi	-6062
▁kigali	-6063
▁legiun	-6064
▁memacu	-6065
▁monako	-6066
▁murphy	-6067
▁pelari	-6068
▁serbia	-6069
▁setuju	-6070
▁uaxact	-6071
juangkan	-6072
kanologi	-6073
kerdilan	-6074
lementer	-6075
masukkan	-6076
okasikan	-6077
onografi	-6078
oriental	-6079
penjahat	-6080
perayaan	-6081
presiden	-6082
puingnya	-6083
serpihan	-6084
sikologi	-6085
slowakia	-6086
stranger	-6087
tabrakan	-6088
timologi	-6089
tisipasi	-6090
tituensi	-6091
tributor	-6092
ttemberg	-6093
tugaskan	-6094
ujungnya	-6095
ukhothai	-6096
ulistiwa	-6097
umpuhkan	-6098
undukkan	-6099
koh	-6100
aiga	-6101
eaul	-6102
erai	-6103
hola	-6104
oboh	-6105
udea	-6106
▁dec	-6107
▁dee	-6108
▁nai	-6109
▁rai	-6110
▁toh	-6111
adarp	-6112
alkoh	-6113
eault	-6114
holas	-6115
impun	-6116
isola	-6117
ormat	-6118
ritik	-6119
udeau	-6120
▁1980	-6121
▁anti	-6122
▁bola	-6123
▁dead	-6124
▁ileg	-6125
▁indo	-6126
▁khan	-6127
▁khat	-6128
▁komp	-6129
▁marr	-6130
▁marv	-6131
▁marx	-6132
▁meso	-6133
▁naif	-6134
eroboh	-6135
gabazu	-6136
ihatin	-6137
olakan	-6138
▁1566,	-6139
▁2002,	-6140
▁basil	-6141
▁blood	-6142
▁cinta	-6143
▁decca	-6144
▁khanz	-6145
▁komut	-6146
▁mesin	-6147
▁pedro	-6148
▁taiga	-6149
adarpur	-6150
alkohol	-6151
gabazuz	-6152
iratkan	-6153
isolasi	-6154
▁format	-6155
▁ilegal	-6156
▁kompon	-6157
▁makmur	-6158
▁marvel	-6159
▁tetapi	-6160
ilbeault	-6161
oyangkan	-6162
ulingkan	-6163
ungkapan	-6164
untingan	-6165
yakinkan	-6166
ychelles	-6167
▁(1918),	-6168
▁(1954),	-6169
▁(1994).	-6170
▁168.000	-6171
▁2013-20	-6172
▁2015-20	-6173
▁512-511	-6174
▁amnesty	-6175
▁amyntas	-6176
▁antipas	-6177
▁artefak	-6178
▁asalnya	-6179
▁austral	-6180
▁baginya	-6181
▁bandara	-6182
▁banding	-6183
▁bangkok	-6184
▁barratt	-6185
▁basilic	-6186
▁belanja	-6187
▁benteng	-6188
▁beograd	-6189
▁beracun	-6190
▁beraksi	-6191
▁beralih	-6192
▁beramai	-6193
▁berawal	-6194
▁berdisk	-6195
▁berduri	-6196
▁bergaam	-6197
▁bergaya	-6198
▁berguna	-6199
duk	-6200
juk	-6201
jur	-6202
kur	-6203
▁42	-6204
▁83	-6205
-16,	-6206
alem	-6207
anah	-6208
egor	-6209
etuk	-6210
umur	-6211
yars	-6212
▁70%	-6213
▁833	-6214
▁dul	-6215
▁lul	-6216
▁nes	-6217
▁nik	-6218
▁nol	-6219
▁nuk	-6220
▁puk	-6221
▁sia	-6222
▁ste	-6223
▁tuk	-6224
antau	-6225
arans	-6226
duksi	-6227
kursi	-6228
regor	-6229
tuasi	-6230
utive	-6231
yarsk	-6232
▁line	-6233
▁marc	-6234
▁mare	-6235
▁nukl	-6236
▁resp	-6237
▁stor	-6238
asinya	-6239
ebatan	-6240
empeng	-6241
gregor	-6242
ingung	-6243
jataan	-6244
▁arans	-6245
▁balai	-6246
▁beruk	-6247
▁beust	-6248
▁dibaw	-6249
▁induk	-6250
▁jujur	-6251
▁lulus	-6252
▁marah	-6253
▁march	-6254
▁marok	-6255
▁nikah	-6256
▁pukul	-6257
▁ranah	-6258
▁steal	-6259
▁unjuk	-6260
habisan	-6261
tansial	-6262
▁austro	-6263
▁darius	-6264
▁dialam	-6265
▁ditemp	-6266
▁jilbab	-6267
▁marcel	-6268
▁mareng	-6269
▁maroko	-6270
▁mounta	-6271
▁nestus	-6272
▁nuklir	-6273
▁piknik	-6274
▁seumur	-6275
▁tukang	-6276
erusalem	-6277
▁100.000	-6278
▁berhulu	-6279
▁berikut	-6280
▁bermasa	-6281
▁bernama	-6282
▁beverly	-6283
▁bingung	-6284
▁blogger	-6285
▁borough	-6286
▁cecelia	-6287
▁ceroboh	-6288
▁charles	-6289
▁christi	-6290
▁cifuent	-6291
▁cologne	-6292
▁commons	-6293
▁company	-6294
▁cranach	-6295
▁dahsyat	-6296
▁darurat	-6297
▁diadili	-6298
▁diakses	-6299
eld	-6300
fum	-6301
itt	-6302
lit	-6303
obo	-6304
▁ly	-6305
alin	-6306
atat	-6307
eria	-6308
irat	-6309
litz	-6310
oboi	-6311
umat	-6312
ummy	-6313
usir	-6314
wira	-6315
▁1%.	-6316
▁bia	-6317
▁eag	-6318
▁gch	-6319
▁jin	-6320
▁kir	-6321
▁lel	-6322
▁lid	-6323
▁lun	-6324
▁lyv	-6325
▁mol	-6326
▁yum	-6327
arium	-6328
field	-6329
▁biay	-6330
▁buck	-6331
▁casa	-6332
▁gchq	-6333
▁hans	-6334
▁kiki	-6335
▁lele	-6336
anggur	-6337
dengan	-6338
endang	-6339
iberia	-6340
levitt	-6341
▁bilah	-6342
▁brice	-6343
▁disor	-6344
▁eagle	-6345
▁jumat	-6346
▁kirri	-6347
▁koboi	-6348
▁lidah	-6349
▁lunak	-6350
▁lyvet	-6351
▁miami	-6352
▁molib	-6353
▁mummy	-6354
elakaan	-6355
entengi	-6356
enturan	-6357
saudara	-6358
terlitz	-6359
▁anggur	-6360
▁gomery	-6361
▁hariri	-6362
▁kalian	-6363
▁kerbau	-6364
▁parfum	-6365
▁pinang	-6366
▁stalin	-6367
▁tulang	-6368
ansfield	-6369
oversial	-6370
▁diambil	-6371
▁dibahas	-6372
▁dibebas	-6373
▁diberla	-6374
▁didapat	-6375
▁didefin	-6376
▁dieksek	-6377
▁dikutip	-6378
▁dilatih	-6379
▁dilepas	-6380
▁dimensi	-6381
▁dinamai	-6382
▁dinding	-6383
▁dinyana	-6384
▁dinyany	-6385
▁dipaksa	-6386
▁direksi	-6387
▁dirusak	-6388
▁diskusi	-6389
▁disorot	-6390
▁ditempa	-6391
▁ditrans	-6392
▁domenic	-6393
▁dominan	-6394
▁dominna	-6395
▁douglas	-6396
▁drastis	-6397
▁dulunya	-6398
▁efektif	-6399
-3,	-6400
kel	-6401
mit	-6402
rrh	-6403
uar	-6404
alel	-6405
cana	-6406
dari	-6407
ella	-6408
esel	-6409
fari	-6410
pela	-6411
umsi	-6412
▁jun	-6413
▁suc	-6414
adari	-6415
bella	-6416
denum	-6417
elang	-6418
minya	-6419
mobil	-6420
monis	-6421
okkan	-6422
rrhus	-6423
uaron	-6424
▁2010	-6425
▁363.	-6426
▁abak	-6427
▁ditr	-6428
▁june	-6429
▁suci	-6430
asakan	-6431
elanga	-6432
ertiak	-6433
kannya	-6434
osotan	-6435
▁1961,	-6436
▁2016,	-6437
▁bukit	-6438
▁cameo	-6439
▁earth	-6440
▁penur	-6441
▁terek	-6442
▁teror	-6443
▁tertu	-6444
▁thess	-6445
onmobil	-6446
umsikan	-6447
urannya	-6448
▁abakum	-6449
▁beranj	-6450
▁cuaron	-6451
▁diesel	-6452
▁menikm	-6453
▁pertar	-6454
▁rosane	-6455
▁safari	-6456
▁stereo	-6457
▁summit	-6458
▁tertua	-6459
▁wacana	-6460
erosotan	-6461
ibadatan	-6462
isabella	-6463
kelanjut	-6464
ontokkan	-6465
▁corrado	-6466
▁diatasi	-6467
▁dibedah	-6468
▁ekstern	-6469
▁enrique	-6470
▁faktual	-6471
▁fellini	-6472
▁firewal	-6473
▁fishing	-6474
▁fontvie	-6475
▁garrard	-6476
▁genetis	-6477
▁geologi	-6478
▁georges	-6479
▁granite	-6480
▁gravity	-6481
▁guangzh	-6482
▁halifax	-6483
▁hammers	-6484
▁harvard	-6485
▁hechler	-6486
▁herbert	-6487
▁hillary	-6488
▁indiana	-6489
▁insiden	-6490
▁iridium	-6491
▁istilah	-6492
▁istirah	-6493
▁jalinan	-6494
▁jauhnya	-6495
▁johnson	-6496
▁journal	-6497
▁kabisat	-6498
▁kairsar	-6499
65	-6500
328	-6501
pes	-6502
▁aj	-6503
adut	-6504
ahap	-6505
ahul	-6506
aret	-6507
asut	-6508
egan	-6509
ivil	-6510
jara	-6511
oods	-6512
orus	-6513
pard	-6514
ypes	-6515
▁nar	-6516
ampar	-6517
elkan	-6518
entuh	-6519
oknya	-6520
tahap	-6521
ulman	-6522
▁(328	-6523
▁egan	-6524
▁five	-6525
▁juan	-6526
▁pund	-6527
▁seng	-6528
▁watt	-6529
engkan	-6530
eppard	-6531
loknya	-6532
utunya	-6533
ypeset	-6534
▁1.365	-6535
▁ajang	-6536
▁anshi	-6537
▁badut	-6538
▁civil	-6539
▁kapur	-6540
▁marat	-6541
▁meneb	-6542
▁pesat	-6543
▁tahap	-6544
▁troya	-6545
▁woods	-6546
ahuluan	-6547
▁claret	-6548
▁integr	-6549
▁menemb	-6550
▁mister	-6551
▁narasi	-6552
▁parker	-6553
▁pundak	-6554
▁sentuh	-6555
elengkan	-6556
ksanakan	-6557
▁kecanti	-6558
▁keenamp	-6559
▁keluhan	-6560
▁kenseth	-6561
▁keputus	-6562
▁kerjaan	-6563
▁kesaleh	-6564
▁keselam	-6565
▁keterat	-6566
▁khanzir	-6567
▁klausul	-6568
▁kolonis	-6569
▁komunal	-6570
▁komunis	-6571
▁koneksi	-6572
▁korsika	-6573
▁kreatif	-6574
▁lamanya	-6575
▁ledakan	-6576
▁lembaga	-6577
▁lempeng	-6578
▁liberal	-6579
▁lolipop	-6580
▁lovings	-6581
▁lukisan	-6582
▁macedon	-6583
▁maiorum	-6584
▁marengo	-6585
▁matanya	-6586
▁megaria	-6587
▁melamar	-6588
▁melanda	-6589
▁melania	-6590
▁melebih	-6591
▁memadai	-6592
▁memandu	-6593
▁memburu	-6594
▁memerik	-6595
▁memikat	-6596
▁memperk	-6597
▁memupuk	-6598
▁mencuri	-6599
tz	-6600
aum	-6601
gag	-6602
ilh	-6603
ilu	-6604
ono	-6605
ror	-6606
tzi	-6607
asab	-6608
eruk	-6609
gala	-6610
illa	-6611
isap	-6612
nnya	-6613
tret	-6614
unip	-6615
utik	-6616
yono	-6617
▁190	-6618
▁aus	-6619
▁mid	-6620
emuir	-6621
gagem	-6622
putri	-6623
umpul	-6624
▁1904	-6625
▁basi	-6626
▁buah	-6627
▁jins	-6628
▁king	-6629
▁kred	-6630
▁midd	-6631
▁reic	-6632
▁rugi	-6633
anghai	-6634
apnnya	-6635
asabah	-6636
hoyono	-6637
ikutub	-6638
ilhami	-6639
illard	-6640
itakan	-6641
uatnya	-6642
utikul	-6643
▁gangg	-6644
▁kadar	-6645
▁kecap	-6646
▁lower	-6647
▁melay	-6648
▁mildr	-6649
▁paket	-6650
▁scrit	-6651
▁shika	-6652
▁traum	-6653
▁tunip	-6654
▁villa	-6655
alabria	-6656
erdasan	-6657
wikutub	-6658
▁(1992)	-6659
▁diisap	-6660
▁kredit	-6661
▁memanc	-6662
▁middle	-6663
▁pemilu	-6664
▁permes	-6665
▁potret	-6666
▁segala	-6667
▁sepeda	-6668
▁shikai	-6669
▁terror	-6670
▁zimmer	-6671
eritakan	-6672
gagement	-6673
▁eurasia	-6674
▁gillard	-6675
▁kabinet	-6676
▁kutikul	-6677
▁menekan	-6678
▁menerim	-6679
▁mengaku	-6680
▁mengamb	-6681
▁menggol	-6682
▁mengimb	-6683
▁mengunt	-6684
▁menikah	-6685
▁menjent	-6686
▁menjual	-6687
▁menyerb	-6688
▁merdeka	-6689
▁merosot	-6690
▁mildred	-6691
▁monarki	-6692
▁monglia	-6693
▁moscone	-6694
▁nanking	-6695
▁nasabah	-6696
▁nasihat	-6697
▁nicolas	-6698
▁oksigen	-6699
mus	-6700
orl	-6701
oun	-6702
▁id	-6703
anam	-6704
anus	-6705
ated	-6706
king	-6707
kumb	-6708
orld	-6709
▁jah	-6710
▁tex	-6711
▁ver	-6712
ikkan	-6713
iston	-6714
surat	-6715
wahan	-6716
zania	-6717
▁aoun	-6718
▁blok	-6719
▁draf	-6720
▁goog	-6721
▁hing	-6722
▁masj	-6723
▁ping	-6724
▁rast	-6725
▁sund	-6726
▁terg	-6727
ebihan	-6728
kumben	-6729
▁berar	-6730
▁dilah	-6731
▁hinga	-6732
▁ident	-6733
▁jahat	-6734
▁manus	-6735
▁silic	-6736
▁texas	-6737
▁versa	-6738
▁world	-6739
ukuhkan	-6740
▁berapi	-6741
▁google	-6742
▁kecand	-6743
▁masjid	-6744
▁nectar	-6745
▁schlei	-6746
▁semasa	-6747
▁sunder	-6748
▁zayion	-6749
musuhnya	-6750
▁bawahan	-6751
▁berarti	-6752
▁berdamp	-6753
▁berdiam	-6754
▁bersatu	-6755
▁ditanam	-6756
▁gondola	-6757
▁kepolis	-6758
▁oposisi	-6759
▁optimis	-6760
▁packham	-6761
▁pahatan	-6762
▁paralel	-6763
▁pasific	-6764
▁passera	-6765
▁patroli	-6766
▁pejalan	-6767
▁pelajar	-6768
▁pelucca	-6769
▁pemandu	-6770
▁pemecah	-6771
▁pencari	-6772
▁penerus	-6773
▁penutur	-6774
▁perdama	-6775
▁pertimb	-6776
▁perwira	-6777
▁peserta	-6778
▁pezinah	-6779
▁picture	-6780
▁plastik	-6781
▁playboy	-6782
▁politis	-6783
▁politti	-6784
▁positif	-6785
▁potensi	-6786
▁praktis	-6787
▁premier	-6788
▁presisi	-6789
▁pribumi	-6790
▁protein	-6791
▁rachida	-6792
▁ramalan	-6793
▁rambler	-6794
▁records	-6795
▁relativ	-6796
▁renaiss	-6797
▁respons	-6798
▁rincian	-6799
kn	-6800
35.	-6801
cam	-6802
ike	-6803
isu	-6804
lon	-6805
onl	-6806
sam	-6807
ves	-6808
ekat	-6809
elus	-6810
etan	-6811
guru	-6812
kari	-6813
▁16.	-6814
▁367	-6815
▁crt	-6816
▁onl	-6817
▁ton	-6818
▁vok	-6819
allon	-6820
brina	-6821
camat	-6822
knuck	-6823
peran	-6824
▁16.5	-6825
▁2008	-6826
▁2011	-6827
▁arus	-6828
▁crtc	-6829
▁graf	-6830
▁keab	-6831
▁like	-6832
▁puas	-6833
▁view	-6834
▁yves	-6835
ampton	-6836
okumen	-6837
▁2035.	-6838
▁krist	-6839
▁marta	-6840
▁vance	-6841
▁vokal	-6842
andaian	-6843
benteng	-6844
elusuri	-6845
karibia	-6846
saingan	-6847
samudra	-6848
▁16.500	-6849
▁ditimb	-6850
▁edward	-6851
▁fallon	-6852
▁konsev	-6853
▁online	-6854
▁rocket	-6855
▁barroso	-6856
▁cendeki	-6857
▁dokumen	-6858
▁grafton	-6859
▁kacamat	-6860
▁kemudia	-6861
▁ketujuh	-6862
▁kristin	-6863
▁melekat	-6864
▁militan	-6865
▁pendeta	-6866
▁romanov	-6867
▁sabrina	-6868
▁salaman	-6869
▁salerno	-6870
▁samnium	-6871
▁samping	-6872
▁sandera	-6873
▁sarkozy	-6874
▁savings	-6875
▁schenck	-6876
▁scritti	-6877
▁scythia	-6878
▁sejajar	-6879
▁selokan	-6880
▁seluler	-6881
▁senjata	-6882
▁sepadan	-6883
▁service	-6884
▁sesudah	-6885
▁sesungg	-6886
▁setitik	-6887
▁siberia	-6888
▁silicon	-6889
▁sinilah	-6890
▁sirkuit	-6891
▁solheim	-6892
▁sternli	-6893
▁stoller	-6894
▁strateg	-6895
▁subsidi	-6896
▁sungguh	-6897
▁sánchez	-6898
▁tadinya	-6899
%,	-6900
',	-6901
):	-6902
-3	-6903
bb	-6904
uv	-6905
gca	-6906
kit	-6907
ner	-6908
out	-6909
wat	-6910
yla	-6911
▁bá	-6912
ajat	-6913
enia	-6914
nama	-6915
outh	-6916
ping	-6917
tial	-6918
uvri	-6919
ylae	-6920
▁aya	-6921
▁chi	-6922
▁con	-6923
▁mal	-6924
▁pbb	-6925
▁rup	-6926
ernya	-6927
ettel	-6928
evada	-6929
icino	-6930
karya	-6931
kitab	-6932
oloni	-6933
senia	-6934
▁20%,	-6935
▁adid	-6936
▁ayam	-6937
▁bobr	-6938
erajat	-6939
gambar	-6940
koloni	-6941
opylae	-6942
zettel	-6943
▁berin	-6944
▁cangk	-6945
▁chief	-6946
▁isner	-6947
▁kawat	-6948
▁lucas	-6949
▁malle	-6950
▁ouvri	-6951
▁rasis	-6952
▁south	-6953
▁tatan	-6954
astelfr	-6955
ehernya	-6956
isihkan	-6957
omentar	-6958
▁adidas	-6959
▁bobrok	-6960
▁mengit	-6961
▁nevada	-6962
▁pengem	-6963
▁rentan	-6964
▁risiko	-6965
▁setial	-6966
▁ticino	-6967
komentar	-6968
ospitals	-6969
▁330.000	-6970
▁alkitab	-6971
▁cangkir	-6972
▁derajat	-6973
▁dialami	-6974
▁hepburn	-6975
▁malleus	-6976
▁melacak	-6977
▁pilatus	-6978
▁rupanya	-6979
▁sasktel	-6980
▁talenta	-6981
▁talking	-6982
▁tatanan	-6983
▁tawaran	-6984
▁technol	-6985
▁teknisi	-6986
▁telekom	-6987
▁tematis	-6988
▁teologi	-6989
▁terawal	-6990
▁terbagi	-6991
▁terbaru	-6992
▁tergesa	-6993
▁terlant	-6994
▁terpana	-6995
▁tetangg	-6996
▁tetesan	-6997
▁thessal	-6998
▁transit	-6999
,7	-7000
fj	-7001
pt	-7002
aka	-7003
dit	-7004
kam	-7005
our	-7006
▁jr	-7007
omet	-7008
satr	-7009
▁10%	-7010
▁5,7	-7011
▁eku	-7012
▁nos	-7013
▁pot	-7014
▁ppt	-7015
▁spi	-7016
▁sun	-7017
▁tid	-7018
▁via	-7019
▁wol	-7020
eddit	-7021
ennya	-7022
etika	-7023
kamah	-7024
▁1912	-7025
intour	-7026
ketika	-7027
ometer	-7028
onggar	-7029
satria	-7030
▁1879,	-7031
▁adden	-7032
▁ekuin	-7033
▁nostr	-7034
▁panen	-7035
▁potom	-7036
▁spieg	-7037
▁suaka	-7038
▁sunti	-7039
▁tidur	-7040
▁berunt	-7041
▁boneka	-7042
▁empire	-7043
▁golden	-7044
▁keenam	-7045
▁kental	-7046
▁kesama	-7047
▁reddit	-7048
▁uplift	-7049
udarinya	-7050
▁achaean	-7051
▁ksatria	-7052
▁longgar	-7053
▁nostrum	-7054
▁pembawa	-7055
▁potomac	-7056
▁ratusan	-7057
▁samsung	-7058
▁sasaran	-7059
▁sensasi	-7060
▁spiegel	-7061
▁trudeau	-7062
▁tunggal	-7063
▁typeset	-7064
▁ucapnya	-7065
▁vantage	-7066
▁vatikan	-7067
▁veteran	-7068
▁victori	-7069
▁viguier	-7070
▁voucher	-7071
▁warisan	-7072
▁wilayan	-7073
▁wintour	-7074
▁yayasan	-7075
▁yucatán	-7076
▁záhorie	-7077
▁£10.000	-7078
▁£12.000	-7079
abilitasi	-7080
ahlawanan	-7081
alifikasi	-7082
ampingkan	-7083
anganinya	-7084
angguhkan	-7085
angkitkan	-7086
anization	-7087
aranegara	-7088
asikannya	-7089
ceritanya	-7090
diperiksa	-7091
eberadaan	-7092
ecatannya	-7093
egahannya	-7094
egrasikan	-7095
elompokan	-7096
embangkit	-7097
embirakan	-7098
emukannya	-7099
21	-7100
29	-7101
hn	-7102
ln	-7103
▁x	-7104
-29	-7105
221	-7106
33,	-7107
die	-7108
hon	-7109
nan	-7110
nox	-7111
sln	-7112
ten	-7113
▁df	-7114
▁ss	-7115
arib	-7116
igin	-7117
isit	-7118
lahi	-7119
▁cbc	-7120
▁cis	-7121
▁dfb	-7122
▁hus	-7123
▁rit	-7124
akhon	-7125
anywa	-7126
arung	-7127
opang	-7128
▁edit	-7129
▁fsln	-7130
▁gold	-7131
▁keem	-7132
▁pall	-7133
ahaman	-7134
antium	-7135
anyway	-7136
embala	-7137
origin	-7138
uppets	-7139
▁1933,	-7140
▁adnan	-7141
▁bonus	-7142
▁capua	-7143
▁carib	-7144
▁delhi	-7145
▁husum	-7146
▁ilahi	-7147
▁karna	-7148
▁kekun	-7149
▁ritel	-7150
▁segel	-7151
ersiade	-7152
zantium	-7153
▁anyway	-7154
▁bensin	-7155
▁editor	-7156
▁kapten	-7157
▁lennox	-7158
▁maglev	-7159
▁membut	-7160
▁sampah	-7161
analisis	-7162
anjutkan	-7163
embalaan	-7164
opangnya	-7165
yzantium	-7166
▁courant	-7167
▁defisit	-7168
▁efeknya	-7169
▁federic	-7170
▁irigasi	-7171
▁monoton	-7172
▁muppets	-7173
▁situasi	-7174
▁turisme	-7175
ahanakhon	-7176
encanakan	-7177
esempatan	-7178
hawatiran	-7179
ingungkan	-7180
intaannya	-7181
islasinya	-7182
istensial	-7183
mayoritas	-7184
muasalnya	-7185
obatannya	-7186
ografinya	-7187
ompongnya	-7188
onakannya	-7189
ongkannya	-7190
pelabuhan	-7191
pertemuan	-7192
perubahan	-7193
pithekous	-7194
rospektif	-7195
secretary	-7196
truksinya	-7197
uangannya	-7198
ubumbashi	-7199
gb	-7200
oa	-7201
st	-7202
tv	-7203
ye	-7204
abu	-7205
lay	-7206
▁es	-7207
▁“1	-7208
adak	-7209
agen	-7210
area	-7211
ilir	-7212
oket	-7213
osok	-7214
utos	-7215
year	-7216
▁bir	-7217
▁bur	-7218
▁ctv	-7219
▁esk	-7220
▁heb	-7221
▁hub	-7222
▁iey	-7223
▁kuo	-7224
▁mgb	-7225
▁yas	-7226
asial	-7227
▁3300	-7228
▁dada	-7229
▁july	-7230
▁rabu	-7231
▁sore	-7232
▁tump	-7233
▁wilk	-7234
▁“100	-7235
utosom	-7236
wabnya	-7237
▁1917,	-7238
▁1948,	-7239
▁2006,	-7240
▁benak	-7241
▁buram	-7242
▁curie	-7243
▁esktr	-7244
▁gilir	-7245
▁hamil	-7246
▁hebat	-7247
▁hubei	-7248
▁ieyas	-7249
▁kasar	-7250
▁kelay	-7251
▁molis	-7252
▁pelar	-7253
▁perih	-7254
▁roket	-7255
▁sesua	-7256
▁sosok	-7257
▁“100%	-7258
anadian	-7259
ivostok	-7260
stephen	-7261
▁berdoa	-7262
▁ieyasu	-7263
▁memuji	-7264
▁molise	-7265
▁rasial	-7266
▁sesuai	-7267
▁wilkes	-7268
divostok	-7269
domestik	-7270
utosomal	-7271
▁esktrem	-7272
▁jaminan	-7273
▁mengisi	-7274
▁perihal	-7275
▁promosi	-7276
ecualikan	-7277
rttemberg	-7278
uckerberg	-7279
umbangkan	-7280
umblebums	-7281
umismatik	-7282
ungkapkan	-7283
▁2013-201	-7284
▁abakumov	-7285
▁aborigin	-7286
▁akuarium	-7287
▁antillas	-7288
▁antilles	-7289
▁approach	-7290
▁asosiasi	-7291
▁atkinson	-7292
▁atmosfer	-7293
▁badarpur	-7294
▁baptisan	-7295
▁barrosos	-7296
▁bawahnya	-7297
▁bayangan	-7298
▁begadang	-7299
1.	-7300
da	-7301
aut	-7302
cal	-7303
ega	-7304
hak	-7305
▁nh	-7306
▁yg	-7307
ampa	-7308
aute	-7309
duri	-7310
jadi	-7311
olar	-7312
opag	-7313
siar	-7314
urus	-7315
▁nhs	-7316
asana	-7317
calla	-7318
entak	-7319
▁2005	-7320
▁2012	-7321
▁bila	-7322
▁mash	-7323
▁rest	-7324
▁vega	-7325
▁wind	-7326
adapan	-7327
daerah	-7328
ekatan	-7329
enberg	-7330
rosoft	-7331
▁2001.	-7332
▁bunga	-7333
▁dibub	-7334
▁dieja	-7335
▁dolar	-7336
▁haute	-7337
▁kepal	-7338
▁medan	-7339
▁oberm	-7340
▁peneg	-7341
▁pokok	-7342
▁winds	-7343
udahkan	-7344
uratnya	-7345
▁baikku	-7346
▁berdur	-7347
▁berten	-7348
▁pedang	-7349
▁peduli	-7350
▁pengan	-7351
▁propag	-7352
▁radium	-7353
▁restor	-7354
ampaikan	-7355
antahkan	-7356
odenberg	-7357
ustralia	-7358
▁hadapan	-7359
▁pollack	-7360
▁suasana	-7361
▁tersiar	-7362
▁thought	-7363
australia	-7364
bodenberg	-7365
engkelkan	-7366
▁belerang	-7367
▁benturan	-7368
▁beranjak	-7369
▁bercerai	-7370
▁berdamai	-7371
▁bergeron	-7372
▁berperan	-7373
▁bersaing	-7374
▁bersikap	-7375
▁berusaha	-7376
▁besarnya	-7377
▁biayanya	-7378
▁biografi	-7379
▁breaking	-7380
▁breasted	-7381
▁bujangan	-7382
▁buruknya	-7383
▁butuhkan	-7384
▁cadangan	-7385
▁campbell	-7386
▁castelfr	-7387
▁cendekia	-7388
▁chairman	-7389
▁champion	-7390
▁chandler	-7391
▁colorado	-7392
▁controll	-7393
▁cospedal	-7394
▁countess	-7395
▁cristina	-7396
▁dedaunan	-7397
▁dedikasi	-7398
▁desainer	-7399
▁.	-7400
▁u	-7401
ids	-7402
kat	-7403
opi	-7404
ulc	-7405
▁kv	-7406
▁mr	-7407
aden	-7408
aham	-7409
ebek	-7410
ilas	-7411
visi	-7412
▁kfc	-7413
▁nat	-7414
irian	-7415
ulcea	-7416
▁2016	-7417
▁2017	-7418
▁66%.	-7419
▁aids	-7420
▁city	-7421
▁erik	-7422
▁etis	-7423
▁hadi	-7424
▁kiri	-7425
▁kven	-7426
▁ment	-7427
▁nato	-7428
▁snap	-7429
adiran	-7430
ariasi	-7431
dbaden	-7432
elatan	-7433
▁bebek	-7434
▁gerry	-7435
▁hujam	-7436
▁kilas	-7437
▁penir	-7438
▁repot	-7439
▁skema	-7440
epungan	-7441
selatan	-7442
variasi	-7443
▁divisi	-7444
▁hadiah	-7445
▁johnny	-7446
▁krimea	-7447
▁mental	-7448
▁peniru	-7449
▁serkat	-7450
▁servic	-7451
▁snapch	-7452
▁tulcea	-7453
▁valley	-7454
anggakan	-7455
februari	-7456
temannya	-7457
▁bertopi	-7458
▁dipecat	-7459
▁menebus	-7460
▁penggil	-7461
▁berkontr	-7462
▁bullying	-7463
▁diajukan	-7464
▁dibaptis	-7465
▁dibiayai	-7466
▁didapati	-7467
▁didukung	-7468
▁dietrich	-7469
▁dihadang	-7470
▁dihitung	-7471
▁diilhami	-7472
▁dijuluki	-7473
▁dikelola	-7474
▁dimiliki	-7475
▁dipajang	-7476
▁disangka	-7477
▁ditemani	-7478
▁ditunjuk	-7479
▁diwakili	-7480
▁diyakini	-7481
▁domenico	-7482
▁domestik	-7483
▁dominika	-7484
▁dukungan	-7485
▁dwikutub	-7486
▁eibingen	-7487
▁energies	-7488
▁etnisnya	-7489
▁federico	-7490
▁filipina	-7491
▁fiorello	-7492
▁firewall	-7493
▁florence	-7494
▁gangguan	-7495
▁geografi	-7496
▁gerrmain	-7497
▁giovanni	-7498
▁goffredo	-7499
-6	-7500
2%	-7501
pb	-7502
sh	-7503
so	-7504
don	-7505
ogy	-7506
sis	-7507
yet	-7508
alik	-7509
eman	-7510
para	-7511
▁62%	-7512
boleh	-7513
estan	-7514
sanya	-7515
shaky	-7516
▁2020	-7517
▁beno	-7518
▁buen	-7519
▁goal	-7520
▁lind	-7521
▁lobi	-7522
▁meme	-7523
▁rspb	-7524
▁wala	-7525
alinya	-7526
arikan	-7527
ataran	-7528
▁1882.	-7529
▁andre	-7530
▁blind	-7531
▁buena	-7532
▁pacar	-7533
▁rasti	-7534
▁sejen	-7535
▁selat	-7536
ebutkan	-7537
seperti	-7538
umbungk	-7539
▁buenos	-7540
▁france	-7541
▁glenda	-7542
▁harbor	-7543
▁hudson	-7544
▁jutaan	-7545
▁lindsa	-7546
▁monyet	-7547
▁pendar	-7548
▁rastiz	-7549
▁seksis	-7550
▁smarag	-7551
▁survei	-7552
bolehkan	-7553
umbungku	-7554
▁berbagi	-7555
▁blindle	-7556
▁buangan	-7557
▁cambrid	-7558
▁freeman	-7559
▁jutanya	-7560
▁lindsay	-7561
▁menyala	-7562
▁sejenis	-7563
▁tataran	-7564
▁terbuat	-7565
embalinya	-7566
▁anglican	-7567
▁berantai	-7568
▁berbalik	-7569
▁dikuasai	-7570
▁habsburg	-7571
▁harmonis	-7572
▁hayatnya	-7573
▁heinrich	-7574
▁herodias	-7575
▁hierarki	-7576
▁histeria	-7577
▁hitungan	-7578
▁hongaria	-7579
▁honorary	-7580
▁humanoid	-7581
▁humphrey	-7582
▁iklimnya	-7583
▁imajiner	-7584
▁imigrasi	-7585
▁indikasi	-7586
▁individu	-7587
▁institut	-7588
▁istanbul	-7589
▁jatuhnya	-7590
▁jennings	-7591
▁jermanis	-7592
▁kadangka	-7593
▁kampanye	-7594
▁karnaval	-7595
▁kecebong	-7596
▁keemasan	-7597
▁kerangka	-7598
▁kesteven	-7599
?'	-7600
900	-7601
pat	-7602
▁bj	-7603
▁ny	-7604
▁pl	-7605
arin	-7606
effr	-7607
esta	-7608
iaan	-7609
ikop	-7610
onte	-7611
▁hfc	-7612
▁isi	-7613
▁ken	-7614
▁lem	-7615
▁tik	-7616
jeffr	-7617
oroti	-7618
oskan	-7619
patch	-7620
uknya	-7621
▁2900	-7622
▁autr	-7623
▁boem	-7624
▁bush	-7625
▁grad	-7626
▁guam	-7627
▁plot	-7628
▁siri	-7629
agiaan	-7630
angkal	-7631
encian	-7632
geraja	-7633
intado	-7634
ohonan	-7635
setiap	-7636
▁2013,	-7637
▁beria	-7638
▁homer	-7639
▁kasir	-7640
▁monte	-7641
▁parah	-7642
▁pelan	-7643
▁sudet	-7644
▁tiket	-7645
▁tipis	-7646
▁tuhan	-7647
▁walse	-7648
ikopter	-7649
jeffrey	-7650
masalah	-7651
oloskan	-7652
ungutan	-7653
▁autria	-7654
▁boemer	-7655
▁brands	-7656
▁center	-7657
▁ekonom	-7658
▁kenapa	-7659
▁lemari	-7660
▁menged	-7661
▁morgan	-7662
▁percob	-7663
▁perist	-7664
▁polusi	-7665
▁tamana	-7666
ahagiaan	-7667
▁dangkal	-7668
▁ditolak	-7669
▁evening	-7670
▁gradasi	-7671
▁kemarin	-7672
▁pintado	-7673
▁semesta	-7674
▁sudeten	-7675
▁£15.001	-7676
▁calabria	-7677
▁didesain	-7678
▁dispatch	-7679
▁interior	-7680
▁ketidakm	-7681
▁keyboard	-7682
▁khawatir	-7683
▁kilowatt	-7684
▁kisahnya	-7685
▁klasemen	-7686
▁komandon	-7687
▁kompeten	-7688
▁konselor	-7689
▁konsonan	-7690
▁kriminal	-7691
▁labrocca	-7692
▁lainnyas	-7693
▁lampiran	-7694
▁landasan	-7695
▁lehernya	-7696
▁letakkan	-7697
▁litigasi	-7698
▁lowongan	-7699
sem	-7700
▁gm	-7701
▁km	-7702
andl	-7703
ubur	-7704
wati	-7705
▁bak	-7706
andes	-7707
eking	-7708
epian	-7709
indik	-7710
kisah	-7711
kubur	-7712
rakan	-7713
▁bian	-7714
▁dian	-7715
▁izin	-7716
▁mele	-7717
▁star	-7718
angkap	-7719
gaanya	-7720
ingkap	-7721
sigeal	-7722
ujukan	-7723
ulihan	-7724
▁barak	-7725
▁budha	-7726
▁janda	-7727
▁kanar	-7728
▁kebun	-7729
▁mandl	-7730
▁menak	-7731
▁nitra	-7732
▁siang	-7733
▁thace	-7734
▁wells	-7735
semakin	-7736
ucapkan	-7737
▁berkib	-7738
▁dianim	-7739
▁kecewa	-7740
▁mendar	-7741
▁peking	-7742
▁pulang	-7743
▁timbal	-7744
emilihan	-7745
▁british	-7746
▁lumayan	-7747
▁meletus	-7748
▁rudyard	-7749
▁rujukan	-7750
▁wheeler	-7751
atasannya	-7752
pemilihan	-7753
▁berkibar	-7754
▁kesepian	-7755
▁kolektor	-7756
▁mahkamah	-7757
▁maladewa	-7758
▁marcelle	-7759
▁massebot	-7760
▁mcneilly	-7761
▁melayani	-7762
▁melebihi	-7763
▁memantau	-7764
▁memasuki	-7765
▁membayar	-7766
▁membuang	-7767
▁memburuk	-7768
▁meminjam	-7769
▁memperlu	-7770
▁menangis	-7771
▁mencatat	-7772
▁mencetak	-7773
▁mendadak	-7774
▁mendiami	-7775
▁menembak	-7776
▁menembus	-7777
▁menetang	-7778
▁mengadap	-7779
▁menganut	-7780
▁mengatus	-7781
▁mengenal	-7782
▁mengeruk	-7783
▁mengetuk	-7784
▁menggali	-7785
▁mengoper	-7786
▁mengusir	-7787
▁menjajah	-7788
▁mentrans	-7789
▁menyamai	-7790
▁menyanyi	-7791
▁menyelem	-7792
▁menyerap	-7793
▁menyerbu	-7794
▁menyesak	-7795
▁meringan	-7796
▁messenia	-7797
▁mikrofon	-7798
▁miliknya	-7799
-14	-7800
adu	-7801
▁fá	-7802
▁to	-7803
alif	-7804
anji	-7805
asib	-7806
ihir	-7807
ones	-7808
oret	-7809
unas	-7810
▁blo	-7811
▁gal	-7812
▁gem	-7813
▁iag	-7814
▁mla	-7815
▁saq	-7816
▁sul	-7817
▁tas	-7818
asang	-7819
etasi	-7820
incin	-7821
pohon	-7822
▁earl	-7823
▁gong	-7824
▁good	-7825
▁lati	-7826
▁laur	-7827
▁maan	-7828
▁rian	-7829
▁sing	-7830
iannya	-7831
ranean	-7832
▁bloch	-7833
▁calif	-7834
▁elang	-7835
▁gemar	-7836
▁ironi	-7837
▁janji	-7838
▁jesse	-7839
▁nasib	-7840
▁pemis	-7841
▁rinci	-7842
▁salin	-7843
▁saqib	-7844
▁sarah	-7845
▁sihir	-7846
▁sulla	-7847
egetasi	-7848
restasi	-7849
▁apakan	-7850
▁cincin	-7851
▁fátima	-7852
▁latium	-7853
▁pondok	-7854
▁single	-7855
▁ulasan	-7856
▁willis	-7857
angkutan	-7858
anjutnya	-7859
ulasinya	-7860
▁dicetak	-7861
▁diklaim	-7862
▁gongmin	-7863
▁jabatan	-7864
▁laurent	-7865
▁osborne	-7866
▁pejuang	-7867
▁pemangk	-7868
▁tahunan	-7869
▁thrones	-7870
alanannya	-7871
ampiannya	-7872
ingkatkan	-7873
▁bertunas	-7874
▁californ	-7875
▁galangan	-7876
▁hortefeu	-7877
▁kompromi	-7878
▁mencoret	-7879
▁millican	-7880
▁mimpinya	-7881
▁minatnya	-7882
▁miniatur	-7883
▁mobilnya	-7884
▁mohammed	-7885
▁montreal	-7886
▁mountain	-7887
▁musuhnya	-7888
▁nicholas	-7889
▁nonfiksi	-7890
▁obesitas	-7891
▁operator	-7892
▁otoritas	-7893
▁otttoman	-7894
▁pacarnya	-7895
▁paeonian	-7896
▁pahlawan	-7897
▁papworth	-7898
▁pecahnya	-7899
imo	-7900
rew	-7901
wai	-7902
zim	-7903
▁8.	-7904
▁li	-7905
abut	-7906
anos	-7907
imon	-7908
iskr	-7909
reco	-7910
utup	-7911
▁tre	-7912
inyal	-7913
tidak	-7914
uawai	-7915
ukasi	-7916
ument	-7917
warna	-7918
▁1900	-7919
▁dean	-7920
▁liga	-7921
▁pasa	-7922
▁saul	-7923
entari	-7924
erlain	-7925
klasik	-7926
▁1820.	-7927
▁1832,	-7928
▁detik	-7929
▁durán	-7930
▁merit	-7931
▁penju	-7932
▁peper	-7933
▁rezim	-7934
▁simon	-7935
▁tutup	-7936
▁under	-7937
abutnya	-7938
andakan	-7939
arkinya	-7940
okument	-7941
tschmer	-7942
▁andino	-7943
▁andrew	-7944
▁elaine	-7945
▁huawai	-7946
▁karang	-7947
▁penyes	-7948
▁sinyal	-7949
▁solarl	-7950
▁terhub	-7951
▁thanos	-7952
cassonne	-7953
geronimo	-7954
omentari	-7955
▁600.000	-7956
▁beragam	-7957
▁darnand	-7958
▁tumbang	-7959
▁youtube	-7960
▁berbasis	-7961
▁berturut	-7962
▁dijadwal	-7963
▁korintus	-7964
▁mendiskr	-7965
▁pedagang	-7966
▁pelarian	-7967
▁pemangku	-7968
▁pembalap	-7969
▁pembelaj	-7970
▁pencalon	-7971
▁pengangg	-7972
▁pengikut	-7973
▁pengubah	-7974
▁pengumum	-7975
▁penyakit	-7976
▁penyesua	-7977
▁perlunya	-7978
▁persetuj	-7979
▁pesannya	-7980
▁petrassi	-7981
▁pluviose	-7982
▁politisi	-7983
▁portugal	-7984
▁prajurit	-7985
▁prasasti	-7986
▁prediden	-7987
▁prestasi	-7988
▁prihatin	-7989
▁prosedur	-7990
▁punggung	-7991
▁pusatnya	-7992
▁rasional	-7993
▁rentetan	-7994
▁reporter	-7995
▁resminya	-7996
▁resolusi	-7997
▁restoran	-7998
▁retorika	-7999
duh	-8000
eed	-8001
ple	-8002
gaja	-8003
omor	-8004
siap	-8005
usan	-8006
vole	-8007
▁ama	-8008
▁tom	-8009
bakat	-8010
erapa	-8011
iansi	-8012
utuan	-8013
▁amaz	-8014
▁didn	-8015
▁disi	-8016
▁feed	-8017
▁gaun	-8018
▁hack	-8019
▁jemb	-8020
▁mate	-8021
▁obat	-8022
▁ohio	-8023
▁sesi	-8024
▁1072,	-8025
▁2002.	-8026
▁apple	-8027
▁dibuj	-8028
▁heran	-8029
▁keira	-8030
▁meyer	-8031
▁nomor	-8032
▁orasi	-8033
▁paire	-8034
▁pensi	-8035
▁rumor	-8036
▁tabel	-8037
▁tahta	-8038
amalkan	-8039
ekutuan	-8040
menteri	-8041
▁amazon	-8042
▁bawahn	-8043
▁jangka	-8044
▁menama	-8045
▁sesama	-8046
▁urusan	-8047
adaannya	-8048
antumkan	-8049
ingungan	-8050
▁aliansi	-8051
▁dibujuk	-8052
▁dituduh	-8053
▁jantung	-8054
▁menjanj	-8055
▁persiap	-8056
▁sengaja	-8057
▁terekam	-8058
▁consumer	-8059
▁jembatan	-8060
▁menyamar	-8061
▁peniston	-8062
▁robinson	-8063
▁rutinnya	-8064
▁sakhalin	-8065
▁sakrokok	-8066
▁salzburg	-8067
▁saratoga	-8068
▁saturday	-8069
▁scotland	-8070
▁scotsman	-8071
▁sebagain	-8072
▁sebentar	-8073
▁seberapa	-8074
▁semangat	-8075
▁sengketa	-8076
▁sensitif	-8077
▁sentuhan	-8078
▁sepasang	-8079
▁serpihan	-8080
▁services	-8081
▁shanghai	-8082
▁shenzhen	-8083
▁sheppard	-8084
▁simbolik	-8085
▁sindiran	-8086
▁sinoptik	-8087
▁situsnya	-8088
▁skenario	-8089
▁slowakia	-8090
▁somerset	-8091
▁spesimen	-8092
▁springer	-8093
▁stealers	-8094
▁sterling	-8095
▁strategy	-8096
▁suaranya	-8097
▁subduksi	-8098
▁subianto	-8099
hei	-8100
asok	-8101
eguh	-8102
elap	-8103
▁gta	-8104
▁pdb	-8105
▁puj	-8106
▁reh	-8107
▁vol	-8108
▁wit	-8109
ampai	-8110
anyai	-8111
lihan	-8112
tanya	-8113
▁1600	-8114
▁1927	-8115
▁2050	-8116
▁adan	-8117
▁coba	-8118
▁demi	-8119
▁ekor	-8120
▁ewan	-8121
▁wing	-8122
agelan	-8123
ampuan	-8124
asuhan	-8125
batkan	-8126
sampai	-8127
▁1075.	-8128
▁beras	-8129
▁dalah	-8130
▁indah	-8131
▁kejah	-8132
▁lagip	-8133
▁lelap	-8134
▁magma	-8135
▁pagar	-8136
▁suami	-8137
▁teguh	-8138
▁terja	-8139
▁witch	-8140
egangan	-8141
membaca	-8142
uhannya	-8143
▁kanker	-8144
▁kuliah	-8145
▁mangan	-8146
▁pujian	-8147
ilalihan	-8148
setujuan	-8149
▁angeles	-8150
▁dagelan	-8151
▁dijamin	-8152
▁dipasok	-8153
▁georget	-8154
▁kentuck	-8155
▁komuter	-8156
▁pelayan	-8157
▁pendiri	-8158
peristiwa	-8159
▁(6.30-10	-8160
▁bernapas	-8161
▁biarawan	-8162
▁canadian	-8163
▁ditanyai	-8164
▁inkumben	-8165
▁kenangan	-8166
▁kentucky	-8167
▁lagipula	-8168
▁mengklik	-8169
▁pemegang	-8170
▁suntikan	-8171
▁tabrakan	-8172
▁tabungan	-8173
▁talmadge	-8174
▁tambahan	-8175
▁tampilan	-8176
▁tanzania	-8177
▁teknonik	-8178
▁telegraf	-8179
▁temannya	-8180
▁teorinya	-8181
▁teratoma	-8182
▁terbitan	-8183
▁terdalam	-8184
▁terdepan	-8185
▁tergangg	-8186
▁teritori	-8187
▁terjawab	-8188
▁terkubur	-8189
▁terlatih	-8190
▁terlepas	-8191
▁ternyata	-8192
▁terpaksa	-8193
▁terpapar	-8194
▁tersirat	-8195
▁tertarik	-8196
▁tetangga	-8197
▁thessaly	-8198
▁thompson	-8199
.“	-8200
rep	-8201
▁if	-8202
-15.	-8203
mata	-8204
nter	-8205
opis	-8206
tipe	-8207
▁bom	-8208
▁kos	-8209
▁los	-8210
angus	-8211
antel	-8212
endur	-8213
etisi	-8214
gadis	-8215
repot	-8216
uansa	-8217
urati	-8218
▁alfa	-8219
▁coup	-8220
▁epik	-8221
▁lini	-8222
▁mead	-8223
▁otak	-8224
▁palu	-8225
akaman	-8226
antang	-8227
hardic	-8228
usukan	-8229
▁1955,	-8230
▁1992.	-8231
▁garth	-8232
▁ikuti	-8233
▁palma	-8234
▁parma	-8235
▁peman	-8236
▁sesak	-8237
sekolah	-8238
ulannya	-8239
▁berapa	-8240
▁berbah	-8241
▁hangus	-8242
▁hitler	-8243
▁kendur	-8244
▁kieraa	-8245
▁kosong	-8246
▁mantel	-8247
▁menyul	-8248
▁nuansa	-8249
▁padang	-8250
▁statis	-8251
▁tropis	-8252
▁hallstr	-8253
▁kandang	-8254
▁migrasi	-8255
▁monster	-8256
▁pelopor	-8257
▁persegi	-8258
▁£3.000-	-8259
sesuaikan	-8260
▁aljazair	-8261
▁antologi	-8262
▁diadakan	-8263
▁karangan	-8264
▁mcgregor	-8265
▁mendalam	-8266
▁menyulut	-8267
▁modelnya	-8268
▁tidaklah	-8269
▁tientsin	-8270
▁tokugawa	-8271
▁tontonan	-8272
▁totalnya	-8273
▁tumpukan	-8274
▁tuntutan	-8275
▁uaxactun	-8276
▁ujungnya	-8277
▁undersea	-8278
▁ungkapan	-8279
▁upayanya	-8280
▁utamanya	-8281
▁utaranya	-8282
▁vegetasi	-8283
▁visioner	-8284
▁vulkanik	-8285
▁wajahnya	-8286
▁walaupun	-8287
▁williams	-8288
▁yudaisme	-8289
arisbawahi	-8290
ecahkannya	-8291
empurnakan	-8292
enggarakan	-8293
keberadaan	-8294
kelanjutan	-8295
kemunculan	-8296
ladivostok	-8297
monegasque	-8298
omersilkan	-8299
.,	-8300
ica	-8301
jib	-8302
▁24	-8303
▁27	-8304
▁bc	-8305
obot	-8306
▁3%,	-8307
▁atm	-8308
▁cgi	-8309
▁hot	-8310
▁lin	-8311
enali	-8312
iakan	-8313
intin	-8314
mulai	-8315
▁andi	-8316
▁bawa	-8317
▁diam	-8318
▁luis	-8319
▁semi	-8320
▁wali	-8321
iliasi	-8322
obatan	-8323
unahan	-8324
▁1563,	-8325
▁1960.	-8326
▁budak	-8327
▁hotel	-8328
▁kebir	-8329
▁kedut	-8330
▁komik	-8331
▁logam	-8332
▁olney	-8333
▁pemot	-8334
▁pergi	-8335
▁poole	-8336
▁rekor	-8337
▁robot	-8338
▁senin	-8339
▁setia	-8340
▁tapie	-8341
▁tarlo	-8342
▁wajib	-8343
salahan	-8344
▁angkat	-8345
▁antena	-8346
▁goryeo	-8347
▁hitnya	-8348
▁hopley	-8349
▁horton	-8350
▁meluas	-8351
▁oblast	-8352
▁palmer	-8353
▁panans	-8354
▁tintin	-8355
▁urutan	-8356
▁veneto	-8357
irahatan	-8358
▁america	-8359
▁harinya	-8360
▁keempat	-8361
▁memasok	-8362
▁namanya	-8363
▁penjara	-8364
penyayang	-8365
▁berjudul	-8366
▁bouchard	-8367
▁dikenali	-8368
▁kebiruan	-8369
▁kedutaan	-8370
▁mesoamer	-8371
▁oriental	-8372
▁proaktif	-8373
pembangkit	-8374
pengabaian	-8375
pertahanan	-8376
sebenarnya	-8377
sekelompok	-8378
utuhkannya	-8379
▁2013-2014	-8380
▁akibatnya	-8381
▁aktivitas	-8382
▁alasannya	-8383
▁ambisinya	-8384
▁ambruknya	-8385
▁antaranya	-8386
▁antarmuka	-8387
▁apartemen	-8388
▁aransemen	-8389
▁assistant	-8390
▁astronomi	-8391
▁aturannya	-8392
▁autosomal	-8393
▁bendahara	-8394
▁berbahaya	-8395
▁berdagang	-8396
▁berdurasi	-8397
▁berjangka	-8398
▁berkoresp	-8399
sae	-8400
yle	-8401
▁(“	-8402
▁25	-8403
game	-8404
pisi	-8405
tris	-8406
▁akp	-8407
▁inn	-8408
▁joe	-8409
▁now	-8410
▁rel	-8411
ambat	-8412
gunya	-8413
istis	-8414
saint	-8415
▁15,5	-8416
▁akta	-8417
▁akut	-8418
▁asam	-8419
▁aset	-8420
▁awak	-8421
▁dati	-8422
▁moda	-8423
▁susu	-8424
▁that	-8425
▁tuan	-8426
akaran	-8427
▁1340,	-8428
▁1979.	-8429
▁altar	-8430
▁antar	-8431
▁cerah	-8432
▁gaunt	-8433
▁guide	-8434
▁negan	-8435
▁radio	-8436
▁seram	-8437
▁serup	-8438
▁style	-8439
▁sulit	-8440
▁ulung	-8441
▁10.000	-8442
▁aktris	-8443
▁boeing	-8444
▁holden	-8445
▁kontak	-8446
▁menhir	-8447
▁mistis	-8448
▁sambil	-8449
▁semest	-8450
▁serena	-8451
▁serupa	-8452
▁terseb	-8453
▁tiberi	-8454
▁timbul	-8455
▁walter	-8456
ambangan	-8457
▁bernard	-8458
▁dididik	-8459
▁elliott	-8460
▁filmnya	-8461
▁lagunya	-8462
▁mengint	-8463
▁pembeli	-8464
▁pengamb	-8465
▁saatnya	-8466
▁seragam	-8467
▁serinya	-8468
▁terbang	-8469
▁terungk	-8470
▁ekuinoks	-8471
▁isabella	-8472
▁melapisi	-8473
▁menyebut	-8474
▁perannya	-8475
▁snapchat	-8476
▁tahannya	-8477
▁terkenal	-8478
▁tersebar	-8479
▁tiberius	-8480
▁berdampak	-8481
▁berkumpul	-8482
▁berlumpur	-8483
▁berpegang	-8484
▁bersamaan	-8485
▁bersumber	-8486
▁bertarung	-8487
▁bertenaga	-8488
▁bertumbuh	-8489
▁berukuran	-8490
▁berwenang	-8491
▁biarawati	-8492
▁billboard	-8493
▁blindleia	-8494
▁bonaparte	-8495
▁bosphorus	-8496
▁byzantium	-8497
▁caracalla	-8498
▁catherine	-8499
agu	-8500
ukit	-8501
▁400	-8502
▁eon	-8503
▁jet	-8504
agaan	-8505
irena	-8506
ramai	-8507
▁2019	-8508
▁cumb	-8509
▁erat	-8510
▁fans	-8511
▁iman	-8512
▁kala	-8513
▁luas	-8514
▁meja	-8515
▁ragu	-8516
▁west	-8517
akhiri	-8518
ansand	-8519
ilaian	-8520
ingkas	-8521
▁2008.	-8522
▁bujih	-8523
▁china	-8524
▁hunan	-8525
▁kemih	-8526
▁kerak	-8527
▁kesan	-8528
▁rekan	-8529
casting	-8530
embahan	-8531
gaudens	-8532
▁aktual	-8533
▁garden	-8534
▁gordon	-8535
▁harian	-8536
▁juliet	-8537
▁lembut	-8538
▁matras	-8539
▁musisi	-8540
▁ringan	-8541
▁ritual	-8542
▁selnya	-8543
▁things	-8544
▁berlian	-8545
▁capitol	-8546
▁carangi	-8547
▁cumbuan	-8548
▁masanya	-8549
▁penanda	-8550
▁persnya	-8551
▁prabowo	-8552
▁pyrrhus	-8553
▁ringkas	-8554
▁rumania	-8555
▁sedalam	-8556
▁berbukit	-8557
▁caucasus	-8558
▁halangan	-8559
▁jejaknya	-8560
▁marxisme	-8561
▁membelak	-8562
▁pendapat	-8563
▁schulman	-8564
▁sebanyak	-8565
▁tayangan	-8566
▁warnanya	-8567
▁alejandra	-8568
▁berhembus	-8569
▁bertempat	-8570
▁beruntung	-8571
▁christian	-8572
▁churchill	-8573
▁cifuentes	-8574
▁community	-8575
▁contohnya	-8576
▁datangnya	-8577
▁definitif	-8578
▁deklarasi	-8579
▁deklinasi	-8580
▁demografi	-8581
▁dianimasi	-8582
▁dibedakan	-8583
▁dicederai	-8584
▁dideteksi	-8585
▁dihalangi	-8586
▁dihormati	-8587
▁dihubungi	-8588
▁diizinkan	-8589
▁dikenakan	-8590
▁dikontrol	-8591
▁dipercaya	-8592
▁diperoleh	-8593
▁diposting	-8594
▁disetujui	-8595
▁ditempati	-8596
▁ditendang	-8597
▁ditrektur	-8598
▁diumumkan	-8599
▁gif	-8600
▁pilih	-8601
▁diusulkan	-8602
▁ekplorasi	-8603
▁ekstensif	-8604
▁eksternal	-8605
▁emosional	-8606
▁energinya	-8607
▁episkopal	-8608
▁etimologi	-8609
▁executive	-8610
▁finansial	-8611
▁flensburg	-8612
▁francisco	-8613
▁gandarusa	-8614
▁generator	-8615
▁gerrmaine	-8616
▁gravitasi	-8617
▁grenville	-8618
▁guangzhou	-8619
▁harapnnya	-8620
▁hipotesis	-8621
▁hollywood	-8622
▁hortefeux	-8623
▁hospitals	-8624
▁humanisme	-8625
▁identitas	-8626
▁indonesia	-8627
▁inslandia	-8628
▁integrasi	-8629
▁investors	-8630
▁istirahat	-8631
▁kajiannya	-8632
▁kamchatka	-8633
▁kandungan	-8634
▁keabadian	-8635
▁keajaiban	-8636
▁kebakaran	-8637
▁kebebasan	-8638
▁kebencian	-8639
▁keberangk	-8640
▁kebetulan	-8641
▁kecapakan	-8642
▁kecepatan	-8643
▁kecintaan	-8644
▁kedalaman	-8645
▁kegegeran	-8646
▁kegelapan	-8647
▁kehabisan	-8648
▁kehadiran	-8649
▁kejahatan	-8650
▁kejuaraan	-8651
▁kekacauan	-8652
▁kekerasan	-8653
▁kekesalan	-8654
▁kelaparan	-8655
▁kelayakan	-8656
▁kelemahan	-8657
▁kemarahan	-8658
▁kepalanya	-8659
▁keparahan	-8660
▁kepastian	-8661
▁kepenting	-8662
▁kepompong	-8663
▁kepunahan	-8664
▁keretakan	-8665
▁kesalahan	-8666
▁kesalehan	-8667
▁ketetapan	-8668
▁ketiganya	-8669
▁kilometer	-8670
▁knightley	-8671
▁koloninya	-8672
▁kombinasi	-8673
▁komersial	-8674
▁komposisi	-8675
▁komunitas	-8676
▁konsulate	-8677
▁kontingen	-8678
▁kristiani	-8679
▁liberties	-8680
▁lillesand	-8681
▁literatur	-8682
▁lokasinya	-8683
▁lumbungku	-8684
▁maksudnya	-8685
▁megabazuz	-8686
▁mekanisme	-8687
▁melanesia	-8688
▁melarikan	-8689
▁melompati	-8690
▁memajukan	-8691
▁memancing	-8692
▁membasahi	-8693
▁membiayai	-8694
▁mempesona	-8695
▁memprotes	-8696
▁memuaskan	-8697
▁memujinya	-8698
▁menangkap	-8699
▁menantang	-8700
▁mencintai	-8701
▁mendekati	-8702
▁mendengar	-8703
▁mendesain	-8704
▁mendingin	-8705
▁menempati	-8706
▁mengajari	-8707
▁mengakses	-8708
▁mengatasi	-8709
▁mengawini	-8710
▁mengelola	-8711
▁menghasut	-8712
▁menghemat	-8713
▁menghukum	-8714
▁mengindik	-8715
▁mengingat	-8716
▁mengitari	-8717
▁mengurusi	-8718
▁menikmati	-8719
▁menjulang	-8720
▁menngurus	-8721
▁menyadari	-8722
▁menyelami	-8723
▁menyimpan	-8724
▁menyoroti	-8725
▁menyurati	-8726
▁menyurvei	-8727
▁merasakan	-8728
▁merayakan	-8729
▁merdingen	-8730
▁merespons	-8731
▁merugikan	-8732
▁microsoft	-8733
▁minoritas	-8734
▁mobilitas	-8735
▁motocross	-8736
▁nashville	-8737
▁negosiasi	-8738
▁pandangan	-8739
▁panvalkar	-8740
▁pedalaman	-8741
▁pelatihan	-8742
▁pemadatan	-8743
▁pemahaman	-8744
▁pemakaman	-8745
▁pemanasan	-8746
▁pembiakan	-8747
▁pembicara	-8748
▁pemisahan	-8749
▁pemukiman	-8750
▁pemulihan	-8751
▁pencarian	-8752
▁penderita	-8753
▁pendirian	-8754
▁pendukung	-8755
▁penegakan	-8756
▁penentuan	-8757
▁pengemudi	-8758
▁penggerak	-8759
▁penghasil	-8760
▁pengusaha	-8761
▁penilaian	-8762
▁penjualan	-8763
▁penolakan	-8764
▁pensiunan	-8765
▁penulisan	-8766
▁penurunan	-8767
▁penusukan	-8768
▁penutupan	-8769
▁perangnya	-8770
▁perawatan	-8771
▁percobaan	-8772
▁perhiasan	-8773
▁perluasan	-8774
▁persewaan	-8775
▁persisnya	-8776
▁perumaham	-8777
▁perumahan	-8778
▁polisinya	-8779
▁posisinya	-8780
▁prapembay	-8781
▁presenter	-8782
▁produknya	-8783
▁prokonsul	-8784
▁protestan	-8785
▁psikologi	-8786
▁publikasi	-8787
▁rangkaian	-8788
▁rastislav	-8789
▁referensi	-8790
▁reklamasi	-8791
▁relaksasi	-8792
▁relatives	-8793
▁renewable	-8794
▁retribusi	-8795
▁sallyanne	-8796
▁sebelanga	-8797
▁sectorial	-8798
▁sekalipun	-8799
▁sekutunya	-8800
▁sephardic	-8801
▁silikanya	-8802
▁sinematik	-8803
▁smaragdis	-8804
▁spekulasi	-8805
▁statistik	-8806
▁sternlieb	-8807
▁sukhothai	-8808
▁sungainya	-8809
▁tambahnya	-8810
▁tangannya	-8811
▁telanjang	-8812
▁teleponku	-8813
▁tempatnya	-8814
▁tengahnya	-8815
▁tenggelam	-8816
▁tennessee	-8817
▁terangkat	-8818
▁terbanyak	-8819
▁terdaftar	-8820
▁terdampar	-8821
▁terganggu	-8822
▁terhembus	-8823
▁terhubung	-8824
▁terlambat	-8825
▁terlantar	-8826
▁terpencar	-8827
▁tersentak	-8828
▁terungkap	-8829
▁terwakili	-8830
▁toleransi	-8831
▁transaksi	-8832
▁tunjangan	-8833
▁ucapannya	-8834
▁universal	-8835
▁untungnya	-8836
▁victorias	-8837
▁yerusalem	-8838
▁yudhoyono	-8839
▁zodiaknya	-8840
andingannya	-8841
ekspresikan	-8842
enggelamkan	-8843
ulingkannya	-8844
▁2015-2016.	-8845
▁anggotanya	-8846
▁associated	-8847
▁austerlitz	-8848
▁australian	-8849
▁basilicata	-8850
▁bellingham	-8851
▁beralkohol	-8852
▁berdiskusi	-8853
▁berkelakar	-8854
▁berkelanan	-8855
▁berlebihan	-8856
▁bermasalah	-8857
▁bermigrasi	-8858
▁bersamanya	-8859
▁bersaudara	-8860
▁berselisih	-8861
▁bertepatan	-8862
▁bervariasi	-8863
▁bransfield	-8864
▁california	-8865
▁controlled	-8866
▁convention	-8867
▁diaktifkan	-8868
▁dibawahnya	-8869
▁dibebaskan	-8870
▁dibentengi	-8871
▁dibubarkan	-8872
▁didasarkan	-8873
▁dieksekusi	-8874
▁dihabiskan	-8875
▁dihasilkan	-8876
▁dihentikan	-8877
▁dikunjungi	-8878
▁dilahirkan	-8879
▁dilepaskan	-8880
▁dilindungi	-8881
▁dimasukkan	-8882
▁dinosaurus	-8883
▁dipelajari	-8884
▁diperintah	-8885
▁dipikirkan	-8886
▁dipisahkan	-8887
▁diproduksi	-8888
▁diramalkan	-8889
▁direnovasi	-8890
▁dirindukan	-8891
▁disarankan	-8892
▁disebutkan	-8893
▁diselidiki	-8894
▁diserahkan	-8895
▁disertakan	-8896
▁disiratkan	-8897
▁ditekankan	-8898
▁ditentukan	-8899
▁diteorikan	-8900
▁diterapkan	-8901
▁ekspektasi	-8902
▁engagement	-8903
▁exxonmobil	-8904
▁finalisasi	-8905
▁fransiskus	-8906
▁georgetown	-8907
▁gilirannya	-8908
▁guilbeault	-8909
▁helikopter	-8910
▁hitchhiker	-8911
▁humblebums	-8912
▁ibukotanya	-8913
▁ikonografi	-8914
▁imbalannya	-8915
▁individual	-8916
▁kadangkala	-8917
▁katakanlah	-8918
▁kebangsaan	-8919
▁kebanyakan	-8920
▁kebudayaan	-8921
▁kecantikan	-8922
▁kecelakaan	-8923
▁kecerdasan	-8924
▁kehormatan	-8925
▁kekeringan	-8926
▁kekuningan	-8927
▁kelumpuhan	-8928
▁kemunculan	-8929
▁kepandaian	-8930
▁kepolisian	-8931
▁kesimpulan	-8932
▁ketegangan	-8933
▁ketidaknya	-8934
▁ketinggian	-8935
▁ketundukan	-8936
▁kirriemuir	-8937
▁kolonisasi	-8938
▁komandonya	-8939
▁komunikasi	-8940
▁konferensi	-8941
▁konseptual	-8942
▁konsultasi	-8943
▁lingkungan	-8944
▁lingkupnya	-8945
▁lubumbashi	-8946
▁mahanakhon	-8947
▁mediterani	-8948
▁melarutkan	-8949
▁meledakkan	-8950
▁melejitkan	-8951
▁meletakkan	-8952
▁meloloskan	-8953
▁memastikan	-8954
▁memberinya	-8955
▁memilihnya	-8956
▁memisahkan	-8957
▁memperkuat	-8958
▁memperluas	-8959
▁memperoleh	-8960
▁mempertimb	-8961
▁memudahkan	-8962
▁memulihkan	-8963
▁menakutkan	-8964
▁menamainya	-8965
▁menandakan	-8966
▁menandingi	-8967
▁menanggapi	-8968
▁mencarinya	-8969
▁mencirikan	-8970
▁mendekatka	-8971
▁mendeteksi	-8972
▁menekankan	-8973
▁menelusuri	-8974
▁menempelak	-8975
▁menengadah	-8976
▁menentukan	-8977
▁mengadopsi	-8978
▁mengadopso	-8979
▁mengajukan	-8980
▁mengakhiri	-8981
▁mengambang	-8982
▁mengampuni	-8983
▁mengangkut	-8984
▁mengenakan	-8985
▁menggeliat	-8986
▁menghambat	-8987
▁menghimpun	-8988
▁mengkritik	-8989
▁menguatnya	-8990
▁menjauhkan	-8991
▁menugaskan	-8992
▁menurutnya	-8993
▁menyajikan	-8994
▁menyamping	-8995
▁menyerakan	-8996
▁menyerukan	-8997
▁menyiapkan	-8998
▁menyingkap	-8999
▁merebutnya	-9000
▁merenovasi	-9001
▁meresahkan	-9002
▁merindukan	-9003
▁meteoritik	-9004
▁meyakinkan	-9005
▁misterinya	-9006
▁molibdenum	-9007
▁monarkinya	-9008
▁multietnis	-9009
▁nottingham	-9010
▁numismatik	-9011
▁pakaiannya	-9012
▁panduannya	-9013
▁panjangnya	-9014
▁pelarangan	-9015
▁peluncuran	-9016
▁pembatasan	-9017
▁pembebasan	-9018
▁pembenaran	-9019
▁pementasan	-9020
▁pementukan	-9021
▁pemindaian	-9022
▁pemotongan	-9023
▁pemrosesan	-9024
▁pemungutan	-9025
▁penampilan	-9026
▁pencabutan	-9027
▁pencalonan	-9028
▁pencegahan	-9029
▁pencerahan	-9030
▁pendaratan	-9031
▁pendekatan	-9032
▁pengajaran	-9033
▁pengakuran	-9034
▁pengasuhan	-9035
▁pengejaran	-9036
▁pengertiak	-9037
▁pengobatan	-9038
▁pengumuman	-9039
▁penjelasan	-9040
▁penyebaran	-9041
▁penyediaan	-9042
▁penyelidik	-9043
▁penyerahan	-9044
▁penyesalan	-9045
▁penyiksaan	-9046
▁peperangan	-9047
▁percetakan	-9048
▁perdamaian	-9049
▁perdebatan	-9050
▁pergerakan	-9051
▁pergeseran	-9052
▁perhentian	-9053
▁permesinan	-9054
▁permohonan	-9055
▁pernikatan	-9056
▁perpecahan	-9057
▁persaingan	-9058
▁persentase	-9059
▁pertamanya	-9060
▁peternakan	-9061
▁pettersson	-9062
▁politiknya	-9063
▁prerogatif	-9064
▁pribadinya	-9065
▁propaganda	-9066
▁protection	-9067
▁rekamannya	-9068
▁rencananya	-9069
▁resistance	-9070
▁romanisasi	-9071
▁saingannya	-9072
▁salinisasi	-9073
▁saudarinya	-9074
▁sekretaris	-9075
▁semestinya	-9076
▁sepertinya	-9077
▁seychelles	-9078
▁shackleton	-9079
▁skylarkmel	-9080
▁stereotipe	-9081
▁storyboard	-9082
▁strathearn	-9083
▁sunderland	-9084
▁tahunannya	-9085
▁tampiannya	-9086
▁tanamannya	-9087
▁technology	-9088
▁terbaiknya	-9089
▁terbentang	-9090
▁terisolasi	-9091
▁terkaitnya	-9092
▁terpenting	-9093
▁terpuaskan	-9094
▁tersingkap	-9095
▁tinggalnya	-9096
▁versailles	-9097
▁villeneuve	-9098
▁wilayahnya	-9099
▁zuckerberg	-9100
diperkirakan	-9101
kepompongnya	-9102
keprihatinan	-9103
pertengkaran	-9104
pithekoussae	-9105
▁addenbrooke	-9106
▁balatentara	-9107
▁belakangnya	-9108
▁berakhirnya	-9109
▁berhubungan	-9110
▁berkompromi	-9111
▁berprestasi	-9112
▁bersemangat	-9113
▁bertabrakan	-9114
▁carcassonne	-9115
▁cendekiaran	-9116
▁chamberlain	-9117
▁ciscaucasus	-9118
▁corporation	-9119
▁diakumulasi	-9120
▁dibanggakan	-9121
▁dibangunnya	-9122
▁dicanangkan	-9123
▁dicaploknya	-9124
▁didinginkan	-9125
▁digambarkan	-9126
▁dijadwalkan	-9127
▁dikemukakan	-9128
▁dikomentari	-9129
▁dikumpulkan	-9130
▁diluncurkan	-9131
▁dimenangkan	-9132
▁dimilikinya	-9133
▁dimundurkan	-9134
▁dinyanyikan	-9135
▁dipengaruhi	-9136
▁dipindahkan	-9137
▁disampaikan	-9138
▁distributor	-9139
▁ditaklukkan	-9140
▁ditimbulkan	-9141
▁dukungannya	-9142
▁fontvieille	-9143
▁fundamental	-9144
▁gelandangan	-9145
▁hammersmith	-9146
▁historisnya	-9147
▁investments	-9148
▁jaringannya	-9149
▁kacamatanya	-9150
▁kampanyenya	-9151
▁kebahagiaan	-9152
▁kebangkitan	-9153
▁kebingungan	-9154
▁kedaluwarsa	-9155
▁kelembagaan	-9156
▁keluarganya	-9157
▁kemajuannya	-9158
▁kemenangkan	-9159
▁kemerosotan	-9160
▁kesamaannya	-9161
▁keselamatan	-9162
▁keteraturan	-9163
▁ketigabelas	-9164
▁ketinggalan	-9165
▁kilimanjaro	-9166
▁komentarnya	-9167
▁komponennya	-9168
▁komunikatif	-9169
▁konfrontasi	-9170
▁konsekuensi	-9171
▁kontaminasi	-9172
▁kontituensi	-9173
▁kontributor	-9174
▁krasnoyarsk	-9175
▁kualifikasi	-9176
▁kutikulanya	-9177
▁langsungnya	-9178
▁melakporkan	-9179
▁melambatkan	-9180
▁melanjutkan	-9181
▁melarangnya	-9182
▁melumpuhkan	-9183
▁meluncurkan	-9184
▁membebankan	-9185
▁membenarkan	-9186
▁memilikinya	-9187
▁memindahkan	-9188
▁memperbaiki	-9189
▁mempercayai	-9190
▁memunculkan	-9191
▁menafsirkan	-9192
▁menanguhkan	-9193
▁menarasikan	-9194
▁mencabutnya	-9195
▁mendampingi	-9196
▁mendaratkan	-9197
▁mendemonstr	-9198
▁mendokument	-9199
▁menengahnya	-9200
▁menerimanya	-9201
▁mengaburkan	-9202
▁mengajarkan	-9203
▁mengedukasi	-9204
▁mengerjakan	-9205
▁mengesalkan	-9206
▁menghalangi	-9207
▁mengimbangi	-9208
▁mengirimkan	-9209
▁mengisahkan	-9210
▁mengubahnya	-9211
▁mengucapkan	-9212
▁mengukuhkan	-9213
▁menjanjikan	-9214
▁menjawabnya	-9215
▁menonjolkan	-9216
▁menundukkan	-9217
▁menyebarkan	-9218
▁menyeberang	-9219
▁menyesakkan	-9220
▁menyisihkan	-9221
▁mereformasi	-9222
▁meringankan	-9223
▁merontokkan	-9224
▁mesoamerika	-9225
▁mikrofonnya	-9226
▁mississippi	-9227
▁northampton	-9228
▁paramiliter	-9229
▁parlementer	-9230
▁partisipasi	-9231
▁pelariannya	-9232
▁pelisensian	-9233
▁pemeriksaan	-9234
▁penangkapan	-9235
▁pendahuluan	-9236
▁pengepungan	-9237
▁penggantian	-9238
▁penghasilan	-9239
▁penghiburan	-9240
▁pengikutnya	-9241
▁penopangnya	-9242
▁penyeimbang	-9243
▁penyerangan	-9244
▁penyesuaian	-9245
▁perencanaan	-9246
▁peribadatan	-9247
▁perilakunya	-9248
▁persekutuan	-9249
▁persembahan	-9250
▁pertarungan	-9251
▁planetarium	-9252
▁plantagenet	-9253
▁populasinya	-9254
▁reichenbach	-9255
▁renaissance	-9256
▁resepsionis	-9257
▁retorikanya	-9258
▁rupertsberg	-9259
▁sekaranglah	-9260
▁selanjutnya	-9261
▁substansial	-9262
▁terhentikan	-9263
▁terkalahkan	-9264
▁terlarisnya	-9265
▁terlindungi	-9266
▁terpecahnya	-9267
▁tetangganya	-9268
▁thermopylae	-9269
▁tindakannya	-9270
▁universiade	-9271
▁universitas	-9272
▁vladivostok	-9273
▁volkanologi	-9274
▁vulkanologi	-9275
disertifikasi	-9276
▁belasungkawa	-9277
▁berdampingan	-9278
▁berinteraksi	-9279
▁berkarbonasi	-9280
▁berkompetisi	-9281
▁berkontraksi	-9282
▁berprioritas	-9283
▁bertentangan	-9284
▁castelfranco	-9285
▁dialokasikan	-9286
▁diantisipasi	-9287
▁diberlakukan	-9288
▁dikonstruksi	-9289
▁dilaksanakan	-9290
▁dilegalisasi	-9291
▁dimanfaatkan	-9292
▁diperebutkan	-9293
▁diperkirakan	-9294
▁diperlakukan	-9295
▁dipromosikan	-9296
▁direncanakan	-9297
▁diterbangkan	-9298
▁diwawancarai	-9299
▁eksistensial	-9300
▁federalisasi	-9301
▁hillsborough	-9302
▁identifikasi	-9303
▁kandungannya	-9304
▁kapitalisasi	-9305
▁kecanduannya	-9306
▁kehidupannya	-9307
▁kekhawatiran	-9308
▁kelihatannya	-9309
▁kemegahannya	-9310
▁kepahlawanan	-9311
▁keponakannya	-9312
▁kepresidenan	-9313
▁keprihatinan	-9314
▁keputusannya	-9315
▁ketenarannya	-9316
▁khatulistiwa	-9317
▁kristiansand	-9318
▁legislasinya	-9319
▁manajemennya	-9320
▁manuskripnya	-9321
▁melakukannya	-9322
a	-9323
▁	-9324
n	-9325
e	-9326
i	-9327
r	-9328
t	-9329
u	-9330
k	-9331
s	-9332
m	-9333
d	-9334
g	-9335
l	-9336
p	-9337
b	-9338
h	-9339
o	-9340
y	-9341
.	-9342
,	-9343
j	-9344
c	-9345
w	-9346
f	-9347
-	-9348
1	-9349
0	-9350
v	-9351
2	-9352
9	-9353
3	-9354
5	-9355
“	-9356
”	-9357
z	-9358
6	-9359
8	-9360
7	-9361
4	-9362
(	-9363
)	-9364
:	-9365
'	-9366
x	-9367
%	-9368
;	-9369
?	-9370
£	-9371
q	-9372
á	-9373
—	-9374
