<unk>	0
<s>	0
</s>	0
an	-0
er	-1
▁d	-2
en	-3
▁m	-4
ar	-5
ang	-6
▁p	-7
▁s	-8
in	-9
la	-10
▁t	-11
▁b	-12
un	-13
at	-14
▁k	-15
ak	-16
em	-17
▁di	-18
ah	-19
▁men	-20
as	-21
ad	-22
ya	-23
tu	-24
kan	-25
▁se	-26
al	-27
yang	-28
is	-29
▁yang	-30
am	-31
ada	-32
ik	-33
▁dan	-34
▁ke	-35
on	-36
▁S	-37
lah	-38
ing	-39
or	-40
ga	-41
il	-42
nya	-43
▁ber	-44
es	-45
eng	-46
ia	-47
▁P	-48
ara	-49
▁per	-50
us	-51
▁mem	-52
ek	-53
lam	-54
ari	-55
ut	-56
ap	-57
el	-58
ir	-59
it	-60
▁ter	-61
id	-62
▁meng	-63
▁h	-64
ol	-65
um	-66
▁A	-67
akan	-68
ur	-69
tuk	-70
▁in	-71
▁un	-72
eb	-73
▁M	-74
▁untuk	-75
itu	-76
▁l	-77
engan	-78
ung	-79
uk	-80
▁K	-81
▁D	-82
alam	-83
▁ini	-84
et	-85
▁seb	-86
▁dengan	-87
ul	-88
▁T	-89
▁j	-90
asi	-91
▁itu	-92
▁dari	-93
ian	-94
ahun	-95
im	-96
▁B	-97
ih	-98
ent	-99
▁pada	-100
▁r	-101
▁I	-102
ag	-103
▁tahun	-104
▁dalam	-105
idak	-106
▁1	-107
▁mer	-108
elah	-109
wa	-110
▁ada	-111
ud	-112
uh	-113
si	-114
ama	-115
▁tidak	-116
▁memb	-117
emb	-118
ti	-119
ela	-120
▁la	-121
per	-122
ta	-123
▁n	-124
ed	-125
om	-126
aga	-127
and	-128
▁sa	-129
▁pen	-130
orang	-131
▁C	-132
▁R	-133
asa	-134
ja	-135
eka	-136
eh	-137
eg	-138
anya	-139
ep	-140
▁N	-141
▁adalah	-142
tr	-143
oleh	-144
▁bah	-145
▁H	-146
ro	-147
ua	-148
agai	-149
▁J	-150
angan	-151
▁oleh	-152
any	-153
▁mereka	-154
ata	-155
isi	-156
up	-157
ub	-158
ikan	-159
ab	-160
▁g	-161
▁L	-162
▁telah	-163
▁meny	-164
▁sebagai	-165
▁G	-166
ukan	-167
ant	-168
▁akan	-169
end	-170
esar	-171
▁bahwa	-172
pa	-173
ika	-174
▁menj	-175
lama	-176
adi	-177
▁In	-178
atu	-179
▁mend	-180
▁orang	-181
ok	-182
emp	-183
▁ia	-184
ebih	-185
▁pem	-186
ula	-187
inya	-188
▁pert	-189
aw	-190
▁2	-191
▁“	-192
ingg	-193
▁E	-194
ana	-195
cara	-196
▁19	-197
atan	-198
agian	-199
int	-200
ahan	-201
anyak	-202
▁lebih	-203
ib	-204
ali	-205
aya	-206
os	-207
▁sek	-208
▁peng	-209
▁tent	-210
ong	-211
uga	-212
ulan	-213
▁besar	-214
▁banyak	-215
▁f	-216
isa	-217
ter	-218
amp	-219
▁w	-220
apa	-221
ber	-222
▁kon	-223
▁set	-224
uah	-225
▁20	-226
▁Per	-227
▁juga	-228
ot	-229
uan	-230
apat	-231
▁O	-232
anj	-233
ist	-234
aran	-235
aan	-236
angk	-237
▁kem	-238
ch	-239
aru	-240
ebut	-241
▁bisa	-242
lu	-243
▁Pada	-244
od	-245
uj	-246
api	-247
hir	-248
perti	-249
▁satu	-250
▁bulan	-251
▁mengh	-252
▁menjadi	-253
▁W	-254
▁sem	-255
▁tentang	-256
▁c	-257
▁ak	-258
ati	-259
uat	-260
▁sebuah	-261
▁U	-262
amb	-263
▁An	-264
▁Se	-265
amun	-266
angg	-267
▁kep	-268
aik	-269
ota	-270
atas	-271
▁kar	-272
angat	-273
▁ters	-274
▁selama	-275
og	-276
▁Y	-277
▁o	-278
ena	-279
iki	-280
ind	-281
▁Di	-282
erja	-283
▁terb	-284
▁memil	-285
sa	-286
▁F	-287
gun	-288
▁seperti	-289
iri	-290
▁pr	-291
ungk	-292
▁mel	-293
egara	-294
ic	-295
ita	-296
ran	-297
wan	-298
uran	-299
▁ant	-300
empat	-301
atakan	-302
▁bagian	-303
elum	-304
▁dib	-305
annya	-306
▁saat	-307
▁menc	-308
▁sangat	-309
ki	-310
▁a	-311
utu	-312
▁bi	-313
adap	-314
alan	-315
eber	-316
▁baru	-317
▁mela	-318
▁(	-319
▁Am	-320
ulai	-321
▁dit	-322
▁bert	-323
ungkin	-324
▁memiliki	-325
ain	-326
▁dis	-327
▁pemb	-328
▁saya	-329
▁tersebut	-330
00	-331
ob	-332
ami	-333
▁ar	-334
udah	-335
▁pro	-336
▁tan	-337
ungan	-338
▁lain	-339
▁antara	-340
ku	-341
eri	-342
▁mus	-343
▁pas	-344
ingga	-345
▁masa	-346
▁setelah	-347
gr	-348
op	-349
ilm	-350
▁Ia	-351
aman	-352
atau	-353
onal	-354
usia	-355
erint	-356
▁atau	-357
est	-358
▁201	-359
▁dip	-360
▁hari	-361
▁pend	-362
angkan	-363
gunakan	-364
ay	-365
ip	-366
ila	-367
uar	-368
▁pol	-369
eberapa	-370
▁negara	-371
le	-372
lat	-373
ump	-374
elas	-375
ingk	-376
▁har	-377
▁ser	-378
▁Amer	-379
▁tapi	-380
inggal	-381
▁hingga	-382
▁membuat	-383
▁seorang	-384
ri	-385
▁3	-386
▁Th	-387
▁ek	-388
entu	-389
▁dik	-390
▁terh	-391
▁karena	-392
▁secara	-393
▁V	-394
itar	-395
uhan	-396
▁hal	-397
▁mas	-398
▁sed	-399
akhir	-400
ingan	-401
ingin	-402
ekerja	-403
▁Namun	-404
ev	-405
agi	-406
ima	-407
jar	-408
lik	-409
ont	-410
ilih	-411
unan	-412
▁dua	-413
▁ker	-414
▁kota	-415
▁para	-416
embali	-417
▁mulai	-418
▁sudah	-419
▁Amerika	-420
▁beberapa	-421
ac	-422
ea	-423
ec	-424
ew	-425
ola	-426
orm	-427
ihat	-428
itik	-429
▁sel	-430
atkan	-431
▁baik	-432
▁berb	-433
▁pers	-434
▁kembali	-435
▁pertama	-436
▁sekitar	-437
▁terhadap	-438
ai	-439
ggr	-440
▁ag	-441
▁aw	-442
▁su	-443
angi	-444
angs	-445
asil	-446
ustr	-447
▁Mar	-448
▁lag	-449
▁pun	-450
ggris	-451
▁berk	-452
▁dapat	-453
▁Inggris	-454
da	-455
oh	-456
imp	-457
▁Ti	-458
etap	-459
idup	-460
ikut	-461
unia	-462
usah	-463
▁Ini	-464
▁ked	-465
▁kom	-466
▁hanya	-467
▁tempat	-468
▁mendapat	-469
▁terakhir	-470
aj	-471
ini	-472
las	-473
ses	-474
unj	-475
▁Un	-476
▁al	-477
▁as	-478
▁uj	-479
aktu	-480
▁kec	-481
▁ket	-482
kukan	-483
ukkan	-484
▁mana	-485
▁sama	-486
▁send	-487
erintah	-488
▁kepada	-489
▁sebelum	-490
▁sendiri	-491
▁mengatakan	-492
ow	-493
ra	-494
und	-495
yah	-496
▁an	-497
▁Mes	-498
▁kes	-499
▁pel	-500
▁awal	-501
▁bers	-502
▁luar	-503
▁terl	-504
upakan	-505
▁diper	-506
▁harus	-507
▁menga	-508
di	-509
ig	-510
aut	-511
ili	-512
▁Al	-513
▁Br	-514
▁ut	-515
alia	-516
ania	-517
emen	-518
iter	-519
olog	-520
uang	-521
utus	-522
▁Seb	-523
▁par	-524
▁pes	-525
▁sep	-526
angka	-527
jalan	-528
▁Sela	-529
▁berh	-530
▁saja	-531
▁musim	-532
▁tetap	-533
▁waktu	-534
ef	-535
ill	-536
man	-537
ode	-538
uka	-539
unc	-540
▁of	-541
akin	-542
ensi	-543
ulis	-544
▁Set	-545
aling	-546
arang	-547
entuk	-548
▁berp	-549
▁ujar	-550
▁wila	-551
▁akhir	-552
▁mengg	-553
▁namun	-554
▁semua	-555
usahaan	-556
▁merupakan	-557
aja	-558
ard	-559
enc	-560
usi	-561
▁Sp	-562
▁kh	-563
abad	-564
antu	-565
iden	-566
main	-567
olah	-568
ropa	-569
▁did	-570
▁keb	-571
▁tek	-572
ahkan	-573
ampil	-574
arkan	-575
inggi	-576
ologi	-577
▁berd	-578
▁film	-579
▁kami	-580
▁kons	-581
enting	-582
ilihan	-583
▁Eropa	-584
▁Tiong	-585
▁tangg	-586
angsung	-587
▁perang	-588
▁wilayah	-589
▁digunakan	-590
0-	-591
ei	-592
ey	-593
if	-594
ug	-595
ark	-596
awa	-597
ers	-598
imb	-599
ium	-600
kok	-601
ons	-602
tur	-603
uku	-604
▁18	-605
arat	-606
arga	-607
istr	-608
ranc	-609
umum	-610
unga	-611
▁200	-612
▁dia	-613
▁tak	-614
ambil	-615
udara	-616
▁abad	-617
▁hidup	-618
▁kedua	-619
▁suara	-620
▁Setelah	-621
▁bekerja	-622
▁mungkin	-623
▁mendapatkan	-624
,”	-625
ju	-626
st	-627
th	-628
▁v	-629
000	-630
anc	-631
ger	-632
iap	-633
ina	-634
osi	-635
rad	-636
tai	-637
uta	-638
asan	-639
awah	-640
enal	-641
eral	-642
iran	-643
itas	-644
onom	-645
usus	-646
vest	-647
▁Pem	-648
▁dir	-649
▁kap	-650
▁keh	-651
ember	-652
istem	-653
ublik	-654
ulkan	-655
▁atas	-656
▁kelu	-657
▁laut	-658
▁peny	-659
anjang	-660
esiden	-661
▁dunia	-662
▁jelas	-663
▁kontr	-664
▁tanpa	-665
▁khusus	-666
▁memper	-667
▁tanggal	-668
▁Tiongkok	-669
iv	-670
ka	-671
mb	-672
ov	-673
ahu	-674
jak	-675
mas	-676
▁Ap	-677
▁As	-678
enuh	-679
inta	-680
janj	-681
tern	-682
ulau	-683
urat	-684
▁Dan	-685
▁Rom	-686
▁apa	-687
▁pos	-688
anjut	-689
udian	-690
umlah	-691
ungai	-692
▁Pert	-693
▁keku	-694
▁kita	-695
▁lagi	-696
▁nama	-697
▁Austr	-698
janjian	-699
▁berada	-700
▁menyer	-701
▁paling	-702
▁kemudian	-703
▁mengambil	-704
2,	-705
av	-706
to	-707
uc	-708
▁5	-709
iga	-710
ira	-711
omp	-712
tik	-713
umb	-714
▁Pr	-715
▁St	-716
alis	-717
anda	-718
land	-719
uduk	-720
ungg	-721
▁199	-722
▁Ser	-723
▁dih	-724
▁din	-725
atang	-726
jarah	-727
umber	-728
▁berl	-729
▁lalu	-730
▁lama	-731
rancis	-732
▁bawah	-733
▁biasa	-734
▁menya	-735
▁salah	-736
asional	-737
▁Selama	-738
▁bahasa	-739
▁melihat	-740
▁membantu	-741
▁sebagian	-742
▁melakukan	-743
▁meninggal	-744
▁pemilihan	-745
▁perusahaan	-746
),	-747
.”	-748
5.	-749
fr	-750
ji	-751
li	-752
oc	-753
▁-	-754
ade	-755
por	-756
tan	-757
yar	-758
▁Ch	-759
▁Sa	-760
▁Tr	-761
▁ap	-762
arik	-763
etak	-764
ikit	-765
rans	-766
ukum	-767
unya	-768
uruh	-769
▁Ber	-770
▁air	-771
▁ben	-772
▁dep	-773
▁sen	-774
▁ses	-775
▁tem	-776
angga	-777
inggu	-778
irkan	-779
latan	-780
unani	-781
▁Anda	-782
▁Saya	-783
▁Tapi	-784
▁area	-785
▁pern	-786
▁tekn	-787
▁terj	-788
▁terp	-789
▁tiga	-790
irikan	-791
▁diber	-792
▁pasar	-793
utuskan	-794
▁Yunani	-795
unjukkan	-796
▁Prancis	-797
▁penting	-798
▁politik	-799
▁sekolah	-800
▁pemerintah	-801
af	-802
▁Z	-803
ala	-804
ank	-805
ban	-806
duk	-807
emu	-808
eor	-809
erd	-810
ide	-811
kto	-812
pan	-813
tif	-814
ton	-815
unt	-816
▁Ka	-817
▁SM	-818
▁em	-819
akah	-820
aris	-821
asih	-822
ibat	-823
tumb	-824
ubah	-825
urut	-826
▁Jer	-827
▁gel	-828
▁kol	-829
▁pan	-830
▁seh	-831
ampak	-832
▁Okto	-833
▁anak	-834
▁bagi	-835
▁bela	-836
▁jika	-837
▁juta	-838
▁tahu	-839
▁tert	-840
emukan	-841
entara	-842
ormasi	-843
▁Spany	-844
▁belum	-845
▁kecil	-846
▁tanah	-847
ubungan	-848
▁Dengan	-849
▁Jerman	-850
▁Oktober	-851
▁sedikit	-852
▁seluruh	-853
▁akhirnya	-854
▁memutuskan	-855
).	-856
6,	-857
ez	-858
ne	-859
ail	-860
ern	-861
etu	-862
ord	-863
son	-864
▁10	-865
▁Is	-866
▁Kr	-867
abis	-868
aruh	-869
awat	-870
ebas	-871
ikat	-872
ilan	-873
▁191	-874
▁Car	-875
▁Ind	-876
▁dek	-877
▁dil	-878
▁eks	-879
▁kur	-880
▁lah	-881
▁mod	-882
▁rek	-883
angun	-884
endah	-885
lukan	-886
onomi	-887
ukung	-888
uncul	-889
▁Laut	-890
▁Roma	-891
▁memp	-892
▁perb	-893
▁perk	-894
▁perm	-895
▁rasa	-896
▁sana	-897
▁terd	-898
▁tind	-899
▁umum	-900
asikan	-901
embang	-902
idikan	-903
▁Dalam	-904
▁Meski	-905
▁Trump	-906
▁batas	-907
▁hukum	-908
▁mener	-909
ikutnya	-910
▁Perang	-911
▁invest	-912
▁member	-913
▁muncul	-914
▁tinggi	-915
enangkan	-916
▁Selatan	-917
▁Spanyol	-918
▁bersama	-919
▁masalah	-920
▁sejarah	-921
▁selatan	-922
▁semakin	-923
▁tinggal	-924
▁Australia	-925
▁berkembang	-926
▁menyatakan	-927
▁menggunakan	-928
▁menunjukkan	-929
0,	-930
gk	-931
he	-932
ou	-933
”.	-934
▁e	-935
▁£	-936
arn	-937
art	-938
eal	-939
eph	-940
era	-941
ewa	-942
get	-943
ikl	-944
ine	-945
isn	-946
ond	-947
one	-948
tus	-949
▁dr	-950
▁ka	-951
▁wa	-952
aksi	-953
amer	-954
arap	-955
asti	-956
edia	-957
elam	-958
erah	-959
iode	-960
itan	-961
lalu	-962
uluh	-963
ungi	-964
▁Med	-965
▁Men	-966
▁art	-967
▁ind	-968
▁kal	-969
▁mil	-970
akili	-971
angsa	-972
emuan	-973
engah	-974
ikuti	-975
inasi	-976
iring	-977
olusi	-978
▁Para	-979
▁Peng	-980
anggap	-981
encana	-982
landia	-983
▁Rusia	-984
▁ingin	-985
▁keras	-986
▁kerja	-987
▁masih	-988
▁trans	-989
▁udara	-990
ibatkan	-991
▁jumlah	-992
▁lanjut	-993
▁pernah	-994
▁rendah	-995
▁sistem	-996
▁ekonomi	-997
▁pekerja	-998
erintahan	-999
▁kekuatan	-1000
▁penduduk	-1001
▁perjalan	-1002
▁sekarang	-1003
▁tindakan	-1004
▁menghadap	-1005
▁berikutnya	-1006
▁memberikan	-1007
1,	-1008
3,	-1009
ca	-1010
iz	-1011
re	-1012
▁'	-1013
ans	-1014
auh	-1015
bor	-1016
eja	-1017
eks	-1018
ell	-1019
esa	-1020
gab	-1021
gan	-1022
ori	-1023
uda	-1024
urn	-1025
▁Ag	-1026
▁Cl	-1027
▁En	-1028
▁Sh	-1029
▁da	-1030
▁ma	-1031
akat	-1032
caya	-1033
ekan	-1034
ewan	-1035
imur	-1036
inan	-1037
irim	-1038
isar	-1039
oman	-1040
pada	-1041
rata	-1042
tara	-1043
tudi	-1044
uari	-1045
uruk	-1046
▁197	-1047
▁Nor	-1048
▁Pen	-1049
▁Rep	-1050
▁dim	-1051
▁ilm	-1052
▁kel	-1053
▁leg	-1054
▁mew	-1055
▁pak	-1056
▁put	-1057
▁res	-1058
alkan	-1059
edung	-1060
erita	-1061
frika	-1062
impin	-1063
isasi	-1064
masuk	-1065
uanya	-1066
▁buku	-1067
▁data	-1068
▁dila	-1069
▁jawa	-1070
▁lagu	-1071
▁pria	-1072
▁rata	-1073
ahanan	-1074
anusia	-1075
anyaan	-1076
istrik	-1077
oritas	-1078
ubahan	-1079
undang	-1080
▁depan	-1081
▁diter	-1082
▁makan	-1083
▁pengh	-1084
▁pulau	-1085
▁serta	-1086
▁utara	-1087
atannya	-1088
empuran	-1089
formasi	-1090
▁apakah	-1091
▁ketika	-1092
▁mengak	-1093
▁mengur	-1094
▁publik	-1095
▁sungai	-1096
andingan	-1097
embangan	-1098
ungkinan	-1099
▁Mediter	-1100
▁Menurut	-1101
▁bermain	-1102
▁menarik	-1103
▁pertumb	-1104
▁tentara	-1105
▁terjadi	-1106
▁keluarga	-1107
▁langsung	-1108
▁menerima	-1109
▁termasuk	-1110
▁khususnya	-1111
▁membentuk	-1112
▁teknologi	-1113
▁Perjanjian	-1114
▁menghadapi	-1115
▁perjalanan	-1116
▁sebelumnya	-1117
▁berlangsung	-1118
7.	-1119
▁$	-1120
bat	-1121
bum	-1122
cha	-1123
eda	-1124
ens	-1125
ess	-1126
eta	-1127
han	-1128
inc	-1129
ity	-1130
ona	-1131
raf	-1132
ril	-1133
tar	-1134
uri	-1135
uru	-1136
▁It	-1137
▁op	-1138
▁st	-1139
.000	-1140
amai	-1141
asal	-1142
asus	-1143
atif	-1144
gkap	-1145
ican	-1146
ilis	-1147
isah	-1148
mark	-1149
pert	-1150
urun	-1151
▁198	-1152
▁Itu	-1153
▁Mer	-1154
▁Mor	-1155
▁The	-1156
▁beg	-1157
▁ikl	-1158
▁kek	-1159
▁mat	-1160
▁neg	-1161
▁ped	-1162
▁pop	-1163
▁tuj	-1164
adaan	-1165
adang	-1166
agaim	-1167
ancur	-1168
atian	-1169
enuhi	-1170
ikasi	-1171
inkan	-1172
onton	-1173
uhkan	-1174
ulasi	-1175
ustri	-1176
▁Dari	-1177
▁Hong	-1178
▁Kong	-1179
▁agar	-1180
▁diri	-1181
▁jauh	-1182
▁kali	-1183
▁kata	-1184
▁keti	-1185
▁konf	-1186
▁laki	-1187
▁mili	-1188
▁perd	-1189
▁sisi	-1190
▁sosi	-1191
anding	-1192
empuan	-1193
isaran	-1194
porkan	-1195
▁April	-1196
▁Utara	-1197
▁bukan	-1198
▁drama	-1199
▁kolon	-1200
▁menge	-1201
▁musik	-1202
▁panas	-1203
▁terus	-1204
evolusi	-1205
▁Afrika	-1206
▁Italia	-1207
▁Kaisar	-1208
▁Mereka	-1209
▁Sebuah	-1210
▁dingin	-1211
▁menyel	-1212
▁minggu	-1213
▁partai	-1214
▁polisi	-1215
▁sedang	-1216
▁setiap	-1217
▁sumber	-1218
▁ungkap	-1219
agaimana	-1220
imbulkan	-1221
▁awalnya	-1222
▁bertemu	-1223
▁listrik	-1224
▁makanan	-1225
▁periode	-1226
▁berbagai	-1227
▁daripada	-1228
▁hubungan	-1229
▁mewakili	-1230
▁terletak	-1231
▁mendukung	-1232
▁perempuan	-1233
▁Pemerintah	-1234
▁mengurangi	-1235
▁kemungkinan	-1236
▁pertempuran	-1237
▁pertumbuhan	-1238
▁meninggalkan	-1239
mi	-1240
tt	-1241
▁4	-1242
▁6	-1243
▁8	-1244
▁y	-1245
aca	-1246
aks	-1247
arl	-1248
ast	-1249
bia	-1250
edi	-1251
erb	-1252
esi	-1253
ism	-1254
iss	-1255
lob	-1256
oba	-1257
pen	-1258
rat	-1259
uli	-1260
umi	-1261
urg	-1262
uro	-1263
yak	-1264
▁--	-1265
▁14	-1266
▁15	-1267
▁II	-1268
▁Ol	-1269
▁Pa	-1270
▁en	-1271
▁kr	-1272
▁ob	-1273
▁up	-1274
adan	-1275
adar	-1276
adis	-1277
ahas	-1278
akup	-1279
anti	-1280
apai	-1281
arah	-1282
ator	-1283
dang	-1284
edon	-1285
eksi	-1286
enar	-1287
enda	-1288
engg	-1289
epat	-1290
esai	-1291
iapa	-1292
iaya	-1293
ihan	-1294
iksi	-1295
obil	-1296
olak	-1297
truk	-1298
umah	-1299
unuh	-1300
▁196	-1301
▁Ada	-1302
▁Ang	-1303
▁Bel	-1304
▁Her	-1305
▁Hit	-1306
▁Kar	-1307
▁Ked	-1308
▁Ket	-1309
▁New	-1310
▁Pol	-1311
▁Sem	-1312
▁Sep	-1313
▁bek	-1314
▁bud	-1315
▁dom	-1316
▁kej	-1317
▁met	-1318
▁pat	-1319
▁rep	-1320
▁sam	-1321
▁sej	-1322
▁tel	-1323
▁ten	-1324
ampir	-1325
arget	-1326
asaan	-1327
duksi	-1328
gerak	-1329
icara	-1330
itkan	-1331
ivers	-1332
orong	-1333
tahun	-1334
tikel	-1335
ustus	-1336
▁agen	-1337
▁alam	-1338
▁alat	-1339
▁angg	-1340
▁batu	-1341
▁cara	-1342
▁euro	-1343
▁kand	-1344
▁kini	-1345
▁naik	-1346
▁penc	-1347
▁tant	-1348
▁uang	-1349
anuari	-1350
ingkat	-1351
radisi	-1352
uannya	-1353
▁Dunia	-1354
▁Mesir	-1355
▁North	-1356
▁Tidak	-1357
▁akses	-1358
▁barat	-1359
▁berla	-1360
▁empat	-1361
▁kapal	-1362
▁masuk	-1363
▁memas	-1364
▁mengk	-1365
▁penga	-1366
▁teman	-1367
▁utama	-1368
agangan	-1369
asilkan	-1370
enderal	-1371
engahan	-1372
enuhnya	-1373
idaknya	-1374
intangi	-1375
yarakat	-1376
▁Secara	-1377
▁akibat	-1378
▁bangsa	-1379
▁begitu	-1380
▁daerah	-1381
▁datang	-1382
▁diberi	-1383
▁gedung	-1384
▁hampir	-1385
▁intern	-1386
▁keluar	-1387
▁pember	-1388
▁sekali	-1389
ingkatan	-1390
▁Serikat	-1391
▁berusia	-1392
▁dikenal	-1393
▁dinasti	-1394
▁dirinya	-1395
▁disebut	-1396
▁konflik	-1397
▁melawan	-1398
▁memberi	-1399
▁meminta	-1400
▁menulis	-1401
▁panjang	-1402
▁pasukan	-1403
▁penggun	-1404
▁penulis	-1405
▁rencana	-1406
▁selesai	-1407
▁terbuka	-1408
▁investor	-1409
▁mencakup	-1410
▁nasional	-1411
▁presiden	-1412
▁informasi	-1413
▁perubahan	-1414
▁diperlukan	-1415
▁masyarakat	-1416
▁sepenuhnya	-1417
▁Mediterania	-1418
▁memenangkan	-1419
▁menimbulkan	-1420
▁pemerintahan	-1421
▁mengakibatkan	-1422
19	-1423
20	-1424
3.	-1425
7,	-1426
ha	-1427
ly	-1428
▁9	-1429
▁z	-1430
ani	-1431
ash	-1432
ate	-1433
ayi	-1434
elu	-1435
her	-1436
ice	-1437
ich	-1438
iko	-1439
oto	-1440
pun	-1441
ros	-1442
ugh	-1443
uni	-1444
▁16	-1445
▁AS	-1446
▁Ab	-1447
▁Ar	-1448
▁Bl	-1449
▁Sw	-1450
▁de	-1451
▁el	-1452
▁ib	-1453
▁sp	-1454
Laut	-1455
adai	-1456
aian	-1457
akwa	-1458
asar	-1459
baru	-1460
ecah	-1461
engk	-1462
ersi	-1463
fung	-1464
ipil	-1465
isir	-1466
isme	-1467
isti	-1468
itus	-1469
laki	-1470
uasa	-1471
uing	-1472
ujan	-1473
ulit	-1474
umor	-1475
upun	-1476
yata	-1477
▁Alb	-1478
▁Chr	-1479
▁Dem	-1480
▁Den	-1481
▁Ger	-1482
▁Jos	-1483
▁Kan	-1484
▁Kes	-1485
▁Kor	-1486
▁Mak	-1487
▁Ott	-1488
▁Sah	-1489
▁bag	-1490
▁dat	-1491
▁dem	-1492
▁hak	-1493
▁ide	-1494
▁ist	-1495
▁lok	-1496
▁min	-1497
apkan	-1498
ayaan	-1499
edaan	-1500
ektur	-1501
ender	-1502
entar	-1503
ilang	-1504
inton	-1505
isten	-1506
istik	-1507
kenal	-1508
unggu	-1509
utkan	-1510
utrad	-1511
▁Asia	-1512
▁Hari	-1513
▁Kota	-1514
▁Meng	-1515
▁berm	-1516
▁ditu	-1517
▁hati	-1518
▁istr	-1519
▁kont	-1520
▁lima	-1521
▁pela	-1522
▁prib	-1523
▁sese	-1524
▁suku	-1525
▁usia	-1526
adanya	-1527
adinya	-1528
angani	-1529
aribia	-1530
asanya	-1531
atanya	-1532
ederal	-1533
edonia	-1534
entang	-1535
enteri	-1536
erdeka	-1537
fungsi	-1538
lahkan	-1539
uangan	-1540
utusan	-1541
▁Paris	-1542
▁Timur	-1543
▁Untuk	-1544
▁acara	-1545
▁album	-1546
▁belak	-1547
▁biara	-1548
▁distr	-1549
▁gadis	-1550
▁gelar	-1551
▁jawab	-1552
▁keber	-1553
▁lahan	-1554
▁menja	-1555
▁sejak	-1556
▁sipil	-1557
▁surat	-1558
▁titik	-1559
abiskan	-1560
ebaskan	-1561
eluaran	-1562
engaruh	-1563
esaikan	-1564
ingkali	-1565
izinkan	-1566
unungan	-1567
▁Joseph	-1568
▁Selain	-1569
▁budaya	-1570
▁ketiga	-1571
▁konser	-1572
▁mengad	-1573
▁miliar	-1574
▁pemain	-1575
▁selalu	-1576
▁sosial	-1577
▁tampak	-1578
▁target	-1579
ayoritas	-1580
ilangkan	-1581
utradara	-1582
▁Clinton	-1583
▁Januari	-1584
▁Univers	-1585
▁berasal	-1586
▁berubah	-1587
▁diikuti	-1588
▁kalinya	-1589
▁keadaan	-1590
▁kehidup	-1591
▁kontrak	-1592
▁lainnya	-1593
▁memilih	-1594
▁mencoba	-1595
▁mengapa	-1596
▁menolak	-1597
▁militer	-1598
▁pelangg	-1599
▁peluang	-1600
▁pembuat	-1601
▁pesawat	-1602
▁pesisir	-1603
▁seiring	-1604
▁terbaik	-1605
▁terdiri	-1606
▁Jenderal	-1607
▁Presiden	-1608
▁Revolusi	-1609
▁bergerak	-1610
▁berhasil	-1611
▁berjalan	-1612
▁dibangun	-1613
▁industri	-1614
▁memenuhi	-1615
▁mengirim	-1616
▁menyeber	-1617
▁tertentu	-1618
▁transisi	-1619
▁Makedonia	-1620
▁bagaimana	-1621
▁berfungsi	-1622
▁didirikan	-1623
▁ditemukan	-1624
▁kemerdeka	-1625
▁pemberont	-1626
▁perbedaan	-1627
▁sepanjang	-1628
▁seseorang	-1629
▁tantangan	-1630
▁perjanjian	-1631
▁pertanyaan	-1632
▁seringkali	-1633
▁setidaknya	-1634
▁peningkatan	-1635
▁perdagangan	-1636
▁menghasilkan	-1637
▁perkembangan	-1638
▁pertandingan	-1639
▁menghilangkan	-1640
-1	-1641
30	-1642
5,	-1643
BC	-1644
co	-1645
gi	-1646
ho	-1647
io	-1648
mp	-1649
nt	-1650
ry	-1651
ui	-1652
▁7	-1653
aju	-1654
akt	-1655
all	-1656
alu	-1657
des	-1658
ean	-1659
eij	-1660
eli	-1661
ert	-1662
gar	-1663
gas	-1664
iah	-1665
ign	-1666
ino	-1667
ish	-1668
iti	-1669
ler	-1670
lor	-1671
lui	-1672
nis	-1673
ock	-1674
ohn	-1675
red	-1676
rut	-1677
ual	-1678
uas	-1679
yek	-1680
▁17	-1681
▁Er	-1682
▁Kh	-1683
▁La	-1684
▁Or	-1685
▁Os	-1686
▁Re	-1687
▁Sc	-1688
▁ef	-1689
▁ga	-1690
▁im	-1691
▁or	-1692
▁tr	-1693
akit	-1694
alik	-1695
anak	-1696
apan	-1697
ario	-1698
arna	-1699
ater	-1700
avia	-1701
burg	-1702
elak	-1703
elan	-1704
elis	-1705
enti	-1706
epas	-1707
eran	-1708
erti	-1709
eski	-1710
gant	-1711
ikir	-1712
ings	-1713
insi	-1714
isla	-1715
iswa	-1716
otal	-1717
udra	-1718
usat	-1719
▁Apa	-1720
▁Bar	-1721
▁Cap	-1722
▁Dia	-1723
▁III	-1724
▁Jep	-1725
▁Kep	-1726
▁Mei	-1727
▁Nov	-1728
▁Pas	-1729
▁Pro	-1730
▁Sch	-1731
▁Sen	-1732
▁Uni	-1733
▁Win	-1734
▁bin	-1735
▁deb	-1736
▁gol	-1737
▁int	-1738
▁jam	-1739
▁kan	-1740
▁pet	-1741
▁ref	-1742
▁rut	-1743
▁sas	-1744
▁top	-1745
5.000	-1746
aksud	-1747
alent	-1748
arier	-1749
atasi	-1750
edisi	-1751
egang	-1752
ening	-1753
enter	-1754
ikian	-1755
isney	-1756
isnis	-1757
kuasa	-1758
lasan	-1759
lican	-1760
lobal	-1761
ograf	-1762
onald	-1763
onium	-1764
ukses	-1765
vensi	-1766
▁Acha	-1767
▁Bumi	-1768
▁Cina	-1769
▁Film	-1770
▁Geor	-1771
▁Hill	-1772
▁Jika	-1773
▁John	-1774
▁Juli	-1775
▁Juni	-1776
▁Kami	-1777
▁Keka	-1778
▁Meks	-1779
▁Mong	-1780
▁Pend	-1781
▁Raja	-1782
▁Rich	-1783
▁Sept	-1784
▁Yang	-1785
▁angk	-1786
▁asal	-1787
▁bayi	-1788
▁efek	-1789
▁enam	-1790
▁keka	-1791
▁kuat	-1792
▁mata	-1793
▁mati	-1794
▁oper	-1795
▁pand	-1796
▁pera	-1797
▁perh	-1798
▁post	-1799
▁raja	-1800
▁sang	-1801
▁teor	-1802
▁tumb	-1803
andung	-1804
angnya	-1805
atasan	-1806
eijing	-1807
elapan	-1808
entuan	-1809
iburan	-1810
intaan	-1811
istiwa	-1812
masing	-1813
▁Tahun	-1814
▁asing	-1815
▁bagus	-1816
▁bangk	-1817
▁benar	-1818
▁benua	-1819
▁buruk	-1820
▁dasar	-1821
▁dekat	-1822
▁hujan	-1823
▁iklim	-1824
▁jalan	-1825
▁karya	-1826
▁kasus	-1827
▁komun	-1828
▁kulit	-1829
▁lahir	-1830
▁melam	-1831
▁merek	-1832
▁progr	-1833
▁puluh	-1834
▁punya	-1835
▁putri	-1836
▁rumah	-1837
▁siapa	-1838
▁studi	-1839
▁tumor	-1840
▁upaya	-1841
ampilan	-1842
arapkan	-1843
artemen	-1844
asarkan	-1845
ebutnya	-1846
ediakan	-1847
elaskan	-1848
entikan	-1849
entukan	-1850
umumkan	-1851
unjungi	-1852
wancara	-1853
▁Disney	-1854
▁Donald	-1855
▁Jepang	-1856
▁Negara	-1857
▁Sungai	-1858
▁berita	-1859
▁cerita	-1860
▁dampak	-1861
▁global	-1862
▁ilmiah	-1863
▁karier	-1864
▁koloni	-1865
▁masing	-1866
▁maupun	-1867
▁menand	-1868
▁mengaw	-1869
▁persen	-1870
▁persis	-1871
▁sering	-1872
▁tenaga	-1873
▁undang	-1874
ambarkan	-1875
ampilkan	-1876
elidikan	-1877
kenalkan	-1878
▁Agustus	-1879
▁Albania	-1880
▁Denmark	-1881
▁Karibia	-1882
▁Meksiko	-1883
▁Menteri	-1884
▁Moravia	-1885
▁Mungkin	-1886
▁Ottoman	-1887
▁Pertama	-1888
▁Seperti	-1889
▁belajar	-1890
▁berbeda	-1891
▁dataran	-1892
▁distrik	-1893
▁federal	-1894
▁mempert	-1895
▁percaya	-1896
▁saudara	-1897
▁sebesar	-1898
▁tanaman	-1899
▁tradisi	-1900
andingkan	-1901
embangkan	-1902
ungkinkan	-1903
▁November	-1904
▁Republik	-1905
▁Sebagian	-1906
▁bangkrut	-1907
▁bertahan	-1908
▁bertahun	-1909
▁biasanya	-1910
▁binatang	-1911
▁dianggap	-1912
▁internet	-1913
▁istrinya	-1914
▁mencapai	-1915
▁menjalan	-1916
▁polonium	-1917
▁populasi	-1918
▁semuanya	-1919
▁terbesar	-1920
▁terlibat	-1921
▁Sementara	-1922
▁September	-1923
▁berbicara	-1924
▁diberikan	-1925
▁kehidupan	-1926
▁kekuasaan	-1927
▁keputusan	-1928
▁membangun	-1929
▁mendapati	-1930
▁mendorong	-1931
▁menemukan	-1932
▁mengganti	-1933
▁pekerjaan	-1934
▁pertemuan	-1935
▁postingan	-1936
▁tertinggi	-1937
▁Kekaisaran	-1938
▁University	-1939
▁mendirikan	-1940
▁mengandung	-1941
▁penggunaan	-1942
▁kemerdekaan	-1943
▁membebaskan	-1944
▁mengizinkan	-1945
▁menjelaskan	-1946
▁menyediakan	-1947
▁pengeluaran	-1948
▁dibandingkan	-1949
▁memungkinkan	-1950
▁menghabiskan	-1951
▁menyeberangi	-1952
2.	-1953
60	-1954
8,	-1955
9,	-1956
az	-1957
bo	-1958
ce	-1959
eo	-1960
ex	-1961
fa	-1962
ht	-1963
ke	-1964
na	-1965
ph	-1966
te	-1967
▁—	-1968
aba	-1969
abr	-1970
ach	-1971
aff	-1972
akl	-1973
aky	-1974
alm	-1975
arm	-1976
ase	-1977
bon	-1978
den	-1979
ema	-1980
enn	-1981
fat	-1982
ham	-1983
icu	-1984
ida	-1985
iks	-1986
isk	-1987
jah	-1988
jam	-1989
kir	-1990
lan	-1991
ley	-1992
lim	-1993
mos	-1994
oal	-1995
ole	-1996
ood	-1997
ork	-1998
ott	-1999
pai	-2000
rom	-2001
rop	-2002
sat	-2003
sia	-2004
tab	-2005
tes	-2006
tra	-2007
udi	-2008
uno	-2009
yan	-2010
yut	-2011
▁13	-2012
▁3%	-2013
▁31	-2014
▁50	-2015
▁At	-2016
▁Bi	-2017
▁Ed	-2018
▁El	-2019
▁Ga	-2020
▁He	-2021
▁Ke	-2022
▁Mi	-2023
▁Mo	-2024
▁My	-2025
▁No	-2026
▁Ob	-2027
▁Sk	-2028
▁at	-2029
▁et	-2030
▁te	-2031
▁£1	-2032
Saya	-2033
abit	-2034
abut	-2035
adik	-2036
aksa	-2037
alem	-2038
amen	-2039
ames	-2040
arus	-2041
berg	-2042
disi	-2043
elaj	-2044
ener	-2045
epsi	-2046
erty	-2047
esia	-2048
esif	-2049
evel	-2050
evir	-2051
gera	-2052
hati	-2053
hkan	-2054
iade	-2055
ikah	-2056
ital	-2057
jata	-2058
jual	-2059
laim	-2060
ling	-2061
ohon	-2062
olia	-2063
olik	-2064
onis	-2065
ontr	-2066
oper	-2067
oris	-2068
pala	-2069
reat	-2070
tasi	-2071
tual	-2072
udut	-2073
uman	-2074
umen	-2075
urki	-2076
uwan	-2077
▁(19	-2078
▁100	-2079
▁149	-2080
▁188	-2081
▁192	-2082
▁195	-2083
▁Ass	-2084
▁BBC	-2085
▁Bog	-2086
▁Col	-2087
▁Des	-2088
▁Dua	-2089
▁Emp	-2090
▁Hal	-2091
▁Jas	-2092
▁Kem	-2093
▁Met	-2094
▁Ont	-2095
▁Pap	-2096
▁Pet	-2097
▁Pow	-2098
▁Sam	-2099
▁San	-2100
▁Sek	-2101
▁Str	-2102
▁and	-2103
▁ang	-2104
▁api	-2105
▁bid	-2106
▁buk	-2107
▁dic	-2108
▁jab	-2109
▁jal	-2110
▁kin	-2111
▁lam	-2112
▁med	-2113
▁pik	-2114
▁pul	-2115
▁ret	-2116
▁ris	-2117
▁sah	-2118
▁sal	-2119
▁the	-2120
▁web	-2121
aftar	-2122
ajian	-2123
akter	-2124
amaan	-2125
ambar	-2126
ambut	-2127
anian	-2128
antan	-2129
ation	-2130
ayang	-2131
batas	-2132
enang	-2133
ental	-2134
esain	-2135
ganya	-2136
hasil	-2137
idiki	-2138
igasi	-2139
ignif	-2140
imewa	-2141
inter	-2142
iraun	-2143
jakan	-2144
okter	-2145
ondon	-2146
ontoh	-2147
takan	-2148
uhnya	-2149
ukaan	-2150
unung	-2151
urkan	-2152
usaha	-2153
utama	-2154
utasi	-2155
▁2014	-2156
▁Bank	-2157
▁Berb	-2158
▁Brit	-2159
▁Peny	-2160
▁Raff	-2161
▁Rona	-2162
▁Shen	-2163
▁York	-2164
▁alih	-2165
▁arah	-2166
▁asli	-2167
▁biji	-2168
▁dana	-2169
▁diny	-2170
▁duta	-2171
▁foto	-2172
▁golf	-2173
▁hist	-2174
▁horm	-2175
▁ikan	-2176
▁kaya	-2177
▁kira	-2178
▁kuda	-2179
▁lemb	-2180
▁maju	-2181
▁muda	-2182
▁pagi	-2183
▁pant	-2184
▁pola	-2185
▁sini	-2186
▁syut	-2187
▁unit	-2188
abitat	-2189
adilan	-2190
ailand	-2191
alisis	-2192
amanya	-2193
amerun	-2194
angkit	-2195
angkut	-2196
apatan	-2197
aranya	-2198
argaan	-2199
ayakan	-2200
bitkan	-2201
ekanan	-2202
emenid	-2203
empati	-2204
etugas	-2205
evirke	-2206
gabung	-2207
jutkan	-2208
negara	-2209
ografi	-2210
uburan	-2211
ungkan	-2212
unuhan	-2213
utuhan	-2214
▁Alpen	-2215
▁Barat	-2216
▁Dewan	-2217
▁Georg	-2218
▁Great	-2219
▁Hanya	-2220
▁Herod	-2221
▁Hitch	-2222
▁India	-2223
▁Islam	-2224
▁Kedua	-2225
▁Kesha	-2226
▁Korea	-2227
▁Olimp	-2228
▁Orang	-2229
▁Repub	-2230
▁Sejak	-2231
▁Senat	-2232
▁Tentu	-2233
▁Turki	-2234
▁Winst	-2235
▁Zaman	-2236
▁angin	-2237
▁bebas	-2238
▁bekas	-2239
▁belas	-2240
▁boleh	-2241
▁disel	-2242
▁email	-2243
▁harga	-2244
▁inter	-2245
▁kalah	-2246
▁keter	-2247
▁kisah	-2248
▁kursi	-2249
▁layak	-2250
▁level	-2251
▁media	-2252
▁meski	-2253
▁mobil	-2254
▁mudah	-2255
▁nyata	-2256
▁organ	-2257
▁pasir	-2258
▁pecah	-2259
▁penak	-2260
▁resmi	-2261
▁situs	-2262
▁sudut	-2263
▁tepat	-2264
▁terka	-2265
▁total	-2266
▁tujuh	-2267
▁tulis	-2268
ancuran	-2269
anggung	-2270
angsaan	-2271
arankan	-2272
ational	-2273
atorium	-2274
enarnya	-2275
enggara	-2276
gantung	-2277
hasilan	-2278
ikirkan	-2279
indungi	-2280
truktur	-2281
unduran	-2282
urangan	-2283
utuhkan	-2284
▁Christ	-2285
▁Intern	-2286
▁Kanada	-2287
▁Ketika	-2288
▁London	-2289
▁alasan	-2290
▁bahkan	-2291
▁bicara	-2292
▁bidang	-2293
▁bisnis	-2294
▁dekade	-2295
▁dibuat	-2296
▁dijual	-2297
▁ditand	-2298
▁hancur	-2299
▁hilang	-2300
▁kepala	-2301
▁kereta	-2302
▁kering	-2303
▁langka	-2304
▁lautan	-2305
▁mempro	-2306
▁menamb	-2307
▁mendek	-2308
▁menyam	-2309
▁merasa	-2310
▁modern	-2311
▁negeri	-2312
▁penerb	-2313
▁posisi	-2314
▁produk	-2315
▁proyek	-2316
▁sastra	-2317
▁segera	-2318
▁senang	-2319
▁signif	-2320
▁tampil	-2321
▁tujuan	-2322
▁tumbuh	-2323
aklukkan	-2324
ancurkan	-2325
atangani	-2326
empatkan	-2327
ingatkan	-2328
inginkan	-2329
umpulkan	-2330
untungan	-2331
▁Belanda	-2332
▁Kamerun	-2333
▁Ontario	-2334
▁Richard	-2335
▁Sebelum	-2336
▁Seiring	-2337
▁Seorang	-2338
▁anggota	-2339
▁berdiri	-2340
▁berlaku	-2341
▁delapan	-2342
▁dilihat	-2343
▁dimulai	-2344
▁habitat	-2345
▁ilmuwan	-2346
▁katanya	-2347
▁kinerja	-2348
▁kondisi	-2349
▁konserv	-2350
▁legisla	-2351
▁manusia	-2352
▁melalui	-2353
▁membawa	-2354
▁membuka	-2355
▁mencari	-2356
▁menghad	-2357
▁pribadi	-2358
▁syuting	-2359
▁terlalu	-2360
▁ujarnya	-2361
utradarai	-2362
▁Beberapa	-2363
▁Desember	-2364
▁Meskipun	-2365
▁Mongolia	-2366
▁Rafferty	-2367
▁Thailand	-2368
▁berharap	-2369
▁berhenti	-2370
▁berpikir	-2371
▁demikian	-2372
▁dipimpin	-2373
▁diterima	-2374
▁dominasi	-2375
▁hidupnya	-2376
▁historis	-2377
▁istimewa	-2378
▁karakter	-2379
▁kematian	-2380
▁komentar	-2381
▁membunuh	-2382
▁menengah	-2383
▁mengubah	-2384
▁menonton	-2385
▁perayaan	-2386
▁rekening	-2387
▁sehingga	-2388
▁sejumlah	-2389
▁terutama	-2390
▁Danevirke	-2391
▁Olimpiade	-2392
▁bergabung	-2393
▁dilakukan	-2394
▁ditinggal	-2395
▁investasi	-2396
▁kebutuhan	-2397
▁kepadanya	-2398
▁ketentuan	-2399
▁mayoritas	-2400
▁menentang	-2401
▁mengawasi	-2402
▁perhatian	-2403
▁permukaan	-2404
▁pertanian	-2405
▁sedangkan	-2406
▁sementara	-2407
▁terbentuk	-2408
▁Achaemenid	-2409
▁Republican	-2410
▁bergantung	-2411
▁dibintangi	-2412
▁dilaporkan	-2413
▁kehancuran	-2414
▁mengadakan	-2415
▁menganggap	-2416
▁pembunuhan	-2417
▁penaklukan	-2418
▁pendidikan	-2419
▁perbatasan	-2420
▁permintaan	-2421
▁pertahanan	-2422
▁signifikan	-2423
▁terjadinya	-2424
▁berdasarkan	-2425
▁bertanggung	-2426
▁menambahkan	-2427
▁mengejutkan	-2428
▁mengumumkan	-2429
▁mengunjungi	-2430
▁menyebutnya	-2431
▁penerbangan	-2432
▁penghargaan	-2433
▁pertengahan	-2434
▁terakhirnya	-2435
▁disutradarai	-2436
▁menggambarkan	-2437
▁menyelesaikan	-2438
▁pemberontakan	-2439
-5	-2440
..	-2441
.3	-2442
16	-2443
32	-2444
9.	-2445
CA	-2446
NA	-2447
NN	-2448
ck	-2449
dr	-2450
ee	-2451
ej	-2452
kr	-2453
pi	-2454
sp	-2455
ve	-2456
vi	-2457
án	-2458
”,	-2459
-20	-2460
...	-2461
ace	-2462
ack	-2463
aft	-2464
aki	-2465
alk	-2466
arr	-2467
ary	-2468
ask	-2469
ass	-2470
cak	-2471
car	-2472
deb	-2473
div	-2474
dus	-2475
ebr	-2476
egr	-2477
eko	-2478
erg	-2479
fab	-2480
ght	-2481
hal	-2482
ico	-2483
ier	-2484
isp	-2485
ith	-2486
jui	-2487
kem	-2488
kor	-2489
lar	-2490
lis	-2491
mer	-2492
min	-2493
obi	-2494
oci	-2495
oin	-2496
oks	-2497
oli	-2498
omb	-2499
ors	-2500
ost	-2501
ots	-2502
own	-2503
par	-2504
pos	-2505
put	-2506
ria	-2507
rid	-2508
rok	-2509
sar	-2510
sit	-2511
tau	-2512
tin	-2513
tis	-2514
tiv	-2515
ube	-2516
uck	-2517
uhu	-2518
ver	-2519
wak	-2520
wit	-2521
ybo	-2522
yol	-2523
▁1%	-2524
▁11	-2525
▁30	-2526
▁36	-2527
▁Ad	-2528
▁Ak	-2529
▁Ca	-2530
▁Co	-2531
▁Go	-2532
▁Gu	-2533
▁Ir	-2534
▁Jo	-2535
▁Kn	-2536
▁Me	-2537
▁Nn	-2538
▁Op	-2539
▁Py	-2540
▁Sn	-2541
▁Su	-2542
▁Tn	-2543
▁bl	-2544
▁ep	-2545
▁er	-2546
▁ju	-2547
▁ot	-2548
▁ur	-2549
Kami	-2550
abar	-2551
adah	-2552
agal	-2553
agam	-2554
ahui	-2555
akar	-2556
akna	-2557
alir	-2558
ance	-2559
anyi	-2560
arif	-2561
asif	-2562
atur	-2563
aval	-2564
avid	-2565
bane	-2566
batu	-2567
cock	-2568
eban	-2569
edak	-2570
elek	-2571
elur	-2572
enek	-2573
enet	-2574
enry	-2575
epon	-2576
esus	-2577
eyer	-2578
guna	-2579
hari	-2580
iang	-2581
idat	-2582
ideo	-2583
ihak	-2584
ilia	-2585
ilip	-2586
ille	-2587
ilot	-2588
iman	-2589
imen	-2590
inal	-2591
inci	-2592
ingi	-2593
irah	-2594
iron	-2595
irsa	-2596
isip	-2597
jaga	-2598
kira	-2599
lant	-2600
lind	-2601
mara	-2602
mine	-2603
mose	-2604
odoh	-2605
ogan	-2606
okoh	-2607
okus	-2608
oran	-2609
ough	-2610
paru	-2611
paui	-2612
rich	-2613
sama	-2614
uaca	-2615
uali	-2616
ubuh	-2617
ukup	-2618
ukur	-2619
uler	-2620
unta	-2621
upuk	-2622
urie	-2623
utip	-2624
▁$1,	-2625
▁177	-2626
▁194	-2627
▁330	-2628
▁Ale	-2629
▁Ans	-2630
▁Ant	-2631
▁Ath	-2632
▁Bah	-2633
▁CNN	-2634
▁Cat	-2635
▁Com	-2636
▁Cor	-2637
▁Del	-2638
▁Did	-2639
▁Dir	-2640
▁Fin	-2641
▁Har	-2642
▁Kad	-2643
▁Kam	-2644
▁Kat	-2645
▁Ker	-2646
▁Kip	-2647
▁LaB	-2648
▁Lov	-2649
▁Mem	-2650
▁Nic	-2651
▁Nug	-2652
▁Pan	-2653
▁Sal	-2654
▁Sel	-2655
▁Sla	-2656
▁Thr	-2657
▁Wal	-2658
▁Wri	-2659
▁Yah	-2660
▁You	-2661
▁anc	-2662
▁arm	-2663
▁cat	-2664
▁dew	-2665
▁dig	-2666
▁end	-2667
▁era	-2668
▁est	-2669
▁hit	-2670
▁ibu	-2671
▁jar	-2672
▁jat	-2673
▁lap	-2674
▁log	-2675
▁mis	-2676
▁mon	-2677
▁mot	-2678
▁obl	-2679
▁pac	-2680
▁pin	-2681
▁sin	-2682
▁sub	-2683
▁sus	-2684
▁tab	-2685
▁taw	-2686
▁tet	-2687
abnya	-2688
adian	-2689
ahari	-2690
ajaan	-2691
akyat	-2692
alnya	-2693
andar	-2694
anksi	-2695
arian	-2696
asiun	-2697
benar	-2698
buhan	-2699
bulan	-2700
eluar	-2701
embus	-2702
enden	-2703
ensif	-2704
ephen	-2705
erang	-2706
eriks	-2707
fabet	-2708
garet	-2709
grasi	-2710
hawat	-2711
ibusi	-2712
igran	-2713
ihkan	-2714
illes	-2715
impan	-2716
indah	-2717
indak	-2718
india	-2719
ingen	-2720
insip	-2721
intah	-2722
isode	-2723
jelas	-2724
jikan	-2725
lahan	-2726
laman	-2727
lawan	-2728
ocrat	-2729
olina	-2730
omong	-2731
ompok	-2732
onjak	-2733
onsel	-2734
opher	-2735
puing	-2736
pulau	-2737
ropol	-2738
stitu	-2739
tabil	-2740
tihan	-2741
tonio	-2742
uasai	-2743
ulang	-2744
umbus	-2745
umpah	-2746
umpur	-2747
wasan	-2748
▁2013	-2749
▁Abad	-2750
▁Alas	-2751
▁Asli	-2752
▁Bagi	-2753
▁Baik	-2754
▁Bogd	-2755
▁Bris	-2756
▁Carl	-2757
▁Flor	-2758
▁Kita	-2759
▁Kont	-2760
▁Lord	-2761
▁Maya	-2762
▁Mish	-2763
▁Park	-2764
▁Paul	-2765
▁Perd	-2766
▁Raya	-2767
▁Real	-2768
▁Thut	-2769
▁Tiga	-2770
▁Twit	-2771
▁Uber	-2772
▁Wash	-2773
▁Will	-2774
▁aman	-2775
▁bala	-2776
▁bank	-2777
▁beku	-2778
▁daya	-2779
▁diak	-2780
▁eksp	-2781
▁emas	-2782
▁gaji	-2783
▁ibuk	-2784
▁jadi	-2785
▁juru	-2786
▁kaki	-2787
▁kaum	-2788
▁kebi	-2789
▁kepr	-2790
▁kode	-2791
▁kuno	-2792
▁land	-2793
▁nila	-2794
▁paru	-2795
▁pula	-2796
▁real	-2797
▁rela	-2798
▁rute	-2799
▁samp	-2800
▁seja	-2801
▁seni	-2802
▁seri	-2803
▁siap	-2804
▁suhu	-2805
▁suka	-2806
▁tamb	-2807
▁teks	-2808
▁tren	-2809
adaban	-2810
adikal	-2811
aikkan	-2812
akwaan	-2813
alaman	-2814
amanan	-2815
aminan	-2816
andang	-2817
angkah	-2818
angkat	-2819
angkau	-2820
arawan	-2821
asalah	-2822
asepsi	-2823
atikan	-2824
atuhan	-2825
bagian	-2826
borasi	-2827
ediaan	-2828
ekonom	-2829
embaga	-2830
enaran	-2831
enteng	-2832
entian	-2833
etahui	-2834
etujui	-2835
fikasi	-2836
iarkan	-2837
ingkan	-2838
ington	-2839
isinya	-2840
ombang	-2841
otensi	-2842
paikan	-2843
ucasus	-2844
ukuran	-2845
umpang	-2846
ungnya	-2847
usakan	-2848
▁1492,	-2849
▁1970-	-2850
▁2010,	-2851
▁2014.	-2852
▁2015,	-2853
▁2017.	-2854
▁Blunt	-2855
▁Empat	-2856
▁Henry	-2857
▁Khaan	-2858
▁Krist	-2859
▁Lebih	-2860
▁Opium	-2861
▁Oscar	-2862
▁Papua	-2863
▁Pasif	-2864
▁Pulau	-2865
▁Saint	-2866
▁Salah	-2867
▁Studi	-2868
▁Surat	-2869
▁Swiss	-2870
▁agama	-2871
▁aktif	-2872
▁alami	-2873
▁artis	-2874
▁badai	-2875
▁badan	-2876
▁berat	-2877
▁biaya	-2878
▁bodoh	-2879
▁bukti	-2880
▁cepat	-2881
▁cuaca	-2882
▁damai	-2883
▁emisi	-2884
▁fiksi	-2885
▁fokus	-2886
▁gurun	-2887
▁halus	-2888
▁iklan	-2889
▁jalur	-2890
▁juara	-2891
▁kehil	-2892
▁kelas	-2893
▁kelih	-2894
▁keseh	-2895
▁ketur	-2896
▁lapor	-2897
▁lawan	-2898
▁legal	-2899
▁lepas	-2900
▁lingk	-2901
▁liter	-2902
▁malam	-2903
▁massa	-2904
▁meman	-2905
▁merah	-2906
▁modal	-2907
▁model	-2908
▁musuh	-2909
▁nenek	-2910
▁opini	-2911
▁paksa	-2912
▁peran	-2913
▁perlu	-2914
▁pesta	-2915
▁pihak	-2916
▁pilot	-2917
▁pingg	-2918
▁pusat	-2919
▁refer	-2920
▁riset	-2921
▁ruang	-2922
▁sakit	-2923
▁selam	-2924
▁suatu	-2925
▁taman	-2926
▁tanda	-2927
▁timur	-2928
▁tokoh	-2929
▁tubuh	-2930
▁versi	-2931
▁video	-2932
▁yakin	-2933
aftaran	-2934
alisasi	-2935
angunan	-2936
arusnya	-2937
elajari	-2938
empatan	-2939
enangan	-2940
endapat	-2941
entuhan	-2942
ependen	-2943
idangan	-2944
inginan	-2945
isahkan	-2946
isipasi	-2947
kirakan	-2948
mainkan	-2949
rediksi	-2950
satunya	-2951
uksesan	-2952
wakilan	-2953
▁Apakah	-2954
▁Associ	-2955
▁Athena	-2956
▁Bagian	-2957
▁Bahasa	-2958
▁Balkan	-2959
▁Contoh	-2960
▁Gereja	-2961
▁Hindia	-2962
▁Invest	-2963
▁Karena	-2964
▁Martin	-2965
▁Minggu	-2966
▁Nicola	-2967
▁Nugini	-2968
▁Polisi	-2969
▁Powers	-2970
▁Seagal	-2971
▁Selasa	-2972
▁Sistem	-2973
▁Swedia	-2974
▁Valent	-2975
▁Winter	-2976
▁Wright	-2977
▁Yahudi	-2978
▁aturan	-2979
▁barang	-2980
▁berkeb	-2981
▁dewasa	-2982
▁elemen	-2983
▁estate	-2984
▁firaun	-2985
▁gambar	-2986
▁kadang	-2987
▁karbon	-2988
▁kemamp	-2989
▁kepent	-2990
▁komand	-2991
▁kritik	-2992
▁kurang	-2993
▁lokasi	-2994
▁mantan	-2995
▁materi	-2996
▁melaju	-2997
▁menang	-2998
▁menyes	-2999
▁pantai	-3000
▁pantas	-3001
▁parade	-3002
▁pengak	-3003
▁penyeb	-3004
▁perila	-3005
▁pernik	-3006
▁pindah	-3007
▁proses	-3008
▁protes	-3009
▁saling	-3010
▁sampai	-3011
▁sanksi	-3012
▁stabil	-3013
▁tangan	-3014
▁teater	-3015
▁tengah	-3016
angkaian	-3017
debatkan	-3018
eluruhan	-3019
engaruhi	-3020
jalankan	-3021
unggulan	-3022
▁Antonio	-3023
▁Beijing	-3024
▁Herodes	-3025
▁Institu	-3026
▁Jasmine	-3027
▁Katolik	-3028
▁Kipling	-3029
▁Kristen	-3030
▁Mishima	-3031
▁Sebagai	-3032
▁Twitter	-3033
▁alfabet	-3034
▁ancaman	-3035
▁asisten	-3036
▁catatan	-3037
▁dakwaan	-3038
▁didakwa	-3039
▁dikirim	-3040
▁dirilis	-3041
▁ditarik	-3042
▁ditulis	-3043
▁endapan	-3044
▁genting	-3045
▁hukuman	-3046
▁imigran	-3047
▁jawaban	-3048
▁koleksi	-3049
▁kontrol	-3050
▁meledak	-3051
▁membaca	-3052
▁memulai	-3053
▁menaruh	-3054
▁menikah	-3055
▁menjaga	-3056
▁menurun	-3057
▁merebut	-3058
▁merekam	-3059
▁merilis	-3060
▁operasi	-3061
▁pemirsa	-3062
▁permain	-3063
▁petugas	-3064
▁pikiran	-3065
▁program	-3066
▁radikal	-3067
▁sebelah	-3068
▁sekadar	-3069
▁standar	-3070
▁teratas	-3071
▁terkait	-3072
ekonomian	-3073
olaborasi	-3074
ropolitan	-3075
▁Brisbane	-3076
▁Britania	-3077
▁Carolina	-3078
▁Columbus	-3079
▁Democrat	-3080
▁Margaret	-3081
▁Nasional	-3082
▁Thutmose	-3083
▁Winstone	-3084
▁belakang	-3085
▁berakhir	-3086
▁berkuasa	-3087
▁berlayar	-3088
▁dalamnya	-3089
▁kalender	-3090
▁kandidat	-3091
▁keamanan	-3092
▁keduanya	-3093
▁keuangan	-3094
▁matahari	-3095
▁memegang	-3096
▁memimpin	-3097
▁mendarat	-3098
▁mengalir	-3099
▁mengarah	-3100
▁mengejar	-3101
▁mengerti	-3102
▁menjabat	-3103
▁menunggu	-3104
▁menyerah	-3105
▁menyingk	-3106
▁obligasi	-3107
▁partikel	-3108
▁pasangan	-3109
▁pemenang	-3110
▁penonton	-3111
▁reputasi	-3112
▁sebabnya	-3113
▁struktur	-3114
▁tentunya	-3115
▁terbatas	-3116
▁terbunuh	-3117
▁terpilih	-3118
▁terpisah	-3119
pertanyaan	-3120
▁Finlandia	-3121
▁Hitchcock	-3122
▁Valentino	-3123
▁bermaksud	-3124
▁bertindak	-3125
▁dengannya	-3126
▁diketahui	-3127
▁dimainkan	-3128
▁dipandang	-3129
▁gelombang	-3130
▁kariernya	-3131
▁keinginan	-3132
▁kejatuhan	-3133
▁kemanusia	-3134
▁kerusakan	-3135
▁keturunan	-3136
▁melampaui	-3137
▁membatasi	-3138
▁menaikkan	-3139
▁menderita	-3140
▁menguasai	-3141
▁meningkat	-3142
▁menyerang	-3143
▁pelanggan	-3144
▁penumpang	-3145
▁peradaban	-3146
▁peristiwa	-3147
▁pinggiran	-3148
▁tampaknya	-3149
▁tersangka	-3150
▁wawancara	-3151
▁Pengadilan	-3152
▁Perusahaan	-3153
▁Washington	-3154
▁dijalankan	-3155
▁diprediksi	-3156
▁jabatannya	-3157
▁kehilangan	-3158
▁kekaisaran	-3159
▁kemunduran	-3160
▁keuntungan	-3161
▁melaporkan	-3162
▁memasukkan	-3163
▁membiarkan	-3164
▁membuatnya	-3165
▁memikirkan	-3166
▁menghadiri	-3167
▁mengundang	-3168
▁menjangkau	-3169
▁organisasi	-3170
▁pembangkit	-3171
▁pendapatan	-3172
▁pengalaman	-3173
▁pengawasan	-3174
▁sebenarnya	-3175
▁seharusnya	-3176
▁Christopher	-3177
▁Pertengahan	-3178
▁berpengaruh	-3179
▁dihancurkan	-3180
▁diterbitkan	-3181
▁kepentingan	-3182
▁keseluruhan	-3183
▁kontrasepsi	-3184
▁membintangi	-3185
▁menaklukkan	-3186
▁menampilkan	-3187
▁menjalankan	-3188
▁menyalahkan	-3189
▁menyarankan	-3190
▁menyelidiki	-3191
▁menyerahkan	-3192
▁pelanggaran	-3193
▁pembangunan	-3194
▁pendaftaran	-3195
▁pengunungan	-3196
▁persidangan	-3197
▁tradisional	-3198
▁Pemerintahan	-3199
▁Penyelidikan	-3200
▁Pertandingan	-3201
▁ditinggalkan	-3202
▁keberhasilan	-3203
▁kemampuannya	-3204
▁keterampilan	-3205
▁mengharapkan	-3206
▁menghentikan	-3207
▁mengingatkan	-3208
▁mengumpulkan	-3209
▁pengembangan	-3210
▁perekonomian	-3211
▁berkebangsaan	-3212
▁diperdebatkan	-3213
▁mengembangkan	-3214
▁memperkenalkan	-3215
0%	-3216
50	-3217
8.	-3218
94	-3219
Pr	-3220
ni	-3221
ny	-3222
ps	-3223
rr	-3224
03,	-3225
60.	-3226
760	-3227
The	-3228
ame	-3229
aro	-3230
ayu	-3231
bel	-3232
cad	-3233
cap	-3234
dal	-3235
dis	-3236
eku	-3237
emy	-3238
eou	-3239
esh	-3240
esp	-3241
fas	-3242
gal	-3243
gow	-3244
hai	-3245
iak	-3246
iao	-3247
ilb	-3248
iro	-3249
ive	-3250
jek	-3251
kap	-3252
let	-3253
lez	-3254
low	-3255
oda	-3256
oga	-3257
ono	-3258
ora	-3259
ore	-3260
oss	-3261
ous	-3262
pet	-3263
ram	-3264
ras	-3265
rey	-3266
ric	-3267
rix	-3268
rol	-3269
sin	-3270
vei	-3271
wab	-3272
wal	-3273
was	-3274
yne	-3275
▁$2	-3276
▁12	-3277
▁21	-3278
▁33	-3279
▁90	-3280
▁NA	-3281
▁Pe	-3282
▁Ph	-3283
▁Po	-3284
▁TV	-3285
▁ad	-3286
▁ah	-3287
▁hi	-3288
▁id	-3289
▁sm	-3290
▁uc	-3291
aceb	-3292
acun	-3293
adir	-3294
agan	-3295
ahap	-3296
ahul	-3297
ajak	-3298
ajam	-3299
6%	-3300
EC	-3301
OP	-3302
bi	-3303
fi	-3304
my	-3305
ng	-3306
ue	-3307
za	-3308
ECO	-3309
amm	-3310
amu	-3311
chu	-3312
gia	-3313
ire	-3314
olm	-3315
onj	-3316
rav	-3317
sek	-3318
sig	-3319
tup	-3320
uke	-3321
▁53	-3322
▁Gr	-3323
▁Mc	-3324
akia	-3325
alat	-3326
alok	-3327
amah	-3328
amil	-3329
andu	-3330
angl	-3331
anut	-3332
apus	-3333
arez	-3334
aria	-3335
arki	-3336
arkt	-3337
arta	-3338
arth	-3339
asah	-3340
atka	-3341
awan	-3342
cena	-3343
dewa	-3344
diam	-3345
drin	-3346
efin	-3347
eive	-3348
ejak	-3349
ekut	-3350
elmi	-3351
eman	-3352
emat	-3353
emeh	-3354
emui	-3355
enic	-3356
enya	-3357
erai	-3358
ergi	-3359
erit	-3360
erus	-3361
esta	-3362
etuj	-3363
ewat	-3364
fesi	-3365
ford	-3366
geri	-3367
ikap	-3368
imal	-3369
isan	-3370
isis	-3371
itif	-3372
kita	-3373
lagi	-3374
lami	-3375
latf	-3376
lein	-3377
mbut	-3378
nest	-3379
olis	-3380
omas	-3381
onan	-3382
oner	-3383
onte	-3384
oral	-3385
ords	-3386
otif	-3387
ouch	-3388
ouis	-3389
ouse	-3390
ower	-3391
oyne	-3392
ring	-3393
romi	-3394
roso	-3395
sasi	-3396
sial	-3397
sisa	-3398
spir	-3399
'.	-3400
4,	-3401
FC	-3402
HS	-3403
ID	-3404
TA	-3405
cu	-3406
eu	-3407
jm	-3408
mu	-3409
pr	-3410
zh	-3411
zl	-3412
abi	-3413
eet	-3414
erh	-3415
hoa	-3416
iam	-3417
ild	-3418
ins	-3419
ior	-3420
osp	-3421
san	-3422
sen	-3423
ser	-3424
sus	-3425
▁34	-3426
▁Rh	-3427
▁ev	-3428
▁gr	-3429
aina	-3430
ampu	-3431
atis	-3432
atus	-3433
jang	-3434
kota	-3435
mith	-3436
onor	-3437
paya	-3438
stan	-3439
stil	-3440
tama	-3441
ting	-3442
ulut	-3443
untu	-3444
urus	-3445
usak	-3446
usin	-3447
usul	-3448
uter	-3449
utor	-3450
wari	-3451
xand	-3452
ález	-3453
▁...	-3454
▁1.3	-3455
▁107	-3456
▁156	-3457
▁183	-3458
▁185	-3459
▁187	-3460
▁60-	-3461
▁Abb	-3462
▁Aku	-3463
▁Alv	-3464
▁App	-3465
▁Aug	-3466
▁Bre	-3467
▁Cec	-3468
▁Cot	-3469
▁DNA	-3470
▁End	-3471
▁Era	-3472
▁Erd	-3473
▁Est	-3474
▁For	-3475
▁GOP	-3476
▁Gez	-3477
▁Hor	-3478
▁Jim	-3479
▁Lag	-3480
▁Lat	-3481
▁Man	-3482
▁Mps	-3483
▁Par	-3484
▁Pel	-3485
▁Pho	-3486
▁Rec	-3487
▁Sak	-3488
▁Sir	-3489
▁Sis	-3490
▁Son	-3491
▁Tak	-3492
▁Tes	-3493
▁Und	-3494
▁Ven	-3495
▁Von	-3496
▁Whe	-3497
▁agr	-3498
▁bon	-3499
,5	-3500
bu	-3501
hi	-3502
nd	-3503
ado	-3504
aka	-3505
aku	-3506
att	-3507
ead	-3508
ges	-3509
gum	-3510
lak	-3511
lap	-3512
oln	-3513
onz	-3514
ool	-3515
tic	-3516
uma	-3517
ums	-3518
▁$1	-3519
▁Av	-3520
▁Ik	-3521
▁ch	-3522
▁co	-3523
▁ik	-3524
▁kl	-3525
▁pu	-3526
▁ta	-3527
agar	-3528
awal	-3529
enis	-3530
etis	-3531
ibun	-3532
idik	-3533
lain	-3534
nama	-3535
ndar	-3536
okan	-3537
olar	-3538
urah	-3539
ward	-3540
▁Ped	-3541
▁Sum	-3542
▁amb	-3543
▁buj	-3544
▁dij	-3545
▁gab	-3546
▁hel	-3547
▁hem	-3548
▁imp	-3549
▁inv	-3550
▁jaj	-3551
▁kas	-3552
▁key	-3553
▁kil	-3554
▁kob	-3555
▁kod	-3556
▁mah	-3557
▁mau	-3558
▁non	-3559
▁pah	-3560
▁tip	-3561
▁und	-3562
▁yud	-3563
▁zod	-3564
▁£12	-3565
Curie	-3566
abang	-3567
abrik	-3568
acebo	-3569
adrid	-3570
ahami	-3571
ailis	-3572
akram	-3573
aktik	-3574
aktor	-3575
alano	-3576
anaan	-3577
anita	-3578
anjir	-3579
ansas	-3580
antor	-3581
apole	-3582
aptis	-3583
arlin	-3584
askah	-3585
atnya	-3586
autan	-3587
chael	-3588
diper	-3589
divid	-3590
duser	-3591
ecual	-3592
edera	-3593
eliti	-3594
elola	-3595
eltic	-3596
emium	-3597
empur	-3598
enaga	-3599
An	-3600
CB	-3601
age	-3602
dan	-3603
ebe	-3604
osk	-3605
ret	-3606
uki	-3607
▁28	-3608
▁Be	-3609
▁Bu	-3610
▁IV	-3611
▁VW	-3612
agle	-3613
akai	-3614
alih	-3615
andi	-3616
ayar	-3617
emuk	-3618
exit	-3619
imia	-3620
itur	-3621
okok	-3622
tori	-3623
ulia	-3624
▁Dib	-3625
▁Kla	-3626
▁Mah	-3627
▁Mel	-3628
▁Min	-3629
▁Nil	-3630
▁Pia	-3631
▁Seg	-3632
▁Ukr	-3633
▁bet	-3634
▁det	-3635
▁jut	-3636
▁nut	-3637
▁tib	-3638
agang	-3639
amarr	-3640
artph	-3641
dalam	-3642
encan	-3643
encar	-3644
engar	-3645
erdas	-3646
ernur	-3647
esaan	-3648
esies	-3649
estik	-3650
evisi	-3651
getar	-3652
iayai	-3653
ileri	-3654
iliki	-3655
imbah	-3656
inson	-3657
ipuan	-3658
ironm	-3659
isang	-3660
isial	-3661
itasi	-3662
jaman	-3663
jemen	-3664
kapai	-3665
lasik	-3666
latih	-3667
lobin	-3668
nyata	-3669
olden	-3670
oliot	-3671
olkan	-3672
omers	-3673
ompey	-3674
ongan	-3675
onsor	-3676
osisi	-3677
oskop	-3678
otify	-3679
ovasi	-3680
owman	-3681
pansi	-3682
pihan	-3683
ranco	-3684
ratik	-3685
rolan	-3686
round	-3687
sberg	-3688
sifat	-3689
trans	-3690
turut	-3691
uduki	-3692
uncil	-3693
urvei	-3694
utput	-3695
utupi	-3696
ville	-3697
vinsi	-3698
wasta	-3699
sk	-3700
epi	-3701
jau	-3702
kep	-3703
oti	-3704
tip	-3705
uju	-3706
weg	-3707
▁Cr	-3708
▁Ms	-3709
▁RS	-3710
akta	-3711
anja	-3712
edah	-3713
edit	-3714
eouf	-3715
iksa	-3716
irip	-3717
itti	-3718
korn	-3719
lahr	-3720
omer	-3721
sias	-3722
tawa	-3723
tion	-3724
udid	-3725
uduh	-3726
udul	-3727
ulti	-3728
▁500	-3729
▁Dep	-3730
▁Dom	-3731
▁Mod	-3732
▁Mon	-3733
▁Ter	-3734
▁Tuj	-3735
▁kag	-3736
▁peg	-3737
▁pla	-3738
▁tua	-3739
andia	-3740
andum	-3741
benda	-3742
tanda	-3743
wegia	-3744
▁$1,5	-3745
▁1916	-3746
▁1960	-3747
▁1991	-3748
▁2004	-3749
▁2015	-3750
▁Acad	-3751
▁Akan	-3752
▁Angg	-3753
▁Angk	-3754
▁Arab	-3755
▁Atau	-3756
▁Bala	-3757
▁Baru	-3758
▁Bass	-3759
▁Bell	-3760
▁Bill	-3761
▁Bond	-3762
▁Burg	-3763
▁Cape	-3764
▁Ceko	-3765
▁Comm	-3766
▁Doss	-3767
▁Duke	-3768
▁Edin	-3769
▁Ford	-3770
▁Fran	-3771
▁Glas	-3772
▁Gonz	-3773
▁Hisp	-3774
▁Karn	-3775
▁Kaum	-3776
▁Lalu	-3777
▁Lenn	-3778
▁Liao	-3779
▁Linc	-3780
▁Luar	-3781
▁Mark	-3782
▁Mojm	-3783
▁Mons	-3784
▁News	-3785
▁Norm	-3786
▁Palm	-3787
▁Paus	-3788
▁Pebe	-3789
▁Prot	-3790
▁Pugh	-3791
▁Rach	-3792
▁Ramb	-3793
▁Saat	-3794
▁Sami	-3795
▁Sens	-3796
▁Serv	-3797
▁Skot	-3798
▁Slav	-3799
idi	-3800
uba	-3801
▁Ep	-3802
▁ge	-3803
▁ya	-3804
ahab	-3805
asis	-3806
egah	-3807
fasc	-3808
risi	-3809
uatu	-3810
▁20,	-3811
▁Air	-3812
▁Cup	-3813
▁Jul	-3814
▁Jut	-3815
▁Keb	-3816
▁Lib	-3817
▁Mus	-3818
▁Neg	-3819
▁Ros	-3820
▁kaw	-3821
▁rib	-3822
besar	-3823
burgh	-3824
endek	-3825
endum	-3826
intas	-3827
limat	-3828
sinya	-3829
upaya	-3830
yanan	-3831
▁Kali	-3832
▁Kuba	-3833
▁Miss	-3834
▁Nama	-3835
▁Suku	-3836
▁Tina	-3837
▁Town	-3838
▁Trix	-3839
▁Well	-3840
▁agak	-3841
▁ahli	-3842
▁akal	-3843
▁akun	-3844
▁antu	-3845
▁awan	-3846
▁ayah	-3847
▁babi	-3848
▁band	-3849
▁bara	-3850
▁berj	-3851
▁besi	-3852
▁blog	-3853
▁debu	-3854
▁diad	-3855
▁disa	-3856
▁dita	-3857
▁diwa	-3858
▁ekos	-3859
▁elit	-3860
▁guru	-3861
▁hara	-3862
▁jurn	-3863
▁kait	-3864
▁kano	-3865
▁kayu	-3866
▁keag	-3867
▁keen	-3868
▁kena	-3869
▁klub	-3870
▁lamp	-3871
▁lans	-3872
▁main	-3873
▁ment	-3874
▁opsi	-3875
▁peja	-3876
▁perc	-3877
▁peta	-3878
▁poin	-3879
▁pres	-3880
▁purn	-3881
▁rent	-3882
▁roda	-3883
▁semb	-3884
▁sisa	-3885
▁skan	-3886
▁ster	-3887
▁suar	-3888
▁tepi	-3889
▁tiba	-3890
▁timb	-3891
▁turn	-3892
▁ucap	-3893
▁wakt	-3894
▁zona	-3895
▁£760	-3896
5.000.	-3897
abisan	-3898
adatan	-3899
set	-3900
▁Bo	-3901
osot	-3902
▁And	-3903
▁Env	-3904
amati	-3905
enanj	-3906
otaan	-3907
▁Wang	-3908
▁Yuan	-3909
adikan	-3910
ahasia	-3911
ainkan	-3912
ajelis	-3913
ajukan	-3914
akaian	-3915
akinan	-3916
akuasi	-3917
alangi	-3918
alenta	-3919
ameran	-3920
ampany	-3921
antuan	-3922
arahan	-3923
arakan	-3924
arinya	-3925
aterai	-3926
awanya	-3927
bangsa	-3928
cayaan	-3929
ebasan	-3930
ebriti	-3931
edakan	-3932
egahan	-3933
ekutif	-3934
enakan	-3935
engand	-3936
enjata	-3937
entasi	-3938
epatan	-3939
erahan	-3940
erhana	-3941
erinya	-3942
ersial	-3943
esalan	-3944
estasi	-3945
etakan	-3946
eteksi	-3947
gumkan	-3948
hirnya	-3949
ibutor	-3950
ikanya	-3951
ikinya	-3952
indari	-3953
inding	-3954
ingham	-3955
intasi	-3956
invest	-3957
isikan	-3958
kemuka	-3959
lantik	-3960
likasi	-3961
muasal	-3962
oalisi	-3963
ompong	-3964
ontrol	-3965
osiasi	-3966
osikan	-3967
otanya	-3968
ricone	-3969
roklam	-3970
sumber	-3971
tempat	-3972
truksi	-3973
uaskan	-3974
udukan	-3975
ulauan	-3976
ulitan	-3977
ungguh	-3978
urance	-3979
wakili	-3980
xander	-3981
yboard	-3982
▁1770,	-3983
▁1911,	-3984
▁1914,	-3985
▁1960-	-3986
▁1976,	-3987
▁1980-	-3988
▁1990-	-3989
▁1997.	-3990
▁2003,	-3991
▁2007,	-3992
▁2011,	-3993
▁2012,	-3994
▁Agung	-3995
▁Album	-3996
▁Anaya	-3997
▁Andes	-3998
▁Angel	-3999
▁Angka	-4000
▁Badai	-4001
▁Biara	-4002
▁Bonds	-4003
▁Chris	-4004
▁David	-4005
▁Delta	-4006
▁Demok	-4007
▁Geyer	-4008
▁Herzl	-4009
▁Hills	-4010
▁Hitam	-4011
▁House	-4012
▁Iklim	-4013
▁James	-4014
▁Kamis	-4015
▁Kanal	-4016
▁Karel	-4017
▁Kerja	-4018
▁Klein	-4019
▁Latin	-4020
▁Leive	-4021
▁Louis	-4022
▁Marco	-4023
▁Maret	-4024
▁Meiji	-4025
▁Metro	-4026
▁Mobil	-4027
▁Mulai	-4028
▁Musim	-4029
▁Obama	-4030
▁Pengh	-4031
▁Puluh	-4032
▁Punta	-4033
▁Pyong	-4034
▁Rames	-4035
▁Roman	-4036
▁Saham	-4037
▁Sahel	-4038
▁Santa	-4039
▁Siapa	-4040
▁Strat	-4041
▁Sudah	-4042
▁Taman	-4043
▁Union	-4044
▁Upaya	-4045
▁Wheel	-4046
▁Yesus	-4047
▁admin	-4048
▁alarm	-4049
▁bahan	-4050
▁balik	-4051
▁bangs	-4052
▁beban	-4053
▁benda	-4054
▁bersa	-4055
▁celah	-4056
▁cukup	-4057
▁curah	-4058
▁danau	-4059
▁darah	-4060
▁debat	-4061
▁dewan	-4062
▁diaba	-4063
▁diand	-4064
▁ditem	-4065
▁edisi	-4066
▁etnis	-4067
▁fakta	-4068
▁final	-4069
▁fitur	-4070
▁ganja	-4071
▁garis	-4072
▁gener	-4073
▁gitar	-4074
▁habis	-4075
▁hadir	-4076
▁hasil	-4077
▁hemog	-4078
▁hewan	-4079
▁hijau	-4080
▁human	-4081
▁ident	-4082
▁impor	-4083
▁jatuh	-4084
▁kabar	-4085
▁kabut	-4086
▁kapel	-4087
▁kartu	-4088
▁kaval	-4089
▁keind	-4090
▁keker	-4091
▁kelah	-4092
▁kenal	-4093
▁keper	-4094
▁kesal	-4095
▁kimia	-4096
▁label	-4097
▁labor	-4098
▁lewat	-4099
▁lihat	-4100
▁lokal	-4101
▁malah	-4102
▁mampu	-4103
▁medis	-4104
▁melah	-4105
▁memuj	-4106
▁menaw	-4107
▁menit	-4108
▁mercu	-4109
▁meter	-4110
▁milik	-4111
▁mirip	-4112
▁moral	-4113
▁motor	-4114
▁ngeri	-4115
▁nilai	-4116
▁olahr	-4117
▁omong	-4118
▁pajak	-4119
▁pakar	-4120
▁palem	-4121
▁pasti	-4122
▁patut	-4123
▁pengg	-4124
▁pesan	-4125
▁platf	-4126
▁pohon	-4127
▁polit	-4128
▁prase	-4129
▁puing	-4130
▁puisi	-4131
▁pulih	-4132
▁pupuk	-4133
▁putih	-4134
▁radar	-4135
▁retor	-4136
▁riang	-4137
▁rilis	-4138
▁rutin	-4139
▁samar	-4140
▁saran	-4141
▁sehat	-4142
▁siswa	-4143
▁super	-4144
▁tajam	-4145
▁tarif	-4146
▁tentu	-4147
▁teori	-4148
▁tingg	-4149
▁turun	-4150
▁urban	-4151
▁usaha	-4152
▁utang	-4153
▁wafat	-4154
▁wajah	-4155
▁warga	-4156
▁warna	-4157
Beijing	-4158
acebook	-4159
adangan	-4160
ahankan	-4161
akannya	-4162
aksikan	-4163
aksimal	-4164
alikota	-4165
amankan	-4166
amannya	-4167
amennya	-4168
amerkan	-4169
anggang	-4170
anginya	-4171
anglima	-4172
anyakan	-4173
apoleon	-4174
arktika	-4175
asionis	-4176
ayangan	-4177
besaran	-4178
cenaean	-4179
ekankan	-4180
elahian	-4181
embakan	-4182
emehkan	-4183
engkapi	-4184
enician	-4185
enovasi	-4186
ensinya	-4187
erjakan	-4188
etakkan	-4189
etapkan	-4190
faatkan	-4191
fascist	-4192
hatikan	-4193
indukan	-4194
iptakan	-4195
lakinya	-4196
lakukan	-4197
lowakia	-4198
okteran	-4199
ominasi	-4200
ompromi	-4201
operasi	-4202
ormatan	-4203
orongan	-4204
otsford	-4205
perimen	-4206
perinci	-4207
spirasi	-4208
tivitas	-4209
ubernur	-4210
unculan	-4211
unjukan	-4212
usiness	-4213
yangnya	-4214
▁Alaska	-4215
▁Aldrin	-4216
▁Apulia	-4217
▁Banyak	-4218
▁Belgia	-4219
▁Berita	-4220
▁Brasil	-4221
▁Brexit	-4222
▁Caesar	-4223
▁Carlos	-4224
▁Carson	-4225
▁Celtic	-4226
▁Cotton	-4227
▁Cumber	-4228
▁Danube	-4229
▁George	-4230
▁Ground	-4231
▁Gunung	-4232
▁Indian	-4233
▁Itulah	-4234
▁Joliot	-4235
▁Kadesh	-4236
▁Kajian	-4237
▁Kanaan	-4238
▁Kansas	-4239
▁Khitan	-4240
▁Lamarr	-4241
▁Madrid	-4242
▁Mailis	-4243
▁Manchu	-4244
▁Modern	-4245
▁Partai	-4246
▁Persia	-4247
▁Philip	-4248
▁Pompey	-4249
▁Reagan	-4250
▁Really	-4251
▁Sahara	-4252
▁Sangat	-4253
▁School	-4254
▁Setiap	-4255
▁Sparta	-4256
▁Spring	-4257
▁Street	-4258
▁Thomas	-4259
▁Thrace	-4260
▁Tinggi	-4261
▁Tujuan	-4262
▁adanya	-4263
▁akurat	-4264
▁aliran	-4265
▁altern	-4266
▁analis	-4267
▁armada	-4268
▁asmara	-4269
▁banjir	-4270
▁berdua	-4271
▁berori	-4272
▁betapa	-4273
▁bilang	-4274
▁cakram	-4275
▁cedera	-4276
▁cendek	-4277
▁cender	-4278
▁cerdas	-4279
▁daftar	-4280
▁desain	-4281
▁dibuka	-4282
▁diduga	-4283
▁dipicu	-4284
▁ditumb	-4285
▁faktor	-4286
▁gandum	-4287
▁gunung	-4288
▁hormat	-4289
▁invasi	-4290
▁itulah	-4291
▁jarang	-4292
▁kajian	-4293
▁kantor	-4294
▁kapita	-4295
▁klimat	-4296
▁komedi	-4297
▁komisi	-4298
▁konsep	-4299
▁konyol	-4300
▁laguna	-4301
▁limbah	-4302
▁lumpur	-4303
▁maksud	-4304
▁memang	-4305
▁memicu	-4306
▁mengaj	-4307
▁mengas	-4308
▁menges	-4309
▁menonj	-4310
▁menuju	-4311
▁metode	-4312
▁naskah	-4313
▁pabrik	-4314
▁pacuan	-4315
▁pascap	-4316
▁patung	-4317
▁pelobi	-4318
▁pencal	-4319
▁penutu	-4320
▁petani	-4321
▁petisi	-4322
▁ponsel	-4323
▁poster	-4324
▁puncak	-4325
▁rakyat	-4326
▁rambut	-4327
▁rekons	-4328
▁sehari	-4329
▁sejauh	-4330
▁sepatu	-4331
▁setara	-4332
▁studio	-4333
▁sukses	-4334
▁sumpah	-4335
▁swasta	-4336
▁tambah	-4337
▁tangga	-4338
▁tautan	-4339
▁teknik	-4340
▁temper	-4341
▁terbit	-4342
▁tribun	-4343
▁ukuran	-4344
▁vulkan	-4345
▁wanita	-4346
▁zodiak	-4347
ahabatan	-4348
ahasiswa	-4349
artphone	-4350
ayangkan	-4351
caucasus	-4352
elektual	-4353
eluarkan	-4354
enanjung	-4355
enggelam	-4356
entangan	-4357
enterian	-4358
eriksaan	-4359
fesional	-4360
ihatinan	-4361
indahkan	-4362
ingannya	-4363
partikel	-4364
sifikasi	-4365
sitektur	-4366
ubungkan	-4367
uncurkan	-4368
▁Academy	-4369
▁Alvarez	-4370
▁Anselmi	-4371
▁Austria	-4372
▁Erdogan	-4373
▁Florida	-4374
▁Glasgow	-4375
▁Jutting	-4376
▁LaBeouf	-4377
▁Lincoln	-4378
▁Manusia	-4379
▁Mengand	-4380
▁Michael	-4381
▁Nicolai	-4382
▁Pasifik	-4383
▁Pasukan	-4384
▁Perdana	-4385
▁Periode	-4386
▁Premium	-4387
▁Samudra	-4388
▁Sisilia	-4389
▁Snowman	-4390
▁Spotify	-4391
▁Starlin	-4392
▁Stephen	-4393
▁Tentara	-4394
▁Tradisi	-4395
▁Ukraina	-4396
▁Venesia	-4397
▁William	-4398
▁agresif	-4399
▁angkasa	-4400
▁artinya	-4401
▁ayahnya	-4402
▁balapan	-4403
▁bantuan	-4404
▁baterai	-4405
▁bencana	-4406
▁berhati	-4407
▁bioskop	-4408
▁dibudid	-4409
▁digital	-4410
▁dipilih	-4411
▁ditutup	-4412
▁episode	-4413
▁harapan	-4414
▁hiburan	-4415
▁ibukota	-4416
▁individ	-4417
▁jajaran	-4418
▁jalanan	-4419
▁kandung	-4420
▁kawasan	-4421
▁kecuali	-4422
▁ketidak	-4423
▁komando	-4424
▁konseku	-4425
▁konteks	-4426
▁kuburan	-4427
▁lakukan	-4428
▁langkah	-4429
▁lanskap	-4430
▁latihan	-4431
▁layanan	-4432
▁liburan	-4433
▁lingkup	-4434
▁memakai	-4435
▁memaksa	-4436
▁membagi	-4437
▁membeli	-4438
▁menemui	-4439
▁menuduh	-4440
▁menurut	-4441
▁mineral	-4442
▁musikal	-4443
▁nutrisi	-4444
▁obrolan	-4445
▁pakaian	-4446
▁pameran	-4447
▁pandang	-4448
▁panduan	-4449
▁patahan	-4450
▁pejabat	-4451
▁pemilih	-4452
▁penjaga	-4453
▁perlind	-4454
▁pilihan	-4455
▁populer	-4456
▁praktik	-4457
▁prinsip	-4458
▁purnama	-4459
▁rekaman	-4460
▁relawan	-4461
▁saluran	-4462
▁samudra	-4463
▁selamat	-4464
▁seniman	-4465
▁sepuluh	-4466
▁sesuatu	-4467
▁singkat	-4468
▁skandal	-4469
▁spesies	-4470
▁sponsor	-4471
▁stasiun	-4472
▁susunan	-4473
▁tahanan	-4474
▁tekanan	-4475
▁tekstil	-4476
▁telepon	-4477
▁terikat	-4478
▁tersisa	-4479
▁tertawa	-4480
▁tingkat	-4481
anduannya	-4482
angguhkan	-4483
elisahkan	-4484
larasikan	-4485
romosikan	-4486
▁Akhirnya	-4487
▁American	-4488
▁Analisis	-4489
▁Atlantik	-4490
▁Augustus	-4491
▁Berbagai	-4492
▁Burgoyne	-4493
▁Catalano	-4494
▁Direktur	-4495
▁Environm	-4496
▁Facebook	-4497
▁González	-4498
▁Hispania	-4499
▁Industri	-4500
▁Irlandia	-4501
▁Islandia	-4502
▁Kerajaan	-4503
▁Kristian	-4504
▁Napoleon	-4505
▁National	-4506
▁Norwegia	-4507
▁Perunggu	-4508
▁Polandia	-4509
▁Ramesses	-4510
▁Tenggara	-4511
▁Tionghoa	-4512
▁antusias	-4513
▁aplikasi	-4514
▁artileri	-4515
▁artistik	-4516
▁bergetar	-4517
▁bermakna	-4518
▁berpusat	-4519
▁bersifat	-4520
▁bertanya	-4521
▁depannya	-4522
▁diangkut	-4523
▁dipenuhi	-4524
▁disambut	-4525
▁disimpan	-4526
▁ditandai	-4527
▁ditawari	-4528
▁dorongan	-4529
▁ekspansi	-4530
▁evakuasi	-4531
▁gabungan	-4532
▁harganya	-4533
▁hasilnya	-4534
▁hormonal	-4535
▁intensif	-4536
▁jaringan	-4537
▁jurnalis	-4538
▁karyawan	-4539
▁kavaleri	-4540
▁kejadian	-4541
▁kelompok	-4542
▁kenaikan	-4543
▁kesamaan	-4544
▁konsumen	-4545
▁landmark	-4546
▁lapangan	-4547
▁logistik	-4548
▁maskapai	-4549
▁melarang	-4550
▁melonjak	-4551
▁memahami	-4552
▁memasang	-4553
▁membahas	-4554
▁menandai	-4555
▁mencegah	-4556
▁mengadop	-4557
▁mengukur	-4558
▁mengutip	-4559
▁menikahi	-4560
▁menutupi	-4561
▁menyelam	-4562
▁miliaran	-4563
▁misalnya	-4564
▁neneknya	-4565
▁olahraga	-4566
▁pedesaan	-4567
▁pemimpin	-4568
▁peneliti	-4569
▁pengaruh	-4570
▁pengguna	-4571
▁penguasa	-4572
▁penipuan	-4573
▁penyanyi	-4574
▁penyebab	-4575
▁perairan	-4576
▁perilaku	-4577
▁perintah	-4578
▁pinjaman	-4579
▁platform	-4580
▁produksi	-4581
▁properti	-4582
▁provinsi	-4583
▁republik	-4584
▁revolusi	-4585
▁sembilan	-4586
▁seminggu	-4587
▁serangan	-4588
▁setempat	-4589
▁setengah	-4590
▁sosialis	-4591
▁tanggung	-4592
▁televisi	-4593
▁tenggara	-4594
▁teoretis	-4595
▁terampil	-4596
▁terbakar	-4597
▁terburuk	-4598
▁terdapat	-4599
▁terlihat	-4600
▁turnamen	-4601
▁undangan	-4602
▁waktunya	-4603
▁yudisial	-4604
ampilannya	-4605
antisipasi	-4606
hawatirkan	-4607
perusahaan	-4608
▁Alexander	-4609
▁Edinburgh	-4610
▁Endurance	-4611
▁Institute	-4612
▁Kepulauan	-4613
▁Morricone	-4614
▁Mycenaean	-4615
▁Pyongyang	-4616
▁Sayangnya	-4617
▁Sepanjang	-4618
▁administr	-4619
▁bangsawan	-4620
▁banyaknya	-4621
▁berbentuk	-4622
▁berempati	-4623
▁berlanjut	-4624
▁bertempur	-4625
▁cenderung	-4626
▁diabaikan	-4627
▁dikatakan	-4628
▁diproklam	-4629
▁disajikan	-4630
▁ekosistem	-4631
▁eksekutif	-4632
▁ekspedisi	-4633
▁inspirasi	-4634
▁kaitannya	-4635
▁keagamaan	-4636
▁kebijakan	-4637
▁keindahan	-4638
▁kekalahan	-4639
▁kelahiran	-4640
▁kelihatan	-4641
▁kesehatan	-4642
▁kesulitan	-4643
▁ketenaran	-4644
▁keyakinan	-4645
▁kurangnya	-4646
▁legislasi	-4647
▁manajemen	-4648
▁melainkan	-4649
▁melintasi	-4650
▁memainkan	-4651
▁menangani	-4652
▁mendaftar	-4653
▁menduduki	-4654
▁mengalami	-4655
▁mengamati	-4656
▁menghapus	-4657
▁mengikuti	-4658
▁mengklaim	-4659
▁menjalani	-4660
▁menyaingi	-4661
▁menyambut	-4662
▁menyesali	-4663
▁negaranya	-4664
▁pelabuhan	-4665
▁pendatang	-4666
▁pengakuan	-4667
▁peralatan	-4668
▁perangkat	-4669
▁perkotaan	-4670
▁permainan	-4671
▁progresif	-4672
▁puterinya	-4673
▁reformasi	-4674
▁sederhana	-4675
▁sejarawan	-4676
▁sutradara	-4677
▁targetnya	-4678
▁terkemuka	-4679
▁tingginya	-4680
▁ungkapnya	-4681
▁Abbotsford	-4682
▁Cumberland	-4683
▁Demokratik	-4684
▁Departemen	-4685
▁Pertahanan	-4686
▁Phoenician	-4687
▁Skotlandia	-4688
▁Winterkorn	-4689
▁alternatif	-4690
▁belakangan	-4691
▁beroperasi	-4692
▁berpakaian	-4693
▁berpotensi	-4694
▁bersenjata	-4695
▁departemen	-4696
▁diandalkan	-4697
▁dibutuhkan	-4698
▁diharapkan	-4699
▁diinginkan	-4700
▁dilengkapi	-4701
▁dinyatakan	-4702
▁dipamerkan	-4703
▁eksperimen	-4704
▁gelanggang	-4705
▁hemoglobin	-4706
▁independen	-4707
▁intervensi	-4708
▁kekurangan	-4709
▁kemenangan	-4710
▁kepresiden	-4711
▁kesempatan	-4712
▁kesuksesan	-4713
▁keunggulan	-4714
▁kolaborasi	-4715
▁kontribusi	-4716
▁legislatif	-4717
▁melahirkan	-4718
▁melibatkan	-4719
▁melindungi	-4720
▁membawanya	-4721
▁menawarkan	-4722
▁menetapkan	-4723
▁menjadikan	-4724
▁menyetujui	-4725
▁meremehkan	-4726
▁pasukannya	-4727
▁pegunungan	-4728
▁pembuangan	-4729
▁pendudukan	-4730
▁penembakan	-4731
▁penguburan	-4732
▁penunjukan	-4733
▁pernikahan	-4734
▁persediaan	-4735
▁perwakilan	-4736
▁prasejarah	-4737
▁referendum	-4738
▁sejarahnya	-4739
▁sekitarnya	-4740
▁smartphone	-4741
▁terlupakan	-4742
▁terperinci	-4743
▁urbanisasi	-4744
investasikan	-4745
▁Association	-4746
▁Menggunakan	-4747
▁berpendapat	-4748
▁bersentuhan	-4749
▁ditampilkan	-4750
▁ditempatkan	-4751
▁ditumbuhkan	-4752
▁ditunjukkan	-4753
▁diwawancara	-4754
▁intelektual	-4755
▁kemanusiaan	-4756
▁kematiannya	-4757
▁kepercayaan	-4758
▁klimatologi	-4759
▁konservatif	-4760
▁mempelajari	-4761
▁memproduksi	-4762
▁menciptakan	-4763
▁mendominasi	-4764
▁menempatkan	-4765
▁mengagumkan	-4766
▁mengalahkan	-4767
▁mengamankan	-4768
▁menghindari	-4769
▁menontonnya	-4770
▁menyaksikan	-4771
▁menyertakan	-4772
▁pascaperang	-4773
▁pembentukan	-4774
▁pemberontak	-4775
▁pemeriksaan	-4776
▁penghentian	-4777
▁pengurangan	-4778
▁perkelahian	-4779
▁profesional	-4780
▁sebagaimana	-4781
▁semenanjung	-4782
▁serangkaian	-4783
▁berorientasi	-4784
▁dikembangkan	-4785
▁diperhatikan	-4786
▁diselesaikan	-4787
▁laboratorium	-4788
▁mempengaruhi	-4789
▁mengeluarkan	-4790
▁menggantikan	-4791
▁menyampaikan	-4792
▁menyenangkan	-4793
▁metropolitan	-4794
▁penyelidikan	-4795
▁perlindungan	-4796
▁International	-4797
▁berkembangnya	-4798
▁dibudidayakan	-4799
▁diperkenalkan	-4800
▁internasional	-4801
▁menghubungkan	-4802
▁menyingkapkan	-4803
▁temperamennya	-4804
▁diproklamirkan	-4805
▁ditandatangani	-4806
▁mempertahankan	-4807
▁menandatangani	-4808
▁menggelisahkan	-4809
▁mendeklarasikan	-4810
▁mengkhawatirkan	-4811
▁pemerintahannya	-4812
-8,	-4813
.16	-4814
GCA	-4815
IDS	-4816
Ini	-4817
bij	-4818
eux	-4819
exu	-4820
ksp	-4821
rrh	-4822
vie	-4823
yeo	-4824
-201	-4825
.165	-4826
.30-	-4827
360.	-4828
50),	-4829
Anda	-4830
Pith	-4831
RECO	-4832
aluw	-4833
ameo	-4834
askT	-4835
atán	-4836
bach	-4837
biji	-4838
eneu	-4839
ergy	-4840
exas	-4841
gora	-4842
ight	-4843
krip	-4844
ksan	-4845
lack	-4846
lano	-4847
lock	-4848
luvi	-4849
osph	-4850
pets	-4851
roli	-4852
ssen	-4853
umae	-4854
urán	-4855
valk	-4856
vole	-4857
wood	-4858
yono	-4859
zair	-4860
zhen	-4861
ánch	-4862
▁1%,	-4863
▁1,5	-4864
▁137	-4865
▁139	-4866
▁50;	-4867
▁56%	-4868
▁Atk	-4869
▁Dee	-4870
▁GCA	-4871
▁KFC	-4872
▁Lee	-4873
▁McG	-4874
▁NAT	-4875
▁NHS	-4876
▁Naz	-4877
▁NoM	-4878
▁RHS	-4879
▁RSP	-4880
▁Scy	-4881
▁Yaz	-4882
▁ero	-4883
▁pej	-4884
▁yay	-4885
▁£10	-4886
-2014	-4887
-2016	-4888
.30-1	-4889
Agora	-4890
David	-4891
aglev	-4892
ahore	-4893
ahulu	-4894
alifa	-4895
alkoh	-4896
alley	-4897
almad	-4898
almon	-4899
-16	-4900
30.	-4901
45,	-4902
hio	-4903
nio	-4904
▁71	-4905
-45,	-4906
94).	-4907
Prus	-4908
anni	-4909
arry	-4910
igui	-4911
udho	-4912
wald	-4913
▁70-	-4914
▁700	-4915
aktis	-4916
annis	-4917
aturd	-4918
avier	-4919
board	-4920
cerai	-4921
cerit	-4922
chler	-4923
denum	-4924
dessa	-4925
dioks	-4926
diser	-4927
efeux	-4928
egrim	-4929
eneto	-4930
erico	-4931
evalu	-4932
gabaz	-4933
ilbab	-4934
immer	-4935
injam	-4936
ironi	-4937
irsar	-4938
iskop	-4939
islav	-4940
ispat	-4941
itals	-4942
jahat	-4943
jamin	-4944
jawab	-4945
kamah	-4946
kieli	-4947
ladiv	-4948
lanet	-4949
leton	-4950
linda	-4951
liott	-4952
marag	-4953
mener	-4954
mping	-4955
nesty	-4956
nesus	-4957
obrok	-4958
ocket	-4959
ooper	-4960
orado	-4961
osped	-4962
othai	-4963
ought	-4964
owatt	-4965
rassi	-4966
rrhus	-4967
senia	-4968
setuj	-4969
sigen	-4970
sikap	-4971
tahap	-4972
teman	-4973
tipas	-4974
tugal	-4975
tugas	-4976
uluki	-4977
untuh	-4978
ursus	-4979
utria	-4980
viasi	-4981
yarsk	-4982
▁(191	-4983
▁1.36	-4984
▁1492	-4985
▁1632	-4986
▁1794	-4987
▁1886	-4988
▁1925	-4989
▁Adid	-4990
▁Alej	-4991
▁Aver	-4992
▁Aviv	-4993
▁Awal	-4994
▁Beog	-4995
▁Biro	-4996
▁Boem	-4997
▁Buck	-4998
▁Buen	-4999
3.4	-5000
93.	-5001
ynt	-5002
▁7,	-5003
3.00	-5004
ashi	-5005
erly	-5006
haus	-5007
olly	-5008
rosp	-5009
udha	-5010
ully	-5011
▁120	-5012
▁168	-5013
▁7,5	-5014
▁96,	-5015
3.45.	-5016
ather	-5017
ayion	-5018
chmer	-5019
ocros	-5020
otani	-5021
rosir	-5022
situs	-5023
uther	-5024
yntas	-5025
▁393.	-5026
▁Abak	-5027
▁Cour	-5028
▁Dean	-5029
▁Eksp	-5030
▁Erik	-5031
▁Fall	-5032
▁Foto	-5033
▁Garr	-5034
▁Gate	-5035
▁Gerr	-5036
▁Glor	-5037
▁Goog	-5038
▁Hack	-5039
▁Hall	-5040
▁Head	-5041
▁Hosp	-5042
▁Hugh	-5043
▁Jenn	-5044
▁Joan	-5045
▁July	-5046
▁Kebi	-5047
▁Keem	-5048
▁Ksat	-5049
▁Laur	-5050
▁Love	-5051
▁Mate	-5052
▁NATO	-5053
▁Nash	-5054
▁Ohio	-5055
▁Papw	-5056
▁Piag	-5057
▁Post	-5058
▁RECO	-5059
▁RSPB	-5060
▁Rico	-5061
▁Sabr	-5062
▁Salz	-5063
▁Samn	-5064
▁Sams	-5065
▁Scot	-5066
▁Snap	-5067
▁Summ	-5068
▁Tema	-5069
▁Terg	-5070
▁Wall	-5071
▁Wals	-5072
▁Walt	-5073
▁Watt	-5074
▁Wild	-5075
▁Wolm	-5076
▁YouT	-5077
▁blok	-5078
▁cuma	-5079
▁dolm	-5080
▁erat	-5081
▁etim	-5082
▁game	-5083
▁gaya	-5084
▁goal	-5085
▁grup	-5086
▁iman	-5087
▁kamu	-5088
▁kobo	-5089
▁lapt	-5090
▁luas	-5091
▁maka	-5092
▁mual	-5093
▁nonf	-5094
▁pikn	-5095
▁puas	-5096
▁retr	-5097
▁ribu	-5098
▁roti	-5099
19,	-5100
▁kru	-5101
▁upl	-5102
Mobil	-5103
lenda	-5104
otors	-5105
ropis	-5106
udrey	-5107
warna	-5108
▁(195	-5109
▁1858	-5110
▁Sony	-5111
▁adan	-5112
▁flap	-5113
▁helm	-5114
▁krim	-5115
▁obes	-5116
▁sald	-5117
▁soal	-5118
▁spek	-5119
▁spes	-5120
▁subs	-5121
▁tamu	-5122
▁taun	-5123
▁tipo	-5124
▁upay	-5125
▁£125	-5126
▁£15.	-5127
.30-10	-5128
3.000-	-5129
Klasik	-5130
abutan	-5131
acedon	-5132
agenet	-5133
aluwar	-5134
ambrid	-5135
ammers	-5136
ampuni	-5137
anjaro	-5138
armuka	-5139
atusan	-5140
avings	-5141
bijian	-5142
burkan	-5143
ection	-5144
ederai	-5145
editor	-5146
egeran	-5147
elakar	-5148
elalui	-5149
elanan	-5150
elekom	-5151
elepon	-5152
elidik	-5153
ematik	-5154
enario	-5155
enbach	-5156
enetis	-5157
engker	-5158
enness	-5159
entase	-5160
entsin	-5161
entuck	-5162
erberg	-5163
ergies	-5164
erties	-5165
espons	-5166
etrich	-5167
etulan	-5168
everly	-5169
geshir	-5170
getown	-5171
herine	-5172
hothai	-5173
iayaan	-5174
ichola	-5175
icroso	-5176
ildred	-5177
intado	-5178
integr	-5179
ishing	-5180
iskred	-5181
kiraan	-5182
koksig	-5183
kuasai	-5184
lintas	-5185
lorasi	-5186
nkieli	-5187
oleran	-5188
onesia	-5189
ontvie	-5190
orough	-5191
osting	-5192
ranean	-5193
ransfi	-5194
reeman	-5195
schmer	-5196
torial	-5197
torias	-5198
uangzh	-5199
▁45	-5200
▁6%	-5201
▁80	-5202
▁84	-5203
acau	-5204
arlo	-5205
eiss	-5206
ratt	-5207
▁141	-5208
▁600	-5209
▁Oln	-5210
astel	-5211
erbal	-5212
ismat	-5213
uliah	-5214
▁1415	-5215
▁Akta	-5216
▁Besi	-5217
▁Este	-5218
▁Oleh	-5219
▁Oliv	-5220
▁Open	-5221
▁Past	-5222
▁Rast	-5223
▁Terb	-5224
▁Yerb	-5225
▁baca	-5226
▁grat	-5227
astelf	-5228
asting	-5229
embaca	-5230
enaiss	-5231
ukisan	-5232
ulasan	-5233
ultasi	-5234
ultiet	-5235
umaham	-5236
vening	-5237
£5.000	-5238
ánchez	-5239
▁$103,	-5240
▁(1918	-5241
▁(1954	-5242
▁1.165	-5243
▁1.365	-5244
▁1399.	-5245
▁1492;	-5246
▁1519,	-5247
▁1530.	-5248
▁1839,	-5249
▁1856,	-5250
▁1860.	-5251
▁1879.	-5252
▁1882,	-5253
▁1887.	-5254
▁1918,	-5255
▁1926,	-5256
▁1945.	-5257
▁1947.	-5258
▁1950-	-5259
▁1952,	-5260
▁1955.	-5261
▁1960.	-5262
▁1962,	-5263
▁1969,	-5264
▁1973.	-5265
▁1977,	-5266
▁1993.	-5267
▁2012.	-5268
▁2014,	-5269
▁550),	-5270
▁6.000	-5271
▁Aires	-5272
▁Anshi	-5273
▁Appro	-5274
▁Artis	-5275
▁Avery	-5276
▁Aviva	-5277
▁Badan	-5278
▁Balai	-5279
▁Blood	-5280
▁Bosph	-5281
▁Bouch	-5282
▁Brice	-5283
▁Budha	-5284
▁Buena	-5285
▁Carlo	-5286
▁Cecel	-5287
▁Conte	-5288
▁Crist	-5289
▁Cumae	-5290
▁Diram	-5291
▁Domin	-5292
▁Durán	-5293
▁Edgar	-5294
▁Ennio	-5295
▁Erran	-5296
▁Essen	-5297
▁Filip	-5298
▁Frank	-5299
6%.	-5300
ftar	-5301
▁cha	-5302
arbon	-5303
damai	-5304
ectar	-5305
ektar	-5306
enset	-5307
isens	-5308
unity	-5309
upert	-5310
▁1981	-5311
▁1988	-5312
▁66%.	-5313
▁Curi	-5314
▁Didn	-5315
▁Graf	-5316
▁Jess	-5317
▁Lass	-5318
▁deda	-5319
▁draf	-5320
▁legi	-5321
▁resp	-5322
▁rinc	-5323
▁stat	-5324
Jadaan	-5325
daftar	-5326
enseth	-5327
gedung	-5328
ikatif	-5329
kadang	-5330
lambat	-5331
untess	-5332
walkan	-5333
▁1975.	-5334
▁Adden	-5335
▁Curio	-5336
▁Garth	-5337
▁Gaunt	-5338
▁Gerry	-5339
▁Gezer	-5340
▁Guilb	-5341
▁Halls	-5342
▁Holly	-5343
▁Homer	-5344
▁Honor	-5345
▁Istan	-5346
▁Jason	-5347
▁Jesse	-5348
▁Jimmy	-5349
▁Journ	-5350
▁Kartu	-5351
▁Karya	-5352
▁Kedut	-5353
▁Keira	-5354
▁Kemud	-5355
▁Kenya	-5356
▁Keseh	-5357
▁Kongo	-5358
▁Korin	-5359
▁LaBro	-5360
▁Lagip	-5361
▁Larry	-5362
▁Lasse	-5363
▁Layar	-5364
▁Lower	-5365
▁Miami	-5366
▁Molis	-5367
▁Monak	-5368
▁Monte	-5369
▁Montr	-5370
▁Norma	-5371
▁Organ	-5372
▁Outer	-5373
▁Paire	-5374
▁Palem	-5375
▁Palma	-5376
▁Pasca	-5377
▁Pedro	-5378
▁Pelop	-5379
▁Plano	-5380
▁Pluvi	-5381
▁Power	-5382
▁Press	-5383
▁Price	-5384
▁Puing	-5385
▁Retur	-5386
▁Romeo	-5387
▁Rosan	-5388
▁Sakit	-5389
▁Sally	-5390
▁Schul	-5391
▁Scots	-5392
▁Scott	-5393
▁Scyth	-5394
▁Segel	-5395
▁Senin	-5396
▁Shack	-5397
▁Smith	-5398
▁Suami	-5399
▁iz	-5400
bell	-5401
burn	-5402
ello	-5403
gesa	-5404
orie	-5405
tein	-5406
ucca	-5407
▁Blo	-5408
▁Cly	-5409
▁kre	-5410
▁£1,	-5411
cayai	-5412
chell	-5413
ereja	-5414
horie	-5415
itori	-5416
peten	-5417
studi	-5418
▁1980	-5419
▁Clar	-5420
▁Clyd	-5421
▁Enri	-5422
▁Kori	-5423
▁Shep	-5424
▁Tell	-5425
▁Tori	-5426
▁Yuda	-5427
▁desa	-5428
▁fans	-5429
▁izin	-5430
▁meja	-5431
▁£1,4	-5432
binasi	-5433
empurn	-5434
enggan	-5435
epburn	-5436
linasi	-5437
ychell	-5438
áhorie	-5439
▁2009,	-5440
▁Bloch	-5441
▁Clyde	-5442
▁Delhi	-5443
▁Hewan	-5444
▁Melan	-5445
▁Peter	-5446
▁Shang	-5447
▁Shepp	-5448
▁Suatu	-5449
▁Sulit	-5450
▁Tarif	-5451
▁Tesco	-5452
▁Tesla	-5453
▁Texas	-5454
▁Thace	-5455
▁Vance	-5456
▁Vigui	-5457
▁Wadah	-5458
▁Walse	-5459
▁ajang	-5460
▁bakar	-5461
▁bakat	-5462
▁balat	-5463
▁balok	-5464
▁basah	-5465
▁bedah	-5466
▁bermi	-5467
▁bonus	-5468
▁bully	-5469
▁chair	-5470
▁champ	-5471
▁dalih	-5472
▁datar	-5473
▁debit	-5474
▁denda	-5475
▁dicap	-5476
▁dijad	-5477
▁dimil	-5478
▁diyak	-5479
▁dolar	-5480
▁domin	-5481
▁donor	-5482
▁energ	-5483
▁erosi	-5484
▁finan	-5485
▁gemuk	-5486
▁ideal	-5487
▁ironi	-5488
▁jenis	-5489
▁judul	-5490
▁kagum	-5491
▁kanan	-5492
▁kejut	-5493
▁kekun	-5494
▁kelap	-5495
▁kelem	-5496
▁klaim	-5497
▁kobal	-5498
▁koboi	-5499
20,	-5500
40,	-5501
▁ex	-5502
▁£2	-5503
eraa	-5504
heim	-5505
ondo	-5506
sera	-5507
▁153	-5508
▁wac	-5509
eaksi	-5510
ewaan	-5511
hearn	-5512
ieraa	-5513
iklus	-5514
laine	-5515
ondok	-5516
penya	-5517
▁1538	-5518
▁Andy	-5519
▁Darn	-5520
▁Enga	-5521
▁Heal	-5522
▁Line	-5523
▁Seph	-5524
▁daun	-5525
▁exec	-5526
▁gond	-5527
andera	-5528
daerah	-5529
ealers	-5530
olheim	-5531
tephen	-5532
ubungi	-5533
▁1340,	-5534
▁1820,	-5535
▁2000,	-5536
▁Bruno	-5537
▁Curie	-5538
▁Engag	-5539
▁Gerea	-5540
▁artef	-5541
▁condo	-5542
▁drone	-5543
▁faksi	-5544
▁harap	-5545
▁helik	-5546
▁koran	-5547
▁mahal	-5548
▁makna	-5549
▁mekan	-5550
▁melej	-5551
▁mewah	-5552
▁monot	-5553
▁mulut	-5554
▁nikah	-5555
▁opera	-5556
▁pakta	-5557
▁pelat	-5558
▁racun	-5559
▁ragam	-5560
▁ramah	-5561
▁resep	-5562
▁rokok	-5563
▁rumor	-5564
▁rusak	-5565
▁sains	-5566
▁sandi	-5567
▁sengk	-5568
▁siang	-5569
▁sinis	-5570
▁sinop	-5571
▁suaka	-5572
▁tante	-5573
▁tawar	-5574
▁tawon	-5575
▁tetes	-5576
▁tuntu	-5577
▁uplif	-5578
▁wadah	-5579
▁zaman	-5580
▁zirah	-5581
▁£360.	-5582
6.30-10	-5583
Januari	-5584
Karibia	-5585
Menteri	-5586
Prussia	-5587
Stephen	-5588
abrakan	-5589
ahuluan	-5590
aladewa	-5591
alkohol	-5592
aminasi	-5593
ampanye	-5594
ampbell	-5595
andarus	-5596
andmark	-5597
anggapi	-5598
arnanya	-5599
eza	-5600
”).	-5601
anne	-5602
imne	-5603
sson	-5604
ummy	-5605
▁Isn	-5606
▁lez	-5607
▁pez	-5608
amson	-5609
asson	-5610
ernih	-5611
ordon	-5612
rosos	-5613
udson	-5614
▁Indo	-5615
▁Istr	-5616
▁Juru	-5617
▁Meza	-5618
▁kurv	-5619
awatir	-5620
casson	-5621
elisih	-5622
ompson	-5623
posisi	-5624
tumbuh	-5625
urutan	-5626
▁1912,	-5627
▁1996,	-5628
▁Franz	-5629
▁Himne	-5630
▁Isner	-5631
▁Istri	-5632
▁Masih	-5633
▁Milan	-5634
▁Mongl	-5635
▁dileg	-5636
▁kabis	-5637
▁kolek	-5638
▁kurva	-5639
▁lezat	-5640
▁mummy	-5641
▁nasih	-5642
▁pezin	-5643
arisnya	-5644
arsberg	-5645
aturday	-5646
ayatnya	-5647
banding	-5648
benteng	-5649
berlain	-5650
cayakan	-5651
ctorial	-5652
dinding	-5653
edikasi	-5654
ejaknya	-5655
elompok	-5656
empelak	-5657
engadah	-5658
entengi	-5659
entucky	-5660
enville	-5661
erdilan	-5662
ernakan	-5663
estoran	-5664
gabaian	-5665
geseran	-5666
geshire	-5667
hentian	-5668
ibdenum	-5669
ightley	-5670
ilitasi	-5671
illeneu	-5672
illican	-5673
iniatur	-5674
iorello	-5675
iskopal	-5676
ispatch	-5677
istance	-5678
istilah	-5679
itigasi	-5680
kenario	-5681
kripnya	-5682
lawanan	-5683
masalah	-5684
membaca	-5685
misikan	-5686
obinson	-5687
oksigen	-5688
omerset	-5689
omestik	-5690
ompokan	-5691
onnesus	-5692
ontonan	-5693
ontroll	-5694
ospedal	-5695
otongan	-5696
plorasi	-5697
portasi	-5698
prinsip	-5699
SCA	-5700
▁ZE	-5701
SCAR	-5702
alab	-5703
alap	-5704
▁ZEI	-5705
▁Zay	-5706
▁emo	-5707
anker	-5708
eliat	-5709
kunya	-5710
lunya	-5711
opley	-5712
orban	-5713
▁Fell	-5714
▁Merd	-5715
▁Nank	-5716
▁Terd	-5717
▁ZEIT	-5718
▁jemu	-5719
▁kala	-5720
▁pora	-5721
▁tema	-5722
gereja	-5723
laupun	-5724
sirkan	-5725
untung	-5726
▁1928,	-5727
▁Berga	-5728
▁Beria	-5729
▁Calab	-5730
▁Hukum	-5731
▁Waris	-5732
▁emoji	-5733
▁induk	-5734
ementer	-5735
entunya	-5736
eorikan	-5737
eoritik	-5738
onsumen	-5739
ransisk	-5740
roduksi	-5741
stensif	-5742
sungguh	-5743
talenta	-5744
ttember	-5745
tungnya	-5746
udayaan	-5747
ulihkan	-5748
umbashi	-5749
umismat	-5750
umulasi	-5751
▁$5.000	-5752
▁1794),	-5753
▁23.45.	-5754
▁35.000	-5755
▁Addenb	-5756
▁Adidas	-5757
▁Alasan	-5758
▁Amarna	-5759
▁Antara	-5760
▁Audrey	-5761
▁Bangsa	-5762
▁Baptis	-5763
▁Berger	-5764
▁Boemer	-5765
▁Bogart	-5766
▁Chilia	-5767
▁Claret	-5768
▁Corona	-5769
▁Corpor	-5770
▁Corrad	-5771
▁Denver	-5772
▁Dinasi	-5773
▁Edward	-5774
▁Empire	-5775
▁Energy	-5776
▁Ernest	-5777
▁Estate	-5778
▁Fallon	-5779
▁Firaun	-5780
▁Franco	-5781
▁Gedung	-5782
▁Glenda	-5783
▁Golden	-5784
▁Gordon	-5785
▁Halifa	-5786
▁Harbor	-5787
▁Herodi	-5788
▁Hitler	-5789
▁Holden	-5790
▁Hopley	-5791
▁Horton	-5792
▁Hudson	-5793
▁Javier	-5794
▁Julian	-5795
▁Juliet	-5796
▁Karnak	-5797
▁Kepala	-5798
▁Kieraa	-5799
ffr	-5800
hli	-5801
jij	-5802
Sade	-5803
frey	-5804
gaji	-5805
lien	-5806
badan	-5807
eksek	-5808
ffred	-5809
front	-5810
jijik	-5811
ohamm	-5812
omery	-5813
▁1994	-5814
▁Ahli	-5815
▁Cham	-5816
▁Chap	-5817
▁Chur	-5818
▁Jauh	-5819
▁Krim	-5820
▁NoMa	-5821
▁Saul	-5822
▁Serk	-5823
▁Stal	-5824
▁Stol	-5825
▁Terr	-5826
▁infr	-5827
▁nyar	-5828
aganda	-5829
edikit	-5830
effrey	-5831
elatan	-5832
ffredo	-5833
▁1992,	-5834
▁Antil	-5835
▁Chand	-5836
▁Comey	-5837
▁dihit	-5838
▁dinos	-5839
▁duduk	-5840
▁klien	-5841
▁layar	-5842
▁petak	-5843
▁pungg	-5844
▁tungg	-5845
Jeffrey	-5846
andaian	-5847
gabelas	-5848
ohammed	-5849
paganda	-5850
selatan	-5851
▁Chapel	-5852
▁Church	-5853
▁Gomery	-5854
▁Kerber	-5855
▁Kramer	-5856
▁Krimea	-5857
▁Lahore	-5858
▁Lilles	-5859
▁Looper	-5860
▁Luther	-5861
▁Maroto	-5862
▁Medali	-5863
▁Menara	-5864
▁Mengur	-5865
▁Minyak	-5866
▁Missis	-5867
▁Molise	-5868
▁Monson	-5869
▁Motion	-5870
▁Mounta	-5871
▁Nectar	-5872
▁Negeri	-5873
▁Newton	-5874
▁Norman	-5875
▁Olivia	-5876
▁Oswald	-5877
▁Output	-5878
▁Palmer	-5879
▁Panans	-5880
▁Parker	-5881
▁Pendir	-5882
▁Penist	-5883
▁Petter	-5884
▁Pisang	-5885
▁Pondok	-5886
▁Rachel	-5887
▁Rakyat	-5888
▁Reaksi	-5889
▁Record	-5890
▁Return	-5891
▁Rocket	-5892
▁Rosane	-5893
▁Rupert	-5894
▁Salmon	-5895
▁Segera	-5896
▁Sekret	-5897
▁Selera	-5898
▁Sensor	-5899
52,	-5900
iov	-5901
▁51	-5902
erto	-5903
iver	-5904
kumb	-5905
mbal	-5906
ovel	-5907
ucas	-5908
▁512	-5909
▁Civ	-5910
▁Dav	-5911
▁Dre	-5912
▁Suc	-5913
ianto	-5914
jekak	-5915
ompet	-5916
uerto	-5917
▁1200	-5918
▁352,	-5919
▁Bruc	-5920
▁Comp	-5921
▁Giov	-5922
▁Humb	-5923
▁Prab	-5924
▁Pray	-5925
▁Suci	-5926
▁liga	-5927
▁priv	-5928
▁urat	-5929
arurat	-5930
kumben	-5931
lastik	-5932
ompati	-5933
urisme	-5934
▁512-5	-5935
▁Bruce	-5936
▁Civil	-5937
▁Davis	-5938
▁Dream	-5939
▁Humbl	-5940
▁Imbal	-5941
▁Lucas	-5942
▁River	-5943
▁Romaw	-5944
▁SaskT	-5945
▁Semua	-5946
▁cinta	-5947
▁novel	-5948
arutkan	-5949
astikan	-5950
casting	-5951
ubianto	-5952
▁512-51	-5953
▁Gamson	-5954
▁Gloria	-5955
▁Jumlah	-5956
▁Monako	-5957
▁Prabow	-5958
▁Prayer	-5959
▁Puerto	-5960
▁Romawi	-5961
▁Sensus	-5962
▁Serbia	-5963
▁Serena	-5964
▁Servic	-5965
▁Slavik	-5966
▁Smarag	-5967
▁Spanyo	-5968
▁Stalin	-5969
▁Sumber	-5970
▁Summit	-5971
▁Sumpah	-5972
▁Survei	-5973
▁Talmad	-5974
▁Temuan	-5975
▁Tenaga	-5976
▁Terror	-5977
▁Things	-5978
▁Valley	-5979
▁Veneto	-5980
▁Willis	-5981
▁Winham	-5982
▁Wolmar	-5983
▁Yannis	-5984
▁Yazidi	-5985
▁agenda	-5986
▁akuari	-5987
▁ambisi	-5988
▁angkuh	-5989
▁arogan	-5990
▁bawahn	-5991
▁benang	-5992
▁berjam	-5993
▁botani	-5994
▁cabang	-5995
▁cadang	-5996
▁champi	-5997
▁contoh	-5998
▁dahulu	-5999
96,	-6000
Ath	-6001
sty	-6002
▁8.	-6003
orth	-6004
tuju	-6005
▁veg	-6006
▁via	-6007
▁vok	-6008
antai	-6009
awahi	-6010
ecret	-6011
etiap	-6012
iasan	-6013
jords	-6014
juara	-6015
▁1000	-6016
▁Asty	-6017
▁Club	-6018
▁Grad	-6019
▁Khan	-6020
▁ejek	-6021
▁laju	-6022
▁visi	-6023
Athina	-6024
Secret	-6025
Setiap	-6026
amudra	-6027
bawahi	-6028
elanja	-6029
iapkan	-6030
ilatus	-6031
oucher	-6032
▁1896,	-6033
▁1998.	-6034
▁2000-	-6035
▁Bunga	-6036
▁Khanz	-6037
▁Pemil	-6038
▁Perju	-6039
▁cameo	-6040
▁kapas	-6041
▁kapit	-6042
▁kawat	-6043
▁penju	-6044
▁penye	-6045
▁rasis	-6046
▁veget	-6047
▁vokal	-6048
Samudra	-6049
awahnya	-6050
entasan	-6051
juaraan	-6052
▁Forums	-6053
▁Pember	-6054
▁Pemilu	-6055
▁Zayion	-6056
▁dengar	-6057
▁detail	-6058
▁dialok	-6059
▁dihorm	-6060
▁dilema	-6061
▁dimund	-6062
▁diubah	-6063
▁diukur	-6064
▁dolmen	-6065
▁dukung	-6066
▁ekspek	-6067
▁enggan	-6068
▁fjords	-6069
▁geland	-6070
▁gender	-6071
▁gereja	-6072
▁gratis	-6073
▁humano	-6074
▁ikatan	-6075
▁interv	-6076
▁jantan	-6077
▁jilbab	-6078
▁kaisar	-6079
▁kasnya	-6080
▁kekaca	-6081
▁kelump	-6082
▁kepast	-6083
▁klasik	-6084
▁kolekt	-6085
▁konfer	-6086
▁konten	-6087
▁krisis	-6088
▁kursus	-6089
▁lainny	-6090
▁lambat	-6091
▁laptop	-6092
▁legiun	-6093
▁lembah	-6094
▁lembar	-6095
▁lintas	-6096
▁medali	-6097
▁megrim	-6098
▁melamb	-6099
19.	-6100
50-	-6101
Hei	-6102
ifu	-6103
oug	-6104
ugb	-6105
ugi	-6106
19.9	-6107
eich	-6108
hrey	-6109
ifat	-6110
kons	-6111
lark	-6112
ugas	-6113
ugby	-6114
ugup	-6115
▁184	-6116
▁830	-6117
▁Iey	-6118
▁mey	-6119
19.99	-6120
altik	-6121
arkas	-6122
emons	-6123
ersea	-6124
ictur	-6125
larkm	-6126
ogers	-6127
rance	-6128
toman	-6129
ulate	-6130
▁1842	-6131
▁Cifu	-6132
▁Cons	-6133
▁Doug	-6134
▁Sark	-6135
▁rugi	-6136
▁simb	-6137
19.999	-6138
icture	-6139
imbang	-6140
konsul	-6141
sungai	-6142
ylarkm	-6143
▁1350-	-6144
▁1903,	-6145
▁1913,	-6146
▁Award	-6147
▁Ieyas	-6148
▁Reich	-6149
▁Rugby	-6150
▁Sarat	-6151
▁Sarko	-6152
▁cagar	-6153
▁darat	-6154
▁gugup	-6155
▁pedas	-6156
▁sifat	-6157
▁sunga	-6158
emonstr	-6159
enarkan	-6160
esahkan	-6161
gegeran	-6162
setelah	-6163
ubarkan	-6164
ugaskan	-6165
umbungk	-6166
umphrey	-6167
£19.999	-6168
▁Baltik	-6169
▁Consum	-6170
▁France	-6171
▁Ieyasu	-6172
▁Rogers	-6173
▁Sarkoz	-6174
▁dibawa	-6175
▁dikons	-6176
▁konsel	-6177
▁markas	-6178
▁meletu	-6179
▁memanc	-6180
▁mempek	-6181
▁mempes	-6182
▁mental	-6183
▁mentok	-6184
▁meraba	-6185
▁milisi	-6186
▁mutasi	-6187
▁nyaris	-6188
▁pantat	-6189
▁pengej	-6190
▁penyer	-6191
▁peraih	-6192
▁percob	-6193
▁perdeb	-6194
▁perger	-6195
▁petaka	-6196
▁pisang	-6197
▁plaice	-6198
▁planet	-6199
ence	-6200
ency	-6201
kusi	-6202
ngel	-6203
vard	-6204
▁40%	-6205
ajaib	-6206
antum	-6207
arden	-6208
manan	-6209
siden	-6210
▁baja	-6211
▁khat	-6212
▁mode	-6213
ediden	-6214
igrasi	-6215
ulisti	-6216
▁Rhine	-6217
▁kebah	-6218
▁kebir	-6219
▁kebun	-6220
abadian	-6221
ajaiban	-6222
akinkan	-6223
ecahkan	-6224
erahkan	-6225
indiran	-6226
istensi	-6227
▁Agency	-6228
▁Bentuk	-6229
▁Garden	-6230
▁Paling	-6231
▁berpri	-6232
▁jutaan	-6233
▁memunc	-6234
▁menggo	-6235
▁playbo	-6236
▁popula	-6237
▁reklam	-6238
▁ribuan	-6239
▁sampel	-6240
▁selain	-6241
▁semoga	-6242
▁seolah	-6243
▁sepeda	-6244
▁sepert	-6245
▁serial	-6246
▁siklus	-6247
▁solusi	-6248
▁tablet	-6249
▁teknon	-6250
▁teliti	-6251
▁tenang	-6252
▁tennis	-6253
▁terpap	-6254
▁tindak	-6255
▁tropis	-6256
▁utusan	-6257
▁varian	-6258
▁verbal	-6259
-£19.999	-6260
Davidson	-6261
Slowakia	-6262
afsirkan	-6263
aluwarsa	-6264
amatanya	-6265
amiliter	-6266
andarusa	-6267
angkapan	-6268
angkitan	-6269
angkutan	-6270
antumkan	-6271
apkannya	-6272
arasikan	-6273
arbonasi	-6274
argaanya	-6275
batasnya	-6276
cassonne	-6277
dioksida	-6278
ecualian	-6279
efinitif	-6280
eformasi	-6281
egelapan	-6282
elaksasi	-6283
embagaan	-6284
emukakan	-6285
encanaan	-6286
engkaran	-6287
ennessee	-6288
epsionis	-6289
eristiwa	-6290
ersihkan	-6291
frontasi	-6292
iapannya	-6293
icarakan	-6294
ictorias	-6295
imanjaro	-6296
imbangan	-6297
intainya	-6298
isensian	-6299
igg	-6300
aute	-6301
erno	-6302
fill	-6303
iggy	-6304
igih	-6305
illy	-6306
▁$22	-6307
▁Adn	-6308
▁Alk	-6309
▁Fig	-6310
▁Odi	-6311
▁def	-6312
Mesta	-6313
apart	-6314
eilly	-6315
igali	-6316
ology	-6317
▁$221	-6318
▁Alja	-6319
▁Gala	-6320
▁Gill	-6321
▁Talk	-6322
▁Terk	-6323
▁etis	-6324
▁part	-6325
▁taat	-6326
Neilly	-6327
aparte	-6328
ejalan	-6329
nology	-6330
partai	-6331
▁Adnan	-6332
▁Alkit	-6333
▁Andre	-6334
▁Brant	-6335
▁Cecil	-6336
▁Galax	-6337
▁Haute	-6338
▁Kemen	-6339
▁Piggy	-6340
▁Ruang	-6341
▁Yemen	-6342
▁angka	-6343
▁defis	-6344
▁gigih	-6345
▁parah	-6346
▁paral	-6347
▁peser	-6348
▁pikir	-6349
▁tipis	-6350
emenang	-6351
lasemen	-6352
▁Cecily	-6353
▁Figaro	-6354
▁Galaxy	-6355
▁Johnny	-6356
▁Kigali	-6357
▁Summer	-6358
▁Terkub	-6359
▁berhak	-6360
▁berhul	-6361
▁infill	-6362
▁sensit	-6363
▁terdep	-6364
chnology	-6365
juangkan	-6366
kerdilan	-6367
ksanakan	-6368
ladivost	-6369
lementer	-6370
masukkan	-6371
onaparte	-6372
onografi	-6373
ontraksi	-6374
oriental	-6375
penjahat	-6376
perayaan	-6377
ransfiel	-6378
rokoksig	-6379
rttember	-6380
serpihan	-6381
setujuan	-6382
stansial	-6383
tervensi	-6384
tifikasi	-6385
tugaskan	-6386
uangzhou	-6387
udarinya	-6388
udhoyono	-6389
ujungnya	-6390
ukhothai	-6391
ulistiwa	-6392
umbungku	-6393
umpuhkan	-6394
ungkapan	-6395
untingan	-6396
vatorium	-6397
ychelles	-6398
▁(1918),	-6399
phy	-6400
drew	-6401
last	-6402
okow	-6403
undo	-6404
▁Now	-6405
▁Tra	-6406
▁low	-6407
islas	-6408
okowi	-6409
roses	-6410
sesua	-6411
undam	-6412
unjuk	-6413
urphy	-6414
▁Guam	-6415
▁Isra	-6416
▁asam	-6417
▁astr	-6418
▁komp	-6419
▁tunj	-6420
eriksa	-6421
etapan	-6422
eteran	-6423
iversi	-6424
▁1917,	-6425
▁Buruh	-6426
▁Mestr	-6427
▁Mundo	-6428
▁Skema	-6429
▁Traum	-6430
▁faktu	-6431
▁keceb	-6432
▁kemaj	-6433
▁kesep	-6434
▁pelop	-6435
▁rekan	-6436
▁ujung	-6437
▁ulang	-6438
ampingi	-6439
ecahnya	-6440
rosesan	-6441
undukan	-6442
▁Andrew	-6443
▁Israel	-6444
▁Jokowi	-6445
▁LaBroc	-6446
▁Loving	-6447
▁Mestre	-6448
▁Murphy	-6449
▁Oblast	-6450
▁bersem	-6451
▁fundam	-6452
▁kompon	-6453
engkeram	-6454
ulingkan	-6455
undukkan	-6456
▁(1954),	-6457
▁(1994).	-6458
▁168.000	-6459
▁512-511	-6460
▁Achaean	-6461
▁Alejand	-6462
▁Amyntas	-6463
▁Angkasa	-6464
▁Baiknya	-6465
▁Barratt	-6466
▁Barroso	-6467
▁Benteng	-6468
▁Berbeda	-6469
▁Beverly	-6470
▁Bosphor	-6471
▁British	-6472
▁Cambrid	-6473
▁Carangi	-6474
▁Castelf	-6475
▁Cecelia	-6476
▁Cifuent	-6477
▁Commons	-6478
▁Company	-6479
▁Council	-6480
▁Courant	-6481
▁Darnand	-6482
▁Diikuti	-6483
▁Douglas	-6484
▁Elliott	-6485
▁Evening	-6486
▁Federal	-6487
▁Fishing	-6488
▁Francis	-6489
▁Garrard	-6490
▁Georges	-6491
▁Gradasi	-6492
▁Grafton	-6493
▁Guilbea	-6494
▁Halifax	-6495
▁Hammers	-6496
▁Harvard	-6497
▁Hechler	-6498
▁Hepburn	-6499
eco	-6500
iew	-6501
aiga	-6502
ebec	-6503
oboh	-6504
▁Dec	-6505
▁Jef	-6506
▁Scr	-6507
▁nai	-6508
adarp	-6509
imple	-6510
impun	-6511
isola	-6512
ormal	-6513
ormat	-6514
ritik	-6515
uebec	-6516
▁Jeff	-6517
▁Marr	-6518
▁Marv	-6519
▁Marx	-6520
▁View	-6521
▁atap	-6522
▁awak	-6523
▁bola	-6524
▁hier	-6525
▁mimp	-6526
▁naif	-6527
ecahan	-6528
eroboh	-6529
ihatin	-6530
iksaan	-6531
olakan	-6532
▁2002,	-6533
▁Decca	-6534
▁Greco	-6535
▁Hasil	-6536
▁Marat	-6537
▁Marok	-6538
▁Rumah	-6539
▁Tarlo	-6540
▁dican	-6541
▁diman	-6542
▁dipec	-6543
▁taiga	-6544
abutnya	-6545
adarpur	-6546
ematkan	-6547
impulan	-6548
inisasi	-6549
isolasi	-6550
jelasan	-6551
pecahan	-6552
▁Gezira	-6553
▁Maroko	-6554
▁Marvel	-6555
▁Simple	-6556
▁aktual	-6557
▁berkes	-6558
▁format	-6559
▁normal	-6560
▁supaya	-6561
impangan	-6562
opangnya	-6563
▁Indiana	-6564
▁Investm	-6565
▁Kairsar	-6566
▁Katanya	-6567
▁Kemudia	-6568
▁Kenseth	-6569
▁Khanzir	-6570
▁Klausul	-6571
▁Koalisi	-6572
▁Kristin	-6573
▁Langkah	-6574
▁Laurent	-6575
▁Liberal	-6576
▁Lovings	-6577
▁Majelis	-6578
▁Masalah	-6579
▁Melania	-6580
▁Menging	-6581
▁Microso	-6582
▁Migrasi	-6583
▁Mildred	-6584
▁Monster	-6585
▁Nanking	-6586
▁Nichola	-6587
▁Nicolas	-6588
▁Organiz	-6589
▁Pedoman	-6590
▁Pintado	-6591
▁Pluvios	-6592
▁Politti	-6593
▁Prabowo	-6594
▁Rambler	-6595
▁Romanov	-6596
▁Sabrina	-6597
▁Salaman	-6598
▁Samnium	-6599
act	-6600
acu	-6601
rie	-6602
▁VI	-6603
each	-6604
evit	-6605
imaj	-6606
irri	-6607
late	-6608
pres	-6609
tima	-6610
udea	-6611
xact	-6612
▁400	-6613
▁Ver	-6614
▁kac	-6615
Austr	-6616
Levit	-6617
axact	-6618
estev	-6619
inema	-6620
ontok	-6621
udeau	-6622
udens	-6623
átima	-6624
▁Baja	-6625
▁Pagi	-6626
▁Than	-6627
▁That	-6628
▁Ther	-6629
▁Vant	-6630
▁Visi	-6631
▁ekor	-6632
▁harm	-6633
▁imaj	-6634
▁kerb	-6635
Levitt	-6636
audens	-6637
ingkap	-6638
ingkas	-6639
urunan	-6640
▁Alice	-6641
▁Hunan	-6642
▁Kirri	-6643
▁Reach	-6644
▁Slate	-6645
▁Therm	-6646
▁Versa	-6647
▁bentu	-6648
▁dikom	-6649
▁kerak	-6650
▁kerba	-6651
▁pilih	-6652
▁sentu	-6653
▁seram	-6654
▁serup	-6655
Gaudens	-6656
Pitheko	-6657
antikan	-6658
axactun	-6659
ekspres	-6660
ertakan	-6661
esteven	-6662
saingan	-6663
umpukan	-6664
▁Americ	-6665
▁Barrie	-6666
▁Dingin	-6667
▁Dokter	-6668
▁Fátima	-6669
▁Sinema	-6670
▁Thanos	-6671
▁dibagi	-6672
▁imajin	-6673
▁kerbau	-6674
▁memacu	-6675
▁ringan	-6676
▁sentuh	-6677
▁serupa	-6678
ingankan	-6679
ontokkan	-6680
▁America	-6681
▁Samsung	-6682
▁Sarkozy	-6683
▁Scritti	-6684
▁Scythia	-6685
▁Sedikit	-6686
▁Semakin	-6687
▁Sephard	-6688
▁Service	-6689
▁Solheim	-6690
▁Strateg	-6691
▁Sánchez	-6692
▁Telekom	-6693
▁Telepon	-6694
▁Tembaga	-6695
▁Tentang	-6696
▁Tergesa	-6697
▁Thermop	-6698
▁Trudeau	-6699
ble	-6700
ipe	-6701
oop	-6702
opi	-6703
alle	-6704
ayan	-6705
elle	-6706
esto	-6707
ilas	-6708
ipat	-6709
lato	-6710
olip	-6711
ulle	-6712
▁Bru	-6713
▁hip	-6714
▁pay	-6715
aerah	-6716
celle	-6717
elipe	-6718
embay	-6719
estan	-6720
ingle	-6721
▁2010	-6722
▁2011	-6723
▁2016	-6724
▁Bruy	-6725
▁Cuar	-6726
▁Suar	-6727
▁Suez	-6728
▁Wila	-6729
▁loop	-6730
▁susu	-6731
ahaman	-6732
akaman	-6733
alleus	-6734
ambila	-6735
ewable	-6736
ilaian	-6737
olipop	-6738
umayan	-6739
▁1997,	-6740
▁Bruyn	-6741
▁Earth	-6742
▁Osbor	-6743
▁Plato	-6744
▁Sesto	-6745
▁hipot	-6746
▁kilas	-6747
▁lipat	-6748
▁payah	-6749
▁selat	-6750
ambilal	-6751
angkala	-6752
apembay	-6753
bangkan	-6754
▁Cuaron	-6755
▁Daerah	-6756
▁Felipe	-6757
▁Gaulle	-6758
▁Memang	-6759
▁editor	-6760
▁harian	-6761
▁kagumi	-6762
▁pedang	-6763
▁pendar	-6764
▁pendek	-6765
▁selnya	-6766
▁single	-6767
endahara	-6768
enewable	-6769
▁Artikel	-6770
▁Ketidak	-6771
▁Malleus	-6772
▁Osborne	-6773
▁Renaiss	-6774
▁Uangnya	-6775
▁Vantage	-6776
▁Vatikan	-6777
▁Voucher	-6778
▁Wilayah	-6779
▁Winston	-6780
▁Záhorie	-6781
▁artefak	-6782
▁artikel	-6783
▁asalnya	-6784
▁bandara	-6785
▁banding	-6786
▁belanja	-6787
▁beracun	-6788
▁beraksi	-6789
▁beramai	-6790
▁berbagi	-6791
▁berdiam	-6792
▁berdisk	-6793
▁berduri	-6794
▁berikut	-6795
▁berkump	-6796
▁bertopi	-6797
▁blogger	-6798
▁borough	-6799
00%	-6800
500	-6801
900	-6802
▁(“	-6803
-16,	-6804
.500	-6805
100%	-6806
hami	-6807
iami	-6808
kuad	-6809
obot	-6810
▁10%	-6811
▁Amb	-6812
▁ETA	-6813
▁cip	-6814
▁mai	-6815
ateri	-6816
iberi	-6817
▁1900	-6818
▁1987	-6819
▁2900	-6820
▁Ambr	-6821
▁arus	-6822
▁pros	-6823
amalan	-6824
ilhami	-6825
materi	-6826
obatan	-6827
uppets	-6828
▁China	-6829
▁Domen	-6830
▁Reign	-6831
▁cipta	-6832
▁disam	-6833
▁disir	-6834
▁disor	-6835
▁ditan	-6836
▁maior	-6837
▁melak	-6838
▁melap	-6839
▁melay	-6840
▁proak	-6841
▁robot	-6842
▁saksi	-6843
▁skuad	-6844
▁“100%	-6845
arungan	-6846
epungan	-6847
iberius	-6848
omentar	-6849
ondensi	-6850
uluhnya	-6851
▁16.500	-6852
▁Ambruk	-6853
▁Breast	-6854
▁Elaine	-6855
▁Google	-6856
▁musisi	-6857
▁pertob	-6858
▁prosed	-6859
▁setuju	-6860
komentar	-6861
ravitasi	-6862
ylarkmel	-6863
▁Muppets	-6864
▁beragam	-6865
▁berguna	-6866
▁berlian	-6867
▁ceroboh	-6868
▁council	-6869
▁darurat	-6870
▁defisit	-6871
▁diaktif	-6872
▁diambil	-6873
▁dibebas	-6874
▁didapat	-6875
▁didefin	-6876
▁dididik	-6877
▁dieksek	-6878
▁diklaim	-6879
▁dikutip	-6880
▁dilepas	-6881
▁dimensi	-6882
▁dinamai	-6883
▁dinding	-6884
▁dinyana	-6885
▁dipaksa	-6886
▁dipecat	-6887
▁direksi	-6888
▁dirusak	-6889
▁diskusi	-6890
▁disorot	-6891
▁ditanam	-6892
▁ditanya	-6893
▁ditempa	-6894
▁ditrans	-6895
▁dominan	-6896
▁efeknya	-6897
▁efektif	-6898
▁ekstern	-6899
mic	-6900
ilic	-6901
utub	-6902
bakat	-6903
emudi	-6904
icata	-6905
micro	-6906
utuan	-6907
▁1984	-6908
▁Gran	-6909
▁Iran	-6910
▁bila	-6911
▁prer	-6912
▁tutu	-6913
adapan	-6914
chatka	-6915
encian	-6916
ikutub	-6917
ilicon	-6918
jataan	-6919
tefeux	-6920
▁Belum	-6921
▁Negan	-6922
▁Selec	-6923
▁Shika	-6924
▁antar	-6925
▁bilah	-6926
▁melek	-6927
▁melol	-6928
▁tutup	-6929
ebruari	-6930
ekutuan	-6931
istirah	-6932
onannya	-6933
ukungan	-6934
wikutub	-6935
▁Emicro	-6936
▁Granit	-6937
▁Paulus	-6938
▁Schenc	-6939
▁Select	-6940
▁Shikai	-6941
▁Snapch	-6942
▁bentuk	-6943
▁bobrok	-6944
▁matras	-6945
▁melari	-6946
▁mencat	-6947
▁mencin	-6948
▁pengaj	-6949
▁prerog	-6950
▁sekutu	-6951
Februari	-6952
adaannya	-6953
ariannya	-6954
▁Granite	-6955
▁Kembali	-6956
▁Monglia	-6957
▁Pendeta	-6958
▁Schenck	-6959
▁Silicon	-6960
▁faktual	-6961
▁genetis	-6962
▁hadapan	-6963
▁harinya	-6964
▁helikop	-6965
▁identif	-6966
▁insiden	-6967
▁istilah	-6968
▁istirah	-6969
▁jabatan	-6970
▁jalinan	-6971
▁kabisat	-6972
▁kampany	-6973
▁katakan	-6974
▁kebahag	-6975
▁keenamp	-6976
▁keluhan	-6977
▁keputus	-6978
▁kesaleh	-6979
▁keterat	-6980
▁komunal	-6981
▁komunis	-6982
▁komuter	-6983
▁lamanya	-6984
▁laporan	-6985
▁ledakan	-6986
▁lembaga	-6987
▁lolipop	-6988
▁lukisan	-6989
▁maiorum	-6990
▁majelis	-6991
▁matanya	-6992
▁melamar	-6993
▁melanda	-6994
▁melebih	-6995
▁melekat	-6996
▁meletus	-6997
▁melolos	-6998
▁memadai	-6999
84	-7000
Sa	-7001
-3,	-7002
846	-7003
old	-7004
▁FS	-7005
▁Fl	-7006
▁Yv	-7007
inds	-7008
irid	-7009
umsi	-7010
ussa	-7011
▁1%.	-7012
▁Dig	-7013
▁FSL	-7014
▁Fed	-7015
▁Inn	-7016
▁Yum	-7017
▁iri	-7018
▁waj	-7019
846).	-7020
Saint	-7021
aurus	-7022
egraf	-7023
elena	-7024
gunya	-7025
indik	-7026
putri	-7027
ussae	-7028
▁1832	-7029
▁FSLN	-7030
▁Gold	-7031
▁Kiki	-7032
▁Lind	-7033
▁Mash	-7034
▁Over	-7035
▁Yves	-7036
▁berv	-7037
▁hang	-7038
▁irid	-7039
▁irig	-7040
▁kesa	-7041
▁kiri	-7042
▁tern	-7043
kannya	-7044
siunan	-7045
▁Eagle	-7046
▁Flens	-7047
▁Pemuk	-7048
▁Winds	-7049
▁altar	-7050
▁menng	-7051
▁sarat	-7052
▁terek	-7053
▁tertu	-7054
▁wajib	-7055
indaian	-7056
ituensi	-7057
umsikan	-7058
▁Abakum	-7059
▁Helena	-7060
▁Kursus	-7061
▁Lindsa	-7062
▁Undang	-7063
▁dijaga	-7064
▁hangus	-7065
▁kalian	-7066
▁polusi	-7067
▁ternak	-7068
▁tertua	-7069
▁Bergaam	-7070
▁Digital	-7071
▁Lindsay	-7072
▁Salerno	-7073
▁bervari	-7074
▁iridium	-7075
▁irigasi	-7076
▁lagunya	-7077
▁memandu	-7078
▁memburu	-7079
▁memikat	-7080
▁memperb	-7081
▁memperk	-7082
▁memudah	-7083
▁memupuk	-7084
▁mencuri	-7085
▁mengaku	-7086
▁menggel	-7087
▁menggol	-7088
▁mengikl	-7089
▁mengimb	-7090
▁mengunt	-7091
▁menjual	-7092
▁menyala	-7093
▁menyumb	-7094
▁merosot	-7095
▁minuman	-7096
▁monarki	-7097
▁multiet	-7098
▁nasihat	-7099
kel	-7100
lit	-7101
tel	-7102
ush	-7103
arut	-7104
ella	-7105
esel	-7106
fari	-7107
isap	-7108
litz	-7109
unip	-7110
usir	-7111
▁Bob	-7112
▁Kas	-7113
▁Sty	-7114
▁Tok	-7115
adari	-7116
elang	-7117
ettel	-7118
minya	-7119
omosi	-7120
orset	-7121
surat	-7122
▁1600	-7123
▁Bush	-7124
▁Dana	-7125
▁Mony	-7126
▁Nine	-7127
▁Siri	-7128
▁Sisa	-7129
▁ritu	-7130
Zettel	-7131
abella	-7132
anggur	-7133
desain	-7134
elanga	-7135
oyarsk	-7136
pajang	-7137
▁Danau	-7138
▁March	-7139
▁Pemul	-7140
▁Style	-7141
▁Trans	-7142
▁Tunip	-7143
▁kesan	-7144
▁larut	-7145
ilingan	-7146
inggian	-7147
noyarsk	-7148
saudara	-7149
terlitz	-7150
▁Dorset	-7151
▁Kasasi	-7152
▁Kontak	-7153
▁Monyet	-7154
▁Tokuga	-7155
▁beranj	-7156
▁diesel	-7157
▁diisap	-7158
▁jernih	-7159
▁mengit	-7160
▁pinang	-7161
▁ritual	-7162
▁safari	-7163
▁sebaga	-7164
desainer	-7165
kelanjut	-7166
▁Pasific	-7167
▁gondola	-7168
▁negaran	-7169
▁oksigen	-7170
▁oposisi	-7171
▁pahatan	-7172
▁patroli	-7173
▁pejalan	-7174
▁pejuang	-7175
▁pelajar	-7176
▁pelopor	-7177
▁pemandu	-7178
▁pembeli	-7179
▁pemecah	-7180
▁pencari	-7181
▁penerus	-7182
▁penggan	-7183
▁penutur	-7184
▁perdama	-7185
▁persemb	-7186
▁playboy	-7187
▁politis	-7188
▁positif	-7189
▁potensi	-7190
▁praktis	-7191
▁presisi	-7192
▁promosi	-7193
▁puluhan	-7194
▁respons	-7195
▁retrosp	-7196
▁rincian	-7197
▁samping	-7198
▁sandera	-7199
ius	-7200
lok	-7201
nia	-7202
oun	-7203
sam	-7204
ust	-7205
anus	-7206
ebus	-7207
eria	-7208
idah	-7209
jara	-7210
okum	-7211
roya	-7212
ulus	-7213
usan	-7214
▁Jun	-7215
▁Meg	-7216
▁Pek	-7217
▁Pla	-7218
▁Tre	-7219
▁jen	-7220
▁sia	-7221
embal	-7222
emuir	-7223
ornia	-7224
ungut	-7225
▁363.	-7226
▁Aoun	-7227
▁Dead	-7228
▁June	-7229
▁Sara	-7230
▁dius	-7231
▁perw	-7232
▁prem	-7233
▁seng	-7234
Odessa	-7235
asakan	-7236
ention	-7237
fornia	-7238
iberia	-7239
loknya	-7240
sampai	-7241
▁1072,	-7242
▁1961,	-7243
▁2016,	-7244
▁Beust	-7245
▁Plaza	-7246
▁Troya	-7247
▁Tuhan	-7248
▁kapur	-7249
▁lidah	-7250
▁lulus	-7251
▁manus	-7252
irannya	-7253
okument	-7254
onvensi	-7255
ungutan	-7256
vention	-7257
▁Marina	-7258
▁Morgan	-7259
▁Peking	-7260
▁Ponsel	-7261
▁Proyek	-7262
▁Sakhal	-7263
▁Walter	-7264
▁hektar	-7265
▁jenius	-7266
▁output	-7267
▁urusan	-7268
Presiden	-7269
eritakan	-7270
perangan	-7271
▁Megaria	-7272
▁Passera	-7273
▁Siberia	-7274
▁menebus	-7275
▁penjara	-7276
▁perwira	-7277
▁premier	-7278
▁sejajar	-7279
▁sejenis	-7280
▁selokan	-7281
▁seluler	-7282
▁senjata	-7283
▁serikat	-7284
▁serinya	-7285
▁sesudah	-7286
▁sinilah	-7287
▁tadinya	-7288
▁talenta	-7289
▁tawaran	-7290
▁tembaga	-7291
▁teologi	-7292
▁terawal	-7293
▁terbagi	-7294
▁terbant	-7295
▁terbaru	-7296
▁terbuat	-7297
▁terlant	-7298
▁terpana	-7299
MA	-7300
tz	-7301
EMA	-7302
eon	-7303
pes	-7304
tzi	-7305
uil	-7306
apas	-7307
arac	-7308
asab	-7309
esis	-7310
gala	-7311
igin	-7312
itol	-7313
nnya	-7314
oods	-7315
sika	-7316
tret	-7317
tris	-7318
ypes	-7319
▁mes	-7320
▁nol	-7321
▁off	-7322
▁sil	-7323
elkan	-7324
keber	-7325
napas	-7326
oreng	-7327
oroti	-7328
otret	-7329
semen	-7330
▁AIDS	-7331
▁Asal	-7332
▁Bono	-7333
▁GEMA	-7334
▁Piaf	-7335
▁Rasa	-7336
▁West	-7337
▁basi	-7338
▁buah	-7339
▁kuil	-7340
▁pund	-7341
ackham	-7342
aracal	-7343
asabah	-7344
engkan	-7345
eonian	-7346
uatnya	-7347
wabnya	-7348
ypeset	-7349
▁Woods	-7350
▁beras	-7351
▁flock	-7352
▁heran	-7353
▁mesin	-7354
▁pesat	-7355
anadian	-7356
borigin	-7357
erdasan	-7358
▁10.000	-7359
▁Krisis	-7360
▁aktris	-7361
▁dokter	-7362
▁goreng	-7363
▁mister	-7364
▁offset	-7365
▁potret	-7366
▁pundak	-7367
▁segala	-7368
aracalla	-7369
▁100.000	-7370
▁Capitol	-7371
▁Korsika	-7372
▁Packham	-7373
▁dibahas	-7374
▁dinyany	-7375
▁nasabah	-7376
▁setitik	-7377
▁terungk	-7378
▁tetangg	-7379
▁tetesan	-7380
▁transit	-7381
▁tunggal	-7382
▁turisme	-7383
▁typeset	-7384
▁uangnya	-7385
▁ucapnya	-7386
▁univers	-7387
▁wilayan	-7388
▁yayasan	-7389
▁£10.000	-7390
▁£12.000	-7391
Australia	-7392
Peristiwa	-7393
Secretary	-7394
abilitasi	-7395
ampingkan	-7396
angkitkan	-7397
aransemen	-7398
asikannya	-7399
fon	-7400
onl	-7401
xon	-7402
▁AT	-7403
▁PD	-7404
▁SS	-7405
adut	-7406
ecap	-7407
ilah	-7408
illa	-7409
onya	-7410
xxon	-7411
▁367	-7412
▁ATM	-7413
▁PDB	-7414
▁Sim	-7415
▁Sus	-7416
▁mid	-7417
▁onl	-7418
ilahi	-7419
peran	-7420
rofon	-7421
▁jins	-7422
▁meme	-7423
▁midd	-7424
okumen	-7425
▁Brand	-7426
▁Exxon	-7427
▁Kecap	-7428
▁Sarah	-7429
▁Simon	-7430
▁Villa	-7431
▁badut	-7432
▁dilah	-7433
▁ilahi	-7434
▁lisan	-7435
▁pembi	-7436
ebankan	-7437
enerasi	-7438
ikrofon	-7439
▁Brands	-7440
▁Glinda	-7441
▁berapi	-7442
▁meluas	-7443
▁middle	-7444
▁online	-7445
▁terhub	-7446
▁Distrik	-7447
▁Engagem	-7448
▁Savings	-7449
▁Susunan	-7450
▁Talmadg	-7451
▁berdamp	-7452
▁berhulu	-7453
▁dokumen	-7454
▁pedoman	-7455
▁subsidi	-7456
▁sungguh	-7457
asilicata	-7458
asnoyarsk	-7459
astruktur	-7460
atakanlah	-7461
ceritanya	-7462
diperiksa	-7463
ebenarnya	-7464
ecatannya	-7465
echnology	-7466
egahannya	-7467
ehubungan	-7468
elompokan	-7469
embangkit	-7470
embebasan	-7471
emukannya	-7472
encanakan	-7473
endidikan	-7474
engkelkan	-7475
eriksanya	-7476
evasionis	-7477
hawatiran	-7478
imbangkan	-7479
inalisasi	-7480
ingkatkan	-7481
ingungkan	-7482
islasinya	-7483
istensial	-7484
mayoritas	-7485
muasalnya	-7486
ografinya	-7487
olibdenum	-7488
ompongnya	-7489
ongkannya	-7490
onvention	-7491
ottingham	-7492
ransiskus	-7493
rihatinan	-7494
rttemberg	-7495
sahabatan	-7496
sesuaikan	-7497
truksinya	-7498
ubumbashi	-7499
35.	-7500
Don	-7501
Mon	-7502
ike	-7503
iny	-7504
oni	-7505
usa	-7506
Game	-7507
aron	-7508
elus	-7509
etan	-7510
ince	-7511
isib	-7512
oket	-7513
rand	-7514
▁Lin	-7515
▁Roc	-7516
▁del	-7517
▁dpa	-7518
▁rel	-7519
▁rup	-7520
▁tam	-7521
Garon	-7522
Moneg	-7523
ampar	-7524
eroin	-7525
ikkan	-7526
ilice	-7527
oloni	-7528
zania	-7529
▁2008	-7530
▁Diny	-7531
▁Like	-7532
▁nusa	-7533
isibod	-7534
koloni	-7535
▁2035.	-7536
▁Marta	-7537
▁Rocco	-7538
▁Tangg	-7539
▁balap	-7540
▁berga	-7541
▁brand	-7542
▁merug	-7543
▁roket	-7544
Garonne	-7545
Monegas	-7546
anzania	-7547
elusuri	-7548
uhannya	-7549
▁Hitchh	-7550
▁Milice	-7551
▁Motors	-7552
▁Prince	-7553
▁heroin	-7554
▁menter	-7555
▁tamana	-7556
▁tulang	-7557
entikkan	-7558
ingungan	-7559
isiboden	-7560
▁Johnson	-7561
▁Tanggal	-7562
▁bergaya	-7563
▁menteri	-7564
▁militan	-7565
▁rupanya	-7566
alifornia	-7567
atasannya	-7568
ilirannya	-7569
perubahan	-7570
uckerberg	-7571
umismatik	-7572
ungguhnya	-7573
ungkapkan	-7574
usterlitz	-7575
utakannya	-7576
▁$15.000.	-7577
▁$25.000.	-7578
▁(6.30-10	-7579
▁Abakumov	-7580
▁Aborigin	-7581
▁Addenbro	-7582
▁Aljazair	-7583
▁Angkatan	-7584
▁Anglican	-7585
▁Antillas	-7586
▁Antilles	-7587
▁Approach	-7588
▁Asosiasi	-7589
▁Associat	-7590
▁Baptisan	-7591
▁Barrosos	-7592
▁Belerang	-7593
▁Bouchard	-7594
▁Breasted	-7595
▁Business	-7596
▁Calabria	-7597
▁Campbell	-7598
▁Canadian	-7599
Ya	-7600
ahs	-7601
uis	-7602
▁49	-7603
ahsy	-7604
atal	-7605
egor	-7606
iker	-7607
luar	-7608
mone	-7609
olle	-7610
otel	-7611
sand	-7612
▁Put	-7613
▁Tic	-7614
▁der	-7615
▁uni	-7616
Andes	-7617
regor	-7618
▁Amaz	-7619
▁Luis	-7620
▁Pola	-7621
▁Zexu	-7622
▁dial	-7623
ahsyat	-7624
erosot	-7625
gambar	-7626
▁Putih	-7627
▁Rossi	-7628
▁Tolle	-7629
▁berar	-7630
▁deraj	-7631
▁elang	-7632
▁fatal	-7633
▁hotel	-7634
▁sepas	-7635
isihkan	-7636
slandia	-7637
▁Amazon	-7638
▁Inilah	-7639
▁Ticino	-7640
▁afrika	-7641
▁apakan	-7642
▁berkib	-7643
▁boneka	-7644
▁dialek	-7645
▁permes	-7646
▁risiko	-7647
▁sayang	-7648
▁timbul	-7649
erosotan	-7650
▁330.000	-7651
▁Angeles	-7652
▁Anggota	-7653
▁berarti	-7654
▁dahsyat	-7655
▁derajat	-7656
▁ketingg	-7657
▁sensasi	-7658
▁teknisi	-7659
▁veteran	-7660
▁Chandler	-7661
▁Consumer	-7662
▁Controll	-7663
▁Cospedal	-7664
▁Countess	-7665
▁Cristina	-7666
▁Daripada	-7667
▁Dedikasi	-7668
▁Dibentuk	-7669
▁Dibiayai	-7670
▁Didesain	-7671
▁Dietrich	-7672
▁Dispatch	-7673
▁Domenico	-7674
▁Dominika	-7675
▁Energies	-7676
▁Filipina	-7677
▁Florence	-7678
▁Generasi	-7679
▁Giovanni	-7680
▁Goffredo	-7681
▁Herodias	-7682
▁Hongaria	-7683
▁Honorary	-7684
▁Hubungan	-7685
▁Humphrey	-7686
▁Iklimnya	-7687
▁Institut	-7688
▁Jennings	-7689
▁Jermanis	-7690
▁Kampanye	-7691
▁Keduanya	-7692
▁Kedutaan	-7693
▁Keemasan	-7694
▁Kentucky	-7695
▁Kompromi	-7696
▁Konsumen	-7697
▁Korintus	-7698
▁Landmark	-7699
-2	-7700
IE	-7701
RT	-7702
-29	-7703
IEG	-7704
RTC	-7705
adu	-7706
oya	-7707
seb	-7708
tuj	-7709
▁UN	-7710
IEGE	-7711
Ikan	-7712
aden	-7713
arya	-7714
eruk	-7715
mati	-7716
omet	-7717
oyal	-7718
visi	-7719
▁Por	-7720
▁Wiz	-7721
▁Yas	-7722
▁chi	-7723
▁tim	-7724
IEGEL	-7725
baden	-7726
emari	-7727
ernya	-7728
ilkan	-7729
karya	-7730
pohon	-7731
sebot	-7732
tujuh	-7733
▁CRTC	-7734
▁Lati	-7735
▁bawa	-7736
▁earl	-7737
▁kapt	-7738
▁maan	-7739
▁radi	-7740
▁terg	-7741
PIEGEL	-7742
dbaden	-7743
ikmati	-7744
ometer	-7745
▁Biaya	-7746
▁Guide	-7747
▁Olney	-7748
▁Royal	-7749
▁chief	-7750
▁kadar	-7751
▁kanar	-7752
▁pemis	-7753
▁radio	-7754
▁tabel	-7755
ehernya	-7756
ukuhkan	-7757
▁Latium	-7758
▁divisi	-7759
▁kapten	-7760
▁kecewa	-7761
▁kesama	-7762
▁lemari	-7763
▁tunggu	-7764
angguran	-7765
elabuhan	-7766
elamatan	-7767
▁Journal	-7768
▁Picture	-7769
▁SPIEGEL	-7770
▁Thought	-7771
▁ketujuh	-7772
▁menerim	-7773
▁ratusan	-7774
pelabuhan	-7775
▁Gubernur	-7776
▁Internet	-7777
▁Lehernya	-7778
▁Letakkan	-7779
▁Mahkamah	-7780
▁Maksimal	-7781
▁Maladewa	-7782
▁Marcelle	-7783
▁Marxisme	-7784
▁McGregor	-7785
▁McNeilly	-7786
▁Memiliki	-7787
▁Mendapat	-7788
▁Messenia	-7789
▁Microsof	-7790
▁Millican	-7791
▁Mississi	-7792
▁Mobilnya	-7793
▁Mohammed	-7794
▁Mountain	-7795
▁Northamp	-7796
▁Otttoman	-7797
▁Paeonian	-7798
▁Panglima	-7799
KP	-7800
ie	-7801
ld	-7802
uv	-7803
Die	-7804
Pem	-7805
Pen	-7806
aly	-7807
lir	-7808
▁GC	-7809
▁IA	-7810
anah	-7811
emar	-7812
iaan	-7813
orld	-7814
siar	-7815
uvri	-7816
▁20%	-7817
▁AKP	-7818
▁GCH	-7819
▁IAG	-7820
▁his	-7821
▁tah	-7822
adium	-7823
uklir	-7824
▁20%,	-7825
▁Anne	-7826
▁Cari	-7827
▁Vine	-7828
▁aset	-7829
▁fase	-7830
▁seum	-7831
Negara	-7832
antium	-7833
asasti	-7834
essaly	-7835
irakan	-7836
ologne	-7837
valkar	-7838
▁Carib	-7839
▁Gemar	-7840
▁Kabar	-7841
▁Ouvri	-7842
▁Slack	-7843
▁World	-7844
▁ranah	-7845
▁tahta	-7846
▁teror	-7847
andingi	-7848
kandang	-7849
zantium	-7850
▁Radium	-7851
▁Zimmer	-7852
▁baikku	-7853
▁hister	-7854
▁menara	-7855
▁nuklir	-7856
▁piknik	-7857
▁seumur	-7858
oversial	-7859
puingnya	-7860
yzantium	-7861
▁Beograd	-7862
▁Cologne	-7863
▁Macedon	-7864
▁kecelak	-7865
▁mengamb	-7866
▁pollack	-7867
▁tersiar	-7868
Pemilihan	-7869
anganinya	-7870
embirakan	-7871
▁Montreal	-7872
▁Papworth	-7873
▁Pasangan	-7874
▁Pemenang	-7875
▁Penduduk	-7876
▁Penemuan	-7877
▁Petrassi	-7878
▁Pluviose	-7879
▁Portugal	-7880
▁Produksi	-7881
▁Robinson	-7882
▁Salzburg	-7883
▁Saturday	-7884
▁Schulman	-7885
▁Scotland	-7886
▁Scotsman	-7887
▁Sekarang	-7888
▁Serangan	-7889
▁Serpihan	-7890
▁Services	-7891
▁Shanghai	-7892
▁Shenzhen	-7893
▁Sheppard	-7894
▁Slowakia	-7895
▁Snapchat	-7896
▁Somerset	-7897
▁Springer	-7898
▁Stealers	-7899
',	-7900
35	-7901
GI	-7902
IR	-7903
hn	-7904
IRE	-7905
hon	-7906
uin	-7907
▁83	-7908
▁Ly	-7909
▁PP	-7910
▁yg	-7911
arin	-7912
inga	-7913
▁833	-7914
▁CGI	-7915
▁Hak	-7916
▁Lyv	-7917
▁PPT	-7918
▁mos	-7919
▁sun	-7920
▁tid	-7921
▁ton	-7922
IRENA	-7923
akhon	-7924
ankan	-7925
kisah	-7926
oamer	-7927
payol	-7928
pelan	-7929
▁adik	-7930
▁dian	-7931
▁mead	-7932
Nakhon	-7933
ataran	-7934
uinoks	-7935
usukan	-7936
▁1.335	-7937
▁Hakim	-7938
▁Lyvet	-7939
▁Meyer	-7940
▁Plant	-7941
▁Total	-7942
▁hinga	-7943
▁kasir	-7944
▁panen	-7945
▁peraw	-7946
▁sunti	-7947
▁tidur	-7948
aNakhon	-7949
habisan	-7950
▁Father	-7951
▁NASCAR	-7952
▁Seolah	-7953
▁Serkat	-7954
▁Spayol	-7955
▁bensin	-7956
▁deklar	-7957
▁dianim	-7958
▁grosir	-7959
▁sampah	-7960
▁volkan	-7961
ingshaus	-7962
oamerika	-7963
▁Pyrrhus	-7964
▁Stoller	-7965
▁baginya	-7966
▁beralih	-7967
▁kemarin	-7968
▁kolonis	-7969
▁masanya	-7970
▁tahunan	-7971
▁tataran	-7972
intaannya	-7973
▁Nicholas	-7974
▁Suaranya	-7975
▁Subianto	-7976
▁Talmadge	-7977
▁Tanzania	-7978
▁Tentunya	-7979
▁Terburuk	-7980
▁Terdapat	-7981
▁Terkubur	-7982
▁Thermopy	-7983
▁Thessaly	-7984
▁Thompson	-7985
▁Tiberius	-7986
▁Tientsin	-7987
▁Tokugawa	-7988
▁Uaxactun	-7989
▁Undersea	-7990
▁Universi	-7991
▁Villeneu	-7992
▁Walikota	-7993
▁Williams	-7994
▁Yudaisme	-7995
▁akuarium	-7996
▁analisis	-7997
▁anggaran	-7998
▁antologi	-7999
IF	-8000
SG	-8001
bul	-8002
esk	-8003
ilk	-8004
isu	-8005
lae	-8006
our	-8007
▁Uj	-8008
▁ul	-8009
abin	-8010
ajar	-8011
asia	-8012
nter	-8013
nuck	-8014
▁Boe	-8015
▁GIF	-8016
▁GTA	-8017
▁Ist	-8018
▁USG	-8019
▁dul	-8020
▁esk	-8021
Knuck	-8022
ilkes	-8023
inyal	-8024
utive	-8025
▁2005	-8026
▁Egan	-8027
▁Five	-8028
▁Pria	-8029
▁hadi	-8030
▁lemp	-8031
-2016.	-8032
abinet	-8033
intour	-8034
jarkan	-8035
urasia	-8036
▁1979.	-8037
▁1990,	-8038
▁Bantu	-8039
▁Break	-8040
▁Ujung	-8041
▁Wajar	-8042
▁Yerus	-8043
▁bukit	-8044
▁diken	-8045
▁esktr	-8046
▁gagal	-8047
▁pacar	-8048
▁ulung	-8049
ahannya	-8050
ipulasi	-8051
▁Autria	-8052
▁Boeing	-8053
▁Istana	-8054
▁Weller	-8055
▁Wilkes	-8056
▁bertar	-8057
▁hadiah	-8058
▁inilah	-8059
▁menemb	-8060
▁pelunc	-8061
▁runtuh	-8062
▁sinyal	-8063
▁urutan	-8064
▁wacana	-8065
▁Eurasia	-8066
▁Hallstr	-8067
▁Kabinet	-8068
▁Wintour	-8069
▁berawal	-8070
▁bernama	-8071
▁dibangg	-8072
▁dicetak	-8073
▁dulunya	-8074
▁esktrem	-8075
▁lempeng	-8076
▁protein	-8077
▁rahasia	-8078
▁sasaran	-8079
▁Breaking	-8080
▁Colorado	-8081
▁Istanbul	-8082
▁Strategy	-8083
▁bawahnya	-8084
▁begadang	-8085
▁benturan	-8086
▁beranjak	-8087
▁berantai	-8088
▁berbalik	-8089
▁berdamai	-8090
▁berkibar	-8091
▁berlebih	-8092
▁bernapas	-8093
▁berperan	-8094
▁bersaing	-8095
▁bersikap	-8096
▁berturut	-8097
▁berusaha	-8098
▁bujangan	-8099
ff	-8100
oa	-8101
uo	-8102
ega	-8103
eno	-8104
ffy	-8105
out	-8106
▁il	-8107
aiki	-8108
anji	-8109
area	-8110
arma	-8111
ihir	-8112
lieb	-8113
outh	-8114
uffy	-8115
unas	-8116
utos	-8117
▁Art	-8118
▁Kuo	-8119
▁Nes	-8120
▁Nev	-8121
▁Sig	-8122
▁Tul	-8123
alami	-8124
ramai	-8125
yanya	-8126
▁2019	-8127
▁Beno	-8128
▁Pall	-8129
▁Tulc	-8130
▁Vega	-8131
▁akui	-8132
▁dada	-8133
▁ileg	-8134
adiran	-8135
ulanya	-8136
utosom	-8137
utunya	-8138
▁2006,	-8139
▁Duffy	-8140
▁Janji	-8141
▁Obser	-8142
▁Parma	-8143
▁Pearl	-8144
▁Sigur	-8145
▁South	-8146
▁benak	-8147
▁drast	-8148
▁emosi	-8149
▁gangg	-8150
▁paket	-8151
▁repor	-8152
▁saham	-8153
▁sihir	-8154
iayanya	-8155
ikologi	-8156
menerus	-8157
▁Assist	-8158
▁Darius	-8159
▁Errani	-8160
▁Nestus	-8161
▁Nevada	-8162
▁Tulcea	-8163
▁agensi	-8164
▁anggur	-8165
▁berdoa	-8166
▁ilegal	-8167
▁kental	-8168
ikulanya	-8169
sikologi	-8170
ternlieb	-8171
utosomal	-8172
▁Antipas	-8173
▁Freeman	-8174
▁Records	-8175
▁dialami	-8176
▁drastis	-8177
▁filmnya	-8178
▁geologi	-8179
▁Biayanya	-8180
▁Sekembal	-8181
▁bertunas	-8182
▁buruknya	-8183
▁business	-8184
▁butuhkan	-8185
▁cadangan	-8186
▁cendekia	-8187
▁chairman	-8188
▁champion	-8189
▁dedaunan	-8190
▁desainer	-8191
▁diajukan	-8192
▁dibaptis	-8193
▁didukung	-8194
▁dihadang	-8195
▁dihitung	-8196
▁diilhami	-8197
▁dikelola	-8198
▁dikuasai	-8199
1.	-8200
▁.	-8201
Ger	-8202
▁DF	-8203
▁If	-8204
ahat	-8205
araf	-8206
eguh	-8207
guru	-8208
leia	-8209
omac	-8210
onim	-8211
osok	-8212
uram	-8213
▁DFB	-8214
▁Eld	-8215
▁bir	-8216
▁rit	-8217
arium	-8218
asana	-8219
ennya	-8220
mulai	-8221
onimo	-8222
▁City	-8223
▁Gaud	-8224
▁ditr	-8225
egrasi	-8226
koresp	-8227
otomac	-8228
▁1075.	-8229
▁2001.	-8230
▁Crana	-8231
▁Elder	-8232
▁Metti	-8233
▁Situs	-8234
▁Yerba	-8235
▁buram	-8236
▁dieja	-8237
▁ditud	-8238
▁jahat	-8239
▁medan	-8240
▁penir	-8241
▁ritel	-8242
▁saraf	-8243
▁sosok	-8244
▁teguh	-8245
▁ujian	-8246
indleia	-8247
▁Rambow	-8248
▁dianut	-8249
▁mendar	-8250
▁peniru	-8251
▁reaksi	-8252
▁uplift	-8253
Geronimo	-8254
ikianlah	-8255
▁Cranach	-8256
▁Minuman	-8257
▁Potomac	-8258
▁dituduh	-8259
▁ramalan	-8260
▁suasana	-8261
ecualikan	-8262
▁Hillsbor	-8263
▁Karnaval	-8264
▁didapati	-8265
▁dimiliki	-8266
▁dipajang	-8267
▁direktur	-8268
▁disangka	-8269
▁ditanyai	-8270
▁ditemani	-8271
▁ditunjuk	-8272
▁diyakini	-8273
▁domestik	-8274
▁dukungan	-8275
▁dwikutub	-8276
▁ekuinoks	-8277
▁etnisnya	-8278
▁gangguan	-8279
▁generasi	-8280
▁gubernur	-8281
▁halangan	-8282
▁harmonis	-8283
▁hayatnya	-8284
▁histeria	-8285
▁hitungan	-8286
▁humanoid	-8287
▁imajiner	-8288
▁imigrasi	-8289
▁indikasi	-8290
▁individu	-8291
▁jatuhnya	-8292
▁jenderal	-8293
▁kecebong	-8294
▁kerajaan	-8295
▁kerangka	-8296
▁kesepian	-8297
▁ketidakm	-8298
▁keyboard	-8299
2%	-8300
2)	-8301
92)	-8302
dit	-8303
ppi	-8304
una	-8305
▁si	-8306
abtu	-8307
dari	-8308
ihal	-8309
ones	-8310
unak	-8311
▁62%	-8312
▁Hub	-8313
▁Rab	-8314
▁tas	-8315
akkan	-8316
eddit	-8317
erapa	-8318
▁$1,4	-8319
▁1912	-8320
▁2020	-8321
▁3000	-8322
▁Good	-8323
▁Rabu	-8324
▁Wing	-8325
▁berw	-8326
▁guna	-8327
▁long	-8328
▁palu	-8329
▁sore	-8330
▁stik	-8331
▁usul	-8332
alanya	-8333
aporan	-8334
embala	-8335
geraja	-8336
ravity	-8337
ujukan	-8338
unahan	-8339
▁1566,	-8340
▁Alian	-8341
▁Heart	-8342
▁Hubei	-8343
▁Lenno	-8344
▁Multi	-8345
▁Sabtu	-8346
▁hamil	-8347
▁istri	-8348
▁janda	-8349
▁kuali	-8350
▁lunak	-8351
▁peneg	-8352
▁pokok	-8353
▁(1992)	-8354
▁Lennox	-8355
▁Reddit	-8356
▁berbah	-8357
▁dinasi	-8358
▁ditend	-8359
▁kredit	-8360
▁pulang	-8361
▁stiker	-8362
berkuasa	-8363
elajaran	-8364
embalaan	-8365
oleransi	-8366
▁Aliansi	-8367
▁Gravity	-8368
▁Laporan	-8369
▁Melalui	-8370
▁Rahasia	-8371
▁Rujukan	-8372
▁Thrones	-8373
▁diakses	-8374
▁longgar	-8375
▁perihal	-8376
▁Lagipula	-8377
▁dijuluki	-8378
▁geografi	-8379
▁hierarki	-8380
▁khawatir	-8381
▁kilowatt	-8382
▁kisahnya	-8383
▁klasemen	-8384
▁kolektor	-8385
▁kompeten	-8386
▁konselor	-8387
▁konsonan	-8388
▁konvensi	-8389
▁kriminal	-8390
▁lainnyas	-8391
▁lampiran	-8392
▁landasan	-8393
▁litigasi	-8394
▁lowongan	-8395
▁massebot	-8396
▁melanjut	-8397
▁melapisi	-8398
▁melebihi	-8399
,7	-8400
BB	-8401
Fj	-8402
IS	-8403
LA	-8404
Se	-8405
Sh	-8406
TV	-8407
328	-8408
ISS	-8409
fer	-8410
hak	-8411
les	-8412
Para	-8413
UISS	-8414
kuit	-8415
udet	-8416
▁5,7	-8417
▁CTV	-8418
▁ECB	-8419
▁MLA	-8420
▁Mag	-8421
▁PBB	-8422
▁RSC	-8423
▁sab	-8424
Shaky	-8425
anger	-8426
boleh	-8427
▁(328	-8428
▁Amur	-8429
▁Magm	-8430
▁Pasa	-8431
▁bing	-8432
▁lobi	-8433
▁obat	-8434
▁situ	-8435
▁stor	-8436
barang	-8437
mosfer	-8438
udeten	-8439
▁1563,	-8440
▁1882.	-8441
▁1948,	-8442
▁Amurr	-8443
▁Isles	-8444
▁Knott	-8445
▁LUISS	-8446
▁Magma	-8447
▁eropa	-8448
▁marah	-8449
▁opium	-8450
▁sabuk	-8451
Seperti	-8452
ibingen	-8453
tranger	-8454
▁Amurru	-8455
▁Austro	-8456
▁Herber	-8457
▁berbuk	-8458
▁berdur	-8459
▁memuji	-8460
Stranger	-8461
bolehkan	-8462
▁Fellini	-8463
▁Herbert	-8464
▁Sirkuit	-8465
▁Sudeten	-8466
▁bingung	-8467
▁melacak	-8468
▁namanya	-8469
▁pembawa	-8470
▁peserta	-8471
▁situasi	-8472
▁tematis	-8473
onakannya	-8474
▁Atmosfer	-8475
▁Eibingen	-8476
▁Fiorello	-8477
▁Peniston	-8478
▁Saratoga	-8479
▁bayangan	-8480
▁berbukit	-8481
▁berinter	-8482
▁besarnya	-8483
▁bullying	-8484
▁dikenali	-8485
▁memasuki	-8486
▁membasah	-8487
▁membelak	-8488
▁membuang	-8489
▁memburuk	-8490
▁meminjam	-8491
▁memperlu	-8492
▁menangis	-8493
▁mencatat	-8494
▁mencetak	-8495
▁mendiami	-8496
▁menembak	-8497
▁menembus	-8498
▁mengadap	-8499
):	-8500
-14	-8501
33,	-8502
akm	-8503
lay	-8504
lin	-8505
tim	-8506
▁bu	-8507
engo	-8508
ents	-8509
oret	-8510
▁70%	-8511
▁Jum	-8512
▁Yuc	-8513
▁kut	-8514
akmur	-8515
eotip	-8516
timis	-8517
▁1820	-8518
▁2017	-8519
▁3300	-8520
▁5000	-8521
▁Andi	-8522
▁Bern	-8523
▁Casa	-8524
▁Mand	-8525
▁praj	-8526
eotipe	-8527
▁1820.	-8528
▁1879,	-8529
▁1933,	-8530
▁Apple	-8531
▁Cukup	-8532
▁Jumat	-8533
▁Mandl	-8534
▁Rasti	-8535
▁Tower	-8536
▁Wells	-8537
▁kelay	-8538
▁mahir	-8539
▁pelar	-8540
▁tatan	-8541
▁terat	-8542
▁topik	-8543
anjikan	-8544
jarawan	-8545
▁Berlin	-8546
▁Carter	-8547
▁Rastiz	-8548
▁Tengah	-8549
▁buatan	-8550
▁makmur	-8551
▁menhir	-8552
▁prajur	-8553
▁privat	-8554
analisis	-8555
domestik	-8556
▁Amnesty	-8557
▁Bernard	-8558
▁Hillary	-8559
▁Marengo	-8560
▁Rachida	-8561
▁Yucatán	-8562
▁koalisi	-8563
▁monoton	-8564
▁optimis	-8565
▁tatanan	-8566
▁teratom	-8567
ransfield	-8568
▁Penguasa	-8569
▁Produser	-8570
▁mencoret	-8571
▁menganut	-8572
▁mengatus	-8573
▁mengeruk	-8574
▁mengetuk	-8575
▁mengoper	-8576
▁mengusir	-8577
▁menjajah	-8578
▁menonjol	-8579
▁mentrans	-8580
▁menyamai	-8581
▁menyamar	-8582
▁menyanyi	-8583
▁menyerap	-8584
▁menyerbu	-8585
▁menyulut	-8586
▁mikrofon	-8587
▁miliknya	-8588
▁mimpinya	-8589
▁minatnya	-8590
▁miniatur	-8591
▁motocros	-8592
▁musuhnya	-8593
▁nonfiksi	-8594
▁obesitas	-8595
▁operator	-8596
▁otoritas	-8597
▁pacarnya	-8598
▁pahlawan	-8599
?'	-8600
GB	-8601
CBS	-8602
Her	-8603
ear	-8604
mus	-8605
▁Le	-8606
Year	-8607
berm	-8608
ezim	-8609
ujur	-8610
▁161	-8611
▁Esa	-8612
▁Gay	-8613
▁MGB	-8614
▁Tik	-8615
▁Toh	-8616
▁isi	-8617
▁ken	-8618
▁yan	-8619
etika	-8620
olarl	-8621
under	-8622
▁Dewa	-8623
▁Esai	-8624
▁Temb	-8625
Ketika	-8626
ahatan	-8627
angkir	-8628
uluhan	-8629
umahan	-8630
▁1610,	-8631
▁1992.	-8632
▁Acara	-8633
▁Oberm	-8634
▁Tiket	-8635
▁ikuti	-8636
▁jujur	-8637
▁kasar	-8638
▁kebak	-8639
▁menak	-8640
▁orasi	-8641
▁rezim	-8642
restasi	-8643
yangkan	-8644
▁$103,7	-8645
▁Sunder	-8646
▁Target	-8647
▁Tembok	-8648
▁ekonom	-8649
▁kenapa	-8650
▁menged	-8651
▁menyeb	-8652
▁minyak	-8653
▁perkir	-8654
▁perseg	-8655
▁solarl	-8656
musuhnya	-8657
▁Megabaz	-8658
▁Puluhan	-8659
▁buangan	-8660
▁cangkir	-8661
▁dibedah	-8662
▁persegi	-8663
pertemuan	-8664
▁Isabella	-8665
▁Kesteven	-8666
▁Megabazu	-8667
▁maksimal	-8668
▁melayani	-8669
▁mengeduk	-8670
▁mengenal	-8671
▁panglima	-8672
▁pecahnya	-8673
▁pedagang	-8674
▁pelarian	-8675
▁pembalap	-8676
▁pemegang	-8677
▁pendapat	-8678
▁penemuan	-8679
▁pengerti	-8680
▁pengubah	-8681
▁pengumum	-8682
▁perannya	-8683
▁perlunya	-8684
▁permohon	-8685
▁persetuj	-8686
▁politisi	-8687
▁prajurit	-8688
▁prasasti	-8689
▁prediden	-8690
▁prestasi	-8691
▁produser	-8692
▁prosedur	-8693
▁punggung	-8694
▁pusatnya	-8695
▁rasional	-8696
▁rentetan	-8697
▁reporter	-8698
▁resolusi	-8699
-13	-8700
Sem	-8701
jid	-8702
ven	-8703
▁bj	-8704
▁km	-8705
▁pl	-8706
▁to	-8707
▁wi	-8708
arak	-8709
asut	-8710
▁CBC	-8711
▁Gor	-8712
▁Nit	-8713
▁bak	-8714
▁kla	-8715
ektif	-8716
entak	-8717
incin	-8718
maine	-8719
▁Kven	-8720
▁parf	-8721
▁plot	-8722
angkap	-8723
iliasi	-8724
sistem	-8725
▁1955,	-8726
▁2013,	-8727
▁Bangk	-8728
▁Batas	-8729
▁Force	-8730
▁Hujan	-8731
▁Nitra	-8732
▁Tapie	-8733
▁Weiss	-8734
▁barak	-8735
▁pelan	-8736
▁repot	-8737
Semakin	-8738
emannya	-8739
gantian	-8740
ucapkan	-8741
▁Goryeo	-8742
▁cincin	-8743
▁maglev	-8744
▁masjid	-8745
▁parfum	-8746
▁peduli	-8747
▁timbal	-8748
▁ulasan	-8749
▁£15.00	-8750
temannya	-8751
▁Bangkok	-8752
▁Humbleb	-8753
▁Pelucca	-8754
▁diadili	-8755
▁ditolak	-8756
▁kerjaan	-8757
▁mengisi	-8758
▁paralel	-8759
▁£15.001	-8760
ahlawanan	-8761
▁Anggaran	-8762
▁Sakhalin	-8763
▁dikoment	-8764
▁resminya	-8765
▁retorika	-8766
▁rutinnya	-8767
▁sebagain	-8768
▁sebentar	-8769
▁seberapa	-8770
▁selanjut	-8771
▁semangat	-8772
▁sengketa	-8773
▁sensitif	-8774
▁sentuhan	-8775
▁sepasang	-8776
▁simbolik	-8777
▁sindiran	-8778
▁sinoptik	-8779
▁situsnya	-8780
▁skenario	-8781
▁spesimen	-8782
▁sterling	-8783
▁subduksi	-8784
▁suntikan	-8785
▁tabrakan	-8786
▁tabungan	-8787
▁tahannya	-8788
▁tambahan	-8789
▁tampilan	-8790
▁tayangan	-8791
▁teknonik	-8792
▁telegraf	-8793
▁temannya	-8794
▁teorinya	-8795
▁teratoma	-8796
▁terbitan	-8797
▁terdalam	-8798
▁terdepan	-8799
juk	-8800
kur	-8801
▁42	-8802
▁MP	-8803
▁Mr	-8804
asuk	-8805
ebar	-8806
ebat	-8807
ebek	-8808
irat	-8809
sesi	-8810
uawa	-8811
ujam	-8812
umit	-8813
▁Ibu	-8814
▁lel	-8815
kursi	-8816
rakan	-8817
uawai	-8818
▁Alam	-8819
▁Lagu	-8820
▁Sosi	-8821
▁lele	-8822
asinya	-8823
dengan	-8824
ongmin	-8825
▁Diter	-8826
▁Kairo	-8827
▁Masuk	-8828
▁Stage	-8829
▁Waktu	-8830
▁Warna	-8831
▁bebek	-8832
▁hebat	-8833
▁hujam	-8834
▁kapan	-8835
▁mandi	-8836
▁rumit	-8837
▁sesua	-8838
▁unjuk	-8839
ebutkan	-8840
eluarga	-8841
estinya	-8842
tschmer	-8843
uratnya	-8844
▁Albany	-8845
▁Cabang	-8846
▁Hariri	-8847
▁Huawai	-8848
▁biaraw	-8849
▁kanker	-8850
▁keenam	-8851
▁monark	-8852
▁obsesi	-8853
▁pengan	-8854
▁sambil	-8855
▁sesuai	-8856
tabrakan	-8857
▁Gongmin	-8858
▁Viguier	-8859
▁Wheeler	-8860
▁bersatu	-8861
▁cendeki	-8862
▁pendiri	-8863
▁pezinah	-8864
▁saatnya	-8865
▁Caucasus	-8866
▁Keluarga	-8867
▁LaBrocca	-8868
▁Sosialis	-8869
▁dibentuk	-8870
▁interior	-8871
▁jejaknya	-8872
▁menggali	-8873
▁tergangg	-8874
▁terlatih	-8875
▁terlepas	-8876
▁ternyata	-8877
▁terpaksa	-8878
▁terpapar	-8879
▁tersebar	-8880
▁tersirat	-8881
▁tertarik	-8882
▁tetangga	-8883
▁tidaklah	-8884
▁tontonan	-8885
▁totalnya	-8886
▁tumpukan	-8887
▁tuntutan	-8888
▁ujungnya	-8889
▁ungkapan	-8890
▁upayanya	-8891
▁utamanya	-8892
▁utaranya	-8893
▁vegetasi	-8894
▁visioner	-8895
▁vulkanik	-8896
▁wajahnya	-8897
▁walaupun	-8898
▁walikota	-8899
-3	-8900
04	-8901
ult	-8902
▁De	-8903
▁Dr	-8904
▁Jr	-8905
adak	-8906
asib	-8907
ayam	-8908
irew	-8909
skup	-8910
ukul	-8911
usum	-8912
▁Joe	-8913
▁Kil	-8914
▁Sul	-8915
▁jet	-8916
▁las	-8917
▁nik	-8918
▁sta	-8919
▁tuk	-8920
Tahun	-8921
alian	-8922
arasi	-8923
asial	-8924
asien	-8925
etang	-8926
▁1904	-8927
▁2012	-8928
▁Ewan	-8929
▁Gaun	-8930
▁King	-8931
▁Knew	-8932
▁ayam	-8933
▁staf	-8934
iannya	-8935
inrich	-8936
▁Husum	-8937
▁Sulla	-8938
▁Uskup	-8939
▁dibuj	-8940
▁dipas	-8941
▁firew	-8942
▁nasib	-8943
▁nikel	-8944
▁pukul	-8945
▁rinci	-8946
▁saldo	-8947
▁solar	-8948
▁Bisnis	-8949
▁Sekutu	-8950
▁antena	-8951
▁aviasi	-8952
▁istana	-8953
▁korban	-8954
▁menant	-8955
▁narasi	-8956
▁pasien	-8957
▁rasial	-8958
▁semasa	-8959
▁tukang	-8960
ibadatan	-8961
▁Jaminan	-8962
▁Petugas	-8963
▁Warisan	-8964
▁diatasi	-8965
▁dibujuk	-8966
▁dipasok	-8967
▁dominna	-8968
▁jauhnya	-8969
▁kreatif	-8970
▁pemangk	-8971
ampiannya	-8972
▁Atkinson	-8973
▁Heinrich	-8974
▁Konvensi	-8975
▁firewall	-8976
▁memantau	-8977
▁mendadak	-8978
▁menetang	-8979
▁meskipun	-8980
▁pemangku	-8981
▁pesannya	-8982
▁proaktif	-8983
▁warnanya	-8984
Pembangkit	-8985
Pengabaian	-8986
Sebenarnya	-8987
arisbawahi	-8988
ecahkannya	-8989
empurnakan	-8990
enggarakan	-8991
ingshausen	-8992
iscaucasus	-8993
itorialnya	-8994
kelanjutan	-8995
kemunculan	-8996
ladivostok	-8997
omersilkan	-8998
ontvieille	-8999
-6	-9000
so	-9001
agu	-9002
lei	-9003
sis	-9004
udy	-9005
way	-9006
▁BA	-9007
▁BC	-9008
▁Bá	-9009
agen	-9010
raba	-9011
yway	-9012
▁HFC	-9013
▁Kim	-9014
▁May	-9015
▁Rai	-9016
▁Tim	-9017
▁Wit	-9018
▁dag	-9019
▁rem	-9020
▁wol	-9021
etapi	-9022
tidak	-9023
ugaan	-9024
▁Bian	-9025
▁Nazi	-9026
▁Ping	-9027
▁Rudy	-9028
▁merd	-9029
▁ragu	-9030
▁sesi	-9031
ukulan	-9032
▁1832,	-9033
▁2008.	-9034
▁Malam	-9035
▁Peman	-9036
▁Witch	-9037
▁detik	-9038
▁merit	-9039
tekanan	-9040
▁Anyway	-9041
▁Buenos	-9042
▁Piagam	-9043
▁Schlei	-9044
▁Tetapi	-9045
▁Tories	-9046
▁andino	-9047
▁dugaan	-9048
▁karang	-9049
▁penyes	-9050
▁remaja	-9051
▁rentan	-9052
▁seksis	-9053
ompetisi	-9054
▁Rudyard	-9055
▁SaskTel	-9056
▁baiknya	-9057
▁dagelan	-9058
▁merdeka	-9059
▁penanda	-9060
▁sedalam	-9061
▁tumbang	-9062
ukulannya	-9063
▁Federico	-9064
▁berbasis	-9065
▁bercerai	-9066
▁penyesua	-9067
▁prihatin	-9068
erintahkan	-9069
sekelompok	-9070
utuhkannya	-9071
▁2013-2014	-9072
▁Alasannya	-9073
▁Alejandra	-9074
▁Ambruknya	-9075
▁Assistant	-9076
▁Berbicara	-9077
▁Berkoresp	-9078
▁Billboard	-9079
▁Blindleia	-9080
▁Bonaparte	-9081
▁Bosphorus	-9082
▁Byzantium	-9083
▁Caracalla	-9084
▁Christian	-9085
▁Churchill	-9086
▁Cifuentes	-9087
▁Community	-9088
▁Contohnya	-9089
▁Didirikan	-9090
▁Disiboden	-9091
▁Ekspedisi	-9092
▁Episkopal	-9093
▁Flensburg	-9094
▁Francisco	-9095
▁Gandarusa	-9096
▁Gerrmaine	-9097
▁Grenville	-9098
▁Guangzhou	-9099
eed	-9100
elap	-9101
epot	-9102
gaja	-9103
masa	-9104
omor	-9105
tial	-9106
▁BID	-9107
▁Los	-9108
▁Rem	-9109
▁Res	-9110
▁Rum	-9111
▁reh	-9112
ambat	-9113
repot	-9114
rooks	-9115
ujian	-9116
urati	-9117
▁Avro	-9118
▁Rian	-9119
▁demi	-9120
▁feed	-9121
▁jemb	-9122
akhiri	-9123
ampuan	-9124
asuhan	-9125
pencar	-9126
▁2002.	-9127
▁Celah	-9128
▁Jejak	-9129
▁Lenny	-9130
▁Poole	-9131
▁Remis	-9132
▁Salas	-9133
▁Warga	-9134
▁budak	-9135
▁bujih	-9136
▁kacau	-9137
▁lampu	-9138
▁lelap	-9139
▁logam	-9140
▁nomor	-9141
▁pagar	-9142
▁pergi	-9143
▁tahap	-9144
▁Brooks	-9145
▁Caplan	-9146
▁Pastor	-9147
▁energi	-9148
▁jangka	-9149
▁kuliah	-9150
▁menama	-9151
▁pujian	-9152
▁rencan	-9153
▁sesama	-9154
▁setial	-9155
▁Rumania	-9156
▁Sejarah	-9157
▁jutanya	-9158
▁menekan	-9159
▁persnya	-9160
▁plastik	-9161
▁sengaja	-9162
▁terbang	-9163
▁terekam	-9164
bitkannya	-9165
▁inkumben	-9166
▁jembatan	-9167
▁pengikut	-9168
▁restoran	-9169
▁terjawab	-9170
▁Hollywood	-9171
▁Hortefeux	-9172
▁Hospitals	-9173
▁Indonesia	-9174
▁Inslandia	-9175
▁Investasi	-9176
▁Investors	-9177
▁Kamchatka	-9178
▁Kebiasaan	-9179
▁Kecapakan	-9180
▁Kegelapan	-9181
▁Kejuaraan	-9182
▁Keparahan	-9183
▁Kepenting	-9184
▁Knightley	-9185
▁Kristiani	-9186
▁Liberties	-9187
▁Lillesand	-9188
▁Mahasiswa	-9189
▁Mayoritas	-9190
▁Megabazuz	-9191
▁Melanesia	-9192
▁Mengingat	-9193
▁Mengurusi	-9194
▁Merdingen	-9195
▁Microsoft	-9196
▁Nashville	-9197
▁Panvalkar	-9198
▁Pemanasan	-9199
Aku	-9200
abs	-9201
rou	-9202
▁GM	-9203
▁Ny	-9204
-15.	-9205
Duri	-9206
cone	-9207
mata	-9208
trum	-9209
▁3%,	-9210
▁Eon	-9211
▁Jam	-9212
▁Jin	-9213
▁Nos	-9214
▁bom	-9215
▁gal	-9216
rouch	-9217
tanya	-9218
tives	-9219
▁1777	-9220
▁1927	-9221
▁2050	-9222
▁Habs	-9223
▁Tsar	-9224
▁coba	-9225
▁coup	-9226
▁epik	-9227
▁lini	-9228
▁mant	-9229
angkal	-9230
antung	-9231
duseri	-9232
oscone	-9233
umbuan	-9234
▁Agama	-9235
▁Capua	-9236
▁Charl	-9237
▁Diess	-9238
▁Under	-9239
▁indah	-9240
▁rekor	-9241
egangan	-9242
ungkawa	-9243
▁Center	-9244
▁Crouch	-9245
▁Harley	-9246
▁Panama	-9247
▁Posisi	-9248
▁mangan	-9249
▁mantel	-9250
▁padang	-9251
▁statis	-9252
angannya	-9253
▁600.000	-9254
▁Alkitab	-9255
▁Charles	-9256
▁Ksatria	-9257
▁Moscone	-9258
▁Nostrum	-9259
▁Talking	-9260
▁cumbuan	-9261
▁dangkal	-9262
▁dijamin	-9263
▁jantung	-9264
▁kepolis	-9265
▁semesta	-9266
▁sepadan	-9267
▁Bergeron	-9268
▁Biasanya	-9269
▁Biografi	-9270
▁Habsburg	-9271
▁biarawan	-9272
▁galangan	-9273
▁kebiruan	-9274
▁menyebut	-9275
▁modelnya	-9276
keberadaan	-9277
pertahanan	-9278
▁Pemberian	-9279
▁Pemilihan	-9280
▁Pemukiman	-9281
▁Pemulihan	-9282
▁Pendirian	-9283
▁Peristiwa	-9284
▁Perkiraan	-9285
▁Pertemuan	-9286
▁Perubahan	-9287
▁Polisinya	-9288
▁Protestan	-9289
▁Rastislav	-9290
▁Renewable	-9291
▁Sallyanne	-9292
▁Sectorial	-9293
▁Sejarawan	-9294
▁Selebriti	-9295
▁Smaragdis	-9296
▁Sternlieb	-9297
▁Sukhothai	-9298
a	-9299
▁	-9300
n	-9301
e	-9302
i	-9303
r	-9304
t	-9305
u	-9306
k	-9307
m	-9308
s	-9309
d	-9310
g	-9311
l	-9312
p	-9313
b	-9314
h	-9315
o	-9316
y	-9317
.	-9318
,	-9319
j	-9320
c	-9321
S	-9322
w	-9323
P	-9324
-	-9325
A	-9326
f	-9327
M	-9328
1	-9329
0	-9330
K	-9331
D	-9332
T	-9333
B	-9334
I	-9335
v	-9336
C	-9337
R	-9338
2	-9339
9	-9340
N	-9341
H	-9342
J	-9343
L	-9344
G	-9345
3	-9346
E	-9347
5	-9348
“	-9349
”	-9350
O	-9351
6	-9352
8	-9353
7	-9354
W	-9355
z	-9356
F	-9357
U	-9358
Y	-9359
4	-9360
(	-9361
)	-9362
V	-9363
:	-9364
'	-9365
%	-9366
;	-9367
x	-9368
?	-9369
Z	-9370
£	-9371
—	-9372
$	-9373
á	-9374
