<unk>	0
<s>	0
</s>	0
▁在	-0
一個	-1
他們	-2
20	-3
19	-4
▁這	-5
但是	-6
我們	-7
的人	-8
他的	-9
可能	-10
已經	-11
ar	-12
以及	-13
工作	-14
公司	-15
美國	-16
201	-17
世紀	-18
可以	-19
地區	-20
er	-21
▁他	-22
沒有	-23
開始	-24
an	-25
因為	-26
▁但是	-27
政府	-28
自己	-29
英國	-30
電影	-31
00	-32
之後	-33
的一	-34
這些	-35
到了	-36
很多	-37
國家	-38
認為	-39
in	-40
世界	-41
之間	-42
大的	-43
發生	-44
10	-45
其他	-46
影響	-47
部分	-48
18	-49
作為	-50
歷史	-51
獲得	-52
系統	-53
這個	-54
他們的	-55
是一個	-56
一直	-57
來自	-58
包括	-59
同時	-60
大利	-61
on	-62
中國	-63
兩個	-64
其中	-65
如果	-66
成功	-67
成為	-68
投資	-69
方面	-70
最後	-71
決定	-72
的是	-73
第一	-74
進行	-75
200	-76
自己的	-77
使用	-78
年代	-79
建立	-80
戰爭	-81
接受	-82
歐洲	-83
現在	-84
的地	-85
研究	-86
通過	-87
▁我	-88
中的	-89
主要	-90
人的	-91
公元	-92
城市	-93
所有	-94
總統	-95
能夠	-96
許多	-97
這一	-98
需要	-99
▁她	-100
不是	-101
之前	-102
了一	-103
來的	-104
區域	-105
導致	-106
提供	-107
時間	-108
班牙	-109
表示	-110
軍隊	-111
非常	-112
西班牙	-113
),	-114
”,	-115
▁“	-116
一樣	-117
不同	-118
人們	-119
位於	-120
尼亞	-121
希望	-122
希臘	-123
德國	-124
新的	-125
期間	-126
法國	-127
由於	-128
當時	-129
發展	-130
發現	-131
經濟	-132
羅馬	-133
調查	-134
重要	-135
199	-136
)。	-137
15	-138
as	-139
or	-140
——	-141
▁C	-142
▁一	-143
。”	-144
共和	-145
奧斯	-146
政治	-147
是在	-148
特別	-149
第二	-150
公元前	-151
11	-152
en	-153
ic	-154
il	-155
一起	-156
之一	-157
事件	-158
令人	-159
保護	-160
只有	-161
問題	-162
它們	-163
年的	-164
情況	-165
技術	-166
投票	-167
方法	-168
根據	-169
獨立	-170
超過	-171
阿爾	-172
000	-173
▁19	-174
之間的	-175
了一個	-176
16	-177
:“	-178
▁從	-179
什麼	-180
代表	-181
出現	-182
北部	-183
因此	-184
宣布	-185
必須	-186
所以	-187
數據	-188
有人	-189
歐元	-190
水平	-191
藝術	-192
要求	-193
里斯	-194
關於	-195
音樂	-196
大利亞	-197
澳大利亞	-198
12	-199
le	-200
▁B	-201
▁S	-202
▁但	-203
▁它	-204
▁當	-205
並不	-206
全球	-207
增長	-208
存在	-209
市場	-210
幫助	-211
形成	-212
提出	-213
擁有	-214
斯的	-215
是一	-216
最高	-217
有一	-218
朗普	-219
條約	-220
活動	-221
生活	-222
用於	-223
發布	-224
看到	-225
系列	-226
統治	-227
而且	-228
自由	-229
行的	-230
計劃	-231
進入	-232
選舉	-233
隨後	-234
顯示	-235
Mar	-236
特朗普	-237
▁201	-238
14	-239
60	-240
os	-241
ti	-242
”。	-243
▁另	-244
▁對	-245
▁該	-246
上的	-247
中海	-248
了他	-249
任何	-250
例如	-251
信息	-252
協議	-253
南部	-254
原因	-255
合作	-256
國際	-257
天皇	-258
學生	-259
安全	-260
帝國	-261
幾乎	-262
控制	-263
故事	-264
明顯	-265
是否	-266
期的	-267
殖民	-268
比賽	-269
為了	-270
目前	-271
目標	-272
社會	-273
管理	-274
聯邦	-275
至少	-276
行動	-277
說道	-278
通常	-279
還是	-280
關係	-281
▁他們	-282
13	-283
30	-284
50	-285
An	-286
al	-287
et	-288
te	-289
一些	-290
不可	-291
不會	-292
主義	-293
他在	-294
以前	-295
來說	-296
來越	-297
個月	-298
價格	-299
內的	-300
共同	-301
加勒	-302
告訴	-303
土地	-304
大量	-305
大陸	-306
她的	-307
妻子	-308
孩子	-309
學家	-310
學習	-311
實際	-312
平均	-313
應該	-314
持續	-315
挑戰	-316
擔任	-317
改變	-318
整個	-319
時候	-320
最終	-321
會在	-322
有所	-323
有關	-324
朋友	-325
氣候	-326
無法	-327
現代	-328
甚至	-329
的新	-330
的話	-331
的那	-332
直接	-333
稱為	-334
組成	-335
繼續	-336
美洲	-337
自然	-338
行為	-339
解釋	-340
設計	-341
資源	-342
這種	-343
都是	-344
離開	-345
革命	-346
飛機	-347
▁根據	-348
並沒有	-349
加勒比	-350
地中海	-351
大部分	-352
意大利	-353
有可能	-354
的地方	-355
越來越	-356
ac	-357
am	-358
he	-359
is	-360
re	-361
uc	-362
▁不	-363
▁那	-364
》(	-365
不斷	-366
人口	-367
人員	-368
人在	-369
伊斯	-370
似乎	-371
傳統	-372
其頓	-373
具有	-374
出演	-375
出生	-376
創作	-377
十年	-378
參與	-379
同樣	-380
名字	-381
埃及	-382
基礎	-383
增加	-384
好的	-385
學校	-386
完全	-387
宗教	-388
導演	-389
就是	-390
屬於	-391
山脈	-392
帶來	-393
建議	-394
應用	-395
手機	-396
拉斯	-397
支持	-398
教堂	-399
時代	-400
歌曲	-401
正在	-402
民族	-403
汽車	-404
法律	-405
產生	-406
相關	-407
知道	-408
程度	-409
第三	-410
航空	-411
衝突	-412
變得	-413
責任	-414
這是	-415
這樣	-416
那裡	-417
附近	-418
隨著	-419
難以	-420
領導	-421
香港	-422
馬克	-423
▁如果	-424
▁我們	-425
▁這個	-426
公司的	-427
共和黨	-428
奧斯曼	-429
獲得了	-430
的影響	-431
第一次	-432
馬其頓	-433
,”	-434
17	-435
70	-436
ol	-437
▁D	-438
▁P	-439
▁大	-440
▁據	-441
▁此	-442
》。	-443
並且	-444
佔據	-445
作品	-446
債券	-447
兄弟	-448
全國	-449
再次	-450
出了	-451
分析	-452
利亞	-453
加拿	-454
北京	-455
十分	-456
印度	-457
和平	-458
商業	-459
國王	-460
報告	-461
多的	-462
大學	-463
如此	-464
島嶼	-465
巴黎	-466
幾個	-467
建築	-468
性的	-469
感到	-470
成了	-471
或者	-472
戲劇	-473
扮演	-474
拒絕	-475
放棄	-476
教育	-477
斯頓	-478
日本	-479
最近	-480
會議	-481
服務	-482
格蘭	-483
權力	-484
每個	-485
環境	-486
的事	-487
的機	-488
相似	-489
破產	-490
組織	-491
結束	-492
經常	-493
維亞	-494
羅娜	-495
羅斯	-496
美元	-497
能力	-498
英鎊	-499
製造	-500
試圖	-501
警方	-502
變化	-503
負責	-504
貿易	-505
賬戶	-506
起了	-507
起來	-508
選擇	-509
邊境	-510
那些	-511
部長	-512
部隊	-513
降低	-514
雷斯	-515
非洲	-516
預測	-517
ber	-518
ter	-519
▁18	-520
▁由於	-521
▁這些	-522
▁這次	-523
克里斯	-524
和其他	-525
國家的	-526
成為了	-527
有一個	-528
的原因	-529
該地區	-530
適用於	-531
,000	-532
加勒比海	-533
西班牙語	-534
28	-535
3%	-536
33	-537
BC	-538
ay	-539
el	-540
es	-541
ro	-542
▁M	-543
▁R	-544
▁希	-545
▁後	-546
》,	-547
一世	-548
一位	-549
一次	-550
不得	-551
丹麥	-552
人類	-553
他和	-554
代理	-555
以來	-556
件事	-557
但在	-558
住在	-559
俄國	-560
保持	-561
修道	-562
候選	-563
倫敦	-564
值得	-565
健康	-566
元素	-567
先生	-568
克斯	-569
入了	-570
公園	-571
公眾	-572
冠軍	-573
出版	-574
分別	-575
利用	-576
力量	-577
動物	-578
勝利	-579
協會	-580
危機	-581
參加	-582
反對	-583
取得	-584
同盟	-585
員會	-586
唐納	-587
喜歡	-588
回到	-589
地產	-590
地面	-591
城鎮	-592
基督	-593
基金	-594
墨西	-595
多數	-596
天的	-597
女兒	-598
女士	-599
媒體	-600
家庭	-601
專輯	-602
就會	-603
展示	-604
工具	-605
工業	-606
年輕	-607
強調	-608
征服	-609
從未	-610
德里	-611
想法	-612
意義	-613
戰役	-614
才能	-615
承擔	-616
指揮	-617
接下	-618
描述	-619
摩拉	-620
文化	-621
文明	-622
明了	-623
時的	-624
智能	-625
最大	-626
東西	-627
板塊	-628
根本	-629
植物	-630
權利	-631
民主	-632
沙漠	-633
河流	-634
海岸	-635
清朝	-636
減少	-637
準備	-638
演出	-639
照片	-640
爾的	-641
猶太	-642
理論	-643
發言	-644
發電	-645
的大	-646
的小	-647
的成	-648
的最	-649
皇家	-650
移民	-651
稱呼	-652
立法	-653
簽訂	-654
給了	-655
維爾	-656
缺少	-657
聯盟	-658
腫瘤	-659
蒙古	-660
處於	-661
表明	-662
表達	-663
裡的	-664
觀眾	-665
討論	-666
訓練	-667
語言	-668
警察	-669
議院	-670
費用	-671
運動	-672
過去	-673
還有	-674
那個	-675
那麼	-676
部的	-677
除了	-678
雖然	-679
電視	-680
ich	-681
ill	-682
tin	-683
▁另外	-684
▁同時	-685
▁為了	-686
▁現在	-687
▁當然	-688
▁目前	-689
▁美國	-690
▁隨著	-691
一方面	-692
一直在	-693
不同的	-694
伊斯蘭	-695
俄羅斯	-696
修道院	-697
候選人	-698
共和國	-699
墨西哥	-700
巴尼亞	-701
情況下	-702
我們的	-703
房地產	-704
斯山脈	-705
方面的	-706
時期的	-707
為什麼	-708
發現了	-709
的一個	-710
的主要	-711
的區域	-712
的最後	-713
的目標	-714
的經濟	-715
藝術家	-716
這件事	-717
重要的	-718
需要的	-719
2014	-720
摩拉維亞	-721
的一部分	-722
阿爾巴尼亞	-723
%,	-724
,“	-725
..	-726
31	-727
35	-728
45	-729
80	-730
90	-731
92	-732
CN	-733
ai	-734
at	-735
av	-736
gy	-737
ia	-738
im	-739
iv	-740
ru	-741
th	-742
▁A	-743
▁G	-744
▁《	-745
▁亞	-746
▁卡	-747
▁有	-748
▁阿	-749
一步	-750
七月	-751
三世	-752
三島	-753
上了	-754
上升	-755
上漲	-756
下的	-757
不再	-758
不能	-759
不要	-760
並在	-761
中心	-762
中有	-763
中期	-764
丹內	-765
主教	-766
之中	-767
之處	-768
也被	-769
也許	-770
了兩	-771
交通	-772
人士	-773
人都	-774
仍然	-775
他說	-776
以外	-777
以為	-778
企業	-779
作家	-780
作用	-781
來源	-782
保證	-783
個人	-784
們的	-785
僅僅	-786
儘管	-787
允許	-788
克林	-789
兒童	-790
內容	-791
兩年	-792
公爵	-793
公開	-794
冬季	-795
到達	-796
前往	-797
區的	-798
十四	-799
十月	-800
半島	-801
卡羅	-802
印第	-803
去年	-804
及其	-805
受到	-806
合法	-807
名為	-808
員工	-809
唱片	-810
喀麥	-811
單曲	-812
回了	-813
國民	-814
土耳	-815
在一	-816
地位	-817
地方	-818
地球	-819
地點	-820
城邦	-821
報導	-822
壓力	-823
夏天	-824
夏季	-825
大使	-826
大概	-827
大略	-828
大眾	-829
大約	-830
天氣	-831
契美	-832
女孩	-833
如何	-834
威爾	-835
它的	-836
定了	-837
容易	-838
實驗	-839
將軍	-840
尋找	-841
對手	-842
對象	-843
少數	-844
就像	-845
尼德	-846
州的	-847
年建	-848
廣告	-849
式的	-850
很大	-851
後的	-852
從中	-853
怎麼	-854
息地	-855
成的	-856
批評	-857
承認	-858
抵抗	-859
拉夫	-860
拉的	-861
拉費	-862
拉里	-863
指控	-864
收益	-865
敵人	-866
數個	-867
文學	-868
斯堡	-869
斯托	-870
斯特	-871
方的	-872
日期	-873
星期	-874
時任	-875
更加	-876
曾經	-877
未能	-878
本書	-879
樂隊	-880
標記	-881
機構	-882
正如	-883
歲的	-884
比如	-885
法老	-886
法蘭	-887
泰國	-888
海洋	-889
消息	-890
消費	-891
烈的	-892
爾夫	-893
理查	-894
瑟夫	-895
生命	-896
產品	-897
用戶	-898
男性	-899
當地	-900
當我	-901
百萬	-902
的兩	-903
的角	-904
的說	-905
的高	-906
破壞	-907
私人	-908
積極	-909
穿過	-910
競爭	-911
約翰	-912
緩解	-913
績效	-914
缺乏	-915
聯繫	-916
自治	-917
舉辦	-918
芬蘭	-919
荷蘭	-920
萊恩	-921
處理	-922
補充	-923
製作	-924
西格	-925
西西	-926
見的	-927
覺得	-928
記錄	-929
證明	-930
警告	-931
變為	-932
贏得	-933
身體	-934
軍事	-935
較低	-936
農曆	-937
迪斯	-938
迫害	-939
追溯	-940
逐漸	-941
這次	-942
造成	-943
運河	-944
過程	-945
還在	-946
邊界	-947
都會	-948
銀行	-949
長的	-950
開放	-951
關注	-952
需求	-953
面對	-954
項目	-955
顏色	-956
飛行	-957
首次	-958
鴉片	-959
197	-960
500	-961
And	-962
BBC	-963
CNN	-964
ard	-965
arr	-966
ran	-967
▁他在	-968
▁她的	-969
▁法國	-970
▁英國	-971
▁超過	-972
▁這是	-973
▁這項	-974
世界大	-975
並不是	-976
也可以	-977
事件的	-978
他們對	-979
代表了	-980
但如果	-981
億美元	-982
克林頓	-983
十年代	-984
印第安	-985
可能會	-986
同時還	-987
唐納德	-988
喀麥隆	-989
土耳其	-990
在那裡	-991
地區的	-992
大略省	-993
委員會	-994
導致了	-995
就已經	-996
工作的	-997
布里斯	-998
年輕的	-999
很多人	-1000
得到了	-1001
成功的	-1002
投資人	-1003
拉費蒂	-1004
提供了	-1005
政府的	-1006
是什麼	-1007
是因為	-1008
棲息地	-1009
歐洲人	-1010
殖民地	-1011
民主黨	-1012
溫斯頓	-1013
特別是	-1014
獨立的	-1015
理論上	-1016
發言人	-1017
的人口	-1018
的問題	-1019
的投票	-1020
的方法	-1021
的機率	-1022
的發展	-1023
的統治	-1024
看起來	-1025
第一個	-1026
第二次	-1027
維爾克	-1028
蘇格蘭	-1029
這一點	-1030
進一步	-1031
進行了	-1032
銀行的	-1033
阿爾卑	-1034
1492	-1035
2017	-1036
▁200	-1037
▁Car	-1038
▁他們的	-1039
令人難以	-1040
契美尼德	-1041
安大略省	-1042
智能手機	-1043
▁另一方面	-1044
丹內維爾克	-1045
21	-1046
25	-1047
32	-1048
36	-1049
84	-1050
87	-1051
Ne	-1052
ad	-1053
ca	-1054
ds	-1055
ed	-1056
em	-1057
ff	-1058
hn	-1059
ir	-1060
ok	-1061
ou	-1062
po	-1063
ra	-1064
ul	-1065
ur	-1066
us	-1067
ün	-1068
▁E	-1069
▁K	-1070
▁N	-1071
▁T	-1072
▁W	-1073
▁到	-1074
▁博	-1075
▁多	-1076
▁布	-1077
▁截	-1078
▁拉	-1079
▁最	-1080
▁每	-1081
▁沙	-1082
▁然	-1083
▁自	-1084
▁與	-1085
▁高	-1086
一名	-1087
一場	-1088
一天	-1089
一定	-1090
一種	-1091
一致	-1092
三個	-1093
三次	-1094
下一	-1095
下了	-1096
不僅	-1097
不在	-1098
不太	-1099
中華	-1100
主持	-1101
主題	-1102
之下	-1103
之外	-1104
九月	-1105
也會	-1106
也有	-1107
乾旱	-1108
了其	-1109
了多	-1110
了解	-1111
事會	-1112
互聯	-1113
亞新	-1114
亞歷	-1115
亨利	-1116
人和	-1117
人是	-1118
今年	-1119
仍在	-1120
以至	-1121
伐克	-1122
伯爵	-1123
但這	-1124
位的	-1125
住民	-1126
佛羅	-1127
你們	-1128
佳的	-1129
來到	-1130
來看	-1131
依然	-1132
依賴	-1133
侵略	-1134
保羅	-1135
信仰	-1136
倫蒂	-1137
做的	-1138
像是	-1139
優勢	-1140
克爾	-1141
內亞	-1142
內戰	-1143
兩位	-1144
公共	-1145
公投	-1146
六大	-1147
六月	-1148
其後	-1149
具體	-1150
冰島	-1151
凱撒	-1152
凱爾	-1153
凱莎	-1154
分子	-1155
分類	-1156
利普	-1157
削減	-1158
前的	-1159
劇場	-1160
加索	-1161
助手	-1162
助於	-1163
努力	-1164
區柯	-1165
南海	-1166
原本	-1167
去了	-1168
友誼	-1169
反應	-1170
叛亂	-1171
古典	-1172
古巴	-1173
另一	-1174
只是	-1175
各種	-1176
合同	-1177
合理	-1178
合的	-1179
同意	-1180
含量	-1181
吸引	-1182
命令	-1183
和水	-1184
哥倫	-1185
喬治	-1186
嚴重	-1187
四個	-1188
回歸	-1189
國防	-1190
圖特	-1191
團隊	-1192
土著	-1193
在兩	-1194
在周	-1195
在戰	-1196
在於	-1197
在此	-1198
在聖	-1199
在華	-1200
地利	-1201
地表	-1202
士尼	-1203
多是	-1204
夢想	-1205
大幅	-1206
大廈	-1207
大選	-1208
奧巴	-1209
奧爾	-1210
女人	-1211
女性	-1212
好地	-1213
姆斯	-1214
威尼	-1215
嫌疑	-1216
嬰兒	-1217
子郵	-1218
字母	-1219
學者	-1220
學院	-1221
安東	-1222
定居	-1223
客戶	-1224
宣傳	-1225
實施	-1226
實現	-1227
實行	-1228
寫道	-1229
封信	-1230
將其	-1231
將在	-1232
專家	-1233
對待	-1234
對於	-1235
小型	-1236
小說	-1237
就已	-1238
就能	-1239
居住	-1240
居里	-1241
展覽	-1242
工資	-1243
已被	-1244
巴布	-1245
巴拿	-1246
巴爾	-1247
巴西	-1248
巴達	-1249
市民	-1250
帕爾	-1251
帶著	-1252
帶領	-1253
常的	-1254
年被	-1255
康復	-1256
建造	-1257
引發	-1258
徵收	-1259
快速	-1260
恐怖	-1261
想像	-1262
意見	-1263
態度	-1264
慶典	-1265
成立	-1266
我的	-1267
戰場	-1268
托弗	-1269
托車	-1270
找到	-1271
投降	-1272
拉丁	-1273
拉伯	-1274
拉博	-1275
指南	-1276
授予	-1277
排放	-1278
採訪	-1279
接著	-1280
推進	-1281
措施	-1282
摩斯	-1283
擊敗	-1284
擔憂	-1285
支付	-1286
支出	-1287
改革	-1288
攻擊	-1289
政權	-1290
政策	-1291
數字	-1292
數量	-1293
文字	-1294
斯州	-1295
新生	-1296
方式	-1297
日的	-1298
早在	-1299
明白	-1300
是從	-1301
會見	-1302
月份	-1303
有著	-1304
朗特	-1305
未來	-1306
本來	-1307
本地	-1308
本週	-1309
東非	-1310
某種	-1311
柴油	-1312
格達	-1313
條件	-1314
業務	-1315
業生	-1316
業用	-1317
標準	-1318
標賽	-1319
模糊	-1320
歐盟	-1321
死於	-1322
殺死	-1323
每升	-1324
氣體	-1325
污染	-1326
沈括	-1327
治療	-1328
法庭	-1329
法院	-1330
海上	-1331
海拔	-1332
清楚	-1333
溫特	-1334
滅了	-1335
滿足	-1336
激增	-1337
火山	-1338
無論	-1339
爆發	-1340
父親	-1341
特利	-1342
特徵	-1343
特的	-1344
特點	-1345
獎金	-1346
王朝	-1347
理解	-1348
瑞典	-1349
瑞士	-1350
瑪爾	-1351
瑪雅	-1352
生產	-1353
產業	-1354
當中	-1355
當作	-1356
當天	-1357
當的	-1358
疑問	-1359
發表	-1360
發起	-1361
的水	-1362
的熱	-1363
的空	-1364
的精	-1365
的總	-1366
的起	-1367
的進	-1368
的選	-1369
的電	-1370
的頭	-1371
皇帝	-1372
皈依	-1373
盛頓	-1374
直到	-1375
相信	-1376
真的	-1377
確信	-1378
祖母	-1379
禁止	-1380
科學	-1381
科技	-1382
程中	-1383
種子	-1384
穀物	-1385
穩定	-1386
突然	-1387
競選	-1388
答案	-1389
節日	-1390
節目	-1391
米爾	-1392
糟糕	-1393
紀念	-1394
約在	-1395
給予	-1396
綠色	-1397
網站	-1398
網絡	-1399
總督	-1400
置信	-1401
能源	-1402
興趣	-1403
舉行	-1404
般的	-1405
花費	-1406
茉莉	-1407
處罰	-1408
蛋白	-1409
街上	-1410
表現	-1411
被解	-1412
被評	-1413
裡有	-1414
西斯	-1415
西部	-1416
視頻	-1417
觀的	-1418
解放	-1419
解決	-1420
言論	-1421
記者	-1422
設備	-1423
課程	-1424
諸如	-1425
諾斯	-1426
議會	-1427
讓他	-1428
貝爾	-1429
財政	-1430
資格	-1431
贊助	-1432
赫爾	-1433
趨勢	-1434
路易	-1435
路途	-1436
轉型	-1437
轉移	-1438
返回	-1439
這位	-1440
這裡	-1441
進了	-1442
遊戲	-1443
遊行	-1444
運用	-1445
避孕	-1446
邊的	-1447
那種	-1448
部門	-1449
釋放	-1450
重新	-1451
鐵路	-1452
開展	-1453
關鍵	-1454
阻止	-1455
限制	-1456
雅典	-1457
雷達	-1458
震驚	-1459
面是	-1460
面的	-1461
面臨	-1462
預計	-1463
領先	-1464
領土	-1465
領域	-1466
顆粒	-1467
風格	-1468
餘額	-1469
首先	-1470
首都	-1471
馬丁	-1472
鬥爭	-1473
黃金	-1474
黨派	-1475
鼓勵	-1476
100	-1477
195	-1478
and	-1479
ano	-1480
gan	-1481
ham	-1482
ine	-1483
ing	-1484
the	-1485
▁15	-1486
▁20	-1487
▁An	-1488
▁一些	-1489
▁中國	-1490
▁人們	-1491
▁他還	-1492
▁儘管	-1493
▁其中	-1494
▁德國	-1495
▁截至	-1496
▁泰國	-1497
▁許多	-1498
▁這一	-1499
▁通過	-1500
▁關於	-1501
▁隨後	-1502
不知道	-1503
並不能	-1504
主義者	-1505
了一種	-1506
了他的	-1507
互聯網	-1508
亞新幾	-1509
以至於	-1510
保證了	-1511
倫蒂諾	-1512
全世界	-1513
兩個人	-1514
六大國	-1515
出演了	-1516
出現了	-1517
分類法	-1518
加拿大	-1519
北卡羅	-1520
區柯克	-1521
南美洲	-1522
原住民	-1523
參議院	-1524
另一個	-1525
可稱為	-1526
可能是	-1527
可追溯	-1528
回到了	-1529
在內的	-1530
在工作	-1531
在英國	-1532
城鎮化	-1533
大學的	-1534
大量的	-1535
天主教	-1536
奧地利	-1537
奧巴馬	-1538
奧斯卡	-1539
子郵件	-1540
安東尼	-1541
將會在	-1542
對美國	-1543
導致的	-1544
巨大的	-1545
已經在	-1546
巴拿馬	-1547
希臘的	-1548
建立了	-1549
形成了	-1550
很大的	-1551
很明顯	-1552
我們在	-1553
戰爭中	-1554
投資者	-1555
接受了	-1556
提出了	-1557
摩托車	-1558
斯拉夫	-1559
明顯的	-1560
更多的	-1561
最大的	-1562
會獲得	-1563
會見了	-1564
有助於	-1565
東南部	-1566
格達汗	-1567
業用地	-1568
比賽中	-1569
法蘭西	-1570
洛伐克	-1571
消費者	-1572
發生在	-1573
的一次	-1574
的一集	-1575
的人才	-1576
的地標	-1577
的工作	-1578
的成功	-1579
的所有	-1580
的支持	-1581
的新聞	-1582
的時候	-1583
的社會	-1584
的行動	-1585
的選民	-1586
的那樣	-1587
研究所	-1588
科學家	-1589
程度上	-1590
約瑟夫	-1591
而不是	-1592
芬蘭語	-1593
菲利普	-1594
薩斯州	-1595
行為的	-1596
被指控	-1597
被稱為	-1598
被認為	-1599
補充道	-1600
西格爾	-1601
解釋說	-1602
說明了	-1603
迪士尼	-1604
運動會	-1605
還可以	-1606
銅時代	-1607
錦標賽	-1608
阿拉伯	-1609
附近的	-1610
1992	-1611
1997	-1612
2013	-1613
2015	-1614
2016	-1615
Barr	-1616
Rich	-1617
asti	-1618
ucas	-1619
▁克里斯	-1620
▁公元前	-1621
▁在過去	-1622
世界大戰	-1623
了自己的	-1624
他的妻子	-1625
他的電影	-1626
令人擔憂	-1627
其中包括	-1628
到了美國	-1629
加拿大的	-1630
唱片公司	-1631
圖特摩斯	-1632
在地中海	-1633
埃及法老	-1634
工業革命	-1635
布里斯班	-1636
平均水平	-1637
建立起了	-1638
我們必須	-1639
所需要的	-1640
接下來的	-1641
歐元每升	-1642
特朗普的	-1643
瓦倫蒂諾	-1644
的房地產	-1645
績效工資	-1646
自然資源	-1647
路途時間	-1648
農業用地	-1649
這是一個	-1650
▁2010	-1651
▁澳大利亞	-1652
了一個新的	-1653
亞新幾內亞	-1654
奧斯曼帝國	-1655
阿契美尼德	-1656
Martin	-1657
令人難以置信	-1658
阿爾卑斯山脈	-1659
阿爾巴尼亞的	-1660
巴布亞新幾內亞	-1661
%。	-1662
,《	-1663
27	-1664
29	-1665
34	-1666
39	-1667
40	-1668
56	-1669
62	-1670
65	-1671
66	-1672
76	-1673
79	-1674
82	-1675
96	-1676
99	-1677
Ad	-1678
CO	-1679
Ch	-1680
Di	-1681
EM	-1682
Ge	-1683
In	-1684
Je	-1685
Ju	-1686
NA	-1687
Pu	-1688
RE	-1689
Ro	-1690
SP	-1691
Sl	-1692
be	-1693
bo	-1694
co	-1695
ct	-1696
de	-1697
di	-1698
fu	-1699
Le	-1700
Ma	-1701
do	-1702
fy	-1703
io	-1704
ki	-1705
lo	-1706
ma	-1707
no	-1708
ph	-1709
ts	-1710
ty	-1711
up	-1712
zá	-1713
£3	-1714
án	-1715
”(	-1716
▁"	-1717
▁F	-1718
▁J	-1719
▁Y	-1720
▁Z	-1721
▁”	-1722
▁你	-1723
▁其	-1724
▁和	-1725
▁如	-1726
▁就	-1727
▁於	-1728
▁畢	-1729
▁白	-1730
▁相	-1731
▁確	-1732
▁科	-1733
▁聯	-1734
▁蘇	-1735
▁裡	-1736
▁賴	-1737
▁鑑	-1738
▁除	-1739
▁雪	-1740
。"	-1741
一分	-1742
一帶	-1743
一座	-1744
一般	-1745
丁堡	-1746
三角	-1747
上並	-1748
上午	-1749
上很	-1750
上限	-1751
下來	-1752
下面	-1753
不久	-1754
不合	-1755
不大	-1756
不好	-1757
不想	-1758
世的	-1759
丘吉	-1760
丟了	-1761
中入	-1762
中吸	-1763
中央	-1764
中斷	-1765
中移	-1766
主導	-1767
主席	-1768
主張	-1769
主演	-1770
乃至	-1771
之於	-1772
乘客	-1773
也是	-1774
了不	-1775
了八	-1776
了十	-1777
了大	-1778
了它	-1779
了對	-1780
了數	-1781
了該	-1782
事實	-1783
事情	-1784
二十	-1785
互相	-1786
五十	-1787
五年	-1788
亞洲	-1789
交了	-1790
交易	-1791
人數	-1792
人機	-1793
人民	-1794
今天	-1795
仍舊	-1796
他也	-1797
他了	-1798
他將	-1799
gh	-1800
▁維	-1801
不經	-1802
乘坐	-1803
他就	-1804
他手	-1805
他會	-1806
他被	-1807
任的	-1808
休息	-1809
伯戈	-1810
伯蘭	-1811
似的	-1812
但他	-1813
佈於	-1814
位置	-1815
佔有	-1816
佔領	-1817
作出	-1818
作曲	-1819
你更	-1820
你的	-1821
使他	-1822
使其	-1823
使得	-1824
使該	-1825
來分	-1826
來納	-1827
來臨	-1828
保守	-1829
保留	-1830
保障	-1831
信號	-1832
修建	-1833
假期	-1834
假設	-1835
做了	-1836
停留	-1837
停運	-1838
傳播	-1839
債務	-1840
傷害	-1841
優先	-1842
優步	-1843
優秀	-1844
儲蓄	-1845
充分	-1846
充滿	-1847
克蘭	-1848
克頓	-1849
內爾	-1850
全部	-1851
兩人	-1852
兩次	-1853
兩者	-1854
公主	-1855
公國	-1856
公寓	-1857
公民	-1858
出來	-1859
出於	-1860
分鐘	-1861
分離	-1862
初選	-1863
別人	-1864
利時	-1865
利益	-1866
制受	-1867
制度	-1868
前線	-1869
前進	-1870
割讓	-1871
劇本	-1872
力的	-1873
加低	-1874
加入	-1875
加利	-1876
加工	-1877
助理	-1878
動力	-1879
勢力	-1880
勳爵	-1881
匈牙	-1882
化學	-1883
化的	-1884
北朝	-1885
匹克	-1886
十個	-1887
千年	-1888
協助	-1889
協定	-1890
南亞	-1891
南極	-1892
南非	-1893
博客	-1894
卜林	-1895
卡塔	-1896
卡拉	-1897
卡森	-1898
卡洛	-1899
Jo	-1900
北海	-1901
即使	-1902
即將	-1903
去除	-1904
參賽	-1905
反法	-1906
取代	-1907
取消	-1908
受歡	-1909
叛軍	-1910
古斯	-1911
古老	-1912
只能	-1913
可疑	-1914
台劇	-1915
史前	-1916
史密	-1917
史達	-1918
合了	-1919
合國	-1920
同年	-1921
向南	-1922
向著	-1923
否則	-1924
告知	-1925
告終	-1926
告誡	-1927
周圍	-1928
味著	-1929
呼聲	-1930
和不	-1931
和她	-1932
和烏	-1933
和紡	-1934
品牌	-1935
品種	-1936
哈拉	-1937
哪兒	-1938
哭泣	-1939
問了	-1940
善良	-1941
單元	-1942
嘗試	-1943
噁心	-1944
嚴格	-1945
四名	-1946
四月	-1947
因而	-1948
困擾	-1949
圍內	-1950
圍繞	-1951
圖片	-1952
團體	-1953
在同	-1954
地峽	-1955
均收	-1956
埃爾	-1957
執行	-1958
基於	-1959
報紙	-1960
場合	-1961
塊釙	-1962
塔斯	-1963
塔爾	-1964
塞爾	-1965
塞特	-1966
塞西	-1967
塵暴	-1968
士兵	-1969
多個	-1970
多元	-1971
多安	-1972
多年	-1973
多於	-1974
多樣	-1975
多次	-1976
大樓	-1977
大火	-1978
大麻	-1979
天文	-1980
太平	-1981
太空	-1982
太陽	-1983
夫在	-1984
失望	-1985
奇蹟	-1986
契丹	-1987
奧林	-1988
奧運	-1989
奪回	-1990
女巫	-1991
她寫	-1992
她是	-1993
她為	-1994
她說	-1995
好評	-1996
妙的	-1997
妥協	-1998
妥善	-1999
威廉	-2000
娛樂	-2001
子高	-2002
存活	-2003
季節	-2004
它為	-2005
守護	-2006
安娜	-2007
安德	-2008
安石	-2009
安第	-2010
安迪	-2011
完工	-2012
官員	-2013
官方	-2014
客串	-2015
室內	-2016
家的	-2017
密爾	-2018
審查	-2019
寫作	-2020
將會	-2021
將能	-2022
將要	-2023
專業	-2024
尋求	-2025
對尼	-2026
對情	-2027
對方	-2028
對的	-2029
導方	-2030
小時	-2031
少的	-2032
尤其	-2033
就在	-2034
就被	-2035
尼基	-2036
局勢	-2037
局的	-2038
局面	-2039
展現	-2040
岡薩	-2041
島和	-2042
崔絲	-2043
嶄露	-2044
工人	-2045
巨額	-2046
差不	-2047
差異	-2048
巴羅	-2049
市長	-2050
布魯	-2051
希羅	-2052
帕克	-2053
干預	-2054
平台	-2055
平壤	-2056
平手	-2057
年人	-2058
年以	-2059
年內	-2060
年到	-2061
年在	-2062
年度	-2063
年後	-2064
年推	-2065
年春	-2066
年是	-2067
年級	-2068
年號	-2069
年間	-2070
幸運	-2071
幾十	-2072
廢墟	-2073
廣播	-2074
延續	-2075
建於	-2076
建設	-2077
引用	-2078
形式	-2079
形象	-2080
影片	-2081
很少	-2082
很快	-2083
很有	-2084
後者	-2085
得以	-2086
從而	-2087
復興	-2088
微小	-2089
德於	-2090
徹底	-2091
心態	-2092
必要	-2093
志願	-2094
忽視	-2095
思考	-2096
思議	-2097
性別	-2098
想要	-2099
意圖	-2100
愚蠢	-2101
愛爾	-2102
感覺	-2103
慶祝	-2104
成員	-2105
成就	-2106
我會	-2107
我都	-2108
或在	-2109
戰敗	-2110
戰鬥	-2111
戴維	-2112
所謂	-2113
所需	-2114
手術	-2115
打開	-2116
打鬥	-2117
批發	-2118
投入	-2119
抗議	-2120
拉多	-2121
拉尼	-2122
拉德	-2123
拉諾	-2124
拉迪	-2125
拿破	-2126
指出	-2127
挪威	-2128
掌權	-2129
排除	-2130
採取	-2131
探索	-2132
探討	-2133
接收	-2134
接觸	-2135
推動	-2136
推特	-2137
提及	-2138
提高	-2139
揭示	-2140
揭露	-2141
損失	-2142
摧毀	-2143
摩納	-2144
撒海	-2145
撤退	-2146
擊者	-2147
擔心	-2148
據此	-2149
擬定	-2150
擴展	-2151
擺脫	-2152
放在	-2153
政黨	-2154
效忠	-2155
教皇	-2156
數次	-2157
文以	-2158
文章	-2159
料的	-2160
斯帕	-2161
新聞	-2162
斷層	-2163
方言	-2164
旅行	-2165
族裔	-2166
日出	-2167
日子	-2168
日常	-2169
日耳	-2170
早了	-2171
早期	-2172
明治	-2173
易見	-2174
是上	-2175
是其	-2176
是由	-2177
是誰	-2178
是這	-2179
時刻	-2180
時期	-2181
普敦	-2182
普林	-2183
普爾	-2184
暫停	-2185
更多	-2186
更為	-2187
曾在	-2188
最有	-2189
會被	-2190
月的	-2191
月至	-2192
有三	-2193
有些	-2194
有意	-2195
有的	-2196
木舟	-2197
本中	-2198
本的	-2199
朱婷	-2200
李維	-2201
東部	-2202
林斯	-2203
林肯	-2204
格麗	-2205
梅爾	-2206
條款	-2207
棕櫚	-2208
極度	-2209
概念	-2210
標誌	-2211
模型	-2212
檢查	-2213
檢測	-2214
欺詐	-2215
歌手	-2216
歡樂	-2217
正確	-2218
此次	-2219
武器	-2220
武裝	-2221
死亡	-2222
死後	-2223
殊榮	-2224
殺了	-2225
每人	-2226
每年	-2227
比例	-2228
比在	-2229
比的	-2230
民國	-2231
氣象	-2232
水池	-2233
永不	-2234
沃爾	-2235
河的	-2236
法令	-2237
波的	-2238
波蘭	-2239
注意	-2240
注重	-2241
洋的	-2242
洛克	-2243
洲的	-2244
流行	-2245
海和	-2246
海報	-2247
海外	-2248
海峽	-2249
海的	-2250
深的	-2251
深遠	-2252
添加	-2253
港口	-2254
準確	-2255
溫度	-2256
滅亡	-2257
滿意	-2258
滿族	-2259
演員	-2260
演唱	-2261
澳洲	-2262
激素	-2263
激進	-2264
火箭	-2265
火車	-2266
災難	-2267
為二	-2268
為期	-2269
為止	-2270
為野	-2271
熱的	-2272
燈塔	-2273
爭論	-2274
爭議	-2275
爵位	-2276
爾斯	-2277
片場	-2278
版的	-2279
牧師	-2280
特靈	-2281
狀態	-2282
狀況	-2283
猜測	-2284
獎項	-2285
獨自	-2286
獲勝	-2287
獲獎	-2288
率比	-2289
瑙河	-2290
環節	-2291
瓦雷	-2292
生態	-2293
生者	-2294
生肖	-2295
男人	-2296
疼痛	-2297
病人	-2298
瘋狂	-2299
發揮	-2300
發明	-2301
發育	-2302
發送	-2303
白人	-2304
百分	-2305
的學	-2306
的宣	-2307
的後	-2308
的托	-2309
的期	-2310
的神	-2311
的立	-2312
的細	-2313
的結	-2314
的賽	-2315
的這	-2316
的醫	-2317
監管	-2318
直至	-2319
相同	-2320
相對	-2321
真實	-2322
真正	-2323
知識	-2324
石製	-2325
破裂	-2326
確實	-2327
礁湖	-2328
礦物	-2329
社交	-2330
祈禱	-2331
福德	-2332
福特	-2333
科幻	-2334
科恩	-2335
秘密	-2336
程序	-2337
種族	-2338
稱他	-2339
穩步	-2340
空氣	-2341
穿戴	-2342
立石	-2343
立足	-2344
童工	-2345
符合	-2346
簡直	-2347
約克	-2348
約後	-2349
約里	-2350
紐約	-2351
索爾	-2352
給西	-2353
統計	-2354
經歷	-2355
經過	-2356
經驗	-2357
網上	-2358
緊鄰	-2359
線的	-2360
編輯	-2361
總是	-2362
繼承	-2363
缺席	-2364
美裔	-2365
群體	-2366
習慣	-2367
考慮	-2368
而我	-2369
而有	-2370
而被	-2371
而言	-2372
聊天	-2373
聯軍	-2374
職位	-2375
聽證	-2376
肥料	-2377
肺的	-2378
能使	-2379
能在	-2380
脆弱	-2381
至八	-2382
致命	-2383
與其	-2384
舊金	-2385
船員	-2386
船的	-2387
船隻	-2388
艾達	-2389
茵河	-2390
莫伊	-2391
萊德	-2392
萬人	-2393
著陸	-2394
葡萄	-2395
葬禮	-2396
蒂娜	-2397
蒂安	-2398
蒂芬	-2399
蓋耶	-2400
薩拉	-2401
薩米	-2402
藉由	-2403
虔誠	-2404
血紅	-2405
衣服	-2406
被遺	-2407
補助	-2408
要么	-2409
見過	-2410
規劃	-2411
視為	-2412
觀察	-2413
角色	-2414
計算	-2415
訥河	-2416
評估	-2417
評論	-2418
詳細	-2419
認識	-2420
語中	-2421
誰能	-2422
請願	-2423
諾瑪	-2424
謀殺	-2425
謙遜	-2426
講述	-2427
證據	-2428
變的	-2429
變遷	-2430
讓人	-2431
貝貝	-2432
財務	-2433
貴族	-2434
資本	-2435
資金	-2436
賞識	-2437
賠償	-2438
質量	-2439
賺取	-2440
購買	-2441
走向	-2442
超級	-2443
超越	-2444
身份	-2445
車型	-2446
軍官	-2447
較為	-2448
轉而	-2449
轉變	-2450
轟炸	-2451
辦公	-2452
農民	-2453
近期	-2454
近海	-2455
迦南	-2456
追求	-2457
透露	-2458
這也	-2459
這兩	-2460
這片	-2461
這部	-2462
通知	-2463
通道	-2464
週二	-2465
週六	-2466
進到	-2467
進去	-2468
進場	-2469
運輸	-2470
道德	-2471
達爾	-2472
達菲	-2473
遠了	-2474
遠離	-2475
選出	-2476
選項	-2477
遺憾	-2478
遺跡	-2479
邁錫	-2480
還會	-2481
還未	-2482
還沒	-2483
還能	-2484
邊緣	-2485
那兒	-2486
那里	-2487
郡的	-2488
部件	-2489
部落	-2490
都有	-2491
醜聞	-2492
醫生	-2493
醫療	-2494
里希	-2495
里達	-2496
重現	-2497
量的	-2498
釙樣	-2499
針對	-2500
錄製	-2501
錯誤	-2502
鏈接	-2503
開支	-2504
關心	-2505
關閉	-2506
防衛	-2507
阿伯	-2508
阿普	-2509
隨時	-2510
險的	-2511
雅那	-2512
集了	-2513
集團	-2514
集的	-2515
離婚	-2516
雷暴	-2517
電站	-2518
霸占	-2519
靈感	-2520
預報	-2521
預算	-2522
頭角	-2523
頭銜	-2524
願意	-2525
顧客	-2526
顯然	-2527
顯而	-2528
食品	-2529
食物	-2530
飽受	-2531
養分	-2532
首席	-2533
馬爾	-2534
騎兵	-2535
驚訝	-2536
體的	-2537
高於	-2538
鬥志	-2539
鬧劇	-2540
鱈魚	-2541
黨內	-2542
龐培	-2543
$15	-2544
107	-2545
190	-2546
194	-2547
30-	-2548
330	-2549
760	-2550
DNA	-2551
Dav	-2552
Dün	-2553
Fac	-2554
Ger	-2555
Mon	-2556
Nor	-2557
Sim	-2558
ach	-2559
ack	-2560
ass	-2561
ate	-2562
aya	-2563
can	-2564
dar	-2565
ebo	-2566
ena	-2567
enb	-2568
est	-2569
etr	-2570
iam	-2571
ier	-2572
ilm	-2573
ina	-2574
int	-2575
iri	-2576
ive	-2577
kor	-2578
lez	-2579
mer	-2580
ner	-2581
ogy	-2582
one	-2583
org	-2584
orr	-2585
ple	-2586
ris	-2587
rum	-2588
son	-2589
uck	-2590
£12	-2591
▁17	-2592
▁Av	-2593
▁Cl	-2594
▁De	-2595
▁Di	-2596
▁de	-2597
▁一位	-2598
▁一項	-2599
▁三島	-2600
▁不過	-2601
▁他也	-2602
▁他的	-2603
▁位於	-2604
▁作為	-2605
▁全球	-2606
▁兩年	-2607
▁喬治	-2608
▁因此	-2609
▁國際	-2610
▁在中	-2611
▁在其	-2612
▁它與	-2613
▁對於	-2614
▁後來	-2615
▁後者	-2616
▁我的	-2617
▁所以	-2618
▁據說	-2619
▁時任	-2620
▁最後	-2621
▁有人	-2622
▁正如	-2623
▁此外	-2624
▁沈括	-2625
▁沒有	-2626
▁然而	-2627
▁特別	-2628
▁畢竟	-2629
▁當時	-2630
▁研究	-2631
▁第一	-2632
▁第三	-2633
▁第二	-2634
▁聯邦	-2635
▁與此	-2636
▁警察	-2637
▁賴特	-2638
▁迪斯	-2639
▁這裡	-2640
▁通常	-2641
▁鑑於	-2642
▁阿爾	-2643
▁除了	-2644
▁雖然	-2645
▁雪人	-2646
▁電影	-2647
一個人	-2648
一定會	-2649
一樣的	-2650
一系列	-2651
一面是	-2652
三十年	-2653
上個月	-2654
下來的	-2655
不存在	-2656
不得不	-2657
不應該	-2658
世界上	-2659
世紀中	-2660
世紀末	-2661
中入讀	-2662
中寫道	-2663
中心的	-2664
中扮演	-2665
中發現	-2666
主持人	-2667
主義的	-2668
主要由	-2669
也不會	-2670
也就是	-2671
也開始	-2672
了一場	-2673
了使用	-2674
了戰爭	-2675
了所有	-2676
了整個	-2677
五十萬	-2678
亞歷山	-2679
他已經	-2680
他自己	-2681
代表著	-2682
以來最	-2683
伯戈因	-2684
但是在	-2685
但這一	-2686
低海拔	-2687
作曲家	-2688
你知道	-2689
使用了	-2690
來源於	-2691
保持著	-2692
信仰的	-2693
偉大的	-2694
傳統是	-2695
價格為	-2696
億歐元	-2697
億英鎊	-2698
兄弟們	-2699
克萊恩	-2700
其他人	-2701
再一次	-2702
凱爾特	-2703
出來的	-2704
出現在	-2705
出生於	-2706
出生的	-2707
利用了	-2708
到整個	-2709
制受洗	-2710
創作了	-2711
劇作家	-2712
力發電	-2713
匈牙利	-2714
北京的	-2715
北朝鮮	-2716
北部的	-2717
十年內	-2718
十月初	-2719
卡洛斯	-2720
受到了	-2721
受歡迎	-2722
叛亂的	-2723
古拉斯	-2724
可持續	-2725
可疑的	-2726
可能性	-2727
史達林	-2728
吉他手	-2729
吉卜林	-2730
同樣的	-2731
吸引力	-2732
和一個	-2733
和中國	-2734
和國民	-2735
和平的	-2736
和歷史	-2737
和獎金	-2738
和紡織	-2739
問題的	-2740
圍繞著	-2741
在一個	-2742
在七月	-2743
在之後	-2744
在位的	-2745
在兩個	-2746
在沙漠	-2747
在美國	-2748
地區和	-2749
均收入	-2750
坎伯蘭	-2751
型基金	-2752
城市中	-2753
基督教	-2754
報導說	-2755
多數人	-2756
大多數	-2757
大都會	-2758
奠定了	-2759
奧古斯	-2760
奧運會	-2761
好幾個	-2762
威尼斯	-2763
嫌疑人	-2764
字母表	-2765
它們的	-2766
安石的	-2767
完成了	-2768
完成的	-2769
實際上	-2770
實驗室	-2771
對人類	-2772
對他們	-2773
對情侶	-2774
對我們	-2775
導方針	-2776
導演的	-2777
小塊釙	-2778
就是在	-2779
岩島嶼	-2780
巴爾幹	-2781
巴羅佐	-2782
布朗特	-2783
希羅底	-2784
帕爾馬	-2785
常見的	-2786
幫助下	-2787
平行的	-2788
年之間	-2789
年代初	-2790
年十月	-2791
年夏天	-2792
年夏季	-2793
年成立	-2794
年春天	-2795
年級的	-2796
幸的是	-2797
很容易	-2798
德國和	-2799
必不可	-2800
怎麼樣	-2801
恰當的	-2802
意味著	-2803
愛丁堡	-2804
愛爾蘭	-2805
我們會	-2806
我已經	-2807
我覺得	-2808
或者說	-2809
戰後的	-2810
所以我	-2811
所學校	-2812
打入了	-2813
打平手	-2814
找到了	-2815
投資在	-2816
拉博夫	-2817
拉斯加	-2818
拉斯哥	-2819
拿破崙	-2820
指揮權	-2821
挑戰的	-2822
接下來	-2823
摩納哥	-2824
撒哈拉	-2825
撒海爾	-2826
教人們	-2827
文明均	-2828
斯巴達	-2829
日之前	-2830
日耳曼	-2831
是一名	-2832
是一種	-2833
是可以	-2834
是政府	-2835
是清朝	-2836
是由於	-2837
更好地	-2838
最好的	-2839
最新的	-2840
最近的	-2841
最高的	-2842
會導致	-2843
月期間	-2844
有一位	-2845
有很多	-2846
未來的	-2847
格麗特	-2848
業生涯	-2849
權力的	-2850
歷史的	-2851
比利時	-2852
民族在	-2853
河流均	-2854
法國在	-2855
活動中	-2856
激烈的	-2857
為他們	-2858
為基礎	-2859
為歐洲	-2860
猶太人	-2861
猶太教	-2862
獨木舟	-2863
理事會	-2864
理查德	-2865
瓦雷茨	-2866
生活的	-2867
用名字	-2868
男子高	-2869
留下了	-2870
登上了	-2871
發布了	-2872
發布的	-2873
發生了	-2874
發生率	-2875
發電機	-2876
百萬冊	-2877
的一派	-2878
的一面	-2879
的人數	-2880
的人物	-2881
的保護	-2882
的信息	-2883
的元素	-2884
的內容	-2885
的另一	-2886
的名字	-2887
的城市	-2888
的心態	-2889
的志願	-2890
的情況	-2891
的想法	-2892
的成就	-2893
的技術	-2894
的投資	-2895
的文化	-2896
的日子	-2897
的是在	-2898
的時間	-2899
的最高	-2900
的條件	-2901
的機會	-2902
的歷史	-2903
的殊榮	-2904
的消息	-2905
的特別	-2906
的疑問	-2907
的研究	-2908
的破壞	-2909
的祖母	-2910
的私人	-2911
的立場	-2912
的系統	-2913
的藝術	-2914
的要求	-2915
的許多	-2916
的費用	-2917
的趨勢	-2918
的電影	-2919
目擊者	-2920
研究的	-2921
種子長	-2922
第一位	-2923
第三方	-2924
第二個	-2925
等我們	-2926
管不好	-2927
簽訂了	-2928
糟糕的	-2929
系統在	-2930
紀念碑	-2931
約里奧	-2932
罕見的	-2933
羅馬人	-2934
美國人	-2935
美西斯	-2936
而受到	-2937
聽證會	-2938
腓尼基	-2939
至十四	-2940
至少能	-2941
舉辦的	-2942
舊金山	-2943
舞台劇	-2944
色雷斯	-2945
英格蘭	-2946
萬歐元	-2947
被告知	-2948
被征服	-2949
被當作	-2950
被調查	-2951
西北部	-2952
西方的	-2953
西西里	-2954
要求把	-2955
訪問了	-2956
設計師	-2957
試圖讓	-2958
該城市	-2959
該電影	-2960
詹姆斯	-2961
警告說	-2962
讓羅娜	-2963
赫爾茨	-2964
這兩個	-2965
通常是	-2966
進入了	-2967
進行的	-2968
邁克爾	-2969
邁錫尼	-2970
還需要	-2971
那些在	-2972
部部長	-2973
重大的	-2974
開始的	-2975
開普敦	-2976
關於該	-2977
降到了	-2978
限制在	-2979
項目中	-2980
領導人	-2981
顯示了	-2982
飛行員	-2983
首歌曲	-2984
馬德里	-2985
高加索	-2986
高爾夫	-2987
,199	-2988
11%,	-2989
1820	-2990
1879	-2991
1914	-2992
1916	-2993
1918	-2994
1991	-2995
2004	-2996
2008	-2997
2012	-2998
Andy	-2999
Jeff	-3000
John	-3001
RECO	-3002
aret	-3003
atal	-3004
berg	-3005
icol	-3006
korn	-3007
onzá	-3008
osos	-3009
poti	-3010
▁107	-3011
▁196	-3012
▁Mar	-3013
▁Sal	-3014
▁Win	-3015
▁and	-3016
▁the	-3017
▁但是在	-3018
▁俄羅斯	-3019
▁兩年後	-3020
▁共和黨	-3021
▁唐納德	-3022
▁在他們	-3023
▁希拉里	-3024
▁我認為	-3025
▁棲息地	-3026
▁沙塵暴	-3027
▁理論上	-3028
▁目前的	-3029
▁聯合國	-3030
▁迪斯尼	-3031
▁馬其頓	-3032
一分為二	-3033
一起工作	-3034
不可思議	-3035
不是所有	-3036
世界冠軍	-3037
中國將在	-3038
中華民國	-3039
主要來自	-3040
也適用於	-3041
了一系列	-3042
今天上午	-3043
代理人的	-3044
代表了最	-3045
以及其他	-3046
伊斯蘭教	-3047
但是他的	-3048
佛羅里達	-3049
作為一個	-3050
作為主要	-3051
六十年代	-3052
共同出演	-3053
共和國的	-3054
其他國家	-3055
出自己的	-3056
北部區域	-3057
可以緩解	-3058
命令不得	-3059
和印第安	-3060
和城鎮化	-3061
哥倫佈於	-3062
哪兒來的	-3063
因為他們	-3064
因為這些	-3065
國家公園	-3066
土著群體	-3067
在公元前	-3068
在此之前	-3069
在華盛頓	-3070
地面控制	-3071
埃爾多安	-3072
堪薩斯州	-3073
塞特郡的	-3074
大概降低	-3075
大部分的	-3076
天氣預報	-3077
奧林匹克	-3078
宣布破產	-3079
對的靈感	-3080
岡薩雷斯	-3081
嶄露頭角	-3082
工作時間	-3083
工作環境	-3084
巴黎協定	-3085
希區柯克	-3086
帶有一個	-3087
年代中期	-3088
年以來的	-3089
幾乎沒有	-3090
強制受洗	-3091
很可能是	-3092
成為總統	-3093
成的植物	-3094
戰爭期間	-3095
戰爭爆發	-3096
拉丁美裔	-3097
拉的嬰兒	-3098
指導方針	-3099
接受教育	-3100
政權轉移	-3101
斯帕尼亞	-3102
斯洛伐克	-3103
明治天皇	-3104
是世界上	-3105
最有可能	-3106
有很大的	-3107
板塊斷層	-3108
格拉斯哥	-3109
歲的兒童	-3110
歷史學家	-3111
氣體質量	-3112
沒有這些	-3113
海的鱈魚	-3114
溫特科恩	-3115
激素避孕	-3116
王安石的	-3117
瑪格麗特	-3118
生態系統	-3119
發現大陸	-3120
發生變化	-3121
的一集中	-3122
的可能性	-3123
的幫助下	-3124
的水資源	-3125
的統治者	-3126
的高爾夫	-3127
相似之處	-3128
社交媒體	-3129
社會主義	-3130
穿過邊境	-3131
米爾一世	-3132
約克公爵	-3133
約公元前	-3134
給西雅那	-3135
統治地位	-3136
羅馬帝國	-3137
職業生涯	-3138
至公元前	-3139
舊殖民地	-3140
蘇格蘭人	-3141
血紅蛋白	-3142
該電影由	-3143
警方表示	-3144
變得更加	-3145
賬戶餘額	-3146
越來越多	-3147
迦南人的	-3148
這部電影	-3149
進場系統	-3150
阿拉斯加	-3151
阿普利亞	-3152
青銅時代	-3153
顯而易見	-3154
飽受批評	-3155
5,000	-3156
Georg	-3157
Leive	-3158
Rasti	-3159
canol	-3160
ebook	-3161
erber	-3162
icone	-3163
▁1770	-3164
▁1832	-3165
▁1976	-3166
▁2011	-3167
▁2012	-3168
▁2015	-3169
▁Film	-3170
▁博格達汗	-3171
▁它是一個	-3172
▁從公元前	-3173
▁研究人員	-3174
▁聯邦政府	-3175
▁與此同時	-3176
一些不同的	-3177
一直在尋找	-3178
伯戈因將軍	-3179
低海拔地區	-3180
候選人資格	-3181
全球最大的	-3182
北卡羅來納	-3183
和澳大利亞	-3184
和瓦倫蒂諾	-3185
在地中海的	-3186
天皇在位的	-3187
安第斯山脈	-3188
宗教信仰的	-3189
就是為什麼	-3190
巴拿馬地峽	-3191
年級的全國	-3192
必不可少的	-3193
應用到整個	-3194
撒哈拉沙漠	-3195
收益型基金	-3196
教人們如何	-3197
更令人擔憂	-3198
澳大利亞人	-3199
生命的最後	-3200
發生的機率	-3201
的地標燈塔	-3202
皈依猶太教	-3203
自己的政治	-3204
越來越多的	-3205
開放的心態	-3206
非洲撒海爾	-3207
高加索地區	-3208
Dündar	-3209
Rastiz	-3210
caucas	-3211
icolai	-3212
potify	-3213
▁Anaya	-3214
▁克里斯托弗	-3215
不可思議的一	-3216
品種可以緩解	-3217
圖特摩斯三世	-3218
就會大概降低	-3219
現代西班牙語	-3220
男子高中入讀	-3221
男性激素避孕	-3222
自然資源保護	-3223
莫伊米爾一世	-3224
Richard	-3225
atalano	-3226
onzález	-3227
terkorn	-3228
北朝鮮的高爾夫	-3229
奧林匹克運動會	-3230
氣體質量分類法	-3231
種子長成的植物	-3232
第一次世界大戰	-3233
給西雅那銀行的	-3234
績效工資和獎金	-3235
至十四歲的兒童	-3236
Barrosos	-3237
Facebook	-3238
canology	-3239
caucasus	-3240
orricone	-3241
▁Nicolai	-3242
地面控制進場系統	-3243
安大略省的房地產	-3244
為歐洲低海拔地區	-3245
年級的全國平均水平	-3246
發生的機率就會大概降低	-3247
阿爾卑斯山脈為歐洲低海拔地區	-3248
▁揭露	-3249
▁撤退	-3250
▁梅爾	-3251
▁蒂娜	-3252
▁衣服	-3253
▁誰能	-3254
▁週二	-3255
▁雷暴	-3256
上海和	-3257
上船的	-3258
不比在	-3259
不相同	-3260
不道德	-3261
不遠了	-3262
並賠償	-3263
中獨自	-3264
中詳細	-3265
中賺取	-3266
中都有	-3267
也推動	-3268
了演唱	-3269
亞聯軍	-3270
人曾在	-3271
人缺席	-3272
人見過	-3273
他激進	-3274
他霸占	-3275
他願意	-3276
付更多	-3277
但蓋耶	-3278
位資本	-3279
佩達爾	-3280
來祈禱	-3281
來計算	-3282
個港口	-3283
個男人	-3284
倫比的	-3285
像海外	-3286
克萊德	-3287
兵軍官	-3288
其關閉	-3289
別林斯	-3290
利選項	-3291
副武裝	-3292
力證據	-3293
募集的	-3294
北走向	-3295
又有意	-3296
取更多	-3297
受爭議	-3298
受疼痛	-3299
人想要	-3300
口葡萄	-3301
右肺的	-3302
吉拉德	-3303
名獲勝	-3304
名這片	-3305
和政黨	-3306
和林肯	-3307
和武器	-3308
和火箭	-3309
和穿戴	-3310
和索爾	-3311
和近海	-3312
和這片	-3313
品批發	-3314
員效忠	-3315
嗆肺的	-3316
在歡樂	-3317
在波蘭	-3318
在生者	-3319
在紐約	-3320
在網上	-3321
在達菲	-3322
在遠離	-3323
地打開	-3324
地旅行	-3325
地講述	-3326
基普林	-3327
塔拉諾	-3328
塔比的	-3329
士李維	-3330
大洲的	-3331
奧聯軍	-3332
女演員	-3333
字版的	-3334
它標誌	-3335
就關閉	-3336
年滅亡	-3337
年為止	-3338
底是誰	-3339
度考慮	-3340
彼拉多	-3341
很驚訝	-3342
從挪威	-3343
愚蠢內	-3344
愚蠢至	-3345
感覺到	-3346
感覺是	-3347
成員大	-3348
成就展	-3349
成就獎	-3350
我排除	-3351
我擺脫	-3352
我會選	-3353
我都要	-3354
或在酒	-3355
戰鬥中	-3356
戴維斯	-3357
所接收	-3358
所謂的	-3359
所需的	-3360
手術和	-3361
才會被	-3362
打鬥和	-3363
把日出	-3364
拉尼西	-3365
拉迪亞	-3366
採集的	-3367
接收到	-3368
推特簡	-3369
推特賬	-3370
提及將	-3371
揭露後	-3372
摧毀的	-3373
擬定為	-3374
教皇方	-3375
數次挑	-3376
文以北	-3377
料的藥	-3378
斯死後	-3379
斯海峽	-3380
斯蒂芬	-3381
新聞說	-3382
族裔的	-3383
是其陳	-3384
是衣服	-3385
是近期	-3386
是這家	-3387
普林格	-3388
普爾市	-3389
暫停於	-3390
更注重	-3391
更為優	-3392
曾發揮	-3393
最深遠	-3394
最關心	-3395
會牧師	-3396
會被生	-3397
月的升	-3398
月的繁	-3399
▁幸運	-3400
▁幾十	-3401
代年號	-3402
六年間	-3403
和復興	-3404
地思考	-3405
幸運兔	-3406
幾十億	-3407
廣播和	-3408
廣播電	-3409
廳建於	-3410
很快就	-3411
很有趣	-3412
微小的	-3413
必要的	-3414
性別暴	-3415
性別歧	-3416
月至二	-3417
有三棵	-3418
有必要	-3419
有抗議	-3420
有旅行	-3421
有貴族	-3422
未發育	-3423
未透露	-3424
本中演	-3425
本錄製	-3426
材料的	-3427
核武器	-3428
梅爾丁	-3429
條款退	-3430
棕櫚樹	-3431
棕櫚葉	-3432
槍殺了	-3433
標誌著	-3434
模型中	-3435
檢測不	-3436
權能在	-3437
歌手兼	-3438
正確組	-3439
此概念	-3440
段時刻	-3441
永不停	-3442
沃爾卡	-3443
河的俄	-3444
法令確	-3445
波檢測	-3446
波蘭及	-3447
注意到	-3448
洛克堅	-3449
浮線的	-3450
海峽要	-3451
淺礁湖	-3452
添加免	-3453
湊車型	-3454
準確地	-3455
準確結	-3456
演員和	-3457
澳洲網	-3458
火車走	-3459
為期一	-3460
為每人	-3461
為童工	-3462
為野獸	-3463
煤電站	-3464
爾普爾	-3465
爾里希	-3466
片場後	-3467
版的聖	-3468
牧師拜	-3469
特德於	-3470
獨自一	-3471
環礁湖	-3472
生肖是	-3473
男人應	-3474
略高於	-3475
當針對	-3476
疏遠了	-3477
病病人	-3478
登離婚	-3479
發揮了	-3480
發育長	-3481
發送表	-3482
百分點	-3483
的宣言	-3484
的宣誓	-3485
的延續	-3486
的微小	-3487
的托利	-3488
的托爾	-3489
的期待	-3490
的歡樂	-3491
的注意	-3492
的流行	-3493
的滅亡	-3494
的爭論	-3495
的狀態	-3496
的瘋狂	-3497
的知識	-3498
的神壇	-3499
一局的	-3500
七年後	-3501
三年內	-3502
小時後	-3503
尬局面	-3504
局的特	-3505
展現了	-3506
展現的	-3507
崔絲一	-3508
崔絲已	-3509
差不多	-3510
差異大	-3511
帕克所	-3512
干預是	-3513
年在位	-3514
年是引	-3515
成年人	-3516
斯市長	-3517
此局面	-3518
法就被	-3519
物平台	-3520
的神經	-3521
的科幻	-3522
的秘密	-3523
的細微	-3524
的細節	-3525
的結果	-3526
的結構	-3527
的經歷	-3528
的職位	-3529
的葬禮	-3530
的補助	-3531
的諾瑪	-3532
的證據	-3533
的賽車	-3534
的賽道	-3535
的身份	-3536
的追求	-3537
的這座	-3538
的遺跡	-3539
的黨內	-3540
真正共	-3541
真正有	-3542
確實很	-3543
祀遺跡	-3544
福德高	-3545
程序上	-3546
突變的	-3547
立石為	-3548
立足前	-3549
立足點	-3550
符拉迪	-3551
簡直是	-3552
系變的	-3553
紐約市	-3554
索爾海	-3555
經驗的	-3556
緊鄰色	-3557
總體的	-3558
繼承者	-3559
繼承順	-3560
羅拉多	-3561
羅河的	-3562
羅訥河	-3563
群島和	-3564
習慣法	-3565
習慣稱	-3566
老年人	-3567
而我寧	-3568
而被控	-3569
而食物	-3570
聊天軟	-3571
職變遷	-3572
肥料價	-3573
與其城	-3574
與謀殺	-3575
船員共	-3576
色體的	-3577
茲福德	-3578
萊茵河	-3579
著陸襟	-3580
葡萄牙	-3581
葬禮罪	-3582
蓄謙遜	-3583
薩拉託	-3584
薩米人	-3585
藉由完	-3586
虔誠所	-3587
行進到	-3588
術錯誤	-3589
衡量的	-3590
被徹底	-3591
被忽視	-3592
被投入	-3593
被遺忘	-3594
要么撤	-3595
要評估	-3596
要選出	-3597
規劃區	-3598
規劃署	-3599
哥將會	-3600
塞密爾	-3601
她客串	-3602
子安德	-3603
安德魯	-3604
官方自	-3605
審查主	-3606
寫作興	-3607
將會受	-3608
將能與	-3609
專業而	-3610
尋求與	-3611
未完工	-3612
為野生	-3613
由官方	-3614
的損失	-3615
與完工	-3616
視為有	-3617
解約後	-3618
言稱他	-3619
訥河谷	-3620
該獎項	-3621
誰能挑	-3622
請願書	-3623
謀殺罪	-3624
謙遜的	-3625
財務的	-3626
財務長	-3627
超級英	-3628
超越它	-3629
軍軍官	-3630
較為少	-3631
轉而專	-3632
轉變和	-3633
轟炸了	-3634
轟炸機	-3635
辦公室	-3636
通知中	-3637
週六中	-3638
過農民	-3639
道德淪	-3640
那里為	-3641
部影片	-3642
部疼痛	-3643
部落和	-3644
部落在	-3645
都有其	-3646
都穿戴	-3647
醜聞被	-3648
醫療總	-3649
里或在	-3650
重現了	-3651
重現的	-3652
釙樣本	-3653
鏈接和	-3654
開支的	-3655
阿伯茨	-3656
阿特靈	-3657
隨時在	-3658
險的飆	-3659
雞永不	-3660
離婚後	-3661
雷戴維	-3662
預算赤	-3663
飲集團	-3664
馬死亡	-3665
騎兵在	-3666
鬥志昂	-3667
鬧劇和	-3668
鬧劇就	-3669
$150	-3670
,190	-3671
1903	-3672
1947	-3673
1948	-3674
Cris	-3675
Davi	-3676
Norm	-3677
Siri	-3678
denb	-3679
hmer	-3680
iams	-3681
ople	-3682
rump	-3683
sner	-3684
uena	-3685
uier	-3686
vest	-3687
£125	-3688
▁Dee	-3689
▁三島生	-3690
▁不擬定	-3691
▁他曾在	-3692
▁他的妹	-3693
▁傳統是	-3694
▁全球變	-3695
▁北京的	-3696
▁十月初	-3697
▁喬治為	-3698
▁國際可	-3699
但她說	-3700
天文台	-3701
太陽和	-3702
太陽眼	-3703
奇蹟和	-3704
契丹遼	-3705
奪回席	-3706
女巫之	-3707
她寫歌	-3708
她寫的	-3709
好評的	-3710
妥協協	-3711
妥善的	-3712
安娜亞	-3713
容她為	-3714
小威廉	-3715
尼奪回	-3716
巧妙的	-3717
很失望	-3718
從太空	-3719
的女巫	-3720
的季節	-3721
的守護	-3722
莫夫在	-3723
被妥善	-3724
▁在其範	-3725
▁在那兒	-3726
▁多瑙河	-3727
▁巴羅佐	-3728
▁後者在	-3729
▁或者說	-3730
▁投資在	-3731
▁日耳曼	-3732
▁曾發揮	-3733
▁有人曾	-3734
▁沒有人	-3735
▁然而對	-3736
▁第一小	-3737
▁第一版	-3738
▁第二季	-3739
▁第二年	-3740
▁舊金山	-3741
▁解約後	-3742
▁警察傻	-3743
▁賴特是	-3744
▁赫爾茨	-3745
▁這裡於	-3746
▁週二是	-3747
▁鑑於希	-3748
▁阿爾及	-3749
▁阿特靈	-3750
▁阿馬爾	-3751
▁馬德里	-3752
一個人呆	-3753
一定會懷	-3754
一發布的	-3755
一種更為	-3756
一致好評	-3757
一起探討	-3758
一部影片	-3759
一面是對	-3760
七大洲的	-3761
三年內貸	-3762
三百萬冊	-3763
三首歌曲	-3764
上進行的	-3765
不再願意	-3766
不在片場	-3767
不存在此	-3768
不應該就	-3769
不斷擴展	-3770
不比在尼	-3771
並未透露	-3772
並發布了	-3773
中扮演精	-3774
主持人克	-3775
之平行的	-3776
之後存活	-3777
也不會倒	-3778
也利用了	-3779
也在之後	-3780
也推動了	-3781
也留下了	-3782
了一場在	-3783
了使用單	-3784
了使用家	-3785
了所有七	-3786
了整個西	-3787
了腓尼基	-3788
了色雷斯	-3789
了西西里	-3790
了重大的	-3791
二十年內	-3792
五個港口	-3793
五百萬冊	-3794
些所謂的	-3795
人均收入	-3796
人想要阻	-3797
人數很少	-3798
人理事會	-3799
▁執行	-3800
了嚴格	-3801
和多元	-3802
嘗試在	-3803
嘗試著	-3804
嚴格的	-3805
四月在	-3806
四月襲	-3807
因而替	-3808
困擾著	-3809
在同一	-3810
在大火	-3811
執行官	-3812
基於政	-3813
塔爾梅	-3814
塞西亞	-3815
多於圍	-3816
多樣性	-3817
多次的	-3818
大樓為	-3819
太平洋	-3820
幢大樓	-3821
是基於	-3822
源單元	-3823
的多元	-3824
著大麻	-3825
薩圖片	-3826
項團體	-3827
▁城市中	-3828
▁後者讓	-3829
什大樓為	-3830
他已經拍	-3831
他的法令	-3832
他的真實	-3833
他自己近	-3834
代表著富	-3835
代表著島	-3836
代表透露	-3837
令人驚訝	-3838
以來最低	-3839
以奪回席	-3840
任職變遷	-3841
份關於該	-3842
休息環節	-3843
但最新的	-3844
但權力的	-3845
佈為野生	-3846
位置近海	-3847
作他激進	-3848
作曲家吉	-3849
作為食物	-3850
使用了原	-3851
使這兩個	-3852
來源於伯	-3853
來衡量的	-3854
來計算的	-3855
保持穩步	-3856
個系統在	-3857
傷阿伯茨	-3858
像海外資	-3859
億英鎊和	-3860
克萊恩沉	-3861
兒子安德	-3862
內地旅行	-3863
全克萊德	-3864
全副武裝	-3865
公共場合	-3866
公司損失	-3867
六年間失	-3868
六月至八	-3869
共同採取	-3870
其他人則	-3871
其他團體	-3872
兼匈牙利	-3873
冰島語中	-3874
出生於多	-3875
別林斯高	-3876
到底是誰	-3877
券會被生	-3878
前克萊恩	-3879
創作了六	-3880
劇打入了	-3881
加亞聯軍	-3882
勒斯蒂芬	-3883
動地講述	-3884
動物很少	-3885
動物還能	-3886
匈妥協協	-3887
匈牙利施	-3888
北愛爾蘭	-3889
十七年後	-3890
半島的後	-3891
南部緊鄰	-3892
卡塔拉諾	-3893
卡塔東部	-3894
卡洛斯四	-3895
印度洋的	-3896
去希羅底	-3897
去除空氣	-3898
又有意思	-3899
▁同年	-3900
他同年	-3901
他周圍	-3902
但即使	-3903
傾向著	-3904
北海是	-3905
卡拉布	-3906
卡森已	-3907
即將離	-3908
參賽者	-3909
反法西	-3910
取代了	-3911
叛軍的	-3912
史前手	-3913
向南走	-3914
否則會	-3915
告誡其	-3916
呼聲傳	-3917
和不來	-3918
在史密	-3919
她和她	-3920
就只能	-3921
底去除	-3922
從向著	-3923
從周圍	-3924
整合了	-3925
日參賽	-3926
適合了	-3927
避和不	-3928
都很有	-3929
中底去除	-3930
主要由古	-3931
但即使是	-3932
作整合了	-3933
傾向著稱	-3934
北海是指	-3935
卡拉布里	-3936
卡森已幾	-3937
即使非常	-3938
反法同盟	-3939
受好評的	-3940
受疼痛折	-3941
口葡萄酒	-3942
古老歷史	-3943
可持續到	-3944
可持續數	-3945
可疑的漏	-3946
可疑的現	-3947
史前手工	-3948
史密斯的	-3949
史達林接	-3950
同上船的	-3951
同盟叛軍	-3952
向南推進	-3953
向飛行員	-3954
含蓄謙遜	-3955
告誡不要	-3956
告誡其教	-3957
呼聲傳遍	-3958
和一系列	-3959
和不來梅	-3960
和中國等	-3961
和國民警	-3962
和多元高	-3963
和女演員	-3964
和林肯執	-3965
和法國在	-3966
和烏克蘭	-3967
和程序上	-3968
和腓尼基	-3969
品批發商	-3970
品牌首席	-3971
哈雷戴維	-3972
員效忠於	-3973
嗆肺的霧	-3974
嚴格的劍	-3975
四名學生	-3976
四月在蒙	-3977
回到火車	-3978
圍內造成	-3979
圍限制在	-3980
在之後塑	-3981
在大火中	-3982
在好幾個	-3983
在最近的	-3984
在歡樂的	-3985
在沙漠裡	-3986
在等我們	-3987
在紐約州	-3988
在聖塞西	-3989
在通知中	-3990
在達菲的	-3991
地點符合	-3992
址都很有	-3993
均收入是	-3994
基於政績	-3995
基普林的	-3996
基督教的	-3997
塔斯一世	-3998
塞地區和	-3999
▁南非	-4000
下加利	-4001
丶南非	-4002
來勢力	-4003
力協助	-4004
加利修	-4005
加工品	-4006
助理科	-4007
勞動力	-4008
化學浴	-4009
南亞祖	-4010
南亞種	-4011
博客撰	-4012
的助理	-4013
穿南極	-4014
而十個	-4015
驅動力	-4016
下加利福	-4017
丶南非丶	-4018
了數千年	-4019
來勢力間	-4020
克斯勳爵	-4021
再次流行	-4022
加低斯的	-4023
加利修正	-4024
助理科瑞	-4025
化學浴徹	-4026
化的第一	-4027
化的語言	-4028
南亞祖先	-4029
南亞種植	-4030
南極大陸	-4031
博客撰稿	-4032
卡拉皇帝	-4033
在兩千年	-4034
塞密爾於	-4035
增長率比	-4036
壇留下了	-4037
壞的情況	-4038
士不得不	-4039
士兵出現	-4040
士李維被	-4041
多數人毀	-4042
多於圍著	-4043
多於答案	-4044
多而食物	-4045
大多數席	-4046
大都會俱	-4047
天皇死後	-4048
太平洋的	-4049
太陽和滿	-4050
失望的人	-4051
契丹遼朝	-4052
女巫之槌	-4053
她在一個	-4054
她客串了	-4055
她寫的歌	-4056
她是反對	-4057
存活下來	-4058
季節性的	-4059
學者爭論	-4060
學院的學	-4061
它們的糞	-4062
它們符合	-4063
它為地區	-4064
它重現了	-4065
完成了撤	-4066
官方自傳	-4067
宣布獲勝	-4068
室內製作	-4069
實驗室是	-4070
寫作興致	-4071
將會受限	-4072
將能降低	-4073
將要來臨	-4074
專業人士	-4075
對他們註	-4076
對情侶了	-4077
對我們耍	-4078
小塊釙使	-4079
少數族裔	-4080
尤其是在	-4081
就檢測不	-4082
尷尬局面	-4083
局的特工	-4084
展現了強	-4085
展現的怠	-4086
岩島嶼則	-4087
島和城市	-4088
崔絲已返	-4089
州的百分	-4090
巨額銀行	-4091
差不多是	-4092
差異大於	-4093
已經超越	-4094
市長決定	-4095
希羅底的	-4096
帕克所說	-4097
帕爾馬的	-4098
帖中都有	-4099
中充分	-4100
優秀的	-4101
儲蓄和	-4102
克頓的	-4103
公國在	-4104
出於天	-4105
分鐘左	-4106
分離的	-4107
初選中	-4108
前線作	-4109
前進的	-4110
割讓給	-4111
力的呼	-4112
向前進	-4113
地制度	-4114
寫劇本	-4115
拉公國	-4116
最有名	-4117
的充分	-4118
的前線	-4119
認出來	-4120
重力的	-4121
釙分離	-4122
中充分讚	-4123
了分離的	-4124
他們兩人	-4125
他們兩者	-4126
伊斯內爾	-4127
債券全部	-4128
優步公司	-4129
儲蓄賬戶	-4130
充滿希望	-4131
充滿意義	-4132
克斯兩次	-4133
克頓的黑	-4134
公主出現	-4135
公國在當	-4136
出於天真	-4137
出於管理	-4138
分鐘左右	-4139
初選中瑞	-4140
制度之前	-4141
前線作戰	-4142
力的呼籲	-4143
反應出來	-4144
展覽公寓	-4145
師和紡織	-4146
帶來讓人	-4147
常的呼聲	-4148
年一樣的	-4149
年代初期	-4150
年代就在	-4151
年度調查	-4152
年後加入	-4153
年間領導	-4154
幾十億的	-4155
幾首歌曲	-4156
庫莫夫在	-4157
延續了多	-4158
建立生者	-4159
建設中的	-4160
建設看到	-4161
建議環節	-4162
引用他的	-4163
引用學者	-4164
形容她為	-4165
影響深遠	-4166
影響還未	-4167
很多能使	-4168
很容易進	-4169
很快就破	-4170
很有趣的	-4171
後的意圖	-4172
後者同意	-4173
從未接觸	-4174
從而使得	-4175
御所需的	-4176
德國和納	-4177
德國官員	-4178
德國農民	-4179
徹底從中	-4180
心的機會	-4181
思主義的	-4182
性別暴力	-4183
性別歧視	-4184
性在兩個	-4185
恰當的儀	-4186
愚蠢至極	-4187
愛丁堡晚	-4188
感受到了	-4189
感覺是家	-4190
慰是可以	-4191
憶在生者	-4192
應用程序	-4193
成員大衛	-4194
成更注重	-4195
我排除在	-4196
我會感到	-4197
我覺得她	-4198
我都要坐	-4199
▁假期	-4200
並保留	-4201
了使該	-4202
你更煩	-4203
你的弱	-4204
使他對	-4205
使其更	-4206
使其與	-4207
來分配	-4208
來分隔	-4209
信號燈	-4210
修建所	-4211
做了省	-4212
停留時	-4213
到你的	-4214
地假設	-4215
情使他	-4216
會傷害	-4217
比你更	-4218
病傳播	-4219
的保障	-4220
的傷害	-4221
警信號	-4222
黨保守	-4223
並保留了	-4224
也使其與	-4225
作出通過	-4226
你更煩躁	-4227
你的弱項	-4228
使其更有	-4229
來分配的	-4230
來分隔兩	-4231
修建所耗	-4232
停留了八	-4233
優步以及	-4234
在停留時	-4235
報警信號	-4236
導致債務	-4237
性情使他	-4238
或在酒吧	-4239
或者說本	-4240
或至少能	-4241
戰役得以	-4242
戰役的學	-4243
戰後的柏	-4244
戰後的煩	-4245
所有的醫	-4246
手術才能	-4247
才能進去	-4248
打鬥和打	-4249
投入使用	-4250
拉博夫裸	-4251
拉美西斯	-4252
拉迪亞德	-4253
授予塞爾	-4254
授權能在	-4255
排字版的	-4256
採取了多	-4257
接下來她	-4258
接到你的	-4259
推特簡訊	-4260
推特賬號	-4261
揚了使該	-4262
揭示了他	-4263
摧毀的市	-4264
擁有滿意	-4265
擔的人數	-4266
支付巨額	-4267
效的條件	-4268
教皇保羅	-4269
教皇方濟	-4270
數個小時	-4271
數次要求	-4272
文明均因	-4273
文明均在	-4274
文章認為	-4275
料的藥丸	-4276
斯佩達爾	-4277
斯巴達在	-4278
方向前進	-4279
於活動中	-4280
於西方的	-4281
於馬德里	-4282
施普林格	-4283
日出生於	-4284
日期只能	-4285
早期發明	-4286
明會牧師	-4287
是一名漫	-4288
是一名臥	-4289
是其陳腐	-4290
是其領土	-4291
是否認識	-4292
是政府中	-4293
是政府最	-4294
時刻至少	-4295
時期出現	-4296
景使他對	-4297
更為優異	-4298
最有影響	-4299
ugh	-4300
▁維加	-4301
▁維勒	-4302
上任的	-4303
乘坐纜	-4304
人乘坐	-4305
人休息	-4306
他將之	-4307
他會上	-4308
佔有下	-4309
到他了	-4310
劣童工	-4311
擬人機	-4312
無人機	-4313
算佔領	-4314
給他了	-4315
誕不經	-4316
類似的	-4317
Pugh	-4318
▁維勒訥	-4319
乘坐纜車	-4320
人休息和	-4321
人數有所	-4322
人民共同	-4323
他也成了	-4324
他將允許	-4325
他就承認	-4326
他就明白	-4327
他被給予	-4328
任的總統	-4329
但他拒絕	-4330
佔領古巴	-4331
劣童工形	-4332
嫁給他了	-4333
市場佔有	-4334
打算佔領	-4335
擬人機器	-4336
新上任的	-4337
最高溫度	-4338
會導致射	-4339
月的升起	-4340
月的繁殖	-4341
有一位敲	-4342
有些人在	-4343
有些國家	-4344
有利選項	-4345
有意在兩	-4346
有的作品	-4347
朝代年號	-4348
期的所謂	-4349
未出生的	-4350
未完工的	-4351
未發育的	-4352
末標誌著	-4353
本地勢力	-4354
染色體的	-4355
柔的一面	-4356
業的諾瑪	-4357
概念藝術	-4358
槍殺了蘇	-4359
歇的歡樂	-4360
歌曲是由	-4361
歐盟官員	-4362
正是這家	-4363
此概念叫	-4364
此次干預	-4365
歲的朱婷	-4366
歷史的書	-4367
歸而被控	-4368
死亡人口	-4369
每人平均	-4370
比你更有	-4371
比例一致	-4372
民族品牌	-4373
沒有見過	-4374
河流均有	-4375
法國在馬	-4376
法國據此	-4377
法就被推	-4378
法部部長	-4379
波的抗議	-4380
波蘭及波	-4381
洛克堅定	-4382
派系變的	-4383
浪的機會	-4384
海報能夠	-4385
海峽要道	-4386
深對人類	-4387
深的交通	-4388
深的平壤	-4389
準確結婚	-4390
滴從周圍	-4391
滿族統治	-4392
潘沃爾卡	-4393
澳洲網球	-4394
激烈的思	-4395
災難性的	-4396
為中心的	-4397
為基礎的	-4398
為她寫歌	-4399
中移除	-4400
主導的	-4401
之於人	-4402
之於常	-4403
了不管	-4404
了大公	-4405
了對心	-4406
事情上	-4407
互相調	-4408
五年婚	-4409
交了上	-4410
佔了不	-4411
壞了它	-4412
是事實	-4413
會主席	-4414
本主演	-4415
解了它	-4416
轉了對	-4417
▁他主張	-4418
丑之於人	-4419
之於常人	-4420
也是全球	-4421
了不管他	-4422
了十五年	-4423
了十年的	-4424
了大公牆	-4425
了對心理	-4426
二十世紀	-4427
互相調笑	-4428
五年婚約	-4429
交了上訴	-4430
佔了不少	-4431
你主導的	-4432
全是事實	-4433
參與了該	-4434
善會主席	-4435
將其主張	-4436
扭轉了對	-4437
擁有互相	-4438
為拉博夫	-4439
烏爾里希	-4440
無法計算	-4441
煤電站也	-4442
營中獨自	-4443
爭取更多	-4444
爵位具有	-4445
片圍繞著	-4446
版本中演	-4447
牧師拜訪	-4448
物的期待	-4449
特拉公國	-4450
獨立寫作	-4451
獨自一人	-4452
獲獎建築	-4453
獲獎影片	-4454
現在是上	-4455
理和近海	-4456
甚至比在	-4457
生活的社	-4458
生肖是猴	-4459
用同樣的	-4460
用第三方	-4461
由法令確	-4462
當作提高	-4463
當年是引	-4464
當罕見的	-4465
疾病傳播	-4466
病人來說	-4467
瘤是一種	-4468
發生打鬥	-4469
發生率為	-4470
發育長期	-4471
白人男性	-4472
百五十萬	-4473
的人得以	-4474
的人數眾	-4475
的人而言	-4476
的人轉而	-4477
的內容更	-4478
的吉他手	-4479
的女巫琳	-4480
的安德魯	-4481
的帕爾馬	-4482
的志願者	-4483
的志願軍	-4484
的情況為	-4485
的托利黨	-4486
的技術來	-4487
的指揮權	-4488
的新公寓	-4489
的梅爾丁	-4490
的正確組	-4491
的流行緊	-4492
的疑問也	-4493
的知識產	-4494
的破壞極	-4495
的祖母是	-4496
的第三方	-4497
的第二個	-4498
的系統和	-4499
上很勉	-4500
下面將	-4501
不久前	-4502
不合格	-4503
不合適	-4504
不大切	-4505
不想給	-4506
不想被	-4507
丘吉爾	-4508
丟了六	-4509
中吸收	-4510
中吸煙	-4511
了下來	-4512
對丘吉	-4513
撈上限	-4514
群中央	-4515
上很勉強	-4516
下了中央	-4517
下面將小	-4518
不久前剛	-4519
不合適的	-4520
不大切合	-4521
不想被賣	-4522
世的女兒	-4523
丘吉爾頒	-4524
丟了六分	-4525
中吸收並	-4526
其不合格	-4527
剩了下來	-4528
因此丟了	-4529
捕撈上限	-4530
新傳統是	-4531
會傷害小	-4532
法律中移	-4533
生中吸煙	-4534
的紀念碑	-4535
的結構和	-4536
的繼承者	-4537
的聊天軟	-4538
的著陸襟	-4539
的許多人	-4540
的證據是	-4541
的賽車手	-4542
的轉變和	-4543
的飛行員	-4544
皇亞歷山	-4545
監管船隻	-4546
目前為止	-4547
目的是在	-4548
相信是上	-4549
相對較低	-4550
真正共處	-4551
短的時間	-4552
石材料的	-4553
石群中央	-4554
研究的實	-4555
砲兵軍官	-4556
破解了它	-4557
硬的一面	-4558
確實很可	-4559
磁浮線的	-4560
礦物資源	-4561
社發生了	-4562
祀遺跡由	-4563
福特公司	-4564
福的追求	-4565
科幻電影	-4566
科羅拉多	-4567
種罕見的	-4568
積極防衛	-4569
突變的數	-4570
立石為南	-4571
符拉迪沃	-4572
第一位在	-4573
第一位女	-4574
等城市中	-4575
節勞動力	-4576
簡直是太	-4577
系統添加	-4578
紀念碑和	-4579
組織優先	-4580
經過一些	-4581
經過近期	-4582
緊鄰色雷	-4583
線的局勢	-4584
總統想要	-4585
總體的鐵	-4586
缺席的人	-4587
羅娜發明	-4588
羅馬人把	-4589
美國公民	-4590
美國醫療	-4591
美拉尼西	-4592
美洲史前	-4593
美西斯在	-4594
而我寧願	-4595
而有給予	-4596
聯邦開支	-4597
聲波檢測	-4598
聽證會的	-4599
▁ZE	-4600
▁如峽	-4601
▁白色	-4602
▁相比	-4603
▁確保	-4604
▁確定	-4605
▁科朵	-4606
▁科隆	-4607
▁蘇伊	-4608
▁除此	-4609
一座大	-4610
一般因	-4611
三角洲	-4612
上並毀	-4613
濱一帶	-4614
站上並	-4615
tyle	-4616
uper	-4617
urán	-4618
▁Cup	-4619
▁Jos	-4620
▁Sán	-4621
▁Yer	-4622
▁ZEI	-4623
▁你必須	-4624
▁其警察	-4625
▁其重要	-4626
▁如峽灣	-4627
▁確保了	-4628
▁科朵拉	-4629
▁蘇伊士	-4630
一座大金	-4631
一般因矽	-4632
最高一座	-4633
東三角洲	-4634
海濱一帶	-4635
肥料價值	-4636
育的守護	-4637
背部疼痛	-4638
能使植物	-4639
能夠遠離	-4640
能接收到	-4641
自己即將	-4642
致命的一	-4643
與其城堡	-4644
與崔絲一	-4645
與西方的	-4646
與謀殺案	-4647
船的記錄	-4648
英國船隻	-4649
英格蘭和	-4650
荒誕不經	-4651
菩薩圖片	-4652
薩拉託加	-4653
薩米方言	-4654
藉由完成	-4655
藉由建立	-4656
虔誠所感	-4657
行中移除	-4658
行進到把	-4659
衛軍軍官	-4660
表示遺憾	-4661
被割讓給	-4662
被征服的	-4663
被當作籌	-4664
被遺忘了	-4665
西西里島	-4666
西部邊緣	-4667
要么成為	-4668
視為兩個	-4669
視為有生	-4670
觀的交易	-4671
角度考慮	-4672
角色擺脫	-4673
記本錄製	-4674
訪問了堪	-4675
設計師比	-4676
該系統在	-4677
詳細檢查	-4678
語版的聖	-4679
語的元素	-4680
調查四名	-4681
請願書的	-4682
論發生了	-4683
變為廢墟	-4684
谷最高的	-4685
貝貝一起	-4686
財政監管	-4687
貿易港口	-4688
資金全部	-4689
資金投資	-4690
賓主持人	-4691
購物平台	-4692
贊助醜聞	-4693
起謀殺罪	-4694
超級英雄	-4695
踪無人機	-4696
軍隊摧毀	-4697
較為少見	-4698
輪到他了	-4699
EMA	-4700
Jut	-4701
Mah	-4702
RSP	-4703
Roc	-4704
Rog	-4705
SPI	-4706
bea	-4707
com	-4708
dit	-4709
eph	-4710
ifu	-4711
nki	-4712
sty	-4713
tsc	-4714
▁In	-4715
Asty	-4716
EMic	-4717
GEMA	-4718
Maha	-4719
Mail	-4720
Nect	-4721
RSPB	-4722
SPIE	-4723
come	-4724
lect	-4725
nuck	-4726
phen	-4727
redo	-4728
tima	-4729
urio	-4730
änki	-4731
ätsc	-4732
轉而專心	-4733
轉變都是	-4734
辦公室景	-4735
近完成了	-4736
迴避和不	-4737
這也導致	-4738
這個假期	-4739
這個假設	-4740
這個顯然	-4741
這兩本書	-4742
通過平台	-4743
通過觀察	-4744
週六中午	-4745
過去二十	-4746
道德淪喪	-4747
遜導演的	-4748
選出歷史	-4749
選活動中	-4750
還有布魯	-4751
還未結束	-4752
還沒決定	-4753
還能作為	-4754
還需要做	-4755
還需要對	-4756
邊緣形成	-4757
那幢大樓	-4758
那年夏天	-4759
部件有所	-4760
部部長傑	-4761
都打平手	-4762
都有其含	-4763
醫療總局	-4764
里或在櫃	-4765
里的補助	-4766
重新掌權	-4767
重新錄製	-4768
重要養分	-4769
釙樣本的	-4770
鏈接和附	-4771
長出來的	-4772
開始的前	-4773
開普敦的	-4774
間站上並	-4775
闊的遺跡	-4776
關於該話	-4777
關進入了	-4778
阿特靈被	-4779
降低溫度	-4780
限的保護	-4781
除指揮權	-4782
隨時在您	-4783
險的飆升	-4784
集團已經	-4785
離婚後卻	-4786
雨的季節	-4787
雷暴報告	-4788
電影是由	-4789
電影海報	-4790
電源單元	-4791
非常滿意	-4792
靠的信息	-4793
預算赤字	-4794
預算超過	-4795
預言稱他	-4796
頭銜的人	-4797
風力發電	-4798
風格似的	-4799
56%	-4800
999	-4801
Adn	-4802
Die	-4803
工人提	-4804
,999	-4805
1165	-4806
1340	-4807
1365	-4808
1882	-4809
1962	-4810
2900	-4811
40%,	-4812
Chil	-4813
城市每年	-4814
工人提升	-4815
餐飲集團	-4816
騎兵部隊	-4817
高爾夫球	-4818
髮通常是	-4819
鬆的歷史	-4820
鬥志昂揚	-4821
鬧劇和沈	-4822
黨保守派	-4823
龐培取得	-4824
,1904	-4825
,1994	-4826
,1996	-4827
30-10	-4828
Adnan	-4829
Curio	-4830
David	-4831
Davis	-4832
Isner	-4833
Johnn	-4834
Knuck	-4835
Monte	-4836
North	-4837
Ruper	-4838
Simon	-4839
Slate	-4840
dogan	-4841
eddit	-4842
estre	-4843
garet	-4844
guier	-4845
ilbea	-4846
immer	-4847
intad	-4848
inton	-4849
opley	-4850
rätsc	-4851
▁1075	-4852
▁1566	-4853
▁1856	-4854
▁1882	-4855
▁1896	-4856
▁1969	-4857
▁Aver	-4858
▁Bass	-4859
▁Dean	-4860
▁Dies	-4861
▁Marr	-4862
▁Mate	-4863
▁Pugh	-4864
▁ZEIT	-4865
▁三島生前	-4866
▁中國戰敗	-4867
▁他主張嚴	-4868
▁他也表示	-4869
▁他也討論	-4870
▁他的夢想	-4871
▁他警告說	-4872
▁他還指出	-4873
▁但在史密	-4874
▁但有旅行	-4875
▁位於歐洲	-4876
▁你必須受	-4877
▁假期期間	-4878
▁全球變暖	-4879
▁共和黨在	-4880
▁其他國家	-4881
▁卡塔拉諾	-4882
▁哈雷戴維	-4883
▁喬治為他	-4884
▁國際可再	-4885
▁在中世紀	-4886
▁在亞歷山	-4887
▁在其家庭	-4888
▁在十月初	-4889
▁執行機構	-4890
▁多族裔的	-4891
▁大多數人	-4892
▁大部分的	-4893
▁對羅馬人	-4894
▁希拉里向	-4895
▁希拉里的	-4896
▁後者在監	-4897
▁德國報紙	-4898
▁我的下一	-4899
人還可以	-4900
河附近的	-4901
特阿拉伯	-4902
球錦標賽	-4903
的阿拉伯	-4904
紅銅時代	-4905
運動會將	-4906
還可以去	-4907
2015-	-4908
Lucas	-4909
cRich	-4910
▁公元前五	-4911
▁在過去的	-4912
▁工業革命	-4913
▁投資在溢	-4914
▁接下來她	-4915
▁曾發揮出	-4916
▁有人預測	-4917
▁棲息地被	-4918
▁正如指出	-4919
▁歷史學家	-4920
▁沒有遊行	-4921
▁沙塵暴是	-4922
▁法國工人	-4923
▁潘沃爾卡	-4924
▁為了娛樂	-4925
▁然而對科	-4926
▁特別是在	-4927
▁特朗普的	-4928
▁瓦倫蒂諾	-4929
▁由於顧客	-4930
▁當時那里	-4931
▁目前的等	-4932
▁紅銅時代	-4933
▁維勒訥沃	-4934
▁羅娜發明	-4935
▁聯合國回	-4936
▁英國乃至	-4937
▁警方表示	-4938
▁赫爾茨心	-4939
▁農業用地	-4940
▁這個比例	-4941
▁這裡提供	-4942
▁通常由於	-4943
▁阿特靈結	-4944
▁除了他們	-4945
▁除了直接	-4946
▁除此之外	-4947
▁雖然直至	-4948
▁電影記錄	-4949
▁顯而易見	-4950
一位有貴族	-4951
一個百分點	-4952
一定會懷念	-4953
一樣的學生	-4954
一次降到了	-4955
一直保持著	-4956
一直圍繞著	-4957
一直在穩步	-4958
一部影片是	-4959
一面是成為	-4960
七百五十萬	-4961
三個平行的	-4962
三年內貸款	-4963
上並毀滅了	-4964
上很勉強的	-4965
上很重要的	-4966
上第一位女	-4967
上進行的旅	-4968
下所需要的	-4969
下的獨木舟	-4970
下面將小球	-4971
不全是事實	-4972
不大適合了	-4973
不存在爭議	-4974
不應該就任	-4975
不比在尼羅	-4976
丑之於人性	-4977
世界大戰戰	-4978
世界廣播電	-4979
世的劇作家	-4980
丘吉爾頒布	-4981
並在重力的	-4982
並數次要求	-4983
並未透露多	-4984
並賠償實行	-4985
中反應出來	-4986
中國不得不	-4987
中底去除角	-4988
中扮演精神	-4989
中發現的最	-4990
中詳細探討	-4991
主要由移民	-4992
之前的疑問	-4993
之平行的博	-4994
之間的交易	-4995
之間的防衛	-4996
乘坐纜車穿	-4997
也不會倒退	-4998
也利用了她	-4999
▁約瑟夫	-5000
▁而不是	-5001
他補充道	-5002
億的選民	-5003
克薩斯州	-5004
士補充道	-5005
她被指控	-5006
於芬蘭語	-5007
是芬蘭語	-5008
晨的行動	-5009
某程度上	-5010
現被稱為	-5011
的選民有	-5012
羅解釋說	-5013
菲利普五	-5014
菲利普召	-5015
行為的限	-5016
被認為能	-5017
記的選民	-5018
說明了這	-5019
迪士尼寫	-5020
迪士尼的	-5021
還被指控	-5022
重的社會	-5023
▁當西格爾	-5024
▁而不是把	-5025
也在之後和	-5026
也正是這家	-5027
也開始哭泣	-5028
乾旱地區和	-5029
了一所學校	-5030
了一系列長	-5031
了他未來的	-5032
了使用家用	-5033
了對心理學	-5034
了所有七個	-5035
了整個領域	-5036
了自己的政	-5037
了迦南人的	-5038
事情就已經	-5039
互相調笑和	-5040
五人理事會	-5041
五個港口向	-5042
亞加亞聯軍	-5043
人們習慣稱	-5044
人有意在兩	-5045
人民共同的	-5046
人民共和國	-5047
人物的期待	-5048
人見過這些	-5049
人還可以享	-5050
人類經驗的	-5051
他不想被賣	-5052
他們才會被	-5053
他們最關心	-5054
他們至少能	-5055
他周圍人的	-5056
他在那里為	-5057
他宣布破產	-5058
他將之描述	-5059
他採取了多	-5060
他會上大學	-5061
他的妻子愛	-5062
他被給予了	-5063
付更多責任	-5064
代表了公民	-5065
代表了日常	-5066
以奪回席位	-5067
任的總統尤	-5068
但他並不是	-5069
但如果形式	-5070
但蓋耶已經	-5071
位於北部的	-5072
位資本支出	-5073
佔有下埃及	-5074
佛羅里達州	-5075
作曲家吉姆	-5076
使用了原創	-5077
使這兩個敵	-5078
來分隔兩地	-5079
來到片場後	-5080
來源於伯納	-5081
來源於去年	-5082
例如萊茵河	-5083
便還能作為	-5084
保全克萊德	-5085
保持著關鍵	-5086
保留他們的	-5087
保障消費者	-5088
個男人告訴	-5089
候選人薩拉	-5090
做了省警察	-5091
億的選民投	-5092
優秀的助手	-5093
充滿意義的	-5094
先生在七月	-5095
克圖特摩斯	-5096
克斯兩次被	-5097
克萊恩沉默	-5098
克頓的黑暗	-5099
▁消費者	-5100
博格達汗	-5101
場比賽中	-5102
塔會見了	-5103
好的人才	-5104
工的工作	-5105
掉的時候	-5106
新法蘭西	-5107
更多的捐	-5108
會見了希	-5109
法蘭西的	-5110
的社會住	-5111
茨的成功	-5112
邊最大的	-5113
頓的支持	-5114
▁新法蘭西	-5115
事件發生在	-5116
俄國的所有	-5117
克斯洛伐克	-5118
內代理人的	-5119
兩位劇作家	-5120
兩起謀殺罪	-5121
公司就只能	-5122
公國在當今	-5123
公園東南部	-5124
公眾為他們	-5125
六年間失業	-5126
其他事情上	-5127
其他人則讚	-5128
其作為主要	-5129
其北部區域	-5130
其展覽公寓	-5131
其後出現在	-5132
其關閉原因	-5133
凱拉的嬰兒	-5134
凱撒的宣言	-5135
凱爾特海和	-5136
出生的月份	-5137
利卡塔東部	-5138
利塞地區和	-5139
利用了河流	-5140
到了好幾個	-5141
到目前為止	-5142
券會被生成	-5143
刺傷阿伯茨	-5144
前進的德國	-5145
剩下了中央	-5146
創作了六部	-5147
創作了歌曲	-5148
加低斯的圖	-5149
勒牧師拜訪	-5150
勝餐飲集團	-5151
勞工的工作	-5152
匈牙利施壓	-5153
化的第一階	-5154
北京的立法	-5155
北部區域亦	-5156
十年內成為	-5157
南部緊鄰的	-5158
博客中寫道	-5159
卡唱片公司	-5160
卡拉布里亞	-5161
卡鬆的歷史	-5162
印度西北部	-5163
危機顯示了	-5164
即約公元前	-5165
去了葡萄牙	-5166
去希羅底那	-5167
參與不道德	-5168
又再次流行	-5169
又有意思的	-5170
及其船員共	-5171
及新傳統是	-5172
反應說明了	-5173
反法西斯的	-5174
受疼痛折磨	-5175
受社會主義	-5176
叛亂的收益	-5177
叛亂的發生	-5178
叛軍的軍事	-5179
古老歷史資	-5180
只有在美國	-5181
可歸而被控	-5182
可疑的漏洞	-5183
可疑的現金	-5184
可能有助於	-5185
可靠的信息	-5186
史以來最低	-5187
史密斯的科	-5188
史達林接替	-5189
右肺的腫瘤	-5190
司法部部長	-5191
合作完成的	-5192
合法葬禮罪	-5193
合理地假設	-5194
吉卜林很大	-5195
吉拉德女士	-5196
同時會獲得	-5197
同樣的鬥志	-5198
同盟叛軍於	-5199
動摩托車	-5200
及希臘的	-5201
好我們在	-5202
季斯拉夫	-5203
對美國的	-5204
已經在維	-5205
希臘的沿	-5206
希臘的集	-5207
形成了凍	-5208
形成了月	-5209
我們在主	-5210
投資者們	-5211
摩托車越	-5212
摩托車頭	-5213
撞導致的	-5214
斯拉夫人	-5215
明顯的分	-5216
是投資者	-5217
是明顯的	-5218
次戰爭中	-5219
的電影刻	-5220
了使用單一	-5221
作整合了過	-5222
古希臘的集	-5223
名獲勝之前	-5224
名這片土地	-5225
向埃及法老	-5226
向獨立寫作	-5227
否則會非常	-5228
告誡不要採	-5229
告誡其教徒	-5230
呼聲傳遍了	-5231
和五百萬冊	-5232
和他的妻子	-5233
和卡森已幾	-5234
和女演員葛	-5235
和平的友誼	-5236
和歷史組成	-5237
和烏克蘭的	-5238
和監管船隻	-5239
和福特公司	-5240
和穿戴別人	-5241
和貝貝一起	-5242
哥將會有一	-5243
商學院的學	-5244
問題的法國	-5245
問題的激增	-5246
善會主席喬	-5247
嘉砲兵軍官	-5248
嘉賓主持人	-5249
四名學生髮	-5250
四月在蒙特	-5251
回舊殖民地	-5252
因為這兩個	-5253
因而登上了	-5254
困擾的日子	-5255
國際比賽中	-5256
在一個工作	-5257
在他的電影	-5258
在公元前約	-5259
在公共場合	-5260
在前線作戰	-5261
在大火中被	-5262
在最近的訪	-5263
在東三角洲	-5264
在格拉斯哥	-5265
在波蘭放棄	-5266
在約公元前	-5267
在聖塞西莉	-5268
地保持穩步	-5269
地剩了下來	-5270
地形成了凍	-5271
地思考未來	-5272
地理和近海	-5273
地表的細微	-5274
址都很有名	-5275
坎伯蘭公爵	-5276
城市每年有	-5277
基於政績的	-5278
塔比的個人	-5279
壇留下了光	-5280
外來勢力間	-5281
多於圍著我	-5282
大眾的注意	-5283
大約是清朝	-5284
大部分的班	-5285
大都會俱樂	-5286
大都會城市	-5287
天氣預報中	-5288
奧匈妥協協	-5289
奧古斯塔斯	-5290
奧爾尼奪回	-5291
奧聯軍感到	-5292
奧運會是在	-5293
女士和這片	-5294
女士已經在	-5295
女士補充道	-5296
她和她與其	-5297
她是反對欺	-5298
妥善的健康	-5299
入空	-5300
在房	-5301
流離	-5302
準媽	-5303
與輔	-5304
連鎖	-5305
▁流離	-5306
一些大	-5307
一個字	-5308
以自由	-5309
入空中	-5310
在房間	-5311
新成立	-5312
準媽媽	-5313
與輔導	-5314
藏家的	-5315
▁奧巴馬	-5316
▁流離失	-5317
一些大致	-5318
一個字源	-5319
他回到了	-5320
以自由州	-5321
含在工作	-5322
回到了鐳	-5323
在工作上	-5324
在工作場	-5325
在房間裡	-5326
在英國聖	-5327
大學的畢	-5328
天主教教	-5329
奧地利下	-5330
奧巴馬對	-5331
奧斯卡終	-5332
安東尼奧	-5333
對美國有	-5334
對美國第	-5335
州在內的	-5336
彈入空中	-5337
形成連鎖	-5338
收藏家的	-5339
新成立的	-5340
有大量的	-5341
的準媽媽	-5342
電子郵件	-5343
▁奧巴馬嘲	-5344
▁對於通過	-5345
▁流離失所	-5346
一些大致上	-5347
三世在內的	-5348
他回到了基	-5349
但這將會在	-5350
包含在工作	-5351
卻有大量的	-5352
回到了瑞士	-5353
回到了鐳學	-5354
在內的許多	-5355
在工作場所	-5356
在英國特別	-5357
在英國聖公	-5358
天主教教義	-5359
天主教聯盟	-5360
奧地利下部	-5361
奧地利皇帝	-5362
奧巴馬對在	-5363
奧斯卡終身	-5364
妻子也開始	-5365
威爾斯市長	-5366
子之於常人	-5367
存活下來時	-5368
學校受到了	-5369
學校與輔導	-5370
學生被告知	-5371
它們的相似	-5372
它重現了冷	-5373
安塞密爾於	-5374
安慰是可以	-5375
安東尼宣布	-5376
安東尼霸占	-5377
官在達菲的	-5378
定它們符合	-5379
宣佈為野生	-5380
室內製作動	-5381
實際完成的	-5382
實驗的結果	-5383
寫作興致勢	-5384
將其主張的	-5385
將會在六月	-5386
將能與巴西	-5387
專家警告說	-5388
尋求與猶太	-5389
對丘吉爾的	-5390
對人類社會	-5391
對他們來說	-5392
對他們註冊	-5393
對埃爾多安	-5394
對尼古拉斯	-5395
對尼羅河的	-5396
對情侶可以	-5397
對派系變的	-5398
對美國有害	-5399
Kh	-5400
不止	-5401
交錯	-5402
員票	-5403
在民	-5404
寂寞	-5405
將延	-5406
將是	-5407
對芳	-5408
展會	-5409
強烈	-5410
普魯	-5411
會擊	-5412
殺戮	-5413
特蕾	-5414
當然	-5415
耶區	-5416
諾的	-5417
財產	-5418
遵守	-5419
長度	-5420
開墾	-5421
▁Sh	-5422
不止是	-5423
促進了	-5424
和遵守	-5425
在民用	-5426
多將延	-5427
寂寞的	-5428
對殺戮	-5429
對芳特	-5430
強烈慾	-5431
所當然	-5432
斯普魯	-5433
會擊中	-5434
特蕾莎	-5435
產生多	-5436
的長度	-5437
的黨派	-5438
維耶區	-5439
萊諾的	-5440
議員票	-5441
間還是	-5442
Khan	-5443
Uber	-5444
▁Sho	-5445
▁大熱的	-5446
上的管理	-5447
不止是電	-5448
促進了傑	-5449
可產生多	-5450
土地開墾	-5451
多將延長	-5452
奠定了融	-5453
寂寞的豬	-5454
將是北京	-5455
對殺戮的	-5456
小型自治	-5457
幫助客戶	-5458
強烈慾望	-5459
所當然地	-5460
承擔責任	-5461
此次展會	-5462
派的黨派	-5463
為國家的	-5464
發展特徵	-5465
知識分子	-5466
薩萊諾的	-5467
被的保護	-5468
迪猶太人	-5469
間還是不	-5470
Khanz	-5471
▁Show	-5472
▁蘇格蘭人	-5473
不止是電話	-5474
交錯的文化	-5475
促進了傑濟	-5476
個小型自治	-5477
列為國家的	-5478
包括對芳特	-5479
可產生多達	-5480
和遵守了多	-5481
在民用航空	-5482
夫承擔責任	-5483
奇蹟和每個	-5484
它們會擊中	-5485
就像大多數	-5486
就是拿破崙	-5487
就檢測不到	-5488
尼特拉公國	-5489
展現的怠慢	-5490
屬部件有所	-5491
山任職變遷	-5492
岡法律中移	-5493
岩島嶼則如	-5494
工作奠定了	-5495
工作時間中	-5496
工業革命都	-5497
巨大的增長	-5498
已經在維多	-5499
下下	-5500
了很	-5501
共通	-5502
台階	-5503
各樣	-5504
擊和	-5505
明確	-5506
梅塞	-5507
片人	-5508
盤上	-5509
規則	-5510
通往	-5511
下下達	-5512
你們施	-5513
克爾頓	-5514
共通的	-5515
台階上	-5516
各樣的	-5517
國王阿	-5518
擊和適	-5519
文學碩	-5520
盤上方	-5521
華盛頓	-5522
製片人	-5523
通往弗	-5524
下下達訂	-5525
並不明確	-5526
似乎希望	-5527
你們施加	-5528
克爾頓爵	-5529
國王阿閔	-5530
存在了很	-5531
文學碩士	-5532
梅塞將軍	-5533
無論規則	-5534
處罰條款	-5535
通往弗倫	-5536
鍵盤上方	-5537
▁無論規則	-5538
下下達訂單	-5539
似乎希望元	-5540
你們施加哪	-5541
僅存在了很	-5542
克爾頓爵士	-5543
各樣的觀眾	-5544
它們共通的	-5545
已經疏遠了	-5546
已經超越了	-5547
巴庫莫夫在	-5548
巴拿馬總督	-5549
巴爾幹同盟	-5550
巴達爾普爾	-5551
布什大樓為	-5552
布朗特擔任	-5553
希望即將離	-5554
希臘字母表	-5555
師和紡織業	-5556
帶來了一場	-5557
常染色體的	-5558
年在三十年	-5559
年度調查還	-5560
年後加入北	-5561
年春天告終	-5562
年的專業而	-5563
幸的是再次	-5564
幸運兔奧斯	-5565
幻時刻至少	-5566
幾乎沒有借	-5567
府代理人的	-5568
座青銅時代	-5569
廣受好評的	-5570
廣州在內的	-5571
廣闊的遺跡	-5572
建立生者與	-5573
建議讓羅娜	-5574
強制受洗後	-5575
強制受洗有	-5576
形成了一種	-5577
形成了東非	-5578
影響最深遠	-5579
很令人驚訝	-5580
很可能是指	-5581
很快得到了	-5582
很有趣的求	-5583
從中世紀中	-5584
從向著他的	-5585
從哪兒來的	-5586
從挪威南部	-5587
從未接觸過	-5588
御所需的技	-5589
復興時期的	-5590
徵收的最高	-5591
德克薩斯州	-5592
德發現大陸	-5593
快速地打開	-5594
怎麼樣才能	-5595
性別歧視者	-5596
意味著他們	-5597
意味著需要	-5598
意圖是什麼	-5599
▁漢	-5600
了被	-5601
人開	-5602
到在	-5603
前戴	-5604
國籍	-5605
在橄	-5606
將它	-5607
戰意	-5608
新結	-5609
曾選	-5610
深圳	-5611
的警	-5612
筋暴	-5613
羅曼	-5614
辛巴	-5615
高昂	-5616
isp	-5617
min	-5618
▁可以	-5619
▁深圳	-5620
▁漢斯	-5621
了被沖	-5622
人開玩	-5623
在將它	-5624
在橄欖	-5625
拍到在	-5626
新結論	-5627
曾選用	-5628
法老王	-5629
獲得植	-5630
的警官	-5631
筋暴起	-5632
羅曼諾	-5633
舊區域	-5634
萊辛巴	-5635
訪前戴	-5636
Hisp	-5637
▁可以說	-5638
▁深圳市	-5639
了被沖上	-5640
人開玩笑	-5641
在將它從	-5642
戰意高昂	-5643
掉法老王	-5644
維亞國籍	-5645
羅曼諾夫	-5646
舊區域也	-5647
萊辛巴哈	-5648
被拍到在	-5649
采訪前戴	-5650
青筋暴起	-5651
▁Amin	-5652
▁喬治極度	-5653
▁深圳市交	-5654
人開玩笑說	-5655
以前曾選用	-5656
出了新結論	-5657
城市的警官	-5658
妙的挑戰的	-5659
慶祝他們的	-5660
應可持續到	-5661
成年人中有	-5662
我們在積極	-5663
我們會繼續	-5664
我們的日常	-5665
我已經完全	-5666
我排除在外	-5667
我都要坐牢	-5668
或唱片公司	-5669
或是明顯的	-5670
或組織優先	-5671
或至少能減	-5672
戰役的學術	-5673
戰線的局勢	-5674
戰鬥中表現	-5675
所以我就像	-5676
扭轉了對抗	-5677
批發方面的	-5678
承擔更多的	-5679
技術提出了	-5680
把兒子安德	-5681
把日出標記	-5682
把路途時間	-5683
投資人極度	-5684
投資者們成	-5685
投資者投資	-5686
拉博夫裸體	-5687
拉島和城市	-5688
拉的嬰兒的	-5689
拉美西斯二	-5690
拉迪亞德吉	-5691
拿出自己的	-5692
拿破崙確信	-5693
掉法老王理	-5694
排除其他人	-5695
接下來的多	-5696
接受了治療	-5697
接著建立了	-5698
接觸的主要	-5699
一體	-5700
反信	-5701
城的	-5702
宇宙	-5703
後是	-5704
敦促	-5705
牧場	-5706
艾賓	-5707
見到	-5708
規定	-5709
諮詢	-5710
001	-5711
並敦促	-5712
即擁有	-5713
反信託	-5714
和牧場	-5715
年開始	-5716
於今年	-5717
為一體	-5718
然後是	-5719
的規定	-5720
色城的	-5721
艾賓根	-5722
,001	-5723
兩個宇宙	-5724
包括一名	-5725
反信託庭	-5726
含大量的	-5727
地和牧場	-5728
基色城的	-5729
數次挑釁	-5730
於今年較	-5731
沒有諮詢	-5732
融為一體	-5733
見到她的	-5734
主要由古代	-5735
包括一名國	-5736
反信託庭審	-5737
回了艾賓根	-5738
年開始據此	-5739
推特簡訊上	-5740
提供財務的	-5741
揭示了他對	-5742
揭示了他的	-5743
揭露後的那	-5744
摩托車越野	-5745
摩納哥提供	-5746
摩納哥條約	-5747
撒及希臘的	-5748
擁有滿意的	-5749
擊和適當的	-5750
擔任財務長	-5751
擬人機器人	-5752
擬定為羅馬	-5753
收到了美國	-5754
改用第三方	-5755
放的人得以	-5756
政府科學家	-5757
政府開支的	-5758
政權轉移能	-5759
教皇方濟各	-5760
文學碩士學	-5761
斯巴達在伯	-5762
斯拉夫人於	-5763
斯洛伐克西	-5764
於今年較早	-5765
於西方的蠅	-5766
早前克萊恩	-5767
早至公元前	-5768
明會牧師海	-5769
明顯的抵抗	-5770
是一名漫畫	-5771
是一名臥底	-5772
是一項團體	-5773
是不合適的	-5774
是投資者喜	-5775
是政府最不	-5776
是由於印度	-5777
是芬蘭語和	-5778
是購物平台	-5779
時不在片場	-5780
時丟了六分	-5781
晨的行動中	-5782
更多的工作	-5783
更多的捐獻	-5784
更好地保護	-5785
曼谷最高的	-5786
曾經發生在	-5787
最壞的情況	-5788
最好的人才	-5789
最新的事件	-5790
最有可能在	-5791
最有可能從	-5792
最有影響力	-5793
最近的一次	-5794
最高一座高	-5795
會導致射擊	-5796
會獲得成功	-5797
會見了希特	-5798
會見了技術	-5799
▁法	-5800
▁湯	-5801
不忙	-5802
出能	-5803
少年	-5804
峙時	-5805
工會	-5806
損傷	-5807
斯轉	-5808
機場	-5809
波拿	-5810
疏通	-5811
發的	-5812
積物	-5813
限額	-5814
露天	-5815
▁他於	-5816
▁湯普	-5817
不忙地	-5818
保護區	-5819
傳統中	-5820
出發的	-5821
出能跨	-5822
名人的	-5823
少年大	-5824
您就能	-5825
感狀態	-5826
才能擯	-5827
斯轉身	-5828
波拿巴	-5829
淤積物	-5830
疏通了	-5831
的活動	-5832
總工會	-5833
葬地點	-5834
都屬於	-5835
▁對峙時	-5836
▁湯普遜	-5837
不忙地穿	-5838
之後不久	-5839
了淤積物	-5840
出能跨海	-5841
受到損傷	-5842
埋葬地點	-5843
少年大腦	-5844
情感狀態	-5845
才能擯除	-5846
敵的活動	-5847
最高限額	-5848
牌的目標	-5849
猜測僅僅	-5850
瑟斯轉身	-5851
秘傳統中	-5852
者的歷史	-5853
認為機場	-5854
還在調查	-5855
露天劇場	-5856
▁Buck	-5857
▁最高限額	-5858
▁湯普遜的	-5859
他情感狀態	-5860
公司的選擇	-5861
力量總工會	-5862
動物保護區	-5863
匹敵的活動	-5864
名人的名字	-5865
大陸出發的	-5866
少年大腦的	-5867
慌不忙地穿	-5868
成功疏通了	-5869
才能擯除分	-5870
會認為機場	-5871
會議中心的	-5872
月份的長度	-5873
有一段時刻	-5874
有了分離的	-5875
有人轟炸了	-5876
有相似之處	-5877
有著重大的	-5878
有關被征服	-5879
有限的保護	-5880
未來的目標	-5881
板塊斷層上	-5882
某種程度上	-5883
柴油價格為	-5884
核還在調查	-5885
根相信是上	-5886
格來分配的	-5887
梅飽受批評	-5888
條約的延續	-5889
業生成就展	-5890
業的諾瑪城	-5891
極其不合格	-5892
概念藝術並	-5893
槍殺了蘇台	-5894
樂命令不得	-5895
模糊的細節	-5896
權力的遊戲	-5897
歐洲人探索	-5898
此局面有所	-5899
位神	-5900
佩特	-5901
加強	-5902
只把	-5903
地敲	-5904
子輕	-5905
州離	-5906
德勒	-5907
擊起	-5908
放異	-5909
氣機	-5910
灣和	-5911
用錘	-5912
的觸	-5913
華的	-5914
落架	-5915
詩歌	-5916
都獨	-5917
並用錘	-5918
人口和	-5919
他加強	-5920
位神祗	-5921
佩特森	-5922
只把其	-5923
噴氣機	-5924
大放異	-5925
奢華的	-5926
子輕輕	-5927
州離岸	-5928
德勒和	-5929
扮演者	-5930
會原本	-5931
灣和濕	-5932
當天的	-5933
的觸控	-5934
詩歌只	-5935
他加強了	-5936
在人口和	-5937
地敲擊起	-5938
大放異彩	-5939
它為數個	-5940
官的職位	-5941
德勒和威	-5942
會原本定	-5943
窄的觸控	-5944
萊灣和濕	-5945
選舉已經	-5946
都獨特的	-5947
首詩歌只	-5948
▁每位神祗	-5949
不要只把其	-5950
他就承認了	-5951
佩特森能夠	-5952
國在人口和	-5953
奢華的花費	-5954
它為數個社	-5955
就是在這裡	-5956
尼亞州離岸	-5957
德勒和威勒	-5958
教皇保羅六	-5959
施萊灣和濕	-5960
會原本定在	-5961
此概念叫做	-5962
歲的參賽者	-5963
歷史的南部	-5964
母語版的聖	-5965
毛髮通常是	-5966
民官的職位	-5967
氣中吸收並	-5968
沒明顯的分	-5969
沙皇亞歷山	-5970
河流均來自	-5971
河流均有源	-5972
法克斯勳爵	-5973
法國在馬倫	-5974
法國據此為	-5975
法蘭西的伊	-5976
波蘭及波羅	-5977
洛士不得不	-5978
派傾向著稱	-5979
海岸附近的	-5980
準確地表達	-5981
溫柔的一面	-5982
演員和員工	-5983
漿一般因矽	-5984
激烈的地區	-5985
激烈的思想	-5986
為他的電影	-5987
為對的靈感	-5988
然後是星期	-5989
煤電站也將	-5990
熱的吉他手	-5991
父親的葬禮	-5992
爾斯被認為	-5993
爾變得更加	-5994
片和印第安	-5995
特別規劃區	-5996
特點是衣服	-5997
犯了重大的	-5998
獨立審查主	-5999
3.	-6000
▁樞	-6001
世凱	-6002
契諾	-6003
年開	-6004
掛了	-6005
過時	-6006
長哈	-6007
霍默	-6008
3.7	-6009
▁審查	-6010
▁樞密	-6011
型形象	-6012
契諾河	-6013
已有人	-6014
帕爾雷	-6015
是霍默	-6016
袁世凱	-6017
議長哈	-6018
都掛了	-6019
集手機	-6020
▁已有人	-6021
▁樞密院	-6022
典型形象	-6023
契諾河和	-6024
她是不是	-6025
幾集手機	-6026
的袁世凱	-6027
議長哈利	-6028
過時兩年	-6029
面的人口	-6030
103.7	-6031
▁審查處理	-6032
▁衣服上的	-6033
全面的人口	-6034
和林肯執政	-6035
問她是不是	-6036
問題也可以	-6037
契諾河和寶	-6038
幾集手機就	-6039
是可以合法	-6040
王安石的淤	-6041
現在是上演	-6042
理埃爾多安	-6043
理所當然地	-6044
瑞典的托爾	-6045
瑞典的研究	-6046
環境規劃署	-6047
甚至比在矽	-6048
生動地講述	-6049
生活的實際	-6050
生活的社區	-6051
用名字稱呼	-6052
用恰當的儀	-6053
用的聊天軟	-6054
由一座大金	-6055
由官方建立	-6056
由於被指控	-6057
由法令確定	-6058
由滿族統治	-6059
當地舊金山	-6060
當增長率比	-6061
瘤是一種在	-6062
登的梅爾丁	-6063
發揮了關鍵	-6064
發生變化了	-6065
發起一系列	-6066
發電機停運	-6067
白人男性身	-6068
的一次進行	-6069
的人數眾多	-6070
的人物一樣	-6071
的人物形象	-6072
的休息環節	-6073
的充分準備	-6074
的另一主題	-6075
的地標建築	-6076
的城市發展	-6077
的多元目標	-6078
的大台階上	-6079
的女巫琳達	-6080
的建議環節	-6081
的微小變化	-6082
的德國和納	-6083
的志願者就	-6084
的情況為其	-6085
的想法仍舊	-6086
的應用程序	-6087
的所有內容	-6088
的所有指控	-6089
的摩托車頭	-6090
的方向前進	-6091
的是在快速	-6092
的最高法庭	-6093
的有利選項	-6094
的死亡人口	-6095
的比例一致	-6096
的破壞極大	-6097
的祖母是德	-6098
的神壇地位	-6099
之人	-6100
入石	-6101
劇情	-6102
外國	-6103
如錢	-6104
姍來	-6105
岩的	-6106
律賓	-6107
所欽	-6108
箋和	-6109
艱難	-6110
講話	-6111
關島	-6112
陶冶	-6113
ayi	-6114
保護年	-6115
入石灰	-6116
分講話	-6117
劇情片	-6118
她所欽	-6119
姍來遲	-6120
岩的墳	-6121
故之人	-6122
方箋和	-6123
石製墓	-6124
艱難的	-6125
菲律賓	-6126
諾斯為	-6127
陶冶情	-6128
Zayi	-6129
允許外國	-6130
大量皇家	-6131
她所欽佩	-6132
姍姍來遲	-6133
岩的墳墓	-6134
嵌入石灰	-6135
已故之人	-6136
方箋和疫	-6137
石製墓塚	-6138
薩諾斯為	-6139
部劇情片	-6140
關島以及	-6141
陶冶情操	-6142
大量皇家馬	-6143
她所欽佩的	-6144
惡薩諾斯為	-6145
方箋和疫苗	-6146
河流保護年	-6147
的科幻故事	-6148
的著陸襟翼	-6149
的處罰條款	-6150
的行動告訴	-6151
的要求作出	-6152
的警方表示	-6153
的轉變和新	-6154
的還有布魯	-6155
的阿拉伯起	-6156
的電影刻畫	-6157
的黨內初選	-6158
目擊者告訴	-6159
目標是霍默	-6160
看作他激進	-6161
真正有地位	-6162
知識分子會	-6163
知道戴維斯	-6164
研究的平均	-6165
碰撞導致的	-6166
碳的技術來	-6167
確實很可怕	-6168
礦物資源尤	-6169
祀遺跡由一	-6170
神秘傳統中	-6171
科斯佩達爾	-6172
科羅拉多州	-6173
秘密訪問了	-6174
種族主義者	-6175
稿風格似的	-6176
突變的數目	-6177
窄窄的觸控	-6178
第三大學的	-6179
節都有其含	-6180
範圍限制在	-6181
簡直是太仁	-6182
糟糕的天氣	-6183
糟糕的狀況	-6184
系統添加到	-6185
系統的成功	-6186
約十七年後	-6187
約瑟夫一世	-6188
紐約市健康	-6189
絕大多數席	-6190
絲共同出演	-6191
維耶區進行	-6192
練工人提升	-6193
總統想要傳	-6194
總統的要求	-6195
總體的鐵儲	-6196
繼續向南走	-6197
罪行中移除	-6198
羅娜的費用	-6199
一閃	-6200
十世	-6201
山峰	-6202
得多	-6203
懂了	-6204
柏拉	-6205
河需	-6206
的碑	-6207
者們	-6208
處有	-6209
行性	-6210
造並	-6211
錯了	-6212
鮮活	-6213
ube	-6214
▁柏拉	-6215
一閃而	-6216
人懂了	-6217
他錯了	-6218
保鮮活	-6219
可行性	-6220
年發生	-6221
比賽越	-6222
決定退	-6223
河需時	-6224
由航空	-6225
的碑文	-6226
該處有	-6227
造並修	-6228
Tube	-6229
▁柏拉圖	-6230
一閃而過	-6231
些人懂了	-6232
兩個山峰	-6233
安全得多	-6234
是他錯了	-6235
比賽越多	-6236
永保鮮活	-6237
決定退黨	-6238
河需時約	-6239
路易十世	-6240
造並修葺	-6241
修道院教堂	-6242
可行性研究	-6243
因為該處有	-6244
地點的碑文	-6245
應該由航空	-6246
描述了戰爭	-6247
河需時約四	-6248
當是他錯了	-6249
的比賽越多	-6250
的研究學習	-6251
羅馬舉辦的	-6252
美國人說道	-6253
美國的許多	-6254
美拉尼西亞	-6255
美洲史前圖	-6256
美西斯在後	-6257
群島和位於	-6258
者所需要的	-6259
而十個中有	-6260
而受到影響	-6261
而我們必須	-6262
耕地和牧場	-6263
聖羅馬帝國	-6264
肯瑟斯轉身	-6265
背後的意圖	-6266
能接收到一	-6267
自己的統計	-6268
自己高爾夫	-6269
自由大學的	-6270
自由的保障	-6271
至八世紀末	-6272
與其城堡要	-6273
與完工進入	-6274
與希羅底的	-6275
與西方的往	-6276
與謀殺案案	-6277
舉辦了演唱	-6278
般的手術和	-6279
茲福德地區	-6280
菲利普召集	-6281
菲利普隨後	-6282
菲律賓割讓	-6283
萬歐元可以	-6284
著大麻作為	-6285
著海峽要道	-6286
薩米人方言	-6287
蘇格蘭人報	-6288
蘊含大量的	-6289
虔誠所感染	-6290
血紅蛋白所	-6291
行為的了解	-6292
行為的代理	-6293
行為的限度	-6294
街上華盛頓	-6295
被妥善利用	-6296
被徹底改變	-6297
被授予塞爾	-6298
被當作孩子	-6299
24	-6300
CB	-6301
不順	-6302
並由	-6303
亥俄	-6304
其實	-6305
噪音	-6306
威懾	-6307
年雨	-6308
庸國	-6309
強尼	-6310
您的	-6311
扎於	-6312
斯時	-6313
會更	-6314
無以	-6315
福利	-6316
致敬	-6317
講到	-6318
遭遇	-6319
隊的	-6320
高登	-6321
CBS	-6322
並成功	-6323
並由其	-6324
亥俄河	-6325
但其實	-6326
你會更	-6327
使用費	-6328
其致敬	-6329
到您的	-6330
年雨月	-6331
形石製	-6332
扎於母	-6333
會遭遇	-6334
氣候與	-6335
的福利	-6336
艦隊的	-6337
賞識的	-6338
附庸國	-6339
一個噪音	-6340
並成功挺	-6341
其中講到	-6342
到您的錢	-6343
加低斯時	-6344
取使用費	-6345
向其致敬	-6346
威懾對方	-6347
完全反對	-6348
恰當的神	-6349
扎於母子	-6350
方形石製	-6351
民的福利	-6352
的附庸國	-6353
艦隊的堵	-6354
警察正在	-6355
賞識的司	-6356
關於強尼	-6357
下一個噪音	-6358
並成功挺進	-6359
並由其主持	-6360
也向其致敬	-6361
他們對穀物	-6362
但其實業務	-6363
你會更清楚	-6364
區的氣候與	-6365
和國民警衛	-6366
居民的福利	-6367
市場會遭遇	-6368
廢墟進行了	-6369
恰當的神學	-6370
拿到您的錢	-6371
捕加低斯時	-6372
掙扎於母子	-6373
收取使用費	-6374
消費者服務	-6375
無以倫比的	-6376
的警察正在	-6377
與完全反對	-6378
艦隊的堵塞	-6379
被稱為立石	-6380
被視為兩個	-6381
被認為具有	-6382
被調查很多	-6383
製作實驗室	-6384
製片人最後	-6385
西格爾提出	-6386
西西里島及	-6387
親含蓄謙遜	-6388
角度考慮而	-6389
記憶在生者	-6390
記者都穿戴	-6391
訪問了堪察	-6392
設備和紡織	-6393
設計師比爾	-6394
設計的這座	-6395
評選活動中	-6396
試圖讓飛機	-6397
該城市的最	-6398
該電影由尼	-6399
伊雷	-6400
入侵	-6401
其侄	-6402
層或	-6403
恢復	-6404
打成	-6405
時至	-6406
次以	-6407
生內	-6408
的反	-6409
的戈	-6410
號也	-6411
階級	-6412
▁時至	-6413
上佔據	-6414
云層或	-6415
伊雷娜	-6416
入侵了	-6417
其侄子	-6418
員能夠	-6419
打成平	-6420
次以色	-6421
法西斯	-6422
產階級	-6423
的戈梅	-6424
絲說道	-6425
號也起	-6426
負責將	-6427
餘生內	-6428
▁時至此	-6429
上佔據第	-6430
中產階級	-6431
云層或煙	-6432
信伊雷娜	-6433
公眾的反	-6434
幫助恢復	-6435
打成平局	-6436
新的一集	-6437
有著政治	-6438
次以色列	-6439
每個島嶼	-6440
的戈梅里	-6441
的經濟已	-6442
號也起自	-6443
讓其侄子	-6444
負責將氧	-6445
麗絲說道	-6446
▁時至此刻	-6447
並在餘生內	-6448
並讓其侄子	-6449
云層或煙霧	-6450
受到的影響	-6451
和公眾的反	-6452
國家的實際	-6453
強上佔據第	-6454
愛丁堡晚報	-6455
控制員能夠	-6456
有著政治層	-6457
法西斯分子	-6458
猶太人當中	-6459
致信伊雷娜	-6460
該電影由萊	-6461
說明了這三	-6462
說法就被推	-6463
課程的內容	-6464
談了自己的	-6465
談論發生了	-6466
請願書的作	-6467
諡號也起自	-6468
諷以及其他	-6469
講述自己的	-6470
警方發言人	-6471
護加拿大的	-6472
變得更加刻	-6473
讓人感覺到	-6474
負擔的人數	-6475
負責將氧氣	-6476
資金投資和	-6477
賬戶添加免	-6478
賬戶餘額為	-6479
賬戶餘額的	-6480
超級錦標賽	-6481
路易入侵了	-6482
較舊區域也	-6483
迪斯導演的	-6484
迫害的經歷	-6485
追求和平的	-6486
追踪無人機	-6487
這也導致了	-6488
這些挑戰的	-6489
這些領導人	-6490
這位比利時	-6491
這部電影處	-6492
通儲蓄賬戶	-6493
通常是那種	-6494
通常會導致	-6495
通過觀察高	-6496
連接到你的	-6497
進口葡萄酒	-6498
進行的準備	-6499
▁數	-6500
▁斯	-6501
以此	-6502
修女	-6503
共享	-6504
及時	-6505
從事	-6506
放下	-6507
會為	-6508
沿用	-6509
莉嫁	-6510
部內	-6511
▁放下	-6512
▁斯大	-6513
並以此	-6514
中那個	-6515
人沿用	-6516
修女們	-6517
公司也	-6518
及時事	-6519
回追溯	-6520
它們在	-6521
極佳的	-6522
部內組	-6523
▁放下麥	-6524
▁數十年	-6525
▁斯大林	-6526
修女們搬	-6527
利用阿爾	-6528
奧古斯都	-6529
對它們在	-6530
年代仍在	-6531
政府會為	-6532
文章顯示	-6533
最後還是	-6534
注重在兩	-6535
看到瘋狂	-6536
莉嫁給了	-6537
部內組建	-6538
駁回追溯	-6539
▁利用阿爾	-6540
▁放下麥克	-6541
▁政府會為	-6542
▁數十年來	-6543
一直在從事	-6544
中那個處於	-6545
公司也不斷	-6546
具有極佳的	-6547
及時事工作	-6548
希臘人沿用	-6549
注重在兩國	-6550
的修女們搬	-6551
看到瘋狂又	-6552
蘭駁回追溯	-6553
被奧古斯都	-6554
過時兩年了	-6555
道德淪喪而	-6556
遜河附近的	-6557
選他的妻子	-6558
選擇要么撤	-6559
選舉已經變	-6560
選舉日之前	-6561
選舉的瘋狂	-6562
邀才能進去	-6563
邊的太平洋	-6564
那些在選舉	-6565
那些等我們	-6566
部落和主要	-6567
部落在歐洲	-6568
部部長傑夫	-6569
都全副武裝	-6570
都屬於歐盟	-6571
都很容易進	-6572
都被遺忘了	-6573
里展現了強	-6574
重要的差異	-6575
野心的機會	-6576
量他將允許	-6577
金牌的目標	-6578
鎮一閃而過	-6579
開展研究所	-6580
開鏈接和附	-6581
關於該話題	-6582
阿拉伯人的	-6583
阿拉斯加僅	-6584
阿普利亞來	-6585
阿普利亞和	-6586
阿特靈被人	-6587
降到了大約	-6588
隕石材料的	-6589
隨後找到了	-6590
雞永不滿足	-6591
雷斯特德於	-6592
雷暴報告的	-6593
電影是由亞	-6594
非常艱難的	-6595
音樂舞台劇	-6596
項目中表示	-6597
預測的那樣	-6598
頓大學的畢	-6599
光燈	-6600
判所	-6601
大群	-6602
按照	-6603
是區	-6604
是堅	-6605
機關	-6606
洗清	-6607
碳酸	-6608
稱提	-6609
與茱	-6610
薩謨	-6611
薪資	-6612
一大群	-6613
中洗清	-6614
光燈下	-6615
區以前	-6616
是按照	-6617
歐與茱	-6618
碳酸飲	-6619
稱提庇	-6620
稱是區	-6621
聖羅斯	-6622
薩謨奈	-6623
裁判所	-6624
arel	-6625
▁在電影	-6626
一大群自	-6627
中洗清了	-6628
作品創作	-6629
區以前木	-6630
因為如此	-6631
團隊在同	-6632
密歐與茱	-6633
政府機關	-6634
是堅不可	-6635
稱提庇留	-6636
聚光燈下	-6637
Karel	-6638
SPIEG	-6639
但這一想法	-6640
包括薩謨奈	-6641
區以前木偶	-6642
宗教裁判所	-6643
密歐與茱麗	-6644
於聚光燈下	-6645
是堅不可摧	-6646
是按照中國	-6647
正因為如此	-6648
產生碳酸飲	-6649
願景使他對	-6650
顯示了在一	-6651
風險的飆升	-6652
食品提供了	-6653
餘額中賺取	-6654
首席執行官	-6655
騎兵在發起	-6656
魯多將延長	-6657
默塞特郡的	-6658
黨保守派把	-6659
黨派領導人	-6660
黨衛軍軍官	-6661
$15000	-6662
.30-10	-6663
15,001	-6664
19,999	-6665
Addenb	-6666
Barrat	-6667
Chilia	-6668
Herber	-6669
Hispan	-6670
Hopley	-6671
Income	-6672
Johnny	-6673
Kerber	-6674
Mailis	-6675
Nectar	-6676
Norman	-6677
Reddit	-6678
SPIEGE	-6679
Zayion	-6680
ackham	-6681
enbach	-6682
etrich	-6683
intado	-6684
ouTube	-6685
ranach	-6686
tsberg	-6687
vestor	-6688
£3,000	-6689
£5,000	-6690
▁Avery	-6691
▁Carlo	-6692
▁Diess	-6693
▁Durán	-6694
▁Rasti	-6695
▁Salas	-6696
▁Style	-6697
▁他不久前剛	-6698
▁他也討論了	-6699
事後	-6700
售出	-6701
大也	-6702
奧茲	-6703
山上	-6704
德爾	-6705
慶賀	-6706
把它	-6707
改良	-6708
救它	-6709
氧化	-6710
溶於	-6711
界限	-6712
目點	-6713
相格	-6714
絕對	-6715
維持	-6716
若有	-6717
跑道	-6718
閣下	-6719
並把它	-6720
事的角	-6721
二氧化	-6722
人奧茲	-6723
但若有	-6724
和能力	-6725
在山上	-6726
增加而	-6727
居住在	-6728
後部隊	-6729
戰役之	-6730
挽救它	-6731
曼德爾	-6732
植物園	-6733
淚模糊	-6734
溶於水	-6735
盲目點	-6736
相格林	-6737
維持長	-6738
運動場	-6739
都已經	-6740
集了在	-6741
▁我事後	-6742
事的角逐	-6743
二氧化碳	-6744
他霸占此	-6745
值得慶賀	-6746
克林頓和	-6747
冰人奧茲	-6748
包括改良	-6749
和曼德爾	-6750
大也一樣	-6751
威爾閣下	-6752
巧和能力	-6753
後部隊還	-6754
息的地方	-6755
我們絕對	-6756
戰役之時	-6757
收集了在	-6758
產品都是	-6759
眼淚模糊	-6760
米爾德里	-6761
街上有一	-6762
身份加入	-6763
進入跑道	-6764
都居住在	-6765
量增加而	-6766
首相格林	-6767
並把它變為	-6768
之間的界限	-6769
伊冰人奧茲	-6770
克林頓和盟	-6771
原本在山上	-6772
和米爾德里	-6773
大學運動場	-6774
安息的地方	-6775
或者盲目點	-6776
技巧和能力	-6777
無法維持長	-6778
爾街上有一	-6779
用產品都是	-6780
用量增加而	-6781
的眼淚模糊	-6782
能夠挽救它	-6783
能夠溶於水	-6784
裡有植物園	-6785
解二氧化碳	-6786
這些都已經	-6787
領事的角逐	-6788
▁他形容她為	-6789
▁他獨自一人	-6790
▁他被認為能	-6791
▁但北愛爾蘭	-6792
▁但是在新生	-6793
▁你必須受得	-6794
▁俄羅斯帝國	-6795
▁共和黨經濟	-6796
▁同時第一次	-6797
▁哈雷戴維森	-6798
▁在他們之間	-6799
▁戴	-6800
付款	-6801
喬瓦	-6802
斯碼	-6803
日表	-6804
珠港	-6805
總的	-6806
費制	-6807
過度	-6808
▁在這	-6809
▁戴高	-6810
付款收	-6811
喬瓦尼	-6812
斯碼頭	-6813
珍珠港	-6814
總的銷	-6815
落地面	-6816
過度崇	-6817
▁在這條	-6818
在邁錫尼	-6819
工作日表	-6820
斯碼頭賽	-6821
柴油價格	-6822
用珍珠港	-6823
總的銷量	-6824
聖喬瓦尼	-6825
落地面後	-6826
說明了國	-6827
警告歐洲	-6828
過度崇拜	-6829
預付款收	-6830
和柴油價格	-6831
斯碼頭賽道	-6832
美總的銷量	-6833
警告歐洲說	-6834
降落地面後	-6835
▁在佛羅里達	-6836
▁在你主導的	-6837
▁在六十年代	-6838
▁在其家庭在	-6839
▁在美國公民	-6840
▁在這條信息	-6841
▁在過去的五	-6842
▁在過去的兩	-6843
▁奧巴馬嘲笑	-6844
▁奧斯曼帝國	-6845
▁她還被指控	-6846
▁它帶有一個	-6847
▁它是一個供	-6848
▁安第斯山脈	-6849
▁對羅曼諾夫	-6850
▁工業革命令	-6851
▁布洛克堅定	-6852
▁希斯帕尼亞	-6853
▁年度調查還	-6854
▁後者在監督	-6855
▁我們很失望	-6856
▁我們要評估	-6857
▁我的下一站	-6858
▁我認為這是	-6859
▁投資在溢價	-6860
▁接著建立了	-6861
▁撤退的消息	-6862
▁據帕克所說	-6863
▁放下麥克風	-6864
▁斯大林開始	-6865
▁新法蘭西尚	-6866
▁有些人懂了	-6867
▁有人曾預計	-6868
▁沒有人知道	-6869
▁沙塵暴通常	-6870
▁消費者可以	-6871
▁澳大利亞的	-6872
▁理所當然地	-6873
▁研究人員付	-6874
▁研究人員說	-6875
▁第二季目前	-6876
▁聯合國回顧	-6877
▁聯邦政府主	-6878
▁聯邦政府和	-6879
▁自二十世紀	-6880
▁至八世紀末	-6881
▁菲利普隨後	-6882
▁蘇伊士運河	-6883
▁衣服上的血	-6884
▁賴特是新生	-6885
▁追求和平的	-6886
▁這也推動了	-6887
▁這奠定了融	-6888
▁雖然直至較	-6889
▁電影記錄了	-6890
▁馬德里自治	-6891
一一位有貴族	-6892
一位歐盟官員	-6893
一個日期只能	-6894
一個研究的實	-6895
一定會懷念他	-6896
一定會有抗議	-6897
一直代表著富	-6898
一直保持著樂	-6899
▁或	-6900
丶那	-6901
乘風	-6902
兩名	-6903
到此	-6904
半學	-6905
就越	-6906
想和	-6907
或更	-6908
把玩	-6909
於圖	-6910
納什	-6911
聽到	-6912
這週	-6913
運中	-6914
陶醉	-6915
點點	-6916
▁或許	-6917
一點點	-6918
乘風破	-6919
具藝術	-6920
和廣告	-6921
地聽到	-6922
工半學	-6923
引正在	-6924
或更確	-6925
於圖案	-6926
的年度	-6927
空運中	-6928
肯尼亞	-6929
英國喜	-6930
這週早	-6931
部舉行	-6932
飛機沉	-6933
▁我想和	-6934
▁或許這	-6935
丶那兩名	-6936
人們認為	-6937
他們陶醉	-6938
具藝術性	-6939
到此結束	-6940
半工半學	-6941
和廣告來	-6942
和肯尼亞	-6943
喜歡把玩	-6944
就越經常	-6945
州的納什	-6946
或更確切	-6947
指引正在	-6948
於圖案和	-6949
林空運中	-6950
的經濟就	-6951
英國喜劇	-6952
表達遺憾	-6953
讓飛機沉	-6954
這週早些	-6955
▁它的年度	-6956
了整個西伯	-6957
便讓飛機沉	-6958
只有一點點	-6959
和廣告來盈	-6960
和肯尼亞山	-6961
她表達遺憾	-6962
我們乘風破	-6963
西州的納什	-6964
▁我喜歡把玩	-6965
▁我想和他們	-6966
▁或許這並不	-6967
一直飽受批評	-6968
一起探討軍事	-6969
三個平行的小	-6970
上一部影片是	-6971
上個月報導說	-6972
上很重要的六	-6973
上慶祝他們的	-6974
上的管理解決	-6975
下一波的抗議	-6976
下來的伊斯蘭	-6977
下用的聊天軟	-6978
下面將小球彈	-6979
下面帶有一個	-6980
不僅會傷害小	-6981
不大切合實際	-6982
不存在此特徵	-6983
不應該被忽視	-6984
不比在尼羅河	-6985
不知道為什麼	-6986
丑之於人性就	-6987
世界大戰戰末	-6988
世界廣播電台	-6989
並且在好幾個	-6990
並且被拍到在	-6991
並以此為基礎	-6992
並未透露多少	-6993
並用錘子輕輕	-6994
並連接到你的	-6995
中國將在本週	-6996
中底去除角質	-6997
中期青銅時代	-6998
中洗清了達菲	-6999
▁把	-7000
中把	-7001
他跟	-7002
住到	-7003
埃德	-7004
展開	-7005
川普	-7006
引誘	-7007
憑藉	-7008
時機	-7009
歸咎	-7010
界的	-7011
章曾	-7012
車的	-7013
輕易	-7014
途經	-7015
門票	-7016
閣的	-7017
阿明	-7018
非同	-7019
飢荒	-7020
▁埃德	-7021
▁憑藉	-7022
內閣的	-7023
向途經	-7024
好時機	-7025
展開較	-7026
憲章曾	-7027
應媒體	-7028
歸咎於	-7029
界的寵	-7030
賽車的	-7031
輕易地	-7032
非同尋	-7033
2000	-7034
▁埃德加	-7035
▁憲章曾	-7036
▁把時間	-7037
一直住到	-7038
中把責任	-7039
他跟德國	-7040
以向途經	-7041
回應媒體	-7042
對內閣的	-7043
展開較量	-7044
川普這種	-7045
引誘前往	-7046
戰術錯誤	-7047
界的寵兒	-7048
發生飢荒	-7049
的好時機	-7050
的行動時	-7051
輕易地稱	-7052
▁在第二次	-7053
▁把時間快	-7054
他跟德國電	-7055
出了非同尋	-7056
區發生飢荒	-7057
在對內閣的	-7058
引誘前往比	-7059
賽車的門票	-7060
輕易地稱之	-7061
▁Buena	-7062
▁在第二次美	-7063
▁憲章曾允許	-7064
中產階級已經	-7065
中通常會導致	-7066
丹麥語的元素	-7067
主義者接受了	-7068
乃伊冰人奧茲	-7069
之中永保鮮活	-7070
之前的疑問的	-7071
之後迴避和不	-7072
乘坐纜車穿越	-7073
也不會倒退回	-7074
也使其與很多	-7075
也利用了她與	-7076
也包括薩謨奈	-7077
也在之後和馬	-7078
也許荒誕不經	-7079
亂合法葬禮罪	-7080
了一系列故事	-7081
了一系列長遠	-7082
了使用單一貨	-7083
了使用家用筆	-7084
了八部劇情片	-7085
了十年的改革	-7086
了所有七個選	-7087
了自己的健康	-7088
了被沖上東非	-7089
事件的發生率	-7090
互相調笑和表	-7091
些所謂的真實	-7092
亞加亞聯軍的	-7093
人們認為古典	-7094
人從未接觸過	-7095
人數有所增加	-7096
人曾在四月襲	-7097
人有意在兩到	-7098
人的南亞祖先	-7099
三公	-7100
下滑	-7101
否決	-7102
和對	-7103
存儲	-7104
它才	-7105
希邦	-7106
急劇	-7107
查局	-7108
的觀	-7109
秒鐘	-7110
結構	-7111
芽生	-7112
行讓	-7113
見面	-7114
一個讓	-7115
三公佈	-7116
位於印	-7117
六秒鐘	-7118
區的選	-7119
午的觀	-7120
否決了	-7121
和對外	-7122
和烏夏	-7123
存儲在	-7124
它才浮	-7125
希邦登	-7126
投票給	-7127
敗告終	-7128
是值得	-7129
普查局	-7130
沒有涵	-7131
發芽生	-7132
的希臘	-7133
見面了	-7134
▁高海拔	-7135
一個讓她	-7136
一直急劇	-7137
上發芽生	-7138
下午的觀	-7139
中沒有涵	-7140
位於印澳	-7141
做是值得	-7142
區的選票	-7143
和烏夏克	-7144
失敗告終	-7145
它才浮出	-7146
導致全球	-7147
巧妙的口	-7148
希邦登堡	-7149
放棄收益	-7150
是一個混	-7151
會投票給	-7152
正如他和	-7153
經濟結構	-7154
貴族成員	-7155
這一行讓	-7156
Rocco	-7157
▁從這一點	-7158
一個讓她感	-7159
下午的觀賞	-7160
世紀的希臘	-7161
中沒有涵蓋	-7162
人口普查局	-7163
以失敗告終	-7164
做是值得的	-7165
可以存儲在	-7166
名貴族成員	-7167
否決了建立	-7168
和對外貿易	-7169
和烏夏克吞	-7170
在周三公佈	-7171
學校見面了	-7172
它才浮出水	-7173
居里研究所	-7174
層是一個混	-7175
巧妙的口頭	-7176
已導致全球	-7177
放棄收益會	-7178
迪希邦登堡	-7179
▁迪希邦登堡	-7180
一直急劇下滑	-7181
上發芽生長的	-7182
下午的觀賞而	-7183
人們會投票給	-7184
人還可以享用	-7185
仍舊有很大的	-7186
他一直在從事	-7187
他不想被賣掉	-7188
他們兩者似乎	-7189
他們才會被激	-7190
他加強了埃及	-7191
他同年在那裡	-7192
他宣布破產後	-7193
他採取了多種	-7194
他收到了美國	-7195
他極其不合格	-7196
他的命令不得	-7197
他的電影主題	-7198
他被給予了些	-7199
▁胡	-7200
不朽	-7201
了五	-7202
原都	-7203
奏效	-7204
特洛	-7205
現為	-7206
薩科	-7207
▁胡安	-7208
世不朽	-7209
了五座	-7210
了支持	-7211
以特洛	-7212
原都被	-7213
時繼續	-7214
薩科齊	-7215
以特洛伊	-7216
合法移民	-7217
暫時繼續	-7218
更偉大的	-7219
永世不朽	-7220
總是奏效	-7221
也不會發生	-7222
了五座傳統	-7223
原都被海洋	-7224
她暫時繼續	-7225
房地產市場	-7226
而永世不朽	-7227
薩科齊表示	-7228
並不總是奏效	-7229
代表了最保守	-7230
代表了最激進	-7231
以向途經城鎮	-7232
以天皇在位的	-7233
以特洛伊戰爭	-7234
以自由州還是	-7235
件改用第三方	-7236
任的總統尤多	-7237
任總統的要求	-7238
伊斯蘭教傳播	-7239
伯爵瑪格麗特	-7240
似乎希望元老	-7241
但他拒絕相信	-7242
但以失敗告終	-7243
但在冰島語中	-7244
但在離婚後卻	-7245
但大部分的班	-7246
但如果你知道	-7247
但希臘人沿用	-7248
但是人數很少	-7249
但是基普林的	-7250
但最新的網上	-7251
但權力的和平	-7252
但總體的鐵儲	-7253
但這一想法遭	-7254
位於太平洋的	-7255
住在帕爾馬的	-7256
佔絕大多數席	-7257
佔領古巴之後	-7258
佛商學院的學	-7259
佛羅里達州已	-7260
作整合了過往	-7261
作為主要的水	-7262
作為食物以外	-7263
你們施加哪怕	-7264
使澳大利亞人	-7265
使用了大量的	-7266
使該公司損失	-7267
來一直在穩步	-7268
來保障消費者	-7269
來自基色城的	-7270
來追踪無人機	-7271
便讓飛機沉入	-7272
俄國的所有製	-7273
保全克萊德造	-7274
保留他們的戰	-7275
信那些等我們	-7276
修道院教堂的	-7277
個小型自治城	-7278
個是購物平台	-7279
個男人告訴他	-7280
個隕石材料的	-7281
們的相似之處	-7282
做一些不同的	-7283
做的目的是在	-7284
停留了八個月	-7285
債券全部售出	-7286
元素指導方針	-7287
兄弟們並沒有	-7288
克圖特摩斯聖	-7289
克萊恩沉默寡	-7290
內高加索地區	-7291
全球性別暴力	-7292
兩個德國農民	-7293
兩次宣布破產	-7294
公國在當今的	-7295
公開回應媒體	-7296
六十年代以來	-7297
六秒鐘的藝術	-7298
共同採取根本	-7299
Kü	-7300
▁庫	-7301
一詞	-7302
中東	-7303
乾預	-7304
今晚	-7305
光束	-7306
好搖	-7307
帖子	-7308
弗裡	-7309
戶使	-7310
搖頭	-7311
村野	-7312
民意	-7313
治的	-7314
漢日	-7315
的突	-7316
背後	-7317
薄時	-7318
藹可	-7319
迪恩	-7320
開闊	-7321
霍頓	-7322
高激	-7323
鮑爾	-7324
▁帖子	-7325
▁庫恩	-7326
一詞的	-7327
丁漢日	-7328
亞音樂	-7329
今晚將	-7330
只好搖	-7331
向安迪	-7332
和乾預	-7333
和藹可	-7334
好面對	-7335
對事件	-7336
帳戶使	-7337
戰民意	-7338
投降時	-7339
政治辭	-7340
村野餐	-7341
杰弗裡	-7342
治的信	-7343
的突破	-7344
的背後	-7345
行為是	-7346
鮑爾說	-7347
Kühn	-7348
▁帖子上	-7349
丁漢日報	-7350
人的中東	-7351
使用高激	-7352
做好面對	-7353
光束進行	-7354
厭戰民意	-7355
它和藹可	-7356
對事件處	-7357
性和武器	-7358
捕行為是	-7359
提供開闊	-7360
政府希望	-7361
政治辭令	-7362
村野餐區	-7363
治的信心	-7364
由杰弗裡	-7365
的突破了	-7366
的背後也	-7367
破裂以及	-7368
eänki	-7369
organ	-7370
▁Petr	-7371
▁帖子上寫	-7372
一詞的來源	-7373
內提供開闊	-7374
動性和武器	-7375
只好搖搖頭	-7376
和乾預導致	-7377
對事件處之	-7378
帳戶使政府	-7379
幸福的追求	-7380
必須向安迪	-7381
我們今晚將	-7382
治的信心是	-7383
的破裂以及	-7384
的突破了新	-7385
的背後也總	-7386
與政治辭令	-7387
諾丁漢日報	-7388
轉而專心在	-7389
逮捕行為是	-7390
還需要對付	-7391
鄉村野餐區	-7392
重現的資源	-7393
Meänki	-7394
▁帖子上寫著	-7395
一詞的來源備	-7396
不幸的是再次	-7397
做好面對海外	-7398
光束進行處罰	-7399
人替	-7400
仍是	-7401
來以	-7402
安提	-7403
年份	-7404
年最	-7405
格德	-7406
流和	-7407
總部	-7408
著火	-7409
來以鷹	-7410
到一起	-7411
安提帕	-7412
家電影	-7413
發生瞭	-7414
一些國家	-7415
和可追溯	-7416
安提帕斯	-7417
少數人替	-7418
年份仍是	-7419
拉到一起	-7420
最後同樣	-7421
流和七月	-7422
突然著火	-7423
院發生瞭	-7424
首家電影	-7425
▁首家電影	-7426
共和黨總部	-7427
另一個助手	-7428
多次的合作	-7429
年最成功的	-7430
律安提帕斯	-7431
格德和索爾	-7432
流和七月份	-7433
第一位在暗	-7434
被拉到一起	-7435
下被拉到一起	-7436
但是最後同樣	-7437
共和國是清朝	-7438
其他更為優異	-7439
其北部區域在	-7440
其後出現在漫	-7441
兼匈牙利國王	-7442
冊中沒有涵蓋	-7443
再一次獲得了	-7444
冬季運動會將	-7445
凱拉的嬰兒是	-7446
出了一個新的	-7447
出能跨海的大	-7448
分解二氧化碳	-7449
列為國家的首	-7450
利對尼古拉斯	-7451
到了格拉斯哥	-7452
到進口葡萄酒	-7453
前往契丹遼朝	-7454
前的大台階上	-7455
創作了六部歌	-7456
力發電的條件	-7457
加低斯的圖尼	-7458
加拿大的邊界	-7459
勒牧師拜訪了	-7460
動性和武器的	-7461
勞工的工作和	-7462
募政府開支的	-7463
包括一名國務	-7464
包括土著群體	-7465
化的第一階段	-7466
北京的立法者	-7467
北卡羅來納州	-7468
北美總的銷量	-7469
半島一分為二	-7470
半島的後古典	-7471
南海與崔絲一	-7472
南美洲的想法	-7473
南邊的太平洋	-7474
博格達汗統治	-7475
卡拉皇帝提出	-7476
印度和中國等	-7477
即巴拿馬地峽	-7478
厭戰民意之下	-7479
去除空氣中的	-7480
參與了該項目	-7481
受疼痛折磨的	-7482
受邀才能進去	-7483
古希臘的集市	-7484
古老文明均因	-7485
古老歷史資料	-7486
只剩下了中央	-7487
可以在華盛頓	-7488
可疑的漏洞和	-7489
可能也適用於	-7490
可能導致債務	-7491
可行性研究估	-7492
史達林同時還	-7493
司法部部長譴	-7494
吉拉德女士說	-7495
同上船的佛羅	-7496
同時允許外國	-7497
同時它們的糞	-7498
同樣也適用於	-7499
AY	-7500
三星	-7501
克拉	-7502
化合	-7503
和清	-7504
地連	-7505
暴亂	-7506
沙爾	-7507
粘稠	-7508
紅細	-7509
葵格	-7510
處冷	-7511
躍奇	-7512
軒然	-7513
輸三	-7514
離引	-7515
風是	-7516
ZAY	-7517
三星的	-7518
克拉納	-7519
化合物	-7520
和清醒	-7521
季風是	-7522
未能在	-7523
活動這	-7524
深處冷	-7525
的話題	-7526
紅細胞	-7527
與法國	-7528
葵格和	-7529
規處罰	-7530
調離引	-7531
起軒然	-7532
躍奇緣	-7533
輸三局	-7534
這樣一	-7535
▁季風是	-7536
▁布沙爾	-7537
三星的挫	-7538
他願意達	-7539
克拉納赫	-7540
地方成為	-7541
實施他的	-7542
從未有人	-7543
武裝暴亂	-7544
深處冷卻	-7545
的調離引	-7546
碳化合物	-7547
葵格和姬	-7548
行為表示	-7549
起軒然大	-7550
較為粘稠	-7551
這樣一份	-7552
震驚地連	-7553
魚躍奇緣	-7554
三星的挫折	-7555
他們未能在	-7556
他願意達成	-7557
和清醒的頭	-7558
宗教活動這	-7559
從未有人用	-7560
氟碳化合物	-7561
的行為表示	-7562
紅細胞中的	-7563
總統的最後	-7564
而較為粘稠	-7565
與法國經濟	-7566
葵格和姬絲	-7567
變遷和復興	-7568
起軒然大波	-7569
這樣一份文	-7570
非常規處罰	-7571
▁布沙爾令人	-7572
三星的挫折中	-7573
其他地方成為	-7574
動物還能提供	-7575
同樣宣布獲勝	-7576
名人的名字最	-7577
名警方發言人	-7578
名這片土地的	-7579
向丘吉爾頒布	-7580
向自己的政治	-7581
否則會非常炎	-7582
告誡不要採用	-7583
和一個巨大的	-7584
和不來梅分別	-7585
和城鎮化擴展	-7586
和女演員葛洛	-7587
和幸福的追求	-7588
和廣告來盈利	-7589
和批發方面的	-7590
和曼德爾一起	-7591
和法國在這個	-7592
和清醒的頭腦	-7593
和福特公司於	-7594
和程序上存在	-7595
和米爾德里德	-7596
和遵守了多少	-7597
品牌首席代表	-7598
哥將會有一項	-7599
價的	-7600
入密	-7601
城戰	-7602
婭灣	-7603
小木	-7604
燒毀	-7605
皮特	-7606
議案	-7607
豫要	-7608
iki	-7609
▁小木	-7610
了重要	-7611
些歷史	-7612
加工業	-7613
匯入密	-7614
多次被	-7615
情況宛	-7616
攻城戰	-7617
比能在	-7618
油價的	-7619
清朝時	-7620
猶豫要	-7621
皮特庫	-7622
莉婭灣	-7623
都認為	-7624
Kiki	-7625
▁對議案	-7626
▁小木屋	-7627
也都認為	-7628
在清朝時	-7629
在猶豫要	-7630
奇莉婭灣	-7631
完全燒毀	-7632
必須保持	-7633
情況宛如	-7634
械加工業	-7635
沒有協議	-7636
的攻城戰	-7637
皮特庫賽	-7638
▁小木屋被	-7639
▁確定最終	-7640
▁那些歷史	-7641
也都認為那	-7642
了重要角色	-7643
你必須保持	-7644
匯入密西西	-7645
在清朝時均	-7646
工業革命比	-7647
情況宛如露	-7648
提高油價的	-7649
機械加工業	-7650
比能在飛機	-7651
沒有協議時	-7652
▁andin	-7653
▁確定最終外	-7654
也都認為那會	-7655
人士在猶豫要	-7656
來提高油價的	-7657
匯入密西西比	-7658
唱片公司正在	-7659
因此丟了工作	-7660
因為他們缺乏	-7661
因為我們在主	-7662
因為這些東西	-7663
因為這些節日	-7664
因為這兩個區	-7665
因用量增加而	-7666
國家公園建立	-7667
國家所需要的	-7668
國的要求作出	-7669
圍內造成影響	-7670
團隊在同一場	-7671
土地開墾項目	-7672
土耳其的工作	-7673
在兩千年前的	-7674
在公園東南部	-7675
在周一發布的	-7676
在地中海地區	-7677
在大火中被焚	-7678
在工作上給了	-7679
在戰後部隊還	-7680
在最近的訪談	-7681
在生命的最後	-7682
在英國特別活	-7683
在英國登上了	-7684
在英國聖公會	-7685
在講述自己的	-7686
在通知中表明	-7687
在邁錫尼文明	-7688
地在地中海的	-7689
地敲擊起落架	-7690
均被奧古斯都	-7691
坎伯蘭公爵娶	-7692
埃及法老因此	-7693
基於政績的考	-7694
報告中充分讚	-7695
報紙文章顯示	-7696
場地剩了下來	-7697
塔爾羅解釋說	-7698
塢已經疏遠了	-7699
▁特	-7700
不見	-7701
也讓	-7702
他獲	-7703
呼吸	-7704
大大	-7705
她脖	-7706
常見	-7707
彌補	-7708
抖動	-7709
撰寫	-7710
極天	-7711
正朝	-7712
約的	-7713
紅帽	-7714
線鏈	-7715
與以	-7716
跟女	-7717
項全	-7718
rey	-7719
一項全	-7720
上運輸	-7721
他獲派	-7722
但也讓	-7723
偶極天	-7724
印度群	-7725
呼吸裡	-7726
她脖子	-7727
年撰寫	-7728
從中得	-7729
條線鏈	-7730
正朝著	-7731
當時她	-7732
紅帽子	-7733
而不見	-7734
與以往	-7735
達州的	-7736
rouc	-7737
上運輸的	-7738
不斷抖動	-7739
並從中得	-7740
他獲派遣	-7741
偶極天線	-7742
印度群島	-7743
呼吸裡都	-7744
大大限制	-7745
她脖子前	-7746
常見程度	-7747
年撰寫的	-7748
約的國家	-7749
紅帽子的	-7750
華達州的	-7751
蒂文以北	-7752
蒙古的大	-7753
視而不見	-7754
跟女朋友	-7755
這一點嗎	-7756
那條線鏈	-7757
需要彌補	-7758
rouch	-7759
一項全面的	-7760
上運輸的貨	-7761
但也讓公共	-7762
內華達州的	-7763
十分受歡迎	-7764
呼吸裡都充	-7765
外蒙古的大	-7766
她脖子前伸	-7767
我們正朝著	-7768
手不斷抖動	-7769
次初選中瑞	-7770
當時她只有	-7771
痕需要彌補	-7772
的偶極天線	-7773
約的國家中	-7774
紅帽子的守	-7775
與以往有所	-7776
西印度群島	-7777
▁內華達州的	-7778
上運輸的貨物	-7779
中的那條線鏈	-7780
克斯蒂文以北	-7781
前外蒙古的大	-7782
叛亂的收益指	-7783
呼吸裡都充斥	-7784
壇留下了光輝	-7785
士李維被釋放	-7786
多數的第三方	-7787
多是出於天真	-7788
多次的合作中	-7789
大大限制了其	-7790
大的高爾夫球	-7791
大量皇家馬匹	-7792
天氣預報節目	-7793
她和她與其它	-7794
她寫的歌成功	-7795
她把兒子安德	-7796
她是反對欺凌	-7797
她的未出生的	-7798
如瑞典的托爾	-7799
不禮	-7800
以確	-7801
呼其	-7802
會顯	-7803
殊閏	-7804
的理	-7805
皇室	-7806
議程	-7807
通用	-7808
不禮貌	-7809
了敵人	-7810
以確保	-7811
大革命	-7812
政府仍	-7813
是皇室	-7814
會顯得	-7815
殊閏月	-7816
的理想	-7817
的計劃	-7818
的話則	-7819
直呼其	-7820
選擇在	-7821
1984	-7822
共同議程	-7823
利亞北部	-7824
擋的話則	-7825
特殊閏月	-7826
通用公司	-7827
三島的計劃	-7828
利亞北部地	-7829
名字會顯得	-7830
大革命之後	-7831
對方是皇室	-7832
應該選擇在	-7833
擊敗了敵人	-7834
擋的話則行	-7835
政府仍將要	-7836
王朝的理想	-7837
該地區澳洲	-7838
非常不禮貌	-7839
倫三島的計劃	-7840
入了特殊閏月	-7841
利亞北部地處	-7842
利擊敗了敵人	-7843
妻子也開始了	-7844
姍姍來遲還是	-7845
威尼斯募集的	-7846
威尼斯的人口	-7847
威爾斯市長大	-7848
威爾閣下拒絕	-7849
媒體對美國的	-7850
媽法蘭西的伊	-7851
子郵件這件事	-7852
孩子未發育的	-7853
學生還沒決定	-7854
它才浮出水面	-7855
它未來的目標	-7856
它為地區帶來	-7857
它重現了冷戰	-7858
安全局的特工	-7859
安全部內組建	-7860
室內製作動畫	-7861
家可歸而被控	-7862
密歐與茱麗葉	-7863
實施他的計劃	-7864
實現更偉大的	-7865
實際上可能會	-7866
將能與巴西狂	-7867
將能降低這些	-7868
對事件處之泰	-7869
對他們註冊的	-7870
對匈牙利施壓	-7871
對廢墟進行了	-7872
對我們耍的一	-7873
對此局面有所	-7874
對殺戮的某種	-7875
小塊釙使羅娜	-7876
就像大多數南	-7877
就像超級英雄	-7878
就是在這裡偷	-7879
就是為什麼當	-7880
就會選出歷史	-7881
就致信伊雷娜	-7882
就被視為有生	-7883
尼亞戰爭期間	-7884
尼撒及希臘的	-7885
展示了淤積物	-7886
層是一個混沌	-7887
山和肯尼亞山	-7888
岩島嶼則如聖	-7889
岩漿一般因矽	-7890
島嶼位於印澳	-7891
崔絲已返回了	-7892
州的百分之一	-7893
工業界的寵兒	-7894
工業革命都早	-7895
巧妙的口頭修	-7896
巴拿馬地峽北	-7897
巴爾幹的目標	-7898
巴西丶南非丶	-7899
Ei	-7900
▁密	-7901
▁讚	-7902
中某	-7903
但卻	-7904
區別	-7905
屬南	-7906
扭屁	-7907
持卡	-7908
時尚	-7909
淡水	-7910
的利	-7911
的威	-7912
禍首	-7913
考察	-7914
與他	-7915
舌爾	-7916
辭職	-7917
通信	-7918
齊平	-7919
Eib	-7920
▁密碼	-7921
▁我看	-7922
▁讚美	-7923
人到達	-7924
人和解	-7925
兩個尖	-7926
喜歡五	-7927
在脆弱	-7928
塞舌爾	-7929
大廈的	-7930
孩子具	-7931
實小說	-7932
對扭屁	-7933
徵意義	-7934
政府是	-7935
淡水湖	-7936
的利率	-7937
的威脅	-7938
的持卡	-7939
與他一	-7940
與考察	-7941
英屬南	-7942
魁禍首	-7943
▁我看過	-7944
▁讚美詩	-7945
中某部分	-7946
人到達了	-7947
人和解並	-7948
任何區別	-7949
但卻沒有	-7950
兩個尖塔	-7951
前英屬南	-7952
卡的持卡	-7953
員工辭職	-7954
喜歡五彩	-7955
塞舌爾和	-7956
實小說是	-7957
對扭屁股	-7958
市場齊平	-7959
所有的精	-7960
樓大廈的	-7961
湊車型漫	-7962
現在變得	-7963
當我看到	-7964
的利率也	-7965
罪魁禍首	-7966
美國公司	-7967
與他一道	-7968
般的債務	-7969
象徵意義	-7970
鴉片戰爭	-7971
▁Yerb	-7972
▁密碼方面	-7973
▁這並沒有	-7974
人和解並為	-7975
公司的顧客	-7976
喜歡五彩繽	-7977
塞舌爾和刁	-7978
孩子具有一	-7979
山般的債務	-7980
所有的精力	-7981
是罪魁禍首	-7982
比現在變得	-7983
淡水湖通常	-7984
湊車型漫步	-7985
當地政府是	-7986
紀實小說是	-7987
與考察工作	-7988
著兩個尖塔	-7989
試圖在脆弱	-7990
高樓大廈的	-7991
Eibing	-7992
▁Yerba	-7993
▁讚美詩獲得	-7994
人和解並為此	-7995
公司的顧客要	-7996
喜歡五彩繽紛	-7997
塞舌爾和刁曼	-7998
天的菩薩圖片	-7999
ML	-8000
各有	-8001
吼聲	-8002
曲線	-8003
為七	-8004
維和	-8005
諾克	-8006
MLA	-8007
▁在已	-8008
僅為七	-8009
論諾克	-8010
跟這個	-8011
這一天	-8012
他的維和	-8013
僅為七天	-8014
各有不同	-8015
吼聲是從	-8016
地區以外	-8017
學習曲線	-8018
專家調查	-8019
希望用戶	-8020
ariri	-8021
▁在已開展	-8022
北地區以外	-8023
奧斯曼人在	-8024
建立起了利	-8025
數僅為七天	-8026
翻他的維和	-8027
論諾克斯的	-8028
跟這個世界	-8029
Hariri	-8030
▁在已開展了	-8031
天數僅為七天	-8032
如山般的債務	-8033
對於堪薩斯州	-8034
巴黎協定中的	-8035
市場的新公寓	-8036
市房地產市場	-8037
布雷斯特德於	-8038
希區柯克因為	-8039
希臘一分為二	-8040
帝國的附庸國	-8041
師和紡織業工	-8042
帶領的托利黨	-8043
幫助已故之人	-8044
幫助恢復公眾	-8045
干預是必要的	-8046
平均最高溫度	-8047
年代仍在使用	-8048
年夏天大部分	-8049
年夏季奧運會	-8050
年建造並修葺	-8051
年撰寫的第一	-8052
年的專業而友	-8053
年選舉日之前	-8054
幸運兔奧斯瓦	-8055
幾乎每個島嶼	-8056
幾乎沒有借用	-8057
幾乎沒有被評	-8058
座青銅時代的	-8059
廣工作奠定了	-8060
建立一種更為	-8061
建立生者與死	-8062
建立起了利潤	-8063
建立起了商業	-8064
建設中的城市	-8065
建設看到日本	-8066
強制受洗後都	-8067
強制受洗有悖	-8068
形成連鎖反應	-8069
影子之於常人	-8070
征服了色雷斯	-8071
很可能是其中	-8072
很多未完工的	-8073
很多能使協議	-8074
很快就破滅了	-8075
很有趣的求婚	-8076
從挪威南部的	-8077
從而使得地面	-8078
從而在之後塑	-8079
御所需的技能	-8080
徵收的最高罰	-8081
性在兩個事實	-8082
性情使他無法	-8083
情況視而不見	-8084
惡薩諾斯為主	-8085
意見表示遺憾	-8086
感到失望的人	-8087
感受到了權利	-8088
成為世界冠軍	-8089
成為了迪士尼	-8090
我們絕對無法	-8091
或擁有滿意的	-8092
或更確切的說	-8093
或至少能減輕	-8094
戰爭將要來臨	-8095
戰爭爆發之前	-8096
戰爭開始的前	-8097
所接收的投票	-8098
打鬥和打人的	-8099
伽巴	-8100
利山	-8101
安托	-8102
想在	-8103
操縱	-8104
河系	-8105
流士	-8106
納亞	-8107
縱觀	-8108
職的	-8109
讓步	-8110
轉運	-8111
週後	-8112
里繆	-8113
▁縱觀	-8114
伽巴佐	-8115
佛利山	-8116
債券獎	-8117
公爵被	-8118
想在黑	-8119
操縱數	-8120
比安托	-8121
河系漫	-8122
發送語	-8123
稱職的	-8124
管理的	-8125
該課程	-8126
里繆爾	-8127
阿納亞	-8128
▁大流士	-8129
不稱職的	-8130
伽巴佐斯	-8131
佛利山莊	-8132
債券獎與	-8133
公爵被曝	-8134
地方總督	-8135
對該課程	-8136
情況相似	-8137
想在黑海	-8138
操縱數位	-8139
河系漫遊	-8140
發送語音	-8141
的兩週後	-8142
管理的商	-8143
網絡討論	-8144
蘇比安托	-8145
▁縱觀歷史	-8146
佛利山莊酒	-8147
公爵被曝與	-8148
對該課程的	-8149
獎債券獎與	-8150
發送語音指	-8151
的網絡討論	-8152
管理的商人	-8153
美伽巴佐斯	-8154
製造了一個	-8155
進一步轉運	-8156
銀河系漫遊	-8157
▁大流士十分	-8158
不稱職的中國	-8159
也製造了一個	-8160
佛利山莊酒店	-8161
俄國想在黑海	-8162
公爵被曝與人	-8163
同時操縱數位	-8164
地方總督宣布	-8165
官美伽巴佐斯	-8166
對該課程的設	-8167
把我排除在外	-8168
把日出標記在	-8169
投票的兩週後	-8170
拉博夫裸體出	-8171
拉的嬰兒的三	-8172
拉迪亞德吉湖	-8173
拉迪斯導演的	-8174
拜登的梅爾丁	-8175
指引正在著陸	-8176
掉法老王理智	-8177
接下來的選舉	-8178
接到了好幾個	-8179
接受嚴格的劍	-8180
接受采訪前戴	-8181
推動武裝暴亂	-8182
提供財務的捐	-8183
提契諾河和寶	-8184
揭示了他的成	-8185
摩托車越野賽	-8186
撒哈拉沙漠的	-8187
擬定為羅馬法	-8188
支付巨額賠償	-8189
支持這個假設	-8190
收集了在實驗	-8191
改善會主席喬	-8192
放在化學浴徹	-8193
教人們如何應	-8194
數據的幫助下	-8195
數次挑釁性的	-8196
文化發展特徵	-8197
文學碩士學位	-8198
斯巴達在伯羅	-8199
他寫	-8200
加林	-8201
吸納	-8202
國會	-8203
埋在	-8204
夫婦	-8205
川家	-8206
左岸	-8207
很棒	-8208
復一	-8209
恰郡	-8210
拜占	-8211
緊張	-8212
英尺	-8213
700	-8214
▁Se	-8215
▁埋在	-8216
主要是	-8217
他寫過	-8218
合議會	-8219
吸納了	-8220
在三個	-8221
在私人	-8222
川家康	-8223
很棒的	-8224
復一日	-8225
愛夫婦	-8226
拜占廷	-8227
泰加林	-8228
爾恰郡	-8229
而是在	-8230
處於宗	-8231
踪國會	-8232
他寫過不	-8233
以及國防	-8234
但主要是	-8235
像在三個	-8236
合議會演	-8237
圖爾恰郡	-8238
川家康的	-8239
日復一日	-8240
日期以及	-8241
深愛夫婦	-8242
緊張關係	-8243
而且這些	-8244
處於宗主	-8245
跟踪國會	-8246
不同的理解	-8247
他寫過不少	-8248
來跟踪國會	-8249
像在三個朝	-8250
合議會演講	-8251
吸納了許多	-8252
在私人公司	-8253
川家康的直	-8254
很棒的團隊	-8255
泰加林具有	-8256
處於宗主國	-8257
霾日復一日	-8258
以及國防方面	-8259
但主要是為了	-8260
在私人公司內	-8261
好像在三個朝	-8262
川家康的直系	-8263
斯托聖喬瓦尼	-8264
新上任的英國	-8265
新紀實小說是	-8266
方法在此之前	-8267
方面來衡量的	-8268
方面的投資在	-8269
於神秘傳統中	-8270
於西方的蠅頭	-8271
施普林格一直	-8272
日期以及生肖	-8273
日的官方自傳	-8274
明治天皇以前	-8275
明治天皇開始	-8276
是一個永不停	-8277
是一名漫畫家	-8278
是一對情侶了	-8279
是另一個助手	-8280
是可以合法出	-8281
是否具藝術性	-8282
是否認識作家	-8283
是因為有很多	-8284
是基於有可能	-8285
是堅不可摧的	-8286
是投資者喜愛	-8287
是撒哈拉沙漠	-8288
晨的行動中製	-8289
普通儲蓄賬戶	-8290
暗諷以及其他	-8291
更令人擔憂丶	-8292
更多的捐獻者	-8293
最好的情況下	-8294
最後還是決定	-8295
最糟糕的狀況	-8296
會快速地打開	-8297
會見了希特勒	-8298
會議員效忠於	-8299
不一	-8300
個里	-8301
吉祥	-8302
年前	-8303
愛侶	-8304
擴建	-8305
本會	-8306
格局	-8307
殿有	-8308
由靜	-8309
略了	-8310
簡短	-8311
而足	-8312
該效	-8313
謹慎	-8314
道格	-8315
隨即	-8316
個里面	-8317
國民保	-8318
在銀行	-8319
夠謹慎	-8320
布商業	-8321
後殿有	-8322
時由靜	-8323
格局從	-8324
省略了	-8325
道格拉	-8326
ulti	-8327
不一而足	-8328
不夠謹慎	-8329
也被隨即	-8330
具體計劃	-8331
分類法是	-8332
吉祥顏色	-8333
哪個里面	-8334
國民保健	-8335
在銀行死	-8336
布商業崗	-8337
年前就已	-8338
戰時由靜	-8339
擴建這一	-8340
格局從一	-8341
研究報導	-8342
Multi	-8343
▁在後殿有	-8344
具體計劃而	-8345
分類法是最	-8346
吉祥顏色是	-8347
國民保健署	-8348
在哪個里面	-8349
布商業崗哨	-8350
年前就已傳	-8351
得到了合法	-8352
戰時由靜態	-8353
擴建這一項	-8354
時不夠謹慎	-8355
本會看起來	-8356
的格局從一	-8357
研究報導稱	-8358
聯社發生了	-8359
道格拉斯的	-8360
防報警信號	-8361
電影省略了	-8362
也被隨即被解	-8363
分類法是最廣	-8364
即使非常簡短	-8365
員工在銀行死	-8366
國民保健署正	-8367
奧巴馬的特別	-8368
布商業崗哨的	-8369
年前就已傳至	-8370
得到了合法化	-8371
戰時由靜態防	-8372
月秘密訪問了	-8373
有三棵棕櫚樹	-8374
有些國家甚至	-8375
有助於他們的	-8376
有很大的需求	-8377
朋友間還是不	-8378
未被妥善利用	-8379
本主演的電影	-8380
本先生在七月	-8381
東部緊鄰色雷	-8382
查爾斯被認為	-8383
核還在調查據	-8384
根據工作日表	-8385
根相信是上帝	-8386
條窄窄的觸控	-8387
業務不斷擴展	-8388
業的諾瑪城際	-8389
樂隊成員大衛	-8390
機的應用程序	-8391
權力派的黨派	-8392
次初選中瑞啟	-8393
歐洲人發現了	-8394
殖民地拜占廷	-8395
每人平均大約	-8396
比你更有資格	-8397
比賽中打平手	-8398
民主黨的爭論	-8399
下配	-8400
也與	-8401
修補	-8402
倫薩	-8403
入愛	-8404
匹種	-8405
因素	-8406
堡壘	-8407
捕魚	-8408
揭發	-8409
歲高	-8410
監視	-8411
一匹種	-8412
也與在	-8413
了堡壘	-8414
倫薩葛	-8415
入愛河	-8416
因素是	-8417
產業和	-8418
經常被	-8419
被揭發	-8420
下配文字	-8421
來自捕魚	-8422
墜入愛河	-8423
布魯克斯	-8424
的小教堂	-8425
監視行動	-8426
項因素是	-8427
修建了堡壘	-8428
倫薩葛拉德	-8429
其中一匹種	-8430
化學產業和	-8431
向的小教堂	-8432
平均水平高	-8433
經常被標記	-8434
進行了修補	-8435
tephen	-8436
▁在七大洲的	-8437
並且墜入愛河	-8438
來自捕魚以及	-8439
倫薩葛拉德相	-8440
吉卜林也與在	-8441
地點符合瑪雅	-8442
後進行了修補	-8443
有史以來最低	-8444
橫向的小教堂	-8445
汽車突然著火	-8446
沒一個讓她感	-8447
沒明顯的分隔	-8448
沒有任何區別	-8449
沒有見過有人	-8450
沒有這些工具	-8451
沙克爾頓爵士	-8452
河流均有源頭	-8453
油和柴油價格	-8454
法國代表透露	-8455
法國在馬倫哥	-8456
注重在兩國平	-8457
流和七月份的	-8458
海上風力發電	-8459
消防報警信號	-8460
深的交通系統	-8461
準備好我們在	-8462
溫斯頓進入了	-8463
滴從周圍的空	-8464
演出的好時機	-8465
澳大利亞人蒙	-8466
澳洲網球公開	-8467
炸雞永不滿足	-8468
為中心的數個	-8469
為基礎的全球	-8470
為最有可能從	-8471
為賬戶添加免	-8472
烏爾里希仍在	-8473
無法計算實際	-8474
然後是星期幾	-8475
熟練工人提升	-8476
燃煤電站也將	-8477
營中獨自探索	-8478
爾卡鬆的歷史	-8479
爾德發現大陸	-8480
爾的早期發明	-8481
爾街上有一席	-8482
爾變得更加善	-8483
片圍繞著地球	-8484
版本中演對手	-8485
特利茨的成功	-8486
特朗普的勝利	-8487
狂熱的吉他手	-8488
獨立審查主任	-8489
王安石的淤泥	-8490
王安石的賞識	-8491
理論上您就能	-8492
甚至比在矽谷	-8493
生活了數千年	-8494
生活在公元前	-8495
產品當作提高	-8496
用來分隔兩地	-8497
用同樣的方式	-8498
用恰當的儀式	-8499
了美	-8500
仔褲	-8501
以下	-8502
名人	-8503
埃森	-8504
失去	-8505
對抗	-8506
快的	-8507
怪奇	-8508
手旁	-8509
旁袖	-8510
漬化	-8511
粉絲	-8512
脫口	-8513
藉記	-8514
被當	-8515
該案	-8516
隊伍	-8517
▁脫口	-8518
不快的	-8519
了新的	-8520
了美孚	-8521
他希望	-8522
內展示	-8523
冬季白	-8524
力對抗	-8525
娜同樣	-8526
將該案	-8527
怪奇物	-8528
手旁觀	-8529
牛仔褲	-8530
生產已	-8531
藉記卡	-8532
要失去	-8533
ente	-8534
▁她的黃	-8535
▁脫口秀	-8536
他希望能	-8537
兵力對抗	-8538
冬季白天	-8539
在一旁袖	-8540
將該案打	-8541
就要失去	-8542
很多名人	-8543
怪奇物語	-8544
更微小的	-8545
琳娜同樣	-8546
的生產已	-8547
穿牛仔褲	-8548
粉絲甚至	-8549
記者被當	-8550
隊伍包括	-8551
entes	-8552
▁在藉記卡	-8553
▁她的黃道	-8554
▁對於離開	-8555
不快的言論	-8556
了美孚公司	-8557
內展示許多	-8558
捷琳娜同樣	-8559
更微小的塵	-8560
省記者被當	-8561
統治時期的	-8562
署兵力對抗	-8563
開放了新的	-8564
一直行進到把	-8565
他們在一旁袖	-8566
他希望能到達	-8567
他情感狀態不	-8568
使用者的歷史	-8569
克省記者被當	-8570
卡捷琳娜同樣	-8571
更微小的塵埃	-8572
最後將該案打	-8573
模型的生產已	-8574
用珍珠港事件	-8575
由於他們兩人	-8576
當地薩萊諾的	-8577
當總統的最後	-8578
當賬戶餘額為	-8579
當針對克林頓	-8580
疑問多於答案	-8581
疾病傳播和水	-8582
發展的房地產	-8583
白人男性身分	-8584
百勝餐飲集團	-8585
百強上佔據第	-8586
的主要驅動力	-8587
的人均收入是	-8588
的人對扭屁股	-8589
的內容更多是	-8590
的利率也同樣	-8591
的地標建築南	-8592
的地標燈塔和	-8593
的威脅困擾著	-8594
的工業革命比	-8595
的帕爾馬早了	-8596
的微小變化會	-8597
的德國和納粹	-8598
的志願者就有	-8599
也少	-8600
夠多	-8601
把該	-8602
排十	-8603
現場	-8604
而是	-8605
轟動	-8606
鋼琴	-8607
雅茲	-8608
▁就職	-8609
之成為	-8610
也少了	-8611
台鋼琴	-8612
坎貝爾	-8613
夠多了	-8614
排十座	-8615
自己看	-8616
雅茲迪	-8617
▁Ras	-8618
▁在現場	-8619
使之成為	-8620
可以打開	-8621
四台鋼琴	-8622
地區以及	-8623
引發轟動	-8624
歌曲出版	-8625
氣象氣候	-8626
而是稱呼	-8627
自己看了	-8628
▁Rasa	-8629
▁就職之前	-8630
一個雅茲迪	-8631
上引發轟動	-8632
也少了很多	-8633
可以打開當	-8634
坎貝爾來到	-8635
已經夠多了	-8636
氣象氣候學	-8637
的兩小時後	-8638
的原因把該	-8639
而是稱呼姓	-8640
通過了嚴格	-8641
▁在現場發現	-8642
使之成為中國	-8643
可以打開當週	-8644
年通過了嚴格	-8645
歌曲出版協議	-8646
的兩小時後才	-8647
的戈梅里表示	-8648
的摩托車頭盔	-8649
的擬人機器人	-8650
的放棄收益會	-8651
的是新的一集	-8652
的正確組合的	-8653
的死亡人口最	-8654
的目標這件事	-8655
的破壞極大地	-8656
的網絡討論後	-8657
的背後也總有	-8658
的行動告訴了	-8659
的記者都穿戴	-8660
的許多人一樣	-8661
的諡號也起自	-8662
的餘額中賺取	-8663
皮洛士不得不	-8664
皮特庫賽以及	-8665
省內代理人的	-8666
看到瘋狂又古	-8667
看幾集手機就	-8668
看的比賽越多	-8669
知道戴維斯盃	-8670
碼技術提出了	-8671
示是一名臥底	-8672
祭祀遺跡由一	-8673
科羅拉多州丹	-8674
程度相對較低	-8675
種罕見的情況	-8676
稱提庇留離開	-8677
稿風格似的影	-8678
穿過邊境之後	-8679
穿過邊境進入	-8680
立於聚光燈下	-8681
符拉迪沃斯托	-8682
第一次偉大的	-8683
管不好核武器	-8684
管不好自己的	-8685
節日各有不同	-8686
節都有其含義	-8687
簡直是太仁慈	-8688
糟糕的天氣而	-8689
系列下配文字	-8690
系統中某部分	-8691
系統投入使用	-8692
系統添加到那	-8693
系統的成功研	-8694
約克公爵三世	-8695
約夫承擔責任	-8696
約的國家中撤	-8697
紅帽子的守衛	-8698
絕妙的挑戰的	-8699
動一	-8700
去世	-8701
家具	-8702
心翼	-8703
性水	-8704
率頭	-8705
玫瑰	-8706
覆蓋	-8707
避免	-8708
邁科	-8709
里訂	-8710
50;	-8711
▁這將	-8712
互動一	-8713
但目前	-8714
它覆蓋	-8715
家具木	-8716
小心翼	-8717
年去世	-8718
性水果	-8719
我都遇	-8720
的玫瑰	-8721
第一批	-8722
里訂立	-8723
▁在其中	-8724
互動一事	-8725
它標誌了	-8726
家具木工	-8727
小心翼翼	-8728
序進行了	-8729
性水果酒	-8730
性的言論	-8731
我都遇上	-8732
放在辦公	-8733
英國大使	-8734
避免茉莉	-8735
邁科內爾	-8736
里訂立了	-8737
▁這將增加	-8738
但即使是酸	-8739
但它標誌了	-8740
動性的言論	-8741
勝利的玫瑰	-8742
品放在辦公	-8743
家具木工和	-8744
小心翼翼的	-8745
序進行了熱	-8746
我都遇上麻	-8747
消息中寫道	-8748
烈性水果酒	-8749
第一批希臘	-8750
英國大使館	-8751
▁這將增加新	-8752
一對情侶可以	-8753
互動一事提出	-8754
但即使是酸雨	-8755
但它標誌了邁	-8756
但目前他們的	-8757
候選人資格無	-8758
則消息中寫道	-8759
品放在辦公桌	-8760
家具木工和木	-8761
對派系變的更	-8762
我都遇上麻煩	-8763
時間都居住在	-8764
決定退黨之後	-8765
煽動性的言論	-8766
經常一個人呆	-8767
經常被標記為	-8768
經過一些奇蹟	-8769
總統的袁世凱	-8770
罰參與不道德	-8771
羅大眾的注意	-8772
羅馬出於管理	-8773
美國科幻電影	-8774
美洲土著群體	-8775
美西斯在後勤	-8776
義扭轉了對抗	-8777
習慣法建立了	-8778
者們安全得多	-8779
者和公眾的反	-8780
者已經在維多	-8781
而十個中有九	-8782
而我寧願別人	-8783
而有力的呼籲	-8784
而當增長率比	-8785
而黨派領導人	-8786
聯繫和可追溯	-8787
聯邦贊助醜聞	-8788
聯邦開支也會	-8789
聲波檢測變得	-8790
能使植物健康	-8791
能力將會受限	-8792
能合理地假設	-8793
能夠陶冶情操	-8794
自凱爾特海和	-8795
自己高爾夫打	-8796
與之平行的博	-8797
與他一道推進	-8798
與天主教聯盟	-8799
一心	-8800
刺激	-8801
合爾	-8802
峰後	-8803
情願	-8804
擔負	-8805
枝主	-8806
業巔	-8807
的徑	-8808
祭品	-8809
花花	-8810
的	-8811
,	-8812
▁	-8813
。	-8814
在	-8815
了	-8816
一	-8817
是	-8818
他	-8819
人	-8820
1	-8821
有	-8822
年	-8823
0	-8824
和	-8825
為	-8826
國	-8827
這	-8828
中	-8829
個	-8830
大	-8831
們	-8832
不	-8833
斯	-8834
地	-8835
於	-8836
a	-8837
來	-8838
e	-8839
時	-8840
會	-8841
以	-8842
2	-8843
r	-8844
(	-8845
)	-8846
後	-8847
n	-8848
能	-8849
爾	-8850
i	-8851
上	-8852
到	-8853
之	-8854
發	-8855
9	-8856
多	-8857
對	-8858
作	-8859
·	-8860
其	-8861
被	-8862
但	-8863
可	-8864
我	-8865
o	-8866
成	-8867
法	-8868
生	-8869
出	-8870
用	-8871
部	-8872
公	-8873
最	-8874
特	-8875
要	-8876
自	-8877
前	-8878
、	-8879
利	-8880
行	-8881
月	-8882
3	-8883
家	-8884
說	-8885
t	-8886
”	-8887
分	-8888
區	-8889
世	-8890
拉	-8891
“	-8892
過	-8893
並	-8894
而	-8895
方	-8896
經	-8897
西	-8898
克	-8899
得	-8900
5	-8901
同	-8902
工	-8903
也	-8904
亞	-8905
現	-8906
當	-8907
美	-8908
因	-8909
她	-8910
學	-8911
就	-8912
所	-8913
開	-8914
l	-8915
海	-8916
德	-8917
代	-8918
加	-8919
很	-8920
s	-8921
及	-8922
如	-8923
間	-8924
下	-8925
戰	-8926
些	-8927
次	-8928
那	-8929
8	-8930
事	-8931
位	-8932
羅	-8933
內	-8934
從	-8935
政	-8936
與	-8937
進	-8938
都	-8939
主	-8940
民	-8941
統	-8942
6	-8943
它	-8944
者	-8945
著	-8946
天	-8947
已	-8948
影	-8949
新	-8950
期	-8951
表	-8952
該	-8953
尼	-8954
日	-8955
面	-8956
馬	-8957
第	-8958
還	-8959
兩	-8960
電	-8961
7	-8962
動	-8963
機	-8964
立	-8965
里	-8966
關	-8967
高	-8968
4	-8969
《	-8970
》	-8971
子	-8972
道	-8973
布	-8974
建	-8975
格	-8976
比	-8977
由	-8978
安	-8979
數	-8980
本	-8981
此	-8982
理	-8983
約	-8984
元	-8985
力	-8986
場	-8987
定	-8988
市	-8989
希	-8990
至	-8991
將	-8992
接	-8993
使	-8994
全	-8995
英	-8996
起	-8997
選	-8998
十	-8999
通	-9000
達	-9001
長	-9002
受	-9003
巴	-9004
常	-9005
平	-9006
明	-9007
種	-9008
南	-9009
據	-9010
議	-9011
軍	-9012
c	-9013
任	-9014
名	-9015
投	-9016
樣	-9017
演	-9018
意	-9019
教	-9020
業	-9021
洲	-9022
變	-9023
資	-9024
C	-9025
d	-9026
h	-9027
u	-9028
奧	-9029
導	-9030
然	-9031
總	-9032
保	-9033
卡	-9034
合	-9035
提	-9036
歐	-9037
沒	-9038
紀	-9039
蘭	-9040
三	-9041
司	-9042
治	-9043
直	-9044
信	-9045
北	-9046
員	-9047
外	-9048
小	-9049
少	-9050
普	-9051
更	-9052
產	-9053
相	-9054
阿	-9055
度	-9056
手	-9057
水	-9058
示	-9059
系	-9060
裡	-9061
解	-9062
重	-9063
入	-9064
城	-9065
展	-9066
文	-9067
目	-9068
認	-9069
隊	-9070
件	-9071
好	-9072
實	-9073
性	-9074
界	-9075
非	-9076
去	-9077
史	-9078
回	-9079
女	-9080
B	-9081
M	-9082
m	-9083
化	-9084
始	-9085
把	-9086
無	-9087
爭	-9088
物	-9089
術	-9090
共	-9091
向	-9092
告	-9093
報	-9094
島	-9095
正	-9096
看	-9097
稱	-9098
處	-9099
量	-9100
基	-9101
府	-9102
情	-9103
果	-9104
根	-9105
歷	-9106
河	-9107
科	-9108
讓	-9109
A	-9110
S	-9111
山	-9112
己	-9113
幾	-9114
心	-9115
片	-9116
獲	-9117
計	-9118
許	-9119
論	-9120
賽	-9121
頓	-9122
—	-9123
助	-9124
只	-9125
士	-9126
想	-9127
持	-9128
未	-9129
標	-9130
氣	-9131
活	-9132
聯	-9133
近	-9134
體	-9135
二	-9136
令	-9137
制	-9138
劇	-9139
放	-9140
權	-9141
決	-9142
程	-9143
言	-9144
金	-9145
顯	-9146
黨	-9147
;	-9148
y	-9149
別	-9150
品	-9151
應	-9152
查	-9153
致	-9154
運	-9155
需	-9156
領	-9157
g	-9158
且	-9159
夫	-9160
或	-9161
指	-9162
樂	-9163
每	-9164
維	-9165
薩	-9166
費	-9167
隨	-9168
響	-9169
項	-9170
首	-9171
:	-9172
R	-9173
低	-9174
候	-9175
包	-9176
協	-9177
圖	-9178
土	-9179
括	-9180
源	-9181
皇	-9182
管	-9183
給	-9184
見	-9185
調	-9186
越	-9187
雷	-9188
麼	-9189
.	-9190
N	-9191
原	-9192
古	-9193
命	-9194
四	-9195
增	-9196
東	-9197
林	-9198
求	-9199
球	-9200
納	-9201
製	-9202
語	-9203
院	-9204
離	-9205
點	-9206
%	-9207
供	-9208
倫	-9209
口	-9210
問	-9211
帶	-9212
息	-9213
擔	-9214
收	-9215
望	-9216
條	-9217
極	-9218
票	-9219
超	-9220
預	-9221
-	-9222
D	-9223
伊	-9224
伯	-9225
傳	-9226
像	-9227
兒	-9228
六	-9229
具	-9230
功	-9231
域	-9232
夠	-9233
太	-9234
字	-9235
州	-9236
形	-9237
獨	-9238
班	-9239
眾	-9240
研	-9241
破	-9242
確	-9243
舉	-9244
設	-9245
諾	-9246
警	-9247
造	-9248
際	-9249
勒	-9250
參	-9251
取	-9252
型	-9253
塞	-9254
宣	-9255
控	-9256
易	-9257
牙	-9258
究	-9259
續	-9260
義	-9261
萬	-9262
視	-9263
記	-9264
車	-9265
迪	-9266
邊	-9267
頭	-9268
題	-9269
G	-9270
乎	-9271
務	-9272
印	-9273
另	-9274
均	-9275
寫	-9276
局	-9277
托	-9278
技	-9279
朝	-9280
死	-9281
溫	-9282
空	-9283
節	-9284
組	-9285
結	-9286
色	-9287
角	-9288
除	-9289
音	-9290
k	-9291
v	-9292
五	-9293
似	-9294
你	-9295
例	-9296
威	-9297
季	-9298
完	-9299
客	-9300
引	-9301
打	-9302
拿	-9303
支	-9304
族	-9305
曼	-9306
曾	-9307
濟	-9308
知	-9309
社	-9310
蒂	-9311
證	-9312
護	-9313
週	-9314
P	-9315
b	-9316
住	-9317
做	-9318
僅	-9319
先	-9320
再	-9321
則	-9322
友	-9323
反	-9324
埃	-9325
塔	-9326
密	-9327
強	-9328
必	-9329
戶	-9330
摩	-9331
擊	-9332
改	-9333
早	-9334
曲	-9335
服	-9336
朗	-9337
歌	-9338
殺	-9339
流	-9340
王	-9341
瑪	-9342
聖	-9343
萊	-9344
話	-9345
責	-9346
邦	-9347
集	-9348
?	-9349
E	-9350
p	-9351
何	-9352
備	-9353
吉	-9354
哥	-9355
境	-9356
存	-9357
往	-9358
愛	-9359
感	-9360
才	-9361
況	-9362
洛	-9363
派	-9364
澳	-9365
率	-9366
盟	-9367
臘	-9368
華	-9369
觀	-9370
評	-9371
路	-9372
轉	-9373
遠	-9374
降	-9375
風	-9376
麥	-9377
T	-9378
丁	-9379
交	-9380
什	-9381
份	-9382
佔	-9383
價	-9384
典	-9385
列	-9386
創	-9387
勢	-9388
單	-9389
堡	-9390
娜	-9391
孩	-9392
官	-9393
帝	-9394
廣	-9395
推	-9396
故	-9397
效	-9398
波	-9399
消	-9400
深	-9401
滿	-9402
激	-9403
石	-9404
老	-9405
藝	-9406
難	-9407
飛	-9408
f	-9409
七	-9410
丹	-9411
仍	-9412
俄	-9413
修	-9414
劃	-9415
博	-9416
台	-9417
各	-9418
否	-9419
商	-9420
失	-9421
奇	-9422
居	-9423
屬	-9424
席	-9425
承	-9426
斷	-9427
止	-9428
清	-9429
火	-9430
爵	-9431
白	-9432
突	-9433
米	-9434
終	-9435
絕	-9436
網	-9437
貝	-9438
遊	-9439
限	-9440
革	-9441
F	-9442
K	-9443
億	-9444
優	-9445
凱	-9446
升	-9447
即	-9448
姆	-9449
專	-9450
座	-9451
式	-9452
張	-9453
態	-9454
戲	-9455
找	-9456
擁	-9457
施	-9458
案	-9459
步	-9460
沙	-9461
測	-9462
準	-9463
版	-9464
獎	-9465
瑞	-9466
環	-9467
瓦	-9468
百	-9469
移	-9470
穿	-9471
等	-9472
繼	-9473
缺	-9474
習	-9475
船	-9476
訴	-9477
負	-9478
身	-9479
較	-9480
適	-9481
釋	-9482
防	-9483
雅	-9484
須	-9485
類	-9486
鬥	-9487
J	-9488
L	-9489
z	-9490
充	-9491
初	-9492
呼	-9493
哈	-9494
夏	-9495
害	-9496
容	-9497
察	-9498
帕	-9499
幫	-9500
律	-9501
挑	-9502
整	-9503
暴	-9504
書	-9505
歡	-9506
歲	-9507
殖	-9508
減	-9509
港	-9510
男	-9511
略	-9512
疑	-9513
省	-9514
站	-9515
緊	-9516
群	-9517
育	-9518
舊	-9519
花	-9520
試	-9521
象	-9522
輕	-9523
農	-9524
追	-9525
銀	-9526
陸	-9527
露	-9528
願	-9529
魚	-9530
依	-9531
係	-9532
值	-9533
停	-9534
兵	-9535
勝	-9536
周	-9537
喜	-9538
圍	-9539
底	-9540
庭	-9541
康	-9542
弗	-9543
快	-9544
恩	-9545
房	-9546
抗	-9547
排	-9548
撒	-9549
料	-9550
校	-9551
梅	-9552
毀	-9553
母	-9554
注	-9555
甚	-9556
登	-9557
益	-9558
督	-9559
礦	-9560
精	-9561
素	-9562
線	-9563
織	-9564
聲	-9565
職	-9566
菲	-9567
蒙	-9568
蘇	-9569
訪	-9570
足	-9571
遺	-9572
鎮	-9573
鐵	-9574
附	-9575
額	-9576
香	-9577
"	-9578
H	-9579
W	-9580
京	-9581
今	-9582
債	-9583
冬	-9584
半	-9585
卻	-9586
又	-9587
含	-9588
吸	-9589
喬	-9590
嚴	-9591
園	-9592
塊	-9593
妻	-9594
婚	-9595
宗	-9596
室	-9597
層	-9598
岸	-9599
弟	-9600
復	-9601
徵	-9602
戴	-9603
敦	-9604
朋	-9605
木	-9606
植	-9607
構	-9608
模	-9609
款	-9610
汽	-9611
洋	-9612
熱	-9613
留	-9614
真	-9615
積	-9616
簽	-9617
索	-9618
興	-9619
艾	-9620
茨	-9621
落	-9622
號	-9623
衝	-9624
補	-9625
規	-9626
親	-9627
討	-9628
識	-9629
質	-9630
跟	-9631
述	-9632
退	-9633
遜	-9634
邁	-9635
酒	-9636
醫	-9637
食	-9638
餘	-9639
麗	-9640
I	-9641
Z	-9642
á	-9643
互	-9644
付	-9645
便	-9646
傷	-9647
券	-9648
唱	-9649
團	-9650
堂	-9651
墨	-9652
契	-9653
尋	-9654
巨	-9655
征	-9656
思	-9657
批	-9658
採	-9659
揮	-9660
撤	-9661
攻	-9662
束	-9663
某	-9664
棄	-9665
森	-9666
歸	-9667
泰	-9668
滅	-9669
礎	-9670
神	-9671
福	-9672
競	-9673
級	-9674
績	-9675
置	-9676
考	-9677
聞	-9678
肯	-9679
脈	-9680
航	-9681
衛	-9682
覺	-9683
訂	-9684
賬	-9685
赫	-9686
走	-9687
輯	-9688
辦	-9689
迫	-9690
逐	-9691
野	-9692
錄	-9693
靈	-9694
驗	-9695
魯	-9696
黎	-9697
£	-9698
久	-9699
乾	-9700
亂	-9701
予	-9702
亡	-9703
佛	-9704
健	-9705
傑	-9706
兄	-9707
刻	-9708
千	-9709
危	-9710
善	-9711
坐	-9712
壓	-9713
壞	-9714
守	-9715
審	-9716
嶼	-9717
師	-9718
幅	-9719
念	-9720
恐	-9721
惡	-9722
慶	-9723
扮	-9724
拒	-9725
描	-9726
擇	-9727
敗	-9728
敵	-9729
旅	-9730
星	-9731
智	-9732
析	-9733
概	-9734
油	-9735
烈	-9736
照	-9737
猶	-9738
畫	-9739
瘤	-9740
療	-9741
監	-9742
私	-9743
童	-9744
築	-9745
細	-9746
絲	-9747
練	-9748
耳	-9749
般	-9750
芬	-9751
莉	-9752
莎	-9753
莫	-9754
藉	-9755
訓	-9756
谷	-9757
財	-9758
貿	-9759
賴	-9760
贏	-9761
返	-9762
途	-9763
釙	-9764
鎊	-9765
門	-9766
隆	-9767
雨	-9768
靠	-9769
驚	-9770
黃	-9771
默	-9772
O	-9773
V	-9774
w	-9775
丶	-9776
乘	-9777
九	-9778
休	-9779
估	-9780
佈	-9781
佳	-9782
侵	-9783
假	-9784
光	-9785
冊	-9786
冠	-9787
冰	-9788
剛	-9789
匹	-9790
占	-9791
叛	-9792
哪	-9793
唐	-9794
嗎	-9795
器	-9796
執	-9797
壇	-9798
奈	-9799
媒	-9800
尤	-9801
峽	-9802
差	-9803
幸	-9804
庫	-9805
廢	-9806
役	-9807
待	-9808
徒	-9809
微	-9810
抱	-9811
抵	-9812
拍	-9813
授	-9814
探	-9815
揭	-9816
擴	-9817
春	-9818
晚	-9819
景	-9820
板	-9821
染	-9822
檢	-9823
武	-9824
沃	-9825
湖	-9826
漠	-9827
漢	-9828
漫	-9829
漲	-9830
漸	-9831
狂	-9832
瑟	-9833
病	-9834
皮	-9835
盛	-9836
眼	-9837
碑	-9838
碳	-9839
穩	-9840
章	-9841
笑	-9842
算	-9843
簡	-9844
紅	-9845
緩	-9846
罪	-9847
罰	-9848
署	-9849
耶	-9850
腫	-9851
臨	-9852
葉	-9853
血	-9854
街	-9855
裂	-9856
裔	-9857
裝	-9858
誰	-9859
講	-9860
趣	-9861
跡	-9862
連	-9863
遭	-9864
避	-9865
郵	-9866
錢	-9867
雖	-9868
霍	-9869
順	-9870
龍	-9871
Y	-9872
ü	-9873
乏	-9874
亨	-9875
企	-9876
佐	-9877
佩	-9878
偶	-9879
儘	-9880
儲	-9881
允	-9882
八	-9883
冷	-9884
切	-9885
勞	-9886
勵	-9887
午	-9888
卑	-9889
味	-9890
售	-9891
喀	-9892
困	-9893
坦	-9894
培	-9895
堅	-9896
夢	-9897
妥	-9898
委	-9899
寶	-9900
封	-9901
岡	-9902
岩	-9903
巧	-9904
幻	-9905
志	-9906
怎	-9907
您	-9908
戈	-9909
截	-9910
拔	-9911
拜	-9912
捕	-9913
搬	-9914
播	-9915
暗	-9916
曆	-9917
替	-9918
末	-9919
柯	-9920
棒	-9921
棲	-9922
榮	-9923
段	-9924
永	-9925
污	-9926
沈	-9927
沉	-9928
沿	-9929
溯	-9930
炸	-9931
烏	-9932
煩	-9933
燈	-9934
爆	-9935
牌	-9936
牢	-9937
犯	-9938
狀	-9939
畢	-9940
異	-9941
短	-9942
祖	-9943
禁	-9944
秘	-9945
穀	-9946
符	-9947
答	-9948
糊	-9949
綠	-9950
緣	-9951
繫	-9952
翰	-9953
翼	-9954
肺	-9955
脫	-9956
良	-9957
茲	-9958
荷	-9959
葛	-9960
葬	-9961
蓋	-9962
裁	-9963
觸	-9964
詞	-9965
課	-9966
談	-9967
請	-9968
諸	-9969
讀	-9970
賓	-9971
賞	-9972
購	-9973
踪	-9974
輸	-9975
速	-9976
遇	-9977
遷	-9978
配	-9979
針	-9980
銅	-9981
銷	-9982
錯	-9983
鍵	-9984
鐘	-9985
阻	-9986
障	-9987
青	-9988
顏	-9989
飲	-9990
髮	-9991
鮮	-9992
鴉	-9993
$	-9994
乃	-9995
享	-9996
仰	-9997
伐	-9998
侶	-9999
免	-10000
刺	-10001
削	-10002
割	-10003
努	-10004
勳	-10005
匈	-10006
吞	-10007
嘉	-10008
坎	-10009
埋	-10010
堪	-10011
塑	-10012
塵	-10013
壤	-10014
央	-10015
妙	-10016
妹	-10017
婦	-10018
媽	-10019
嫌	-10020
嬰	-10021
孕	-10022
宜	-10023
富	-10024
峰	-10025
巫	-10026
幣	-10027
干	-10028
幹	-10029
序	-10030
廈	-10031
延	-10032
弱	-10033
彈	-10034
彩	-10035
徑	-10036
徹	-10037
怖	-10038
怪	-10039
恰	-10040
憂	-10041
扎	-10042
捷	-10043
掉	-10044
掌	-10045
措	-10046
揚	-10047
損	-10048
摧	-10049
擬	-10050
擾	-10051
旁	-10052
旱	-10053
昂	-10054
暫	-10055
朱	-10056
李	-10057
材	-10058
柴	-10059
核	-10060
桑	-10061
棕	-10062
楚	-10063
樓	-10064
樹	-10065
欺	-10066
殊	-10067
汗	-10068
池	-10069
洗	-10070
浮	-10071
涯	-10072
混	-10073
湯	-10074
灣	-10075
災	-10076
父	-10077
牛	-10078
牧	-10079
獻	-10080
瘋	-10081
皈	-10082
碼	-10083
礁	-10084
祭	-10085
禮	-10086
秀	-10087
稅	-10088
稿	-10089
竟	-10090
策	-10091
範	-10092
粒	-10093
糕	-10094
糟	-10095
紙	-10096
絡	-10097
編	-10098
罕	-10099
聽	-10100
股	-10101
肥	-10102
背	-10103
腦	-10104
茉	-10105
草	-10106
荒	-10107
蓄	-10108
藥	-10109
蛋	-10110
複	-10111
覽	-10112
訥	-10113
詩	-10114
詹	-10115
誤	-10116
誼	-10117
讚	-10118
豬	-10119
貌	-10120
貨	-10121
貴	-10122
買	-10123
貸	-10124
賣	-10125
贊	-10126
趨	-10127
輪	-10128
轟	-10129
辭	-10130
迷	-10131
送	-10132
遍	-10133
郡	-10134
鄰	-10135
銜	-10136
錦	-10137
鏈	-10138
鏡	-10139
閒	-10140
陽	-10141
階	-10142
隔	-10143
險	-10144
隻	-10145
雲	-10146
震	-10147
頻	-10148
顆	-10149
顧	-10150
養	-10151
館	-10152
騎	-10153
鬆	-10154
鬧	-10155
鮑	-10156
麻	-10157
黑	-10158
鼓	-10159
龐	-10160
/	-10161
j	-10162
ä	-10163
丘	-10164
丟	-10165
串	-10166
么	-10167
亦	-10168
亮	-10169
促	-10170
借	-10171
偉	-10172
偏	-10173
傻	-10174
傾	-10175
償	-10176
兼	-10177
凳	-10178
刑	-10179
判	-10180
剩	-10181
副	-10182
劍	-10183
募	-10184
匯	-10185
卜	-10186
厭	-10187
叫	-10188
右	-10189
君	-10190
吹	-10191
哭	-10192
喪	-10193
嘗	-10194
噁	-10195
固	-10196
墓	-10197
墜	-10198
墟	-10199
夜	-10200
奏	-10201
奠	-10202
奢	-10203
奪	-10204
姍	-10205
娛	-10206
婷	-10207
嫁	-10208
寒	-10209
寓	-10210
寡	-10211
寧	-10212
射	-10213
尚	-10214
尾	-10215
屆	-10216
崔	-10217
崗	-10218
崙	-10219
嶄	-10220
川	-10221
左	-10222
帆	-10223
帖	-10224
床	-10225
廉	-10226
廠	-10227
廳	-10228
廷	-10229
彼	-10230
忘	-10231
忙	-10232
忠	-10233
忽	-10234
怒	-10235
怕	-10236
急	-10237
惑	-10238
愚	-10239
慢	-10240
慣	-10241
慮	-10242
憾	-10243
懷	-10244
扭	-10245
折	-10246
按	-10247
挪	-10248
捐	-10249
搖	-10250
撰	-10251
擋	-10252
操	-10253
擺	-10254
救	-10255
敲	-10256
暖	-10257
村	-10258
杯	-10259
枝	-10260
架	-10261
柏	-10262
榜	-10263
橋	-10264
橫	-10265
櫚	-10266
歧	-10267
殿	-10268
毛	-10269
氧	-10270
沖	-10271
泣	-10272
泥	-10273
涉	-10274
液	-10275
涵	-10276
淡	-10277
淤	-10278
添	-10279
滴	-10280
潛	-10281
煙	-10282
煤	-10283
營	-10284
牆	-10285
猜	-10286
獸	-10287
玩	-10288
珠	-10289
琳	-10290
琴	-10291
瑙	-10292
疏	-10293
疼	-10294
痛	-10295
盔	-10296
盧	-10297
矽	-10298
砲	-10299
硬	-10300
碰	-10301
礙	-10302
祈	-10303
祝	-10304
禱	-10305
秋	-10306
穆	-10307
窄	-10308
箭	-10309
篇	-10310
粉	-10311
紐	-10312
紛	-10313
紡	-10314
縱	-10315
繁	-10316
繞	-10317
翻	-10318
聊	-10319
聘	-10320
肖	-10321
胡	-10322
脆	-10323
腓	-10324
臉	-10325
舞	-10326
舟	-10327
艦	-10328
芳	-10329
茵	-10330
萄	-10331
葡	-10332
蕉	-10333
虔	-10334
蜂	-10335
融	-10336
蠢	-10337
衡	-10338
衣	-10339
衰	-10340
裸	-10341
覆	-10342
訊	-10343
託	-10344
訝	-10345
註	-10346
詐	-10347
詢	-10348
詳	-10349
誌	-10350
誓	-10351
誠	-10352
誡	-10353
諷	-10354
謀	-10355
謂	-10356
謙	-10357
譽	-10358
賀	-10359
賠	-10360
賺	-10361
赤	-10362
赦	-10363
跑	-10364
蹟	-10365
躍	-10366
軟	-10367
輔	-10368
迎	-10369
迦	-10370
迴	-10371
逃	-10372
透	-10373
逛	-10374
逝	-10375
遼	-10376
鄉	-10377
酸	-10378
醜	-10379
鋼	-10380
錫	-10381
鑑	-10382
閉	-10383
閣	-10384
闊	-10385
陶	-10386
陷	-10387
雀	-10388
雪	-10389
霧	-10390
霸	-10391
鞋	-10392
韓	-10393
飽	-10394
餐	-10395
駁	-10396
駛	-10397
驅	-10398
魁	-10399
鱈	-10400
鷹	-10401
麽	-10402
齊	-10403
'	-10404
Q	-10405
U	-10406
Á	-10407
É	-10408
Ö	-10409
î	-10410
ñ	-10411
ó	-10412
α	-10413
‘	-10414
’	-10415
•	-10416
丈	-10417
丑	-10418
丸	-10419
乞	-10420
云	-10421
亥	-10422
仁	-10423
仔	-10424
仙	-10425
伍	-10426
伏	-10427
伸	-10428
伽	-10429
併	-10430
侄	-10431
侈	-10432
俗	-10433
俯	-10434
俱	-10435
倉	-10436
倍	-10437
倒	-10438
倖	-10439
偷	-10440
傲	-10441
僱	-10442
儀	-10443
兇	-10444
兔	-10445
冕	-10446
冶	-10447
准	-10448
凌	-10449
凍	-10450
凜	-10451
凡	-10452
刁	-10453
刊	-10454
刷	-10455
剔	-10456
劣	-10457
勃	-10458
勉	-10459
勤	-10460
勿	-10461
匆	-10462
匠	-10463
卸	-10464
厩	-10465
厲	-10466
叢	-10467
召	-10468
吧	-10469
吼	-10470
呂	-10471
呆	-10472
呢	-10473
咎	-10474
哨	-10475
唯	-10476
啟	-10477
啤	-10478
嗆	-10479
嘲	-10480
嘿	-10481
噪	-10482
噬	-10483
噴	-10484
噸	-10485
圓	-10486
圳	-10487
圾	-10488
址	-10489
垃	-10490
堆	-10491
堵	-10492
塚	-10493
塢	-10494
墊	-10495
墮	-10496
墳	-10497
墾	-10498
壘	-10499
壯	-10500
奉	-10501
奎	-10502
奔	-10503
套	-10504
奴	-10505
妮	-10506
姓	-10507
姦	-10508
姨	-10509
姬	-10510
娶	-10511
婭	-10512
孚	-10513
孤	-10514
宇	-10515
宙	-10516
宛	-10517
寂	-10518
寞	-10519
寬	-10520
寵	-10521
寸	-10522
尊	-10523
尖	-10524
尬	-10525
尷	-10526
尺	-10527
屁	-10528
屋	-10529
屍	-10530
屏	-10531
峙	-10532
崇	-10533
嵌	-10534
巔	-10535
巡	-10536
巾	-10537
帳	-10538
帽	-10539
幢	-10540
庇	-10541
店	-10542
庸	-10543
廊	-10544
彌	-10545
徐	-10546
徙	-10547
御	-10548
怠	-10549
怨	-10550
恢	-10551
恭	-10552
悔	-10553
悖	-10554
患	-10555
悶	-10556
惠	-10557
惱	-10558
愍	-10559
慈	-10560
慌	-10561
慎	-10562
慰	-10563
慾	-10564
憑	-10565
憤	-10566
憲	-10567
憶	-10568
懂	-10569
懣	-10570
懲	-10571
懸	-10572
懼	-10573
懾	-10574
戚	-10575
戮	-10576
扣	-10577
抓	-10578
抖	-10579
抹	-10580
拂	-10581
拆	-10582
招	-10583
拯	-10584
拱	-10585
拼	-10586
挫	-10587
挺	-10588
挽	-10589
掀	-10590
掃	-10591
掘	-10592
掙	-10593
掛	-10594
換	-10595
握	-10596
搏	-10597
撈	-10598
撞	-10599
擯	-10600
攔	-10601
攝	-10602
敖	-10603
散	-10604
敬	-10605
斗	-10606
斜	-10607
斥	-10608
旦	-10609
映	-10610
昨	-10611
昭	-10612
晉	-10613
晨	-10614
晰	-10615
曉	-10616
曝	-10617
朵	-10618
朽	-10619
杉	-10620
杭	-10621
杰	-10622
枯	-10623
柔	-10624
柳	-10625
柵	-10626
框	-10627
桌	-10628
梯	-10629
械	-10630
梵	-10631
棉	-10632
棍	-10633
棵	-10634
榔	-10635
槌	-10636
槍	-10637
樑	-10638
樞	-10639
橄	-10640
檯	-10641
檳	-10642
櫃	-10643
欄	-10644
欖	-10645
欠	-10646
欣	-10647
欽	-10648
歇	-10649
殲	-10650
殼	-10651
毅	-10652
毒	-10653
毫	-10654
氟	-10655
氫	-10656
氾	-10657
汀	-10658
汴	-10659
沌	-10660
沮	-10661
泉	-10662
洞	-10663
津	-10664
洪	-10665
洶	-10666
浪	-10667
浴	-10668
涸	-10669
淚	-10670
淪	-10671
淺	-10672
渴	-10673
湊	-10674
湧	-10675
溉	-10676
溢	-10677
溶	-10678
滋	-10679
滑	-10680
滯	-10681
漂	-10682
漏	-10683
漬	-10684
漿	-10685
潘	-10686
潤	-10687
潮	-10688
濕	-10689
濫	-10690
濱	-10691
灌	-10692
灰	-10693
炎	-10694
焚	-10695
煽	-10696
熟	-10697
熬	-10698
燃	-10699
燒	-10700
燙	-10701
燥	-10702
爛	-10703
牠	-10704
牽	-10705
猴	-10706
獵	-10707
玫	-10708
珍	-10709
瑰	-10710
璧	-10711
瓶	-10712
田	-10713
甲	-10714
申	-10715
畸	-10716
疇	-10717
疫	-10718
疾	-10719
症	-10720
痕	-10721
痴	-10722
瘓	-10723
癌	-10724
癱	-10725
盃	-10726
盈	-10727
盜	-10728
盤	-10729
盪	-10730
盲	-10731
盾	-10732
睛	-10733
睡	-10734
瞭	-10735
瞰	-10736
矛	-10737
硫	-10738
碎	-10739
碩	-10740
磁	-10741
磨	-10742
磯	-10743
祀	-10744
祗	-10745
祥	-10746
禍	-10747
禦	-10748
种	-10749
秒	-10750
租	-10751
稍	-10752
稠	-10753
穌	-10754
竭	-10755
端	-10756
筆	-10757
筋	-10758
箋	-10759
箱	-10760
籌	-10761
籍	-10762
籲	-10763
粘	-10764
粹	-10765
糖	-10766
糞	-10767
糧	-10768
糾	-10769
累	-10770
絨	-10771
緒	-10772
緬	-10773
縮	-10774
繆	-10775
繭	-10776
繽	-10777
纜	-10778
耍	-10779
耕	-10780
耗	-10781
联	-10782
聚	-10783
肩	-10784
胃	-10785
胎	-10786
胖	-10787
胞	-10788
胱	-10789
脅	-10790
脖	-10791
腐	-10792
腳	-10793
膀	-10794
臣	-10795
臥	-10796
舌	-10797
舒	-10798
艘	-10799
艱	-10800
芋	-10801
芙	-10802
芝	-10803
芭	-10804
芽	-10805
苗	-10806
若	-10807
范	-10808
茱	-10809
莊	-10810
菩	-10811
董	-10812
葵	-10813
葺	-10814
蓮	-10815
蔑	-10816
蕩	-10817
蕾	-10818
薄	-10819
薪	-10820
藍	-10821
藏	-10822
藹	-10823
蘊	-10824
蘋	-10825
蛹	-10826
蜍	-10827
蜒	-10828
蜜	-10829
蜿	-10830
蝕	-10831
蟾	-10832
蠅	-10833
蠶	-10834
袁	-10835
袖	-10836
裕	-10837
裙	-10838
褲	-10839
襟	-10840
襲	-10841
訟	-10842
誕	-10843
誘	-10844
諡	-10845
諧	-10846
諮	-10847
謠	-10848
謨	-10849
謹	-10850
譴	-10851
豆	-10852
豐	-10853
豪	-10854
豫	-10855
貢	-10856
貶	-10857
貼	-10858
賃	-10859
趕	-10860
跨	-10861
跳	-10862
蹩	-10863
躁	-10864
軒	-10865
載	-10866
輝	-10867
轄	-10868
辛	-10869
辨	-10870
逗	-10871
逮	-10872
遏	-10873
違	-10874
遞	-10875
遣	-10876
遨	-10877
遮	-10878
遲	-10879
遵	-10880
邀	-10881
邏	-10882
邪	-10883
酵	-10884
醉	-10885
醒	-10886
釁	-10887
采	-10888
鈷	-10889
鉛	-10890
鉬	-10891
銥	-10892
鋅	-10893
錘	-10894
錳	-10895
鍍	-10896
鎖	-10897
鎳	-10898
鐳	-10899
鑽	-10900
鑿	-10901
閃	-10902
閏	-10903
閔	-10904
閱	-10905
阱	-10906
陪	-10907
陳	-10908
隕	-10909
隸	-10910
雄	-10911
雕	-10912
雜	-10913
雞	-10914
零	-10915
霾	-10916
靜	-10917
鞭	-10918
韋	-10919
頁	-10920
頂	-10921
頃	-10922
頒	-10923
顫	-10924
飆	-10925
飢	-10926
