<unk>	0
<s>	0
</s>	0
▁t	-0
he	-1
▁a	-2
in	-3
▁the	-4
re	-5
on	-6
▁s	-7
er	-8
▁w	-9
▁o	-10
▁c	-11
an	-12
▁b	-13
at	-14
en	-15
ed	-16
is	-17
it	-18
▁in	-19
▁p	-20
▁f	-21
ar	-22
or	-23
es	-24
▁of	-25
▁m	-26
▁an	-27
al	-28
▁d	-29
▁h	-30
ing	-31
▁to	-32
as	-33
ic	-34
ou	-35
▁and	-36
▁l	-37
ion	-38
ro	-39
▁th	-40
il	-41
▁e	-42
▁n	-43
▁re	-44
ent	-45
▁g	-46
▁be	-47
st	-48
le	-49
ly	-50
▁u	-51
om	-52
ve	-53
ol	-54
ur	-55
ct	-56
▁on	-57
ce	-58
id	-59
▁he	-60
ad	-61
▁is	-62
im	-63
▁it	-64
ut	-65
▁was	-66
ot	-67
▁st	-68
▁for	-69
ver	-70
▁al	-71
▁of▁the	-72
et	-73
▁as	-74
ir	-75
ow	-76
ig	-77
ch	-78
ter	-79
▁wh	-80
▁that	-81
se	-82
▁r	-83
am	-84
ay	-85
▁de	-86
ation	-87
▁1	-88
▁con	-89
ith	-90
▁with	-91
est	-92
▁se	-93
▁we	-94
th	-95
and	-96
▁in▁the	-97
her	-98
um	-99
ld	-100
▁at	-101
▁by	-102
ul	-103
ain	-104
ate	-105
ill	-106
▁un	-107
rom	-108
▁ch	-109
op	-110
▁his	-111
▁k	-112
ri	-113
▁v	-114
▁mo	-115
if	-116
▁j	-117
▁y	-118
oun	-119
▁are	-120
▁com	-121
▁ha	-122
ers	-123
pe	-124
▁ne	-125
ge	-126
red	-127
res	-128
ts	-129
ment	-130
ac	-131
us	-132
▁ex	-133
▁from	-134
ab	-135
ies	-136
▁to▁the	-137
▁pro	-138
un	-139
▁this	-140
▁have	-141
ich	-142
em	-143
art	-144
out	-145
▁le	-146
▁were	-147
iv	-148
ity	-149
▁tr	-150
el	-151
▁"	-152
our	-153
▁su	-154
▁has	-155
▁wor	-156
igh	-157
ing▁the	-158
ial	-159
▁pl	-160
ast	-161
end	-162
ian	-163
▁ab	-164
▁but	-165
ed▁the	-166
ak	-167
ess	-168
ia	-169
▁2	-170
ist	-171
ap	-172
cc	-173
ong	-174
ust	-175
ear	-176
ould	-177
▁had	-178
ed▁to	-179
od	-180
os	-181
▁ar	-182
▁which	-183
ud	-184
ren	-185
▁not	-186
qu	-187
ive	-188
ard	-189
▁19	-190
▁af	-191
ther	-192
▁whe	-193
ber	-194
der	-195
▁sh	-196
ish	-197
▁sp	-198
so	-199
ant	-200
▁20	-201
▁ag	-202
▁or	-203
ed▁in	-204
▁cont	-205
ie	-206
▁i	-207
▁cl	-208
ok	-209
pp	-210
mer	-211
ical	-212
▁year	-213
▁the▁p	-214
gh	-215
ous	-216
▁who	-217
pt	-218
ace	-219
ans	-220
ort	-221
▁new	-222
ction	-223
▁been	-224
▁go	-225
▁they	-226
▁br	-227
▁sa	-228
▁dis	-229
▁also	-230
▁me	-231
▁all	-232
▁her	-233
▁the▁c	-234
▁the▁f	-235
oc	-236
all	-237
ree	-238
▁ad	-239
▁us	-240
▁comp	-241
▁more	-242
▁after	-243
▁the▁s	-244
ame	-245
per	-246
ound	-247
▁int	-248
▁the▁m	-249
ide	-250
ore	-251
ure	-252
reat	-253
▁one	-254
▁tim	-255
ition	-256
ke	-257
any	-258
▁tw	-259
ight	-260
▁can	-261
▁mar	-262
ed▁by	-263
▁will	-264
one	-265
s▁in	-266
▁about	-267
ip	-268
ub	-269
ack	-270
ire	-271
▁its	-272
▁rep	-273
ll	-274
og	-275
act	-276
ary	-277
ine	-278
ost	-279
▁pe	-280
▁up	-281
s▁of	-282
▁their	-283
lic	-284
▁en	-285
ance	-286
▁inc	-287
▁she	-288
▁would	-289
ally	-290
ough	-291
fe	-292
we	-293
age	-294
ome	-295
ord	-296
▁em	-297
▁acc	-298
▁pol	-299
▁time	-300
ag	-301
uc	-302
ice	-303
▁two	-304
▁there	-305
▁the▁b	-306
av	-307
ib	-308
▁(	-309
ass	-310
irst	-311
▁ind	-312
▁inv	-313
▁res	-314
▁work	-315
vel	-316
▁im	-317
ated	-318
▁bec	-319
▁dur	-320
▁out	-321
▁per	-322
▁part	-323
▁on▁the	-324
00	-325
lo	-326
ne	-327
te	-328
ory	-329
ose	-330
▁gr	-331
ed▁a	-332
▁war	-333
▁than	-334
ach	-335
▁li	-336
ople	-337
▁dec	-338
▁pres	-339
ign	-340
▁ap	-341
able	-342
ence	-343
▁bet	-344
▁nor	-345
▁off	-346
▁other	-347
ep	-348
ue	-349
con	-350
ult	-351
▁so	-352
▁te	-353
land	-354
▁201	-355
▁as▁a	-356
▁said	-357
▁3	-358
ade	-359
hed	-360
low	-361
row	-362
▁ev	-363
▁no	-364
tern	-365
vern	-366
▁the▁l	-367
▁people	-368
▁from▁the	-369
iz	-370
ens	-371
orm	-372
ors	-373
ount	-374
▁over	-375
ru	-376
are	-377
ays	-378
ild	-379
ric	-380
▁am	-381
▁sc	-382
ions	-383
▁how	-384
▁reg	-385
▁many	-386
▁when	-387
▁and▁the	-388
au	-389
ry	-390
▁“	-391
▁eu	-392
▁gu	-393
ater	-394
ween	-395
▁car	-396
▁col	-397
▁rec	-398
▁in▁a	-399
▁like	-400
▁under	-401
▁years	-402
▁govern	-403
▁between	-404
▁do	-405
very	-406
▁exp	-407
▁during▁the	-408
,"	-409
ff	-410
ina	-411
ite	-412
ran	-413
urn	-414
ious	-415
▁des	-416
▁ear	-417
▁win	-418
ident	-419
ublic	-420
▁only	-421
▁first	-422
▁world	-423
▁government	-424
ph	-425
ail	-426
ake	-427
ces	-428
erm	-429
ert	-430
own	-431
▁pr	-432
▁fin	-433
▁mon	-434
▁par	-435
▁rem	-436
▁sur	-437
▁euro	-438
▁at▁the	-439
▁invest	-440
wn	-441
gan	-442
ile	-443
ilm	-444
ings	-445
rent	-446
▁est	-447
▁him	-448
▁pre	-449
▁ret	-450
ing▁a	-451
meric	-452
▁cent	-453
▁into	-454
▁most	-455
▁of▁a	-456
▁such	-457
ing▁to	-458
▁great	-459
▁it▁is	-460
▁to▁be	-461
li	-462
rit	-463
▁co	-464
▁imp	-465
▁pow	-466
▁comm	-467
▁cons	-468
▁some	-469
ational	-470
ang	-471
ell	-472
ise	-473
yst	-474
▁op	-475
▁ro	-476
iver	-477
▁hist	-478
▁land	-479
ations	-480
▁and▁a	-481
▁north	-482
▁where	-483
iss	-484
les	-485
▁bu	-486
▁lo	-487
ared	-488
ates	-489
eral	-490
form	-491
outh	-492
▁dire	-493
▁is▁a	-494
▁mark	-495
▁again	-496
▁could	-497
▁americ	-498
aw	-499
day	-500
erv	-501
ife	-502
ink	-503
ium	-504
lud	-505
old	-506
ton	-507
ury	-508
▁fr	-509
cial	-510
ific	-511
▁app	-512
▁att	-513
▁ele	-514
▁gen	-515
▁hel	-516
▁sea	-517
▁spe	-518
velop	-519
▁appe	-520
▁grow	-521
▁play	-522
▁well	-523
▁the▁d	-524
▁direct	-525
ean	-526
ict	-527
the	-528
▁fe	-529
▁if	-530
▁kn	-531
▁qu	-532
ents	-533
ever	-534
fore	-535
ists	-536
ward	-537
▁200	-538
▁art	-539
▁bot	-540
▁fol	-541
▁met	-542
▁min	-543
▁num	-544
▁sch	-545
▁thr	-546
▁vot	-547
ately	-548
ather	-549
s▁and	-550
▁brit	-551
▁city	-552
▁film	-553
▁stud	-554
▁what	-555
▁state	-556
▁it▁was	-557
▁century	-558
▁develop	-559
▁had▁been	-560
ds	-561
io	-562
000	-563
ten	-564
▁18	-565
▁bl	-566
▁dr	-567
▁ed	-568
ause	-569
iter	-570
ning	-571
pect	-572
ress	-573
▁did	-574
▁may	-575
▁help	-576
▁just	-577
▁sign	-578
▁took	-579
▁count	-580
▁inter	-581
▁the▁r	-582
ed▁that	-583
▁however	-584
▁such▁as	-585
du	-586
xt	-587
▁5	-588
arg	-589
enc	-590
ful	-591
ily	-592
ral	-593
rat	-594
tle	-595
▁ca	-596
arge	-597
ians	-598
ines	-599
ital	-600
▁bel	-601
▁rom	-602
▁unt	-603
ished	-604
ystem	-605
▁both	-606
▁high	-607
▁in▁s	-608
▁prov	-609
illion	-610
▁power	-611
▁trans	-612
▁by▁the	-613
▁europe	-614
▁follow	-615
▁of▁his	-616
▁return	-617
▁for▁the	-618
0,	-619
2,	-620
co	-621
amp	-622
iew	-623
ock	-624
ons	-625
ood	-626
ool	-627
sel	-628
ump	-629
uss	-630
▁bo	-631
▁ke	-632
▁ob	-633
▁ph	-634
ited	-635
olog	-636
read	-637
ting	-638
▁act	-639
▁arm	-640
▁day	-641
▁med	-642
▁nat	-643
▁now	-644
▁own	-645
▁rel	-646
▁rev	-647
▁tri	-648
ister	-649
ities	-650
ought	-651
▁back	-652
▁conf	-653
▁cour	-654
▁last	-655
▁allow	-656
▁china	-657
▁place	-658
▁three	-659
▁until	-660
▁before	-661
▁includ	-662
▁with▁the	-663
,”	-664
."	-665
ek	-666
ft	-667
ty	-668
▁-	-669
▁z	-670
ark	-671
ath	-672
duc	-673
▁jo	-674
▁sm	-675
ased	-676
opul	-677
ures	-678
vent	-679
▁199	-680
▁a▁l	-681
▁cap	-682
▁dem	-683
▁end	-684
▁ext	-685
▁man	-686
▁you	-687
ually	-688
ution	-689
▁germ	-690
ically	-691
▁began	-692
▁being	-693
▁large	-694
▁month	-695
▁polit	-696
▁sever	-697
▁the▁o	-698
▁contin	-699
▁region	-700
▁against	-701
▁has▁been	-702
th▁century	-703
aj	-704
ss	-705
abl	-706
aly	-707
ban	-708
ced	-709
oss	-710
uch	-711
ved	-712
ames	-713
lear	-714
s▁to	-715
y▁of	-716
▁def	-717
▁dep	-718
▁dif	-719
▁emp	-720
▁ent	-721
▁get	-722
▁leg	-723
▁mor	-724
▁pri	-725
▁set	-726
anish	-727
conom	-728
ision	-729
▁area	-730
▁decl	-731
▁each	-732
▁form	-733
▁hand	-734
▁lead	-735
▁need	-736
▁open	-737
▁plan	-738
▁post	-739
▁them	-740
ustral	-741
▁south	-742
▁accord	-743
▁around	-744
▁as▁the	-745
▁econom	-746
▁establ	-747
▁market	-748
▁remain	-749
▁school	-750
s▁in▁the	-751
s▁of▁the	-752
▁because	-753
▁million	-754
▁several	-755
▁through	-756
▁national	-757
▁more▁than	-758
gy	-759
up	-760
ank	-761
cto	-762
rop	-763
s▁a	-764
ual	-765
way	-766
▁cr	-767
▁po	-768
aced	-769
ajor	-770
ason	-771
gest	-772
ince	-773
lect	-774
reas	-775
ving	-776
▁add	-777
▁ass	-778
▁bor	-779
ating	-780
ility	-781
ivers	-782
le▁to	-783
ology	-784
other	-785
ption	-786
▁disp	-787
▁gree	-788
▁long	-789
▁much	-790
▁octo	-791
▁of▁m	-792
▁says	-793
▁tech	-794
▁and▁f	-795
▁found	-796
▁popul	-797
▁the▁a	-798
▁the▁t	-799
▁while	-800
▁became	-801
▁intern	-802
▁island	-803
▁police	-804
▁public	-805
▁system	-806
▁british	-807
▁history	-808
▁october	-809
▁will▁be	-810
▁republic	-811
▁after▁the	-812
▁president	-813
▁there▁are	-814
).	-815
6,	-816
az	-817
ug	-818
ale	-819
alk	-820
ave	-821
ect	-822
ied	-823
inc	-824
int	-825
ism	-826
rib	-827
ves	-828
▁bc	-829
▁ge	-830
▁ir	-831
ered	-832
ived	-833
ives	-834
osed	-835
ring	-836
▁191	-837
▁chr	-838
▁dom	-839
▁fam	-840
▁fur	-841
▁hum	-842
▁lab	-843
▁mak	-844
▁occ	-845
▁put	-846
▁sec	-847
▁sub	-848
▁ter	-849
ative	-850
ience	-851
ments	-852
riend	-853
s▁are	-854
▁dist	-855
▁head	-856
▁inst	-857
▁in▁j	-858
▁king	-859
▁life	-860
▁made	-861
▁rece	-862
▁rele	-863
▁show	-864
▁take	-865
▁child	-866
▁diffe	-867
▁event	-868
▁every	-869
▁offic	-870
▁secon	-871
▁start	-872
▁trump	-873
▁appear	-874
▁comple	-875
▁repres	-876
▁result	-877
▁increas	-878
▁without	-879
▁american	-880
▁election	-881
▁political	-882
▁the▁first	-883
5,	-884
ai	-885
ax	-886
be	-887
gr	-888
oy	-889
sc	-890
to	-891
wh	-892
▁£	-893
ata	-894
ery	-895
hen	-896
hip	-897
iod	-898
man	-899
▁ac	-900
▁er	-901
▁my	-902
▁sw	-903
ange	-904
cent	-905
ient	-906
ivil	-907
rend	-908
ries	-909
ross	-910
ural	-911
▁a▁f	-912
▁equ	-913
▁far	-914
▁giv	-915
▁loc	-916
▁sit	-917
ccess	-918
ocial	-919
ready	-920
▁army	-921
▁clim	-922
▁disc	-923
▁mean	-924
▁name	-925
▁on▁a	-926
▁then	-927
▁told	-928
▁to▁c	-929
▁very	-930
▁week	-931
ranean	-932
▁civil	-933
▁decid	-934
▁emper	-935
▁exper	-936
▁later	-937
▁level	-938
▁since	-939
▁still	-940
▁techn	-941
▁those	-942
▁treat	-943
▁water	-944
▁number	-945
▁partic	-946
▁record	-947
▁report	-948
▁second	-949
▁winter	-950
▁already	-951
▁company	-952
▁further	-953
▁general	-954
▁success	-955
iterranean	-956
▁and▁the▁p	-957
▁development	-958
".	-959
),	-960
19	-961
60	-962
fl	-963
ha	-964
tt	-965
▁'	-966
aim	-967
air	-968
ble	-969
ere	-970
get	-971
gin	-972
ilt	-973
irl	-974
ner	-975
ney	-976
ont	-977
ove	-978
son	-979
uck	-980
unt	-981
ute	-982
▁10	-983
▁el	-984
▁sl	-985
ched	-986
ency	-987
ides	-988
itch	-989
mber	-990
most	-991
orts	-992
ured	-993
▁ant	-994
▁any	-995
▁bar	-996
▁big	-997
▁bon	-998
▁bre	-999
▁bro	-1000
▁bur	-1001
▁bus	-1002
▁cur	-1003
▁deb	-1004
▁don	-1005
▁imm	-1006
▁law	-1007
▁lit	-1008
▁low	-1009
▁our	-1010
▁see	-1011
▁str	-1012
▁use	-1013
▁var	-1014
▁way	-1015
▁why	-1016
ature	-1017
ember	-1018
iness	-1019
ummer	-1020
wards	-1021
▁bank	-1022
▁even	-1023
▁expl	-1024
▁good	-1025
▁keep	-1026
▁left	-1027
▁serv	-1028
▁thir	-1029
ctions	-1030
ential	-1031
s▁that	-1032
verage	-1033
▁afric	-1034
▁belie	-1035
▁contr	-1036
▁known	-1037
▁major	-1038
▁often	-1039
▁produ	-1040
▁quest	-1041
▁stand	-1042
▁think	-1043
ing▁for	-1044
▁he▁was	-1045
▁histor	-1046
▁period	-1047
▁recent	-1048
▁states	-1049
▁able▁to	-1050
▁as▁well	-1051
▁present	-1052
▁spanish	-1053
▁univers	-1054
▁investig	-1055
▁would▁be	-1056
▁have▁been	-1057
▁one▁of▁the	-1058
.”	-1059
1,	-1060
ck	-1061
ij	-1062
ix	-1063
lt	-1064
▁4	-1065
▁8	-1066
ape	-1067
ara	-1068
bal	-1069
eng	-1070
ffe	-1071
ick	-1072
ind	-1073
min	-1074
ond	-1075
ots	-1076
par	-1077
rew	-1078
ril	-1079
une	-1080
urs	-1081
▁14	-1082
▁15	-1083
▁fl	-1084
▁gl	-1085
▁uk	-1086
ages	-1087
ants	-1088
arch	-1089
bers	-1090
cept	-1091
dern	-1092
hern	-1093
ible	-1094
igin	-1095
ilit	-1096
imit	-1097
ized	-1098
ject	-1099
lict	-1100
lied	-1101
oman	-1102
ones	-1103
self	-1104
side	-1105
s▁on	-1106
uary	-1107
▁197	-1108
▁adv	-1109
▁age	-1110
▁due	-1111
▁eas	-1112
▁old	-1113
▁sal	-1114
▁sug	-1115
▁tak	-1116
▁won	-1117
attle	-1118
epend	-1119
ights	-1120
ories	-1121
▁best	-1122
▁come	-1123
▁conc	-1124
▁coun	-1125
▁data	-1126
▁dest	-1127
▁does	-1128
▁four	-1129
▁hard	-1130
▁look	-1131
▁make	-1132
▁next	-1133
▁pass	-1134
▁pers	-1135
▁poss	-1136
▁prom	-1137
▁real	-1138
▁resp	-1139
▁russ	-1140
▁spec	-1141
▁star	-1142
▁supp	-1143
▁term	-1144
ed▁for	-1145
ertain	-1146
es▁and	-1147
iation	-1148
ing▁of	-1149
ing▁up	-1150
s▁were	-1151
▁agree	-1152
▁april	-1153
▁at▁le	-1154
▁build	-1155
▁clear	-1156
▁colon	-1157
▁const	-1158
▁domin	-1159
▁early	-1160
▁given	-1161
▁revol	-1162
▁these	-1163
▁the▁h	-1164
▁trade	-1165
ed▁with	-1166
ificant	-1167
imately	-1168
ing▁his	-1169
outhern	-1170
ruction	-1171
vention	-1172
▁access	-1173
▁change	-1174
▁christ	-1175
▁contro	-1176
▁course	-1177
▁france	-1178
▁german	-1179
▁growth	-1180
▁likely	-1181
▁modern	-1182
▁one▁of	-1183
▁origin	-1184
▁social	-1185
▁austral	-1186
▁did▁not	-1187
▁emperor	-1188
▁suggest	-1189
▁the▁new	-1190
▁whether	-1191
▁at▁least	-1192
▁business	-1193
▁conflict	-1194
▁independ	-1195
▁in▁which	-1196
▁the▁most	-1197
▁agreement	-1198
▁number▁of	-1199
▁represent	-1200
▁the▁world	-1201
▁this▁time	-1202
▁part▁of▁the	-1203
▁significant	-1204
7.	-1205
ef	-1206
hn	-1207
me	-1208
ps	-1209
yn	-1210
aff	-1211
ald	-1212
als	-1213
ama	-1214
aph	-1215
arm	-1216
arn	-1217
ase	-1218
che	-1219
cil	-1220
ern	-1221
flu	-1222
ger	-1223
omp	-1224
ope	-1225
ork	-1226
s▁f	-1227
ues	-1228
ull	-1229
ung	-1230
vir	-1231
xic	-1232
▁--	-1233
▁di	-1234
▁sk	-1235
▁wr	-1236
alle	-1237
alth	-1238
atch	-1239
augh	-1240
gypt	-1241
hing	-1242
ivid	-1243
ling	-1244
omet	-1245
ouse	-1246
ruct	-1247
ular	-1248
vers	-1249
▁198	-1250
▁ann	-1251
▁fre	-1252
▁liv	-1253
▁mid	-1254
▁mod	-1255
▁oce	-1256
▁opp	-1257
▁pot	-1258
▁rad	-1259
▁ref	-1260
▁rul	-1261
▁say	-1262
▁sim	-1263
▁ste	-1264
▁tem	-1265
▁ten	-1266
▁top	-1267
alled	-1268
ament	-1269
anies	-1270
arget	-1271
atter	-1272
ed▁as	-1273
erest	-1274
ffect	-1275
inese	-1276
ong▁k	-1277
thern	-1278
ugust	-1279
while	-1280
▁bill	-1281
▁chur	-1282
▁clin	-1283
▁educ	-1284
▁jour	-1285
▁kill	-1286
▁rese	-1287
▁rest	-1288
▁rich	-1289
▁seem	-1290
▁stop	-1291
▁to▁a	-1292
▁trad	-1293
▁vict	-1294
▁vote	-1295
▁wife	-1296
acedon	-1297
aining	-1298
anuary	-1299
er▁and	-1300
es▁are	-1301
idered	-1302
ing▁an	-1303
ity▁of	-1304
▁along	-1305
▁among	-1306
▁and▁h	-1307
▁begin	-1308
▁built	-1309
▁conqu	-1310
▁earli	-1311
▁egypt	-1312
▁euros	-1313
▁films	-1314
▁games	-1315
▁gener	-1316
▁greek	-1317
▁human	-1318
▁italy	-1319
▁party	-1320
▁prote	-1321
▁right	-1322
▁river	-1323
▁roman	-1324
▁small	-1325
▁study	-1326
ibility	-1327
ization	-1328
▁become	-1329
▁effect	-1330
▁empire	-1331
▁expect	-1332
▁family	-1333
▁ground	-1334
▁health	-1335
▁months	-1336
▁of▁its	-1337
▁rather	-1338
▁reason	-1339
▁russia	-1340
▁summer	-1341
▁target	-1342
▁united	-1343
▁voting	-1344
▁with▁a	-1345
ong▁kong	-1346
▁allowed	-1347
▁chinese	-1348
▁climate	-1349
▁country	-1350
▁have▁to	-1351
▁respons	-1352
▁the▁two	-1353
▁to▁have	-1354
▁declared	-1355
▁economic	-1356
▁european	-1357
▁northern	-1358
▁received	-1359
▁the▁last	-1360
▁companies	-1361
▁countries	-1362
▁different	-1363
▁including	-1364
▁tradition	-1365
▁considered	-1366
▁population	-1367
▁revolution	-1368
▁established	-1369
▁international	-1370
3,	-1371
3.	-1372
5.	-1373
ae	-1374
bo	-1375
by	-1376
dr	-1377
ec	-1378
ew	-1379
go	-1380
mb	-1381
ov	-1382
pl	-1383
sp	-1384
▁9	-1385
ane	-1386
ars	-1387
ash	-1388
bin	-1389
bum	-1390
bur	-1391
dle	-1392
ibb	-1393
ime	-1394
ino	-1395
isl	-1396
lam	-1397
led	-1398
loy	-1399
ody	-1400
ogr	-1401
ole	-1402
ops	-1403
pic	-1404
ret	-1405
tal	-1406
ubl	-1407
uff	-1408
umb	-1409
ven	-1410
▁16	-1411
▁es	-1412
▁ii	-1413
▁la	-1414
▁pa	-1415
▁ru	-1416
abor	-1417
aint	-1418
amer	-1419
anes	-1420
angu	-1421
atic	-1422
a▁is	-1423
ed▁c	-1424
ices	-1425
ield	-1426
ired	-1427
less	-1428
lled	-1429
ried	-1430
rote	-1431
tely	-1432
used	-1433
ways	-1434
▁air	-1435
▁amb	-1436
▁aud	-1437
▁a▁c	-1438
▁det	-1439
▁eng	-1440
▁ess	-1441
▁flo	-1442
▁iss	-1443
▁let	-1444
▁pat	-1445
▁pet	-1446
▁reb	-1447
▁run	-1448
▁ser	-1449
▁six	-1450
▁sun	-1451
▁sus	-1452
▁tro	-1453
▁vis	-1454
a▁and	-1455
bania	-1456
ce▁of	-1457
ively	-1458
oseph	-1459
ously	-1460
rench	-1461
s▁for	-1462
ustom	-1463
ustri	-1464
▁anim	-1465
▁book	-1466
▁came	-1467
▁char	-1468
▁cost	-1469
▁days	-1470
▁dece	-1471
▁deep	-1472
▁desc	-1473
▁fact	-1474
▁find	-1475
▁free	-1476
▁girl	-1477
▁gold	-1478
▁hill	-1479
▁hour	-1480
▁meet	-1481
▁near	-1482
▁oper	-1483
▁port	-1484
▁priv	-1485
▁proc	-1486
▁publ	-1487
▁read	-1488
▁requ	-1489
▁seen	-1490
▁sold	-1491
▁spok	-1492
▁town	-1493
▁used	-1494
▁west	-1495
▁youn	-1496
ederal	-1497
ibbean	-1498
ion▁of	-1499
ograph	-1500
▁as▁an	-1501
▁chall	-1502
▁chang	-1503
▁charg	-1504
▁class	-1505
▁conne	-1506
▁earth	-1507
▁front	-1508
▁he▁is	-1509
▁influ	-1510
▁langu	-1511
▁liber	-1512
▁limit	-1513
▁liter	-1514
▁parts	-1515
▁separ	-1516
▁somet	-1517
▁the▁n	-1518
ed▁into	-1519
osition	-1520
▁almost	-1521
▁always	-1522
▁attend	-1523
▁can▁be	-1524
▁commun	-1525
▁custom	-1526
▁former	-1527
▁having	-1528
▁import	-1529
▁inform	-1530
▁joseph	-1531
▁powers	-1532
▁produc	-1533
▁should	-1534
▁territ	-1535
▁the▁se	-1536
ing▁that	-1537
▁albania	-1538
▁and▁his	-1539
▁another	-1540
▁britain	-1541
▁brought	-1542
▁clinton	-1543
▁command	-1544
▁contain	-1545
▁council	-1546
▁distric	-1547
▁earlier	-1548
▁the▁med	-1549
▁thought	-1550
▁underst	-1551
▁used▁in	-1552
▁various	-1553
▁working	-1554
ation▁for	-1555
ed▁in▁the	-1556
▁began▁to	-1557
▁children	-1558
▁interest	-1559
▁official	-1560
▁of▁these	-1561
▁released	-1562
ing▁to▁the	-1563
ion▁of▁the	-1564
▁establish	-1565
▁hong▁kong	-1566
▁investors	-1567
▁meanwhile	-1568
▁since▁the	-1569
▁their▁own	-1570
▁they▁were	-1571
▁as▁well▁as	-1572
▁completely	-1573
▁eventually	-1574
▁technology	-1575
▁throughout	-1576
▁transition	-1577
▁united▁states	-1578
1.	-1579
20	-1580
30	-1581
bc	-1582
bs	-1583
ca	-1584
ma	-1585
ra	-1586
ze	-1587
▁6	-1588
▁q	-1589
:▁"	-1590
ait	-1591
app	-1592
car	-1593
com	-1594
eds	-1595
ham	-1596
ier	-1597
iet	-1598
ifi	-1599
ift	-1600
ify	-1601
ior	-1602
oll	-1603
ona	-1604
osp	-1605
ott	-1606
oup	-1607
roy	-1608
sis	-1609
sol	-1610
tar	-1611
tic	-1612
uly	-1613
yal	-1614
zer	-1615
▁13	-1616
▁17	-1617
▁kr	-1618
▁mr	-1619
▁ms	-1620
▁ur	-1621
ades	-1622
ails	-1623
blem	-1624
emen	-1625
face	-1626
fill	-1627
fort	-1628
mark	-1629
miss	-1630
olic	-1631
oney	-1632
port	-1633
reet	-1634
ters	-1635
view	-1636
▁aut	-1637
▁a▁b	-1638
▁beh	-1639
▁blo	-1640
▁clo	-1641
▁cod	-1642
▁cor	-1643
▁few	-1644
▁glo	-1645
▁hig	-1646
▁ide	-1647
▁iii	-1648
▁mem	-1649
▁mus	-1650
▁pal	-1651
▁pay	-1652
▁san	-1653
▁tar	-1654
▁ult	-1655
▁und	-1656
▁val	-1657
▁vol	-1658
▁yet	-1659
5,000	-1660
ained	-1661
akers	-1662
ances	-1663
atory	-1664
ently	-1665
es▁of	-1666
es▁to	-1667
lands	-1668
light	-1669
ly▁to	-1670
ocrat	-1671
ongol	-1672
onium	-1673
ribut	-1674
rient	-1675
there	-1676
th▁of	-1677
umour	-1678
vious	-1679
▁alth	-1680
▁asia	-1681
▁camp	-1682
▁care	-1683
▁coll	-1684
▁cult	-1685
▁date	-1686
▁down	-1687
▁east	-1688
▁enem	-1689
▁exec	-1690
▁flow	-1691
▁food	-1692
▁fore	-1693
▁fran	-1694
▁geor	-1695
▁hero	-1696
▁in▁b	-1697
▁john	-1698
▁know	-1699
▁leav	-1700
▁line	-1701
▁male	-1702
▁mart	-1703
▁meas	-1704
▁nove	-1705
▁of▁v	-1706
▁once	-1707
▁park	-1708
▁qing	-1709
▁refe	-1710
▁send	-1711
▁sept	-1712
▁shen	-1713
▁ship	-1714
▁sour	-1715
▁step	-1716
▁surp	-1717
▁tool	-1718
▁want	-1719
▁wind	-1720
▁writ	-1721
▁your	-1722
gether	-1723
ia▁and	-1724
iction	-1725
minist	-1726
ration	-1727
riends	-1728
selves	-1729
s▁with	-1730
uation	-1731
▁above	-1732
▁album	-1733
▁alone	-1734
▁and▁i	-1735
▁bonds	-1736
▁claim	-1737
▁court	-1738
▁death	-1739
▁displ	-1740
▁elect	-1741
▁examp	-1742
▁finan	-1743
▁islam	-1744
▁leave	-1745
▁local	-1746
▁makes	-1747
▁mexic	-1748
▁might	-1749
▁milit	-1750
▁mount	-1751
▁occup	-1752
▁ocean	-1753
▁organ	-1754
▁point	-1755
▁press	-1756
▁princ	-1757
▁reach	-1758
▁reduc	-1759
▁relig	-1760
▁short	-1761
▁shown	-1762
▁skill	-1763
▁space	-1764
▁spent	-1765
▁the▁g	-1766
▁third	-1767
▁times	-1768
▁total	-1769
▁union	-1770
▁whose	-1771
▁young	-1772
artment	-1773
ated▁in	-1774
aughter	-1775
es▁were	-1776
ing▁and	-1777
mercial	-1778
▁africa	-1779
▁artist	-1780
▁border	-1781
▁but▁it	-1782
▁church	-1783
▁design	-1784
▁disney	-1785
▁due▁to	-1786
▁during	-1787
▁entire	-1788
▁global	-1789
▁greece	-1790
▁impact	-1791
▁instit	-1792
▁in▁add	-1793
▁legisl	-1794
▁little	-1795
▁longer	-1796
▁may▁be	-1797
▁office	-1798
▁of▁new	-1799
▁person	-1800
▁proper	-1801
▁review	-1802
▁scient	-1803
▁temper	-1804
▁worked	-1805
ed▁there	-1806
▁and▁was	-1807
▁brother	-1808
▁but▁the	-1809
▁capital	-1810
▁conserv	-1811
▁control	-1812
▁current	-1813
▁describ	-1814
▁destroy	-1815
▁greater	-1816
▁he▁also	-1817
▁lead▁to	-1818
▁natural	-1819
▁numbers	-1820
▁outside	-1821
▁percent	-1822
▁perform	-1823
▁problem	-1824
▁someone	-1825
▁special	-1826
▁support	-1827
▁to▁take	-1828
acedonian	-1829
ald▁trump	-1830
ed▁by▁the	-1831
or▁of▁the	-1832
▁administ	-1833
▁although	-1834
▁appeared	-1835
▁cloister	-1836
▁continue	-1837
▁contract	-1838
▁democrat	-1839
▁has▁also	-1840
▁internet	-1841
▁in▁their	-1842
▁minister	-1843
▁november	-1844
▁polonium	-1845
▁reported	-1846
▁students	-1847
▁where▁he	-1848
▁which▁is	-1849
ed▁to▁have	-1850
▁and▁other	-1851
▁australia	-1852
▁beginning	-1853
▁interview	-1854
▁no▁longer	-1855
▁return▁to	-1856
▁september	-1857
▁they▁have	-1858
▁which▁was	-1859
▁commercial	-1860
▁historical	-1861
▁particular	-1862
▁which▁were	-1863
▁as▁a▁result	-1864
▁information	-1865
th▁century▁bc	-1866
▁according▁to	-1867
▁mediterranean	-1868
2.	-1869
4.	-1870
50	-1871
7,	-1872
8,	-1873
9,	-1874
bn	-1875
ik	-1876
kn	-1877
lf	-1878
na	-1879
oh	-1880
sh	-1881
sw	-1882
ua	-1883
yl	-1884
yp	-1885
ys	-1886
án	-1887
▁7	-1888
▁—	-1889
:▁“	-1890
aps	-1891
arr	-1892
att	-1893
bit	-1894
bon	-1895
bor	-1896
can	-1897
cha	-1898
dom	-1899
ele	-1900
emp	-1901
ena	-1902
ett	-1903
gel	-1904
gen	-1905
hel	-1906
hib	-1907
ima	-1908
ipp	-1909
iqu	-1910
lev	-1911
lym	-1912
off	-1913
ogn	-1914
oid	-1915
olf	-1916
oto	-1917
pis	-1918
ror	-1919
soc	-1920
str	-1921
ted	-1922
ube	-1923
ude	-1924
ugh	-1925
und	-1926
urp	-1927
zen	-1928
▁3%	-1929
▁50	-1930
▁ic	-1931
▁ve	-1932
▁£1	-1933
ably	-1934
ague	-1935
aign	-1936
aine	-1937
ania	-1938
aret	-1939
aris	-1940
asty	-1941
athe	-1942
ault	-1943
berg	-1944
clud	-1945
cour	-1946
eleb	-1947
erty	-1948
esha	-1949
ican	-1950
igen	-1951
ille	-1952
imes	-1953
imum	-1954
irth	-1955
ised	-1956
itan	-1957
kish	-1958
laim	-1959
like	-1960
more	-1961
omen	-1962
oric	-1963
pite	-1964
reme	-1965
rief	-1966
rupt	-1967
scar	-1968
star	-1969
test	-1970
ties	-1971
ucas	-1972
utes	-1973
wide	-1974
▁(19	-1975
▁100	-1976
▁149	-1977
▁188	-1978
▁192	-1979
▁aff	-1980
▁ago	-1981
▁anc	-1982
▁bud	-1983
▁cal	-1984
▁cat	-1985
▁div	-1986
▁dyn	-1987
▁eit	-1988
▁fav	-1989
▁fel	-1990
▁ful	-1991
▁hom	-1992
▁hop	-1993
▁jap	-1994
▁jew	-1995
▁jud	-1996
▁kil	-1997
▁men	-1998
▁mot	-1999
▁mov	-2000
▁net	-2001
▁obs	-2002
▁pap	-2003
▁pen	-2004
▁pil	-2005
▁rac	-2006
▁ram	-2007
▁red	-2008
▁sam	-2009
▁sho	-2010
▁sol	-2011
▁tit	-2012
▁too	-2013
▁tra	-2014
▁try	-2015
adian	-2016
ality	-2017
allel	-2018
al▁of	-2019
andid	-2020
araoh	-2021
artph	-2022
assad	-2023
atest	-2024
bitat	-2025
board	-2026
ed▁it	-2027
eland	-2028
enate	-2029
ences	-2030
erred	-2031
estic	-2032
gress	-2033
ijing	-2034
ional	-2035
ising	-2036
itchc	-2037
lying	-2038
ly▁in	-2039
olved	-2040
ondon	-2041
ounts	-2042
reate	-2043
rence	-2044
ritic	-2045
stone	-2046
s▁inv	-2047
s▁the	-2048
tario	-2049
ustry	-2050
vered	-2051
virke	-2052
y▁and	-2053
▁1960	-2054
▁ages	-2055
▁alph	-2056
▁auth	-2057
▁born	-2058
▁capt	-2059
▁caus	-2060
▁cell	-2061
▁coal	-2062
▁cond	-2063
▁deal	-2064
▁defe	-2065
▁didn	-2066
▁dies	-2067
▁earn	-2068
▁emer	-2069
▁ener	-2070
▁enro	-2071
▁epis	-2072
▁espe	-2073
▁exce	-2074
▁face	-2075
▁fall	-2076
▁forc	-2077
▁forg	-2078
▁game	-2079
▁golf	-2080
▁grew	-2081
▁here	-2082
▁home	-2083
▁in▁c	-2084
▁iron	-2085
▁kore	-2086
▁lack	-2087
▁late	-2088
▁laun	-2089
▁less	-2090
▁link	-2091
▁lung	-2092
▁main	-2093
▁moon	-2094
▁must	-2095
▁news	-2096
▁of▁b	-2097
▁of▁c	-2098
▁olym	-2099
▁perh	-2100
▁pred	-2101
▁prim	-2102
▁raff	-2103
▁rain	-2104
▁rate	-2105
▁reve	-2106
▁rise	-2107
▁rome	-2108
▁rona	-2109
▁rout	-2110
▁sail	-2111
▁same	-2112
▁sent	-2113
▁sing	-2114
▁spot	-2115
▁swit	-2116
▁turn	-2117
▁unit	-2118
▁upon	-2119
▁vers	-2120
▁wait	-2121
▁york	-2122
action	-2123
ailing	-2124
alysis	-2125
as▁and	-2126
atives	-2127
cially	-2128
der▁to	-2129
ed▁her	-2130
ellion	-2131
emenid	-2132
ending	-2133
ensive	-2134
estern	-2135
idence	-2136
ishing	-2137
istant	-2138
onment	-2139
rences	-2140
ttoman	-2141
urally	-2142
▁adver	-2143
▁agent	-2144
▁appro	-2145
▁assoc	-2146
▁blunt	-2147
▁brand	-2148
▁champ	-2149
▁close	-2150
▁creat	-2151
▁drama	-2152
▁eight	-2153
▁estim	-2154
▁field	-2155
▁grand	-2156
▁grown	-2157
▁guard	-2158
▁guide	-2159
▁had▁a	-2160
▁heart	-2161
▁herod	-2162
▁ident	-2163
▁immig	-2164
▁intro	-2165
▁issue	-2166
▁is▁to	-2167
▁kesha	-2168
▁legal	-2169
▁light	-2170
▁lower	-2171
▁mater	-2172
▁media	-2173
▁model	-2174
▁money	-2175
▁morav	-2176
▁never	-2177
▁occur	-2178
▁offer	-2179
▁of▁st	-2180
▁opium	-2181
▁plant	-2182
▁prior	-2183
▁royal	-2184
▁schol	-2185
▁secur	-2186
▁seven	-2187
▁spain	-2188
▁story	-2189
▁surve	-2190
▁taken	-2191
▁to▁do	-2192
▁track	-2193
▁urban	-2194
▁women	-2195
▁worst	-2196
▁wrote	-2197
agement	-2198
ed▁in▁a	-2199
ers▁and	-2200
es▁that	-2201
igenous	-2202
ing▁him	-2203
s▁to▁be	-2204
ultural	-2205
▁agency	-2206
▁and▁in	-2207
▁and▁st	-2208
▁announ	-2209
▁attack	-2210
▁better	-2211
▁candid	-2212
▁carbon	-2213
▁career	-2214
▁chance	-2215
▁consum	-2216
▁danish	-2217
▁debate	-2218
▁demand	-2219
▁do▁not	-2220
▁either	-2221
▁employ	-2222
▁estate	-2223
▁execut	-2224
▁forces	-2225
▁have▁a	-2226
▁he▁has	-2227
▁higher	-2228
▁how▁to	-2229
▁indian	-2230
▁is▁not	-2231
▁led▁by	-2232
▁london	-2233
▁making	-2234
▁mongol	-2235
▁nature	-2236
▁of▁her	-2237
▁only▁a	-2238
▁others	-2239
▁out▁of	-2240
▁recogn	-2241
▁releas	-2242
▁rights	-2243
▁series	-2244
▁specif	-2245
▁spokes	-2246
▁spring	-2247
▁street	-2248
▁strong	-2249
▁taking	-2250
▁the▁bl	-2251
▁the▁sc	-2252
▁things	-2253
▁troops	-2254
▁tumour	-2255
▁we▁are	-2256
▁withdr	-2257
▁within	-2258
anevirke	-2259
ation▁of	-2260
ed▁to▁be	-2261
ers▁were	-2262
s▁to▁the	-2263
▁account	-2264
▁america	-2265
▁average	-2266
▁a▁third	-2267
▁certain	-2268
▁charact	-2269
▁concern	-2270
▁content	-2271
▁defence	-2272
▁despite	-2273
▁discuss	-2274
▁dynasty	-2275
▁explain	-2276
▁fulfill	-2277
▁germany	-2278
▁getting	-2279
▁growing	-2280
▁habitat	-2281
▁head▁of	-2282
▁himself	-2283
▁in▁july	-2284
▁in▁this	-2285
▁january	-2286
▁largely	-2287
▁olympic	-2288
▁ontario	-2289
▁pattern	-2290
▁pharaoh	-2291
▁princip	-2292
▁private	-2293
▁product	-2294
▁protest	-2295
▁request	-2296
▁richard	-2297
▁the▁car	-2298
▁the▁cur	-2299
▁towards	-2300
▁victory	-2301
▁weather	-2302
▁when▁he	-2303
▁written	-2304
chaemenid	-2305
ed▁to▁the	-2306
ification	-2307
ified▁the	-2308
ing▁their	-2309
ustralian	-2310
▁actually	-2311
▁ambassad	-2312
▁at▁the▁s	-2313
▁audience	-2314
▁campaign	-2315
▁challeng	-2316
▁december	-2317
▁decision	-2318
▁defeated	-2319
▁director	-2320
▁does▁not	-2321
▁egyptian	-2322
▁he▁would	-2323
▁industry	-2324
▁in▁april	-2325
▁is▁still	-2326
▁known▁as	-2327
▁language	-2328
▁launched	-2329
▁material	-2330
▁of▁china	-2331
▁of▁their	-2332
▁order▁to	-2333
▁parallel	-2334
▁rafferty	-2335
▁remained	-2336
▁that▁she	-2337
▁that▁the	-2338
▁they▁are	-2339
▁the▁film	-2340
▁the▁pres	-2341
▁the▁same	-2342
▁the▁song	-2343
▁this▁was	-2344
▁together	-2345
▁was▁born	-2346
▁with▁his	-2347
▁about▁the	-2348
▁assistant	-2349
▁christian	-2350
▁conquered	-2351
▁contribut	-2352
▁destroyed	-2353
▁education	-2354
▁essential	-2355
▁financial	-2356
▁from▁this	-2357
▁important	-2358
▁increases	-2359
▁needed▁to	-2360
▁of▁course	-2361
▁published	-2362
▁questions	-2363
▁rebellion	-2364
▁religious	-2365
▁sometimes	-2366
▁territory	-2367
▁there▁was	-2368
▁transport	-2369
▁two▁years	-2370
▁world▁war	-2371
▁appearance	-2372
▁convention	-2373
▁department	-2374
▁especially	-2375
▁indigenous	-2376
▁investment	-2377
▁in▁the▁mid	-2378
▁other▁hand	-2379
▁republican	-2380
▁successful	-2381
▁there▁were	-2382
▁the▁battle	-2383
▁the▁former	-2384
▁the▁senate	-2385
▁took▁place	-2386
▁ultimately	-2387
▁university	-2388
▁a▁number▁of	-2389
▁directed▁by	-2390
▁followed▁by	-2391
▁in▁addition	-2392
▁in▁southern	-2393
▁real▁estate	-2394
▁returned▁to	-2395
▁the▁federal	-2396
▁donald▁trump	-2397
▁independence	-2398
▁specifically	-2399
▁for▁the▁first	-2400
▁great▁britain	-2401
▁olympic▁games	-2402
▁responsibility	-2403
▁the▁government	-2404
..	-2405
16	-2406
33	-2407
4,	-2408
9.	-2409
cy	-2410
ee	-2411
gg	-2412
ks	-2413
nn	-2414
no	-2415
rd	-2416
ti	-2417
,▁"	-2418
-19	-2419
...	-2420
aan	-2421
acy	-2422
ado	-2423
alf	-2424
ann	-2425
apt	-2426
ask	-2427
asm	-2428
ats	-2429
aud	-2430
aut	-2431
avy	-2432
aya	-2433
bby	-2434
cca	-2435
cle	-2436
d▁k	-2437
ead	-2438
eas	-2439
edi	-2440
edy	-2441
ets	-2442
gar	-2443
han	-2444
iam	-2445
ico	-2446
ief	-2447
iev	-2448
iff	-2449
ins	-2450
iot	-2451
ius	-2452
joy	-2453
ler	-2454
lin	-2455
lov	-2456
mar	-2457
mbl	-2458
mit	-2459
nal	-2460
ned	-2461
nes	-2462
new	-2463
nic	-2464
nry	-2465
orn	-2466
ple	-2467
put	-2468
reg	-2469
rey	-2470
rid	-2471
rie	-2472
sea	-2473
sec	-2474
set	-2475
s▁h	-2476
s▁s	-2477
s▁t	-2478
tin	-2479
uan	-2480
ued	-2481
utm	-2482
win	-2483
yer	-2484
▁1%	-2485
▁1,	-2486
▁33	-2487
▁36	-2488
▁av	-2489
▁ec	-2490
▁fu	-2491
▁py	-2492
▁ra	-2493
▁sn	-2494
▁ti	-2495
▁vi	-2496
▁vo	-2497
,000	-2498
abet	-2499
agal	-2500
alan	-2501
ales	-2502
apel	-2503
apid	-2504
arty	-2505
asis	-2506
ator	-2507
auty	-2508
avid	-2509
a▁of	-2510
bane	-2511
body	-2512
burg	-2513
cher	-2514
cket	-2515
cted	-2516
duce	-2517
enef	-2518
ense	-2519
e▁to	-2520
gram	-2521
grat	-2522
haan	-2523
ibly	-2524
icip	-2525
icol	-2526
iday	-2527
ided	-2528
ideo	-2529
ieve	-2530
ilar	-2531
ilic	-2532
illy	-2533
inem	-2534
itar	-2535
king	-2536
ldom	-2537
line	-2538
ly▁p	-2539
ming	-2540
oast	-2541
oint	-2542
oons	-2543
ords	-2544
orth	-2545
osit	-2546
othe	-2547
ouds	-2548
quar	-2549
ream	-2550
rich	-2551
rise	-2552
ropp	-2553
rugg	-2554
sequ	-2555
s▁at	-2556
s▁te	-2557
this	-2558
unds	-2559
work	-2560
year	-2561
▁177	-2562
▁183	-2563
▁194	-2564
▁195	-2565
▁abs	-2566
▁ale	-2567
▁arg	-2568
▁a▁w	-2569
▁che	-2570
▁cit	-2571
▁cop	-2572
▁den	-2573
▁dev	-2574
▁die	-2575
▁dig	-2576
▁dri	-2577
▁eff	-2578
▁emb	-2579
▁fig	-2580
▁fit	-2581
▁fut	-2582
▁got	-2583
▁har	-2584
▁hol	-2585
▁inj	-2586
▁jes	-2587
▁job	-2588
▁kip	-2589
▁las	-2590
▁lin	-2591
▁mps	-2592
▁mur	-2593
▁nam	-2594
▁non	-2595
▁ord	-2596
▁ren	-2597
▁sat	-2598
▁tal	-2599
▁tex	-2600
▁unc	-2601
▁ven	-2602
▁vig	-2603
▁wat	-2604
0,000	-2605
aging	-2606
aking	-2607
alter	-2608
anese	-2609
arden	-2610
arent	-2611
aries	-2612
a▁was	-2613
clude	-2614
elect	-2615
enses	-2616
es▁is	-2617
garet	-2618
ially	-2619
icial	-2620
ician	-2621
iddle	-2622
illes	-2623
itter	-2624
lovak	-2625
ogd▁k	-2626
olina	-2627
olves	-2628
opher	-2629
oples	-2630
or▁of	-2631
otton	-2632
o▁and	-2633
place	-2634
ropol	-2635
ropri	-2636
round	-2637
sized	-2638
solve	-2639
swers	-2640
s▁own	-2641
tonio	-2642
umbus	-2643
ument	-2644
under	-2645
unity	-2646
▁2013	-2647
▁airl	-2648
▁amaz	-2649
▁arri	-2650
▁asse	-2651
▁away	-2652
▁bris	-2653
▁burg	-2654
▁call	-2655
▁card	-2656
▁case	-2657
▁cath	-2658
▁clos	-2659
▁comb	-2660
▁dead	-2661
▁done	-2662
▁draw	-2663
▁easy	-2664
▁ever	-2665
▁feel	-2666
▁fine	-2667
▁guid	-2668
▁guys	-2669
▁happ	-2670
▁held	-2671
▁init	-2672
▁inqu	-2673
▁in▁m	-2674
▁in▁t	-2675
▁jasm	-2676
▁june	-2677
▁list	-2678
▁lord	-2679
▁love	-2680
▁mass	-2681
▁mess	-2682
▁mind	-2683
▁mish	-2684
▁of▁g	-2685
▁of▁p	-2686
▁opin	-2687
▁palm	-2688
▁past	-2689
▁paul	-2690
▁pict	-2691
▁plat	-2692
▁poll	-2693
▁prec	-2694
▁prem	-2695
▁prof	-2696
▁prop	-2697
▁purp	-2698
▁purs	-2699
▁race	-2700
▁rare	-2701
▁role	-2702
▁rule	-2703
▁seas	-2704
▁seek	-2705
▁self	-2706
▁shot	-2707
▁soon	-2708
▁stat	-2709
▁surg	-2710
▁susp	-2711
▁tell	-2712
▁text	-2713
▁thai	-2714
▁to▁t	-2715
▁trib	-2716
▁trou	-2717
▁tues	-2718
▁uber	-2719
▁view	-2720
▁vill	-2721
▁walk	-2722
▁went	-2723
aching	-2724
acific	-2725
allest	-2726
antage	-2727
atever	-2728
atures	-2729
aximum	-2730
called	-2731
cepted	-2732
contin	-2733
earing	-2734
ed▁app	-2735
elines	-2736
ellect	-2737
entino	-2738
ention	-2739
ers▁to	-2740
icians	-2741
ies▁in	-2742
ilding	-2743
isions	-2744
it▁the	-2745
makers	-2746
merica	-2747
mother	-2748
orship	-2749
rative	-2750
riefly	-2751
romise	-2752
s▁have	-2753
s▁high	-2754
thouse	-2755
t▁know	-2756
ua▁new	-2757
ucasus	-2758
urkish	-2759
ussian	-2760
utions	-2761
utmose	-2762
we▁are	-2763
▁1492,	-2764
▁2014.	-2765
▁2015,	-2766
▁agric	-2767
▁alarm	-2768
▁alive	-2769
▁and▁m	-2770
▁an▁un	-2771
▁assum	-2772
▁athen	-2773
▁based	-2774
▁becom	-2775
▁behav	-2776
▁birth	-2777
▁blame	-2778
▁blood	-2779
▁bound	-2780
▁broke	-2781
▁camer	-2782
▁canal	-2783
▁capit	-2784
▁chose	-2785
▁coast	-2786
▁conte	-2787
▁cross	-2788
▁defin	-2789
▁demon	-2790
▁disco	-2791
▁divid	-2792
▁doesn	-2793
▁drink	-2794
▁dropp	-2795
▁emerg	-2796
▁enjoy	-2797
▁envir	-2798
▁exact	-2799
▁exist	-2800
▁exped	-2801
▁famil	-2802
▁final	-2803
▁force	-2804
▁frequ	-2805
▁funds	-2806
▁grain	-2807
▁guine	-2808
▁has▁a	-2809
▁henry	-2810
▁hours	-2811
▁house	-2812
▁invit	-2813
▁in▁an	-2814
▁i▁was	-2815
▁labor	-2816
▁lobby	-2817
▁march	-2818
▁marri	-2819
▁means	-2820
▁nicol	-2821
▁paris	-2822
▁peace	-2823
▁plans	-2824
▁pract	-2825
▁reput	-2826
▁resol	-2827
▁ruler	-2828
▁saint	-2829
▁shock	-2830
▁sites	-2831
▁so▁it	-2832
▁stead	-2833
▁the▁w	-2834
▁the▁y	-2835
▁throw	-2836
▁title	-2837
▁trial	-2838
▁up▁to	-2839
▁vague	-2840
▁video	-2841
▁voice	-2842
▁watch	-2843
▁wheel	-2844
ate▁and	-2845
ed▁they	-2846
ence▁of	-2847
es▁from	-2848
fiction	-2849
hington	-2850
ible▁to	-2851
isation	-2852
ividual	-2853
mission	-2854
ography	-2855
orities	-2856
ospital	-2857
ructure	-2858
ustrial	-2859
viously	-2860
zerland	-2861
▁advert	-2862
▁affair	-2863
▁agents	-2864
▁allies	-2865
▁altern	-2866
▁and▁an	-2867
▁and▁by	-2868
▁and▁co	-2869
▁and▁it	-2870
▁appeal	-2871
▁august	-2872
▁a▁fire	-2873
▁battle	-2874
▁beauty	-2875
▁belief	-2876
▁belong	-2877
▁borrow	-2878
▁called	-2879
▁chapel	-2880
▁cities	-2881
▁clouds	-2882
▁colour	-2883
▁combin	-2884
▁common	-2885
▁compet	-2886
▁deeply	-2887
▁depend	-2888
▁desert	-2889
▁desire	-2890
▁diesel	-2891
▁distin	-2892
▁emails	-2893
▁encour	-2894
▁energy	-2895
▁episod	-2896
▁events	-2897
▁extend	-2898
▁extens	-2899
▁father	-2900
▁forced	-2901
▁for▁us	-2902
▁french	-2903
▁garden	-2904
▁her▁to	-2905
▁hitchc	-2906
▁immedi	-2907
▁income	-2908
▁incred	-2909
▁in▁his	-2910
▁in▁its	-2911
▁itself	-2912
▁korean	-2913
▁like▁a	-2914
▁living	-2915
▁martin	-2916
▁mexico	-2917
▁mother	-2918
▁needed	-2919
▁nether	-2920
▁orient	-2921
▁overse	-2922
▁plants	-2923
▁promot	-2924
▁prompt	-2925
▁really	-2926
▁reform	-2927
▁regard	-2928
▁remark	-2929
▁reveal	-2930
▁rocket	-2931
▁seagal	-2932
▁secure	-2933
▁select	-2934
▁shared	-2935
▁signed	-2936
▁spread	-2937
▁strugg	-2938
▁such▁a	-2939
▁sunday	-2940
▁tariff	-2941
▁terror	-2942
▁the▁bo	-2943
▁the▁pe	-2944
▁the▁rh	-2945
▁thirty	-2946
▁thrace	-2947
▁threat	-2948
▁travel	-2949
▁treaty	-2950
▁volcan	-2951
▁was▁un	-2952
▁wonder	-2953
▁wright	-2954
ance▁pay	-2955
artphone	-2956
ed▁the▁t	-2957
gressive	-2958
ility▁to	-2959
ing▁with	-2960
riticism	-2961
ross▁the	-2962
starring	-2963
s▁on▁the	-2964
ximately	-2965
▁african	-2966
▁ancient	-2967
▁and▁bon	-2968
▁animals	-2969
▁antonio	-2970
▁an▁open	-2971
▁applied	-2972
▁artists	-2973
▁biggest	-2974
▁briefly	-2975
▁changed	-2976
▁clearly	-2977
▁commiss	-2978
▁connect	-2979
▁constit	-2980
▁contact	-2981
▁decline	-2982
▁digital	-2983
▁display	-2984
▁eastern	-2985
▁economy	-2986
▁element	-2987
▁enemies	-2988
▁england	-2989
▁example	-2990
▁exposed	-2991
▁express	-2992
▁extreme	-2993
▁feature	-2994
▁finally	-2995
▁foreign	-2996
▁forward	-2997
▁friends	-2998
▁he▁says	-2999
▁iceland	-3000
▁instead	-3001
▁in▁both	-3002
▁in▁june	-3003
▁islamic	-3004
▁i▁think	-3005
▁jasmine	-3006
▁journal	-3007
▁journey	-3008
▁kipling	-3009
▁located	-3010
▁meaning	-3011
▁members	-3012
▁mishima	-3013
▁moravia	-3014
▁morning	-3015
▁nations	-3016
▁of▁them	-3017
▁of▁this	-3018
▁peoples	-3019
▁perhaps	-3020
▁popular	-3021
▁prevent	-3022
▁process	-3023
▁produce	-3024
▁program	-3025
▁project	-3026
▁protect	-3027
▁provide	-3028
▁regions	-3029
▁reports	-3030
▁respect	-3031
▁science	-3032
▁she▁has	-3033
▁similar	-3034
▁sources	-3035
▁started	-3036
▁station	-3037
▁stories	-3038
▁subject	-3039
▁surface	-3040
▁surrend	-3041
▁suspect	-3042
▁that▁it	-3043
▁the▁bbc	-3044
▁the▁bor	-3045
▁the▁can	-3046
▁the▁old	-3047
▁the▁per	-3048
▁this▁is	-3049
▁to▁form	-3050
▁tuesday	-3051
▁twitter	-3052
▁unclear	-3053
▁used▁to	-3054
▁usually	-3055
▁was▁the	-3056
▁workers	-3057
ellectual	-3058
ogd▁khaan	-3059
opher▁col	-3060
ropolitan	-3061
s▁include	-3062
s▁such▁as	-3063
▁accounts	-3064
▁alphabet	-3065
▁analysis	-3066
▁and▁fore	-3067
▁bankrupt	-3068
▁brisbane	-3069
▁but▁they	-3070
▁carolina	-3071
▁catholic	-3072
▁champion	-3073
▁collabor	-3074
▁colonies	-3075
▁comments	-3076
▁composed	-3077
▁consumer	-3078
▁contrace	-3079
▁controll	-3080
▁daughter	-3081
▁dissolve	-3082
▁district	-3083
▁electric	-3084
▁his▁life	-3085
▁his▁wife	-3086
▁increase	-3087
▁into▁the	-3088
▁introduc	-3089
▁in▁south	-3090
▁japanese	-3091
▁landmark	-3092
▁margaret	-3093
▁military	-3094
▁mongolia	-3095
▁officers	-3096
▁of▁water	-3097
▁of▁which	-3098
▁place▁of	-3099
▁played▁a	-3100
▁pressure	-3101
▁proclaim	-3102
▁question	-3103
▁research	-3104
▁scholars	-3105
▁security	-3106
▁spending	-3107
▁standard	-3108
▁state▁of	-3109
▁that▁had	-3110
▁that▁was	-3111
▁the▁city	-3112
▁the▁cour	-3113
▁the▁fall	-3114
▁the▁time	-3115
▁thutmose	-3116
▁training	-3117
▁was▁also	-3118
▁whatever	-3119
▁winstone	-3120
▁withdraw	-3121
▁year▁was	-3122
ibbean▁sea	-3123
red▁in▁the	-3124
▁civil▁war	-3125
▁come▁from	-3126
▁condition	-3127
▁continent	-3128
▁customers	-3129
▁developed	-3130
▁districts	-3131
▁entertain	-3132
▁following	-3133
▁has▁shown	-3134
▁hitchcock	-3135
▁influence	-3136
▁initially	-3137
▁institute	-3138
▁in▁the▁us	-3139
▁naturally	-3140
▁papua▁new	-3141
▁particles	-3142
▁period▁of	-3143
▁potential	-3144
▁relations	-3145
▁remaining	-3146
▁spokesman	-3147
▁that▁they	-3148
▁therefore	-3149
▁the▁coast	-3150
▁the▁earth	-3151
▁the▁greek	-3152
▁the▁major	-3153
▁the▁paris	-3154
▁this▁week	-3155
▁this▁year	-3156
▁those▁who	-3157
▁to▁create	-3158
▁transform	-3159
▁trying▁to	-3160
▁valentino	-3161
▁which▁has	-3162
▁workplace	-3163
▁work▁with	-3164
▁worldwide	-3165
▁achaemenid	-3166
▁all▁of▁the	-3167
▁became▁the	-3168
▁before▁the	-3169
▁challenges	-3170
▁day▁of▁the	-3171
▁decided▁to	-3172
▁due▁to▁the	-3173
▁during▁his	-3174
▁expedition	-3175
▁experience	-3176
▁had▁become	-3177
▁increasing	-3178
▁individual	-3179
▁numbers▁in	-3180
▁of▁america	-3181
▁protection	-3182
▁provisions	-3183
▁represents	-3184
▁scientists	-3185
▁themselves	-3186
▁the▁french	-3187
▁the▁latter	-3188
▁the▁middle	-3189
▁understand	-3190
▁understood	-3191
▁washington	-3192
▁would▁have	-3193
ction▁of▁the	-3194
ultural▁land	-3195
▁association	-3196
▁at▁the▁time	-3197
▁back▁to▁the	-3198
▁destruction	-3199
▁differences	-3200
▁environment	-3201
▁grandmother	-3202
▁immediately	-3203
▁independent	-3204
▁in▁order▁to	-3205
▁in▁the▁city	-3206
▁it▁has▁been	-3207
▁legislation	-3208
▁many▁people	-3209
▁much▁of▁the	-3210
▁netherlands	-3211
▁rather▁than	-3212
▁recognition	-3213
▁switzerland	-3214
▁the▁average	-3215
▁the▁climate	-3216
▁three▁times	-3217
▁traditional	-3218
ing▁the▁first	-3219
th▁of▁october	-3220
ttoman▁empire	-3221
▁cloister▁was	-3222
▁great▁powers	-3223
▁intellectual	-3224
▁metropolitan	-3225
▁the▁internet	-3226
opher▁columbus	-3227
▁access▁to▁the	-3228
▁brought▁about	-3229
▁investigating	-3230
▁there▁will▁be	-3231
▁the▁danevirke	-3232
▁the▁president	-3233
▁north▁carolina	-3234
▁percent▁of▁the	-3235
▁the▁macedonian	-3236
▁the▁transition	-3237
▁between▁the▁two	-3238
▁papua▁new▁guine	-3239
",	-3240
'.	-3241
-£	-3242
.5	-3243
0%	-3244
10	-3245
32	-3246
6%	-3247
94	-3248
af	-3249
de	-3250
fc	-3251
fr	-3252
gl	-3253
jm	-3254
mi	-3255
my	-3256
nd	-3257
ny	-3258
of	-3259
rr	-3260
tr	-3261
uv	-3262
ux	-3263
ya	-3264
yd	-3265
zl	-3266
zá	-3267
”.	-3268
-20	-3269
1.4	-3270
19,	-3271
760	-3272
ada	-3273
ael	-3274
akh	-3275
amm	-3276
asa	-3277
asg	-3278
ati	-3279
awn	-3280
a▁d	-3281
bel	-3282
bot	-3283
boy	-3284
but	-3285
cce	-3286
cco	-3287
cel	-3288
chu	-3289
cis	-3290
cur	-3291
den	-3292
det	-3293
dog	-3294
een	-3295
eff	-3296
emy	-3297
ene	-3298
eth	-3299
"▁(	-3300
cri	-3301
fas	-3302
fic	-3303
hab	-3304
het	-3305
hit	-3306
hod	-3307
hot	-3308
hum	-3309
iac	-3310
iao	-3311
ias	-3312
ics	-3313
icy	-3314
ira	-3315
irc	-3316
iri	-3317
isf	-3318
itt	-3319
ixt	-3320
leg	-3321
let	-3322
ley	-3323
lez	-3324
liv	-3325
los	-3326
mog	-3327
mon	-3328
mun	-3329
mus	-3330
not	-3331
oen	-3332
oln	-3333
oma	-3334
ono	-3335
oon	-3336
opp	-3337
opt	-3338
ouf	-3339
pay	-3340
pey	-3341
por	-3342
pre	-3343
que	-3344
rav	-3345
ris	-3346
rog	-3347
rol	-3348
ros	-3349
rov	-3350
r▁i	-3351
sar	-3352
s▁d	-3353
s▁n	-3354
tre	-3355
uba	-3356
uce	-3357
uct	-3358
uge	-3359
uit	-3360
uke	-3361
upp	-3362
urb	-3363
ush	-3364
war	-3365
wer	-3366
xit	-3367
yle	-3368
y▁f	-3369
▁11	-3370
▁12	-3371
▁21	-3372
▁28	-3373
▁31	-3374
▁34	-3375
▁45	-3376
▁53	-3377
▁90	-3378
▁iv	-3379
▁lu	-3380
▁ly	-3381
▁mc	-3382
▁tv	-3383
▁vw	-3384
▁ze	-3385
abin	-3386
aces	-3387
ache	-3388
adar	-3389
agan	-3390
agin	-3391
alid	-3392
alin	-3393
alry	-3394
amin	-3395
andl	-3396
anta	-3397
aper	-3398
apse	-3399
,▁'	-3400
1.5	-3401
iji	-3402
lta	-3403
who	-3404
arct	-3405
arel	-3406
arez	-3407
aska	-3408
atin	-3409
ayer	-3410
azil	-3411
a▁de	-3412
back	-3413
band	-3414
bish	-3415
book	-3416
bots	-3417
bour	-3418
cena	-3419
cess	-3420
chat	-3421
cist	-3422
core	-3423
ed▁w	-3424
empt	-3425
enda	-3426
ened	-3427
enge	-3428
enty	-3429
eouf	-3430
eria	-3431
erry	-3432
esar	-3433
ford	-3434
gers	-3435
gree	-3436
greg	-3437
hara	-3438
here	-3439
hist	-3440
hold	-3441
icle	-3442
icro	-3443
ilip	-3444
iliz	-3445
imen	-3446
inal	-3447
ints	-3448
ipul	-3449
ique	-3450
ires	-3451
isis	-3452
itor	-3453
ival	-3454
korn	-3455
lain	-3456
lass	-3457
last	-3458
leet	-3459
lein	-3460
lete	-3461
look	-3462
mone	-3463
ndar	-3464
ness	-3465
nest	-3466
nish	-3467
ocus	-3468
oles	-3469
omas	-3470
omin	-3471
onal	-3472
ongw	-3473
ongy	-3474
onic	-3475
onne	-3476
onom	-3477
onze	-3478
onzá	-3479
oper	-3480
orcy	-3481
ores	-3482
oret	-3483
orid	-3484
orms	-3485
ouch	-3486
ouis	-3487
oups	-3488
over	-3489
oyne	-3490
pret	-3491
ract	-3492
rant	-3493
rate	-3494
reak	-3495
reco	-3496
rena	-3497
resh	-3498
sbor	-3499
ez	-3500
drin	-3501
s▁an	-3502
s▁as	-3503
s▁or	-3504
s▁st	-3505
s▁un	-3506
tled	-3507
ttom	-3508
uffy	-3509
uish	-3510
ulti	-3511
ults	-3512
unar	-3513
unte	-3514
uper	-3515
urer	-3516
usal	-3517
vive	-3518
west	-3519
wise	-3520
xand	-3521
ydro	-3522
zech	-3523
▁...	-3524
▁107	-3525
▁156	-3526
▁16,	-3527
▁185	-3528
▁187	-3529
▁190	-3530
▁196	-3531
▁20,	-3532
▁30,	-3533
▁31,	-3534
▁330	-3535
▁500	-3536
▁alp	-3537
▁alv	-3538
▁ang	-3539
▁ask	-3540
▁atm	-3541
▁a▁m	-3542
▁a▁v	-3543
▁bad	-3544
▁bas	-3545
▁buy	-3546
▁cav	-3547
▁ced	-3548
▁cha	-3549
▁cle	-3550
▁cnn	-3551
▁cow	-3552
▁cum	-3553
▁cup	-3554
▁cut	-3555
▁dan	-3556
▁dar	-3557
▁ded	-3558
▁der	-3559
▁dna	-3560
▁doc	-3561
▁era	-3562
▁eth	-3563
▁fif	-3564
▁hit	-3565
▁inn	-3566
▁isn	-3567
▁jim	-3568
▁jok	-3569
▁jol	-3570
▁jul	-3571
▁jut	-3572
▁key	-3573
▁lad	-3574
▁lag	-3575
▁lam	-3576
▁lay	-3577
▁len	-3578
▁lev	-3579
▁log	-3580
▁mag	-3581
▁mas	-3582
▁meg	-3583
▁mel	-3584
▁mil	-3585
▁nap	-3586
▁neg	-3587
▁nut	-3588
▁pel	-3589
▁pig	-3590
▁pra	-3591
▁pun	-3592
▁pup	-3593
▁ran	-3594
▁row	-3595
▁saf	-3596
▁sav	-3597
▁sic	-3598
▁squ	-3599
▁tax	-3600
▁tes	-3601
▁tre	-3602
▁typ	-3603
▁ukr	-3604
▁usa	-3605
▁ver	-3606
▁via	-3607
▁von	-3608
▁vul	-3609
▁zay	-3610
▁zod	-3611
abies	-3612
acher	-3613
achin	-3614
ackle	-3615
ademy	-3616
adesh	-3617
adrid	-3618
affic	-3619
ailis	-3620
ak▁at	-3621
alano	-3622
alyst	-3623
al▁to	-3624
andal	-3625
ansas	-3626
archy	-3627
arily	-3628
aring	-3629
asgow	-3630
asion	-3631
astic	-3632
ators	-3633
avity	-3634
based	-3635
burgh	-3636
b▁and	-3637
cceed	-3638
chers	-3639
cover	-3640
cture	-3641
curie	-3642
dogan	-3643
edish	-3644
ed▁at	-3645
ed▁be	-3646
emale	-3647
empts	-3648
endit	-3649
ength	-3650
ening	-3651
erous	-3652
erson	-3653
esses	-3654
es▁in	-3655
es▁on	-3656
e▁was	-3657
fered	-3658
field	-3659
geron	-3660
going	-3661
icine	-3662
ickly	-3663
ic▁is	-3664
ients	-3665
ified	-3666
iment	-3667
ina▁c	-3668
inema	-3669
ingen	-3670
insul	-3671
itage	-3672
itchy	-3673
ittle	-3674
itude	-3675
iving	-3676
ivity	-3677
izens	-3678
known	-3679
lines	-3680
llers	-3681
lling	-3682
lobin	-3683
mical	-3684
neath	-3685
oleon	-3686
ollow	-3687
ompan	-3688
ompey	-3689
onent	-3690
orary	-3691
orial	-3692
otten	-3693
ot▁of	-3694
ouple	-3695
owman	-3696
pania	-3697
party	-3698
ps▁to	-3699
ranco	-3700
rants	-3701
rozen	-3702
rying	-3703
scape	-3704
selmi	-3705
south	-3706
state	-3707
s▁a▁m	-3708
s▁ret	-3709
s▁who	-3710
s▁why	-3711
thmus	-3712
t▁acc	-3713
t▁was	-3714
urday	-3715
urred	-3716
ustic	-3717
utely	-3718
ville	-3719
wered	-3720
▁1912	-3721
▁1916	-3722
▁1970	-3723
▁1980	-3724
▁1990	-3725
▁1991	-3726
▁2004	-3727
▁2008	-3728
▁2010	-3729
▁2015	-3730
▁2016	-3731
▁2017	-3732
▁adds	-3733
▁aged	-3734
▁agre	-3735
▁alps	-3736
▁anne	-3737
▁apul	-3738
▁arab	-3739
▁arch	-3740
▁arid	-3741
▁as▁m	-3742
▁at▁p	-3743
▁a▁br	-3744
▁balk	-3745
▁bapt	-3746
▁bass	-3747
▁belg	-3748
▁blog	-3749
▁blow	-3750
▁body	-3751
▁bran	-3752
▁budd	-3753
▁cano	-3754
▁cape	-3755
▁cast	-3756
▁chat	-3757
▁club	-3758
▁cool	-3759
▁cors	-3760
▁cred	-3761
▁crop	-3762
▁doss	-3763
▁drop	-3764
▁duke	-3765
▁dust	-3766
▁ecos	-3767
▁edge	-3768
▁edin	-3769
▁emph	-3770
▁evac	-3771
▁exch	-3772
▁expe	-3773
▁fire	-3774
▁five	-3775
▁flic	-3776
▁ford	-3777
▁fuel	-3778
▁full	-3779
▁gain	-3780
▁give	-3781
▁goal	-3782
▁grad	-3783
▁grie	-3784
▁hair	-3785
▁half	-3786
▁hall	-3787
▁harm	-3788
▁hold	-3789
▁hope	-3790
▁horm	-3791
▁hort	-3792
▁host	-3793
▁hous	-3794
▁if▁a	-3795
▁inte	-3796
▁in▁l	-3797
▁in▁v	-3798
▁is▁f	-3799
▁it▁a	-3800
▁join	-3801
▁jump	-3802
▁kept	-3803
▁knew	-3804
▁lear	-3805
▁liao	-3806
▁linc	-3807
▁live	-3808
▁lose	-3809
▁lost	-3810
▁luck	-3811
▁maya	-3812
▁mere	-3813
▁mich	-3814
▁mojm	-3815
▁mood	-3816
▁ms▁p	-3817
▁of▁h	-3818
▁of▁t	-3819
▁ones	-3820
▁on▁h	-3821
▁on▁w	-3822
▁pain	-3823
▁pebe	-3824
▁phot	-3825
▁plac	-3826
▁pope	-3827
▁priz	-3828
▁prox	-3829
▁quot	-3830
▁ramb	-3831
▁rang	-3832
▁rast	-3833
▁reco	-3834
▁repl	-3835
▁resc	-3836
▁rhet	-3837
▁rift	-3838
▁roma	-3839
▁room	-3840
▁ruin	-3841
▁safe	-3842
▁sami	-3843
▁sara	-3844
▁scri	-3845
▁seed	-3846
▁side	-3847
▁silt	-3848
▁situ	-3849
▁slav	-3850
▁stab	-3851
▁team	-3852
▁tele	-3853
▁tend	-3854
▁tina	-3855
▁to▁f	-3856
▁trix	-3857
▁unus	-3858
▁vast	-3859
▁webs	-3860
▁wide	-3861
▁wood	-3862
▁word	-3863
▁£760	-3864
aanite	-3865
abinet	-3866
aceful	-3867
age▁of	-3868
ailway	-3869
apital	-3870
arctic	-3871
argest	-3872
assing	-3873
ate▁in	-3874
ate▁to	-3875
atolog	-3876
attles	-3877
ays▁to	-3878
believ	-3879
bility	-3880
cement	-3881
chieve	-3882
commun	-3883
der▁of	-3884
ducted	-3885
ed▁and	-3886
ed▁his	-3887
ed▁its	-3888
ed▁ten	-3889
enefit	-3890
engers	-3891
entral	-3892
ession	-3893
est▁of	-3894
ferent	-3895
fortun	-3896
ge▁was	-3897
govern	-3898
ground	-3899
icient	-3900
ic▁and	-3901
idency	-3902
ied▁by	-3903
ies▁to	-3904
ighted	-3905
ightly	-3906
ilizer	-3907
illery	-3908
imited	-3909
ing▁at	-3910
ing▁is	-3911
ing▁it	-3912
ing▁on	-3913
in▁the	-3914
ipment	-3915
isfied	-3916
issues	-3917
iverse	-3918
lez▁an	-3919
liable	-3920
llment	-3921
loving	-3922
ors▁of	-3923
or▁and	-3924
otsman	-3925
ousand	-3926
red▁by	-3927
rendum	-3928
resses	-3929
retary	-3930
ricone	-3931
rights	-3932
se▁and	-3933
spaper	-3934
s▁also	-3935
s▁best	-3936
s▁from	-3937
s▁in▁k	-3938
s▁just	-3939
s▁tail	-3940
t▁hand	-3941
t▁have	-3942
urance	-3943
ursday	-3944
usical	-3945
uspect	-3946
ustria	-3947
us▁was	-3948
ved▁on	-3949
xander	-3950
▁1770,	-3951
▁1832,	-3952
▁1911,	-3953
▁1914,	-3954
▁2010,	-3955
▁2011,	-3956
▁2012,	-3957
▁2017.	-3958
▁aband	-3959
▁added	-3960
▁adopt	-3961
▁advan	-3962
▁alleg	-3963
▁and▁k	-3964
▁and▁w	-3965
▁an▁en	-3966
▁areas	-3967
▁argue	-3968
▁armed	-3969
▁as▁he	-3970
▁a▁low	-3971
▁a▁new	-3972
▁be▁no	-3973
▁burst	-3974
▁carri	-3975
▁cause	-3976
▁celeb	-3977
▁chief	-3978
▁chris	-3979
▁colle	-3980
▁color	-3981
▁costs	-3982
▁cover	-3983
▁crack	-3984
▁czech	-3985
▁david	-3986
▁delta	-3987
▁disas	-3988
▁dozen	-3989
▁elite	-3990
▁enter	-3991
▁exhib	-3992
▁faced	-3993
▁fewer	-3994
▁flock	-3995
▁flood	-3996
▁frank	-3997
▁freed	-3998
▁fresh	-3999
▁gathe	-4000
▁georg	-4001
▁geyer	-4002
▁girls	-4003
▁gonzá	-4004
▁goods	-4005
▁grade	-4006
▁grave	-4007
▁group	-4008
▁hands	-4009
▁heavy	-4010
▁hemog	-4011
▁her▁s	-4012
▁his▁s	-4013
▁india	-4014
▁is▁an	-4015
▁it▁re	-4016
▁i▁don	-4017
▁james	-4018
▁jesus	-4019
▁karel	-4020
▁klein	-4021
▁krist	-4022
▁label	-4023
▁lands	-4024
▁laugh	-4025
▁learn	-4026
▁leive	-4027
▁litre	-4028
▁lived	-4029
▁lives	-4030
▁louis	-4031
▁lunar	-4032
▁males	-4033
▁marco	-4034
▁medal	-4035
▁meiji	-4036
▁metro	-4037
▁moved	-4038
▁names	-4039
▁neigh	-4040
▁night	-4041
▁obama	-4042
▁oppos	-4043
▁oscar	-4044
▁outer	-4045
▁penal	-4046
▁photo	-4047
▁plain	-4048
▁plane	-4049
▁plent	-4050
▁ports	-4051
▁price	-4052
▁radio	-4053
▁rainy	-4054
▁rapid	-4055
▁rebel	-4056
▁recon	-4057
▁regre	-4058
▁reign	-4059
▁relax	-4060
▁remov	-4061
▁rival	-4062
▁rules	-4063
▁sahel	-4064
▁score	-4065
▁seeds	-4066
▁shake	-4067
▁shape	-4068
▁shoes	-4069
▁spart	-4070
▁spons	-4071
▁stock	-4072
▁stood	-4073
▁stopp	-4074
▁style	-4075
▁super	-4076
▁table	-4077
▁tarlo	-4078
▁texts	-4079
▁today	-4080
▁tools	-4081
▁tourn	-4082
▁tower	-4083
▁to▁br	-4084
▁to▁it	-4085
▁train	-4086
▁trave	-4087
▁trend	-4088
▁tried	-4089
▁troub	-4090
▁usage	-4091
▁valle	-4092
▁value	-4093
▁vigor	-4094
▁visit	-4095
▁wants	-4096
▁war▁b	-4097
▁waste	-4098
▁we▁ne	-4099
▁white	-4100
▁whole	-4101
▁woman	-4102
▁works	-4103
▁worth	-4104
▁write	-4105
aborate	-4106
ack▁sea	-4107
and▁and	-4108
ange▁of	-4109
ants▁in	-4110
archers	-4111
as▁with	-4112
ated▁at	-4113
ated▁by	-4114
ate▁for	-4115
athetic	-4116
beijing	-4117
berland	-4118
cenaean	-4119
ches▁in	-4120
der▁and	-4121
eastern	-4122
ed▁by▁a	-4123
ed▁down	-4124
fascist	-4125
ged▁the	-4126
holders	-4127
ication	-4128
ides▁in	-4129
ies▁are	-4130
iety▁of	-4131
igation	-4132
ilitary	-4133
ilities	-4134
illance	-4135
ing▁act	-4136
ing▁air	-4137
ing▁was	-4138
inister	-4139
ised▁to	-4140
issions	-4141
istance	-4142
istical	-4143
lied▁on	-4144
lovakia	-4145
ly▁link	-4146
mselves	-4147
ominant	-4148
omplete	-4149
ongwrit	-4150
ongyang	-4151
orcycle	-4152
ors▁are	-4153
rol▁and	-4154
s▁films	-4155
ttomans	-4156
uilding	-4157
ure▁and	-4158
western	-4159
winning	-4160
▁abbots	-4161
▁action	-4162
▁alaska	-4163
▁aldrin	-4164
▁allian	-4165
▁and▁br	-4166
▁and▁he	-4167
▁and▁so	-4168
▁and▁we	-4169
▁animal	-4170
▁annual	-4171
▁an▁app	-4172
▁assemb	-4173
▁as▁was	-4174
▁awards	-4175
▁a▁long	-4176
▁a▁more	-4177
▁a▁year	-4178
▁believ	-4179
▁brazil	-4180
▁budget	-4181
▁burial	-4182
▁caesar	-4183
▁capita	-4184
▁carlos	-4185
▁carson	-4186
▁center	-4187
▁charge	-4188
▁clothe	-4189
▁combat	-4190
▁comedy	-4191
▁coming	-4192
▁copies	-4193
▁cotton	-4194
▁crisis	-4195
▁danube	-4196
▁decade	-4197
▁decide	-4198
▁detail	-4199
▁die▁of	-4200
▁disapp	-4201
▁driver	-4202
▁effort	-4203
▁end▁of	-4204
▁enough	-4205
▁equipp	-4206
▁ethnic	-4207
▁expand	-4208
▁expert	-4209
▁extent	-4210
▁fallen	-4211
▁favour	-4212
▁florid	-4213
▁friend	-4214
▁from▁a	-4215
▁future	-4216
▁gained	-4217
▁get▁to	-4218
▁golden	-4219
▁groups	-4220
▁guitar	-4221
▁had▁to	-4222
▁hardly	-4223
▁him▁in	-4224
▁humans	-4225
▁if▁you	-4226
▁intend	-4227
▁intent	-4228
▁in▁use	-4229
▁it▁all	-4230
▁it▁for	-4231
▁i▁also	-4232
▁i▁have	-4233
▁i▁look	-4234
▁joliot	-4235
▁kadesh	-4236
▁knight	-4237
▁lamarr	-4238
▁latest	-4239
▁leaves	-4240
▁levels	-4241
▁machin	-4242
▁mailis	-4243
▁mainly	-4244
▁margin	-4245
▁meters	-4246
▁method	-4247
▁minist	-4248
▁modify	-4249
▁mostly	-4250
▁moving	-4251
▁native	-4252
▁norway	-4253
▁observ	-4254
▁oceans	-4255
▁of▁car	-4256
▁of▁deb	-4257
▁of▁pre	-4258
▁of▁two	-4259
▁one▁in	-4260
▁on▁its	-4261
▁on▁one	-4262
▁opened	-4263
▁opport	-4264
▁option	-4265
▁output	-4266
▁out▁to	-4267
▁over▁a	-4268
▁parade	-4269
▁philip	-4270
▁phones	-4271
▁pilots	-4272
▁played	-4273
▁points	-4274
▁policy	-4275
▁prayer	-4276
▁punish	-4277
▁put▁on	-4278
▁raised	-4279
▁reagan	-4280
▁reduce	-4281
▁regist	-4282
▁remove	-4283
▁rivers	-4284
▁romans	-4285
▁sahara	-4286
▁season	-4287
▁seeing	-4288
▁seldom	-4289
▁set▁up	-4290
▁sevent	-4291
▁sicily	-4292
▁simple	-4293
▁spared	-4294
▁starts	-4295
▁stated	-4296
▁strain	-4297
▁studio	-4298
▁survey	-4299
▁talent	-4300
▁that▁o	-4301
▁the▁ed	-4302
▁the▁ph	-4303
▁the▁sm	-4304
▁the▁so	-4305
▁thomas	-4306
▁though	-4307
▁thrown	-4308
▁to▁ent	-4309
▁to▁see	-4310
▁to▁sur	-4311
▁tracks	-4312
▁twenty	-4313
▁unlike	-4314
▁verbal	-4315
▁victor	-4316
▁vision	-4317
▁von▁be	-4318
▁waters	-4319
▁when▁i	-4320
▁with▁b	-4321
▁yet▁to	-4322
▁zodiac	-4323
appropri	-4324
ated▁the	-4325
ation▁at	-4326
caucasus	-4327
domestic	-4328
ed▁appro	-4329
ed▁a▁new	-4330
ed▁below	-4331
electric	-4332
ensation	-4333
erred▁to	-4334
essional	-4335
hip▁that	-4336
historic	-4337
ing▁from	-4338
ing▁in▁a	-4339
ing▁this	-4340
isations	-4341
ised▁the	-4342
itecture	-4343
levision	-4344
ly▁after	-4345
mblances	-4346
minister	-4347
ollowing	-4348
onze▁age	-4349
orms▁are	-4350
ption▁of	-4351
reaching	-4352
rounding	-4353
secution	-4354
t▁handle	-4355
ure▁that	-4356
us▁found	-4357
▁academy	-4358
▁accused	-4359
▁actions	-4360
▁airline	-4361
▁alvarez	-4362
▁analyst	-4363
▁and▁bre	-4364
▁and▁can	-4365
▁and▁had	-4366
▁and▁now	-4367
▁anselmi	-4368
▁answers	-4369
▁anticip	-4370
▁an▁area	-4371
▁area▁of	-4372
▁are▁not	-4373
▁as▁a▁st	-4374
▁attempt	-4375
▁at▁best	-4376
▁at▁each	-4377
▁at▁punt	-4378
▁at▁that	-4379
▁a▁celeb	-4380
▁a▁small	-4381
▁beijing	-4382
▁being▁a	-4383
▁believe	-4384
▁billion	-4385
▁but▁his	-4386
▁cabinet	-4387
▁caution	-4388
▁cavalry	-4389
▁chapels	-4390
▁collect	-4391
▁comfort	-4392
▁complet	-4393
▁concept	-4394
▁concert	-4395
▁consequ	-4396
▁consult	-4397
▁contest	-4398
▁context	-4399
▁continu	-4400
▁decades	-4401
▁decided	-4402
▁deposit	-4403
▁died▁in	-4404
▁dismiss	-4405
▁diverse	-4406
▁dust▁st	-4407
▁edition	-4408
▁equally	-4409
▁erdogan	-4410
▁everyth	-4411
▁experts	-4412
▁federal	-4413
▁finnish	-4414
▁fishing	-4415
▁forgone	-4416
▁for▁his	-4417
▁for▁now	-4418
▁francis	-4419
▁from▁sc	-4420
▁glasgow	-4421
▁gravity	-4422
▁grew▁up	-4423
▁have▁an	-4424
▁healthy	-4425
▁helping	-4426
▁he▁then	-4427
▁he▁told	-4428
▁he▁work	-4429
▁holiday	-4430
▁housing	-4431
▁idea▁of	-4432
▁if▁they	-4433
▁implied	-4434
▁include	-4435
▁invalid	-4436
▁isthmus	-4437
▁is▁best	-4438
▁is▁only	-4439
▁its▁own	-4440
▁jutting	-4441
▁kingdom	-4442
▁labeouf	-4443
▁lack▁of	-4444
▁law▁and	-4445
▁leaders	-4446
▁led▁the	-4447
▁legally	-4448
▁letters	-4449
▁lincoln	-4450
▁lowland	-4451
▁marched	-4452
▁markets	-4453
▁married	-4454
▁measure	-4455
▁message	-4456
▁michael	-4457
▁mineral	-4458
▁minutes	-4459
▁most▁of	-4460
▁ms▁pugh	-4461
▁must▁be	-4462
▁nicolai	-4463
▁nothing	-4464
▁not▁all	-4465
▁obvious	-4466
▁offered	-4467
▁of▁view	-4468
▁old▁age	-4469
▁on▁this	-4470
▁opinion	-4471
▁organiz	-4472
▁overall	-4473
▁pacific	-4474
▁parties	-4475
▁portion	-4476
▁predict	-4477
▁premium	-4478
▁purpose	-4479
▁quickly	-4480
▁radical	-4481
▁receive	-4482
▁refused	-4483
▁retreat	-4484
▁savings	-4485
▁secured	-4486
▁service	-4487
▁settled	-4488
▁she▁was	-4489
▁sighted	-4490
▁sitting	-4491
▁skilled	-4492
▁species	-4493
▁spotify	-4494
▁starlin	-4495
▁stephen	-4496
▁studied	-4497
▁succeed	-4498
▁surgery	-4499
▁suspend	-4500
▁swedish	-4501
▁teacher	-4502
▁that▁is	-4503
▁that▁no	-4504
▁that▁ro	-4505
▁theater	-4506
▁they▁st	-4507
▁the▁air	-4508
▁the▁dis	-4509
▁the▁end	-4510
▁the▁ess	-4511
▁the▁gop	-4512
▁the▁ind	-4513
▁the▁man	-4514
▁the▁mon	-4515
▁the▁mor	-4516
▁the▁pre	-4517
▁the▁pro	-4518
▁the▁sur	-4519
▁the▁top	-4520
▁the▁usa	-4521
▁thunder	-4522
▁to▁help	-4523
▁to▁keep	-4524
▁to▁make	-4525
▁traffic	-4526
▁ukraine	-4527
▁use▁the	-4528
▁visited	-4529
▁volunte	-4530
▁was▁not	-4531
▁was▁now	-4532
▁we▁must	-4533
▁what▁he	-4534
▁while▁a	-4535
▁who▁can	-4536
▁who▁has	-4537
▁who▁was	-4538
▁william	-4539
▁with▁an	-4540
ated▁when	-4541
ationists	-4542
ation▁and	-4543
ative▁and	-4544
book▁post	-4545
ed▁at▁the	-4546
enditures	-4547
ertilizer	-4548
ferential	-4549
governing	-4550
ic▁system	-4551
ides▁over	-4552
ighthouse	-4553
ing▁about	-4554
ists▁were	-4555
lez▁anaya	-4556
ly▁to▁the	-4557
opulation	-4558
s▁and▁the	-4559
ters▁like	-4560
▁accepted	-4561
▁accompan	-4562
▁ambition	-4563
▁americas	-4564
▁and▁fell	-4565
▁and▁more	-4566
▁and▁then	-4567
▁and▁took	-4568
▁and▁were	-4569
▁and▁what	-4570
▁apply▁to	-4571
▁artistic	-4572
▁as▁early	-4573
▁attempts	-4574
▁attend▁a	-4575
▁aviation	-4576
▁a▁couple	-4577
▁a▁friend	-4578
▁a▁little	-4579
▁behavior	-4580
▁believes	-4581
▁boundary	-4582
▁breaking	-4583
▁building	-4584
▁burgoyne	-4585
▁cameroun	-4586
▁canadian	-4587
▁can▁only	-4588
▁captured	-4589
▁catalano	-4590
▁caused▁a	-4591
▁centered	-4592
▁chemical	-4593
▁citizens	-4594
▁colonial	-4595
▁combined	-4596
▁contamin	-4597
▁cultures	-4598
▁defenses	-4599
▁demonstr	-4600
▁document	-4601
▁domestic	-4602
▁dominant	-4603
▁earnings	-4604
▁educated	-4605
▁emphasis	-4606
▁enrolled	-4607
▁entirely	-4608
▁equal▁to	-4609
▁everyone	-4610
▁evidence	-4611
▁examples	-4612
▁expelled	-4613
▁features	-4614
▁film▁was	-4615
▁finished	-4616
▁gathered	-4617
▁governor	-4618
▁headquar	-4619
▁heritage	-4620
▁he▁chose	-4621
▁he▁could	-4622
▁hormonal	-4623
▁humanity	-4624
▁incident	-4625
▁included	-4626
▁includes	-4627
▁influenc	-4628
▁interior	-4629
▁investor	-4630
▁involves	-4631
▁in▁grade	-4632
▁in▁north	-4633
▁in▁paris	-4634
▁in▁the▁g	-4635
▁it▁is▁an	-4636
▁judicial	-4637
▁kings▁of	-4638
▁learning	-4639
▁left▁her	-4640
▁like▁the	-4641
▁literary	-4642
▁majority	-4643
▁marketpl	-4644
▁measures	-4645
▁medicine	-4646
▁mountain	-4647
▁music▁is	-4648
▁napoleon	-4649
▁need▁for	-4650
▁not▁only	-4651
▁numerous	-4652
▁nutrient	-4653
▁of▁about	-4654
▁of▁immig	-4655
▁of▁lower	-4656
▁of▁power	-4657
▁of▁roman	-4658
▁on▁april	-4659
▁on▁their	-4660
▁overseas	-4661
▁particip	-4662
▁per▁year	-4663
▁petition	-4664
▁pictures	-4665
▁platform	-4666
▁possible	-4667
▁prior▁to	-4668
▁proposed	-4669
▁provided	-4670
▁publicly	-4671
▁ramesses	-4672
▁reaction	-4673
▁returned	-4674
▁rhetoric	-4675
▁saturday	-4676
▁scotsman	-4677
▁separate	-4678
▁services	-4679
▁she▁said	-4680
▁slightly	-4681
▁speakers	-4682
▁starting	-4683
▁steadily	-4684
▁struggle	-4685
▁surprise	-4686
▁swearing	-4687
▁terms▁of	-4688
▁that▁its	-4689
▁there▁is	-4690
▁they▁can	-4691
▁the▁alps	-4692
▁the▁area	-4693
▁the▁balk	-4694
▁the▁bank	-4695
▁the▁cost	-4696
▁the▁dest	-4697
▁the▁good	-4698
▁the▁high	-4699
▁the▁lord	-4700
▁the▁name	-4701
▁the▁only	-4702
▁the▁past	-4703
▁the▁ship	-4704
▁the▁show	-4705
▁the▁site	-4706
▁this▁has	-4707
▁this▁mag	-4708
▁thousand	-4709
▁thursday	-4710
▁took▁adv	-4711
▁to▁cross	-4712
▁to▁their	-4713
▁tried▁to	-4714
▁trips▁to	-4715
▁two▁week	-4716
▁vote▁was	-4717
▁watch▁it	-4718
▁way▁into	-4719
▁what▁are	-4720
▁what▁she	-4721
▁which▁he	-4722
▁who▁were	-4723
▁with▁her	-4724
▁year▁old	-4725
ary▁school	-4726
ation▁of▁a	-4727
believable	-4728
ed▁because	-4729
ed▁to▁keep	-4730
ers▁in▁the	-4731
ing▁period	-4732
ive▁voting	-4733
oretically	-4734
s▁on▁their	-4735
vention▁is	-4736
▁about▁her	-4737
▁after▁all	-4738
▁after▁his	-4739
▁alexander	-4740
▁americans	-4741
▁and▁a▁new	-4742
▁and▁bonus	-4743
▁and▁every	-4744
▁and▁urban	-4745
▁announced	-4746
▁antarctic	-4747
▁artillery	-4748
▁battle▁in	-4749
▁between▁s	-4750
▁broke▁out	-4751
▁but▁it▁is	-4752
▁came▁as▁a	-4753
▁candidate	-4754
▁cape▁town	-4755
▁caribbean	-4756
▁challenge	-4757
▁change▁in	-4758
▁character	-4759
▁coalition	-4760
▁commander	-4761
▁community	-4762
▁completed	-4763
▁conducted	-4764
▁confident	-4765
▁construct	-4766
▁currently	-4767
▁deal▁with	-4768
▁depend▁on	-4769
▁described	-4770
▁directors	-4771
▁discontin	-4772
▁dominance	-4773
▁dominated	-4774
▁dozens▁of	-4775
▁ecosystem	-4776
▁edinburgh	-4777
▁elaborate	-4778
▁encourage	-4779
▁endurance	-4780
▁equipment	-4781
▁estimates	-4782
▁euros▁per	-4783
▁exception	-4784
▁executive	-4785
▁forgotten	-4786
▁icelandic	-4787
▁in▁theory	-4788
▁is▁expect	-4789
▁is▁in▁the	-4790
▁just▁over	-4791
▁landscape	-4792
▁languages	-4793
▁last▁year	-4794
▁lawmakers	-4795
▁lead▁to▁a	-4796
▁liberties	-4797
▁likely▁to	-4798
▁lobbyists	-4799
▁machinery	-4800
▁morricone	-4801
▁mycenaean	-4802
▁neighbour	-4803
▁not▁to▁be	-4804
▁of▁france	-4805
▁of▁terror	-4806
▁opium▁war	-4807
▁otherwise	-4808
▁plenty▁of	-4809
▁practices	-4810
▁primarily	-4811
▁privately	-4812
▁programme	-4813
▁provision	-4814
▁said▁that	-4815
▁sanctions	-4816
▁something	-4817
▁source▁of	-4818
▁structure	-4819
▁technique	-4820
▁they▁will	-4821
▁the▁dress	-4822
▁the▁exact	-4823
▁the▁found	-4824
▁the▁latin	-4825
▁the▁sahel	-4826
▁the▁south	-4827
▁the▁study	-4828
▁the▁treat	-4829
▁this▁disc	-4830
▁threat▁of	-4831
▁to▁be▁the	-4832
▁to▁have▁a	-4833
▁to▁modern	-4834
▁to▁remove	-4835
▁trade▁and	-4836
▁treaty▁of	-4837
▁using▁the	-4838
▁wanted▁to	-4839
▁was▁built	-4840
▁was▁often	-4841
▁when▁they	-4842
▁which▁can	-4843
▁which▁had	-4844
▁with▁many	-4845
▁with▁that	-4846
▁wonderful	-4847
▁years▁ago	-4848
ed▁by▁their	-4849
ed▁to▁about	-4850
fortunately	-4851
ive▁defence	-4852
▁abbotsford	-4853
▁ability▁to	-4854
▁afterwards	-4855
▁among▁them	-4856
▁and▁the▁ph	-4857
▁as▁a▁local	-4858
▁australian	-4859
▁businesses	-4860
▁car▁of▁the	-4861
▁characters	-4862
▁climatolog	-4863
▁commission	-4864
▁compromise	-4865
▁connection	-4866
▁contains▁a	-4867
▁council▁of	-4868
▁demand▁for	-4869
▁democratic	-4870
▁discovered	-4871
▁dynasty▁in	-4872
▁effects▁on	-4873
▁empathetic	-4874
▁end▁of▁the	-4875
▁enrollment	-4876
▁evacuation	-4877
▁experiment	-4878
▁explaining	-4879
▁frequently	-4880
▁george▁was	-4881
▁given▁name	-4882
▁golf▁tourn	-4883
▁grown▁from	-4884
▁guidelines	-4885
▁have▁taken	-4886
▁have▁to▁be	-4887
▁helping▁to	-4888
▁helps▁with	-4889
▁hemoglobin	-4890
▁historians	-4891
▁incredible	-4892
▁invitation	-4893
▁in▁january	-4894
▁in▁the▁war	-4895
▁last▁month	-4896
▁leive▁said	-4897
▁literature	-4898
▁macedonian	-4899
▁management	-4900
▁markets▁in	-4901
▁meaningful	-4902
▁motorcycle	-4903
▁of▁albania	-4904
▁of▁capital	-4905
▁of▁the▁war	-4906
▁one▁of▁her	-4907
▁on▁several	-4908
▁on▁tuesday	-4909
▁originally	-4910
▁passengers	-4911
▁per▁capita	-4912
▁previously	-4913
▁publishing	-4914
▁reason▁why	-4915
▁referendum	-4916
▁released▁a	-4917
▁reportedly	-4918
▁resistance	-4919
▁scientific	-4920
▁should▁not	-4921
▁smartphone	-4922
▁socialists	-4923
▁surpassing	-4924
▁these▁were	-4925
▁the▁border	-4926
▁the▁cities	-4927
▁the▁german	-4928
▁the▁latest	-4929
▁the▁living	-4930
▁the▁second	-4931
▁the▁social	-4932
▁the▁system	-4933
▁to▁survive	-4934
▁to▁the▁man	-4935
▁tumour▁dna	-4936
▁two▁of▁the	-4937
▁underneath	-4938
▁use▁of▁the	-4939
▁variety▁of	-4940
▁version▁of	-4941
▁vigorously	-4942
▁was▁releas	-4943
▁when▁their	-4944
▁who▁became	-4945
▁winterkorn	-4946
▁with▁the▁l	-4947
ia▁and▁china	-4948
ly▁linked▁to	-4949
s▁high▁court	-4950
ydroelectric	-4951
▁alternative	-4952
▁and▁richard	-4953
▁and▁the▁app	-4954
▁appeared▁in	-4955
▁as▁early▁as	-4956
▁authorities	-4957
▁back▁on▁the	-4958
▁became▁more	-4959
▁between▁the	-4960
▁chance▁of▁a	-4961
▁city▁states	-4962
▁communities	-4963
▁composition	-4964
▁emperor▁and	-4965
▁exchange▁of	-4966
▁fulfill▁the	-4967
▁furthermore	-4968
▁growth▁rate	-4969
▁his▁brother	-4970
▁intended▁to	-4971
▁investments	-4972
▁in▁a▁recent	-4973
▁in▁november	-4974
▁it▁would▁be	-4975
▁leaving▁the	-4976
▁legislative	-4977
▁mailis▁said	-4978
▁male▁second	-4979
▁news▁of▁the	-4980
▁of▁children	-4981
▁of▁european	-4982
▁of▁his▁life	-4983
▁of▁his▁pres	-4984
▁of▁national	-4985
▁of▁the▁city	-4986
▁of▁the▁qing	-4987
▁opportunity	-4988
▁police▁in▁b	-4989
▁possible▁to	-4990
▁potentially	-4991
▁predominant	-4992
▁prehistoric	-4993
▁progressive	-4994
▁researchers	-4995
▁resulted▁in	-4996
▁some▁extent	-4997
▁sponsorship	-4998
▁students▁at	-4999
▁surrendered	-5000
▁surrounding	-5001
▁temperament	-5002
▁that▁can▁be	-5003
▁that▁of▁the	-5004
▁the▁capital	-5005
▁the▁central	-5006
▁the▁current	-5007
▁the▁maximum	-5008
▁the▁russian	-5009
▁the▁spanish	-5010
▁the▁suspect	-5011
▁the▁turkish	-5012
▁thinking▁of	-5013
▁time▁in▁the	-5014
▁to▁business	-5015
▁underground	-5016
▁was▁able▁to	-5017
▁went▁around	-5018
▁worked▁well	-5019
▁you▁have▁to	-5020
ations▁of▁the	-5021
ation▁for▁the	-5022
uation▁of▁the	-5023
▁already▁been	-5024
▁and▁economic	-5025
▁and▁foremost	-5026
▁at▁that▁time	-5027
▁building▁the	-5028
▁by▁this▁time	-5029
▁charged▁with	-5030
▁close▁to▁the	-5031
▁consequences	-5032
▁early▁voting	-5033
▁election▁day	-5034
▁expenditures	-5035
▁explained▁to	-5036
▁had▁returned	-5037
▁has▁received	-5038
▁have▁decided	-5039
▁increasingly	-5040
▁in▁the▁north	-5041
▁in▁the▁world	-5042
▁journey▁time	-5043
▁not▁everyone	-5044
▁of▁the▁first	-5045
▁of▁the▁party	-5046
▁of▁the▁power	-5047
▁of▁the▁river	-5048
▁of▁the▁roman	-5049
▁other▁people	-5050
▁presidential	-5051
▁professional	-5052
▁record▁label	-5053
▁reducing▁the	-5054
▁resemblances	-5055
▁respectively	-5056
▁social▁media	-5057
▁south▁africa	-5058
▁south▁of▁the	-5059
▁surveillance	-5060
▁that▁had▁not	-5061
▁the▁canadian	-5062
▁the▁consumer	-5063
▁the▁daughter	-5064
▁the▁last▁two	-5065
▁the▁military	-5066
▁the▁ottomans	-5067
▁the▁platform	-5068
▁the▁southern	-5069
▁thirty▁years	-5070
▁this▁morning	-5071
▁this▁will▁be	-5072
▁thutmose▁iii	-5073
▁tina▁anselmi	-5074
▁to▁the▁north	-5075
▁was▁defeated	-5076
▁was▁proclaim	-5077
▁was▁the▁last	-5078
▁who▁had▁been	-5079
ing▁during▁the	-5080
ly▁established	-5081
▁also▁received	-5082
▁and▁they▁were	-5083
▁approximately	-5084
▁being▁able▁to	-5085
▁belong▁to▁the	-5086
▁companies▁are	-5087
▁contraception	-5088
▁contributions	-5089
▁could▁lead▁to	-5090
▁emperor▁meiji	-5091
▁entertainment	-5092
▁environmental	-5093
▁equipped▁with	-5094
▁facebook▁post	-5095
▁for▁those▁who	-5096
▁had▁been▁seen	-5097
▁he▁worked▁for	-5098
▁in▁the▁middle	-5099
▁in▁the▁region	-5100
▁in▁the▁summer	-5101
▁it▁contains▁a	-5102
▁male▁hormonal	-5103
▁many▁of▁these	-5104
▁marco▁antonio	-5105
▁more▁and▁more	-5106
▁national▁park	-5107
▁over▁the▁past	-5108
▁point▁of▁view	-5109
▁premium▁bonds	-5110
▁presides▁over	-5111
▁revealed▁that	-5112
▁shortly▁after	-5113
▁south▁america	-5114
▁suggests▁that	-5115
▁that▁it▁would	-5116
▁the▁following	-5117
▁took▁place▁in	-5118
▁university▁of	-5119
▁where▁she▁has	-5120
▁working▁hours	-5121
ed▁into▁the▁air	-5122
▁allowed▁her▁to	-5123
▁also▁including	-5124
▁and▁australian	-5125
▁and▁what▁about	-5126
▁as▁part▁of▁the	-5127
▁classification	-5128
▁collaborations	-5129
▁die▁of▁old▁age	-5130
▁gonzález▁anaya	-5131
▁identified▁the	-5132
▁lowland▁europe	-5133
▁members▁of▁the	-5134
▁of▁development	-5135
▁on▁the▁subject	-5136
▁parts▁of▁lower	-5137
▁portion▁of▁the	-5138
▁public▁opinion	-5139
▁represented▁in	-5140
▁some▁countries	-5141
▁starred▁in▁the	-5142
▁there▁are▁many	-5143
▁the▁bogd▁khaan	-5144
▁the▁industrial	-5145
▁the▁population	-5146
▁throughout▁the	-5147
▁took▁advantage	-5148
▁which▁had▁been	-5149
▁workplace▁chat	-5150
ferential▁access	-5151
▁began▁to▁appear	-5152
▁being▁interview	-5153
▁developments▁in	-5154
▁during▁the▁qing	-5155
▁euros▁per▁litre	-5156
▁golf▁tournament	-5157
▁had▁significant	-5158
▁of▁the▁conflict	-5159
▁of▁the▁republic	-5160
▁performance▁pay	-5161
▁the▁destruction	-5162
▁the▁majority▁of	-5163
▁two▁years▁later	-5164
uvi	-5165
-201	-5166
ecel	-5167
feux	-5168
hoth	-5169
prep	-5170
sati	-5171
vada	-5172
▁53%	-5173
▁90-	-5174
▁zex	-5175
-2014	-5176
-£19,	-5177
akhon	-5178
ariri	-5179
a▁del	-5180
a▁pel	-5181
break	-5182
celle	-5183
chatk	-5184
cript	-5185
deten	-5186
efeux	-5187
ez▁is	-5188
habit	-5189
ie▁ze	-5190
ircum	-5191
khoth	-5192
nesty	-5193
oyono	-5194
rexit	-5195
rique	-5196
rises	-5197
sened	-5198
treal	-5199
-10	-5200
.5-	-5201
fcs	-5202
103.	-5203
94),	-5204
94).	-5205
glas	-5206
glom	-5207
lyde	-5208
ummy	-5209
▁(32	-5210
▁56%	-5211
▁70%	-5212
103.7	-5213
30-10	-5214
after	-5215
afton	-5216
frast	-5217
front	-5218
super	-5219
uxury	-5220
▁(328	-5221
▁1.5-	-5222
▁1200	-5223
▁15.5	-5224
▁16,5	-5225
▁1632	-5226
▁1858	-5227
▁1904	-5228
▁cutt	-5229
▁hfcs	-5230
▁hono	-5231
▁huge	-5232
▁khit	-5233
▁lyve	-5234
▁pupp	-5235
▁pyrr	-5236
▁rasa	-5237
▁roof	-5238
▁sixt	-5239
▁suez	-5240
▁tsar	-5241
-£19,9	-5242
.30-10	-5243
ammers	-5244
apchat	-5245
a▁dati	-5246
a▁rasa	-5247
banded	-5248
bishop	-5249
but▁it	-5250
cinema	-5251
ctonic	-5252
degree	-5253
die▁ze	-5254
ecelia	-5255
effrey	-5256
enseth	-5257
eremon	-5258
er▁isn	-5259
franco	-5260
glomer	-5261
ias▁is	-5262
iforms	-5263
imagin	-5264
ixties	-5265
lassic	-5266
levitt	-5267
osthum	-5268
ouglas	-5269
payers	-5270
person	-5271
ranted	-5272
rogant	-5273
s▁dark	-5274
s▁nude	-5275
tified	-5276
titude	-5277
uctant	-5278
usalem	-5279
usband	-5280
uticle	-5281
warmer	-5282
▁1075.	-5283
▁1519,	-5284
▁1563,	-5285
▁1566,	-5286
▁1856,	-5287
▁1879,	-5288
▁1961,	-5289
▁annex	-5290
▁bouch	-5291
▁canoe	-5292
▁chaot	-5293
▁clean	-5294
▁fifte	-5295
▁fifty	-5296
▁fireb	-5297
▁flick	-5298
▁focus	-5299
▁blown	-5300
▁gerry	-5301
▁gradu	-5302
▁greco	-5303
▁i▁ask	-5304
▁jimmy	-5305
▁jokow	-5306
▁keira	-5307
▁lenno	-5308
▁luiss	-5309
▁mandl	-5310
▁masse	-5311
▁megab	-5312
▁osbor	-5313
▁piggy	-5314
▁proof	-5315
▁pupae	-5316
▁pyrrh	-5317
▁ran▁a	-5318
▁rehab	-5319
▁robot	-5320
▁safeg	-5321
▁safer	-5322
▁safet	-5323
▁santa	-5324
▁shopp	-5325
▁squad	-5326
▁tesco	-5327
▁trees	-5328
▁types	-5329
▁unnot	-5330
▁woods	-5331
-2014▁—	-5332
1-£19,9	-5333
6.30-10	-5334
akhalin	-5335
al▁stab	-5336
ameroon	-5337
an▁host	-5338
apse▁of	-5339
assonne	-5340
a▁dream	-5341
berlain	-5342
cessary	-5343
cessive	-5344
ctorial	-5345
dest▁of	-5346
ed▁cuba	-5347
ed▁wang	-5348
enda▁to	-5349
ergeron	-5350
ethical	-5351
ew▁ruin	-5352
geronim	-5353
ge▁of▁t	-5354
gregate	-5355
hitting	-5356
ibingen	-5357
icle▁by	-5358
inguish	-5359
ing▁mas	-5360
ircumst	-5361
ise▁lev	-5362
itchy▁o	-5363
ive▁ded	-5364
jeffrey	-5365
khothai	-5366
lies▁to	-5367
limited	-5368
mate▁in	-5369
ma▁tend	-5370
ny▁is▁a	-5371
ocus▁on	-5372
one▁bas	-5373
onicles	-5374
orb▁and	-5375
ores▁by	-5376
or▁luck	-5377
over▁of	-5378
ow▁bran	-5379
rospect	-5380
se▁hall	-5381
sixties	-5382
stronom	-5383
superhe	-5384
s▁fleet	-5385
s▁offic	-5386
s▁retro	-5387
s▁rules	-5388
tresses	-5389
t▁accur	-5390
ul▁bass	-5391
unglass	-5392
usal▁as	-5393
uscript	-5394
wrights	-5395
ya▁knew	-5396
y▁added	-5397
y▁fault	-5398
▁1794),	-5399
▁adults	-5400
▁alpine	-5401
▁and▁tv	-5402
▁anglic	-5403
▁apulia	-5404
▁atmosp	-5405
▁a▁brid	-5406
▁babies	-5407
▁barros	-5408
▁bluish	-5409
▁branch	-5410
▁canada	-5411
▁cannot	-5412
▁chandl	-5413
▁cowrit	-5414
▁crop▁f	-5415
▁darius	-5416
▁debris	-5417
▁deduct	-5418
▁deplet	-5419
▁extrav	-5420
▁female	-5421
▁ford▁t	-5422
▁half▁a	-5423
▁harley	-5424
▁horton	-5425
▁if▁a▁t	-5426
▁integr	-5427
▁in▁vat	-5428
▁is▁fac	-5429
▁i▁knew	-5430
▁johnny	-5431
▁joined	-5432
▁join▁a	-5433
▁lennox	-5434
▁logist	-5435
▁madrid	-5436
▁mcgreg	-5437
▁merely	-5438
▁milice	-5439
▁nevada	-5440
▁oblast	-5441
▁on▁wed	-5442
▁or▁cow	-5443
▁pompey	-5444
▁proxim	-5445
▁rambow	-5446
▁ranges	-5447
▁ran▁at	-5448
▁rastiz	-5449
▁refurb	-5450
▁replac	-5451
▁rescue	-5452
▁rustic	-5453
▁sami▁d	-5454
▁serena	-5455
▁skerry	-5456
▁slavic	-5457
▁sparta	-5458
▁square	-5459
▁stalin	-5460
▁stipul	-5461
▁stores	-5462
▁stuffy	-5463
▁tablet	-5464
▁telegr	-5465
▁valley	-5466
▁vastly	-5467
▁via▁er	-5468
▁websit	-5469
▁wholes	-5470
▁wooden	-5471
1-£19,99	-5472
aces▁new	-5473
ace▁kept	-5474
ackleton	-5475
after▁an	-5476
al▁penal	-5477
al▁stabb	-5478
ammatory	-5479
ansfield	-5480
archy▁bl	-5481
ashville	-5482
atisfied	-5483
awn▁from	-5484
azus▁was	-5485
a▁oblast	-5486
but▁arch	-5487
cassonne	-5488
chieve▁a	-5489
communal	-5490
communic	-5491
cription	-5492
ed▁an▁en	-5493
ed▁chris	-5494
ed▁herzl	-5495
ed▁keira	-5496
emporary	-5497
en▁and▁k	-5498
ers▁in▁l	-5499
▁duffy	-5500
ertified	-5501
erusalem	-5502
er▁chris	-5503
geronimo	-5504
going▁ir	-5505
humously	-5506
ida▁dati	-5507
ina▁circ	-5508
iped▁ten	-5509
is▁as▁he	-5510
itude▁of	-5511
las▁with	-5512
ndar▁war	-5513
nn▁style	-5514
ock▁of▁h	-5515
oenician	-5516
old▁lost	-5517
oma▁is▁a	-5518
orcement	-5519
os▁enter	-5520
oured▁by	-5521
pania▁is	-5522
peaceful	-5523
pered▁by	-5524
porating	-5525
prepared	-5526
rants▁or	-5527
reasurer	-5528
reliable	-5529
renville	-5530
re▁price	-5531
rogative	-5532
satiable	-5533
sborough	-5534
s▁a▁mild	-5535
s▁oceans	-5536
s▁retain	-5537
s▁stance	-5538
tted▁his	-5539
uge▁army	-5540
ulti▁str	-5541
yongyang	-5542
y▁opened	-5543
▁(1994).	-5544
▁20,▁200	-5545
▁30,▁195	-5546
▁abandon	-5547
▁achieve	-5548
▁acts▁as	-5549
▁amnesty	-5550
▁and▁zay	-5551
▁apulian	-5552
▁as▁mare	-5553
▁as▁miss	-5554
▁as▁prox	-5555
▁atms▁in	-5556
▁austria	-5557
▁autonom	-5558
▁a▁grave	-5559
▁a▁lower	-5560
▁a▁vivid	-5561
▁balkans	-5562
▁baptism	-5563
▁basilic	-5564
▁belgian	-5565
▁belgium	-5566
▁belling	-5567
▁by▁blog	-5568
▁caustic	-5569
▁cecelia	-5570
▁ceremon	-5571
▁cleared	-5572
▁clients	-5573
▁cnn▁why	-5574
▁corslet	-5575
▁cut▁off	-5576
▁darling	-5577
▁delta▁l	-5578
▁derived	-5579
▁douglas	-5580
▁ecb▁and	-5581
▁edge▁to	-5582
▁enemy▁f	-5583
▁enrique	-5584
▁fifteen	-5585
▁firebom	-5586
▁florida	-5587
▁ford▁to	-5588
▁frankly	-5589
▁freedom	-5590
▁glitchy	-5591
▁grafton	-5592
▁hair▁is	-5593
▁hammers	-5594
▁hate▁to	-5595
▁his▁pup	-5596
▁honored	-5597
▁infrast	-5598
▁in▁phot	-5599
▁kfc	-5600
ved▁kfc	-5601
▁in▁priz	-5602
▁is▁situ	-5603
▁it▁reac	-5604
▁kept▁on	-5605
▁khitans	-5606
▁kristin	-5607
▁lin▁zex	-5608
▁live▁to	-5609
▁manipul	-5610
▁margins	-5611
▁melanes	-5612
▁melania	-5613
▁monitor	-5614
▁neglect	-5615
▁nowhere	-5616
▁of▁tort	-5617
▁one▁era	-5618
▁on▁hung	-5619
▁on▁roma	-5620
▁placing	-5621
▁plastic	-5622
▁playboy	-5623
▁postwar	-5624
▁railway	-5625
▁rapidly	-5626
▁rastisl	-5627
▁regimen	-5628
▁regrets	-5629
▁reigned	-5630
▁rescind	-5631
▁results	-5632
▁scandal	-5633
▁sellers	-5634
▁setback	-5635
▁spurred	-5636
▁stables	-5637
▁team▁us	-5638
▁the▁key	-5639
▁ties▁to	-5640
▁to▁entr	-5641
▁unnotic	-5642
▁war▁ber	-5643
▁waste▁d	-5644
▁was▁ced	-5645
▁wearing	-5646
▁wide▁sw	-5647
abilities	-5648
aced▁mojm	-5649
aches▁and	-5650
ailway▁to	-5651
al▁animal	-5652
an▁mcgreg	-5653
asa▁santa	-5654
a▁housing	-5655
based▁rad	-5656
day▁a▁new	-5657
ed▁at▁mot	-5658
ed▁at▁one	-5659
ene▁there	-5660
engths▁of	-5661
ersonator	-5662
er▁thrown	-5663
es▁to▁tax	-5664
ferred▁to	-5665
field▁and	-5666
gree▁show	-5667
hes▁retro	-5668
h▁actions	-5669
ian▁david	-5670
ian▁elite	-5671
idency▁go	-5672
ied▁mandl	-5673
ies▁karel	-5674
imated▁at	-5675
ing▁armed	-5676
ing▁a▁pig	-5677
ing▁on▁mr	-5678
in▁the▁ha	-5679
i▁is▁best	-5680
mone▁were	-5681
nic▁areas	-5682
nis▁as▁he	-5683
oenicians	-5684
oid▁robot	-5685
ongwriter	-5686
oslovakia	-5687
osthumous	-5688
oudest▁of	-5689
ounder▁of	-5690
o▁nicolai	-5691
pt▁guitar	-5692
satisfied	-5693
south▁sea	-5694
superhero	-5695
s▁also▁an	-5696
s▁also▁fu	-5697
s▁setback	-5698
s▁spurred	-5699
▁unknown	-5700
s▁program	-5701
s▁staging	-5702
s▁traffic	-5703
s▁who▁opp	-5704
ts▁observ	-5705
ufficient	-5706
ugh▁rehab	-5707
umberland	-5708
urder▁and	-5709
ursors▁of	-5710
usical▁sc	-5711
western▁s	-5712
who▁would	-5713
▁(6.30-10	-5714
▁activity	-5715
▁advanced	-5716
▁and▁brem	-5717
▁and▁brun	-5718
▁anglican	-5719
▁apse▁and	-5720
▁arab▁man	-5721
▁areas▁in	-5722
▁arid▁are	-5723
▁arrogant	-5724
▁assembly	-5725
▁as▁oppos	-5726
▁as▁proof	-5727
▁as▁usage	-5728
▁at▁night	-5729
▁a▁bridge	-5730
▁a▁celebr	-5731
▁a▁decade	-5732
▁a▁harley	-5733
▁a▁long▁s	-5734
▁a▁member	-5735
▁a▁telegr	-5736
▁baptized	-5737
▁be▁no▁ex	-5738
▁be▁troub	-5739
▁bouchard	-5740
▁but▁cool	-5741
▁but▁flic	-5742
▁by▁his▁s	-5743
▁by▁james	-5744
▁cabinetm	-5745
▁celebrat	-5746
▁clean▁up	-5747
▁code▁was	-5748
▁colorado	-5749
▁complain	-5750
▁did▁tsar	-5751
▁eibingen	-5752
▁eighteen	-5753
▁era▁over	-5754
▁even▁cnn	-5755
▁felt▁was	-5756
▁firebomb	-5757
▁for▁grie	-5758
▁for▁pain	-5759
▁from▁aid	-5760
▁georg▁re	-5761
▁gerry▁mc	-5762
▁hammersm	-5763
▁he▁gradu	-5764
▁how▁safe	-5765
▁integrat	-5766
▁invasion	-5767
▁in▁badar	-5768
▁in▁color	-5769
▁in▁india	-5770
▁is▁a▁key	-5771
▁it▁works	-5772
▁jesus▁to	-5773
▁jews▁who	-5774
▁luck▁and	-5775
▁marcelle	-5776
▁metro▁is	-5777
▁ministry	-5778
▁moreover	-5779
▁mr▁osbor	-5780
▁obama▁mo	-5781
▁occasion	-5782
▁of▁debit	-5783
▁of▁goods	-5784
▁of▁heavy	-5785
▁of▁radio	-5786
▁one▁full	-5787
▁opponent	-5788
▁or▁texts	-5789
▁outbreak	-5790
▁outgoing	-5791
▁overlook	-5792
▁patients	-5793
▁peninsul	-5794
▁plain▁is	-5795
▁plate▁in	-5796
▁politics	-5797
▁projects	-5798
▁recovery	-5799
bden	-5800
bdenum	-5801
bish▁le	-5802
lybdenum	-5803
▁from▁vw	-5804
c▁journal	-5805
s▁briefly	-5806
s▁islamic	-5807
ubbish▁le	-5808
▁constitu	-5809
▁reco▁can	-5810
▁reliable	-5811
▁roma▁tre	-5812
▁rules▁we	-5813
▁sakhalin	-5814
▁saved▁on	-5815
▁seasonal	-5816
▁sinister	-5817
▁slovakia	-5818
▁spartans	-5819
▁speak▁at	-5820
▁ss▁offic	-5821
▁table▁of	-5822
▁teachers	-5823
▁tectonic	-5824
▁the▁arab	-5825
▁the▁crav	-5826
▁the▁mupp	-5827
▁the▁noma	-5828
▁the▁soft	-5829
▁the▁vast	-5830
▁the▁word	-5831
▁thoughts	-5832
▁to▁brush	-5833
▁to▁entry	-5834
▁to▁write	-5835
▁trend▁is	-5836
▁tried▁my	-5837
▁unimagin	-5838
▁via▁eros	-5839
▁von▁bell	-5840
▁was▁mojm	-5841
▁websites	-5842
▁who▁agre	-5843
▁williams	-5844
▁woods▁by	-5845
▁worth▁it	-5846
▁year▁cum	-5847
ache▁of▁st	-5848
aded▁appro	-5849
ain▁of▁deb	-5850
akeholders	-5851
al▁basilic	-5852
al▁chapels	-5853
an▁hostage	-5854
arture▁and	-5855
atoma▁is▁a	-5856
attles▁and	-5857
ature▁priz	-5858
a▁the▁good	-5859
berlain▁pl	-5860
ced▁method	-5861
c▁centered	-5862
den▁change	-5863
ed▁sources	-5864
ed▁wang▁an	-5865
ening▁more	-5866
ensing▁was	-5867
en▁sighted	-5868
ept▁guitar	-5869
er▁chris▁p	-5870
estive▁ded	-5871
est▁talent	-5872
es▁on▁bill	-5873
et▁edition	-5874
fill▁metro	-5875
flammatory	-5876
ful▁burial	-5877
ial▁budget	-5878
ick▁comedy	-5879
icle▁by▁th	-5880
ictated▁by	-5881
ied▁alaska	-5882
igation▁to	-5883
indication	-5884
ingen▁in▁s	-5885
ing▁is▁for	-5886
ing▁on▁bre	-5887
inister▁of	-5888
in▁an▁area	-5889
ira▁island	-5890
iscaucasus	-5891
ithing▁mas	-5892
jeffrey▁de	-5893
lies▁to▁ne	-5894
loving▁and	-5895
ly▁contest	-5896
ly▁exposed	-5897
mselves▁in	-5898
orporating	-5899
irena	-5900
▁volcano	-5901
cross▁the	-5902
s▁biggest	-5903
▁incurred	-5904
ability▁to	-5905
ed▁the▁tor	-5906
ors▁of▁all	-5907
ott▁thomas	-5908
ot▁of▁very	-5909
ov▁to▁form	-5910
pic▁charge	-5911
preted▁the	-5912
que▁treaty	-5913
rew▁him▁in	-5914
rexit▁vote	-5915
ription▁of	-5916
se▁and▁det	-5917
se▁hallstr	-5918
songwriter	-5919
spaper▁art	-5920
starring▁e	-5921
starring▁j	-5922
sufficient	-5923
s▁from▁a▁b	-5924
s▁headquar	-5925
s▁just▁say	-5926
s▁landmark	-5927
s▁the▁mupp	-5928
s▁why▁they	-5929
ta▁housing	-5930
ter▁and▁he	-5931
treal▁as▁a	-5932
t▁accurate	-5933
uck▁if▁you	-5934
ure▁kadesh	-5935
ved▁on▁set	-5936
wan▁mcgreg	-5937
west▁india	-5938
y▁measures	-5939
án▁acts▁as	-5940
▁30,▁1955.	-5941
▁30,▁2015,	-5942
▁academy▁a	-5943
▁action▁to	-5944
▁alliances	-5945
▁ambitions	-5946
▁and▁safeg	-5947
▁antonio▁g	-5948
▁an▁app▁it	-5949
▁as▁mare▁n	-5950
▁as▁though	-5951
▁a▁concept	-5952
▁a▁connect	-5953
▁a▁healthy	-5954
▁a▁new▁div	-5955
▁a▁swedish	-5956
▁a▁twitter	-5957
▁a▁vivid▁n	-5958
▁back▁pain	-5959
▁be▁no▁pre	-5960
▁blog▁post	-5961
▁blunt▁inn	-5962
▁bursts▁of	-5963
▁but▁his▁p	-5964
▁canaanite	-5965
▁city▁hall	-5966
▁cleared▁d	-5967
▁club▁sing	-5968
▁collected	-5969
▁constitut	-5970
▁cowritten	-5971
▁criticism	-5972
▁crop▁fail	-5973
▁deficient	-5974
▁disapprov	-5975
▁disbanded	-5976
▁dismissal	-5977
▁dismisses	-5978
▁elite▁are	-5979
▁emissions	-5980
▁enough▁of	-5981
▁ever▁hold	-5982
▁exhibited	-5983
▁experts▁d	-5984
▁flood▁and	-5985
▁for▁griev	-5986
▁for▁her▁s	-5987
▁from▁a▁st	-5988
▁full▁moon	-5989
▁get▁to▁no	-5990
▁geyer▁was	-5991
▁gradation	-5992
▁guitarist	-5993
▁happening	-5994
▁her▁hands	-5995
▁his▁pupil	-5996
▁huge▁comp	-5997
▁into▁ruin	-5998
▁in▁a▁mood	-5999
s▁tailb	-6000
▁the▁rhs	-6001
ly▁regard	-6002
ne▁signed	-6003
▁a▁reform	-6004
▁goals▁in	-6005
▁itself▁f	-6006
▁martin▁l	-6007
▁mother▁t	-6008
▁oriented	-6009
▁promptly	-6010
▁the▁book	-6011
▁the▁boom	-6012
ace▁treaty	-6013
ent▁reveal	-6014
s▁tailbone	-6015
▁by▁the▁pe	-6016
▁in▁babies	-6017
▁in▁badarp	-6018
▁in▁norway	-6019
▁in▁prizes	-6020
▁is▁flying	-6021
▁is▁hardly	-6022
▁is▁mainly	-6023
▁is▁needed	-6024
▁is▁overse	-6025
▁is▁played	-6026
▁i▁hate▁to	-6027
▁jimmy▁car	-6028
▁kristians	-6029
▁live▁in▁l	-6030
▁living▁in	-6031
▁loved▁kfc	-6032
▁lyvet▁was	-6033
▁margin▁of	-6034
▁medal▁for	-6035
▁mlas▁with	-6036
▁more▁give	-6037
▁must▁be▁g	-6038
▁new▁ports	-6039
▁northwest	-6040
▁not▁stopp	-6041
▁no▁parade	-6042
▁of▁carang	-6043
▁of▁pompey	-6044
▁one▁crack	-6045
▁one▁night	-6046
▁one▁woman	-6047
▁on▁the▁bo	-6048
▁operators	-6049
▁option▁to	-6050
▁or▁cowboy	-6051
▁poised▁to	-6052
▁poor▁luck	-6053
▁pope▁paul	-6054
▁rastislav	-6055
▁relied▁on	-6056
▁reluctant	-6057
▁rivers▁is	-6058
▁satisfied	-6059
▁saul▁bass	-6060
▁scores▁by	-6061
▁secretary	-6062
▁seed▁sara	-6063
▁seventies	-6064
▁shake▁his	-6065
▁shared▁ag	-6066
▁she▁laugh	-6067
▁signed▁on	-6068
▁similar▁d	-6069
▁so▁disapp	-6070
▁spread▁ac	-6071
▁spread▁of	-6072
▁standards	-6073
▁starts▁up	-6074
▁stock▁fut	-6075
▁stone▁bas	-6076
▁such▁a▁bl	-6077
▁sukhothai	-6078
▁team▁tele	-6079
▁that▁oliv	-6080
▁theme▁was	-6081
▁the▁break	-6082
▁the▁clyde	-6083
▁the▁disib	-6084
▁the▁disru	-6085
▁the▁essay	-6086
▁the▁monke	-6087
▁the▁month	-6088
▁the▁morav	-6089
▁the▁phase	-6090
▁the▁photo	-6091
▁the▁pract	-6092
▁the▁radar	-6093
▁the▁rhine	-6094
▁the▁ruper	-6095
▁the▁small	-6096
▁the▁train	-6097
▁to▁bluish	-6098
▁to▁reform	-6099
▁colours	-6100
▁episode	-6101
al▁in▁its	-6102
le▁and▁it	-6103
os▁in▁his	-6104
ro▁energy	-6105
urb▁until	-6106
▁a▁common	-6107
▁distinct	-6108
▁episodes	-6109
her▁father	-6110
ist▁father	-6111
vro▁energy	-6112
▁borrowing	-6113
▁called▁it	-6114
▁desire▁to	-6115
▁emails▁or	-6116
▁for▁us▁to	-6117
▁to▁compet	-6118
▁to▁set▁up	-6119
▁to▁tackle	-6120
▁to▁the▁tv	-6121
▁to▁travel	-6122
▁travelled	-6123
▁treasurer	-6124
▁two▁girls	-6125
▁typically	-6126
▁unethical	-6127
▁unnoticed	-6128
▁urged▁the	-6129
▁value▁and	-6130
▁victorias	-6131
▁villa▁pel	-6132
▁visionary	-6133
▁von▁beust	-6134
▁voter▁isn	-6135
▁warranted	-6136
▁who▁lived	-6137
▁who▁stood	-6138
▁with▁bern	-6139
▁woman▁who	-6140
▁you▁argue	-6141
aanite▁city	-6142
able▁zodiac	-6143
achida▁dati	-6144
aff▁journal	-6145
agle▁and▁it	-6146
ality▁to▁it	-6147
al▁activity	-6148
ansas▁would	-6149
apchat▁will	-6150
apse▁of▁and	-6151
archy▁blind	-6152
ard▁who▁was	-6153
are▁changed	-6154
argest▁city	-6155
aud▁and▁bre	-6156
back▁to▁the	-6157
cassonne▁is	-6158
cent▁events	-6159
dden▁change	-6160
dingen▁in▁s	-6161
ed▁as▁shopp	-6162
ed▁attempts	-6163
ed▁at▁motoc	-6164
ed▁at▁the▁t	-6165
ed▁distinct	-6166
ed▁its▁rest	-6167
ed▁to▁write	-6168
en▁and▁kven	-6169
ep▁at▁night	-6170
ession▁ever	-6171
ession▁with	-6172
estock▁of▁h	-6173
f▁the▁coast	-6174
gers▁recent	-6175
hn▁can▁only	-6176
ia▁and▁repl	-6177
ible▁if▁you	-6178
ice▁accused	-6179
ience▁laugh	-6180
im▁composed	-6181
ina▁circuit	-6182
ine▁stories	-6183
inguishable	-6184
ing▁alvarez	-6185
ing▁it▁to▁a	-6186
ing▁of▁silt	-6187
ing▁to▁cred	-6188
ious▁colour	-6189
ir▁way▁into	-6190
ite▁of▁them	-6191
ivity▁tools	-6192
ized▁vision	-6193
leet▁in▁the	-6194
ly▁educated	-6195
ly▁influenc	-6196
ly▁introduc	-6197
ly▁regarded	-6198
mate▁in▁mar	-6199
trap	-6200
y▁video	-6201
ate▁andy	-6202
dustrial	-6203
m▁and▁co	-6204
ospitals	-6205
traps▁to	-6206
▁the▁yer	-6207
▁title▁h	-6208
ad▁and▁an	-6209
an▁allies	-6210
ble▁title	-6211
her▁voice	-6212
ized▁they	-6213
onography	-6214
quence▁of	-6215
ust▁trial	-6216
▁hospital	-6217
▁the▁suez	-6218
▁the▁yerb	-6219
▁title▁ho	-6220
▁trial▁at	-6221
▁video▁in	-6222
▁watching	-6223
fiction▁an	-6224
fiction▁is	-6225
franco▁ven	-6226
s▁captured	-6227
ulate▁andy	-6228
y▁video▁lo	-6229
▁admission	-6230
▁geography	-6231
▁obviously	-6232
▁the▁trial	-6233
▁the▁yerba	-6234
▁vague▁det	-6235
▁video▁for	-6236
ate▁and▁giv	-6237
isations▁in	-6238
ital▁affair	-6239
ment▁tariff	-6240
minister▁to	-6241
mon▁fishing	-6242
ndar▁warned	-6243
ne▁and▁brem	-6244
ole▁a▁small	-6245
onne▁region	-6246
opley▁added	-6247
out▁regimen	-6248
party▁power	-6249
reaching▁by	-6250
ree▁playboy	-6251
ret▁service	-6252
rom▁fishing	-6253
starring▁br	-6254
state▁emerg	-6255
stronomical	-6256
s▁dominance	-6257
s▁face▁kept	-6258
s▁in▁kansas	-6259
s▁in▁prayer	-6260
s▁in▁terror	-6261
s▁oceans▁by	-6262
s▁of▁beauty	-6263
s▁relations	-6264
s▁spurred▁g	-6265
s▁value▁and	-6266
s▁wonderful	-6267
tified▁city	-6268
ting▁verbal	-6269
titude▁serv	-6270
tive▁voting	-6271
ti▁who▁agre	-6272
uch▁display	-6273
uge▁army▁en	-6274
ulti▁strate	-6275
unt▁died▁in	-6276
upies▁karel	-6277
ur▁is▁a▁key	-6278
use▁and▁det	-6279
ved▁traffic	-6280
wei▁is▁best	-6281
▁absorb▁and	-6282
▁accused▁of	-6283
▁across▁the	-6284
▁airline▁ch	-6285
▁alleged▁to	-6286
▁alpine▁run	-6287
▁and▁forced	-6288
▁and▁gained	-6289
▁and▁income	-6290
▁and▁needed	-6291
▁and▁safegu	-6292
▁and▁select	-6293
▁and▁tv▁for	-6294
▁and▁walter	-6295
▁annexed▁in	-6296
▁antarctica	-6297
▁an▁open▁se	-6298
▁an▁open▁sp	-6299
ers▁via	-6300
s▁plans	-6301
▁famili	-6302
▁resolv	-6303
▁shockw	-6304
▁steady	-6305
ty▁famil	-6306
▁a▁resol	-6307
▁force▁o	-6308
▁nicolas	-6309
▁saint▁l	-6310
▁the▁yas	-6311
ing▁lobby	-6312
the▁exist	-6313
▁drinking	-6314
▁familiar	-6315
▁force▁to	-6316
▁frequent	-6317
▁has▁a▁sc	-6318
▁of▁labor	-6319
▁of▁peace	-6320
▁on▁march	-6321
▁shockwav	-6322
▁so▁it▁to	-6323
▁such▁bad	-6324
e▁proclaim	-6325
ickers▁via	-6326
ons▁resolv	-6327
s▁of▁grain	-6328
s▁plans▁to	-6329
ular▁resol	-6330
▁and▁enjoy	-6331
▁exact▁tim	-6332
▁force▁ouv	-6333
▁grain▁imp	-6334
▁had▁exist	-6335
▁has▁dropp	-6336
▁henry▁bre	-6337
▁nicolas▁s	-6338
▁of▁prepar	-6339
▁saint▁hel	-6340
▁saint▁lau	-6341
▁so▁it▁tot	-6342
▁the▁witch	-6343
ie▁in▁south	-6344
or▁of▁saint	-6345
oting▁lobby	-6346
s▁for▁final	-6347
th▁of▁march	-6348
ty▁families	-6349
▁archbishop	-6350
▁as▁a▁cause	-6351
▁as▁lack▁of	-6352
▁atmosphere	-6353
▁at▁glasgow	-6354
▁at▁the▁mor	-6355
▁autonomous	-6356
▁a▁japanese	-6357
▁a▁long▁sie	-6358
▁a▁resolver	-6359
▁bank▁tower	-6360
▁beliefs▁in	-6361
▁bellingham	-6362
▁blown▁away	-6363
▁body▁parts	-6364
▁bronze▁age	-6365
▁burst▁into	-6366
▁buttresses	-6367
▁but▁cotton	-6368
▁buy▁school	-6369
▁by▁gravity	-6370
▁by▁swedish	-6371
▁by▁the▁man	-6372
▁cabinetmak	-6373
▁canoe▁left	-6374
▁carried▁by	-6375
▁ceremonies	-6376
▁civil▁wars	-6377
▁collection	-6378
▁collectors	-6379
▁comes▁from	-6380
▁concert▁on	-6381
▁conditions	-6382
▁contracept	-6383
▁cost▁chief	-6384
▁covering▁a	-6385
▁cracked▁it	-6386
▁darling▁sl	-6387
▁data▁usage	-6388
▁deeply▁dev	-6389
▁donors▁are	-6390
▁drop▁the▁m	-6391
▁earth▁seed	-6392
▁east▁delta	-6393
▁effort▁was	-6394
▁expert▁war	-6395
▁fertilizer	-6396
▁finally▁em	-6397
▁final▁game	-6398
▁forced▁lab	-6399
▁1879.	-6400
▁an▁une	-6401
▁assume	-6402
▁births	-6403
an▁coast	-6404
arrative	-6405
cautions	-6406
es▁cross	-6407
ucrative	-6408
ul▁canal	-6409
▁birth▁c	-6410
▁capitol	-6411
▁definit	-6412
▁demonst	-6413
▁i▁chose	-6414
bul▁canal	-6415
ensorship	-6416
thouse▁to	-6417
▁alarm▁cl	-6418
▁and▁mild	-6419
▁blame▁it	-6420
▁blame▁on	-6421
▁classics	-6422
▁definite	-6423
▁of▁agric	-6424
▁to▁blame	-6425
▁we▁assum	-6426
es▁crossed	-6427
imum▁and▁m	-6428
side▁alarm	-6429
▁an▁unlike	-6430
▁canal▁and	-6431
▁discovery	-6432
▁lucrative	-6433
▁one▁doesn	-6434
▁solutions	-6435
▁was▁divid	-6436
ably▁assume	-6437
ain▁for▁his	-6438
anbul▁canal	-6439
a▁was▁divid	-6440
es▁of▁blood	-6441
rative▁purp	-6442
ussian▁army	-6443
▁alarm▁sign	-6444
▁an▁unevent	-6445
▁based▁on▁a	-6446
▁birth▁cert	-6447
▁both▁males	-6448
▁carlos▁sal	-6449
▁definitely	-6450
▁demonstrat	-6451
▁for▁integr	-6452
▁for▁sunday	-6453
▁founder▁of	-6454
▁four▁tesco	-6455
▁from▁scrit	-6456
▁generators	-6457
▁gerry▁mcne	-6458
▁give▁italy	-6459
▁gold▁medal	-6460
▁good▁reput	-6461
▁grain▁from	-6462
▁has▁yet▁to	-6463
▁have▁dropp	-6464
▁her▁energy	-6465
▁he▁kept▁on	-6466
▁he▁reigned	-6467
▁his▁pupils	-6468
▁how▁deeply	-6469
▁ideas▁with	-6470
▁immigrants	-6471
▁imported▁w	-6472
▁incredibly	-6473
▁intent▁beh	-6474
▁in▁his▁has	-6475
▁in▁law▁and	-6476
▁in▁the▁gaz	-6477
▁in▁tissues	-6478
▁is▁a▁chaot	-6479
▁is▁oversee	-6480
▁is▁used▁to	-6481
▁its▁annual	-6482
▁its▁ethnic	-6483
▁its▁simple	-6484
▁it▁all▁the	-6485
▁it▁and▁bon	-6486
▁it▁reached	-6487
▁it▁usually	-6488
▁i▁knew▁the	-6489
▁i▁think▁it	-6490
▁i▁tried▁my	-6491
▁i▁was▁just	-6492
▁job▁advert	-6493
▁joined▁nat	-6494
▁killed▁and	-6495
▁kristin▁sc	-6496
▁laying▁the	-6497
▁lenny▁is▁a	-6498
▁lighthouse	-6499
o▁soon	-6500
▁statu	-6501
▁tellt	-6502
▁walks	-6503
on▁view	-6504
tention	-6505
uo▁soon	-6506
▁shot▁a	-6507
▁soon▁d	-6508
▁thai▁a	-6509
▁view▁s	-6510
ist▁rule	-6511
ool▁to▁t	-6512
ysicians	-6513
▁a▁tellt	-6514
▁in▁trib	-6515
▁role▁in	-6516
▁rule▁of	-6517
▁statute	-6518
▁suspens	-6519
▁to▁seek	-6520
▁tribute	-6521
▁trouble	-6522
▁villain	-6523
allest▁pe	-6524
arties▁in	-6525
called▁tr	-6526
continent	-6527
earing▁ro	-6528
hibit▁the	-6529
noon▁view	-6530
per▁walks	-6531
s▁tallest	-6532
y▁was▁not	-6533
▁and▁tell	-6534
▁and▁text	-6535
▁are▁surg	-6536
▁kuo▁soon	-6537
▁radio▁at	-6538
▁rule▁out	-6539
▁soon▁das	-6540
▁statuett	-6541
▁text▁run	-6542
▁thai▁aus	-6543
▁uber▁and	-6544
▁view▁sum	-6545
bearing▁ro	-6546
chool▁to▁t	-6547
ing▁this▁h	-6548
physicians	-6549
s▁teaching	-6550
▁attention	-6551
▁indies▁in	-6552
▁in▁a▁vill	-6553
▁orders▁to	-6554
▁timelines	-6555
▁uber▁will	-6556
allest▁peak	-6557
apper▁walks	-6558
aximum▁decl	-6559
called▁true	-6560
ed▁apparent	-6561
ensive▁stat	-6562
ing▁to▁walk	-6563
ist▁rule▁in	-6564
tentionally	-6565
▁and▁a▁self	-6566
▁and▁textil	-6567
▁a▁telltale	-6568
▁had▁a▁rare	-6569
▁high▁price	-6570
▁in▁tribune	-6571
▁like▁a▁man	-6572
▁logistical	-6573
▁looking▁at	-6574
▁louis▁post	-6575
▁lunar▁date	-6576
▁major▁role	-6577
▁manuscript	-6578
▁markets▁up	-6579
▁married▁to	-6580
▁martin▁lut	-6581
▁means▁that	-6582
▁might▁harm	-6583
▁milice▁par	-6584
▁ministries	-6585
▁molybdenum	-6586
▁most▁exist	-6587
▁most▁of▁wh	-6588
▁moving▁but	-6589
▁much▁safer	-6590
▁neighbours	-6591
▁new▁talent	-6592
▁nothing▁el	-6593
▁nutrient▁v	-6594
▁obama▁mock	-6595
▁of▁ancient	-6596
▁of▁animals	-6597
▁of▁carangi	-6598
▁of▁gilding	-6599
s▁prec	-6600
▁of▁ga	-6601
▁plato	-6602
▁pursu	-6603
▁a▁prem	-6604
▁inquis	-6605
▁in▁mer	-6606
▁in▁tan	-6607
▁messen	-6608
▁of▁gem	-6609
▁of▁pan	-6610
▁past▁l	-6611
▁propag	-6612
ion▁pict	-6613
s▁precip	-6614
▁guiding	-6615
▁in▁love	-6616
▁in▁myst	-6617
▁in▁tanz	-6618
▁is▁easy	-6619
▁it▁easy	-6620
▁my▁list	-6621
▁on▁palm	-6622
▁pollack	-6623
▁pursued	-6624
▁up▁list	-6625
▁and▁june	-6626
▁guys▁not	-6627
▁his▁past	-6628
▁on▁fresh	-6629
▁opinions	-6630
▁top▁guys	-6631
▁who▁held	-6632
otion▁pict	-6633
s▁precipit	-6634
ues▁past▁l	-6635
▁also▁lose	-6636
▁a▁premier	-6637
▁happiness	-6638
▁in▁matter	-6639
▁messenian	-6640
▁of▁panama	-6641
▁pollution	-6642
▁precision	-6643
▁propagand	-6644
▁what▁happ	-6645
ion▁of▁inqu	-6646
▁bonds▁feel	-6647
▁clear▁mind	-6648
▁drawing▁up	-6649
▁first▁inqu	-6650
▁john▁of▁ga	-6651
▁lord▁north	-6652
▁mass▁ident	-6653
▁of▁glitchy	-6654
▁of▁musical	-6655
▁of▁placing	-6656
▁of▁torture	-6657
▁on▁a▁plane	-6658
▁on▁display	-6659
▁on▁hungary	-6660
▁on▁its▁beh	-6661
▁on▁its▁way	-6662
▁on▁what▁he	-6663
▁our▁diesel	-6664
▁pad▁and▁an	-6665
▁palm▁trees	-6666
▁party▁phot	-6667
▁paul▁spent	-6668
▁perhaps▁it	-6669
▁permission	-6670
▁petrol▁and	-6671
▁plains▁are	-6672
▁plans▁to▁c	-6673
▁playing▁at	-6674
▁poland▁and	-6675
▁popularity	-6676
▁possible▁w	-6677
▁preventing	-6678
▁promptly▁p	-6679
▁propaganda	-6680
▁refusal▁as	-6681
▁regardless	-6682
▁regards▁to	-6683
▁registered	-6684
▁relaxed▁in	-6685
▁remarkable	-6686
▁reports▁on	-6687
▁resides▁in	-6688
▁respect▁to	-6689
▁retrospect	-6690
▁room▁while	-6691
▁rubbish▁le	-6692
▁ruled▁they	-6693
▁says▁tarlo	-6694
▁scholars▁c	-6695
▁score▁them	-6696
▁secure▁new	-6697
▁seeing▁her	-6698
▁seems▁tail	-6699
▁talm	-6700
▁vigu	-6701
ailles	-6702
parent	-6703
s▁burg	-6704
▁arriv	-6705
▁texas	-6706
▁vigui	-6707
ases▁is	-6708
ipo▁and	-6709
ma▁talm	-6710
ora▁was	-6711
▁card▁g	-6712
▁draw▁a	-6713
▁drople	-6714
▁rename	-6715
▁venice	-6716
altering	-6717
ing▁dead	-6718
parent▁y	-6719
ument▁to	-6720
▁330,000	-6721
▁call▁it	-6722
▁case▁sc	-6723
▁done▁to	-6724
▁if▁done	-6725
▁was▁nam	-6726
agora▁was	-6727
aries▁who	-6728
ma▁talmad	-6729
sized▁car	-6730
swers▁all	-6731
s▁burgess	-6732
s▁own▁the	-6733
s▁to▁draw	-6734
▁antilles	-6735
▁a▁cotton	-6736
▁cases▁is	-6737
▁droplets	-6738
▁expenses	-6739
▁for▁dead	-6740
▁from▁ord	-6741
▁get▁away	-6742
▁mayor▁of	-6743
▁musician	-6744
▁tipo▁and	-6745
aking▁into	-6746
parent▁yum	-6747
ributor▁of	-6748
s▁expenses	-6749
▁case▁scen	-6750
▁closed▁in	-6751
▁fueled▁by	-6752
▁in▁a▁case	-6753
▁once▁done	-6754
▁the▁vigui	-6755
▁to▁draw▁a	-6756
▁to▁rename	-6757
▁very▁comb	-6758
alking▁dead	-6759
aries▁who▁h	-6760
based▁radar	-6761
ing▁the▁ren	-6762
lovakia▁and	-6763
ma▁talmadge	-6764
o▁and▁mount	-6765
s▁own▁count	-6766
s▁own▁money	-6767
▁arrival▁of	-6768
▁card▁gives	-6769
▁from▁ordin	-6770
▁new▁episod	-6771
▁politician	-6772
▁she▁laughs	-6773
▁sicily▁and	-6774
▁similar▁to	-6775
▁six▁points	-6776
▁skilled▁jo	-6777
▁stalin▁had	-6778
▁statuettes	-6779
▁streets▁or	-6780
▁subject▁to	-6781
▁submission	-6782
▁succeeding	-6783
▁surface▁is	-6784
▁surge▁of▁t	-6785
▁surrenders	-6786
▁team▁telek	-6787
▁television	-6788
▁that▁rocco	-6789
▁that▁title	-6790
▁that▁voice	-6791
▁the▁allian	-6792
▁the▁allies	-6793
▁the▁annual	-6794
▁the▁breakd	-6795
▁the▁cinema	-6796
▁the▁extens	-6797
▁the▁franco	-6798
▁the▁leaves	-6799
l▁har	-6800
▁alej	-6801
▁harv	-6802
▁inje	-6803
er▁lin	-6804
inrich	-6805
▁1839,	-6806
▁1945.	-6807
▁1952,	-6808
▁a▁wit	-6809
▁cites	-6810
▁embed	-6811
▁holly	-6812
▁injur	-6813
▁jesse	-6814
▁murph	-6815
rate▁on	-6816
sequent	-6817
s▁teach	-6818
▁absent	-6819
▁a▁wave	-6820
▁cheery	-6821
▁denied	-6822
▁devoid	-6823
▁embass	-6824
▁embedd	-6825
▁hollyw	-6826
▁le▁fig	-6827
▁murphy	-6828
▁or▁die	-6829
▁stream	-6830
earl▁har	-6831
er▁linds	-6832
e▁to▁mps	-6833
ices▁fit	-6834
s▁in▁den	-6835
▁alejand	-6836
▁at▁harv	-6837
▁denmark	-6838
▁drivers	-6839
▁embassy	-6840
▁for▁mps	-6841
▁network	-6842
▁sunrise	-6843
es▁to▁fit	-6844
inrich▁kr	-6845
▁absentee	-6846
▁fit▁that	-6847
▁got▁that	-6848
▁injuries	-6849
▁le▁figar	-6850
▁when▁nam	-6851
er▁lindsay	-6852
ugh▁murphy	-6853
▁alejandra	-6854
▁a▁wave▁of	-6855
▁a▁witness	-6856
▁cites▁new	-6857
▁hollywood	-6858
▁injection	-6859
▁in▁an▁ant	-6860
▁jesse▁lab	-6861
▁le▁figaro	-6862
▁pearl▁har	-6863
▁which▁las	-6864
ate▁drivers	-6865
ate▁sunrise	-6866
centrate▁on	-6867
ctions▁clos	-6868
ing▁the▁mur	-6869
s▁in▁denver	-6870
s▁teachings	-6871
▁at▁harvard	-6872
▁groundwork	-6873
▁in▁an▁anti	-6874
▁network▁in	-6875
▁of▁denmark	-6876
▁public▁fig	-6877
▁remains▁at	-6878
▁subsequent	-6879
▁the▁people	-6880
▁the▁period	-6881
▁the▁plants	-6882
▁the▁procon	-6883
▁those▁guys	-6884
▁thrace▁for	-6885
▁thunder▁on	-6886
▁too▁orient	-6887
▁to▁clients	-6888
▁to▁compete	-6889
▁to▁entrust	-6890
▁to▁fiction	-6891
▁to▁prevent	-6892
▁to▁suspend	-6893
▁twitter▁fe	-6894
▁undercover	-6895
▁unreliable	-6896
▁up▁in▁tanz	-6897
▁valley▁and	-6898
▁verbal▁dev	-6899
e▁tol	-6900
ilica	-6901
ldoms	-6902
orthy	-6903
words	-6904
zburg	-6905
▁levy	-6906
emming	-6907
ilicon	-6908
ly▁pig	-6909
ocoons	-6910
oucher	-6911
▁aquar	-6912
▁cinem	-6913
▁posit	-6914
ensburg	-6915
eworthy	-6916
e▁tolle	-6917
oint▁of	-6918
ream▁to	-6919
▁asking	-6920
▁chilly	-6921
▁deline	-6922
▁online	-6923
▁silica	-6924
earldoms	-6925
ense▁has	-6926
ming▁has	-6927
ointment	-6928
▁cocoons	-6929
▁congrat	-6930
▁farming	-6931
▁intense	-6932
▁pebe▁co	-6933
aw▁deline	-6934
body▁wait	-6935
e▁to▁asia	-6936
grated▁in	-6937
icipality	-6938
ize▁tolle	-6939
onely▁pig	-6940
oucher▁is	-6941
p▁cocoons	-6942
▁aquarium	-6943
▁dream▁to	-6944
▁forcibly	-6945
▁positive	-6946
▁possibly	-6947
▁salzburg	-6948
▁stemming	-6949
cted▁water	-6950
oint▁of▁no	-6951
▁and▁hilly	-6952
▁cinematic	-6953
▁flensburg	-6954
▁humanitar	-6955
▁passwords	-6956
▁plans▁and	-6957
burg▁empire	-6958
ly▁position	-6959
tegrated▁in	-6960
unicipality	-6961
▁how▁chilly	-6962
▁in▁silicon	-6963
▁noteworthy	-6964
▁versailles	-6965
▁villa▁pelu	-6966
▁visited▁by	-6967
▁volunteers	-6968
▁war▁berlin	-6969
▁waste▁dump	-6970
▁was▁mainly	-6971
▁was▁signed	-6972
▁was▁simple	-6973
▁we▁need▁in	-6974
▁we▁need▁to	-6975
▁what▁he▁sa	-6976
▁when▁the▁y	-6977
▁which▁trix	-6978
▁white▁male	-6979
▁wide▁swath	-6980
▁woods▁by▁e	-6981
▁would▁jump	-6982
▁would▁lose	-6983
▁young▁cors	-6984
actions▁clos	-6985
ades▁include	-6986
age▁projects	-6987
ain▁reaction	-6988
altering▁fol	-6989
al▁animal▁is	-6990
al▁change▁in	-6991
al▁of▁brazil	-6992
al▁penalties	-6993
ans▁captured	-6994
ant▁spending	-6995
aphic▁system	-6996
ary▁year▁was	-6997
as▁and▁enjoy	-6998
ated▁when▁it	-6999
6%.	-7000
brid	-7001
▁1,3	-7002
▁367	-7003
bridg	-7004
david	-7005
isput	-7006
nesse	-7007
nesus	-7008
olmar	-7009
phrey	-7010
set▁l	-7011
s▁hot	-7012
▁1,36	-7013
▁3300	-7014
▁66%.	-7015
ilapid	-7016
nessee	-7017
offset	-7018
s▁side	-7019
s▁song	-7020
thened	-7021
uan▁sh	-7022
▁1,365	-7023
▁admit	-7024
▁balan	-7025
▁drawn	-7026
▁renew	-7027
▁tiber	-7028
▁upset	-7029
ambridg	-7030
ella▁of	-7031
gthened	-7032
isputed	-7033
lerance	-7034
married	-7035
onnesus	-7036
phrey▁b	-7037
s▁hotel	-7038
▁audrey	-7039
▁balanc	-7040
▁barrie	-7041
▁for▁av	-7042
▁impreg	-7043
▁tients	-7044
▁viable	-7045
▁wolmar	-7046
davidson	-7047
set▁loss	-7048
uan▁shik	-7049
▁anybody	-7050
▁equator	-7051
▁impregn	-7052
▁planned	-7053
abella▁of	-7054
ambridges	-7055
bums▁song	-7056
es▁and▁ti	-7057
ing▁to▁sn	-7058
oponnesus	-7059
phrey▁bog	-7060
s▁equator	-7061
s▁its▁own	-7062
▁admitted	-7063
▁tiberius	-7064
▁tientsin	-7065
ambridgesh	-7066
ilapidated	-7067
rengthened	-7068
s▁hotel▁on	-7069
uan▁shikai	-7070
▁audrey▁he	-7071
▁for▁avoid	-7072
▁for▁renew	-7073
▁tennessee	-7074
▁tolerance	-7075
ious▁balanc	-7076
lles▁and▁ti	-7077
onding▁with	-7078
uan▁dynasty	-7079
▁audrey▁hep	-7080
▁favourable	-7081
▁forward▁to	-7082
▁more▁upset	-7083
▁undisputed	-7084
aters▁in▁the	-7085
ate▁and▁grow	-7086
ate▁tectonic	-7087
ationists▁we	-7088
attery▁fault	-7089
atures▁under	-7090
at▁and▁hilly	-7091
at▁on▁the▁bo	-7092
ays▁to▁guide	-7093
ays▁to▁limit	-7094
a▁the▁good▁w	-7095
based▁energy	-7096
be▁the▁dress	-7097
blebums▁song	-7098
by▁community	-7099
-197	-7100
-198	-7101
ahan	-7102
anni	-7103
askt	-7104
gaud	-7105
hanz	-7106
iami	-7107
rado	-7108
ycle	-7109
-1970	-7110
-1980	-7111
adaan	-7112
annis	-7113
antee	-7114
chief	-7115
ee▁qu	-7116
erico	-7117
iotic	-7118
rd▁of	-7119
rency	-7120
vanni	-7121
▁rico	-7122
asktel	-7123
garian	-7124
hanzir	-7125
intado	-7126
jadaan	-7127
licacy	-7128
o▁rico	-7129
▁cycle	-7130
▁desks	-7131
▁edgar	-7132
▁folks	-7133
▁mahan	-7134
▁metti	-7135
▁miami	-7136
▁ruins	-7137
arantee	-7138
ederico	-7139
ee▁quit	-7140
ets▁had	-7141
gaudens	-7142
idiotic	-7143
iovanni	-7144
no▁more	-7145
▁assets	-7146
▁genius	-7147
▁superv	-7148
▁yannis	-7149
ee▁quits	-7150
ti▁polit	-7151
▁a▁throw	-7152
▁corrado	-7153
▁idiotic	-7154
▁khanzir	-7155
▁pintado	-7156
▁sasktel	-7157
ederico▁f	-7158
erto▁rico	-7159
ive▁ruins	-7160
no▁more▁r	-7161
▁as▁metti	-7162
▁currency	-7163
▁delicacy	-7164
▁giovanni	-7165
▁jets▁had	-7166
▁megarian	-7167
▁the▁feas	-7168
arantee▁of	-7169
cca▁record	-7170
rd▁century	-7171
uerto▁rico	-7172
▁for▁edgar	-7173
▁it▁belong	-7174
▁supervise	-7175
▁yannis▁sm	-7176
gel▁pintado	-7177
le▁currency	-7178
s▁a▁diverse	-7179
▁a▁delicacy	-7180
▁federico▁f	-7181
▁mahanakhon	-7182
▁miami▁bass	-7183
▁sasktel▁un	-7184
▁shot▁in▁an	-7185
acy▁had▁been	-7186
ansive▁ruins	-7187
ced▁entirely	-7188
ces▁of▁heavy	-7189
ched▁while▁a	-7190
cross▁the▁at	-7191
day▁slovakia	-7192
der▁of▁fifty	-7193
ed▁an▁encore	-7194
ed▁at▁the▁dr	-7195
ed▁a▁suspens	-7196
ed▁hitchcock	-7197
ed▁it▁like▁a	-7198
ed▁ten▁years	-7199
▁833	-7200
▁1933	-7201
detect	-7202
▁1979.	-7203
rd▁duke	-7204
detectable	-7205
rd▁duke▁of	-7206
▁well▁past	-7207
▁example▁of	-7208
ed▁the▁emerg	-7209
ed▁the▁recon	-7210
ed▁wang▁ansh	-7211
elfranco▁ven	-7212
en▁guitarist	-7213
ers▁was▁also	-7214
ess▁as▁oppos	-7215
es▁is▁coming	-7216
es▁on▁before	-7217
fare▁changed	-7218
fiction▁film	-7219
formance▁pay	-7220
free▁playboy	-7221
ft▁announced	-7222
gressive▁neg	-7223
hip▁training	-7224
holders▁look	-7225
ian▁david▁cr	-7226
ian▁peninsul	-7227
ical▁colours	-7228
ice▁for▁dead	-7229
ic▁and▁major	-7230
ic▁solutions	-7231
idency▁go▁to	-7232
ides▁being▁a	-7233
ies▁in▁roman	-7234
iety▁was▁not	-7235
ie▁institute	-7236
ile▁trend▁is	-7237
inal▁history	-7238
ing▁evidence	-7239
ing▁place▁of	-7240
inimum▁and▁m	-7241
in▁the▁haute	-7242
iped▁tens▁of	-7243
ises▁on▁bill	-7244
ists▁caution	-7245
itecture▁won	-7246
king▁at▁each	-7247
known▁person	-7248
knuck▁if▁you	-7249
ld▁religious	-7250
licated▁when	-7251
limited▁data	-7252
lines▁of▁the	-7253
lling▁out▁of	-7254
noon▁viewing	-7255
ometers▁in▁l	-7256
ot▁of▁compet	-7257
pect▁to▁keep	-7258
pe▁structure	-7259
phrey▁bogart	-7260
prepared▁for	-7261
preted▁these	-7262
pt▁forgotten	-7263
reation▁of▁a	-7264
rend▁william	-7265
ries▁meaning	-7266
ring▁labeouf	-7267
r▁i▁with▁his	-7268
se▁estimates	-7269
se▁obviously	-7270
so▁i▁hate▁to	-7271
s▁also▁fuell	-7272
s▁and▁carson	-7273
s▁and▁living	-7274
s▁and▁the▁on	-7275
s▁captured▁l	-7276
s▁discovered	-7277
s▁from▁a▁bab	-7278
s▁include▁an	-7279
s▁include▁se	-7280
s▁industrial	-7281
s▁insatiable	-7282
s▁of▁digital	-7283
s▁of▁postwar	-7284
s▁on▁capitol	-7285
s▁on▁railway	-7286
s▁or▁organiz	-7287
s▁released▁a	-7288
s▁spurred▁gm	-7289
s▁subsequent	-7290
s▁television	-7291
s▁to▁use▁the	-7292
tapper▁walks	-7293
ted▁jews▁who	-7294
uge▁army▁enl	-7295
unity▁in▁the	-7296
ure▁of▁power	-7297
usen▁sighted	-7298
ushing▁their	-7299
▁harmon	-7300
ers▁wheel	-7301
i▁with▁his	-7302
s▁is▁still	-7303
s▁rafferty	-7304
alers▁wheel	-7305
er▁material	-7306
er▁together	-7307
le▁of▁their	-7308
rant▁origin	-7309
s▁conquered	-7310
ve▁launched	-7311
▁harmonious	-7312
▁one▁travel	-7313
ert▁that▁the	-7314
ile▁does▁not	-7315
le▁assistant	-7316
utely▁cannot	-7317
ya▁knew▁clim	-7318
zer▁swearing	-7319
▁abandonment	-7320
▁advanced▁as	-7321
▁advertising	-7322
▁age▁and▁now	-7323
▁airline▁cho	-7324
▁air▁theater	-7325
▁alarm▁clock	-7326
▁already▁hit	-7327
▁also▁spread	-7328
▁and▁a▁wheel	-7329
▁and▁connect	-7330
▁and▁continu	-7331
▁and▁covered	-7332
▁and▁enrique	-7333
▁and▁kenseth	-7334
▁and▁lincoln	-7335
▁and▁marched	-7336
▁and▁mildred	-7337
▁and▁pebe▁co	-7338
▁and▁pollack	-7339
▁and▁she▁has	-7340
▁and▁spotify	-7341
▁and▁suspect	-7342
▁and▁teacher	-7343
▁and▁tell▁us	-7344
▁and▁then▁my	-7345
▁and▁this▁is	-7346
▁and▁ukraine	-7347
▁and▁visited	-7348
▁animal▁name	-7349
▁any▁consult	-7350
▁an▁increase	-7351
▁an▁open▁sew	-7352
▁an▁overseas	-7353
▁an▁ss▁offic	-7354
▁an▁unlikely	-7355
▁apulian▁and	-7356
▁are▁nowhere	-7357
▁are▁workers	-7358
▁artists▁who	-7359
▁assembly▁in	-7360
▁assembly▁of	-7361
▁as▁a▁viable	-7362
▁as▁district	-7363
▁as▁the▁city	-7364
▁attempts▁at	-7365
▁attitude▁of	-7366
▁at▁thutmose	-7367
▁a▁celebrity	-7368
▁a▁low▁level	-7369
▁a▁technique	-7370
▁bankrupt▁on	-7371
▁baptism▁was	-7372
▁began▁to▁ra	-7373
▁boundary▁up	-7374
▁branch▁cons	-7375
▁breaking▁my	-7376
▁brother▁jim	-7377
▁but▁equally	-7378
▁but▁grew▁up	-7379
▁but▁his▁hop	-7380
▁but▁instead	-7381
▁but▁kipling	-7382
▁but▁with▁an	-7383
▁by▁bloggers	-7384
▁by▁the▁cour	-7385
▁by▁the▁lord	-7386
▁cache▁of▁st	-7387
▁calling▁the	-7388
▁cambridgesh	-7389
▁canoes▁were	-7390
▁case▁scenar	-7391
▁casting▁his	-7392
▁cast▁before	-7393
▁centered▁on	-7394
▁chapel▁hill	-7395
▁churches▁in	-7396
▁clothes▁and	-7397
▁comedy▁film	-7398
▁come▁out▁to	-7399
track	-7400
▁meyer	-7401
o▁in▁this	-7402
▁golden▁g	-7403
▁protests	-7404
▁requests	-7405
▁rival▁pr	-7406
australian	-7407
st▁january	-7408
▁as▁stated	-7409
▁a▁pattern	-7410
▁certainty	-7411
▁defence▁m	-7412
▁discussed	-7413
▁fulfill▁a	-7414
▁largely▁d	-7415
▁meyer▁had	-7416
▁principal	-7417
▁principle	-7418
▁racetrack	-7419
day▁germany	-7420
ero▁in▁this	-7421
est▁weather	-7422
ham▁journal	-7423
ian▁princip	-7424
izing▁their	-7425
▁content▁by	-7426
▁despite▁be	-7427
▁discussion	-7428
▁getting▁an	-7429
▁go▁towards	-7430
▁habitat▁is	-7431
▁is▁certain	-7432
▁of▁january	-7433
▁pharaoh▁th	-7434
▁protestant	-7435
▁protesting	-7436
▁rival▁prab	-7437
▁victory▁at	-7438
▁written▁to	-7439
australian▁f	-7440
ceded▁to▁the	-7441
ed▁to▁the▁gu	-7442
ency▁in▁july	-7443
ors▁at▁the▁s	-7444
s▁in▁ontario	-7445
▁at▁the▁site	-7446
▁comfortable	-7447
▁coming▁back	-7448
▁continental	-7449
▁covering▁of	-7450
▁crisis▁show	-7451
▁crossed▁the	-7452
▁debris▁form	-7453
▁decision▁is	-7454
▁decision▁to	-7455
▁despite▁his	-7456
▁de▁tipo▁and	-7457
▁disapproval	-7458
▁distinction	-7459
▁district▁of	-7460
▁divided▁the	-7461
▁dozens▁of▁f	-7462
▁do▁the▁same	-7463
▁edge▁to▁his	-7464
▁electricity	-7465
▁end▁up▁list	-7466
▁enrolled▁at	-7467
▁events▁that	-7468
▁ever▁before	-7469
▁examples▁of	-7470
▁expert▁warn	-7471
▁explain▁the	-7472
▁extensively	-7473
▁fallen▁on▁a	-7474
▁film▁was▁el	-7475
▁finally▁end	-7476
▁force▁ouvri	-7477
▁for▁example	-7478
▁for▁most▁of	-7479
▁from▁compet	-7480
▁fulfillment	-7481
▁georges▁and	-7482
▁getting▁out	-7483
▁given▁names	-7484
▁golden▁gate	-7485
▁go▁bankrupt	-7486
▁great▁squad	-7487
▁greek▁texts	-7488
▁growing▁mid	-7489
▁had▁changed	-7490
▁had▁contact	-7491
▁had▁largely	-7492
▁had▁predict	-7493
▁had▁studied	-7494
▁hair▁market	-7495
▁hammersmith	-7496
▁handover▁of	-7497
▁hardly▁been	-7498
▁has▁a▁reput	-7499
a▁strong	-7500
▁indiana	-7501
ed▁only▁a	-7502
ed▁series	-7503
▁springer	-7504
▁street▁a	-7505
▁the▁blad	-7506
all▁street	-7507
and▁is▁not	-7508
a▁strong▁f	-7509
ed▁to▁be▁a	-7510
ger▁things	-7511
oners▁were	-7512
án▁a▁third	-7513
▁clouds▁or	-7514
▁how▁to▁se	-7515
▁making▁it	-7516
▁nation▁of	-7517
▁on▁how▁to	-7518
▁opened▁vw	-7519
▁rights▁of	-7520
▁rights▁to	-7521
▁the▁scott	-7522
▁troops▁or	-7523
ates▁only▁a	-7524
ight▁we▁are	-7525
ism▁towards	-7526
y▁of▁london	-7527
▁and▁how▁to	-7528
▁and▁indian	-7529
▁and▁making	-7530
▁and▁the▁bl	-7531
▁out▁of▁kil	-7532
▁recognized	-7533
▁the▁editor	-7534
▁was▁led▁by	-7535
▁within▁the	-7536
ation▁of▁con	-7537
atán▁a▁third	-7538
a▁strong▁fru	-7539
isoners▁were	-7540
ories▁led▁by	-7541
s▁to▁be▁seek	-7542
s▁to▁the▁pil	-7543
ty▁rights▁to	-7544
▁flocking▁to	-7545
▁for▁a▁third	-7546
▁has▁ties▁to	-7547
▁have▁yet▁to	-7548
▁herodias▁is	-7549
▁he▁believes	-7550
▁he▁played▁a	-7551
▁higher▁cost	-7552
▁higher▁than	-7553
▁high▁silica	-7554
▁him▁definit	-7555
▁him▁in▁that	-7556
▁his▁corslet	-7557
▁his▁enemies	-7558
▁his▁life▁so	-7559
▁hope▁as▁the	-7560
▁hugh▁murphy	-7561
▁idea▁of▁buy	-7562
▁idiotic▁sit	-7563
▁if▁they▁are	-7564
▁if▁they▁did	-7565
▁importantly	-7566
▁industry▁st	-7567
▁into▁a▁more	-7568
▁invalid▁and	-7569
▁in▁a▁battle	-7570
▁in▁badarpur	-7571
▁in▁such▁bad	-7572
▁in▁terms▁of	-7573
▁in▁the▁body	-7574
▁in▁the▁case	-7575
▁iron▁stores	-7576
▁is▁a▁friend	-7577
▁is▁a▁strong	-7578
▁is▁facing▁a	-7579
▁is▁known▁as	-7580
▁is▁possible	-7581
▁is▁the▁time	-7582
▁it▁included	-7583
▁it▁that▁the	-7584
▁i▁chose▁her	-7585
▁i▁have▁made	-7586
▁jesse▁labro	-7587
▁joined▁nato	-7588
▁khitans▁had	-7589
▁kings▁of▁ge	-7590
▁launched▁an	-7591
▁law▁and▁rev	-7592
▁like▁the▁go	-7593
▁like▁to▁see	-7594
▁lived▁until	-7595
▁live▁in▁los	-7596
▁lot▁of▁very	-7597
▁margaret▁bo	-7598
▁margaret▁of	-7599
▁jeff	-7600
s▁story	-7601
▁buddha	-7602
▁induce	-7603
n▁and▁st	-7604
s▁candid	-7605
y▁agency	-7606
▁announc	-7607
▁employe	-7608
▁jeff▁kn	-7609
▁penalty	-7610
ing▁story	-7611
n▁and▁sto	-7612
we▁do▁not	-7613
▁at▁worst	-7614
▁have▁a▁s	-7615
▁higher▁g	-7616
▁to▁do▁so	-7617
▁tracking	-7618
ing▁debate	-7619
orses▁that	-7620
s▁to▁be▁br	-7621
y▁agency▁g	-7622
▁agency▁al	-7623
▁attack▁he	-7624
▁better▁in	-7625
▁buddha▁im	-7626
▁career▁pe	-7627
▁component	-7628
▁employees	-7629
▁if▁either	-7630
▁in▁danish	-7631
▁its▁worst	-7632
▁or▁have▁a	-7633
▁spain▁for	-7634
▁the▁basis	-7635
▁the▁urban	-7636
▁the▁worst	-7637
▁wrote▁a▁l	-7638
age▁academy	-7639
s▁candidacy	-7640
▁and▁career	-7641
▁carbonated	-7642
▁danish▁has	-7643
▁either▁way	-7644
▁engagement	-7645
▁executives	-7646
▁had▁attack	-7647
▁have▁a▁sil	-7648
▁his▁candid	-7649
▁jeff▁knott	-7650
▁taken▁over	-7651
▁then▁track	-7652
▁want▁to▁do	-7653
▁with▁women	-7654
▁worst▁form	-7655
arsh▁actions	-7656
eding▁period	-7657
ed▁if▁either	-7658
ed▁in▁a▁bank	-7659
es▁that▁over	-7660
iring▁debate	-7661
n▁and▁stored	-7662
s▁story▁also	-7663
s▁to▁be▁brac	-7664
s▁to▁be▁very	-7665
y▁agency▁gch	-7666
▁about▁women	-7667
▁at▁worst▁it	-7668
▁career▁as▁a	-7669
▁career▁here	-7670
▁date▁he▁has	-7671
▁forces▁that	-7672
▁higher▁gear	-7673
▁in▁that▁its	-7674
▁measure▁the	-7675
▁melanesians	-7676
▁merely▁upon	-7677
▁mishima▁was	-7678
▁monument▁to	-7679
▁more▁appeal	-7680
▁more▁babies	-7681
▁more▁i▁look	-7682
▁mother▁tong	-7683
▁my▁list▁had	-7684
▁named▁keira	-7685
▁need▁for▁it	-7686
▁news▁agency	-7687
▁not▁to▁seek	-7688
▁now▁everyth	-7689
▁observatory	-7690
▁occupied▁by	-7691
▁of▁cameroon	-7692
▁of▁one▁full	-7693
▁of▁scholars	-7694
▁of▁the▁silt	-7695
▁of▁the▁word	-7696
▁of▁this▁met	-7697
▁of▁water▁to	-7698
▁one▁episode	-7699
▁1947.	-7700
classic	-7701
u▁never	-7702
an▁royal	-7703
ch▁of▁st	-7704
ed▁guard	-7705
ly▁guard	-7706
ro▁had▁a	-7707
▁injured	-7708
▁royal▁n	-7709
▁scholar	-7710
ale▁never	-7711
ast▁light	-7712
iro▁had▁a	-7713
own▁is▁to	-7714
▁grown▁en	-7715
▁guide▁is	-7716
▁identity	-7717
▁mobility	-7718
▁occur▁in	-7719
▁of▁legal	-7720
▁of▁opium	-7721
▁plantain	-7722
▁priority	-7723
▁to▁legal	-7724
▁to▁model	-7725
antu▁never	-7726
rian▁royal	-7727
ulture▁and	-7728
unch▁of▁st	-7729
▁all▁seven	-7730
▁in▁nature	-7731
▁kesha▁was	-7732
▁legalised	-7733
▁money▁whe	-7734
▁occurring	-7735
▁offerings	-7736
▁plantains	-7737
▁royal▁liv	-7738
▁scholarly	-7739
▁seven▁min	-7740
▁the▁issue	-7741
▁was▁never	-7742
▁we▁are▁or	-7743
apped▁guard	-7744
ast▁lightly	-7745
st▁priority	-7746
▁just▁seven	-7747
▁royal▁navy	-7748
▁securing▁a	-7749
▁seven▁mini	-7750
▁that▁herod	-7751
▁they▁had▁a	-7752
abrian▁royal	-7753
ailing▁immig	-7754
ale▁neverthe	-7755
capped▁guard	-7756
▁after▁offer	-7757
▁bantu▁never	-7758
▁cairo▁had▁a	-7759
▁clown▁is▁to	-7760
▁front▁of▁st	-7761
▁grown▁enorm	-7762
▁lighting▁up	-7763
▁makes▁money	-7764
▁money▁whene	-7765
▁one▁era▁per	-7766
▁on▁humanity	-7767
▁on▁their▁sm	-7768
▁on▁this▁ide	-7769
▁on▁thursday	-7770
▁on▁trial▁at	-7771
▁orders▁were	-7772
▁or▁mountain	-7773
▁outputs▁are	-7774
▁out▁of▁date	-7775
▁out▁of▁this	-7776
▁out▁that▁ro	-7777
▁pacific▁and	-7778
▁pattern▁and	-7779
▁persecution	-7780
▁phones▁lack	-7781
▁playing▁him	-7782
▁playwrights	-7783
▁pompey▁took	-7784
▁portions▁of	-7785
▁posted▁in▁a	-7786
▁praised▁the	-7787
▁precautions	-7788
▁proudest▁of	-7789
▁provides▁in	-7790
▁punishments	-7791
▁rain▁clouds	-7792
▁ramesses▁ii	-7793
▁receive▁a▁b	-7794
▁reformation	-7795
▁refused▁his	-7796
▁remained▁up	-7797
▁removed▁the	-7798
▁rescue▁that	-7799
lrich	-7800
d▁upon	-7801
t▁accum	-7802
vailing	-7803
▁associ	-7804
▁a▁sing	-7805
▁corpor	-7806
▁imagin	-7807
▁ulrich	-7808
by▁champ	-7809
ch▁appro	-7810
d▁upon▁a	-7811
ent▁sing	-7812
ipas▁and	-7813
ue▁drama	-7814
▁a▁firew	-7815
▁created	-7816
▁failing	-7817
▁ottoman	-7818
▁sent▁to	-7819
▁us▁wait	-7820
▁version	-7821
ated▁sing	-7822
ate▁adver	-7823
dent▁sing	-7824
iqued▁her	-7825
t▁accumul	-7826
urally▁de	-7827
▁an▁agent	-7828
▁an▁estim	-7829
▁approved	-7830
▁are▁turn	-7831
▁a▁singer	-7832
▁brand▁to	-7833
▁grown▁in	-7834
▁is▁eight	-7835
▁of▁close	-7836
▁sent▁out	-7837
▁switched	-7838
tech▁appro	-7839
ugby▁champ	-7840
▁also▁wait	-7841
▁and▁brand	-7842
▁expensive	-7843
▁imaginary	-7844
▁paralysis	-7845
▁residence	-7846
ated▁single	-7847
ate▁adverse	-7848
ed▁her▁as▁a	-7849
itters▁like	-7850
▁associated	-7851
▁a▁firewall	-7852
▁confidence	-7853
▁have▁creat	-7854
▁ottoman▁su	-7855
▁piqued▁her	-7856
▁prevailing	-7857
▁references	-7858
▁turning▁up	-7859
▁unit▁which	-7860
dent▁singers	-7861
s▁references	-7862
urally▁degen	-7863
▁antipas▁and	-7864
▁an▁agent▁is	-7865
▁blunt▁began	-7866
▁corporation	-7867
▁grown▁inord	-7868
▁market▁upon	-7869
▁of▁close▁to	-7870
▁or▁an▁estim	-7871
▁rhetoric▁is	-7872
▁rise▁in▁vat	-7873
▁rival▁the▁c	-7874
▁rivers▁flow	-7875
▁roof▁of▁the	-7876
▁rugby▁champ	-7877
▁rule▁of▁law	-7878
▁san▁francis	-7879
▁seagal▁made	-7880
▁seldom▁meas	-7881
▁selected▁in	-7882
▁shed▁upon▁a	-7883
▁she▁briefly	-7884
▁she▁started	-7885
▁slavic▁trib	-7886
▁some▁thirty	-7887
▁soon▁as▁the	-7888
▁space▁seeds	-7889
▁spared▁from	-7890
▁standard▁or	-7891
▁statute▁det	-7892
▁steady▁wind	-7893
▁stipulation	-7894
▁stone▁basin	-7895
▁street▁race	-7896
▁such▁as▁mil	-7897
▁such▁a▁blin	-7898
▁supervise▁w	-7899
o▁lung	-7900
t▁of▁c	-7901
▁korea	-7902
ed▁rate	-7903
go▁forc	-7904
le▁golf	-7905
▁fallon	-7906
▁home▁l	-7907
▁of▁bad	-7908
▁perhap	-7909
▁routes	-7910
alo▁lung	-7911
ine▁news	-7912
ull▁moon	-7913
▁lung▁is	-7914
▁on▁link	-7915
▁primary	-7916
ixed▁rate	-7917
t▁of▁cass	-7918
▁air▁in▁c	-7919
▁and▁sent	-7920
▁can▁rise	-7921
▁game▁but	-7922
▁of▁birth	-7923
▁pay▁rona	-7924
▁sailed▁a	-7925
▁shocking	-7926
▁too▁late	-7927
ffalo▁lung	-7928
le▁golfers	-7929
rengo▁forc	-7930
▁also▁grew	-7931
▁forced▁to	-7932
▁game▁is▁a	-7933
▁here▁will	-7934
▁home▁in▁a	-7935
▁home▁lapt	-7936
▁less▁than	-7937
▁moon▁on▁a	-7938
▁sails▁are	-7939
▁they▁lack	-7940
arengo▁forc	-7941
ed▁the▁fall	-7942
ick▁on▁link	-7943
ing▁up▁late	-7944
ious▁emails	-7945
ring▁of▁bad	-7946
s▁nine▁news	-7947
▁a▁shocking	-7948
▁first▁sail	-7949
▁given▁rise	-7950
▁routes▁for	-7951
▁trade▁rout	-7952
s▁fixed▁rate	-7953
xic▁air▁in▁c	-7954
▁and▁sent▁so	-7955
▁can▁be▁view	-7956
▁during▁rain	-7957
▁fallon▁said	-7958
▁home▁laptop	-7959
▁it▁was▁here	-7960
▁of▁the▁same	-7961
▁primary▁mod	-7962
▁rather▁late	-7963
▁same▁period	-7964
▁super▁power	-7965
▁survey▁also	-7966
▁technicians	-7967
▁tempered▁by	-7968
▁ten▁letters	-7969
▁thai▁auspic	-7970
▁than▁madrid	-7971
▁that▁olivia	-7972
▁their▁heart	-7973
▁there▁never	-7974
▁these▁plant	-7975
▁the▁balkans	-7976
▁the▁bank▁to	-7977
▁the▁benefit	-7978
▁the▁bladder	-7979
▁the▁booming	-7980
▁the▁borough	-7981
▁the▁car▁mak	-7982
▁the▁extreme	-7983
▁the▁hair▁is	-7984
▁the▁high▁al	-7985
▁the▁husband	-7986
▁the▁implied	-7987
▁the▁intense	-7988
▁the▁old▁one	-7989
▁the▁percent	-7990
▁the▁procons	-7991
▁the▁promise	-7992
▁the▁results	-7993
▁the▁scandal	-7994
▁the▁surface	-7995
▁the▁western	-7996
▁the▁yas▁mar	-7997
▁this▁strain	-7998
▁this▁was▁by	-7999
boards	-8000
mly▁in	-8001
t▁dies	-8002
za▁was	-8003
▁alpha	-8004
▁cells	-8005
▁energ	-8006
▁episc	-8007
itchcra	-8008
oked▁it	-8009
otional	-8010
rence▁g	-8011
s▁invol	-8012
t▁diess	-8013
y▁and▁s	-8014
▁a▁coal	-8015
▁cellph	-8016
▁create	-8017
▁emerge	-8018
▁excell	-8019
ark▁ages	-8020
irmly▁in	-8021
ising▁as	-8022
lying▁it	-8023
ounts▁of	-8024
s▁involv	-8025
ucky▁and	-8026
w▁rastiz	-8027
▁authors	-8028
▁episcop	-8029
▁evolved	-8030
▁his▁job	-8031
▁of▁coal	-8032
▁onboard	-8033
▁to▁capt	-8034
axy▁and▁s	-8035
gress▁had	-8036
ing▁alpha	-8037
itchcraft	-8038
rising▁as	-8039
▁energies	-8040
▁got▁kill	-8041
▁involved	-8042
▁meza▁was	-8043
▁offences	-8044
▁referred	-8045
bert▁diess	-8046
board▁that	-8047
erred▁with	-8048
hew▁rastiz	-8049
ly▁in▁well	-8050
rence▁garr	-8051
s▁involved	-8052
s▁the▁only	-8053
te▁to▁capt	-8054
vered▁much	-8055
▁dark▁ages	-8056
▁eight▁men	-8057
▁emotional	-8058
▁episcopal	-8059
▁excellent	-8060
▁face▁into	-8061
▁firmly▁in	-8062
▁marks▁the	-8063
▁reference	-8064
▁they▁didn	-8065
▁wholesale	-8066
alaxy▁and▁s	-8067
entucky▁and	-8068
lying▁and▁a	-8069
ly▁in▁wells	-8070
ors▁as▁prox	-8071
phew▁rastiz	-8072
▁amounts▁of	-8073
▁as▁a▁ruler	-8074
▁authors▁to	-8075
▁cellphones	-8076
▁cells▁that	-8077
▁difference	-8078
▁from▁cells	-8079
▁incomplete	-8080
▁the▁rising	-8081
▁witchcraft	-8082
gress▁had▁st	-8083
oked▁it▁from	-8084
rising▁as▁it	-8085
▁applying▁it	-8086
▁are▁onboard	-8087
▁create▁work	-8088
▁de▁meza▁was	-8089
▁threat▁than	-8090
▁time▁the▁sc	-8091
▁tough▁rehab	-8092
▁to▁be▁tried	-8093
▁to▁create▁a	-8094
▁to▁form▁the	-8095
▁to▁get▁away	-8096
▁to▁pay▁rona	-8097
▁treaty▁of▁n	-8098
▁trips▁to▁is	-8099
i▁too	-8100
s▁tra	-8101
▁jews	-8102
▁menh	-8103
▁redd	-8104
▁samn	-8105
▁sams	-8106
di▁too	-8107
▁a▁red	-8108
▁hopes	-8109
▁judge	-8110
▁kilow	-8111
▁redem	-8112
▁solhe	-8113
▁solid	-8114
▁solst	-8115
ome▁men	-8116
s▁traum	-8117
▁at▁pap	-8118
▁jewish	-8119
▁menhir	-8120
▁motors	-8121
▁pilate	-8122
▁rachel	-8123
▁racial	-8124
▁racist	-8125
▁reddit	-8126
▁titles	-8127
ik▁solhe	-8128
ortality	-8129
orth▁sea	-8130
ount▁kil	-8131
some▁men	-8132
s▁demand	-8133
▁at▁papw	-8134
▁goal▁of	-8135
▁kilowat	-8136
▁samnium	-8137
▁samsung	-8138
▁solstic	-8139
▁textile	-8140
▁the▁sho	-8141
er▁rachel	-8142
north▁sea	-8143
s▁demands	-8144
▁an▁enhan	-8145
▁at▁redem	-8146
▁four▁kil	-8147
▁hopes▁of	-8148
▁judge▁in	-8149
ality▁came	-8150
ik▁solheim	-8151
ount▁kilim	-8152
vel▁titles	-8153
▁jews▁left	-8154
▁kilowatts	-8155
▁races▁and	-8156
▁so▁racist	-8157
rozen▁solid	-8158
▁due▁to▁bad	-8159
▁hopes▁will	-8160
▁is▁frankly	-8161
▁is▁unclear	-8162
▁situations	-8163
ment▁at▁papw	-8164
ount▁kiliman	-8165
some▁men▁get	-8166
▁expelled▁tw	-8167
▁goal▁of▁win	-8168
▁hopes▁of▁ad	-8169
▁immortality	-8170
▁let▁the▁sho	-8171
▁menhirs▁and	-8172
▁trust▁trial	-8173
▁two▁decades	-8174
▁two▁measure	-8175
▁under▁henry	-8176
▁under▁safet	-8177
▁unlikely▁to	-8178
▁up▁of▁immig	-8179
▁up▁the▁vast	-8180
▁us▁speakers	-8181
▁view▁summit	-8182
▁volcanology	-8183
▁was▁born▁in	-8184
▁was▁sent▁to	-8185
▁waters▁on▁a	-8186
▁were▁denied	-8187
▁were▁raised	-8188
▁were▁taking	-8189
▁were▁within	-8190
▁when▁he▁fel	-8191
▁when▁i▁find	-8192
▁which▁faced	-8193
▁which▁lasts	-8194
▁white▁house	-8195
▁who▁call▁it	-8196
▁willow▁bran	-8197
▁with▁diesel	-8198
▁with▁thrace	-8199
,▁192	-8200
a▁cal	-8201
e▁cat	-8202
hitan	-8203
illeg	-8204
s▁aff	-8205
wkish	-8206
▁(191	-8207
▁(195	-8208
▁1492	-8209
▁1886	-8210
▁1925	-8211
▁calc	-8212
▁feli	-8213
,▁1927	-8214
course	-8215
enberg	-8216
ieille	-8217
ly▁hom	-8218
tsberg	-8219
▁(1918	-8220
▁(1954	-8221
▁1492;	-8222
▁1882,	-8223
▁1882.	-8224
▁1887.	-8225
▁1926,	-8226
▁divor	-8227
▁favor	-8228
▁illeg	-8229
aja▁cal	-8230
arsberg	-8231
f▁and▁m	-8232
ican▁ic	-8233
illican	-8234
ode▁cat	-8235
starred	-8236
vieille	-8237
▁16,500	-8238
▁calcul	-8239
▁calend	-8240
▁claret	-8241
▁exclud	-8242
▁felipe	-8243
▁fellow	-8244
▁khitan	-8245
ly▁homel	-8246
marsberg	-8247
odenberg	-8248
s▁afford	-8249
ties▁and	-8250
wide▁end	-8251
▁(1918),	-8252
▁(1954),	-8253
▁acclaim	-8254
▁are▁hop	-8255
▁hawkish	-8256
▁may▁try	-8257
acecourse	-8258
aja▁calif	-8259
iaf▁and▁m	-8260
ies▁illeg	-8261
illican▁d	-8262
ised▁both	-8263
wide▁ende	-8264
▁calendar	-8265
▁comparis	-8266
▁disputes	-8267
▁divorced	-8268
▁felipe▁v	-8269
▁headscar	-8270
▁in▁brief	-8271
▁long▁ago	-8272
d▁gathered	-8273
ode▁catast	-8274
ontvieille	-8275
rupted▁for	-8276
starred▁as	-8277
▁a▁hawkish	-8278
▁by▁exclud	-8279
▁de▁claret	-8280
▁dominican	-8281
▁headscarf	-8282
▁of▁fellow	-8283
▁their▁div	-8284
▁two▁hours	-8285
american▁ic	-8286
bermarsberg	-8287
ly▁homeless	-8288
more▁people	-8289
n▁de▁claret	-8290
st▁december	-8291
wide▁endeav	-8292
▁are▁calcul	-8293
▁comparison	-8294
▁led▁by▁pro	-8295
▁millican▁d	-8296
▁piaf▁and▁m	-8297
▁the▁high▁f	-8298
aja▁californ	-8299
sett	-8300
ubei	-8301
undo	-8302
void	-8303
ygen	-8304
▁50;	-8305
▁veg	-8306
bably	-8307
ettel	-8308
helor	-8309
hibit	-8310
ima▁b	-8311
rogen	-8312
xygen	-8313
▁fund	-8314
▁hund	-8315
▁vega	-8316
▁£12,	-8317
ima▁bá	-8318
outube	-8319
urpose	-8320
zettel	-8321
▁50;▁"	-8322
▁error	-8323
▁mundo	-8324
▁veget	-8325
▁veter	-8326
achelor	-8327
ania▁in	-8328
settled	-8329
tima▁bá	-8330
▁antiqu	-8331
▁a▁fund	-8332
▁elaine	-8333
▁maroto	-8334
▁orogen	-8335
▁oxygen	-8336
ard▁hund	-8337
canology	-8338
gel▁that	-8339
imitably	-8340
átima▁bá	-8341
▁sixtiet	-8342
▁the▁wiz	-8343
▁veteran	-8344
▁youtube	-8345
▁£12,000	-8346
▁bachelor	-8347
▁el▁mundo	-8348
▁germaine	-8349
▁probably	-8350
▁prohibit	-8351
▁sixtieth	-8352
▁to▁avoid	-8353
ical▁error	-8354
iegel▁that	-8355
ier▁maroto	-8356
imitably▁d	-8357
ing▁oxygen	-8358
s▁hospital	-8359
▁and▁hubei	-8360
▁antiquity	-8361
▁fátima▁bá	-8362
▁help▁fund	-8363
▁orogenies	-8364
▁unsettled	-8365
ably▁in▁the	-8366
ard▁hundred	-8367
▁edge▁stood	-8368
▁that▁doesn	-8369
▁vegetation	-8370
ania▁in▁east	-8371
an▁and▁hubei	-8372
avier▁maroto	-8373
ent▁bachelor	-8374
oamerican▁ic	-8375
s▁afforded▁c	-8376
▁a▁fundament	-8377
▁by▁prohibit	-8378
▁combat▁in▁c	-8379
▁his▁acclaim	-8380
▁khitan▁liao	-8381
▁landing▁air	-8382
▁the▁purpose	-8383
▁vulcanology	-8384
▁women▁start	-8385
▁workers▁and	-8386
▁wrote▁drama	-8387
▁yannis▁smar	-8388
▁year▁was▁an	-8389
▁young▁males	-8390
▁yuan▁shikai	-8391
▁zay▁and▁zay	-8392
able▁opinions	-8393
ably▁in▁the▁w	-8394
acecourse▁was	-8395
aced▁blame▁on	-8396
actical▁error	-8397
ak▁on▁its▁beh	-8398
alaxy▁and▁son	-8399
hik	-8400
50),	-8401
know	-8402
otyp	-8403
shit	-8404
ylae	-8405
ylum	-8406
▁700	-8407
▁hua	-8408
▁sán	-8409
hiker	-8410
naiss	-8411
shore	-8412
tenna	-8413
ylist	-8414
▁2050	-8415
▁matt	-8416
bn▁and	-8417
ed▁hua	-8418
opylae	-8419
ro▁sán	-8420
▁1918,	-8421
▁1977,	-8422
▁1992.	-8423
▁2002.	-8424
▁2007,	-8425
▁2009,	-8426
▁2012.	-8427
▁550),	-8428
▁unbor	-8429
,▁1977,	-8430
ereotyp	-8431
knowled	-8432
mopylae	-8433
ullshit	-8434
▁asylum	-8435
▁unborn	-8436
edro▁sán	-8437
knowledg	-8438
offshore	-8439
rmopylae	-8440
▁antenna	-8441
▁mattres	-8442
▁renaiss	-8443
▁stylist	-8444
itchhiker	-8445
▁bullshit	-8446
▁the▁self	-8447
▁pedro▁sán	-8448
▁the▁gop▁n	-8449
▁who▁wants	-8450
ereotypical	-8451
ole▁antenna	-8452
▁acknowledg	-8453
▁her▁unborn	-8454
▁phoenician	-8455
▁air▁mattres	-8456
▁by▁the▁news	-8457
▁renaissance	-8458
▁the▁gop▁nom	-8459
alf▁by▁exclud	-8460
al▁basilicata	-8461
antage▁option	-8462
antial▁budget	-8463
ants▁not▁only	-8464
ant▁gradation	-8465
ant▁source▁of	-8466
aple▁of▁their	-8467
archy▁blinded	-8468
argest▁market	-8469
aro▁and▁mount	-8470
arrative▁of▁a	-8471
ar▁investment	-8472
ased▁mobility	-8473
ated▁entirely	-8474
ate▁last▁year	-8475
ation▁attempt	-8476
aximum▁declin	-8477
ay▁last▁month	-8478
a▁is▁dominant	-8479
a▁is▁the▁site	-8480
berland▁marri	-8481
bsburg▁empire	-8482
but▁it▁may▁be	-8483
caribbean▁sea	-8484
communicative	-8485
cted▁waterway	-8486
ction▁towards	-8487
ctorial▁under	-8488
curie▁suggest	-8489
degree▁target	-8490
ed▁a▁majority	-8491
ed▁a▁petition	-8492
ed▁distinctly	-8493
ed▁down▁david	-8494
ed▁in▁complet	-8495
ed▁six▁points	-8496
ed▁the▁distin	-8497
ed▁to▁believe	-8498
enda▁there▁is	-8499
ference	-8500
ish▁seas	-8501
t▁have▁a	-8502
ated▁five	-8503
t▁problem	-8504
▁products	-8505
ference▁in	-8506
t▁problems	-8507
▁administr	-8508
▁a▁special	-8509
▁democrats	-8510
▁the▁fault	-8511
ch▁students	-8512
onald▁trump	-8513
ovated▁five	-8514
▁in▁mineral	-8515
▁irish▁seas	-8516
▁polonium▁s	-8517
▁to▁take▁it	-8518
al▁democrats	-8519
enced▁by▁the	-8520
estimated▁at	-8521
ime▁minister	-8522
ing▁polonium	-8523
k▁should▁not	-8524
▁continue▁on	-8525
▁in▁minerals	-8526
▁in▁their▁in	-8527
▁of▁polonium	-8528
▁problematic	-8529
▁pyrrhus▁was	-8530
▁specialized	-8531
▁the▁fault▁a	-8532
▁which▁is▁ev	-8533
ed▁by▁the▁sub	-8534
ened▁by▁their	-8535
ening▁more▁ac	-8536
ers▁needed▁to	-8537
ers▁to▁travel	-8538
er▁on▁display	-8539
er▁rachel▁win	-8540
es▁as▁a▁local	-8541
es▁in▁several	-8542
es▁that▁the▁m	-8543
et▁edition▁of	-8544
hip▁that▁last	-8545
ian▁peninsula	-8546
ible▁in▁their	-8547
ices▁fit▁into	-8548
ice▁is▁expect	-8549
icious▁emails	-8550
icle▁by▁thomp	-8551
ic▁achaemenid	-8552
ic▁amounts▁of	-8553
ies▁are▁still	-8554
ies▁illegally	-8555
igate▁adverse	-8556
ight▁internet	-8557
ight▁training	-8558
imited▁french	-8559
im▁had▁attack	-8560
iner▁material	-8561
ingent▁reveal	-8562
ing▁about▁one	-8563
ing▁an▁asylum	-8564
ing▁a▁role▁in	-8565
ing▁him▁the▁o	-8566
ing▁of▁johnny	-8567
ing▁on▁brexit	-8568
ing▁plenty▁of	-8569
ing▁to▁borrow	-8570
ing▁to▁credit	-8571
ing▁to▁snatch	-8572
ing▁with▁coun	-8573
ing▁with▁trix	-8574
inmate▁in▁mar	-8575
inrich▁kramer	-8576
ion▁described	-8577
ious▁and▁took	-8578
ipole▁antenna	-8579
ish▁to▁bluish	-8580
itchy▁odi▁too	-8581
ite▁valentino	-8582
ition▁caution	-8583
ity▁of▁combat	-8584
leep▁at▁night	-8585
lighted▁chris	-8586
ly▁in▁the▁mid	-8587
mone▁were▁out	-8588
nerability▁to	-8589
ne▁and▁bremen	-8590
ocus▁on▁other	-8591
offshore▁wind	-8592
olate▁and▁giv	-8593
olved▁without	-8594
one▁and▁enjoy	-8595
one▁who▁wants	-8596
orie▁in▁south	-8597
orms▁are▁rare	-8598
ors▁are▁often	-8599
▁ancest	-8600
t▁disney	-8601
y▁church	-8602
▁impacts	-8603
er▁design	-8604
s▁lead▁to	-8605
▁ancestry	-8606
▁may▁be▁j	-8607
▁personal	-8608
alt▁disney	-8609
art▁due▁to	-8610
bey▁church	-8611
ior▁design	-8612
led▁person	-8613
ous▁due▁to	-8614
▁an▁entire	-8615
▁black▁sea	-8616
▁do▁better	-8617
▁greece▁in	-8618
▁in▁global	-8619
▁of▁greece	-8620
▁performed	-8621
ape▁and▁was	-8622
cous▁due▁to	-8623
ger▁brother	-8624
ous▁numbers	-8625
▁for▁office	-8626
▁greater▁en	-8627
▁he▁describ	-8628
▁in▁address	-8629
▁in▁greater	-8630
▁may▁be▁a▁l	-8631
▁may▁be▁jer	-8632
▁outside▁of	-8633
▁personally	-8634
▁proper▁the	-8635
▁she▁may▁be	-8636
▁the▁office	-8637
cape▁and▁was	-8638
ction▁of▁new	-8639
ed▁by▁global	-8640
er▁designers	-8641
ian▁ancestry	-8642
itled▁person	-8643
▁are▁natural	-8644
▁capital▁bel	-8645
▁disney▁also	-8646
▁due▁to▁some	-8647
▁greater▁enf	-8648
▁have▁little	-8649
▁high▁temper	-8650
▁institution	-8651
▁in▁a▁global	-8652
▁lived▁there	-8653
▁may▁be▁jerk	-8654
▁performance	-8655
▁take▁office	-8656
▁this▁affair	-8657
▁very▁little	-8658
▁walt▁disney	-8659
▁was▁destroy	-8660
▁worked▁as▁a	-8661
art▁due▁to▁un	-8662
ed▁because▁we	-8663
ies▁an▁entire	-8664
ise▁in▁global	-8665
it▁for▁office	-8666
outhern▁camer	-8667
oyono▁to▁take	-8668
phur▁is▁a▁key	-8669
ranger▁things	-8670
rich▁from▁the	-8671
rote▁the▁song	-8672
rowd▁gathered	-8673
se▁due▁to▁the	-8674
st▁of▁january	-8675
s▁and▁current	-8676
s▁and▁foreign	-8677
s▁are▁located	-8678
s▁brother▁jim	-8679
s▁from▁a▁baby	-8680
s▁growing▁mid	-8681
s▁headquarter	-8682
s▁just▁say▁he	-8683
s▁lead▁to▁a▁f	-8684
s▁of▁his▁life	-8685
s▁of▁polonium	-8686
s▁the▁muppets	-8687
s▁to▁the▁most	-8688
tailing▁immig	-8689
terior▁design	-8690
tervention▁is	-8691
this▁has▁been	-8692
th▁of▁january	-8693
ting▁this▁mag	-8694
to▁which▁trix	-8695
traps▁to▁conf	-8696
treal▁as▁a▁gu	-8697
ts▁themselves	-8698
udience▁laugh	-8699
▁skills	-8700
ic▁ocean	-8701
re▁union	-8702
ve▁spent	-8703
▁committ	-8704
▁militia	-8705
▁oceanic	-8706
▁pointed	-8707
▁uncover	-8708
▁young▁w	-8709
aging▁and	-8710
ary▁organ	-8711
ary▁point	-8712
ated▁in▁a	-8713
ated▁in▁r	-8714
ated▁in▁s	-8715
rying▁and	-8716
▁by▁press	-8717
▁he▁might	-8718
▁might▁be	-8719
▁militant	-8720
▁of▁space	-8721
▁reach▁al	-8722
▁reducing	-8723
▁space▁st	-8724
▁spent▁by	-8725
▁the▁gory	-8726
raging▁and	-8727
▁artist▁or	-8728
▁might▁not	-8729
▁more▁unus	-8730
▁reach▁alb	-8731
▁space▁was	-8732
▁the▁gorye	-8733
▁the▁mexic	-8734
▁total▁for	-8735
▁total▁sal	-8736
▁unusually	-8737
▁young▁wid	-8738
antic▁ocean	-8739
ated▁in▁rum	-8740
ing▁and▁not	-8741
▁andes▁were	-8742
▁at▁uncover	-8743
▁global▁war	-8744
▁might▁vote	-8745
▁oceanic▁cr	-8746
▁open▁space	-8747
▁skills▁and	-8748
▁spent▁hour	-8749
▁star▁reach	-8750
▁the▁goryeo	-8751
▁union▁as▁a	-8752
▁well▁short	-8753
▁young▁girl	-8754
ary▁point▁in	-8755
ated▁in▁sout	-8756
lantic▁ocean	-8757
▁but▁it▁help	-8758
▁but▁it▁only	-8759
▁committed▁a	-8760
▁he▁might▁go	-8761
▁stated▁in▁a	-8762
▁total▁sales	-8763
▁unusually▁v	-8764
▁young▁widow	-8765
ulti▁strategy	-8766
unch▁of▁stuff	-8767
unfortunately	-8768
ured▁that▁she	-8769
urer▁georg▁re	-8770
ures▁are▁surg	-8771
use▁and▁deter	-8772
utch▁students	-8773
vency▁in▁july	-8774
ve▁the▁rising	-8775
waters▁in▁the	-8776
ya▁knew▁climb	-8777
y▁of▁cameroun	-8778
y▁video▁loops	-8779
▁abbey▁church	-8780
▁about▁an▁app	-8781
▁about▁her▁or	-8782
▁about▁her▁up	-8783
▁about▁taking	-8784
▁accounts▁and	-8785
▁adept▁guitar	-8786
▁administered	-8787
▁african▁rift	-8788
▁african▁than	-8789
▁after▁deduct	-8790
▁agency▁after	-8791
▁agency▁alert	-8792
▁allowed▁rona	-8793
▁alternatives	-8794
▁although▁inc	-8795
▁although▁not	-8796
▁always▁had▁a	-8797
▁among▁friend	-8798
▁among▁humans	-8799
▁angel	-8800
s▁alone	-8801
s▁death	-8802
s▁local	-8803
▁claims	-8804
▁is▁hom	-8805
▁widely	-8806
▁writer	-8807
ie▁makes	-8808
igration	-8809
the▁wind	-8810
▁makes▁s	-8811
hips▁with	-8812
ians▁arri	-8813
iction▁to	-8814
riendship	-8815
s▁friends	-8816
s▁on▁your	-8817
▁album▁ch	-8818
▁and▁i▁am	-8819
▁app▁tool	-8820
▁death▁of	-8821
▁he▁claim	-8822
▁in▁bonds	-8823
▁is▁above	-8824
▁is▁homer	-8825
▁writer▁g	-8826
ia▁and▁its	-8827
s▁alone▁in	-8828
▁31,▁1832,	-8829
▁and▁death	-8830
▁and▁local	-8831
▁bar▁above	-8832
▁displaced	-8833
▁islam▁and	-8834
▁migration	-8835
ed▁together	-8836
▁album▁over	-8837
▁also▁claim	-8838
▁of▁a▁claim	-8839
▁that▁and▁i	-8840
▁that▁makes	-8841
▁two▁proper	-8842
ages▁in▁both	-8843
ians▁arrived	-8844
the▁winds▁of	-8845
▁above▁their	-8846
▁album▁chart	-8847
▁displaced▁n	-8848
▁leave▁the▁p	-8849
▁makes▁sense	-8850
▁movie▁makes	-8851
▁these▁tools	-8852
▁the▁greater	-8853
▁to▁be▁elect	-8854
▁with▁french	-8855
▁years▁leave	-8856
aw▁delineates	-8857
ers▁and▁state	-8858
riendship▁has	-8859
▁addiction▁to	-8860
▁alone▁in▁the	-8861
▁among▁others	-8862
▁ancient▁maya	-8863
▁and▁a▁prayer	-8864
▁and▁combined	-8865
▁and▁consumer	-8866
▁and▁in▁other	-8867
▁and▁it▁is▁an	-8868
▁and▁stresses	-8869
▁and▁switched	-8870
▁and▁the▁phil	-8871
▁and▁urban▁sp	-8872
▁and▁we▁think	-8873
▁announcement	-8874
▁antonio▁gaud	-8875
▁an▁exception	-8876
▁an▁open▁mind	-8877
▁appears▁nude	-8878
▁are▁not▁very	-8879
▁army▁succeed	-8880
▁around▁alone	-8881
▁as▁lucrative	-8882
▁as▁mare▁nost	-8883
▁at▁best▁mere	-8884
▁at▁punta▁del	-8885
▁at▁the▁heart	-8886
▁audience▁and	-8887
▁a▁bronze▁age	-8888
▁a▁connective	-8889
▁a▁friend▁who	-8890
▁a▁long▁siege	-8891
▁a▁more▁troub	-8892
▁a▁referendum	-8893
▁a▁small▁town	-8894
▁a▁surge▁of▁t	-8895
▁a▁third▁term	-8896
▁a▁variety▁of	-8897
▁a▁voucher▁is	-8898
▁a▁year▁and▁a	-8899
5,000.	-8900
rained	-8901
tained	-8902
ursuit	-8903
▁campb	-8904
▁enemy	-8905
▁marta	-8906
▁shipb	-8907
▁ships	-8908
25,000.	-8909
etlands	-8910
▁35,000	-8911
▁cultic	-8912
▁heroin	-8913
▁of▁ven	-8914
▁once▁h	-8915
▁shenan	-8916
age▁of▁v	-8917
ances▁of	-8918
istently	-8919
light▁on	-8920
ongolian	-8921
umour▁in	-8922
▁all▁und	-8923
▁georget	-8924
▁in▁asia	-8925
▁leaving	-8926
▁of▁food	-8927
▁oratory	-8928
▁send▁em	-8929
▁uses▁of	-8930
es▁to▁one	-8931
s▁in▁line	-8932
tained▁an	-8933
there▁are	-8934
there▁was	-8935
ursuit▁of	-8936
▁and▁asia	-8937
▁campbell	-8938
▁lowlands	-8939
▁one▁step	-8940
▁send▁emo	-8941
▁shenanig	-8942
▁the▁edit	-8943
▁votes▁of	-8944
▁wetlands	-8945
▁yet▁been	-8946
alances▁of	-8947
s▁and▁flow	-8948
there▁wasn	-8949
▁all▁undes	-8950
▁collision	-8951
▁highlight	-8952
▁king▁fran	-8953
▁line▁prov	-8954
▁line▁that	-8955
▁of▁venice	-8956
▁once▁hans	-8957
▁once▁said	-8958
▁send▁emoj	-8959
▁seventeen	-8960
▁ships▁big	-8961
▁they▁refe	-8962
▁took▁down	-8963
▁untrained	-8964
▁would▁yet	-8965
age▁of▁vill	-8966
ary▁oratory	-8967
ersistently	-8968
ies▁equally	-8969
i▁once▁said	-8970
tained▁an▁m	-8971
▁east▁afric	-8972
▁georgetown	-8973
▁great▁step	-8974
▁king▁franz	-8975
▁later▁date	-8976
▁once▁again	-8977
▁send▁emoji	-8978
▁which▁flow	-8979
ed▁in▁august	-8980
sixties▁play	-8981
ve▁highlight	-8982
▁all▁undesir	-8983
▁appeal▁of▁a	-8984
▁balances▁of	-8985
▁can▁be▁flow	-8986
▁leaving▁ind	-8987
▁line▁provok	-8988
▁shenanigans	-8989
▁tablet▁that	-8990
▁they▁are▁un	-8991
▁the▁editing	-8992
▁this▁was▁re	-8993
▁way▁of▁food	-8994
ini▁once▁said	-8995
isations▁were	-8996
▁and▁even▁cnn	-8997
▁back▁the▁old	-8998
▁bank▁account	-8999
99.	-9000
▁mrs	-9001
holic	-9002
o▁san	-9003
▁code	-9004
▁ms▁h	-9005
▁ultr	-9006
mbolic	-9007
omfort	-9008
port▁w	-9009
remark	-9010
▁1399.	-9011
▁a▁ban	-9012
▁bloch	-9013
▁bloom	-9014
▁corin	-9015
▁highe	-9016
▁ideal	-9017
▁sanct	-9018
▁yemen	-9019
als▁und	-9020
coholic	-9021
port▁wi	-9022
ymbolic	-9023
▁corner	-9024
▁corres	-9025
▁few▁bl	-9026
▁palmer	-9027
▁trails	-9028
▁ultras	-9029
ed▁a▁few	-9030
esto▁san	-9031
▁coastal	-9032
▁corinth	-9033
▁corresp	-9034
▁musical	-9035
▁sea▁cod	-9036
▁the▁und	-9037
ed▁in▁pal	-9038
ife▁sanct	-9039
ivals▁und	-9040
▁a▁ban▁or	-9041
▁bloch▁is	-9042
▁memories	-9043
▁musicals	-9044
▁symbolic	-9045
▁the▁unde	-9046
▁year▁iii	-9047
ails▁about	-9048
ic▁sea▁cod	-9049
ine▁ultras	-9050
life▁sanct	-9051
remarkable	-9052
▁alcoholic	-9053
▁bloomed▁a	-9054
▁few▁block	-9055
▁interface	-9056
▁memes▁and	-9057
▁would▁pay	-9058
ed▁in▁palma	-9059
ing▁for▁mus	-9060
otted▁a▁few	-9061
reeted▁with	-9062
▁airport▁wi	-9063
▁a▁ban▁or▁l	-9064
▁discomfort	-9065
▁palmer▁did	-9066
▁reduce▁the	-9067
▁this▁ideal	-9068
ivals▁unders	-9069
ltic▁sea▁cod	-9070
ose▁year▁iii	-9071
s▁and▁trails	-9072
s▁in▁corinth	-9073
▁believed▁to	-9074
▁coastal▁bel	-9075
▁corner▁is▁a	-9076
▁from▁caesar	-9077
▁lead▁to▁cha	-9078
▁marriage▁of	-9079
▁mrs▁clinton	-9080
▁thought▁a▁b	-9081
▁with▁twenty	-9082
ayor▁of▁saint	-9083
ildlife▁sanct	-9084
recent▁events	-9085
we▁are▁seeing	-9086
▁a▁ban▁or▁lic	-9087
▁bar▁to▁entry	-9088
▁beauty▁and▁h	-9089
▁became▁ruler	-9090
▁before▁birth	-9091
▁beginning▁of	-9092
▁between▁sens	-9093
▁between▁sull	-9094
▁be▁needed▁to	-9095
▁border▁guard	-9096
▁bound▁waters	-9097
▁buffalo▁lung	-9098
▁bullshit▁pre	-9099
▁6%	-9100
▁62	-9101
aits	-9102
hamm	-9103
iera	-9104
lcom	-9105
olls	-9106
rael	-9107
▁134	-9108
▁137	-9109
▁600	-9110
▁62%	-9111
altic	-9112
eltic	-9113
osped	-9114
▁1,16	-9115
▁doll	-9116
▁haze	-9117
▁lift	-9118
▁loll	-9119
hammed	-9120
ham▁to	-9121
zerain	-9122
▁1,165	-9123
▁1340,	-9124
▁absol	-9125
▁altar	-9126
▁deeds	-9127
▁extra	-9128
▁kiera	-9129
▁stoll	-9130
ospedal	-9131
ott▁was	-9132
▁celtic	-9133
▁lollip	-9134
as▁stoll	-9135
ed▁by▁kr	-9136
iott▁was	-9137
zerainty	-9138
▁600,000	-9139
▁grandst	-9140
▁signify	-9141
▁soldier	-9142
▁straits	-9143
caribbean	-9144
hammed▁al	-9145
▁an▁extra	-9146
▁are▁lift	-9147
▁cospedal	-9148
▁the▁coll	-9149
▁undercar	-9150
▁we▁absol	-9151
ed▁by▁kras	-9152
ice▁lollip	-9153
lcomed▁the	-9154
lliott▁was	-9155
olas▁stoll	-9156
olls▁after	-9157
t▁be▁troub	-9158
ed▁by▁krasn	-9159
illion▁doll	-9160
▁celtic▁and	-9161
▁grandstand	-9162
▁than▁kiera	-9163
▁the▁baltic	-9164
▁undercarri	-9165
sis▁would▁be	-9166
s▁dark▁deeds	-9167
▁administrat	-9168
▁dust▁storms	-9169
▁elliott▁was	-9170
▁grandstands	-9171
▁mohammed▁al	-9172
▁note▁to▁mps	-9173
▁refurbished	-9174
▁rice▁lollip	-9175
▁sending▁the	-9176
▁that▁others	-9177
ed▁by▁krasnoy	-9178
ham▁to▁design	-9179
icholas▁stoll	-9180
t▁be▁troubled	-9181
▁burgoyne▁who	-9182
▁burial▁sites	-9183
▁but▁she▁said	-9184
▁but▁they▁can	-9185
▁but▁they▁may	-9186
▁but▁to▁do▁so	-9187
▁by▁clouds▁or	-9188
▁by▁rebellion	-9189
▁by▁the▁advan	-9190
▁cabinetmaker	-9191
▁can▁actually	-9192
▁carlos▁salas	-9193
▁caused▁a▁big	-9194
▁ceded▁to▁the	-9195
▁changed▁more	-9196
▁cities▁which	-9197
▁citizens▁who	-9198
▁cleared▁duff	-9199
cbs	-9200
itra	-9201
▁120	-9202
▁gca	-9203
20▁--	-9204
▁1820	-9205
▁1820.	-9206
▁forec	-9207
▁nitra	-9208
▁parma	-9209
▁scrip	-9210
bs▁until	-9211
▁2020▁--	-9212
▁scripts	-9213
▁forecast	-9214
▁gca▁allow	-9215
▁officials	-9216
a▁investors	-9217
ed▁in▁the▁f	-9218
▁argue▁they	-9219
▁gca▁allows	-9220
▁official▁b	-9221
▁to▁receive	-9222
asion▁of▁the	-9223
ented▁in▁the	-9224
ing▁to▁the▁c	-9225
ity▁of▁nitra	-9226
s▁throughout	-9227
▁establish▁s	-9228
▁eu▁official	-9229
▁hope▁it▁was	-9230
▁official▁bi	-9231
▁the▁bbc▁for	-9232
ail▁since▁the	-9233
a▁investors▁m	-9234
ed▁in▁the▁fat	-9235
ention▁of▁the	-9236
ists▁began▁to	-9237
▁analysts▁are	-9238
▁and▁released	-9239
▁by▁their▁own	-9240
▁children▁and	-9241
▁clearly▁exce	-9242
▁clothes▁were	-9243
▁club▁singing	-9244
▁collaborates	-9245
▁colonisation	-9246
▁concerned▁to	-9247
▁condos▁enter	-9248
▁confidential	-9249
▁covered▁much	-9250
▁crop▁failure	-9251
▁cup▁champion	-9252
▁cup▁played▁a	-9253
▁cut▁off▁from	-9254
▁data▁on▁roma	-9255
▁decca▁record	-9256
▁decided▁they	-9257
▁declared▁a▁w	-9258
▁defence▁maps	-9259
▁demonstrated	-9260
▁described▁as	-9261
▁despite▁this	-9262
▁discontinued	-9263
▁dozens▁of▁fs	-9264
▁do▁something	-9265
▁do▁you▁argue	-9266
▁drop▁the▁mic	-9267
▁each▁airline	-9268
▁end▁of▁an▁un	-9269
▁enraging▁and	-9270
▁erik▁solheim	-9271
▁event▁mexico	-9272
▁example▁of▁a	-9273
▁expand▁until	-9274
▁extreme▁than	-9275
▁face▁into▁an	-9276
▁farming▁land	-9277
▁felipe▁v▁and	-9278
▁few▁blocks▁a	-9279
▁finished▁his	-9280
▁fleet▁in▁the	-9281
▁flicking▁the	-9282
▁food▁process	-9283
▁forces▁under	-9284
▁for▁administ	-9285
▁for▁children	-9286
▁for▁outgoing	-9287
▁for▁thousand	-9288
▁four▁minutes	-9289
▁france▁doesn	-9290
▁free▁of▁coal	-9291
▁from▁the▁car	-9292
▁from▁the▁sur	-9293
▁georgetown▁b	-9294
▁go▁unnoticed	-9295
▁greek▁cities	-9296
▁guarantee▁of	-9297
▁guide▁to▁the	-9298
▁had▁expelled	-9299
gca	-9300
lasting	-9301
▁friday	-9302
alkstone	-9303
▁or▁less	-9304
eing▁that	-9305
ian▁canal	-9306
s▁another	-9307
▁a▁produc	-9308
▁councils	-9309
▁informed	-9310
▁joseph▁d	-9311
▁joseph▁i	-9312
▁produced	-9313
▁reconcil	-9314
▁the▁seat	-9315
▁walked▁a	-9316
ir▁various	-9317
▁another▁h	-9318
▁a▁thought	-9319
▁customary	-9320
▁friday▁if	-9321
▁invention	-9322
▁in▁use▁in	-9323
▁joseph▁br	-9324
▁or▁should	-9325
oney▁invest	-9326
▁and▁joseph	-9327
▁a▁producer	-9328
▁bian▁canal	-9329
▁can▁be▁res	-9330
▁chalkstone	-9331
▁command▁of	-9332
▁having▁any	-9333
▁in▁various	-9334
▁is▁a▁disas	-9335
▁of▁clinton	-9336
▁on▁various	-9337
▁produced▁a	-9338
▁the▁season	-9339
▁thing▁that	-9340
▁thought▁of	-9341
▁why▁the▁se	-9342
▁working▁so	-9343
ation▁forces	-9344
▁all▁the▁med	-9345
▁and▁getting	-9346
▁another▁hon	-9347
▁another▁way	-9348
▁boeing▁that	-9349
▁britain▁can	-9350
▁can▁be▁seen	-9351
▁has▁brought	-9352
▁joseph▁darn	-9353
▁territories	-9354
▁walked▁away	-9355
ary▁a▁thought	-9356
ed▁by▁albania	-9357
est▁invention	-9358
is▁and▁joseph	-9359
▁and▁his▁wife	-9360
▁another▁them	-9361
▁contain▁more	-9362
▁earlier▁than	-9363
▁filming▁that	-9364
▁had▁left▁her	-9365
▁had▁to▁leave	-9366
▁half▁as▁a▁st	-9367
▁has▁shown▁to	-9368
▁has▁the▁self	-9369
▁health▁reduc	-9370
▁helps▁with▁n	-9371
▁henry▁breast	-9372
▁her▁behavior	-9373
▁her▁sunglass	-9374
▁her▁to▁learn	-9375
▁he▁dominated	-9376
▁he▁graduated	-9377
▁he▁would▁sur	-9378
▁him▁with▁his	-9379
▁historical▁v	-9380
▁his▁administ	-9381
▁his▁brothers	-9382
▁his▁dream▁to	-9383
▁how▁officers	-9384
▁if▁a▁turkish	-9385
▁if▁they▁were	-9386
▁impersonator	-9387
▁increases▁in	-9388
▁indian▁ocean	-9389
▁industry▁and	-9390
▁infill▁metro	-9391
▁initially▁qu	-9392
▁institutions	-9393
▁intermarried	-9394
▁in▁financial	-9395
▁in▁his▁favor	-9396
▁in▁hong▁kong	-9397
▁in▁jerusalem	-9398
▁in▁love▁with	-9399
▁catf	-9400
▁spoke	-9401
ia▁hold	-9402
s▁the▁n	-9403
▁limits	-9404
al▁parts	-9405
answered	-9406
ographic	-9407
t▁always	-9408
▁catfish	-9409
▁of▁town	-9410
▁the▁nuc	-9411
dle▁class	-9412
ia▁holden	-9413
s▁the▁nar	-9414
▁as▁an▁am	-9415
▁as▁an▁en	-9416
▁attended	-9417
▁front▁on	-9418
▁he▁is▁an	-9419
▁in▁athen	-9420
▁liberate	-9421
▁mount▁an	-9422
▁of▁front	-9423
▁of▁towns	-9424
▁west▁and	-9425
▁west▁was	-9426
armed▁into	-9427
atic▁front	-9428
ious▁limit	-9429
▁alive▁and	-9430
▁all▁charg	-9431
▁almost▁at	-9432
▁and▁i▁jok	-9433
▁as▁an▁ami	-9434
▁as▁an▁arm	-9435
▁as▁an▁env	-9436
▁been▁used	-9437
▁call▁it▁a	-9438
▁classical	-9439
▁in▁athens	-9440
▁literally	-9441
▁new▁limit	-9442
▁separated	-9443
▁she▁spoke	-9444
▁the▁liber	-9445
▁the▁names	-9446
▁two▁parts	-9447
▁used▁as▁a	-9448
▁well▁used	-9449
n▁and▁i▁jok	-9450
one▁average	-9451
oria▁holden	-9452
s▁the▁offer	-9453
t▁call▁it▁a	-9454
▁and▁almost	-9455
▁he▁is▁also	-9456
▁often▁used	-9457
▁of▁townspe	-9458
▁parts▁of▁m	-9459
▁state▁of▁w	-9460
▁that▁lower	-9461
▁that▁the▁n	-9462
▁unanswered	-9463
atic▁front▁l	-9464
ed▁into▁many	-9465
ild▁west▁was	-9466
ion▁of▁being	-9467
riend▁in▁mer	-9468
st▁alive▁and	-9469
s▁the▁narrow	-9470
zone▁average	-9471
▁all▁charges	-9472
▁always▁look	-9473
▁always▁work	-9474
▁ambassadors	-9475
▁as▁an▁envoy	-9476
▁connections	-9477
▁influential	-9478
▁metal▁parts	-9479
▁players▁and	-9480
▁that▁the▁nh	-9481
▁the▁fall▁in	-9482
▁the▁nuclear	-9483
▁topographic	-9484
▁to▁front▁on	-9485
▁to▁liberate	-9486
ed▁into▁the▁m	-9487
friend▁in▁mer	-9488
s▁and▁catfish	-9489
ves▁saint▁lau	-9490
▁front▁of▁the	-9491
▁in▁paris▁and	-9492
▁in▁september	-9493
▁in▁sesto▁san	-9494
▁in▁the▁exhib	-9495
▁in▁the▁media	-9496
▁in▁the▁seven	-9497
▁in▁the▁union	-9498
▁issue▁of▁the	-9499
▁luis	-9500
▁freez	-9501
▁hills	-9502
▁nonet	-9503
en▁girl	-9504
hes▁for	-9505
ic▁book	-9506
ma▁with	-9507
▁austri	-9508
▁deceit	-9509
▁factor	-9510
▁find▁a	-9511
▁free▁b	-9512
▁nearly	-9513
▁spoken	-9514
age▁near	-9515
ed▁morav	-9516
ess▁anim	-9517
ing▁hour	-9518
ost▁read	-9519
s▁deceit	-9520
s▁spoken	-9521
▁charles	-9522
▁charter	-9523
▁factory	-9524
▁factual	-9525
▁free▁up	-9526
▁hillary	-9527
▁nonethe	-9528
▁of▁hill	-9529
▁reading	-9530
▁seen▁it	-9531
▁the▁inn	-9532
▁to▁meet	-9533
▁up▁near	-9534
emma▁with	-9535
ost▁reads	-9536
s▁of▁luis	-9537
ushes▁for	-9538
very▁book	-9539
y▁of▁find	-9540
▁findings	-9541
▁free▁bos	-9542
▁gold▁and	-9543
▁meetings	-9544
▁not▁find	-9545
▁on▁hills	-9546
▁presided	-9547
▁required	-9548
▁two▁fact	-9549
▁was▁free	-9550
aded▁morav	-9551
en▁girl▁at	-9552
every▁book	-9553
ue▁to▁meet	-9554
▁austrians	-9555
▁been▁seen	-9556
▁books▁and	-9557
▁girl▁in▁a	-9558
▁his▁skill	-9559
▁many▁sold	-9560
▁operation	-9561
▁to▁find▁a	-9562
▁two▁facts	-9563
ilemma▁with	-9564
incess▁anim	-9565
ney▁of▁find	-9566
s▁spoken▁in	-9567
t▁that▁they	-9568
▁but▁having	-9569
▁comic▁book	-9570
▁free▁bosph	-9571
▁free▁state	-9572
▁many▁soldi	-9573
▁often▁deep	-9574
▁operations	-9575
▁pushes▁for	-9576
▁to▁be▁sold	-9577
age▁near▁sun	-9578
ing▁the▁book	-9579
min▁was▁free	-9580
rincess▁anim	-9581
▁and▁certain	-9582
▁artistic▁or	-9583
▁days▁before	-9584
▁direct▁desc	-9585
▁has▁seen▁it	-9586
▁nonetheless	-9587
▁the▁charter	-9588
▁the▁consult	-9589
ck▁pushes▁for	-9590
ed▁by▁the▁per	-9591
ed▁many▁soldi	-9592
▁austrians▁to	-9593
▁books▁and▁un	-9594
▁context▁of▁a	-9595
▁free▁bosphor	-9596
▁his▁skill▁in	-9597
▁in▁operation	-9598
▁is▁a▁feature	-9599
i▁vis	-9600
o▁pet	-9601
t▁let	-9602
▁audi	-9603
▁engl	-9604
▁runn	-9605
▁troj	-9606
▁viol	-9607
o▁petr	-9608
ua▁and	-9609
▁engag	-9610
▁troop	-9611
-£5,000	-9612
er▁viol	-9613
ulously	-9614
▁a▁care	-9615
▁ba▁and	-9616
▁detect	-9617
▁jewell	-9618
▁letter	-9619
▁trojan	-9620
actively	-9621
ates▁pat	-9622
ice▁hort	-9623
ource▁of	-9624
pulously	-9625
rence▁of	-9626
s▁letter	-9627
▁english	-9628
▁put▁ser	-9629
▁run▁for	-9630
▁sent▁in	-9631
o▁petrass	-9632
s▁for▁his	-9633
▁actively	-9634
▁force▁of	-9635
▁last▁six	-9636
▁troopers	-9637
000-£5,000	-9638
ender▁viol	-9639
ously▁serv	-9640
o▁petrassi	-9641
rence▁of▁h	-9642
rupulously	-9643
s▁for▁each	-9644
▁audiences	-9645
▁billboard	-9646
▁capua▁and	-9647
▁given▁ser	-9648
▁jewellery	-9649
▁peter▁and	-9650
▁running▁a	-9651
▁six▁other	-9652
▁sun▁and▁f	-9653
▁while▁air	-9654
i▁visit▁the	-9655
▁becoming▁a	-9656
▁brice▁hort	-9657
▁detect▁the	-9658
▁engaged▁in	-9659
▁given▁serb	-9660
▁run▁by▁the	-9661
▁sent▁in▁by	-9662
▁trojan▁war	-9663
3,000-£5,000	-9664
erms▁for▁his	-9665
int▁force▁of	-9666
ircumstances	-9667
rence▁of▁hur	-9668
s▁letter▁has	-9669
▁by▁scotsman	-9670
▁english▁law	-9671
▁gender▁viol	-9672
▁proactively	-9673
▁sea▁put▁ser	-9674
▁that▁ba▁and	-9675
redo▁petrassi	-9676
▁also▁lead▁to	-9677
▁but▁this▁was	-9678
▁current▁land	-9679
▁has▁launched	-9680
▁is▁expecting	-9681
▁is▁fueled▁by	-9682
▁is▁no▁longer	-9683
▁itself▁fight	-9684
▁its▁ambition	-9685
▁its▁struggle	-9686
▁it▁for▁the▁m	-9687
▁i▁discovered	-9688
▁i▁think▁that	-9689
▁i▁was▁just▁a	-9690
▁jasmine▁also	-9691
▁judicial▁rul	-9692
▁just▁outside	-9693
▁just▁product	-9694
▁kansas▁would	-9695
▁kilowatts▁of	-9696
▁kim▁composed	-9697
▁kipling▁also	-9698
▁klein▁was▁un	-9699
45.	-9700
t▁pa	-9701
y▁by	-9702
▁esp	-9703
▁lah	-9704
3.45.	-9705
lanes	-9706
mired	-9707
saint	-9708
y▁byz	-9709
▁168,	-9710
▁emig	-9711
atican	-9712
ed▁cup	-9713
eta▁is	-9714
illard	-9715
lessly	-9716
spired	-9717
s▁emig	-9718
▁maint	-9719
▁paint	-9720
ained▁c	-9721
aplanes	-9722
ed▁area	-9723
ed▁cups	-9724
ismatic	-9725
ricanes	-9726
s▁emigr	-9727
t▁paire	-9728
▁23.45.	-9729
▁a▁time	-9730
▁caused	-9731
▁espous	-9732
▁in▁lah	-9733
▁new▁em	-9734
▁parent	-9735
▁poland	-9736
▁unless	-9737
atic▁sea	-9738
less▁loc	-9739
y▁byzant	-9740
▁168,000	-9741
▁admired	-9742
▁also▁pa	-9743
▁desired	-9744
▁for▁tax	-9745
▁gillard	-9746
▁roma▁is	-9747
▁spelled	-9748
▁vatican	-9749
▁western	-9750
er▁and▁la	-9751
lessly▁cl	-9752
▁confused	-9753
▁love▁you	-9754
▁transmit	-9755
adless▁loc	-9756
ained▁crit	-9757
a▁is▁often	-9758
ired▁power	-9759
ots▁origin	-9760
riatic▁sea	-9761
ried▁about	-9762
s▁inspired	-9763
t▁paire▁in	-9764
urned▁cups	-9765
▁also▁paid	-9766
▁in▁lahore	-9767
▁joseph▁sc	-9768
▁paintings	-9769
▁parenting	-9770
▁seaplanes	-9771
fired▁power	-9772
s▁emigrated	-9773
y▁byzantium	-9774
▁espoused▁a	-9775
▁in▁roma▁is	-9776
▁numismatic	-9777
an▁has▁shown	-9778
pturned▁cups	-9779
roots▁origin	-9780
▁by▁transmit	-9781
▁it▁was▁said	-9782
▁under▁const	-9783
ired▁with▁the	-9784
ly▁numismatic	-9785
▁adriatic▁sea	-9786
▁an▁open▁spir	-9787
▁joseph▁schen	-9788
▁kuo▁soon▁imp	-9789
▁large▁new▁em	-9790
▁learning▁dis	-9791
▁leave▁sicily	-9792
▁legal▁action	-9793
▁levy▁against	-9794
▁liao▁kingdom	-9795
▁like▁beijing	-9796
▁lunar▁months	-9797
▁lungs▁of▁the	-9798
▁making▁peace	-9799
hey	-9800
lei	-9801
eneu	-9802
mers	-9803
yche	-9804
▁ens	-9805
▁spi	-9806
chlei	-9807
licop	-9808
rance	-9809
eneuve	-9810
s▁of▁m	-9811
ystery	-9812
▁1955,	-9813
▁breat	-9814
▁shepp	-9815
▁spike	-9816
agrance	-9817
ally▁su	-9818
ordance	-9819
▁actual	-9820
▁fights	-9821
▁toward	-9822
▁to▁ens	-9823
ated▁for	-9824
licopter	-9825
s▁of▁dis	-9826
▁farmers	-9827
▁in▁cast	-9828
▁mothers	-9829
▁mystery	-9830
▁will▁ev	-9831
ally▁suck	-9832
s▁of▁this	-9833
the▁spike	-9834
▁as▁their	-9835
▁by▁shepp	-9836
▁by▁their	-9837
▁interact	-9838
▁is▁a▁row	-9839
▁she▁also	-9840
▁time▁are	-9841
ate▁people	-9842
w▁as▁their	-9843
▁and▁breat	-9844
▁but▁their	-9845
▁fragrance	-9846
▁has▁fewer	-9847
▁moved▁the	-9848
▁will▁eval	-9849
rend▁toward	-9850
zira▁island	-9851
▁agents▁are	-9852
▁charged▁by	-9853
▁each▁other	-9854
▁fights▁and	-9855
▁for▁promot	-9856
▁slated▁for	-9857
▁that▁their	-9858
▁the▁course	-9859
▁the▁schlei	-9860
▁this▁would	-9861
▁thrown▁out	-9862
▁will▁evalu	-9863
▁with▁their	-9864
▁would▁also	-9865
an▁dismisses	-9866
licopters▁to	-9867
s▁of▁macedon	-9868
the▁spike▁in	-9869
▁about▁their	-9870
▁by▁sheppard	-9871
▁election▁of	-9872
▁has▁fewer▁k	-9873
▁his▁mystery	-9874
▁the▁cuticle	-9875
▁which▁would	-9876
ation▁project	-9877
lan▁dismisses	-9878
w▁as▁their▁lo	-9879
▁actual▁state	-9880
▁has▁fewer▁km	-9881
▁its▁colonies	-9882
▁manipulating	-9883
▁many▁species	-9884
▁memes▁and▁st	-9885
▁met▁at▁the▁s	-9886
▁met▁his▁wife	-9887
▁might▁not▁be	-9888
▁milice▁param	-9889
▁more▁or▁less	-9890
▁most▁obvious	-9891
▁moving▁butts	-9892
▁names▁of▁the	-9893
▁napoleon▁bon	-9894
▁napoleon▁was	-9895
▁nations▁cult	-9896
▁nearly▁broke	-9897
▁neighbouring	-9898
▁new▁alphabet	-9899
llo	-9900
oga	-9901
▁1%,	-9902
▁dub	-9903
▁upl	-9904
atoga	-9905
ivost	-9906
k▁rem	-9907
▁feet	-9908
▁i▁sp	-9909
▁nine	-9910
▁pact	-9911
▁vine	-9912
▁whip	-9913
15,000	-9914
arings	-9915
aza▁de	-9916
orello	-9917
s▁of▁e	-9918
we▁can	-9919
▁guess	-9920
▁in▁pl	-9921
adivost	-9922
als▁for	-9923
aratoga	-9924
inately	-9925
iorello	-9926
s▁of▁in	-9927
▁assass	-9928
▁conson	-9929
▁to▁its	-9930
▁uplift	-9931
acked▁in	-9932
ages▁for	-9933
ary▁with	-9934
k▁remedy	-9935
ladivost	-9936
s▁of▁eur	-9937
▁all▁its	-9938
▁but▁not	-9939
▁dubious	-9940
▁medical	-9941
▁nine▁in	-9942
▁worries	-9943
ine▁which	-9944
oman▁said	-9945
son▁river	-9946
▁assassin	-9947
▁fiorello	-9948
▁guessing	-9949
▁hearings	-9950
▁in▁pluvi	-9951
▁plaza▁de	-9952
▁the▁king	-9953
▁the▁love	-9954
▁vine▁was	-9955
acked▁in▁j	-9956
c▁hearings	-9957
ladivostok	-9958
pped▁herzl	-9959
s▁of▁euras	-9960
woman▁said	-9961
▁after▁its	-9962
▁dubious▁c	-9963
▁from▁uber	-9964
▁goals▁for	-9965
▁she▁ran▁a	-9966
▁vary▁with	-9967
ally▁do▁not	-9968
ence▁of▁the	-9969
ily▁married	-9970
tc▁hearings	-9971
udson▁river	-9972
▁all▁its▁gl	-9973
▁until▁then	-9974
inately▁long	-9975
ripped▁herzl	-9976
s▁of▁eurasia	-9977
▁and▁lack▁of	-9978
▁former▁pupp	-9979
▁her▁decline	-9980
▁in▁saratoga	-9981
▁isabella▁of	-9982
▁of▁hispania	-9983
▁of▁the▁pact	-9984
▁political▁r	-9985
▁sacked▁in▁j	-9986
▁to▁its▁cent	-9987
▁transformed	-9988
▁uplift▁that	-9989
▁vladivostok	-9990
ages▁for▁each	-9991
ecily▁married	-9992
ed▁a▁contract	-9993
rative▁purpos	-9994
▁arc▁centered	-9995
▁a▁line▁which	-9996
▁dubious▁cash	-9997
▁fiorello▁was	-9998
▁greater▁wind	-9999
even	-10000
pper	-10001
ing▁u	-10002
terns	-10003
▁elid	-10004
▁marx	-10005
▁none	-10006
▁i▁can	-10007
▁portr	-10008
▁upper	-10009
atterns	-10010
ed▁by▁j	-10011
ed▁by▁s	-10012
esteven	-10013
ions▁in	-10014
itioned	-10015
om▁will	-10016
▁can▁sa	-10017
▁temple	-10018
alled▁by	-10019
die▁zeit	-10020
s▁temple	-10021
▁buddies	-10022
▁eliding	-10023
▁marxism	-10024
▁portray	-10025
ature▁was	-10026
ed▁by▁sir	-10027
▁as▁an▁ad	-10028
▁at▁about	-10029
▁but▁none	-10030
▁can▁save	-10031
▁just▁off	-10032
▁kesteven	-10033
▁the▁deal	-10034
▁will▁the	-10035
ed▁by▁juan	-10036
ition▁tell	-10037
▁all▁about	-10038
▁apartment	-10039
▁fallen▁ap	-10040
▁he▁gained	-10041
▁serving▁u	-10042
▁the▁fight	-10043
▁the▁upper	-10044
s▁temple▁at	-10045
▁as▁an▁adul	-10046
▁could▁make	-10047
▁i▁can▁just	-10048
▁legions▁in	-10049
▁separately	-10050
▁was▁ground	-10051
ained▁by▁sir	-10052
ed▁the▁court	-10053
ers▁can▁save	-10054
nesday▁a▁new	-10055
▁alive▁among	-10056
▁appalled▁by	-10057
▁as▁will▁the	-10058
▁control▁was	-10059
▁its▁process	-10060
▁partitioned	-10061
ing▁up▁to▁the	-10062
s▁temple▁at▁k	-10063
▁also▁because	-10064
▁as▁an▁adulte	-10065
▁good▁buddies	-10066
▁her▁daughter	-10067
▁in▁the▁shape	-10068
▁is▁all▁about	-10069
▁more▁unusual	-10070
▁northwestern	-10071
▁north▁korean	-10072
▁nothing▁if▁a	-10073
▁not▁included	-10074
▁not▁long▁ago	-10075
▁obama▁mocked	-10076
▁obermarsberg	-10077
▁occurring▁in	-10078
▁oceans▁would	-10079
▁office▁jokow	-10080
▁of▁criticism	-10081
▁of▁frontline	-10082
▁of▁their▁age	-10083
▁of▁them▁were	-10084
▁of▁these▁meg	-10085
▁of▁the▁guide	-10086
▁of▁the▁rainy	-10087
▁of▁this▁mete	-10088
▁of▁which▁was	-10089
▁old▁colonial	-10090
▁one▁night▁at	-10091
▁only▁fifteen	-10092
▁only▁unclear	-10093
▁ontario▁city	-10094
▁on▁character	-10095
▁on▁grain▁imp	-10096
▁on▁one▁level	-10097
▁or▁die▁young	-10098
▁or▁two▁years	-10099
'"	-10100
12	-10101
12-	-10102
?'"	-10103
bru	-10104
olm	-10105
uls	-10106
▁29	-10107
12-5	-10108
balt	-10109
iber	-10110
lney	-10111
sper	-10112
ur▁p	-10113
usic	-10114
▁bod	-10115
12-51	-10116
asons	-10117
febru	-10118
gur▁p	-10119
water	-10120
▁2000	-10121
▁2900	-10122
▁adid	-10123
▁bann	-10124
▁dolm	-10125
12-511	-10126
allyan	-10127
ck▁for	-10128
iberia	-10129
ly▁but	-10130
perial	-10131
per▁is	-10132
s▁life	-10133
ulsion	-10134
▁accur	-10135
▁drast	-10136
▁obliv	-10137
▁olney	-10138
▁ready	-10139
▁round	-10140
▁stale	-10141
▁usher	-10142
hed▁the	-10143
h▁olney	-10144
ial▁int	-10145
m▁ready	-10146
water▁l	-10147
▁adidas	-10148
▁cobalt	-10149
▁explor	-10150
▁mark▁z	-10151
allyanne	-10152
ck▁forum	-10153
february	-10154
only▁but	-10155
vels▁inv	-10156
▁512-511	-10157
▁dolmens	-10158
▁prosper	-10159
▁reasons	-10160
▁siberia	-10161
▁the▁god	-10162
ck▁forums	-10163
s▁climate	-10164
ulsion▁to	-10165
ushed▁the	-10166
water▁lak	-10167
▁about▁ha	-10168
▁imperial	-10169
▁more▁wor	-10170
▁oblivion	-10171
▁of▁music	-10172
▁round▁me	-10173
▁so▁drast	-10174
▁stale▁st	-10175
▁such▁bod	-10176
▁the▁gods	-10177
▁the▁mate	-10178
▁universi	-10179
ial▁intell	-10180
▁about▁hav	-10181
▁adidas▁is	-10182
▁and▁after	-10183
▁and▁reach	-10184
▁are▁given	-10185
▁copper▁is	-10186
▁mark▁zuck	-10187
▁of▁the▁ad	-10188
▁operating	-10189
▁red▁blood	-10190
▁sallyanne	-10191
▁very▁high	-10192
eria▁of▁the	-10193
▁accurately	-10194
▁banned▁the	-10195
▁cobalt▁and	-10196
▁could▁open	-10197
▁floridians	-10198
▁founded▁in	-10199
erl	-10200
alla	-10201
iple	-10202
erlit	-10203
▁pall	-10204
▁wall	-10205
acalla	-10206
erlitz	-10207
▁shall	-10208
ultiple	-10209
▁by▁her	-10210
▁her▁ne	-10211
▁the▁cg	-10212
ide▁with	-10213
▁all▁but	-10214
▁he▁rece	-10215
▁shallow	-10216
▁the▁big	-10217
▁the▁cat	-10218
▁the▁cgi	-10219
▁the▁cor	-10220
ings▁were	-10221
usterlitz	-10222
▁multiple	-10223
▁she▁will	-10224
▁the▁four	-10225
▁to▁build	-10226
▁all▁but▁d	-10227
▁athenians	-10228
▁caracalla	-10229
▁headlines	-10230
▁he▁receiv	-10231
▁of▁rambow	-10232
▁says▁pall	-10233
▁the▁cgi▁m	-10234
atings▁were	-10235
incide▁with	-10236
▁and▁encour	-10237
▁from▁the▁c	-10238
▁next▁faced	-10239
▁novels▁inv	-10240
▁one▁studio	-10241
▁the▁corona	-10242
▁the▁female	-10243
▁the▁fourth	-10244
ial▁intellig	-10245
old▁daughter	-10246
▁alive▁after	-10247
▁and▁england	-10248
▁bouchard▁su	-10249
▁comfort▁has	-10250
▁exploration	-10251
▁following▁a	-10252
▁hack▁forums	-10253
▁intercepted	-10254
▁left▁to▁the	-10255
▁mark▁zucker	-10256
▁million▁and	-10257
▁philip▁next	-10258
▁shallow▁lag	-10259
▁shown▁to▁be	-10260
▁sources▁and	-10261
▁state▁could	-10262
▁the▁biggest	-10263
▁universiade	-10264
ce▁and▁encour	-10265
ino▁and▁the▁p	-10266
▁from▁the▁cop	-10267
▁in▁a▁message	-10268
▁in▁red▁blood	-10269
▁otherwise▁be	-10270
▁other▁things	-10271
▁paintings▁by	-10272
▁palms▁in▁the	-10273
▁particles▁ly	-10274
▁party▁photos	-10275
▁peloponnesus	-10276
▁perhaps▁most	-10277
▁pharaoh▁when	-10278
▁plans▁to▁cut	-10279
▁plaza▁de▁las	-10280
▁points▁stand	-10281
▁pope▁paul▁vi	-10282
▁portrayal▁of	-10283
▁posthumously	-10284
▁prescription	-10285
▁primary▁mode	-10286
▁produce▁post	-10287
▁protests▁and	-10288
▁provision▁of	-10289
▁public▁enemy	-10290
▁put▁a▁little	-10291
▁questionings	-10292
▁quickly▁open	-10293
▁rachida▁dati	-10294
▁radio▁at▁bus	-10295
▁rainy▁season	-10296
▁ranging▁from	-10297
▁rather▁vague	-10298
▁reach▁albany	-10299
oz	-10300
100	-10301
ozy	-10302
pty	-10303
rer	-10304
▁84	-10305
100%	-10306
cers	-10307
itic	-10308
m▁go	-10309
pair	-10310
ulpt	-10311
unip	-10312
▁eon	-10313
▁joe	-10314
▁scr	-10315
inage	-10316
▁fans	-10317
▁hadn	-10318
arkozy	-10319
oritic	-10320
ortion	-10321
ort▁of	-10322
pair▁p	-10323
ptying	-10324
t▁been	-10325
uckily	-10326
▁"100%	-10327
▁de▁br	-10328
▁it▁by	-10329
▁scrut	-10330
luckily	-10331
sts▁are	-10332
▁cather	-10333
▁de▁bru	-10334
▁i▁hadn	-10335
▁joe▁st	-10336
▁manner	-10337
▁provin	-10338
inage▁is	-10339
udes▁and	-10340
ulptural	-10341
▁cancers	-10342
▁is▁also	-10343
▁scrutin	-10344
▁sort▁of	-10345
eral▁of▁h	-10346
pair▁pran	-10347
rests▁are	-10348
s▁of▁gold	-10349
▁and▁they	-10350
▁are▁they	-10351
▁as▁the▁p	-10352
▁billions	-10353
▁de▁bruyn	-10354
▁face▁a▁l	-10355
▁in▁about	-10356
▁in▁tunip	-10357
▁make▁him	-10358
▁new▁year	-10359
itudes▁and	-10360
ments▁with	-10361
m▁going▁to	-10362
pair▁prank	-10363
▁also▁been	-10364
▁but▁the▁f	-10365
▁catherine	-10366
▁in▁europe	-10367
▁it▁by▁a▁l	-10368
▁joe▁stern	-10369
▁offensive	-10370
▁one▁place	-10371
ed▁the▁tide	-10372
eral▁of▁hun	-10373
light▁and▁a	-10374
own▁between	-10375
we▁face▁a▁l	-10376
▁at▁the▁two	-10377
▁coinage▁is	-10378
▁detail▁car	-10379
▁director▁g	-10380
▁joe▁sternl	-10381
▁of▁the▁new	-10382
▁provincial	-10383
▁scrutinise	-10384
ate▁for▁cutt	-10385
est▁billions	-10386
ments▁with▁n	-10387
m▁going▁to▁j	-10388
ter▁de▁bruyn	-10389
▁also▁been▁p	-10390
▁america▁and	-10391
▁arrests▁are	-10392
▁as▁the▁pass	-10393
▁had▁existed	-10394
▁make▁him▁un	-10395
▁the▁portion	-10396
ed▁at▁one▁set	-10397
ing▁the▁build	-10398
issitudes▁and	-10399
ook	-10400
yge	-10401
erch	-10402
ouss	-10403
ousy	-10404
rook	-10405
▁map	-10406
6,000	-10407
brook	-10408
ccyge	-10409
immer	-10410
kouss	-10411
brooke	-10412
s▁like	-10413
s▁of▁d	-10414
▁6,000	-10415
▁accol	-10416
▁lousy	-10417
▁merch	-10418
ate▁the	-10419
ccygeal	-10420
hekouss	-10421
ing▁off	-10422
▁antill	-10423
▁famine	-10424
▁of▁vot	-10425
▁zimmer	-10426
enbrooke	-10427
t▁really	-10428
▁the▁pet	-10429
▁the▁pol	-10430
▁thrones	-10431
ate▁the▁z	-10432
coccygeal	-10433
ed▁as▁say	-10434
hekoussae	-10435
s▁like▁be	-10436
s▁of▁dail	-10437
▁antillas	-10438
▁each▁map	-10439
▁him▁that	-10440
▁is▁lousy	-10441
▁or▁early	-10442
▁the▁hook	-10443
ate▁the▁zo	-10444
orts▁field	-10445
s▁of▁daily	-10446
▁merchants	-10447
▁of▁voters	-10448
▁that▁year	-10449
▁the▁polit	-10450
ate▁the▁zoo	-10451
ature▁oscar	-10452
ithekoussae	-10453
rococcygeal	-10454
s▁like▁beer	-10455
warmer▁that	-10456
▁easing▁off	-10457
▁famine▁str	-10458
▁him▁that▁a	-10459
▁just▁the▁d	-10460
▁of▁thrones	-10461
ed▁as▁saying	-10462
ed▁in▁a▁fire	-10463
pithekoussae	-10464
s▁climate▁is	-10465
▁addenbrooke	-10466
▁is▁lousy▁at	-10467
▁room▁before	-10468
▁zimmer▁says	-10469
acrococcygeal	-10470
agement▁the▁s	-10471
nter▁de▁bruyn	-10472
pania▁is▁much	-10473
t▁been▁devoid	-10474
▁affairs▁side	-10475
▁and▁other▁fe	-10476
▁but▁the▁fate	-10477
▁catherine▁of	-10478
▁developed▁by	-10479
▁from▁the▁pet	-10480
▁headquarters	-10481
▁her▁campaign	-10482
▁in▁one▁place	-10483
▁it▁by▁a▁link	-10484
▁joe▁sternlie	-10485
▁just▁the▁din	-10486
▁make▁him▁unf	-10487
▁moved▁to▁the	-10488
▁off▁the▁hook	-10489
▁particularly	-10490
▁reach▁people	-10491
▁reading▁poll	-10492
▁registration	-10493
▁religious▁ob	-10494
▁removing▁the	-10495
▁requested▁to	-10496
▁right▁combin	-10497
▁rival▁prabow	-10498
▁roadless▁loc	-10499
abr	-10500
as▁i	-10501
▁enn	-10502
▁mal	-10503
isted	-10504
tas▁i	-10505
▁i▁to	-10506
abrina	-10507
asions	-10508
ed▁inv	-10509
▁an▁ag	-10510
▁brain	-10511
▁ennio	-10512
▁he▁or	-10513
our▁her	-10514
ried▁ch	-10515
yntas▁i	-10516
▁or▁are	-10517
atically	-10518
estament	-10519
tour▁her	-10520
▁hour▁is	-10521
▁james▁w	-10522
▁used▁by	-10523
azing▁for	-10524
ed▁invest	-10525
ed▁in▁for	-10526
ved▁the▁t	-10527
▁collapse	-10528
▁dead▁and	-10529
▁fried▁ch	-10530
▁i▁to▁inc	-10531
▁lost▁and	-10532
▁religion	-10533
▁with▁bbc	-10534
ating▁conf	-10535
cent▁brain	-10536
ever▁he▁or	-10537
ity▁to▁the	-10538
yntas▁i▁ac	-10539
▁built▁and	-10540
▁consisted	-10541
▁man▁charg	-10542
▁occasions	-10543
▁on▁the▁tr	-10544
▁testament	-10545
▁was▁an▁ag	-10546
▁with▁your	-10547
ates▁agents	-10548
ating▁confr	-10549
azing▁for▁c	-10550
▁also▁built	-10551
▁in▁sabrina	-10552
▁i▁to▁incre	-10553
▁james▁watt	-10554
▁that▁spain	-10555
ed▁investors	-10556
illed▁in▁for	-10557
rounding▁air	-10558
stick▁comedy	-10559
tour▁herself	-10560
uating▁confr	-10561
ved▁the▁trop	-10562
▁ethnicities	-10563
▁four▁people	-10564
▁fried▁chick	-10565
▁plan▁of▁the	-10566
▁religion▁ad	-10567
▁was▁used▁by	-10568
aches▁and▁mal	-10569
ium▁institute	-10570
ulates▁agents	-10571
▁amyntas▁i▁ac	-10572
▁and▁the▁pres	-10573
▁of▁world▁war	-10574
▁rome▁several	-10575
▁ruler▁in▁the	-10576
▁said▁earlier	-10577
▁saint▁helena	-10578
▁scrupulously	-10579
▁secure▁funds	-10580
▁seed▁sara▁er	-10581
▁shipbuilding	-10582
▁should▁leave	-10583
▁sighted▁land	-10584
▁signs▁of▁dis	-10585
▁similarities	-10586
▁sinister▁bar	-10587
▁sitting▁back	-10588
▁sixtieth▁ann	-10589
▁six▁other▁qu	-10590
▁social▁drama	-10591
▁someone▁in▁s	-10592
▁sources▁that	-10593
▁spiegel▁that	-10594
▁sports▁field	-10595
▁spotlight▁on	-10596
▁stale▁struct	-10597
▁standards▁it	-10598
▁starlin▁took	-10599
42	-10600
▁ie	-10601
aive	-10602
anan	-10603
a▁ie	-10604
soon	-10605
uled	-10606
▁10,	-10607
▁vib	-10608
antle	-10609
ard▁l	-10610
a▁iey	-10611
erber	-10612
es▁sm	-10613
ing▁d	-10614
rowse	-10615
ruled	-10616
▁1842	-10617
▁amin	-10618
▁fish	-10619
▁i▁am	-10620
▁pard	-10621
▁shap	-10622
▁shif	-10623
ant▁of	-10624
ard▁of	-10625
ive▁in	-10626
yard▁l	-10627
▁and▁j	-10628
▁aside	-10629
▁banan	-10630
▁buena	-10631
▁isles	-10632
▁naive	-10633
▁you▁s	-10634
awa▁iey	-10635
es▁smok	-10636
the▁car	-10637
▁10,▁18	-10638
▁and▁je	-10639
▁browse	-10640
▁can▁bo	-10641
▁concur	-10642
▁kerber	-10643
▁mantle	-10644
▁pardon	-10645
▁shifts	-10646
▁to▁vib	-10647
inding▁d	-10648
udyard▁l	-10649
▁10,▁189	-10650
▁fish▁by	-10651
▁i▁am▁be	-10652
▁monsoon	-10653
ant▁of▁to	-10654
awa▁ieyas	-10655
day▁lives	-10656
ttes▁smok	-10657
▁creative	-10658
▁floating	-10659
▁is▁a▁hom	-10660
▁i▁am▁bey	-10661
▁on▁earth	-10662
▁requires	-10663
▁such▁set	-10664
▁to▁the▁u	-10665
ant▁of▁tok	-10666
awa▁ieyasu	-10667
s▁creative	-10668
▁10,▁1896,	-10669
▁active▁in	-10670
▁and▁jeans	-10671
▁a▁monsoon	-10672
▁can▁boost	-10673
▁naive▁and	-10674
▁reception	-10675
▁rudyard▁l	-10676
▁	-10677
e	-10678
t	-10679
a	-10680
i	-10681
n	-10682
o	-10683
r	-10684
s	-10685
h	-10686
l	-10687
d	-10688
c	-10689
u	-10690
m	-10691
p	-10692
f	-10693
g	-10694
w	-10695
b	-10696
y	-10697
.	-10698
,	-10699
v	-10700
k	-10701
1	-10702
0	-10703
x	-10704
j	-10705
"	-10706
'	-10707
-	-10708
2	-10709
9	-10710
z	-10711
3	-10712
5	-10713
q	-10714
6	-10715
8	-10716
7	-10717
4	-10718
’	-10719
(	-10720
)	-10721
“	-10722
”	-10723
:	-10724
%	-10725
;	-10726
?	-10727
£	-10728
á	-10729
—	-10730
