<unk>	0
<s>	0
</s>	0
▁t	-0
he	-1
▁a	-2
in	-3
▁the	-4
re	-5
on	-6
er	-7
▁w	-8
▁o	-9
▁s	-10
an	-11
at	-12
en	-13
ed	-14
is	-15
▁c	-16
it	-17
▁b	-18
ar	-19
or	-20
es	-21
▁in	-22
▁of	-23
▁p	-24
▁f	-25
al	-26
nd	-27
ing	-28
▁to	-29
as	-30
▁h	-31
ic	-32
ou	-33
▁d	-34
▁m	-35
▁and	-36
ion	-37
▁l	-38
om	-39
il	-40
▁T	-41
ent	-42
▁th	-43
▁re	-44
el	-45
st	-46
▁A	-47
▁n	-48
ol	-49
ur	-50
▁be	-51
▁e	-52
▁I	-53
▁S	-54
le	-55
ct	-56
▁g	-57
ly	-58
ro	-59
id	-60
ce	-61
ad	-62
▁The	-63
im	-64
ut	-65
ve	-66
▁u	-67
▁C	-68
▁was	-69
ot	-70
▁is	-71
▁on	-72
▁M	-73
et	-74
ver	-75
ow	-76
▁for	-77
ig	-78
▁B	-79
ch	-80
ir	-81
ter	-82
her	-83
am	-84
▁st	-85
▁wh	-86
▁as	-87
▁that	-88
ay	-89
▁al	-90
ation	-91
▁1	-92
ith	-93
se	-94
▁it	-95
est	-96
▁con	-97
th	-98
▁H	-99
ere	-100
▁with	-101
and	-102
op	-103
um	-104
▁de	-105
ra	-106
ld	-107
ul	-108
ill	-109
▁he	-110
ri	-111
▁P	-112
▁R	-113
▁an	-114
▁G	-115
▁by	-116
▁his	-117
▁at	-118
▁E	-119
▁D	-120
ate	-121
rom	-122
ain	-123
ers	-124
▁are	-125
em	-126
nt	-127
if	-128
ore	-129
▁com	-130
ear	-131
▁ha	-132
ts	-133
▁W	-134
us	-135
▁se	-136
▁F	-137
res	-138
▁ex	-139
▁N	-140
ies	-141
od	-142
▁from	-143
ab	-144
▁O	-145
▁r	-146
▁In	-147
ew	-148
▁v	-149
ge	-150
▁pro	-151
pp	-152
▁have	-153
ac	-154
▁y	-155
ich	-156
iv	-157
os	-158
▁were	-159
ect	-160
ity	-161
out	-162
ment	-163
art	-164
ke	-165
▁"	-166
▁ch	-167
▁has	-168
igh	-169
ial	-170
ast	-171
ian	-172
▁su	-173
▁L	-174
ist	-175
▁2	-176
end	-177
ess	-178
our	-179
ia	-180
ong	-181
red	-182
▁le	-183
▁wor	-184
cc	-185
▁J	-186
ust	-187
▁ab	-188
▁pl	-189
ould	-190
▁had	-191
ud	-192
▁K	-193
▁which	-194
ost	-195
▁Th	-196
qu	-197
ard	-198
▁19	-199
ther	-200
ap	-201
ber	-202
ish	-203
ran	-204
▁not	-205
▁20	-206
▁ar	-207
so	-208
ive	-209
▁sp	-210
▁cont	-211
▁their	-212
▁or	-213
▁sh	-214
▁whe	-215
ant	-216
mer	-217
ical	-218
▁this	-219
gh	-220
ok	-221
ell	-222
ous	-223
▁int	-224
pt	-225
un	-226
ely	-227
ort	-228
▁It	-229
▁ag	-230
▁un	-231
ated	-232
▁been	-233
ea	-234
▁U	-235
all	-236
▁but	-237
▁year	-238
ions	-239
oc	-240
▁who	-241
fter	-242
▁also	-243
ord	-244
▁cl	-245
ound	-246
ure	-247
▁all	-248
▁they	-249
ep	-250
ame	-251
per	-252
▁tim	-253
any	-254
ight	-255
▁comp	-256
ip	-257
ub	-258
ire	-259
ome	-260
▁Ch	-261
▁dis	-262
▁more	-263
▁about	-264
og	-265
ean	-266
one	-267
rit	-268
▁sa	-269
king	-270
▁inc	-271
ary	-272
▁up	-273
▁will	-274
ine	-275
lic	-276
▁ad	-277
▁go	-278
reat	-279
▁her	-280
▁its	-281
▁one	-282
ition	-283
▁would	-284
ff	-285
▁j	-286
▁ma	-287
▁us	-288
ally	-289
ough	-290
▁app	-291
ec	-292
wo	-293
oll	-294
ree	-295
▁can	-296
▁time	-297
uc	-298
ark	-299
ass	-300
▁new	-301
ib	-302
▁(	-303
ice	-304
irst	-305
▁inv	-306
▁off	-307
av	-308
ack	-309
act	-310
eop	-311
vel	-312
▁im	-313
▁we	-314
▁per	-315
▁res	-316
uring	-317
▁part	-318
00	-319
ace	-320
ens	-321
ide	-322
ory	-323
▁He	-324
ount	-325
▁bec	-326
▁exp	-327
lo	-328
ose	-329
▁rep	-330
▁two	-331
▁than	-332
▁after	-333
ie	-334
ue	-335
age	-336
ign	-337
orm	-338
ors	-339
ult	-340
▁ne	-341
ence	-342
nder	-343
▁dec	-344
▁out	-345
eople	-346
▁pres	-347
▁other	-348
▁there	-349
ry	-350
een	-351
hed	-352
▁so	-353
able	-354
ance	-355
land	-356
tern	-357
▁201	-358
▁pol	-359
▁said	-360
ag	-361
ru	-362
▁3	-363
ade	-364
are	-365
row	-366
vern	-367
▁bet	-368
iz	-369
ne	-370
ph	-371
▁V	-372
▁k	-373
ans	-374
ays	-375
ied	-376
ond	-377
▁St	-378
▁acc	-379
▁into	-380
▁work	-381
▁people	-382
ild	-383
own	-384
ric	-385
vent	-386
▁“	-387
ved	-388
▁en	-389
ater	-390
ween	-391
▁reg	-392
▁This	-393
▁many	-394
▁over	-395
▁first	-396
▁years	-397
au	-398
ach	-399
very	-400
▁rec	-401
,"	-402
arg	-403
ces	-404
gan	-405
ina	-406
urn	-407
▁Al	-408
▁li	-409
▁sc	-410
ious	-411
▁sur	-412
ident	-413
ublic	-414
ations	-415
vernment	-416
▁between	-417
ms	-418
ert	-419
ind	-420
▁co	-421
▁do	-422
▁el	-423
▁ta	-424
ered	-425
orth	-426
ower	-427
▁she	-428
▁when	-429
▁under	-430
▁Y	-431
ile	-432
▁act	-433
▁him	-434
▁rem	-435
meric	-436
▁cent	-437
▁Americ	-438
▁As	-439
▁ra	-440
ings	-441
▁imp	-442
▁pre	-443
▁war	-444
▁most	-445
▁only	-446
▁such	-447
ational	-448
wn	-449
ang	-450
ced	-451
oun	-452
yst	-453
▁Sp	-454
▁em	-455
▁no	-456
ever	-457
▁des	-458
▁est	-459
▁ret	-460
▁tra	-461
▁land	-462
▁last	-463
▁invest	-464
int	-465
ise	-466
ite	-467
old	-468
ons	-469
ove	-470
▁gu	-471
▁me	-472
ates	-473
eral	-474
form	-475
outh	-476
▁But	-477
▁fil	-478
▁ind	-479
▁mon	-480
ction	-481
rough	-482
▁comm	-483
▁hist	-484
▁some	-485
▁again	-486
▁could	-487
▁where	-488
▁world	-489
▁during	-490
erm	-491
hen	-492
ife	-493
iss	-494
ium	-495
les	-496
lud	-497
ook	-498
ury	-499
▁On	-500
▁am	-501
▁bu	-502
▁gr	-503
▁te	-504
ased	-505
fere	-506
ific	-507
owed	-508
▁Car	-509
▁att	-510
irect	-511
velop	-512
▁city	-513
▁cons	-514
▁grow	-515
▁play	-516
▁government	-517
ev	-518
la	-519
ail	-520
ict	-521
▁Un	-522
▁tr	-523
ents	-524
fore	-525
ists	-526
ning	-527
ress	-528
vers	-529
ward	-530
▁200	-531
▁hel	-532
ately	-533
ather	-534
▁Brit	-535
▁used	-536
▁inter	-537
▁includ	-538
▁develop	-539
ak	-540
io	-541
ks	-542
ps	-543
te	-544
000	-545
con	-546
ood	-547
oth	-548
ren	-549
ten	-550
▁18	-551
▁An	-552
▁bl	-553
▁kn	-554
▁op	-555
▁qu	-556
ause	-557
ians	-558
iter	-559
rans	-560
ting	-561
▁Eur	-562
▁Ind	-563
▁col	-564
▁ear	-565
▁num	-566
▁sec	-567
▁vot	-568
ained	-569
▁Aust	-570
▁mark	-571
▁sign	-572
▁took	-573
▁well	-574
owever	-575
▁being	-576
▁count	-577
▁state	-578
▁direct	-579
▁century	-580
du	-581
ft	-582
xt	-583
▁5	-584
ful	-585
ily	-586
ool	-587
ral	-588
tle	-589
▁Em	-590
ines	-591
ital	-592
ited	-593
olog	-594
▁Sea	-595
▁art	-596
▁bel	-597
▁did	-598
▁par	-599
▁sch	-600
▁unt	-601
ative	-602
ement	-603
ished	-604
ystem	-605
▁foll	-606
▁need	-607
▁prov	-608
▁stud	-609
ection	-610
▁Europ	-611
0,	-612
2,	-613
li	-614
oy	-615
amp	-616
duc	-617
erv	-618
iew	-619
ron	-620
ump	-621
uss	-622
ven	-623
▁At	-624
▁Tr	-625
ided	-626
oman	-627
read	-628
▁New	-629
▁def	-630
▁fin	-631
▁own	-632
▁ter	-633
ating	-634
ister	-635
ities	-636
▁conf	-637
▁just	-638
▁like	-639
▁what	-640
illion	-641
▁China	-642
▁great	-643
▁month	-644
▁place	-645
▁power	-646
▁these	-647
▁trans	-648
▁until	-649
▁return	-650
,”	-651
."	-652
my	-653
ty	-654
▁-	-655
ern	-656
oss	-657
rib	-658
uch	-659
▁Is	-660
▁Me	-661
▁fe	-662
▁if	-663
▁ke	-664
▁la	-665
▁pr	-666
▁sm	-667
aced	-668
cept	-669
ived	-670
opul	-671
osed	-672
ried	-673
ring	-674
ures	-675
▁199	-676
▁And	-677
▁air	-678
▁day	-679
▁ext	-680
▁gen	-681
▁man	-682
▁met	-683
▁now	-684
▁rel	-685
▁set	-686
ments	-687
ually	-688
ution	-689
▁back	-690
▁both	-691
▁high	-692
▁long	-693
▁them	-694
ically	-695
▁After	-696
▁began	-697
▁found	-698
▁polit	-699
▁popul	-700
▁three	-701
▁During	-702
▁before	-703
▁contin	-704
▁system	-705
▁against	-706
cy	-707
ss	-708
abl	-709
aly	-710
ath	-711
ban	-712
day	-713
elf	-714
med	-715
ock	-716
▁mo	-717
▁ph	-718
ames	-719
lear	-720
▁Her	-721
▁Med	-722
▁add	-723
▁cap	-724
▁car	-725
▁dif	-726
▁ent	-727
▁get	-728
▁leg	-729
▁mod	-730
anish	-731
ature	-732
conom	-733
ision	-734
other	-735
▁Fran	-736
▁Germ	-737
▁area	-738
▁disc	-739
▁hand	-740
▁help	-741
▁post	-742
▁North	-743
▁event	-744
▁around	-745
▁econom	-746
▁establ	-747
▁market	-748
▁public	-749
▁However	-750
▁million	-751
gr	-752
gy	-753
pl	-754
up	-755
als	-756
cto	-757
ink	-758
its	-759
jor	-760
let	-761
rop	-762
way	-763
▁BC	-764
▁En	-765
▁ed	-766
▁ob	-767
▁po	-768
arge	-769
ason	-770
ects	-771
gest	-772
ince	-773
▁Mar	-774
▁War	-775
▁dep	-776
▁end	-777
▁occ	-778
▁see	-779
ented	-780
ility	-781
ology	-782
▁Gree	-783
▁Octo	-784
▁cour	-785
▁film	-786
▁lead	-787
▁open	-788
▁plan	-789
▁says	-790
▁spec	-791
ording	-792
▁incre	-793
▁offic	-794
▁sever	-795
▁became	-796
▁region	-797
▁school	-798
▁Austral	-799
▁British	-800
▁October	-801
▁because	-802
▁history	-803
▁political	-804
).	-805
6,	-806
co	-807
lu	-808
ob	-809
pr	-810
ug	-811
ale	-812
hes	-813
inc	-814
ole	-815
omp	-816
ves	-817
▁By	-818
▁fl	-819
ible	-820
ives	-821
rist	-822
ters	-823
ving	-824
▁191	-825
▁For	-826
▁She	-827
▁ass	-828
▁fam	-829
▁how	-830
▁lit	-831
▁may	-832
▁min	-833
▁old	-834
▁put	-835
ially	-836
ience	-837
orted	-838
riend	-839
▁dist	-840
▁each	-841
▁life	-842
▁made	-843
▁much	-844
▁rele	-845
▁resp	-846
▁take	-847
▁tech	-848
▁There	-849
▁Trump	-850
▁every	-851
▁major	-852
▁start	-853
▁appear	-854
▁repres	-855
▁result	-856
▁allowed	-857
▁differe	-858
▁several	-859
▁without	-860
▁American	-861
5,	-862
ai	-863
ck	-864
ef	-865
ha	-866
oh	-867
▁£	-868
The	-869
ank	-870
ase	-871
ata	-872
ble	-873
ery	-874
hip	-875
ins	-876
iod	-877
ism	-878
man	-879
ney	-880
riv	-881
ted	-882
und	-883
▁Go	-884
▁ca	-885
ange	-886
atur	-887
cent	-888
cial	-889
ient	-890
ivil	-891
ized	-892
kely	-893
omin	-894
ract	-895
rent	-896
ries	-897
ross	-898
▁Rep	-899
▁big	-900
▁eff	-901
▁equ	-902
▁far	-903
▁law	-904
▁loc	-905
▁sit	-906
▁sub	-907
▁wee	-908
▁win	-909
▁you	-910
ccess	-911
ivers	-912
lands	-913
ready	-914
▁Russ	-915
▁best	-916
▁clim	-917
▁dest	-918
▁head	-919
▁name	-920
▁rece	-921
▁then	-922
▁told	-923
▁very	-924
ranean	-925
urther	-926
▁South	-927
▁belie	-928
▁child	-929
▁exper	-930
▁large	-931
▁level	-932
▁while	-933
▁number	-934
▁partic	-935
▁police	-936
▁Mediter	-937
▁already	-938
▁success	-939
▁through	-940
▁Republic	-941
▁released	-942
▁Mediterranean	-943
".	-944
),	-945
19	-946
60	-947
wh	-948
▁'	-949
air	-950
alk	-951
ash	-952
der	-953
get	-954
ilt	-955
ner	-956
par	-957
rem	-958
ris	-959
ual	-960
usp	-961
▁10	-962
▁Af	-963
▁Ge	-964
▁Se	-965
▁Wh	-966
▁dr	-967
abor	-968
ains	-969
ched	-970
ides	-971
ised	-972
itch	-973
mber	-974
orts	-975
ured	-976
used	-977
view	-978
▁Acc	-979
▁Can	-980
▁Mor	-981
▁Win	-982
▁bat	-983
▁cre	-984
▁cur	-985
▁deb	-986
▁dem	-987
▁giv	-988
▁inf	-989
▁mar	-990
▁soc	-991
▁use	-992
▁way	-993
▁why	-994
ected	-995
ember	-996
iness	-997
owing	-998
ummer	-999
wards	-1000
▁That	-1001
▁With	-1002
▁able	-1003
▁army	-1004
▁aver	-1005
▁data	-1006
▁keep	-1007
▁left	-1008
▁mean	-1009
▁poss	-1010
▁prom	-1011
▁show	-1012
▁Afric	-1013
▁Emper	-1014
▁First	-1015
▁build	-1016
▁civil	-1017
▁clear	-1018
▁colon	-1019
▁known	-1020
▁later	-1021
▁often	-1022
▁quest	-1023
▁stand	-1024
▁still	-1025
▁techn	-1026
▁those	-1027
▁water	-1028
▁course	-1029
▁friend	-1030
▁period	-1031
▁recent	-1032
▁worked	-1033
▁Spanish	-1034
▁average	-1035
▁company	-1036
▁complet	-1037
▁election	-1038
▁According	-1039
▁president	-1040
.”	-1041
1,	-1042
ij	-1043
ix	-1044
sc	-1045
tt	-1046
▁$	-1047
▁4	-1048
▁8	-1049
▁Z	-1050
ara	-1051
bal	-1052
ead	-1053
eld	-1054
eng	-1055
esp	-1056
ick	-1057
min	-1058
orn	-1059
ots	-1060
rat	-1061
tic	-1062
uck	-1063
une	-1064
urs	-1065
▁14	-1066
▁15	-1067
▁Cl	-1068
▁Li	-1069
▁Re	-1070
▁ac	-1071
▁ro	-1072
ages	-1073
ared	-1074
bers	-1075
ency	-1076
hern	-1077
ilit	-1078
lict	-1079
most	-1080
onal	-1081
pril	-1082
rend	-1083
ront	-1084
ruct	-1085
side	-1086
stit	-1087
uary	-1088
▁197	-1089
▁Ant	-1090
▁Ear	-1091
▁May	-1092
▁adv	-1093
▁any	-1094
▁beg	-1095
▁bro	-1096
▁emp	-1097
▁eur	-1098
▁ful	-1099
▁gra	-1100
▁hum	-1101
▁lim	-1102
▁med	-1103
▁mus	-1104
▁opp	-1105
▁our	-1106
▁sug	-1107
▁var	-1108
alled	-1109
duced	-1110
epend	-1111
ights	-1112
illed	-1113
ories	-1114
ought	-1115
▁They	-1116
▁agre	-1117
▁bord	-1118
▁cost	-1119
▁does	-1120
▁expl	-1121
▁fore	-1122
▁form	-1123
▁free	-1124
▁good	-1125
▁hard	-1126
▁look	-1127
▁make	-1128
▁next	-1129
▁orig	-1130
▁pass	-1131
▁prot	-1132
▁same	-1133
▁supp	-1134
▁susp	-1135
▁April	-1136
▁Great	-1137
▁contr	-1138
▁least	-1139
▁north	-1140
▁produ	-1141
▁small	-1142
▁south	-1143
▁study	-1144
ificant	-1145
imately	-1146
olution	-1147
outhern	-1148
ruction	-1149
usiness	-1150
vention	-1151
▁Christ	-1152
▁Europe	-1153
▁France	-1154
▁German	-1155
▁access	-1156
▁change	-1157
▁growth	-1158
▁histor	-1159
▁intern	-1160
▁months	-1161
▁second	-1162
▁social	-1163
▁America	-1164
▁decided	-1165
▁further	-1166
▁suggest	-1167
▁whether	-1168
▁European	-1169
▁conflict	-1170
▁investig	-1171
▁received	-1172
▁including	-1173
▁population	-1174
▁development	-1175
▁significant	-1176
7.	-1177
az	-1178
bl	-1179
eb	-1180
sp	-1181
ama	-1182
ape	-1183
app	-1184
cil	-1185
hel	-1186
lam	-1187
ope	-1188
ork	-1189
ott	-1190
raw	-1191
rew	-1192
ues	-1193
unt	-1194
urg	-1195
ute	-1196
wit	-1197
xic	-1198
▁--	-1199
▁Am	-1200
▁De	-1201
▁Gu	-1202
▁La	-1203
▁Sc	-1204
▁bo	-1205
▁ev	-1206
▁ir	-1207
▁ru	-1208
▁sk	-1209
alth	-1210
ants	-1211
aris	-1212
atch	-1213
augh	-1214
gypt	-1215
ices	-1216
ills	-1217
ined	-1218
iver	-1219
line	-1220
omet	-1221
ours	-1222
ouse	-1223
raph	-1224
ular	-1225
▁198	-1226
▁Aug	-1227
▁Dis	-1228
▁Rev	-1229
▁ann	-1230
▁div	-1231
▁due	-1232
▁eas	-1233
▁lat	-1234
▁led	-1235
▁liv	-1236
▁mid	-1237
▁pat	-1238
▁pea	-1239
▁pot	-1240
▁rad	-1241
▁ref	-1242
▁rul	-1243
▁run	-1244
▁say	-1245
▁ser	-1246
▁six	-1247
▁tem	-1248
▁top	-1249
ament	-1250
anies	-1251
arget	-1252
erest	-1253
ified	-1254
inese	-1255
lared	-1256
owers	-1257
ption	-1258
reaty	-1259
thern	-1260
▁Hong	-1261
▁Kong	-1262
▁book	-1263
▁care	-1264
▁come	-1265
▁conc	-1266
▁date	-1267
▁even	-1268
▁fact	-1269
▁four	-1270
▁larg	-1271
▁pers	-1272
▁proc	-1273
▁real	-1274
▁rest	-1275
▁seem	-1276
▁song	-1277
▁stop	-1278
▁thir	-1279
▁vote	-1280
▁week	-1281
▁wife	-1282
▁writ	-1283
acedon	-1284
aining	-1285
anuary	-1286
ending	-1287
ential	-1288
ertain	-1289
iation	-1290
idered	-1291
inning	-1292
rought	-1293
▁Egypt	-1294
▁Italy	-1295
▁Roman	-1296
▁along	-1297
▁built	-1298
▁conqu	-1299
▁domin	-1300
▁early	-1301
▁euros	-1302
▁films	-1303
▁gener	-1304
▁given	-1305
▁human	-1306
▁milit	-1307
▁right	-1308
▁since	-1309
▁trade	-1310
adition	-1311
ibility	-1312
inister	-1313
ization	-1314
orthern	-1315
▁August	-1316
▁Russia	-1317
▁States	-1318
▁become	-1319
▁border	-1320
▁family	-1321
▁likely	-1322
▁little	-1323
▁needed	-1324
▁origin	-1325
▁reason	-1326
▁record	-1327
▁summer	-1328
▁Chinese	-1329
▁Emperor	-1330
▁Macedon	-1331
▁Univers	-1332
▁account	-1333
▁capital	-1334
▁climate	-1335
▁country	-1336
▁increas	-1337
▁respons	-1338
▁working	-1339
▁declared	-1340
▁economic	-1341
▁independ	-1342
▁national	-1343
▁reported	-1344
▁southern	-1345
▁countries	-1346
▁different	-1347
▁considered	-1348
▁established	-1349
3,	-1350
3.	-1351
5.	-1352
We	-1353
yn	-1354
▁9	-1355
▁z	-1356
arm	-1357
ars	-1358
ave	-1359
bum	-1360
dle	-1361
eds	-1362
els	-1363
ger	-1364
ibb	-1365
ier	-1366
iet	-1367
ino	-1368
ior	-1369
irl	-1370
isl	-1371
kes	-1372
loy	-1373
ody	-1374
ops	-1375
ret	-1376
son	-1377
the	-1378
ubl	-1379
ued	-1380
uff	-1381
umb	-1382
ung	-1383
▁16	-1384
▁Ag	-1385
▁II	-1386
▁Ju	-1387
▁Ph	-1388
▁Pr	-1389
▁Sa	-1390
▁Sh	-1391
▁UK	-1392
▁US	-1393
▁my	-1394
aint	-1395
amer	-1396
anes	-1397
angu	-1398
arch	-1399
atic	-1400
cean	-1401
ield	-1402
imed	-1403
ired	-1404
lect	-1405
lied	-1406
lier	-1407
ling	-1408
onds	-1409
ones	-1410
pped	-1411
rial	-1412
ways	-1413
ying	-1414
▁Dan	-1415
▁Its	-1416
▁Ott	-1417
▁Wor	-1418
▁aff	-1419
▁amb	-1420
▁aud	-1421
▁aut	-1422
▁bre	-1423
▁det	-1424
▁few	-1425
▁fre	-1426
▁imm	-1427
▁iss	-1428
▁let	-1429
▁mor	-1430
▁reb	-1431
▁sea	-1432
▁tot	-1433
▁vis	-1434
aving	-1435
bania	-1436
elled	-1437
inton	-1438
iting	-1439
ively	-1440
light	-1441
olved	-1442
oseph	-1443
ously	-1444
rench	-1445
rying	-1446
ustom	-1447
while	-1448
▁Cour	-1449
▁From	-1450
▁June	-1451
▁King	-1452
▁Pres	-1453
▁anim	-1454
▁bank	-1455
▁came	-1456
▁coll	-1457
▁comb	-1458
▁conn	-1459
▁cult	-1460
▁days	-1461
▁deep	-1462
▁desc	-1463
▁educ	-1464
▁fall	-1465
▁find	-1466
▁food	-1467
▁girl	-1468
▁jour	-1469
▁line	-1470
▁meet	-1471
▁near	-1472
▁oper	-1473
▁port	-1474
▁publ	-1475
▁read	-1476
▁requ	-1477
▁seen	-1478
▁sold	-1479
▁sour	-1480
▁vict	-1481
▁youn	-1482
ederal	-1483
eneral	-1484
ibbean	-1485
ishing	-1486
ission	-1487
ograph	-1488
ouncil	-1489
▁Earth	-1490
▁Greek	-1491
▁Paris	-1492
▁chall	-1493
▁chang	-1494
▁charg	-1495
▁class	-1496
▁coast	-1497
▁cross	-1498
▁front	-1499
▁influ	-1500
▁langu	-1501
▁liter	-1502
▁parts	-1503
▁party	-1504
▁point	-1505
▁press	-1506
▁separ	-1507
▁somet	-1508
▁think	-1509
osition	-1510
▁Africa	-1511
▁French	-1512
▁Joseph	-1513
▁United	-1514
▁almost	-1515
▁always	-1516
▁battle	-1517
▁custom	-1518
▁former	-1519
▁health	-1520
▁inform	-1521
▁limits	-1522
▁living	-1523
▁modern	-1524
▁played	-1525
▁rather	-1526
▁should	-1527
▁target	-1528
▁territ	-1529
▁voting	-1530
▁winter	-1531
▁within	-1532
▁Albania	-1533
▁Britain	-1534
▁Clinton	-1535
▁January	-1536
▁brought	-1537
▁command	-1538
▁distric	-1539
▁percent	-1540
▁present	-1541
▁underst	-1542
▁National	-1543
▁building	-1544
▁business	-1545
▁children	-1546
▁followed	-1547
▁interest	-1548
▁majority	-1549
▁remained	-1550
▁returned	-1551
▁Australia	-1552
▁President	-1553
▁agreement	-1554
▁companies	-1555
▁following	-1556
▁investors	-1557
▁Government	-1558
▁completely	-1559
1.	-1560
20	-1561
30	-1562
BC	-1563
by	-1564
ee	-1565
ey	-1566
go	-1567
lt	-1568
rd	-1569
sw	-1570
ti	-1571
ua	-1572
ze	-1573
▁6	-1574
aff	-1575
alm	-1576
aps	-1577
arn	-1578
arr	-1579
cha	-1580
com	-1581
eak	-1582
eal	-1583
eij	-1584
ena	-1585
enn	-1586
ged	-1587
ime	-1588
led	-1589
ley	-1590
ohn	-1591
ols	-1592
ona	-1593
osp	-1594
pic	-1595
ple	-1596
put	-1597
rid	-1598
roy	-1599
sem	-1600
sol	-1601
zer	-1602
▁13	-1603
▁17	-1604
▁Ad	-1605
▁Ar	-1606
▁Gl	-1607
▁Mr	-1608
▁Ms	-1609
▁My	-1610
▁No	-1611
▁Pa	-1612
▁We	-1613
▁av	-1614
▁er	-1615
▁ri	-1616
▁wa	-1617
ades	-1618
ails	-1619
ales	-1620
alys	-1621
ards	-1622
ario	-1623
ches	-1624
cing	-1625
emen	-1626
emoc	-1627
face	-1628
fort	-1629
hing	-1630
lood	-1631
msel	-1632
olic	-1633
omen	-1634
oney	-1635
onst	-1636
orms	-1637
pire	-1638
reet	-1639
roll	-1640
rong	-1641
rote	-1642
self	-1643
ural	-1644
urch	-1645
vest	-1646
▁Bar	-1647
▁Con	-1648
▁Cor	-1649
▁Eng	-1650
▁Fin	-1651
▁His	-1652
▁III	-1653
▁Jap	-1654
▁One	-1655
▁Pol	-1656
▁Rom	-1657
▁Sec	-1658
▁You	-1659
▁age	-1660
▁beh	-1661
▁bur	-1662
▁cla	-1663
▁clo	-1664
▁cod	-1665
▁don	-1666
▁esp	-1667
▁ess	-1668
▁lab	-1669
▁low	-1670
▁mat	-1671
▁mem	-1672
▁pay	-1673
▁pen	-1674
▁pri	-1675
▁sim	-1676
▁too	-1677
▁tro	-1678
▁tum	-1679
▁ult	-1680
▁und	-1681
▁vol	-1682
▁won	-1683
▁yet	-1684
5,000	-1685
There	-1686
alent	-1687
ality	-1688
ances	-1689
atory	-1690
eared	-1691
ended	-1692
ently	-1693
iding	-1694
ising	-1695
lobal	-1696
onald	-1697
ongol	-1698
onium	-1699
ribut	-1700
round	-1701
royed	-1702
unity	-1703
vious	-1704
▁Acha	-1705
▁Asia	-1706
▁Geor	-1707
▁John	-1708
▁July	-1709
▁Lord	-1710
▁Nove	-1711
▁Rich	-1712
▁Sept	-1713
▁away	-1714
▁char	-1715
▁crit	-1716
▁down	-1717
▁enem	-1718
▁exec	-1719
▁fire	-1720
▁fund	-1721
▁inst	-1722
▁king	-1723
▁know	-1724
▁main	-1725
▁male	-1726
▁meas	-1727
▁past	-1728
▁phot	-1729
▁prec	-1730
▁priv	-1731
▁rate	-1732
▁rise	-1733
▁serv	-1734
▁ship	-1735
▁sing	-1736
▁spok	-1737
▁star	-1738
▁want	-1739
▁your	-1740
atural	-1741
ectric	-1742
eijing	-1743
gether	-1744
iction	-1745
itions	-1746
minist	-1747
ration	-1748
though	-1749
uation	-1750
▁Canad	-1751
▁Court	-1752
▁Democ	-1753
▁Islam	-1754
▁Mexic	-1755
▁Morav	-1756
▁River	-1757
▁World	-1758
▁above	-1759
▁album	-1760
▁alone	-1761
▁among	-1762
▁appro	-1763
▁const	-1764
▁daugh	-1765
▁death	-1766
▁displ	-1767
▁leave	-1768
▁local	-1769
▁makes	-1770
▁might	-1771
▁money	-1772
▁moved	-1773
▁occup	-1774
▁occur	-1775
▁peace	-1776
▁short	-1777
▁shown	-1778
▁sites	-1779
▁spent	-1780
▁terms	-1781
▁third	-1782
▁times	-1783
▁total	-1784
▁train	-1785
▁whose	-1786
▁young	-1787
artment	-1788
ception	-1789
mercial	-1790
mselves	-1791
▁Disney	-1792
▁Donald	-1793
▁Empire	-1794
▁Greece	-1795
▁Invest	-1796
▁Mongol	-1797
▁artist	-1798
▁cities	-1799
▁entire	-1800
▁events	-1801
▁forced	-1802
▁ground	-1803
▁impact	-1804
▁import	-1805
▁indust	-1806
▁legisl	-1807
▁longer	-1808
▁making	-1809
▁office	-1810
▁proble	-1811
▁proper	-1812
▁refere	-1813
▁scient	-1814
▁signed	-1815
▁temper	-1816
▁tumour	-1817
▁General	-1818
▁another	-1819
▁brother	-1820
▁certain	-1821
▁current	-1822
▁describ	-1823
▁earlier	-1824
▁effects	-1825
▁federal	-1826
▁friends	-1827
▁general	-1828
▁getting	-1829
▁greater	-1830
▁include	-1831
▁numbers	-1832
▁pattern	-1833
▁perform	-1834
▁playing	-1835
▁someone	-1836
▁special	-1837
▁started	-1838
▁thought	-1839
▁various	-1840
▁Democrat	-1841
▁Minister	-1842
▁November	-1843
▁addition	-1844
▁appeared	-1845
▁audience	-1846
▁cloister	-1847
▁continue	-1848
▁contract	-1849
▁military	-1850
▁northern	-1851
▁official	-1852
▁polonium	-1853
▁resulted	-1854
▁together	-1855
▁September	-1856
▁beginning	-1857
▁destroyed	-1858
▁developed	-1859
▁interview	-1860
▁questions	-1861
▁tradition	-1862
▁Australian	-1863
▁Macedonian	-1864
▁Revolution	-1865
▁University	-1866
▁commercial	-1867
▁eventually	-1868
▁historical	-1869
▁particular	-1870
▁technology	-1871
▁themselves	-1872
▁transition	-1873
▁destruction	-1874
▁information	-1875
▁represented	-1876
2.	-1877
4.	-1878
50	-1879
7,	-1880
8,	-1881
9,	-1882
bn	-1883
bo	-1884
ds	-1885
eg	-1886
ov	-1887
yl	-1888
yp	-1889
ys	-1890
▁7	-1891
▁—	-1892
ano	-1893
aut	-1894
bon	-1895
bor	-1896
cel	-1897
dom	-1898
elt	-1899
emp	-1900
gal	-1901
gel	-1902
ham	-1903
hib	-1904
hit	-1905
hor	-1906
iam	-1907
ift	-1908
ima	-1909
iny	-1910
ken	-1911
ler	-1912
lin	-1913
lym	-1914
mak	-1915
mar	-1916
nce	-1917
ned	-1918
nic	-1919
ogn	-1920
olf	-1921
pis	-1922
que	-1923
ror	-1924
set	-1925
soc	-1926
ton	-1927
ube	-1928
ugh	-1929
urp	-1930
xim	-1931
▁3%	-1932
▁50	-1933
▁Ed	-1934
▁El	-1935
▁Fl	-1936
▁If	-1937
▁Op	-1938
▁Sl	-1939
▁To	-1940
▁br	-1941
▁cr	-1942
▁id	-1943
▁lo	-1944
▁sw	-1945
▁tw	-1946
▁ur	-1947
▁£1	-1948
ably	-1949
aign	-1950
ands	-1951
ania	-1952
apua	-1953
aret	-1954
arty	-1955
asty	-1956
athe	-1957
ator	-1958
berg	-1959
each	-1960
eleb	-1961
ells	-1962
enty	-1963
erty	-1964
esha	-1965
ests	-1966
evir	-1967
fill	-1968
haps	-1969
hers	-1970
ican	-1971
igen	-1972
ille	-1973
imes	-1974
irth	-1975
itat	-1976
ivid	-1977
ject	-1978
kish	-1979
less	-1980
mark	-1981
nces	-1982
oked	-1983
ords	-1984
oric	-1985
oura	-1986
oyal	-1987
race	-1988
rack	-1989
rate	-1990
rief	-1991
rupt	-1992
scar	-1993
star	-1994
ties	-1995
ucas	-1996
umer	-1997
vert	-1998
wide	-1999
▁(19	-2000
▁100	-2001
▁149	-2002
▁188	-2003
▁192	-2004
▁Age	-2005
▁BBC	-2006
▁Bog	-2007
▁Bre	-2008
▁Col	-2009
▁Cur	-2010
▁Har	-2011
▁Met	-2012
▁Mon	-2013
▁Not	-2014
▁Ont	-2015
▁Pet	-2016
▁Ram	-2017
▁Sal	-2018
▁Sam	-2019
▁Sch	-2020
▁Sen	-2021
▁Tur	-2022
▁Two	-2023
▁ago	-2024
▁ben	-2025
▁bor	-2026
▁cat	-2027
▁cut	-2028
▁del	-2029
▁eit	-2030
▁enc	-2031
▁fav	-2032
▁fut	-2033
▁hig	-2034
▁hop	-2035
▁job	-2036
▁obs	-2037
▁rev	-2038
▁saf	-2039
▁ten	-2040
▁tit	-2041
▁tre	-2042
andid	-2043
araoh	-2044
arent	-2045
artph	-2046
assad	-2047
eated	-2048
ences	-2049
erred	-2050
estic	-2051
gress	-2052
incip	-2053
itchc	-2054
lying	-2055
ondon	-2056
oting	-2057
stone	-2058
under	-2059
▁1960	-2060
▁Bank	-2061
▁Dece	-2062
▁East	-2063
▁Kore	-2064
▁Like	-2065
▁Mart	-2066
▁Mean	-2067
▁More	-2068
▁News	-2069
▁Olym	-2070
▁Raff	-2071
▁Rome	-2072
▁Rona	-2073
▁Shen	-2074
▁West	-2075
▁When	-2076
▁York	-2077
▁alph	-2078
▁answ	-2079
▁bill	-2080
▁born	-2081
▁camp	-2082
▁capt	-2083
▁case	-2084
▁cond	-2085
▁deal	-2086
▁died	-2087
▁earn	-2088
▁emer	-2089
▁five	-2090
▁forg	-2091
▁full	-2092
▁game	-2093
▁golf	-2094
▁grew	-2095
▁grou	-2096
▁here	-2097
▁home	-2098
▁lack	-2099
▁late	-2100
▁laun	-2101
▁lear	-2102
▁less	-2103
▁link	-2104
▁lung	-2105
▁mass	-2106
▁moon	-2107
▁must	-2108
▁once	-2109
▁poll	-2110
▁pred	-2111
▁prim	-2112
▁purp	-2113
▁purs	-2114
▁race	-2115
▁rout	-2116
▁self	-2117
▁send	-2118
▁sent	-2119
▁term	-2120
▁town	-2121
▁turn	-2122
▁upon	-2123
▁view	-2124
▁wind	-2125
alysis	-2126
ancial	-2127
atives	-2128
cepted	-2129
ducing	-2130
earing	-2131
ellion	-2132
emenid	-2133
ension	-2134
ensive	-2135
ention	-2136
ession	-2137
estern	-2138
evirke	-2139
icians	-2140
idence	-2141
igious	-2142
inking	-2143
istant	-2144
laimed	-2145
onment	-2146
ynasty	-2147
▁Camer	-2148
▁Herod	-2149
▁House	-2150
▁Kesha	-2151
▁Spain	-2152
▁These	-2153
▁birth	-2154
▁bound	-2155
▁brief	-2156
▁drama	-2157
▁eight	-2158
▁espec	-2159
▁estim	-2160
▁examp	-2161
▁field	-2162
▁final	-2163
▁games	-2164
▁grand	-2165
▁grown	-2166
▁helps	-2167
▁hours	-2168
▁ident	-2169
▁immig	-2170
▁intro	-2171
▁issue	-2172
▁legal	-2173
▁light	-2174
▁lived	-2175
▁lower	-2176
▁mater	-2177
▁media	-2178
▁mount	-2179
▁music	-2180
▁needs	-2181
▁offer	-2182
▁order	-2183
▁organ	-2184
▁pract	-2185
▁reach	-2186
▁schol	-2187
▁seems	-2188
▁seven	-2189
▁space	-2190
▁speak	-2191
▁story	-2192
▁surve	-2193
▁taken	-2194
▁tried	-2195
▁urban	-2196
▁withd	-2197
▁women	-2198
▁wrote	-2199
igenous	-2200
version	-2201
▁Church	-2202
▁Danish	-2203
▁Indian	-2204
▁Intern	-2205
▁London	-2206
▁Senate	-2207
▁Treaty	-2208
▁Winter	-2209
▁agents	-2210
▁announ	-2211
▁attack	-2212
▁attend	-2213
▁better	-2214
▁candid	-2215
▁carbon	-2216
▁career	-2217
▁chance	-2218
▁commun	-2219
▁create	-2220
▁critic	-2221
▁debate	-2222
▁design	-2223
▁either	-2224
▁employ	-2225
▁enroll	-2226
▁execut	-2227
▁expect	-2228
▁forces	-2229
▁formed	-2230
▁global	-2231
▁having	-2232
▁island	-2233
▁killed	-2234
▁latest	-2235
▁levels	-2236
▁nature	-2237
▁opened	-2238
▁others	-2239
▁parall	-2240
▁person	-2241
▁recogn	-2242
▁review	-2243
▁rights	-2244
▁series	-2245
▁spokes	-2246
▁strong	-2247
▁taking	-2248
▁transp	-2249
▁troops	-2250
ifically	-2251
▁Council	-2252
▁Germany	-2253
▁Moravia	-2254
▁Olympic	-2255
▁Ontario	-2256
▁Ottoman	-2257
▁Richard	-2258
▁actions	-2259
▁biggest	-2260
▁charact	-2261
▁charged	-2262
▁concern	-2263
▁conserv	-2264
▁content	-2265
▁discuss	-2266
▁economy	-2267
▁foreign	-2268
▁forward	-2269
▁fulfill	-2270
▁growing	-2271
▁helping	-2272
▁himself	-2273
▁however	-2274
▁islands	-2275
▁journey	-2276
▁largely	-2277
▁markets	-2278
▁married	-2279
▁morning	-2280
▁natural	-2281
▁pharaoh	-2282
▁portion	-2283
▁private	-2284
▁product	-2285
▁regions	-2286
▁smartph	-2287
▁stories	-2288
▁support	-2289
▁surface	-2290
▁towards	-2291
▁victory	-2292
▁weather	-2293
▁workers	-2294
▁written	-2295
ification	-2296
▁Canadian	-2297
▁December	-2298
▁Egyptian	-2299
▁Mongolia	-2300
▁Rafferty	-2301
▁actually	-2302
▁administ	-2303
▁ambassad	-2304
▁campaign	-2305
▁challeng	-2306
▁daughter	-2307
▁decision	-2308
▁defeated	-2309
▁directed	-2310
▁industry	-2311
▁internet	-2312
▁language	-2313
▁launched	-2314
▁material	-2315
▁officers	-2316
▁possible	-2317
▁pressure	-2318
▁problems	-2319
▁students	-2320
▁Caribbean	-2321
▁Christian	-2322
▁Danevirke	-2323
▁Meanwhile	-2324
▁conquered	-2325
▁contribut	-2326
▁described	-2327
▁essential	-2328
▁establish	-2329
▁financial	-2330
▁important	-2331
▁increases	-2332
▁published	-2333
▁rebellion	-2334
▁religious	-2335
▁sometimes	-2336
▁territory	-2337
▁Achaemenid	-2338
▁Republican	-2339
▁appearance	-2340
▁especially	-2341
▁successful	-2342
▁throughout	-2343
▁ultimately	-2344
▁independence	-2345
▁international	-2346
▁responsibility	-2347
..	-2348
16	-2349
33	-2350
4,	-2351
9.	-2352
CA	-2353
NA	-2354
NN	-2355
Th	-2356
ae	-2357
ax	-2358
be	-2359
gg	-2360
gl	-2361
hi	-2362
ka	-2363
me	-2364
oe	-2365
oj	-2366
oz	-2367
to	-2368
án	-2369
-19	-2370
...	-2371
aan	-2372
acy	-2373
ado	-2374
ake	-2375
alf	-2376
apt	-2377
asm	-2378
ats	-2379
avy	-2380
bed	-2381
bur	-2382
can	-2383
cca	-2384
cle	-2385
den	-2386
edy	-2387
egr	-2388
eth	-2389
ets	-2390
gen	-2391
ico	-2392
ics	-2393
ief	-2394
iev	-2395
iff	-2396
ify	-2397
ilm	-2398
ils	-2399
ims	-2400
iot	-2401
ius	-2402
joy	-2403
ked	-2404
lov	-2405
mit	-2406
nal	-2407
now	-2408
occ	-2409
oes	-2410
off	-2411
oid	-2412
oon	-2413
pre	-2414
pul	-2415
rab	-2416
reg	-2417
rey	-2418
rot	-2419
tin	-2420
udd	-2421
ude	-2422
utm	-2423
vir	-2424
wed	-2425
yer	-2426
▁1%	-2427
▁1,	-2428
▁33	-2429
▁36	-2430
▁Ab	-2431
▁Bl	-2432
▁Br	-2433
▁Ca	-2434
▁EU	-2435
▁Ex	-2436
▁Kn	-2437
▁Kr	-2438
▁Le	-2439
▁Or	-2440
▁Pl	-2441
▁Py	-2442
▁Te	-2443
▁Ti	-2444
▁Wr	-2445
▁ap	-2446
▁fu	-2447
▁gl	-2448
▁hy	-2449
▁jo	-2450
▁sl	-2451
▁ve	-2452
▁vo	-2453
,000	-2454
This	-2455
abet	-2456
aces	-2457
ague	-2458
akia	-2459
aled	-2460
alin	-2461
anct	-2462
atal	-2463
ault	-2464
auty	-2465
aves	-2466
avid	-2467
bane	-2468
body	-2469
burg	-2470
cist	-2471
duce	-2472
duct	-2473
ears	-2474
eded	-2475
ened	-2476
enry	-2477
ense	-2478
ergy	-2479
esus	-2480
gram	-2481
haan	-2482
here	-2483
ibly	-2484
icol	-2485
ideo	-2486
iety	-2487
ilar	-2488
iled	-2489
ilic	-2490
illy	-2491
inea	-2492
inem	-2493
inks	-2494
itan	-2495
itar	-2496
ites	-2497
lunt	-2498
medi	-2499
ming	-2500
obby	-2501
oles	-2502
olid	-2503
onio	-2504
oons	-2505
ores	-2506
ouds	-2507
pers	-2508
quar	-2509
raft	-2510
rain	-2511
ream	-2512
reme	-2513
rich	-2514
rugg	-2515
sequ	-2516
tled	-2517
uals	-2518
uffy	-2519
utes	-2520
▁$1.	-2521
▁177	-2522
▁183	-2523
▁194	-2524
▁195	-2525
▁Ale	-2526
▁All	-2527
▁Ans	-2528
▁Bel	-2529
▁Ber	-2530
▁CNN	-2531
▁Cum	-2532
▁Hum	-2533
▁Jew	-2534
▁Kip	-2535
▁LaB	-2536
▁Lat	-2537
▁Mid	-2538
▁Net	-2539
▁Out	-2540
▁Pac	-2541
▁Per	-2542
▁Res	-2543
▁USA	-2544
▁Ven	-2545
▁abs	-2546
▁anc	-2547
▁arg	-2548
▁bab	-2549
▁bad	-2550
▁ban	-2551
▁bar	-2552
▁che	-2553
▁cop	-2554
▁cou	-2555
▁dev	-2556
▁die	-2557
▁dri	-2558
▁dro	-2559
▁exc	-2560
▁fem	-2561
▁fit	-2562
▁flo	-2563
▁fra	-2564
▁got	-2565
▁gri	-2566
▁hab	-2567
▁hit	-2568
▁hom	-2569
▁inj	-2570
▁isn	-2571
▁jud	-2572
▁kil	-2573
▁lot	-2574
▁men	-2575
▁mot	-2576
▁mur	-2577
▁nam	-2578
▁ord	-2579
▁ori	-2580
▁pet	-2581
▁pil	-2582
▁pus	-2583
▁red	-2584
▁ste	-2585
▁sun	-2586
▁tar	-2587
▁tel	-2588
▁unb	-2589
▁unc	-2590
▁val	-2591
▁wat	-2592
▁web	-2593
0,000	-2594
aging	-2595
aking	-2596
alter	-2597
anced	-2598
anded	-2599
anese	-2600
arden	-2601
aries	-2602
asion	-2603
board	-2604
enced	-2605
enses	-2606
ental	-2607
ephen	-2608
esses	-2609
ested	-2610
iable	-2611
icial	-2612
iesel	-2613
illes	-2614
isted	-2615
jects	-2616
olden	-2617
olina	-2618
olves	-2619
oming	-2620
onder	-2621
opher	-2622
orded	-2623
othes	-2624
otion	-2625
otton	-2626
oving	-2627
pisod	-2628
place	-2629
posed	-2630
rants	-2631
rated	-2632
rival	-2633
ropol	-2634
ropri	-2635
sembl	-2636
sized	-2637
solve	-2638
state	-2639
thing	-2640
umbus	-2641
unday	-2642
urity	-2643
ximum	-2644
▁2013	-2645
▁Alps	-2646
▁Balk	-2647
▁Bogd	-2648
▁Bris	-2649
▁Cath	-2650
▁City	-2651
▁Comp	-2652
▁Cons	-2653
▁Desp	-2654
▁Four	-2655
▁Hill	-2656
▁Icel	-2657
▁Jasm	-2658
▁Marg	-2659
▁Maya	-2660
▁Mish	-2661
▁Only	-2662
▁Park	-2663
▁Paul	-2664
▁Phil	-2665
▁Roma	-2666
▁Serv	-2667
▁Star	-2668
▁Swed	-2669
▁Swit	-2670
▁Thai	-2671
▁Thom	-2672
▁Tues	-2673
▁Twit	-2674
▁Uber	-2675
▁Wash	-2676
▁What	-2677
▁Will	-2678
▁body	-2679
▁call	-2680
▁card	-2681
▁clos	-2682
▁coal	-2683
▁didn	-2684
▁done	-2685
▁draw	-2686
▁easy	-2687
▁ever	-2688
▁face	-2689
▁feel	-2690
▁fell	-2691
▁fine	-2692
▁flow	-2693
▁gold	-2694
▁guys	-2695
▁happ	-2696
▁held	-2697
▁hope	-2698
▁idea	-2699
▁init	-2700
▁iron	-2701
▁kill	-2702
▁list	-2703
▁love	-2704
▁mach	-2705
▁mess	-2706
▁mind	-2707
▁news	-2708
▁opin	-2709
▁peop	-2710
▁prof	-2711
▁rail	-2712
▁rare	-2713
▁rese	-2714
▁reve	-2715
▁rich	-2716
▁role	-2717
▁rule	-2718
▁seas	-2719
▁shot	-2720
▁side	-2721
▁site	-2722
▁soon	-2723
▁spot	-2724
▁stat	-2725
▁step	-2726
▁surg	-2727
▁tall	-2728
▁text	-2729
▁tool	-2730
▁trac	-2731
▁trib	-2732
▁trou	-2733
▁unit	-2734
▁went	-2735
action	-2736
ailing	-2737
ampion	-2738
antage	-2739
astern	-2740
asting	-2741
atever	-2742
atures	-2743
called	-2744
contin	-2745
ective	-2746
elines	-2747
ellect	-2748
ighted	-2749
igital	-2750
ington	-2751
isions	-2752
makers	-2753
mother	-2754
ocking	-2755
orship	-2756
overed	-2757
ricult	-2758
ructed	-2759
thouse	-2760
ucasus	-2761
utmose	-2762
vering	-2763
▁1492,	-2764
▁2014.	-2765
▁2015,	-2766
▁Assoc	-2767
▁Athen	-2768
▁Blunt	-2769
▁Games	-2770
▁Henry	-2771
▁India	-2772
▁Khaan	-2773
▁Labor	-2774
▁Liber	-2775
▁March	-2776
▁Mount	-2777
▁Nicol	-2778
▁Ocean	-2779
▁Opium	-2780
▁Oscar	-2781
▁Papua	-2782
▁Royal	-2783
▁Saint	-2784
▁Since	-2785
▁Their	-2786
▁Under	-2787
▁Union	-2788
▁agent	-2789
▁alive	-2790
▁allow	-2791
▁areas	-2792
▁assum	-2793
▁based	-2794
▁behav	-2795
▁benef	-2796
▁blame	-2797
▁bonds	-2798
▁books	-2799
▁brand	-2800
▁bring	-2801
▁broke	-2802
▁celeb	-2803
▁chose	-2804
▁close	-2805
▁costs	-2806
▁doesn	-2807
▁dress	-2808
▁enjoy	-2809
▁exact	-2810
▁exped	-2811
▁famil	-2812
▁fight	-2813
▁force	-2814
▁freed	-2815
▁frequ	-2816
▁funds	-2817
▁guard	-2818
▁guide	-2819
▁hands	-2820
▁heart	-2821
▁hopes	-2822
▁liber	-2823
▁lobby	-2824
▁manag	-2825
▁means	-2826
▁model	-2827
▁names	-2828
▁never	-2829
▁ocean	-2830
▁photo	-2831
▁plans	-2832
▁plant	-2833
▁posts	-2834
▁reput	-2835
▁rules	-2836
▁sanct	-2837
▁seeds	-2838
▁shows	-2839
▁stead	-2840
▁teach	-2841
▁throw	-2842
▁title	-2843
▁treat	-2844
▁trend	-2845
▁trial	-2846
▁using	-2847
▁video	-2848
▁voice	-2849
▁watch	-2850
▁weeks	-2851
▁works	-2852
▁worst	-2853
fiction	-2854
igation	-2855
ination	-2856
itation	-2857
lovakia	-2858
mission	-2859
ography	-2860
ospital	-2861
ructure	-2862
stitute	-2863
viously	-2864
zerland	-2865
▁Austri	-2866
▁Guinea	-2867
▁Having	-2868
▁Hitchc	-2869
▁Island	-2870
▁Korean	-2871
▁Martin	-2872
▁Mexico	-2873
▁Middle	-2874
▁Nether	-2875
▁Powers	-2876
▁Seagal	-2877
▁Second	-2878
▁Sunday	-2879
▁Thrace	-2880
▁Valent	-2881
▁Wright	-2882
▁across	-2883
▁advert	-2884
▁affair	-2885
▁agency	-2886
▁altern	-2887
▁appeal	-2888
▁approx	-2889
▁author	-2890
▁beauty	-2891
▁belief	-2892
▁belong	-2893
▁borrow	-2894
▁called	-2895
▁caused	-2896
▁clouds	-2897
▁coming	-2898
▁common	-2899
▁compet	-2900
▁contra	-2901
▁deeply	-2902
▁depend	-2903
▁desert	-2904
▁desire	-2905
▁diesel	-2906
▁disapp	-2907
▁distin	-2908
▁emails	-2909
▁episod	-2910
▁estate	-2911
▁future	-2912
▁gained	-2913
▁groups	-2914
▁higher	-2915
▁immedi	-2916
▁incred	-2917
▁itself	-2918
▁lasted	-2919
▁latter	-2920
▁looked	-2921
▁mainly	-2922
▁middle	-2923
▁mother	-2924
▁murder	-2925
▁option	-2926
▁overse	-2927
▁parade	-2928
▁plants	-2929
▁powers	-2930
▁prompt	-2931
▁remark	-2932
▁report	-2933
▁season	-2934
▁secure	-2935
▁shared	-2936
▁skills	-2937
▁source	-2938
▁spread	-2939
▁stated	-2940
▁strugg	-2941
▁tariff	-2942
▁threat	-2943
▁travel	-2944
▁treaty	-2945
▁trying	-2946
▁wanted	-2947
▁wonder	-2948
aturally	-2949
gressive	-2950
isations	-2951
rounding	-2952
starring	-2953
▁African	-2954
▁Antonio	-2955
▁Beijing	-2956
▁Despite	-2957
▁England	-2958
▁Iceland	-2959
▁Islamic	-2960
▁Jasmine	-2961
▁Kipling	-2962
▁Mishima	-2963
▁Pacific	-2964
▁Russian	-2965
▁Through	-2966
▁Tuesday	-2967
▁Turkish	-2968
▁Twitter	-2969
▁ancient	-2970
▁animals	-2971
▁answers	-2972
▁appears	-2973
▁applied	-2974
▁believe	-2975
▁briefly	-2976
▁central	-2977
▁changed	-2978
▁clearly	-2979
▁constit	-2980
▁contact	-2981
▁control	-2982
▁created	-2983
▁decline	-2984
▁defence	-2985
▁demonst	-2986
▁divided	-2987
▁dropped	-2988
▁dynasty	-2989
▁element	-2990
▁encoura	-2991
▁enemies	-2992
▁example	-2993
▁exposed	-2994
▁express	-2995
▁feature	-2996
▁habitat	-2997
▁individ	-2998
▁leaving	-2999
▁located	-3000
▁looking	-3001
▁maximum	-3002
▁meaning	-3003
▁members	-3004
▁musical	-3005
▁outside	-3006
▁parties	-3007
▁peoples	-3008
▁popular	-3009
▁prevent	-3010
▁process	-3011
▁produce	-3012
▁program	-3013
▁provide	-3014
▁purpose	-3015
▁refused	-3016
▁remains	-3017
▁reports	-3018
▁respect	-3019
▁science	-3020
▁similar	-3021
▁sources	-3022
▁station	-3023
▁subject	-3024
▁surrend	-3025
▁suspect	-3026
▁systems	-3027
▁tallest	-3028
▁unclear	-3029
▁usually	-3030
▁version	-3031
▁visited	-3032
ropolitan	-3033
vironment	-3034
▁Although	-3035
▁Brisbane	-3036
▁Carolina	-3037
▁Catholic	-3038
▁Columbus	-3039
▁Japanese	-3040
▁Margaret	-3041
▁Thutmose	-3042
▁Winstone	-3043
▁accepted	-3044
▁accounts	-3045
▁alphabet	-3046
▁aviation	-3047
▁bankrupt	-3048
▁champion	-3049
▁collabor	-3050
▁colonies	-3051
▁comments	-3052
▁composed	-3053
▁contains	-3054
▁director	-3055
▁dissolve	-3056
▁district	-3057
▁electric	-3058
▁included	-3059
▁increase	-3060
▁involved	-3061
▁involves	-3062
▁landmark	-3063
▁parallel	-3064
▁position	-3065
▁produced	-3066
▁question	-3067
▁reducing	-3068
▁research	-3069
▁revealed	-3070
▁scholars	-3071
▁security	-3072
▁spending	-3073
▁starting	-3074
▁suggests	-3075
▁thinking	-3076
▁training	-3077
▁withdraw	-3078
ricultural	-3079
▁Hitchcock	-3080
▁Institute	-3081
▁Valentino	-3082
▁announced	-3083
▁assistant	-3084
▁criticism	-3085
▁customers	-3086
▁districts	-3087
▁education	-3088
▁influence	-3089
▁initially	-3090
▁intellect	-3091
▁particles	-3092
▁presented	-3093
▁relations	-3094
▁remaining	-3095
▁represent	-3096
▁spokesman	-3097
▁transform	-3098
▁workplace	-3099
▁worldwide	-3100
▁Washington	-3101
▁businesses	-3102
▁challenges	-3103
▁commission	-3104
▁department	-3105
▁experience	-3106
▁increasing	-3107
▁introduced	-3108
▁literature	-3109
▁proclaimed	-3110
▁provisions	-3111
▁represents	-3112
▁reputation	-3113
▁scientists	-3114
▁smartphone	-3115
▁understand	-3116
▁understood	-3117
▁Christopher	-3118
▁Netherlands	-3119
▁Switzerland	-3120
▁differences	-3121
▁grandmother	-3122
▁immediately	-3123
▁legislation	-3124
▁performance	-3125
▁recognition	-3126
▁surrounding	-3127
▁developments	-3128
▁intervention	-3129
▁particularly	-3130
▁specifically	-3131
▁International	-3132
▁approximately	-3133
▁investigating	-3134
",	-3135
0%	-3136
5-	-3137
AT	-3138
CB	-3139
TA	-3140
aw	-3141
ca	-3142
ma	-3143
rr	-3144
uk	-3145
ux	-3146
19,	-3147
4),	-3148
Car	-3149
ael	-3150
akh	-3151
ald	-3152
apl	-3153
aro	-3154
asa	-3155
ato	-3156
aud	-3157
aya	-3158
bot	-3159
cad	-3160
cce	-3161
cis	-3162
dro	-3163
emy	-3164
eou	-3165
ext	-3166
gar	-3167
ias	-3168
icy	-3169
ida	-3170
ien	-3171
iji	-3172
ilb	-3173
ixt	-3174
lob	-3175
mog	-3176
not	-3177
ojm	-3178
oln	-3179
oly	-3180
omm	-3181
pid	-3182
rog	-3183
roz	-3184
sea	-3185
sts	-3186
uan	-3187
urb	-3188
vie	-3189
who	-3190
xit	-3191
zil	-3192
zir	-3193
ále	-3194
▁$1	-3195
▁$2	-3196
▁21	-3197
▁34	-3198
▁45	-3199
CO	-3200
St	-3201
ik	-3202
of	-3203
we	-3204
zl	-3205
But	-3206
Cur	-3207
ECO	-3208
ane	-3209
cri	-3210
ene	-3211
fas	-3212
isf	-3213
por	-3214
sat	-3215
uge	-3216
uke	-3217
▁53	-3218
▁90	-3219
▁AD	-3220
▁Av	-3221
▁Cr	-3222
▁Er	-3223
▁Ma	-3224
▁Mc	-3225
▁TV	-3226
▁ec	-3227
▁pi	-3228
aded	-3229
alid	-3230
alry	-3231
apse	-3232
arez	-3233
arlo	-3234
aron	-3235
asis	-3236
asts	-3237
ayer	-3238
back	-3239
bama	-3240
book	-3241
cena	-3242
chie	-3243
cket	-3244
comm	-3245
ctic	-3246
eans	-3247
elta	-3248
enge	-3249
erry	-3250
esar	-3251
heel	-3252
hold	-3253
iliz	-3254
inds	-3255
ipul	-3256
ique	-3257
irty	-3258
itiz	-3259
itor	-3260
korn	-3261
lain	-3262
leet	-3263
lift	-3264
like	-3265
miss	-3266
ndur	-3267
nest	-3268
nown	-3269
oint	-3270
onus	-3271
otsf	-3272
ouis	-3273
oyne	-3274
pass	-3275
rawn	-3276
rdog	-3277
rips	-3278
semb	-3279
sing	-3280
spap	-3281
tles	-3282
ulti	-3283
unta	-3284
unte	-3285
uper	-3286
vity	-3287
work	-3288
yang	-3289
ysts	-3290
zech	-3291
zing	-3292
zále	-3293
▁...	-3294
▁107	-3295
▁156	-3296
▁16,	-3297
▁187	-3298
▁30,	-3299
32	-3300
6%	-3301
HS	-3302
na	-3303
za	-3304
Her	-3305
asg	-3306
boy	-3307
ker	-3308
key	-3309
oms	-3310
rix	-3311
rol	-3312
▁11	-3313
▁£7	-3314
icro	-3315
mers	-3316
unar	-3317
▁185	-3318
▁31,	-3319
▁330	-3320
▁500	-3321
▁Abb	-3322
▁App	-3323
▁Art	-3324
▁Bru	-3325
▁Cec	-3326
▁Cub	-3327
▁Cup	-3328
▁DNA	-3329
▁Def	-3330
▁Jut	-3331
▁Lam	-3332
▁Man	-3333
▁Mel	-3334
▁Mil	-3335
▁Mps	-3336
▁Nap	-3337
▁Nor	-3338
▁Peb	-3339
▁Pel	-3340
▁Pho	-3341
▁Rea	-3342
▁Rec	-3343
▁Sah	-3344
▁San	-3345
▁Sic	-3346
▁Sim	-3347
▁Sir	-3348
▁Son	-3349
▁Tes	-3350
▁Von	-3351
▁Zay	-3352
▁bal	-3353
▁cal	-3354
▁cav	-3355
▁cha	-3356
▁cle	-3357
▁ded	-3358
▁der	-3359
▁din	-3360
▁dom	-3361
▁era	-3362
▁eth	-3363
▁fig	-3364
▁fol	-3365
▁key	-3366
▁lag	-3367
▁lif	-3368
▁mag	-3369
▁neg	-3370
▁non	-3371
▁nut	-3372
▁oce	-3373
▁pig	-3374
▁pup	-3375
▁ren	-3376
▁rhe	-3377
▁row	-3378
▁sel	-3379
▁sol	-3380
▁tax	-3381
▁tex	-3382
▁typ	-3383
▁ver	-3384
▁via	-3385
▁vig	-3386
▁wid	-3387
▁zod	-3388
Curie	-3389
achel	-3390
adesh	-3391
adrid	-3392
andal	-3393
anied	-3394
ansas	-3395
apels	-3396
archy	-3397
arily	-3398
aring	-3399
'.	-3400
FC	-3401
ID	-3402
”.	-3403
ann	-3404
erb	-3405
ett	-3406
ges	-3407
hum	-3408
nan	-3409
ono	-3410
rin	-3411
uit	-3412
war	-3413
xed	-3414
yle	-3415
▁31	-3416
▁VW	-3417
agin	-3418
aine	-3419
chat	-3420
empt	-3421
hore	-3422
init	-3423
look	-3424
ndum	-3425
omer	-3426
oned	-3427
oted	-3428
resh	-3429
uish	-3430
▁nec	-3431
▁vul	-3432
ailis	-3433
astic	-3434
ators	-3435
based	-3436
burgh	-3437
chers	-3438
cycle	-3439
droel	-3440
eding	-3441
eliev	-3442
eltic	-3443
empts	-3444
ength	-3445
ening	-3446
enter	-3447
ering	-3448
erved	-3449
field	-3450
ickly	-3451
icles	-3452
ients	-3453
igned	-3454
iment	-3455
inema	-3456
inery	-3457
ingen	-3458
inson	-3459
insul	-3460
ipped	-3461
itage	-3462
itchy	-3463
itect	-3464
itive	-3465
itude	-3466
known	-3467
ldrin	-3468
lines	-3469
lobin	-3470
neath	-3471
ntial	-3472
odern	-3473
oleon	-3474
olled	-3475
omans	-3476
ompey	-3477
onent	-3478
orial	-3479
osits	-3480
otify	-3481
otten	-3482
overy	-3483
party	-3484
prise	-3485
puted	-3486
raine	-3487
razil	-3488
riage	-3489
risis	-3490
rived	-3491
rones	-3492
ronze	-3493
rozen	-3494
scape	-3495
ticip	-3496
toric	-3497
tress	-3498
udget	-3499
ipp	-3500
ita	-3501
mus	-3502
sec	-3503
ull	-3504
ush	-3505
zes	-3506
▁12	-3507
▁Be	-3508
▁Bu	-3509
▁GO	-3510
▁Ir	-3511
▁Ol	-3512
▁Uk	-3513
anta	-3514
arel	-3515
asse	-3516
cked	-3517
enda	-3518
esse	-3519
ffic	-3520
inet	-3521
mith	-3522
occo	-3523
ocum	-3524
ored	-3525
ouch	-3526
xand	-3527
▁Bet	-3528
▁Cal	-3529
▁GOP	-3530
▁Jim	-3531
▁alt	-3532
▁cow	-3533
▁foc	-3534
▁lay	-3535
▁pra	-3536
▁pun	-3537
eldom	-3538
laced	-3539
oliot	-3540
pania	-3541
reach	-3542
roved	-3543
thmus	-3544
urned	-3545
ustic	-3546
utely	-3547
varez	-3548
vered	-3549
ville	-3550
zález	-3551
▁$1.5	-3552
▁(199	-3553
▁1912	-3554
▁1916	-3555
▁1980	-3556
▁1991	-3557
▁2004	-3558
▁2008	-3559
▁2010	-3560
▁2016	-3561
▁2017	-3562
▁Acad	-3563
▁Ages	-3564
▁Agre	-3565
▁Alas	-3566
▁Andy	-3567
▁Apul	-3568
▁Arab	-3569
▁Army	-3570
▁Back	-3571
▁Bass	-3572
▁Belg	-3573
▁Bell	-3574
▁Both	-3575
▁Burg	-3576
▁Cape	-3577
▁Carl	-3578
▁Comm	-3579
▁Cuba	-3580
▁Doss	-3581
▁Duke	-3582
▁Each	-3583
▁Even	-3584
▁Face	-3585
▁Film	-3586
▁Finn	-3587
▁Flor	-3588
▁Foll	-3589
▁Ford	-3590
▁Jews	-3591
▁Khit	-3592
▁Lenn	-3593
▁Linc	-3594
▁Many	-3595
▁Mare	-3596
▁Mark	-3597
▁Miss	-3598
▁Mojm	-3599
ize	-3600
sar	-3601
uct	-3602
upp	-3603
▁Of	-3604
▁RS	-3605
▁Rh	-3606
More	-3607
Year	-3608
eart	-3609
eouf	-3610
ints	-3611
ires	-3612
more	-3613
ndar	-3614
ness	-3615
oday	-3616
oret	-3617
over	-3618
rank	-3619
resp	-3620
rior	-3621
ults	-3622
unic	-3623
urer	-3624
usal	-3625
▁190	-3626
▁Day	-3627
▁Den	-3628
▁Gon	-3629
▁Hab	-3630
▁Jul	-3631
▁Lia	-3632
▁Sul	-3633
▁ide	-3634
acing	-3635
adder	-3636
alked	-3637
asgow	-3638
mical	-3639
ogist	-3640
omple	-3641
rient	-3642
using	-3643
▁Bill	-3644
▁Liao	-3645
▁Nile	-3646
▁Palm	-3647
▁Pebe	-3648
▁Pers	-3649
▁Pope	-3650
▁Post	-3651
▁Prem	-3652
▁Prot	-3653
▁Pugh	-3654
▁Rast	-3655
▁Sami	-3656
▁Sara	-3657
▁Slav	-3658
▁Some	-3659
▁Stud	-3660
▁Then	-3661
▁Tina	-3662
▁Town	-3663
▁Trix	-3664
▁Vill	-3665
▁Wall	-3666
▁Yuan	-3667
▁adds	-3668
▁adop	-3669
▁alle	-3670
▁amaz	-3671
▁anal	-3672
▁anti	-3673
▁bapt	-3674
▁blog	-3675
▁code	-3676
▁coun	-3677
▁dead	-3678
▁debt	-3679
▁dece	-3680
▁decl	-3681
▁diff	-3682
▁ecos	-3683
▁edge	-3684
▁evac	-3685
▁exch	-3686
▁felt	-3687
▁fert	-3688
▁flic	-3689
▁fuel	-3690
▁goal	-3691
▁grad	-3692
▁guid	-3693
▁hair	-3694
▁half	-3695
▁harm	-3696
▁horm	-3697
▁huge	-3698
▁inqu	-3699
If	-3700
mi	-3701
iac	-3702
oke	-3703
▁28	-3704
▁IV	-3705
▁UN	-3706
▁ge	-3707
bish	-3708
elmi	-3709
ighb	-3710
oper	-3711
rant	-3712
vive	-3713
wise	-3714
▁196	-3715
▁20,	-3716
▁Kle	-3717
▁Ret	-3718
▁Who	-3719
▁dil	-3720
▁hot	-3721
▁lev	-3722
▁ran	-3723
▁squ	-3724
antly	-3725
armed	-3726
endit	-3727
going	-3728
iance	-3729
ivity	-3730
ourse	-3731
redit	-3732
uated	-3733
urred	-3734
▁1970	-3735
▁1990	-3736
▁Also	-3737
▁Edin	-3738
▁High	-3739
▁Just	-3740
▁Mich	-3741
▁Over	-3742
▁aged	-3743
▁ages	-3744
▁arid	-3745
▁bran	-3746
▁cell	-3747
▁chat	-3748
▁chur	-3749
▁crop	-3750
▁give	-3751
▁host	-3752
▁hour	-3753
▁hous	-3754
▁insp	-3755
▁jobs	-3756
▁jump	-3757
▁kept	-3758
▁ligh	-3759
▁live	-3760
▁lose	-3761
▁lost	-3762
▁luck	-3763
▁marg	-3764
▁mere	-3765
▁meth	-3766
▁mood	-3767
▁myst	-3768
▁narr	-3769
▁note	-3770
▁ones	-3771
▁pain	-3772
▁pair	-3773
▁park	-3774
▁pict	-3775
▁plat	-3776
▁preh	-3777
▁rang	-3778
▁rela	-3779
▁resc	-3780
▁room	-3781
▁ruin	-3782
▁scri	-3783
▁seat	-3784
▁sell	-3785
▁sens	-3786
▁silt	-3787
▁soft	-3788
▁stab	-3789
▁suff	-3790
▁tact	-3791
▁teac	-3792
▁tell	-3793
▁tens	-3794
▁tiss	-3795
▁trav	-3796
▁unco	-3797
▁unli	-3798
▁vast	-3799
-£	-3800
chu	-3801
eff	-3802
hab	-3803
irc	-3804
pay	-3805
icle	-3806
writ	-3807
▁Pan	-3808
icine	-3809
orary	-3810
▁Hort	-3811
▁Wang	-3812
▁unus	-3813
▁vill	-3814
▁webs	-3815
▁west	-3816
▁wine	-3817
▁word	-3818
▁£760	-3819
aanite	-3820
abinet	-3821
amples	-3822
ancing	-3823
arctic	-3824
arious	-3825
atolog	-3826
bility	-3827
cement	-3828
chieve	-3829
ducted	-3830
engers	-3831
everal	-3832
fortun	-3833
govern	-3834
ground	-3835
heless	-3836
herent	-3837
icient	-3838
icious	-3839
idency	-3840
ifying	-3841
ilding	-3842
ilizer	-3843
illery	-3844
incess	-3845
insula	-3846
ipment	-3847
isfied	-3848
iverse	-3849
leting	-3850
liable	-3851
nowman	-3852
oliday	-3853
onding	-3854
otsman	-3855
places	-3856
ranted	-3857
rative	-3858
rdogan	-3859
rently	-3860
retary	-3861
ricone	-3862
rights	-3863
romise	-3864
sembly	-3865
spaper	-3866
ulated	-3867
ursday	-3868
utions	-3869
vernor	-3870
xander	-3871
▁1770,	-3872
▁1832,	-3873
▁1911,	-3874
▁1914,	-3875
▁2010,	-3876
▁2011,	-3877
▁2012,	-3878
▁2017.	-3879
▁Among	-3880
▁Anaya	-3881
▁Andes	-3882
▁Angel	-3883
▁Barro	-3884
▁Black	-3885
▁Bonds	-3886
▁Canal	-3887
▁Catal	-3888
▁Chris	-3889
▁Czech	-3890
▁David	-3891
▁Delta	-3892
▁Duffy	-3893
▁Endur	-3894
▁Fault	-3895
▁Geyer	-3896
▁Herzl	-3897
▁Hills	-3898
▁James	-3899
▁Japan	-3900
▁Jesus	-3901
▁Karel	-3902
▁Klein	-3903
▁Krist	-3904
▁Latin	-3905
▁Leive	-3906
▁Louis	-3907
▁Marco	-3908
▁Meiji	-3909
▁Metro	-3910
▁Obama	-3911
▁Party	-3912
▁Phoen	-3913
▁Prior	-3914
▁Punta	-3915
▁Pyong	-3916
▁Sahel	-3917
▁Santa	-3918
▁Satur	-3919
▁Scott	-3920
▁Spart	-3921
▁Tarlo	-3922
▁Today	-3923
▁Tower	-3924
▁Using	-3925
▁Wheel	-3926
▁While	-3927
▁Years	-3928
▁aband	-3929
▁accur	-3930
▁added	-3931
▁alarm	-3932
▁apply	-3933
▁argue	-3934
▁armed	-3935
▁asked	-3936
▁below	-3937
▁blind	-3938
▁blood	-3939
▁board	-3940
▁bonus	-3941
▁break	-3942
▁cause	-3943
▁ceded	-3944
▁cells	-3945
▁chief	-3946
▁citiz	-3947
▁colle	-3948
▁comes	-3949
▁crack	-3950
▁disas	-3951
▁docum	-3952
▁elect	-3953
▁elite	-3954
▁emerg	-3955
▁enemy	-3956
▁equal	-3957
▁exhib	-3958
▁exist	-3959
▁extra	-3960
▁faced	-3961
▁fewer	-3962
▁fleet	-3963
▁flood	-3964
▁fresh	-3965
▁gathe	-3966
▁girls	-3967
▁goals	-3968
▁goods	-3969
▁grade	-3970
▁grain	-3971
▁grave	-3972
▁griev	-3973
▁heavy	-3974
▁hemog	-3975
▁homel	-3976
▁inapp	-3977
▁kings	-3978
▁label	-3979
▁lands	-3980
▁laugh	-3981
▁learn	-3982
▁litre	-3983
▁lives	-3984
▁loved	-3985
▁lunar	-3986
▁males	-3987
▁marks	-3988
▁motor	-3989
▁named	-3990
▁night	-3991
▁penal	-3992
▁plane	-3993
▁plate	-3994
▁polls	-3995
▁ports	-3996
▁price	-3997
▁prior	-3998
▁radar	-3999
▁radio	-4000
▁rainy	-4001
▁rapid	-4002
▁retro	-4003
▁rival	-4004
▁river	-4005
▁ruins	-4006
▁ruler	-4007
▁scope	-4008
▁score	-4009
▁shake	-4010
▁shape	-4011
▁shock	-4012
▁shoes	-4013
▁signs	-4014
▁spons	-4015
▁stock	-4016
▁stood	-4017
▁stopp	-4018
▁succe	-4019
▁super	-4020
▁table	-4021
▁telev	-4022
▁texts	-4023
▁theme	-4024
▁thous	-4025
▁tools	-4026
▁tourn	-4027
▁toxic	-4028
▁trips	-4029
▁union	-4030
▁usage	-4031
▁users	-4032
▁vague	-4033
▁value	-4034
▁vigor	-4035
▁votes	-4036
▁wants	-4037
▁waste	-4038
▁whole	-4039
▁woman	-4040
▁worth	-4041
▁write	-4042
Beijing	-4043
aborate	-4044
athetic	-4045
berland	-4046
cenaean	-4047
chitect	-4048
duction	-4049
eastern	-4050
egrated	-4051
fascist	-4052
holders	-4053
ication	-4054
ilities	-4055
illance	-4056
irector	-4057
isation	-4058
issions	-4059
istance	-4060
istoric	-4061
lightly	-4062
omplete	-4063
otional	-4064
otsford	-4065
passing	-4066
unteers	-4067
ustrial	-4068
western	-4069
winning	-4070
▁Alaska	-4071
▁Aldrin	-4072
▁Athens	-4073
▁Brazil	-4074
▁Brexit	-4075
▁Bronze	-4076
▁Caesar	-4077
▁Carlos	-4078
▁Carson	-4079
▁Cotton	-4080
▁Danube	-4081
▁George	-4082
▁Golden	-4083
▁Ground	-4084
▁Joliot	-4085
▁Kadesh	-4086
▁Kansas	-4087
▁Lamarr	-4088
▁Madrid	-4089
▁Mailis	-4090
▁Manchu	-4091
▁Modern	-4092
▁Native	-4093
▁Norway	-4094
▁People	-4095
▁Philip	-4096
▁Poland	-4097
▁Police	-4098
▁Pompey	-4099
▁Reagan	-4100
▁Really	-4101
▁Resear	-4102
▁Romans	-4103
▁Sahara	-4104
▁School	-4105
▁Sicily	-4106
▁Spring	-4107
▁Street	-4108
▁Summer	-4109
▁Things	-4110
▁Thirty	-4111
▁Thomas	-4112
▁Venice	-4113
▁accomp	-4114
▁action	-4115
▁agreed	-4116
▁allies	-4117
▁amount	-4118
▁animal	-4119
▁annual	-4120
▁awards	-4121
▁babies	-4122
▁budget	-4123
▁burial	-4124
▁capita	-4125
▁celebr	-4126
▁charge	-4127
▁claims	-4128
▁closed	-4129
▁combat	-4130
▁comedy	-4131
▁contam	-4132
▁copies	-4133
▁couple	-4134
▁decade	-4135
▁decide	-4136
▁demand	-4137
▁detail	-4138
▁driver	-4139
▁effort	-4140
▁empire	-4141
▁energy	-4142
▁enjoys	-4143
▁ethnic	-4144
▁expert	-4145
▁extent	-4146
▁fallen	-4147
▁father	-4148
▁female	-4149
▁fights	-4150
▁follow	-4151
▁frozen	-4152
▁garden	-4153
▁gather	-4154
▁giving	-4155
▁guitar	-4156
▁handle	-4157
▁hardly	-4158
▁highly	-4159
▁income	-4160
▁instit	-4161
▁leaves	-4162
▁length	-4163
▁letter	-4164
▁linked	-4165
▁logist	-4166
▁matter	-4167
▁member	-4168
▁meters	-4169
▁method	-4170
▁mostly	-4171
▁moving	-4172
▁nation	-4173
▁neighb	-4174
▁oceans	-4175
▁opport	-4176
▁orders	-4177
▁output	-4178
▁persec	-4179
▁phones	-4180
▁pilots	-4181
▁placed	-4182
▁plenty	-4183
▁points	-4184
▁policy	-4185
▁potent	-4186
▁prepar	-4187
▁prizes	-4188
▁produc	-4189
▁punish	-4190
▁raised	-4191
▁rebels	-4192
▁reduce	-4193
▁reform	-4194
▁regard	-4195
▁regist	-4196
▁regret	-4197
▁relied	-4198
▁remove	-4199
▁rising	-4200
▁rivers	-4201
▁rocket	-4202
▁routes	-4203
▁sailed	-4204
▁saying	-4205
▁seeing	-4206
▁seldom	-4207
▁served	-4208
▁serves	-4209
▁single	-4210
▁spared	-4211
▁spring	-4212
▁starts	-4213
▁states	-4214
▁storms	-4215
▁strain	-4216
▁street	-4217
▁studio	-4218
▁talent	-4219
▁terror	-4220
▁theory	-4221
▁things	-4222
▁though	-4223
▁thrown	-4224
▁toward	-4225
▁tracks	-4226
▁troubl	-4227
▁twenty	-4228
▁verbal	-4229
▁vision	-4230
▁volcan	-4231
▁warned	-4232
▁waters	-4233
▁zodiac	-4234
caucasus	-4235
domestic	-4236
ographic	-4237
ospitals	-4238
quarters	-4239
reaching	-4240
ropriate	-4241
▁Academy	-4242
▁Alvarez	-4243
▁Anselmi	-4244
▁Austria	-4245
▁Balkans	-4246
▁Between	-4247
▁Erdogan	-4248
▁Finnish	-4249
▁Francis	-4250
▁Further	-4251
▁Glasgow	-4252
▁Jutting	-4253
▁Kingdom	-4254
▁LaBeouf	-4255
▁Lincoln	-4256
▁Michael	-4257
▁Nicolai	-4258
▁Outside	-4259
▁Perhaps	-4260
▁Premium	-4261
▁Princip	-4262
▁Service	-4263
▁Several	-4264
▁Spotify	-4265
▁Starlin	-4266
▁Stephen	-4267
▁Swedish	-4268
▁Ukraine	-4269
▁William	-4270
▁ability	-4271
▁accused	-4272
▁achieve	-4273
▁airline	-4274
▁anticip	-4275
▁arrived	-4276
▁artists	-4277
▁attempt	-4278
▁battles	-4279
▁beliefs	-4280
▁benefit	-4281
▁billion	-4282
▁carried	-4283
▁caution	-4284
▁cavalry	-4285
▁changes	-4286
▁chapels	-4287
▁claimed	-4288
▁clothes	-4289
▁coastal	-4290
▁collect	-4291
▁colours	-4292
▁comfort	-4293
▁concept	-4294
▁concert	-4295
▁connect	-4296
▁consequ	-4297
▁consult	-4298
▁contain	-4299
▁context	-4300
▁council	-4301
▁covered	-4302
▁crossed	-4303
▁culture	-4304
▁decades	-4305
▁definit	-4306
▁digital	-4307
▁dismiss	-4308
▁display	-4309
▁diverse	-4310
▁eastern	-4311
▁edition	-4312
▁equally	-4313
▁experts	-4314
▁extreme	-4315
▁filming	-4316
▁finally	-4317
▁finding	-4318
▁forgone	-4319
▁founded	-4320
▁healthy	-4321
▁holiday	-4322
▁housing	-4323
▁hydroel	-4324
▁impacts	-4325
▁implied	-4326
▁instead	-4327
▁invalid	-4328
▁isthmus	-4329
▁journal	-4330
▁landing	-4331
▁largest	-4332
▁leading	-4333
▁legally	-4334
▁letters	-4335
▁lowland	-4336
▁marched	-4337
▁measure	-4338
▁meeting	-4339
▁message	-4340
▁mineral	-4341
▁minutes	-4342
▁nations	-4343
▁nothing	-4344
▁obvious	-4345
▁offered	-4346
▁officer	-4347
▁opinion	-4348
▁opposed	-4349
▁organiz	-4350
▁overall	-4351
▁passing	-4352
▁perhaps	-4353
▁persist	-4354
▁posthum	-4355
▁predict	-4356
▁prefere	-4357
▁princip	-4358
▁protect	-4359
▁pursued	-4360
▁quickly	-4361
▁radical	-4362
▁railway	-4363
▁receive	-4364
▁reduced	-4365
▁resembl	-4366
▁retreat	-4367
▁running	-4368
▁scandal	-4369
▁section	-4370
▁secured	-4371
▁seeking	-4372
▁settled	-4373
▁shortly	-4374
▁sighted	-4375
▁sitting	-4376
▁skilled	-4377
▁species	-4378
▁staging	-4379
▁starred	-4380
▁studied	-4381
▁surgery	-4382
▁survive	-4383
▁suspend	-4384
▁theater	-4385
▁tissues	-4386
▁traffic	-4387
▁treated	-4388
▁turning	-4389
▁univers	-4390
▁variety	-4391
▁waiting	-4392
▁western	-4393
Caribbean	-4394
ationists	-4395
elievable	-4396
enditures	-4397
governing	-4398
ominantly	-4399
▁Americas	-4400
▁Augustus	-4401
▁Burgoyne	-4402
▁Business	-4403
▁Cameroun	-4404
▁Catalano	-4405
▁Director	-4406
▁Emperors	-4407
▁Facebook	-4408
▁González	-4409
▁Hispania	-4410
▁Napoleon	-4411
▁Northern	-4412
▁Ottomans	-4413
▁Ramesses	-4414
▁Saturday	-4415
▁Scotsman	-4416
▁Slovakia	-4417
▁Students	-4418
▁Thursday	-4419
▁accorded	-4420
▁although	-4421
▁analysis	-4422
▁analysts	-4423
▁apparent	-4424
▁artistic	-4425
▁attempts	-4426
▁becoming	-4427
▁behavior	-4428
▁believed	-4429
▁believes	-4430
▁billions	-4431
▁boundary	-4432
▁captured	-4433
▁centered	-4434
▁chemical	-4435
▁churches	-4436
▁citizens	-4437
▁collapse	-4438
▁colonial	-4439
▁combined	-4440
▁consumer	-4441
▁controls	-4442
▁covering	-4443
▁cultures	-4444
▁defenses	-4445
▁deposits	-4446
▁directly	-4447
▁displays	-4448
▁domestic	-4449
▁dominant	-4450
▁earnings	-4451
▁educated	-4452
▁enrolled	-4453
▁entirely	-4454
▁episodes	-4455
▁equipped	-4456
▁everyone	-4457
▁evidence	-4458
▁exchange	-4459
▁expected	-4460
▁expelled	-4461
▁families	-4462
▁features	-4463
▁fighting	-4464
▁finished	-4465
▁flicking	-4466
▁foremost	-4467
▁gathered	-4468
▁hormonal	-4469
▁humanity	-4470
▁improved	-4471
▁incident	-4472
▁includes	-4473
▁intended	-4474
▁interior	-4475
▁invasion	-4476
▁judicial	-4477
▁learning	-4478
▁literary	-4479
▁measures	-4480
▁mountain	-4481
▁nutrient	-4482
▁occupied	-4483
▁oriented	-4484
▁overseas	-4485
▁particip	-4486
▁petition	-4487
▁pictures	-4488
▁platform	-4489
▁presides	-4490
▁princess	-4491
▁products	-4492
▁projects	-4493
▁promptly	-4494
▁proposed	-4495
▁protests	-4496
▁provided	-4497
▁provides	-4498
▁publicly	-4499
▁reaction	-4500
▁referred	-4501
▁removing	-4502
▁replaced	-4503
▁republic	-4504
▁requests	-4505
▁resolved	-4506
▁rhetoric	-4507
▁separate	-4508
▁slightly	-4509
▁speakers	-4510
▁standing	-4511
▁steadily	-4512
▁struggle	-4513
▁surprise	-4514
▁swearing	-4515
▁targeted	-4516
▁teachers	-4517
▁teaching	-4518
▁unlikely	-4519
▁whatever	-4520
chitecture	-4521
ertainment	-4522
oretically	-4523
▁Agreement	-4524
▁Alexander	-4525
▁Americans	-4526
▁Antarctic	-4527
▁Canaanite	-4528
▁Democrats	-4529
▁Edinburgh	-4530
▁Endurance	-4531
▁Following	-4532
▁Hospitals	-4533
▁Icelandic	-4534
▁Investors	-4535
▁Morricone	-4536
▁Mycenaean	-4537
▁Naturally	-4538
▁Pyongyang	-4539
▁Tradition	-4540
▁according	-4541
▁advantage	-4542
▁ambitions	-4543
▁artillery	-4544
▁attention	-4545
▁borrowing	-4546
▁candidate	-4547
▁challenge	-4548
▁character	-4549
▁commander	-4550
▁completed	-4551
▁condition	-4552
▁conducted	-4553
▁confident	-4554
▁continent	-4555
▁continued	-4556
▁directors	-4557
▁discontin	-4558
▁discussed	-4559
▁dominance	-4560
▁dominated	-4561
▁ecosystem	-4562
▁elaborate	-4563
▁encourage	-4564
▁equipment	-4565
▁estimated	-4566
▁estimates	-4567
▁exception	-4568
▁executive	-4569
▁explained	-4570
▁extension	-4571
▁forgotten	-4572
▁gathering	-4573
▁increased	-4574
▁intention	-4575
▁interests	-4576
▁landscape	-4577
▁languages	-4578
▁lawmakers	-4579
▁lobbyists	-4580
▁machinery	-4581
▁meanwhile	-4582
▁modifying	-4583
▁newspaper	-4584
▁otherwise	-4585
▁peninsula	-4586
▁practices	-4587
▁primarily	-4588
▁programme	-4589
▁provision	-4590
▁requested	-4591
▁sanctions	-4592
▁secondary	-4593
▁separated	-4594
▁something	-4595
▁standards	-4596
▁structure	-4597
▁suggested	-4598
▁technique	-4599
▁therefore	-4600
▁transport	-4601
▁wonderful	-4602
fortunately	-4603
vironmental	-4604
▁Abbotsford	-4605
▁Convention	-4606
▁Cumberland	-4607
▁Democratic	-4608
▁Indigenous	-4609
▁Industrial	-4610
▁Throughout	-4611
▁Winterkorn	-4612
▁characters	-4613
▁climatolog	-4614
▁completing	-4615
▁connection	-4616
▁controlled	-4617
▁convention	-4618
▁discovered	-4619
▁empathetic	-4620
▁enrollment	-4621
▁evacuation	-4622
▁everything	-4623
▁expedition	-4624
▁experiment	-4625
▁explaining	-4626
▁fertilizer	-4627
▁frequently	-4628
▁generation	-4629
▁guidelines	-4630
▁hemoglobin	-4631
▁historians	-4632
▁identified	-4633
▁immigrants	-4634
▁incredible	-4635
▁indigenous	-4636
▁influenced	-4637
▁investment	-4638
▁invitation	-4639
▁lighthouse	-4640
▁management	-4641
▁meaningful	-4642
▁motorcycle	-4643
▁occupation	-4644
▁originally	-4645
▁passengers	-4646
▁presidency	-4647
▁profession	-4648
▁protection	-4649
▁publishing	-4650
▁referendum	-4651
▁reportedly	-4652
▁revolution	-4653
▁scientific	-4654
▁supporting	-4655
▁surpassing	-4656
▁television	-4657
▁tournament	-4658
▁underneath	-4659
▁vigorously	-4660
▁volunteers	-4661
▁Association	-4662
▁Furthermore	-4663
▁Investments	-4664
▁Researchers	-4665
▁accompanied	-4666
▁advertising	-4667
▁alternative	-4668
▁ambassadors	-4669
▁authorities	-4670
▁communities	-4671
▁composition	-4672
▁constructed	-4673
▁distinction	-4674
▁governments	-4675
▁independent	-4676
▁individuals	-4677
▁interesting	-4678
▁interviewed	-4679
▁investments	-4680
▁legislative	-4681
▁opportunity	-4682
▁persecution	-4683
▁possibility	-4684
▁potentially	-4685
▁prehistoric	-4686
▁progressive	-4687
▁responsible	-4688
▁sponsorship	-4689
▁surrendered	-4690
▁temperament	-4691
▁traditional	-4692
▁transported	-4693
▁underground	-4694
▁Principality	-4695
▁agricultural	-4696
▁consequences	-4697
▁demonstrated	-4698
▁establishing	-4699
▁expenditures	-4700
▁headquarters	-4701
▁increasingly	-4702
▁intellectual	-4703
▁marketplaces	-4704
▁metropolitan	-4705
▁preferential	-4706
▁relationship	-4707
▁resemblances	-4708
▁respectively	-4709
▁surveillance	-4710
▁unbelievable	-4711
▁urbanization	-4712
▁civilisations	-4713
▁contraception	-4714
▁contributions	-4715
▁entertainment	-4716
▁hydroelectric	-4717
▁inappropriate	-4718
▁investigation	-4719
▁predominantly	-4720
▁understanding	-4721
▁classification	-4722
▁collaborations	-4723
.5-	-4724
16.	-4725
165	-4726
328	-4727
335	-4728
99.	-4729
ATO	-4730
CAR	-4731
FCs	-4732
IDS	-4733
axy	-4734
egu	-4735
eux	-4736
kyl	-4737
rrh	-4738
ukh	-4739
yll	-4740
yuk	-4741
▁71	-4742
-196	-4743
-197	-4744
19,9	-4745
5-20	-4746
50),	-4747
54),	-4748
94),	-4749
Gaud	-4750
Jeff	-4751
Nakh	-4752
RECO	-4753
SCAR	-4754
Sixt	-4755
Tube	-4756
anni	-4757
atán	-4758
bedd	-4759
cano	-4760
dden	-4761
emma	-4762
eneu	-4763
film	-4764
gesh	-4765
glas	-4766
ifax	-4767
ikai	-4768
laza	-4769
prep	-4770
rado	-4771
ubei	-4772
uddy	-4773
uett	-4774
ulls	-4775
urán	-4776
ylum	-4777
zira	-4778
áhor	-4779
▁$10	-4780
▁1,3	-4781
▁40%	-4782
▁53%	-4783
▁70%	-4784
▁833	-4785
▁Boe	-4786
▁GTA	-4787
▁Joe	-4788
▁Lov	-4789
▁McG	-4790
▁RSP	-4791
▁Sán	-4792
▁Tex	-4793
▁VAT	-4794
-1970	-4795
000-£	-4796
19,99	-4797
8,000	-4798
ASCAR	-4799
brid	-4800
mosp	-4801
pisc	-4802
time	-4803
▁137	-4804
▁Doz	-4805
▁Mrs	-4806
▁Pae	-4807
▁Veg	-4808
▁avo	-4809
David	-4810
Micro	-4811
Stran	-4812
Super	-4813
adaan	-4814
alaxy	-4815
annis	-4816
anzir	-4817
aplan	-4818
aptop	-4819
asque	-4820
axact	-4821
bolic	-4822
brace	-4823
burse	-4824
chief	-4825
chler	-4826
cibly	-4827
cknow	-4828
cript	-4829
denum	-4830
egree	-4831
eilly	-4832
ennis	-4833
erena	-4834
erico	-4835
erked	-4836
error	-4837
ettel	-4838
gener	-4839
hearn	-4840
hibit	-4841
hiker	-4842
holic	-4843
icacy	-4844
icnic	-4845
ilbea	-4846
illeg	-4847
iotic	-4848
itled	-4849
itler	-4850
ldoms	-4851
lrich	-4852
maker	-4853
nesty	-4854
nexed	-4855
ordsm	-4856
osped	-4857
ozone	-4858
phrey	-4859
plane	-4860
putes	-4861
rrhus	-4862
sburg	-4863
scarf	-4864
swald	-4865
tenna	-4866
ummit	-4867
words	-4868
wrote	-4869
ylist	-4870
zburg	-4871
▁(328	-4872
▁1,36	-4873
▁1.5-	-4874
▁1200	-4875
▁1350	-4876
▁1886	-4877
▁1904	-4878
▁1927	-4879
▁1950	-4880
▁3300	-4881
▁363.	-4882
▁Abak	-4883
▁Adri	-4884
▁Alej	-4885
▁Arch	-4886
▁Avro	-4887
▁Bono	-4888
▁Bush	-4889
▁Elli	-4890
▁Engl	-4891
▁Expl	-4892
▁Frid	-4893
▁Harv	-4894
▁Jeff	-4895
▁Jenn	-4896
▁Mald	-4897
▁Miam	-4898
▁Navy	-4899
-20	-4900
20.	-4901
30-	-4902
30.	-4903
bey	-4904
ngo	-4905
wee	-4906
▁6%	-4907
▁62	-4908
-201	-4909
.30-	-4910
arna	-4911
week	-4912
▁62%	-4913
▁700	-4914
▁830	-4915
▁Hua	-4916
▁Iey	-4917
▁Lee	-4918
-2014	-4919
.30-1	-4920
almad	-4921
arnak	-4922
entee	-4923
ritti	-4924
▁(191	-4925
▁Darn	-4926
▁Open	-4927
▁Panv	-4928
▁RECO	-4929
▁RSPB	-4930
▁Ramb	-4931
▁Rasa	-4932
▁Rico	-4933
▁Rift	-4934
▁Sakh	-4935
▁Siri	-4936
▁Skyl	-4937
▁Sony	-4938
▁Team	-4939
▁Tech	-4940
▁Tenn	-4941
▁Tsar	-4942
▁Yerb	-4943
▁baby	-4944
▁budd	-4945
▁catf	-4946
▁coup	-4947
▁crum	-4948
▁emoj	-4949
▁eros	-4950
▁haze	-4951
▁levy	-4952
▁menh	-4953
▁moly	-4954
▁neck	-4955
▁nude	-4956
▁onto	-4957
▁piec	-4958
▁safe	-4959
▁sixt	-4960
▁slap	-4961
▁sunr	-4962
▁syll	-4963
▁ultr	-4964
▁unaw	-4965
-1962,	-4966
.30-10	-4967
19,999	-4968
5,000.	-4969
Celtic	-4970
Cinema	-4971
Jadaan	-4972
Loving	-4973
Nakhon	-4974
Neilly	-4975
Zettel	-4976
adless	-4977
ailles	-4978
alterc	-4979
amchat	-4980
ammers	-4981
arrard	-4982
artime	-4983
asurer	-4984
bdenum	-4985
berius	-4986
canoes	-4987
comers	-4988
coming	-4989
commun	-4990
course	-4991
eguard	-4992
employ	-4993
enario	-4994
enberg	-4995
eneuve	-4996
enseth	-4997
erberg	-4998
erbian	-4999
inox	-5000
pret	-5001
▁Phr	-5002
▁Saq	-5003
Saint	-5004
amson	-5005
etime	-5006
glass	-5007
mired	-5008
udson	-5009
uffed	-5010
▁1632	-5011
▁Hung	-5012
▁Juan	-5013
▁Saul	-5014
▁Shap	-5015
▁Show	-5016
▁folk	-5017
▁issu	-5018
▁maps	-5019
▁seaf	-5020
arling	-5021
etwork	-5022
galith	-5023
gasque	-5024
hanced	-5025
hanzir	-5026
ialize	-5027
iences	-5028
ijinks	-5029
imagin	-5030
indsay	-5031
inoxes	-5032
intado	-5033
issipp	-5034
laints	-5035
ledged	-5036
matory	-5037
mbolic	-5038
mitted	-5039
offset	-5040
ointed	-5041
olades	-5042
onster	-5043
orence	-5044
ouglas	-5045
ournal	-5046
person	-5047
phasis	-5048
phones	-5049
ptying	-5050
racing	-5051
rafton	-5052
rategy	-5053
ravity	-5054
rolled	-5055
solven	-5056
stands	-5057
terior	-5058
uctant	-5059
ucting	-5060
uettes	-5061
unicip	-5062
writer	-5063
áhorie	-5064
▁$103.	-5065
▁1,335	-5066
▁1075.	-5067
▁1519,	-5068
▁1530.	-5069
▁1882.	-5070
▁1887.	-5071
▁1917,	-5072
▁1918,	-5073
▁1926,	-5074
▁1945.	-5075
▁1952,	-5076
▁1955.	-5077
▁1960.	-5078
▁1961,	-5079
▁1969,	-5080
▁2001.	-5081
▁2004.	-5082
▁2007,	-5083
▁2014,	-5084
▁Adnan	-5085
▁Aires	-5086
▁Anshi	-5087
▁Apple	-5088
▁Appro	-5089
▁Beria	-5090
▁Blood	-5091
▁Bouch	-5092
▁Brant	-5093
▁Brice	-5094
▁Bruce	-5095
▁Bruyn	-5096
▁Buena	-5097
▁Calab	-5098
▁Capua	-5099
35.	-5100
93.	-5101
arsh	-5102
eeds	-5103
ieth	-5104
mars	-5105
ynop	-5106
▁£3,	-5107
alarm	-5108
geron	-5109
icino	-5110
igger	-5111
oyars	-5112
▁1492	-5113
▁393.	-5114
▁Parm	-5115
▁wave	-5116
▁zone	-5117
atican	-5118
itness	-5119
noyars	-5120
▁1492;	-5121
▁1913,	-5122
▁1975.	-5123
▁2002.	-5124
▁2003,	-5125
▁2035.	-5126
▁Cecel	-5127
▁Celeb	-5128
▁Color	-5129
▁Corin	-5130
▁Cumae	-5131
▁Domen	-5132
▁Dream	-5133
▁Durán	-5134
▁Edgar	-5135
▁Episc	-5136
▁Erran	-5137
▁Flens	-5138
▁Forms	-5139
▁Heart	-5140
▁Homer	-5141
▁Huawe	-5142
▁Irish	-5143
▁Jesse	-5144
▁Jimmy	-5145
▁Korea	-5146
▁Lasse	-5147
▁Lenno	-5148
▁Lucas	-5149
▁Meyer	-5150
▁Monte	-5151
▁Numer	-5152
▁Olney	-5153
▁Paeon	-5154
▁Parma	-5155
▁Pelop	-5156
▁Plano	-5157
▁Plant	-5158
▁Price	-5159
▁Prime	-5160
▁Rambl	-5161
▁Reach	-5162
▁Rhine	-5163
▁Romeo	-5164
▁Segel	-5165
▁Shenz	-5166
▁Simon	-5167
▁Slate	-5168
▁Tesco	-5169
▁Tesla	-5170
▁Villa	-5171
▁Wales	-5172
▁Walls	-5173
▁Weiss	-5174
▁Wells	-5175
▁Where	-5176
▁Yerba	-5177
▁abbey	-5178
▁absor	-5179
▁adopt	-5180
▁alien	-5181
▁alleg	-5182
▁alpha	-5183
▁altar	-5184
▁aquar	-5185
▁arrog	-5186
▁assoc	-5187
▁auton	-5188
▁avoid	-5189
▁banks	-5190
▁blogg	-5191
▁brain	-5192
▁bulls	-5193
▁chaos	-5194
▁cinem	-5195
▁claim	-5196
▁codes	-5197
▁cools	-5198
▁crash	-5199
Feb	-5200
cape	-5201
chel	-5202
tapp	-5203
▁Dee	-5204
▁irr	-5205
Febru	-5206
antee	-5207
apped	-5208
ework	-5209
gular	-5210
natch	-5211
oices	-5212
threw	-5213
unted	-5214
urged	-5215
ychel	-5216
▁1981	-5217
▁1987	-5218
▁1988	-5219
▁Amur	-5220
▁Brun	-5221
▁Holy	-5222
▁Lake	-5223
▁boat	-5224
▁burg	-5225
▁drew	-5226
▁evid	-5227
▁irid	-5228
▁irks	-5229
▁join	-5230
▁temp	-5231
arison	-5232
capped	-5233
chants	-5234
escape	-5235
inants	-5236
penter	-5237
persed	-5238
rained	-5239
raphic	-5240
tapper	-5241
▁Adden	-5242
▁Bruno	-5243
▁Disib	-5244
▁Guide	-5245
▁Laure	-5246
▁Lenny	-5247
▁Revol	-5248
▁Schen	-5249
▁bills	-5250
▁boost	-5251
▁deeds	-5252
▁dinos	-5253
▁divor	-5254
▁drawn	-5255
▁essay	-5256
▁facts	-5257
▁fatal	-5258
▁favou	-5259
▁feats	-5260
▁fireb	-5261
▁firew	-5262
▁floor	-5263
▁flows	-5264
▁focus	-5265
▁folks	-5266
▁glory	-5267
▁greet	-5268
▁group	-5269
▁harsh	-5270
▁highe	-5271
▁hilly	-5272
▁homes	-5273
▁hotel	-5274
▁ideas	-5275
▁illeg	-5276
▁inhab	-5277
▁insat	-5278
▁irony	-5279
▁irrit	-5280
▁joked	-5281
▁judge	-5282
▁kilow	-5283
▁loops	-5284
▁loose	-5285
▁lungs	-5286
▁maior	-5287
▁maker	-5288
▁match	-5289
▁memes	-5290
▁motoc	-5291
▁multi	-5292
▁obser	-5293
▁offsp	-5294
▁peaks	-5295
▁portr	-5296
▁probe	-5297
▁pupae	-5298
▁reads	-5299
azi	-5300
▁7.	-5301
abaz	-5302
▁7.5	-5303
▁Gaz	-5304
blast	-5305
elcom	-5306
gabaz	-5307
vanni	-5308
▁1976	-5309
▁Aviv	-5310
▁Nazi	-5311
▁Reve	-5312
▁acid	-5313
▁grac	-5314
amilit	-5315
itants	-5316
▁Antip	-5317
▁Aviva	-5318
▁Gazet	-5319
▁Mayor	-5320
▁Outer	-5321
▁begun	-5322
▁crust	-5323
▁limit	-5324
▁muses	-5325
▁oppos	-5326
▁ready	-5327
▁realm	-5328
▁rehab	-5329
▁rests	-5330
▁reviv	-5331
▁robot	-5332
▁roles	-5333
▁route	-5334
▁ruled	-5335
▁safer	-5336
▁scrip	-5337
▁seapl	-5338
▁seats	-5339
▁shipb	-5340
▁silic	-5341
▁soils	-5342
▁solid	-5343
▁squad	-5344
▁stabb	-5345
▁steel	-5346
▁steps	-5347
▁stuff	-5348
▁swath	-5349
▁synop	-5350
▁tailb	-5351
▁tears	-5352
▁teleg	-5353
▁tellt	-5354
▁tough	-5355
▁types	-5356
▁undes	-5357
▁unnot	-5358
▁unoff	-5359
▁unpre	-5360
▁veter	-5361
▁vivid	-5362
▁waits	-5363
▁weekd	-5364
▁wrong	-5365
5-2016.	-5366
6.30-10	-5367
Gaudens	-5368
January	-5369
Jeffrey	-5370
Sixties	-5371
Stephen	-5372
Superhe	-5373
acturer	-5374
aginary	-5375
alified	-5376
almadge	-5377
amental	-5378
amework	-5379
antages	-5380
arantee	-5381
archies	-5382
ardoned	-5383
arriage	-5384
autions	-5385
berlain	-5386
bermars	-5387
culated	-5388
earthed	-5389
eciding	-5390
ederico	-5391
elcomed	-5392
emption	-5393
esigned	-5394
ethical	-5395
ference	-5396
gabazus	-5397
galiths	-5398
herents	-5399
rtt	-5400
▁42	-5401
▁80	-5402
▁9,	-5403
▁ZE	-5404
▁Ze	-5405
aurs	-5406
nuck	-5407
ratt	-5408
ruck	-5409
ttes	-5410
▁11,	-5411
▁15.	-5412
▁153	-5413
▁400	-5414
▁ZEI	-5415
▁Zex	-5416
▁Zim	-5417
▁fix	-5418
Knuck	-5419
altic	-5420
ickel	-5421
ornia	-5422
rator	-5423
rogen	-5424
roots	-5425
stick	-5426
▁15.5	-5427
▁1538	-5428
▁Amin	-5429
▁Buck	-5430
▁Club	-5431
▁Real	-5432
▁Reic	-5433
▁ZEIT	-5434
▁Zexu	-5435
▁Zuck	-5436
▁obsc	-5437
entuck	-5438
uckily	-5439
ursors	-5440
▁Maybe	-5441
▁Strat	-5442
▁Style	-5443
▁click	-5444
▁fixed	-5445
▁shots	-5446
▁toler	-5447
Luckily	-5448
arettes	-5449
entucky	-5450
hitting	-5451
iamonds	-5452
ietrich	-5453
ifornia	-5454
ightley	-5455
igrated	-5456
ilicata	-5457
illican	-5458
imburse	-5459
ismatic	-5460
itarian	-5461
iteracy	-5462
lighted	-5463
married	-5464
ministr	-5465
mitting	-5466
ographs	-5467
ometers	-5468
onorary	-5469
ositive	-5470
payment	-5471
respect	-5472
ributor	-5473
ricanes	-5474
ruption	-5475
sembled	-5476
settled	-5477
speople	-5478
stances	-5479
terling	-5480
tingham	-5481
tresses	-5482
trolled	-5483
uscript	-5484
vailing	-5485
ylistic	-5486
▁$103.7	-5487
▁1794),	-5488
▁Abakum	-5489
▁Agency	-5490
▁Allies	-5491
▁Amurru	-5492
▁Apulia	-5493
▁Associ	-5494
▁Baltic	-5495
▁Barros	-5496
▁Boeing	-5497
▁Bogart	-5498
▁Brands	-5499
ashi	-5500
▁10-	-5501
▁120	-5502
orner	-5503
▁Seas	-5504
▁ausp	-5505
▁cash	-5506
▁curt	-5507
▁infr	-5508
▁talk	-5509
airman	-5510
esides	-5511
getown	-5512
listed	-5513
member	-5514
regate	-5515
remend	-5516
▁Isner	-5517
▁Rocco	-5518
▁Winst	-5519
▁chalk	-5520
▁debit	-5521
▁demol	-5522
▁drast	-5523
▁drink	-5524
▁hides	-5525
▁labor	-5526
▁witch	-5527
airment	-5528
eakness	-5529
gregate	-5530
tremend	-5531
umbashi	-5532
▁Breast	-5533
▁Canada	-5534
▁Caplan	-5535
▁Cecily	-5536
▁Center	-5537
▁Conson	-5538
▁Corona	-5539
▁Corpor	-5540
▁Crouch	-5541
▁Denver	-5542
▁EMicro	-5543
▁Elaine	-5544
▁Energy	-5545
▁Florid	-5546
▁Friday	-5547
▁Galaxy	-5548
▁Garden	-5549
▁Gezira	-5550
▁Harbor	-5551
▁Holden	-5552
▁Hortef	-5553
▁Horton	-5554
▁Huawei	-5555
▁Humans	-5556
▁Humble	-5557
▁Julian	-5558
▁Karnak	-5559
▁Khitan	-5560
▁Latium	-5561
▁Likely	-5562
▁Lilles	-5563
▁Marcel	-5564
▁Milice	-5565
▁Monkey	-5566
▁Motion	-5567
▁NASCAR	-5568
▁Newton	-5569
▁Oswald	-5570
▁Period	-5571
▁Persia	-5572
▁Petter	-5573
▁Rambow	-5574
▁Record	-5575
▁Retail	-5576
▁Return	-5577
▁Simple	-5578
▁Slavic	-5579
▁Sparta	-5580
▁Stalin	-5581
▁Summit	-5582
▁Sunder	-5583
▁Target	-5584
▁Terror	-5585
▁Thomps	-5586
▁Tients	-5587
▁Tioman	-5588
▁Uaxact	-5589
▁Ulrich	-5590
▁Voting	-5591
▁Walter	-5592
▁Willis	-5593
▁Winham	-5594
▁absorb	-5595
▁advice	-5596
▁allows	-5597
▁analys	-5598
▁andino	-5599
3.4	-5600
360	-5601
▁60	-5602
360.	-5603
5,00	-5604
aism	-5605
ghai	-5606
oham	-5607
undo	-5608
▁56%	-5609
▁Rai	-5610
3.45.	-5611
5,001	-5612
Garon	-5613
elena	-5614
itted	-5615
nesus	-5616
omery	-5617
othai	-5618
rupul	-5619
white	-5620
▁Goff	-5621
▁Goog	-5622
▁mini	-5623
▁situ	-5624
anghai	-5625
ferred	-5626
ifteen	-5627
ingsha	-5628
orized	-5629
udaism	-5630
undred	-5631
▁1879.	-5632
▁Civil	-5633
▁LaBro	-5634
▁Moham	-5635
▁Mundo	-5636
▁Shepp	-5637
▁boats	-5638
▁cares	-5639
▁emoji	-5640
▁headw	-5641
▁lying	-5642
▁mayor	-5643
▁rains	-5644
▁renov	-5645
▁subst	-5646
▁urged	-5647
▁£360.	-5648
5,001-£	-5649
Garonne	-5650
etlands	-5651
istries	-5652
onnesus	-5653
undreds	-5654
▁23.45.	-5655
▁Gomery	-5656
▁Google	-5657
▁Helena	-5658
▁Review	-5659
▁Zayion	-5660
▁antiqu	-5661
▁anyone	-5662
▁assass	-5663
▁assets	-5664
▁asylum	-5665
▁bachel	-5666
▁balked	-5667
▁banned	-5668
▁batter	-5669
▁begins	-5670
▁behalf	-5671
▁behind	-5672
▁bigger	-5673
▁billed	-5674
▁births	-5675
▁breakd	-5676
▁bursts	-5677
▁buying	-5678
▁calend	-5679
▁cameos	-5680
▁cannot	-5681
▁canoes	-5682
▁cheery	-5683
▁colony	-5684
▁copper	-5685
▁cotton	-5686
▁crisis	-5687
▁crying	-5688
▁cultur	-5689
▁deceit	-5690
▁declar	-5691
▁declin	-5692
▁deline	-5693
▁detect	-5694
▁determ	-5695
▁dispar	-5696
▁drinks	-5697
▁drones	-5698
▁easing	-5699
96,	-5700
luv	-5701
oby	-5702
cocc	-5703
heme	-5704
luvi	-5705
obil	-5706
thug	-5707
urpr	-5708
▁Bob	-5709
▁Byz	-5710
▁Rug	-5711
Mobil	-5712
coccy	-5713
ipole	-5714
luent	-5715
ranco	-5716
tship	-5717
▁Yves	-5718
▁flap	-5719
▁pomp	-5720
▁sole	-5721
arters	-5722
itters	-5723
loving	-5724
nology	-5725
ooting	-5726
opters	-5727
▁1896,	-5728
▁1996,	-5729
▁5,000	-5730
▁Crist	-5731
▁Forum	-5732
▁Pluvi	-5733
▁Rugby	-5734
▁Surpr	-5735
▁blunt	-5736
▁booby	-5737
▁coinc	-5738
▁dream	-5739
▁flock	-5740
▁flown	-5741
▁ordin	-5742
▁stale	-5743
coccyge	-5744
onMobil	-5745
ossible	-5746
▁Byzant	-5747
▁Forced	-5748
▁Forces	-5749
▁Forums	-5750
▁Franco	-5751
▁dipole	-5752
▁editor	-5753
▁effect	-5754
▁embedd	-5755
▁emerge	-5756
▁escape	-5757
▁excess	-5758
▁exclud	-5759
▁exiled	-5760
▁explor	-5761
▁extrem	-5762
▁factor	-5763
▁famili	-5764
▁famine	-5765
▁farmer	-5766
▁favour	-5767
▁feasts	-5768
▁fellow	-5769
▁figure	-5770
▁flames	-5771
▁flight	-5772
▁flowed	-5773
▁fought	-5774
▁fueled	-5775
▁genius	-5776
▁gently	-5777
▁guards	-5778
▁hoping	-5779
▁humans	-5780
▁immers	-5781
▁immort	-5782
▁impreg	-5783
▁incumb	-5784
▁infill	-5785
▁inflam	-5786
▁inside	-5787
▁integr	-5788
▁issues	-5789
▁jerked	-5790
▁joined	-5791
▁kilter	-5792
▁labour	-5793
▁lacked	-5794
▁ladder	-5795
▁larger	-5796
▁lawful	-5797
▁livest	-5798
▁locate	-5799
ssen	-5800
yway	-5801
▁RHS	-5802
▁obt	-5803
aches	-5804
bably	-5805
esday	-5806
nanig	-5807
rency	-5808
ssaly	-5809
uddha	-5810
▁Enri	-5811
▁Kier	-5812
▁Marr	-5813
▁bath	-5814
▁cars	-5815
▁circ	-5816
▁degr	-5817
▁ends	-5818
▁entr	-5819
▁grop	-5820
▁mock	-5821
▁oath	-5822
▁obes	-5823
▁poet	-5824
▁sett	-5825
▁sink	-5826
astelf	-5827
nesday	-5828
ockage	-5829
orslet	-5830
season	-5831
▁Essen	-5832
▁Franz	-5833
▁Kiera	-5834
▁Marot	-5835
▁Medal	-5836
▁clock	-5837
▁entry	-5838
▁settl	-5839
▁units	-5840
noyarsk	-5841
ropical	-5842
utional	-5843
▁Anyway	-5844
▁Buddha	-5845
▁Marina	-5846
▁Maroto	-5847
▁backed	-5848
▁circum	-5849
▁discom	-5850
▁filmed	-5851
▁format	-5852
▁gropes	-5853
▁levies	-5854
▁manner	-5855
▁margin	-5856
▁mental	-5857
▁minare	-5858
▁mocked	-5859
▁models	-5860
▁morals	-5861
▁naming	-5862
▁nearly	-5863
▁necess	-5864
▁nickel	-5865
▁observ	-5866
▁online	-5867
▁openly	-5868
▁oppose	-5869
▁orogen	-5870
▁patrol	-5871
▁plains	-5872
▁planet	-5873
▁poetry	-5874
▁poised	-5875
▁posted	-5876
▁poster	-5877
▁praise	-5878
▁prayer	-5879
▁precip	-5880
▁prerog	-5881
▁priest	-5882
▁prohib	-5883
▁promin	-5884
▁pushes	-5885
▁quoted	-5886
▁racial	-5887
▁racist	-5888
▁reclam	-5889
▁rename	-5890
▁repeal	-5891
▁runner	-5892
▁scores	-5893
▁select	-5894
▁shockw	-5895
▁shores	-5896
▁silica	-5897
▁singer	-5898
▁skerry	-5899
tym	-5900
▁6,	-5901
erno	-5902
grat	-5903
ossi	-5904
otyp	-5905
rawl	-5906
russ	-5907
ummy	-5908
▁10%	-5909
▁Amy	-5910
▁Mei	-5911
▁NoM	-5912
▁Scy	-5913
Pruss	-5914
ainty	-5915
racts	-5916
rible	-5917
▁1994	-5918
▁1997	-5919
▁Amaz	-5920
▁Bern	-5921
▁Circ	-5922
▁Gaud	-5923
▁Isra	-5924
▁Kven	-5925
▁Much	-5926
▁NoMa	-5927
▁Trud	-5928
▁airp	-5929
▁etym	-5930
▁feet	-5931
▁loss	-5932
▁pris	-5933
▁prou	-5934
▁smog	-5935
accept	-5936
ceived	-5937
ervous	-5938
gratul	-5939
▁1992,	-5940
▁6,000	-5941
▁Amynt	-5942
▁Andre	-5943
▁Rossi	-5944
▁Scyth	-5945
▁Texas	-5946
▁autos	-5947
▁bread	-5948
▁dried	-5949
▁finer	-5950
▁forty	-5951
▁genet	-5952
▁injur	-5953
▁mummy	-5954
▁proud	-5955
▁skill	-5956
ereotyp	-5957
icating	-5958
orities	-5959
ospedal	-5960
starred	-5961
▁Amazon	-5962
▁Cities	-5963
▁Israel	-5964
▁Trudea	-5965
▁amazed	-5966
▁except	-5967
▁extend	-5968
▁extens	-5969
▁nearby	-5970
▁potato	-5971
▁prison	-5972
▁seemed	-5973
▁sister	-5974
▁snatch	-5975
▁specim	-5976
▁spoken	-5977
▁sprawl	-5978
▁steady	-5979
▁stipul	-5980
▁stones	-5981
▁stored	-5982
▁stream	-5983
▁struck	-5984
▁struct	-5985
▁stuffy	-5986
▁suburb	-5987
▁suffer	-5988
▁superv	-5989
▁survey	-5990
▁temple	-5991
▁tended	-5992
▁thirte	-5993
▁turned	-5994
▁ultras	-5995
▁unborn	-5996
▁uncomm	-5997
▁unders	-5998
▁unless	-5999
20,	-6000
40,	-6001
52,	-6002
hoy	-6003
ampb	-6004
oole	-6005
text	-6006
▁184	-6007
▁66%	-6008
▁Ang	-6009
▁Emb	-6010
▁boy	-6011
attle	-6012
ooden	-6013
rence	-6014
udhoy	-6015
▁1000	-6016
▁1842	-6017
▁1925	-6018
▁1998	-6019
▁352,	-6020
▁66%.	-6021
▁Anne	-6022
▁Inde	-6023
▁Indo	-6024
▁Priv	-6025
▁Wood	-6026
▁belt	-6027
▁bloc	-6028
apting	-6029
gement	-6030
ildren	-6031
imited	-6032
letion	-6033
ritten	-6034
united	-6035
ustral	-6036
▁1340,	-6037
▁1820,	-6038
▁1998.	-6039
▁2000,	-6040
▁Bible	-6041
▁Brans	-6042
▁Campb	-6043
▁Colog	-6044
▁Poole	-6045
▁Woods	-6046
▁cobal	-6047
▁confu	-6048
▁maint	-6049
▁numer	-6050
▁parli	-6051
▁salin	-6052
▁stren	-6053
▁uncon	-6054
▁vital	-6055
Austral	-6056
agement	-6057
iansand	-6058
isement	-6059
limited	-6060
redited	-6061
▁Anglic	-6062
▁Austro	-6063
▁Battle	-6064
▁Embass	-6065
▁Indeed	-6066
▁Mediev	-6067
▁Yudhoy	-6068
▁blocks	-6069
▁cobalt	-6070
▁grainy	-6071
▁merely	-6072
▁streng	-6073
▁united	-6074
▁unpret	-6075
▁uplift	-6076
▁useful	-6077
▁viable	-6078
▁victim	-6079
▁viewed	-6080
▁voters	-6081
▁vulner	-6082
▁walked	-6083
▁waterf	-6084
▁winner	-6085
▁witchc	-6086
▁wooden	-6087
▁writer	-6088
February	-6089
Minister	-6090
Stranger	-6091
alarming	-6092
alicious	-6093
altering	-6094
amchatka	-6095
amentary	-6096
american	-6097
antastic	-6098
arenting	-6099
hio	-6100
iki	-6101
nio	-6102
ups	-6103
aken	-6104
akes	-6105
lave	-6106
raps	-6107
tein	-6108
▁Exx	-6109
alley	-6110
ictor	-6111
opley	-6112
taken	-6113
track	-6114
traps	-6115
▁2000	-6116
▁2005	-6117
▁2007	-6118
▁Kiki	-6119
▁Ohio	-6120
▁Pict	-6121
▁Samn	-6122
▁cups	-6123
▁dail	-6124
▁dict	-6125
▁fail	-6126
▁helm	-6127
ailand	-6128
ptural	-6129
ressed	-6130
resses	-6131
▁(1994	-6132
▁1947.	-6133
▁Domin	-6134
▁Ennio	-6135
▁Peter	-6136
▁Press	-6137
▁Slack	-6138
▁Steal	-6139
▁Sulla	-6140
▁award	-6141
▁daily	-6142
▁lakes	-6143
▁slave	-6144
▁stole	-6145
ialists	-6146
inately	-6147
marital	-6148
ressing	-6149
▁Hopley	-6150
▁Rather	-6151
▁Valley	-6152
▁Victor	-6153
▁church	-6154
▁helmet	-6155
▁mangan	-6156
▁nevert	-6157
▁pupils	-6158
▁revers	-6159
atically	-6160
atisfied	-6161
carriage	-6162
cedented	-6163
centrate	-6164
ceptives	-6165
children	-6166
communal	-6167
cription	-6168
ducation	-6169
ductions	-6170
earldoms	-6171
emporary	-6172
ependent	-6173
ertified	-6174
estament	-6175
getation	-6176
ierarchy	-6177
igration	-6178
ilbeault	-6179
imension	-6180
ingshaus	-6181
iversary	-6182
minister	-6183
mosphere	-6184
nanigans	-6185
ointment	-6186
olescent	-6187
orcement	-6188
ormously	-6189
phically	-6190
porating	-6191
ramework	-6192
reliable	-6193
rotected	-6194
rttember	-6195
solutely	-6196
solvency	-6197
ucrative	-6198
uishable	-6199
lae	-6200
even	-6201
life	-6202
then	-6203
xism	-6204
ylae	-6205
▁buy	-6206
adium	-6207
arium	-6208
arles	-6209
ermin	-6210
iciss	-6211
issed	-6212
▁Buen	-6213
▁barn	-6214
▁hook	-6215
▁indu	-6216
▁team	-6217
▁wool	-6218
bishop	-6219
ellery	-6220
entury	-6221
evelop	-6222
opylae	-6223
thened	-6224
▁1997,	-6225
▁2002,	-6226
▁2012.	-6227
▁Amend	-6228
▁Carib	-6229
▁Milan	-6230
▁Sulph	-6231
▁absur	-6232
▁clash	-6233
▁grass	-6234
▁monso	-6235
▁monum	-6236
▁occas	-6237
▁playw	-6238
▁voter	-6239
esteven	-6240
icissit	-6241
ificial	-6242
ildlife	-6243
mopylae	-6244
▁Auster	-6245
▁Buenos	-6246
▁Carang	-6247
▁Caribs	-6248
▁Radium	-6249
▁absurd	-6250
▁attach	-6251
▁behavi	-6252
▁commut	-6253
▁consol	-6254
▁germin	-6255
▁induce	-6256
▁missed	-6257
▁passed	-6258
▁picnic	-6259
eveloped	-6260
ewellery	-6261
ificates	-6262
rmopylae	-6263
umulated	-6264
urbished	-6265
urrently	-6266
zerainty	-6267
▁$15,000	-6268
▁(1954),	-6269
▁100,000	-6270
▁168,000	-6271
▁Antipas	-6272
▁Apulian	-6273
▁Artists	-6274
▁Austerl	-6275
▁Barroso	-6276
▁Belgian	-6277
▁Bernard	-6278
▁Besides	-6279
▁Cabinet	-6280
▁Calabri	-6281
▁Carangi	-6282
▁Castelf	-6283
▁Cecelia	-6284
▁Century	-6285
▁Charles	-6286
▁Circuit	-6287
▁Company	-6288
▁Corrado	-6289
▁Czechos	-6290
▁Defense	-6291
▁Digital	-6292
▁Disibod	-6293
▁Douglas	-6294
▁Dynasty	-6295
▁Earlier	-6296
▁Eastern	-6297
▁English	-6298
▁Enrique	-6299
pite	-6300
sung	-6301
told	-6302
▁guy	-6303
ceded	-6304
ilkes	-6305
inise	-6306
intin	-6307
marag	-6308
olise	-6309
south	-6310
▁Aoun	-6311
▁Gold	-6312
▁Love	-6313
▁Wint	-6314
▁feed	-6315
▁hyst	-6316
▁mead	-6317
▁move	-6318
▁tons	-6319
cedure	-6320
encing	-6321
everly	-6322
maragd	-6323
ranite	-6324
raving	-6325
uneral	-6326
▁Carlo	-6327
▁Jason	-6328
▁Winds	-6329
▁arise	-6330
▁caref	-6331
▁dates	-6332
▁deser	-6333
▁guest	-6334
▁noise	-6335
▁raise	-6336
▁spite	-6337
▁white	-6338
elected	-6339
perform	-6340
utinise	-6341
▁Molise	-6342
▁Reform	-6343
▁Tintin	-6344
▁Wilkes	-6345
▁childb	-6346
▁consum	-6347
▁depart	-6348
▁estran	-6349
▁extrav	-6350
▁hyster	-6351
▁wholes	-6352
maragdis	-6353
rutinise	-6354
▁Beverly	-6355
▁Episcop	-6356
▁Federal	-6357
▁Finland	-6358
▁Fishing	-6359
▁Florida	-6360
▁Gaining	-6361
▁Garrard	-6362
▁Granite	-6363
▁Gravity	-6364
▁Habitat	-6365
▁Hammers	-6366
▁Harvard	-6367
▁Hechler	-6368
▁Hungary	-6369
▁Indiana	-6370
▁Khanzir	-6371
▁Khitans	-6372
▁Laurent	-6373
▁Liberal	-6374
▁Lindsay	-6375
▁Marxism	-6376
▁Melanes	-6377
▁Melania	-6378
▁Monster	-6379
▁Morocco	-6380
▁Natural	-6381
▁Northam	-6382
▁Panvalk	-6383
▁Persian	-6384
▁Phoenic	-6385
▁Picture	-6386
▁Pintado	-6387
▁Plantag	-6388
▁Reichen	-6389
▁Romania	-6390
▁Salerno	-6391
▁Samnium	-6392
▁Samsung	-6393
▁Schenck	-6394
▁Scritti	-6395
▁Scythia	-6396
▁Serbian	-6397
▁Seychel	-6398
▁Skylark	-6399
▁zo	-6400
angk	-6401
angz	-6402
erto	-6403
hile	-6404
nced	-6405
uier	-6406
▁141	-6407
▁Ass	-6408
▁NHS	-6409
▁Yuc	-6410
▁doz	-6411
▁hyp	-6412
▁zoo	-6413
North	-6414
While	-6415
angzh	-6416
inced	-6417
indle	-6418
islav	-6419
orthy	-6420
uerto	-6421
vings	-6422
wered	-6423
▁1415	-6424
▁1600	-6425
▁Dead	-6426
▁Find	-6427
▁Mont	-6428
▁Once	-6429
▁Vind	-6430
▁Year	-6431
▁arms	-6432
▁cert	-6433
▁coin	-6434
▁cool	-6435
▁doct	-6436
▁else	-6437
▁poor	-6438
▁remo	-6439
▁taig	-6440
▁warf	-6441
▁wars	-6442
angkok	-6443
arings	-6444
avings	-6445
iguier	-6446
inrich	-6447
remark	-6448
vinced	-6449
▁Schul	-6450
▁activ	-6451
▁alert	-6452
▁blast	-6453
▁court	-6454
▁defic	-6455
▁doing	-6456
▁taiga	-6457
angzhou	-6458
eworthy	-6459
indleia	-6460
ostered	-6461
▁35,000	-6462
▁Dozens	-6463
▁Montre	-6464
▁Puerto	-6465
▁acknow	-6466
▁center	-6467
▁dozens	-6468
▁impers	-6469
answered	-6470
ulations	-6471
utations	-6472
▁Another	-6473
▁Bangkok	-6474
▁Kenseth	-6475
▁Savings	-6476
▁Thought	-6477
▁Thunder	-6478
▁Vantage	-6479
▁Vatican	-6480
▁Viguier	-6481
▁Warning	-6482
▁Winston	-6483
▁Yucatán	-6484
▁Záhorie	-6485
▁admired	-6486
▁adopted	-6487
▁advance	-6488
▁affairs	-6489
▁alarmed	-6490
▁alerted	-6491
▁alleged	-6492
▁amazing	-6493
▁amounts	-6494
▁angular	-6495
▁antenna	-6496
▁article	-6497
▁assured	-6498
▁attacks	-6499
1.4	-6500
aunt	-6501
azid	-6502
bach	-6503
rina	-6504
sson	-6505
ucks	-6506
▁BCE	-6507
▁enf	-6508
▁eng	-6509
▁env	-6510
South	-6511
azidi	-6512
ieved	-6513
their	-6514
thina	-6515
ureau	-6516
water	-6517
▁Iron	-6518
▁Lina	-6519
▁Sukh	-6520
▁blur	-6521
▁enra	-6522
▁scul	-6523
▁tiny	-6524
▁true	-6525
▁£1.4	-6526
Athina	-6527
abrina	-6528
accent	-6529
iances	-6530
ources	-6531
ranach	-6532
▁Avery	-6533
▁Gaunt	-6534
▁Organ	-6535
▁Paire	-6536
▁Water	-6537
▁ducks	-6538
▁engag	-6539
▁enrag	-6540
▁envoy	-6541
▁recon	-6542
▁regim	-6543
▁regul	-6544
▁surge	-6545
accentu	-6546
assebot	-6547
entious	-6548
orsican	-6549
venteen	-6550
▁Bureau	-6551
▁Yazidi	-6552
▁Zimmer	-6553
▁relate	-6554
anations	-6555
▁Cranach	-6556
▁Current	-6557
▁Linares	-6558
▁Marengo	-6559
▁Mexican	-6560
▁Sabrina	-6561
▁assumes	-6562
▁barrack	-6563
▁battery	-6564
▁beating	-6565
▁belongs	-6566
▁benches	-6567
▁bluffed	-6568
▁booming	-6569
▁borders	-6570
▁borough	-6571
▁bracing	-6572
▁buddies	-6573
▁cabinet	-6574
▁calling	-6575
▁capture	-6576
▁carries	-6577
▁casting	-6578
▁catfish	-6579
▁caustic	-6580
▁charges	-6581
▁charter	-6582
▁choices	-6583
▁climbed	-6584
▁closely	-6585
▁college	-6586
▁commune	-6587
▁confuse	-6588
▁continu	-6589
▁counter	-6590
▁cracked	-6591
▁crumble	-6592
▁debated	-6593
▁declare	-6594
▁deepest	-6595
▁deficit	-6596
▁defined	-6597
▁degener	-6598
▁demands	-6599
phy	-6600
▁VI	-6601
▁Vl	-6602
▁km	-6603
anne	-6604
cans	-6605
ease	-6606
osph	-6607
rict	-6608
ugal	-6609
ware	-6610
These	-6611
arrow	-6612
event	-6613
izing	-6614
izure	-6615
never	-6616
rices	-6617
rowse	-6618
urphy	-6619
▁Adid	-6620
▁Guam	-6621
▁Mond	-6622
▁Rena	-6623
▁Vers	-6624
▁View	-6625
▁Vlad	-6626
▁aims	-6627
▁amic	-6628
▁auth	-6629
▁fans	-6630
▁gond	-6631
▁insc	-6632
▁jets	-6633
▁manu	-6634
▁rain	-6635
▁ways	-6636
▁zinc	-6637
ansive	-6638
atings	-6639
osphor	-6640
vernac	-6641
warmer	-6642
▁Child	-6643
▁State	-6644
▁Stoll	-6645
▁Vance	-6646
▁clean	-6647
▁clown	-6648
▁frank	-6649
▁manuf	-6650
▁opens	-6651
▁scene	-6652
▁sense	-6653
ability	-6654
ortugal	-6655
rictive	-6656
▁Adidas	-6657
▁Hudson	-6658
▁Monday	-6659
▁Murphy	-6660
▁Vladiv	-6661
▁browse	-6662
▁finale	-6663
▁gondol	-6664
▁inscri	-6665
▁narrow	-6666
▁prices	-6667
▁vernac	-6668
allyanne	-6669
erchants	-6670
eventful	-6671
osphorus	-6672
▁Islands	-6673
▁Nicolas	-6674
▁Renaiss	-6675
▁Station	-6676
▁Stoller	-6677
▁authors	-6678
▁descend	-6679
▁deserts	-6680
▁desired	-6681
▁despite	-6682
▁details	-6683
▁disease	-6684
▁disrupt	-6685
▁divides	-6686
▁doctors	-6687
▁drawing	-6688
▁drivers	-6689
▁elected	-6690
▁eliding	-6691
▁emerged	-6692
▁employs	-6693
▁enjoyed	-6694
▁entrust	-6695
▁episode	-6696
▁equator	-6697
▁evolved	-6698
▁existed	-6699
pag	-6700
Sade	-6701
alks	-6702
arry	-6703
iade	-6704
▁Eag	-6705
▁fru	-6706
agine	-6707
ashed	-6708
catch	-6709
estry	-6710
nable	-6711
ocket	-6712
pable	-6713
ternl	-6714
▁2015	-6715
▁2019	-6716
▁outb	-6717
▁outp	-6718
▁shed	-6719
▁teen	-6720
cestry	-6721
ewable	-6722
irable	-6723
isable	-6724
olence	-6725
pagand	-6726
quence	-6727
render	-6728
urious	-6729
▁Eagle	-6730
▁Larry	-6731
▁Micro	-6732
▁decid	-6733
▁fruit	-6734
▁noble	-6735
▁outer	-6736
▁steep	-6737
▁tells	-6738
▁twice	-6739
▁walks	-6740
ageable	-6741
ectable	-6742
iolence	-6743
licable	-6744
oppable	-6745
ordance	-6746
paganda	-6747
ternlie	-6748
visable	-6749
▁Claret	-6750
▁Prayer	-6751
▁Rocket	-6752
▁breach	-6753
▁county	-6754
▁dashed	-6755
▁entert	-6756
▁extern	-6757
▁outbre	-6758
▁presum	-6759
▁unable	-6760
catching	-6761
enewable	-6762
ternlieb	-6763
▁Microso	-6764
▁decider	-6765
▁expects	-6766
▁explain	-6767
▁factory	-6768
▁favoura	-6769
▁females	-6770
▁fencing	-6771
▁fifteen	-6772
▁figures	-6773
▁firebom	-6774
▁firstly	-6775
▁fishing	-6776
▁founder	-6777
▁frankly	-6778
▁furious	-6779
▁futures	-6780
▁genetic	-6781
▁geology	-6782
▁gilding	-6783
▁glitchy	-6784
▁golfers	-6785
▁gondola	-6786
▁gravity	-6787
▁greeted	-6788
▁gripped	-6789
▁guiding	-6790
▁handful	-6791
▁headwat	-6792
▁hearing	-6793
▁herself	-6794
▁idiotic	-6795
▁imagine	-6796
▁imports	-6797
▁infrast	-6798
▁intense	-6799
due	-6800
llo	-6801
ueb	-6802
uez	-6803
Norm	-6804
alms	-6805
apie	-6806
enue	-6807
loom	-6808
noon	-6809
orma	-6810
▁Due	-6811
▁£12	-6812
ipops	-6813
ongue	-6814
ormal	-6815
orses	-6816
orset	-6817
otors	-6818
uebec	-6819
ultic	-6820
ultip	-6821
▁Suez	-6822
▁blow	-6823
▁£125	-6824
Norman	-6825
dingen	-6826
ellors	-6827
igence	-6828
loomed	-6829
orello	-6830
redged	-6831
ubious	-6832
ultere	-6833
▁(1918	-6834
▁Georg	-6835
▁Norma	-6836
▁Tapie	-6837
▁Those	-6838
▁Trans	-6839
▁muddy	-6840
▁palms	-6841
▁repor	-6842
▁stage	-6843
▁venue	-6844
iorello	-6845
sellors	-6846
ulterer	-6847
ultiple	-6848
▁Cultic	-6849
▁Dorset	-6850
▁Motors	-6851
▁assert	-6852
▁catast	-6853
▁diffic	-6854
▁horses	-6855
▁normal	-6856
▁rustic	-6857
▁subdue	-6858
▁sucked	-6859
▁thirty	-6860
▁tongue	-6861
▁victor	-6862
ashville	-6863
erdingen	-6864
ollipops	-6865
▁(1918),	-6866
▁bloomed	-6867
▁coating	-6868
▁dilemma	-6869
▁dredged	-6870
▁dubious	-6871
▁interse	-6872
▁invaded	-6873
▁issuing	-6874
▁kilowat	-6875
▁lagoons	-6876
▁leaking	-6877
▁lengths	-6878
▁leveled	-6879
▁machine	-6880
▁maiorum	-6881
▁managed	-6882
▁manipul	-6883
▁margins	-6884
▁marking	-6885
▁massive	-6886
▁matches	-6887
▁matters	-6888
▁medical	-6889
▁militia	-6890
▁monitor	-6891
▁monsoon	-6892
▁monthly	-6893
▁mystery	-6894
▁neglect	-6895
▁nervous	-6896
▁network	-6897
▁obesity	-6898
▁oceanic	-6899
00%	-6900
900	-6901
100%	-6902
aice	-6903
avis	-6904
loch	-6905
orye	-6906
vels	-6907
▁Atk	-6908
▁Jav	-6909
acked	-6910
ensus	-6911
ianto	-6912
oryeo	-6913
reens	-6914
▁2900	-6915
▁Hugh	-6916
▁NATO	-6917
▁Pack	-6918
▁cens	-6919
▁emph	-6920
▁pact	-6921
▁palm	-6922
▁rice	-6923
▁tack	-6924
▁tick	-6925
active	-6926
ensure	-6927
igines	-6928
onious	-6929
storms	-6930
▁"100%	-6931
▁1948,	-6932
▁Bloch	-6933
▁Count	-6934
▁Davis	-6935
▁Plato	-6936
▁aside	-6937
▁becom	-6938
▁haste	-6939
▁imper	-6940
▁revel	-6941
▁ships	-6942
ubianto	-6943
▁Census	-6944
▁Goryeo	-6945
▁Javier	-6946
▁Rastiz	-6947
▁Ticino	-6948
▁donors	-6949
▁emphas	-6950
▁ensure	-6951
▁expand	-6952
▁greens	-6953
▁invent	-6954
▁notice	-6955
▁novels	-6956
▁offers	-6957
▁plaice	-6958
▁proact	-6959
▁rescue	-6960
▁sacked	-6961
▁tackle	-6962
▁ticket	-6963
▁traces	-6964
▁weight	-6965
ensation	-6966
ysicians	-6967
▁Packham	-6968
▁Southas	-6969
▁becomes	-6970
▁compact	-6971
▁granted	-6972
▁iridium	-6973
▁onboard	-6974
▁ongoing	-6975
▁oratory	-6976
▁outlook	-6977
▁outpost	-6978
▁oversee	-6979
▁planned	-6980
▁plastic	-6981
▁players	-6982
▁pointed	-6983
▁pollack	-6984
▁pompous	-6985
▁portray	-6986
▁possess	-6987
▁posting	-6988
▁postwar	-6989
▁pretext	-6990
▁procons	-6991
▁project	-6992
▁promise	-6993
▁protein	-6994
▁provinc	-6995
▁pushing	-6996
▁railing	-6997
▁rapidly	-6998
▁reconst	-6999
").	-7000
Sec	-7001
ply	-7002
andl	-7003
cass	-7004
gree	-7005
iary	-7006
onet	-7007
rass	-7008
wood	-7009
▁Bec	-7010
▁Eib	-7011
▁Sup	-7012
▁try	-7013
▁upp	-7014
assal	-7015
assic	-7016
assum	-7017
ellin	-7018
olmar	-7019
ompet	-7020
rassi	-7021
rooke	-7022
uried	-7023
uxury	-7024
▁Dark	-7025
▁Pass	-7026
▁Sark	-7027
▁Scot	-7028
▁dark	-7029
▁epic	-7030
▁hold	-7031
▁sail	-7032
ambrid	-7033
brooke	-7034
casson	-7035
ellini	-7036
lassic	-7037
lywood	-7038
payers	-7039
▁1903,	-7040
▁Mandl	-7041
▁Nonet	-7042
▁Polit	-7043
▁appet	-7044
▁canal	-7045
▁diary	-7046
▁newly	-7047
▁upper	-7048
▁usher	-7049
Classic	-7050
▁10,000	-7051
▁Buried	-7052
▁Gamson	-7053
▁Global	-7054
▁Passer	-7055
▁Sarkoz	-7056
▁Wolmar	-7057
▁assess	-7058
▁degree	-7059
▁indist	-7060
▁intens	-7061
▁luxury	-7062
▁really	-7063
▁retire	-7064
▁simply	-7065
▁vassal	-7066
assation	-7067
assuming	-7068
cassonne	-7069
ollywood	-7070
ompetent	-7071
▁Angeles	-7072
▁Because	-7073
▁Cambrid	-7074
▁Fellini	-7075
▁Johnson	-7076
▁Passera	-7077
▁Politti	-7078
▁Sarkozy	-7079
▁Supreme	-7080
▁grounds	-7081
▁guarded	-7082
▁protest	-7083
▁regards	-7084
▁regimen	-7085
▁reigned	-7086
▁related	-7087
▁relaxed	-7088
▁release	-7089
▁remarks	-7090
▁removed	-7091
▁resides	-7092
▁resting	-7093
▁restore	-7094
▁results	-7095
▁retiree	-7096
▁retrosp	-7097
▁samples	-7098
▁savings	-7099
Don	-7100
Ton	-7101
itz	-7102
▁Co	-7103
▁MG	-7104
esta	-7105
from	-7106
heim	-7107
icon	-7108
imin	-7109
orch	-7110
otom	-7111
ugaw	-7112
▁MGB	-7113
▁Min	-7114
▁Rud	-7115
▁bas	-7116
Mesta	-7117
ugawa	-7118
woman	-7119
▁Coal	-7120
▁Lead	-7121
▁Rach	-7122
▁Rudy	-7123
▁Them	-7124
▁icon	-7125
▁kind	-7126
▁knew	-7127
erusal	-7128
iminal	-7129
olheim	-7130
ongmin	-7131
otomac	-7132
rities	-7133
▁1928,	-7134
▁Sails	-7135
▁basin	-7136
▁ended	-7137
▁songs	-7138
▁torch	-7139
▁undis	-7140
Tonight	-7141
okugawa	-7142
▁Father	-7143
▁Minist	-7144
▁Shikai	-7145
▁clause	-7146
▁cowboy	-7147
▁debris	-7148
▁operas	-7149
▁proxim	-7150
▁remain	-7151
▁stages	-7152
Davidson	-7153
ectorial	-7154
ednesday	-7155
erusalem	-7156
▁Georges	-7157
▁Gongmin	-7158
▁Leaders	-7159
▁Potomac	-7160
▁Rachida	-7161
▁Rudyard	-7162
▁Solheim	-7163
▁scholar	-7164
▁schools	-7165
▁scripts	-7166
▁scrupul	-7167
▁seafood	-7168
▁seizure	-7169
▁sellers	-7170
▁serious	-7171
▁service	-7172
▁serving	-7173
▁setback	-7174
▁sharing	-7175
▁signals	-7176
▁signify	-7177
▁soldier	-7178
▁spotted	-7179
▁spurred	-7180
▁stables	-7181
▁stalled	-7182
▁statist	-7183
▁statute	-7184
▁stopped	-7185
▁subsequ	-7186
▁surging	-7187
▁targets	-7188
▁textile	-7189
▁timings	-7190
▁trained	-7191
▁tribune	-7192
▁trouble	-7193
▁twitchy	-7194
▁unarmed	-7195
▁underco	-7196
▁undersc	-7197
▁unknown	-7198
▁unnotic	-7199
db	-7200
yj	-7201
GCA	-7202
ads	-7203
lei	-7204
sid	-7205
typ	-7206
val	-7207
▁5.	-7208
▁Bá	-7209
▁Sn	-7210
aden	-7211
adow	-7212
alle	-7213
cers	-7214
cher	-7215
roin	-7216
type	-7217
yjam	-7218
▁5.7	-7219
▁Aud	-7220
▁Lin	-7221
▁Men	-7222
▁Sas	-7223
▁sle	-7224
asons	-7225
elect	-7226
geria	-7227
ilate	-7228
osane	-7229
rests	-7230
roval	-7231
uency	-7232
zania	-7233
▁1900	-7234
▁Sask	-7235
▁Sest	-7236
▁Snap	-7237
▁Sánc	-7238
▁apse	-7239
▁crow	-7240
▁fair	-7241
▁peak	-7242
alleus	-7243
dbaden	-7244
ellent	-7245
ingham	-7246
oucher	-7247
sidies	-7248
yjamas	-7249
▁1820.	-7250
▁Megar	-7251
▁SaskT	-7252
▁Sesto	-7253
▁basis	-7254
▁concl	-7255
▁crowd	-7256
▁remot	-7257
▁scary	-7258
▁sleep	-7259
▁theat	-7260
▁toads	-7261
▁trust	-7262
▁upset	-7263
anzania	-7264
reathes	-7265
▁Audrey	-7266
▁Lennox	-7267
▁Pilate	-7268
▁Rosane	-7269
▁Schlei	-7270
▁Select	-7271
▁Sánche	-7272
▁encore	-7273
▁heroin	-7274
▁northw	-7275
▁remote	-7276
▁shadow	-7277
▁static	-7278
▁theatr	-7279
▁Algeria	-7280
▁Malleus	-7281
▁SaskTel	-7282
▁Sánchez	-7283
▁arrests	-7284
▁cancers	-7285
▁conclus	-7286
▁marital	-7287
▁origins	-7288
▁pyjamas	-7289
▁reasons	-7290
▁spelled	-7291
▁unusual	-7292
▁viewing	-7293
▁village	-7294
▁villain	-7295
▁voucher	-7296
▁warfare	-7297
▁wartime	-7298
▁watched	-7299
So	-7300
tw	-7301
Our	-7302
ady	-7303
olm	-7304
▁30	-7305
▁AK	-7306
▁MP	-7307
▁ey	-7308
▁na	-7309
ises	-7310
▁AKP	-7311
▁MPs	-7312
▁Nan	-7313
▁Red	-7314
▁Sar	-7315
▁Tol	-7316
▁ast	-7317
▁bey	-7318
▁eye	-7319
apart	-7320
▁Ener	-7321
▁Lady	-7322
▁Prab	-7323
▁Redd	-7324
▁Salm	-7325
▁burd	-7326
▁dire	-7327
▁dolm	-7328
▁eval	-7329
▁inim	-7330
▁roof	-7331
▁tort	-7332
aparte	-7333
ensing	-7334
ocoons	-7335
twined	-7336
uppets	-7337
▁Energ	-7338
▁Sarat	-7339
▁Tolle	-7340
▁evalu	-7341
▁naive	-7342
▁troop	-7343
lasting	-7344
lection	-7345
▁Health	-7346
▁Prabow	-7347
▁Prince	-7348
▁Reddit	-7349
▁Salmon	-7350
▁Shaped	-7351
▁Turkey	-7352
▁astron	-7353
▁beyond	-7354
▁bluish	-7355
▁credit	-7356
▁inimit	-7357
▁pursue	-7358
▁remedy	-7359
icensing	-7360
onaparte	-7361
▁Alejand	-7362
▁Barratt	-7363
▁Commons	-7364
▁Muppets	-7365
▁Nanking	-7366
▁Prabowo	-7367
▁Saratog	-7368
▁advises	-7369
▁burdens	-7370
▁cocoons	-7371
▁dolmens	-7372
▁torture	-7373
▁tracked	-7374
▁wearing	-7375
▁website	-7376
▁whereas	-7377
▁witness	-7378
▁worried	-7379
▁worries	-7380
▁younger	-7381
Secretary	-7382
Superhero	-7383
abilities	-7384
asilicata	-7385
asnoyarsk	-7386
certified	-7387
ciliation	-7388
coccygeal	-7389
continent	-7390
elligence	-7391
emissions	-7392
epartment	-7393
gratulate	-7394
hysicians	-7395
igarettes	-7396
itchhiker	-7397
itimately	-7398
oamerican	-7399
TV	-7400
agu	-7401
det	-7402
idn	-7403
sty	-7404
uir	-7405
▁Jr	-7406
▁SS	-7407
▁ps	-7408
anan	-7409
dent	-7410
enth	-7411
erem	-7412
ilor	-7413
itic	-7414
tech	-7415
tsch	-7416
▁1%,	-7417
▁CTV	-7418
▁Rob	-7419
▁Tal	-7420
▁Tel	-7421
▁Tom	-7422
▁Tre	-7423
▁psy	-7424
emuir	-7425
▁Alco	-7426
▁Asty	-7427
▁Didn	-7428
▁Tele	-7429
▁penc	-7430
▁vagu	-7431
ananas	-7432
eremon	-7433
ingent	-7434
oritic	-7435
▁1072,	-7436
▁Marat	-7437
▁Telek	-7438
▁betel	-7439
▁burst	-7440
▁deter	-7441
▁draft	-7442
▁lasts	-7443
▁psych	-7444
▁saved	-7445
▁staff	-7446
eoritic	-7447
iations	-7448
issippi	-7449
riemuir	-7450
tschmer	-7451
▁Balkan	-7452
▁ardent	-7453
▁knight	-7454
▁sudden	-7455
▁tailor	-7456
renville	-7457
▁Bananas	-7458
▁Judaism	-7459
▁Protest	-7460
▁Snowman	-7461
▁Talking	-7462
▁Telekom	-7463
▁Various	-7464
▁baptism	-7465
▁ceremon	-7466
▁editing	-7467
▁limited	-7468
▁vaguely	-7469
irriemuir	-7470
ocialists	-7471
onegasque	-7472
ongwriter	-7473
operative	-7474
otiations	-7475
protected	-7476
qualified	-7477
reviously	-7478
rivialize	-7479
roduction	-7480
rontation	-7481
rttemberg	-7482
satisfied	-7483
stoppable	-7484
ubumbashi	-7485
ufficient	-7486
urricanes	-7487
ventional	-7488
▁(6.30-10	-7489
▁Abakumov	-7490
▁Achaeans	-7491
▁Antilles	-7492
▁Assembly	-7493
▁Atkinson	-7494
▁Bergeron	-7495
▁Bouchard	-7496
▁Breaking	-7497
▁Cameroon	-7498
▁Campbell	-7499
mn	-7500
gor	-7501
imo	-7502
ods	-7503
oma	-7504
str	-7505
you	-7506
▁Ne	-7507
Agor	-7508
gion	-7509
hect	-7510
mate	-7511
omal	-7512
pres	-7513
▁96,	-7514
▁GCA	-7515
▁Oil	-7516
▁lon	-7517
▁pad	-7518
▁roy	-7519
▁sil	-7520
Agora	-7521
atoma	-7522
eller	-7523
igaro	-7524
onimo	-7525
▁anch	-7526
▁buff	-7527
▁gods	-7528
▁hymn	-7529
▁scan	-7530
▁tide	-7531
alized	-7532
allstr	-7533
arking	-7534
boards	-7535
inmate	-7536
preted	-7537
▁Barri	-7538
▁Isles	-7539
▁Negan	-7540
▁minim	-7541
▁races	-7542
▁royal	-7543
▁sales	-7544
eronimo	-7545
hectare	-7546
present	-7547
▁Barrie	-7548
▁Carter	-7549
▁Errani	-7550
▁Figaro	-7551
▁Region	-7552
▁Weller	-7553
▁anchor	-7554
▁buffal	-7555
▁facing	-7556
▁lonely	-7557
▁mining	-7558
▁oldest	-7559
▁silver	-7560
Geronimo	-7561
atherine	-7562
canology	-7563
▁Hallstr	-7564
▁Indones	-7565
▁Philipp	-7566
▁buffalo	-7567
▁compete	-7568
▁lateral	-7569
▁minimum	-7570
▁posters	-7571
▁records	-7572
amberlain	-7573
▁Caucasus	-7574
▁Colorado	-7575
▁Consumer	-7576
▁Cospedal	-7577
▁Countess	-7578
▁Cristina	-7579
▁Dietrich	-7580
▁Eibingen	-7581
▁Emphasis	-7582
▁Energies	-7583
▁Examples	-7584
▁Federico	-7585
▁Financed	-7586
▁Findings	-7587
▁Fiorello	-7588
▁Florence	-7589
▁Germaine	-7590
▁Germanic	-7591
▁Governor	-7592
▁Habsburg	-7593
▁Heinrich	-7594
▁Heritage	-7595
▁Herodias	-7596
▁Hillsbor	-7597
▁Honorary	-7598
▁Interior	-7599
RT	-7600
nk	-7601
And	-7602
RTC	-7603
anb	-7604
gur	-7605
nki	-7606
▁dp	-7607
evit	-7608
itol	-7609
uent	-7610
▁cas	-7611
▁dpa	-7612
▁fee	-7613
▁hon	-7614
▁nuc	-7615
▁sac	-7616
▁sal	-7617
Andes	-7618
Levit	-7619
anbul	-7620
ining	-7621
nkiel	-7622
outhe	-7623
sened	-7624
▁CRTC	-7625
▁Gord	-7626
▁bark	-7627
▁disb	-7628
▁megr	-7629
▁pull	-7630
▁upbe	-7631
▁wasp	-7632
Levitt	-7633
apitol	-7634
ifuent	-7635
lessly	-7636
nkieli	-7637
▁1979.	-7638
▁1990,	-7639
▁1997.	-7640
▁Metti	-7641
▁Palma	-7642
▁begin	-7643
▁cases	-7644
▁forec	-7645
▁sacro	-7646
geshire	-7647
stanbul	-7648
witched	-7649
▁Berlin	-7650
▁Gordon	-7651
▁Southe	-7652
▁lining	-7653
▁megrim	-7654
▁photos	-7655
▁salary	-7656
▁shipbu	-7657
▁upbeat	-7658
ifuentes	-7659
▁(1994).	-7660
▁Capitol	-7661
▁Darnand	-7662
▁Nations	-7663
▁Thrones	-7664
▁Wheeler	-7665
▁farming	-7666
▁honored	-7667
▁nuclear	-7668
▁veteran	-7669
▁Internet	-7670
▁Istanbul	-7671
▁Kesteven	-7672
▁Maldives	-7673
▁Marcelle	-7674
▁Medieval	-7675
▁Megarian	-7676
▁Mexicans	-7677
▁Millican	-7678
▁Ministry	-7679
▁Moreover	-7680
▁Numerous	-7681
▁Obermars	-7682
▁Petrassi	-7683
▁Pluviose	-7684
▁Portugal	-7685
▁Robinson	-7686
▁Sakhalin	-7687
▁Salzburg	-7688
▁Schulman	-7689
▁Scotland	-7690
▁Scottish	-7691
▁Services	-7692
▁Shanghai	-7693
▁Sheppard	-7694
▁Snapchat	-7695
▁Southsea	-7696
▁Spartans	-7697
▁Springer	-7698
▁Stealers	-7699
51	-7700
MA	-7701
-51	-7702
10,	-7703
EMA	-7704
alt	-7705
ees	-7706
niv	-7707
ori	-7708
vor	-7709
▁49	-7710
▁LU	-7711
-511	-7712
antu	-7713
cous	-7714
dess	-7715
ilia	-7716
oron	-7717
ousy	-7718
sbor	-7719
▁90-	-7720
▁LUI	-7721
▁Mes	-7722
▁Pal	-7723
▁Sig	-7724
▁den	-7725
▁hor	-7726
▁mit	-7727
2-511	-7728
Odess	-7729
eavor	-7730
enist	-7731
leton	-7732
moron	-7733
nival	-7734
rople	-7735
▁Cong	-7736
▁Disp	-7737
▁GEMA	-7738
▁HFCs	-7739
▁Kori	-7740
▁LUIS	-7741
▁Walt	-7742
▁beam	-7743
▁eras	-7744
▁seam	-7745
▁stem	-7746
▁£12,	-7747
12-511	-7748
Odessa	-7749
illard	-7750
ormous	-7751
sborne	-7752
terday	-7753
xation	-7754
▁1610,	-7755
▁Bantu	-7756
▁Congo	-7757
▁LUISS	-7758
▁Salam	-7759
▁Sigur	-7760
▁Still	-7761
▁fraud	-7762
▁inord	-7763
▁lousy	-7764
▁mitig	-7765
▁stick	-7766
eniston	-7767
roplets	-7768
▁Amarna	-7769
▁Chilia	-7770
▁Palmer	-7771
▁Unlike	-7772
▁denied	-7773
▁divine	-7774
▁square	-7775
ackleton	-7776
enormous	-7777
esterday	-7778
▁512-511	-7779
▁Amnesty	-7780
▁Evening	-7781
▁Finally	-7782
▁Gillard	-7783
▁Journal	-7784
▁Osborne	-7785
▁Salaman	-7786
▁cuticle	-7787
▁devices	-7788
▁erosion	-7789
▁horrend	-7790
▁hostage	-7791
▁leather	-7792
▁seconds	-7793
▁thunder	-7794
▁totally	-7795
▁viscous	-7796
▁£12,000	-7797
▁Carnival	-7798
▁Dispatch	-7799
80	-7800
ny	-7801
ams	-7802
arp	-7803
ese	-7804
lev	-7805
sit	-7806
▁ut	-7807
ithe	-7808
ulle	-7809
▁KFC	-7810
▁Tro	-7811
▁arm	-7812
▁aro	-7813
▁fif	-7814
▁nom	-7815
-1980	-7816
Pithe	-7817
adarp	-7818
aulle	-7819
endos	-7820
▁Hist	-7821
▁Troj	-7822
▁rift	-7823
Pithek	-7824
ceable	-7825
sitant	-7826
uendos	-7827
▁1973.	-7828
▁1992.	-7829
▁Belgr	-7830
▁Reign	-7831
▁Saqib	-7832
▁arose	-7833
▁exams	-7834
▁fifty	-7835
▁joint	-7836
▁utter	-7837
adarpur	-7838
nuendos	-7839
▁$5,000	-7840
▁Gaulle	-7841
▁Histor	-7842
▁Johnny	-7843
▁Trojan	-7844
▁maglev	-7845
▁nomine	-7846
▁amiable	-7847
▁differs	-7848
▁mounted	-7849
▁nominee	-7850
▁streets	-7851
▁utterly	-7852
Pithekous	-7853
▁Badarpur	-7854
▁Belgrade	-7855
▁Mohammed	-7856
▁Peniston	-7857
▁Strategy	-7858
▁Subianto	-7859
▁Talmadge	-7860
▁Tanzania	-7861
▁Tiberius	-7862
▁Tientsin	-7863
▁Tokugawa	-7864
▁Uaxactun	-7865
▁Undersea	-7866
▁Whatever	-7867
▁Williams	-7868
▁absentee	-7869
▁accident	-7870
▁accurate	-7871
▁actively	-7872
▁activity	-7873
▁admitted	-7874
▁advanced	-7875
▁afforded	-7876
▁airplane	-7877
▁allowing	-7878
▁amicable	-7879
▁animated	-7880
▁answered	-7881
▁appetite	-7882
▁applying	-7883
▁approach	-7884
▁aquarium	-7885
▁articles	-7886
▁assembly	-7887
▁avoiding	-7888
▁bachelor	-7889
▁balances	-7890
▁baptized	-7891
▁beatings	-7892
▁blockage	-7893
▁bloggers	-7894
▁boarding	-7895
▁breaking	-7896
▁breathes	-7897
▁brothers	-7898
▁calendar	-7899
%,	-7900
):	-7901
84	-7902
CH	-7903
IF	-7904
IR	-7905
hn	-7906
846	-7907
IFs	-7908
IRE	-7909
ada	-7910
lyd	-7911
mly	-7912
▁Bo	-7913
▁ML	-7914
amat	-7915
eten	-7916
hard	-7917
iman	-7918
lyde	-7919
outs	-7920
uled	-7921
usum	-7922
▁Eon	-7923
▁GCH	-7924
▁MLA	-7925
▁Pap	-7926
▁mos	-7927
▁rej	-7928
846).	-7929
IRENA	-7930
ached	-7931
evada	-7932
imanj	-7933
irmly	-7934
olver	-7935
ridge	-7936
ruled	-7937
uther	-7938
▁20%,	-7939
▁Boem	-7940
▁Chap	-7941
▁Come	-7942
▁GIFs	-7943
▁MLAs	-7944
▁Papw	-7945
▁east	-7946
abouts	-7947
ephard	-7948
udeten	-7949
▁Carac	-7950
▁Clyde	-7951
▁Comey	-7952
▁Gezer	-7953
▁Husum	-7954
▁Stage	-7955
▁lines	-7956
▁links	-7957
▁lured	-7958
▁quite	-7959
▁round	-7960
glasses	-7961
ilimanj	-7962
▁Boemer	-7963
▁Chapel	-7964
▁Edward	-7965
▁Luther	-7966
▁Nevada	-7967
▁bridge	-7968
▁dramat	-7969
▁firmly	-7970
▁hunted	-7971
▁player	-7972
▁purpos	-7973
▁runway	-7974
▁worthy	-7975
ephardic	-7976
▁Corresp	-7977
▁Sudeten	-7978
▁assumed	-7979
▁cleared	-7980
▁coinage	-7981
▁reached	-7982
▁Caracall	-7983
▁Kilimanj	-7984
▁Papworth	-7985
▁Tennesse	-7986
▁carefree	-7987
▁carrying	-7988
▁catastro	-7989
▁chairman	-7990
▁changing	-7991
▁charging	-7992
▁classics	-7993
▁commuter	-7994
▁concerns	-7995
▁confused	-7996
▁connects	-7997
▁conquers	-7998
▁constant	-7999
-2	-8000
TM	-8001
no	-8002
ya	-8003
-29	-8004
TMs	-8005
asu	-8006
asia	-8007
enet	-8008
enya	-8009
onic	-8010
reco	-8011
▁unf	-8012
atred	-8013
igion	-8014
umors	-8015
▁ATMs	-8016
▁Alic	-8017
▁Good	-8018
▁acts	-8019
▁wasn	-8020
▁whip	-8021
00,000	-8022
ellers	-8023
▁Alice	-8024
▁Greco	-8025
▁Hubei	-8026
▁Kenya	-8027
▁Major	-8028
▁piety	-8029
▁soldi	-8030
▁unfit	-8031
ectonic	-8032
eligion	-8033
▁Ieyasu	-8034
▁flying	-8035
▁hatred	-8036
▁rumors	-8037
▁showed	-8038
▁600,000	-8039
▁Eurasia	-8040
▁Gazette	-8041
▁Records	-8042
▁Romanov	-8043
▁Wintour	-8044
▁ranging	-8045
▁tribute	-8046
▁Adriatic	-8047
▁Kentucky	-8048
▁Religion	-8049
▁contrary	-8050
▁credited	-8051
▁cultural	-8052
▁customer	-8053
▁deceased	-8054
▁degraded	-8055
▁delicacy	-8056
▁demanded	-8057
▁deserved	-8058
▁designer	-8059
▁detailed	-8060
▁develops	-8061
▁diamonds	-8062
▁disaster	-8063
▁disposed	-8064
▁disputed	-8065
▁distance	-8066
▁distinct	-8067
▁disunity	-8068
▁division	-8069
▁document	-8070
▁droplets	-8071
▁eighteen	-8072
▁embedded	-8073
▁emitters	-8074
▁employed	-8075
▁employee	-8076
▁emptying	-8077
▁endeavor	-8078
▁entering	-8079
▁entirety	-8080
▁entitled	-8081
▁eurozone	-8082
▁evaluate	-8083
▁everyday	-8084
▁everyman	-8085
▁examples	-8086
▁expenses	-8087
▁experien	-8088
▁expropri	-8089
▁extended	-8090
▁external	-8091
▁extravag	-8092
▁familiar	-8093
▁favoured	-8094
▁firewall	-8095
▁floating	-8096
▁flocking	-8097
▁focusing	-8098
▁follower	-8099
AG	-8100
GE	-8101
It	-8102
LN	-8103
PI	-8104
Un	-8105
aj	-8106
fi	-8107
EGE	-8108
SLN	-8109
aja	-8110
eto	-8111
hot	-8112
▁DF	-8113
▁fj	-8114
EGEL	-8115
iege	-8116
▁3%,	-8117
▁367	-8118
▁DFB	-8119
▁IAG	-8120
▁SPI	-8121
▁unw	-8122
erber	-8123
▁3000	-8124
▁Baja	-8125
▁Dies	-8126
▁FSLN	-8127
▁Mild	-8128
▁anth	-8129
▁appl	-8130
▁beer	-8131
▁hasn	-8132
▁mode	-8133
▁prem	-8134
▁stap	-8135
▁wake	-8136
friend	-8137
idents	-8138
oyalty	-8139
ubbish	-8140
▁1976,	-8141
▁2009,	-8142
▁Curio	-8143
▁Diess	-8144
▁Monac	-8145
▁artif	-8146
▁canoe	-8147
▁forth	-8148
▁gives	-8149
▁phase	-8150
▁siege	-8151
illions	-8152
ionship	-8153
iovanni	-8154
vieille	-8155
▁Kerber	-8156
▁Monaco	-8157
▁Serena	-8158
▁Veneto	-8159
▁burned	-8160
▁colour	-8161
▁explod	-8162
▁fjords	-8163
▁staple	-8164
▁unwill	-8165
▁vastly	-8166
Prussian	-8167
aintings	-8168
ructions	-8169
tvieille	-8170
▁Mildred	-8171
▁SPIEGEL	-8172
▁applies	-8173
▁causing	-8174
▁closure	-8175
▁educate	-8176
▁execute	-8177
▁explode	-8178
▁loyalty	-8179
▁premier	-8180
▁quality	-8181
▁quoting	-8182
▁rubbish	-8183
▁sending	-8184
▁tactile	-8185
borigines	-8186
▁Alliance	-8187
▁Giovanni	-8188
▁anything	-8189
▁artifact	-8190
▁forcibly	-8191
▁foretold	-8192
▁founding	-8193
▁fraction	-8194
▁freedoms	-8195
▁frequent	-8196
▁friendly	-8197
▁governor	-8198
▁gracious	-8199
2)	-8200
21	-8201
Fj	-8202
di	-8203
tz	-8204
wa	-8205
gem	-8206
oan	-8207
tzi	-8208
yve	-8209
ache	-8210
burn	-8211
come	-8212
sion	-8213
ycle	-8214
yvet	-8215
▁Hun	-8216
▁Odi	-8217
▁Som	-8218
▁dry	-8219
antle	-8220
iring	-8221
▁$221	-8222
▁Fast	-8223
▁Joan	-8224
▁Vega	-8225
▁aggl	-8226
▁aren	-8227
▁stra	-8228
epburn	-8229
omical	-8230
rangem	-8231
ulsion	-8232
uperts	-8233
▁Hunan	-8234
▁Lyvet	-8235
▁Marta	-8236
▁Silic	-8237
▁cache	-8238
▁cycle	-8239
▁fault	-8240
▁stays	-8241
▁thing	-8242
itioned	-8243
looking	-8244
▁(1992)	-8245
▁Ernest	-8246
▁Income	-8247
▁Jewish	-8248
▁Somers	-8249
▁albums	-8250
▁bother	-8251
▁formid	-8252
▁inquir	-8253
▁mantle	-8254
▁petrol	-8255
iography	-8256
▁Hepburn	-8257
▁Ruperts	-8258
▁Silicon	-8259
▁daytime	-8260
▁drought	-8261
▁inquiry	-8262
▁routine	-8263
▁straits	-8264
licopters	-8265
▁Somerset	-8266
▁agglomer	-8267
▁altitude	-8268
▁appalled	-8269
▁arrangem	-8270
▁divorced	-8271
▁grieving	-8272
▁handover	-8273
▁happened	-8274
▁hardened	-8275
▁hardware	-8276
▁hearings	-8277
▁heritage	-8278
▁hesitant	-8279
▁historic	-8280
▁homeless	-8281
▁hospital	-8282
▁humanism	-8283
▁humanoid	-8284
▁hundreds	-8285
▁hypothes	-8286
▁identity	-8287
▁immersed	-8288
▁imperial	-8289
▁imperson	-8290
▁inherent	-8291
▁injuries	-8292
▁inquired	-8293
▁inspired	-8294
▁instance	-8295
▁intensif	-8296
▁interact	-8297
▁invested	-8298
▁investor	-8299
GI	-8300
▁sy	-8301
▁wr	-8302
eace	-8303
eary	-8304
nter	-8305
only	-8306
ship	-8307
utch	-8308
year	-8309
▁CGI	-8310
▁Hal	-8311
▁Pia	-8312
▁Tun	-8313
▁spi	-8314
abell	-8315
liest	-8316
peace	-8317
verse	-8318
weary	-8319
▁Piaf	-8320
▁Than	-8321
▁dump	-8322
▁shif	-8323
abella	-8324
ounded	-8325
tified	-8326
verted	-8327
▁1879,	-8328
▁Dutch	-8329
▁Power	-8330
▁Salas	-8331
▁Slavs	-8332
▁Tunip	-8333
▁Worst	-8334
▁keeps	-8335
▁nause	-8336
▁quits	-8337
▁spike	-8338
▁writh	-8339
erestim	-8340
ullying	-8341
▁McGreg	-8342
▁Thanos	-8343
▁branch	-8344
▁enough	-8345
▁nausea	-8346
▁pushed	-8347
▁shifts	-8348
▁varian	-8349
peaceful	-8350
▁Corinth	-8351
▁Founded	-8352
▁Halifax	-8353
▁adverse	-8354
▁craving	-8355
▁fuelled	-8356
▁observe	-8357
▁placing	-8358
▁pursuit	-8359
▁selling	-8360
▁singers	-8361
▁variant	-8362
riendship	-8363
▁Analysis	-8364
▁Breasted	-8365
▁Isabella	-8366
▁McGregor	-8367
▁Southern	-8368
▁bullying	-8369
▁dictated	-8370
▁earliest	-8371
▁expanded	-8372
▁inviting	-8373
▁keyboard	-8374
▁knocking	-8375
▁labelled	-8376
▁liberate	-8377
▁lifetime	-8378
▁lighting	-8379
▁lowlands	-8380
▁markings	-8381
▁marriage	-8382
▁massebot	-8383
▁mattress	-8384
▁measured	-8385
▁meetings	-8386
▁memories	-8387
▁militant	-8388
▁millions	-8389
▁minarets	-8390
▁minerals	-8391
▁mitigate	-8392
▁mobility	-8393
▁monarchy	-8394
▁multiple	-8395
▁musicals	-8396
▁narrates	-8397
▁nobility	-8398
▁numerous	-8399
Ar	-8400
Die	-8401
Sea	-8402
aid	-8403
eir	-8404
eno	-8405
nut	-8406
anis	-8407
eira	-8408
held	-8409
iles	-8410
pine	-8411
uted	-8412
ygen	-8413
▁Low	-8414
▁mom	-8415
estim	-8416
uppet	-8417
xygen	-8418
▁2050	-8419
▁Beno	-8420
▁Conc	-8421
▁Line	-8422
▁caus	-8423
▁mech	-8424
▁paid	-8425
anisms	-8426
anship	-8427
atched	-8428
▁1,365	-8429
▁Conte	-8430
▁Decca	-8431
▁Harir	-8432
▁Keira	-8433
▁Knott	-8434
▁Later	-8435
▁Miami	-8436
▁Yemen	-8437
▁brush	-8438
▁chron	-8439
▁spoke	-8440
essions	-8441
patched	-8442
▁Alpine	-8443
▁Glenda	-8444
▁Hariri	-8445
▁causes	-8446
▁hosted	-8447
▁laptop	-8448
▁laughs	-8449
▁lifted	-8450
▁moment	-8451
▁oxygen	-8452
▁puppet	-8453
▁scheme	-8454
prepared	-8455
▁Belgium	-8456
▁Defence	-8457
▁Indians	-8458
▁Lovings	-8459
▁blinded	-8460
▁putting	-8461
▁refusal	-8462
▁revoked	-8463
▁sunrise	-8464
estimated	-8465
▁Mountain	-8466
▁Saratoga	-8467
▁coincide	-8468
▁conquest	-8469
▁obscured	-8470
▁observed	-8471
▁occasion	-8472
▁occupies	-8473
▁operates	-8474
▁opinions	-8475
▁opponent	-8476
▁opposite	-8477
▁oriental	-8478
▁original	-8479
▁outbreak	-8480
▁outgoing	-8481
▁outposts	-8482
▁pardoned	-8483
▁passages	-8484
▁patients	-8485
▁peaceful	-8486
▁personal	-8487
▁populace	-8488
▁populate	-8489
▁portions	-8490
▁positive	-8491
▁possibly	-8492
▁presence	-8493
▁presided	-8494
▁pressing	-8495
▁priority	-8496
▁probably	-8497
▁producer	-8498
▁profound	-8499
'"	-8500
.,	-8501
uo	-8502
át	-8503
?'"	-8504
uis	-8505
▁So	-8506
iber	-8507
okow	-8508
oria	-8509
▁Atl	-8510
▁Cai	-8511
▁ECB	-8512
▁Fel	-8513
▁Fát	-8514
▁God	-8515
▁Kuo	-8516
▁saw	-8517
after	-8518
arius	-8519
eking	-8520
igher	-8521
okowi	-8522
stead	-8523
▁AIDS	-8524
▁Drop	-8525
▁Luis	-8526
▁vain	-8527
iberia	-8528
▁1563,	-8529
▁1955,	-8530
▁Cairo	-8531
▁Event	-8532
▁Felip	-8533
▁emper	-8534
▁enter	-8535
▁print	-8536
▁style	-8537
▁Atlant	-8538
▁Crisis	-8539
▁Darius	-8540
▁Felipe	-8541
▁Fátima	-8542
▁Gloria	-8543
▁Higher	-8544
▁Hitler	-8545
▁Jokowi	-8546
▁Peking	-8547
▁Revolt	-8548
▁active	-8549
▁argued	-8550
▁pieces	-8551
▁string	-8552
▁unions	-8553
▁washed	-8554
Complete	-8555
▁Failing	-8556
▁Hillary	-8557
▁Instead	-8558
▁Pyrrhus	-8559
▁Rambler	-8560
▁Siberia	-8561
▁YouTube	-8562
▁arrival	-8563
▁autonom	-8564
▁bladder	-8565
▁emperor	-8566
▁engaged	-8567
▁failure	-8568
▁floated	-8569
▁grazing	-8570
▁legions	-8571
▁objects	-8572
▁primary	-8573
▁warming	-8574
▁winning	-8575
▁$25,000.	-8576
▁Atlantic	-8577
▁Domenico	-8578
▁Montreal	-8579
▁Reverend	-8580
▁Thessaly	-8581
▁dressing	-8582
▁explains	-8583
▁fostered	-8584
▁politics	-8585
▁printing	-8586
▁promised	-8587
▁proudest	-8588
▁provoked	-8589
▁purposes	-8590
▁quarters	-8591
▁recently	-8592
▁recorded	-8593
▁recovery	-8594
▁regarded	-8595
▁rejected	-8596
▁reliable	-8597
▁relieved	-8598
▁remarked	-8599
CBS	-8600
Tul	-8601
ali	-8602
cea	-8603
ero	-8604
hak	-8605
hew	-8606
wer	-8607
▁Ew	-8608
Shak	-8609
ilst	-8610
ostr	-8611
pton	-8612
redo	-8613
▁Was	-8614
▁Wiz	-8615
▁ins	-8616
Shaky	-8617
ephew	-8618
igali	-8619
oused	-8620
rance	-8621
urism	-8622
▁16,5	-8623
▁2003	-8624
▁Ewan	-8625
▁Most	-8626
▁Sand	-8627
▁fest	-8628
▁gain	-8629
▁piqu	-8630
▁shop	-8631
▁slow	-8632
▁till	-8633
▁zero	-8634
Tulcea	-8635
grance	-8636
ostrum	-8637
▁going	-8638
▁looks	-8639
▁magma	-8640
▁overs	-8641
▁sewer	-8642
isition	-8643
▁16,500	-8644
▁Celtic	-8645
▁Indies	-8646
▁Kigali	-8647
▁assume	-8648
▁dinner	-8649
▁nephew	-8650
▁nobody	-8651
▁piqued	-8652
▁ranges	-8653
▁speeds	-8654
▁tablet	-8655
▁whilst	-8656
▁Nostrum	-8657
▁airport	-8658
▁curious	-8659
▁darling	-8660
▁factual	-8661
▁festive	-8662
▁penalty	-8663
▁playboy	-8664
▁tourism	-8665
quisition	-8666
▁Approach	-8667
▁Goffredo	-8668
▁Medicine	-8669
▁Shenzhen	-8670
▁Thailand	-8671
▁arrogant	-8672
▁attacked	-8673
▁bullshit	-8674
▁compared	-8675
▁espoused	-8676
▁freezing	-8677
▁homeland	-8678
▁ordinary	-8679
▁promoted	-8680
▁requires	-8681
▁resolver	-8682
▁retained	-8683
▁reunited	-8684
▁reversed	-8685
▁revivals	-8686
▁roadless	-8687
▁scenario	-8688
▁seasonal	-8689
▁securing	-8690
▁selected	-8691
▁sequence	-8692
▁services	-8693
▁sessions	-8694
▁settlers	-8695
▁severity	-8696
▁shocking	-8697
▁shooting	-8698
▁shoppers	-8699
ETA	-8700
ati	-8701
att	-8702
ety	-8703
isk	-8704
▁bj	-8705
▁wi	-8706
alet	-8707
mone	-8708
otic	-8709
took	-8710
vole	-8711
▁50;	-8712
▁Are	-8713
▁Ped	-8714
▁RSC	-8715
▁las	-8716
▁opt	-8717
▁voc	-8718
▁1860	-8719
▁Dati	-8720
▁Ital	-8721
▁Watt	-8722
▁aunt	-8723
▁club	-8724
▁mild	-8725
▁risk	-8726
▁ties	-8727
▁vein	-8728
▁Chand	-8729
▁Forts	-8730
▁Pedro	-8731
▁Plaza	-8732
▁White	-8733
▁desks	-8734
▁favor	-8735
▁fried	-8736
▁incor	-8737
▁moral	-8738
▁older	-8739
▁opium	-8740
▁opted	-8741
▁vocal	-8742
▁widow	-8743
General	-8744
▁Estate	-8745
▁Secret	-8746
▁chalet	-8747
▁devout	-8748
▁easily	-8749
▁glides	-8750
▁runoff	-8751
▁safety	-8752
▁simple	-8753
▁sports	-8754
▁tennis	-8755
▁Amyntas	-8756
▁Italian	-8757
▁Phrased	-8758
▁chaotic	-8759
▁complic	-8760
▁derives	-8761
▁hijinks	-8762
▁mothers	-8763
▁swordsm	-8764
▁trigger	-8765
unicative	-8766
▁Chandler	-8767
▁Corsican	-8768
▁adapting	-8769
▁attitude	-8770
▁disputes	-8771
▁overtook	-8772
▁realized	-8773
▁shortage	-8774
▁sinister	-8775
▁situated	-8776
▁sixtieth	-8777
▁socially	-8778
▁soldiers	-8779
▁somebody	-8780
▁songwrit	-8781
▁sparking	-8782
▁stabbing	-8783
▁starring	-8784
▁stemming	-8785
▁sterling	-8786
▁stickers	-8787
▁stresses	-8788
▁strongly	-8789
▁substant	-8790
▁suffered	-8791
▁supplied	-8792
▁supports	-8793
▁supposed	-8794
▁syllable	-8795
▁symbolic	-8796
▁synoptic	-8797
▁tactical	-8798
▁tailbone	-8799
Ya	-8800
irs	-8801
▁84	-8802
▁BA	-8803
elhi	-8804
irit	-8805
itra	-8806
ivia	-8807
term	-8808
▁Bro	-8809
▁Fre	-8810
▁mir	-8811
▁vib	-8812
▁wip	-8813
ellow	-8814
otter	-8815
▁1777	-8816
▁1858	-8817
▁Knew	-8818
▁Such	-8819
▁doll	-8820
▁flat	-8821
▁poem	-8822
▁save	-8823
▁stay	-8824
▁stri	-8825
▁tend	-8826
▁whom	-8827
degree	-8828
idated	-8829
iforms	-8830
▁Brook	-8831
▁Champ	-8832
▁Delhi	-8833
▁Freem	-8834
▁Nitra	-8835
▁faces	-8836
▁grows	-8837
▁guess	-8838
▁medal	-8839
▁metal	-8840
▁mirac	-8841
▁regre	-8842
▁tends	-8843
▁touch	-8844
▁trail	-8845
▁visit	-8846
▁wiped	-8847
▁words	-8848
allions	-8849
ialects	-8850
venties	-8851
▁Antill	-8852
▁Brooks	-8853
▁Harley	-8854
▁Herber	-8855
▁Olivia	-8856
▁Parker	-8857
▁corner	-8858
▁deploy	-8859
▁dollar	-8860
▁intent	-8861
▁lagoon	-8862
▁spirit	-8863
▁stance	-8864
▁strike	-8865
▁yellow	-8866
apidated	-8867
▁Freeman	-8868
▁Herbert	-8869
▁Justice	-8870
▁careful	-8871
▁factors	-8872
▁fiction	-8873
▁lightly	-8874
▁menhirs	-8875
▁miracle	-8876
▁plotter	-8877
▁regrets	-8878
▁rescind	-8879
▁resided	-8880
▁staying	-8881
▁typeset	-8882
▁vibrate	-8883
▁Antillas	-8884
▁Humphrey	-8885
▁commands	-8886
▁currency	-8887
▁dialects	-8888
▁factions	-8889
▁guessing	-8890
▁minister	-8891
▁patterns	-8892
▁properly	-8893
▁rational	-8894
▁tectonic	-8895
▁telltale	-8896
▁tempered	-8897
▁tensions	-8898
▁teratoma	-8899
iox	-8900
▁Ha	-8901
Pair	-8902
West	-8903
When	-8904
arth	-8905
▁Cop	-8906
▁Rog	-8907
▁bot	-8908
▁ham	-8909
estre	-8910
fired	-8911
merit	-8912
occup	-8913
ostok	-8914
remen	-8915
wkish	-8916
▁Wing	-8917
▁band	-8918
▁diox	-8919
▁seek	-8920
▁sore	-8921
▁wide	-8922
▁1399.	-8923
▁Early	-8924
▁Garth	-8925
▁Gerry	-8926
▁Haute	-8927
▁botan	-8928
▁meant	-8929
▁solst	-8930
▁spend	-8931
▁trees	-8932
▁Bremen	-8933
▁Copper	-8934
▁Kramer	-8935
▁Mestre	-8936
▁Rogers	-8937
▁Sweden	-8938
▁counts	-8939
▁hammer	-8940
▁plates	-8941
▁ruling	-8942
▁smoked	-8943
▁sorely	-8944
▁valley	-8945
haNakhon	-8946
occupies	-8947
▁airlift	-8948
▁anybody	-8949
▁dioxide	-8950
▁efforts	-8951
▁hawkish	-8952
▁praised	-8953
▁reviews	-8954
▁seasons	-8955
▁McNeilly	-8956
▁branches	-8957
▁formerly	-8958
▁medicine	-8959
▁messages	-8960
▁offering	-8961
▁terrible	-8962
▁textiles	-8963
▁theology	-8964
▁theories	-8965
▁thoughts	-8966
▁totaling	-8967
▁tracking	-8968
▁troopers	-8969
▁tropical	-8970
▁unaccept	-8971
▁unemploy	-8972
▁uniforms	-8973
▁unimagin	-8974
▁upcoming	-8975
▁ushering	-8976
▁vicissit	-8977
▁violence	-8978
▁visiting	-8979
▁volcanic	-8980
▁watching	-8981
▁waterway	-8982
▁weakness	-8983
▁websites	-8984
▁weekdays	-8985
▁welcomed	-8986
▁wetlands	-8987
▁whenever	-8988
▁wildlife	-8989
▁witching	-8990
▁worrying	-8991
▁worsened	-8992
▁writhing	-8993
▁zodiacal	-8994
▁£3,000-£	-8995
Australian	-8996
Monegasque	-8997
Physicians	-8998
Pithekouss	-8999
',	-9000
ez	-9001
rik	-9002
vri	-9003
▁Di	-9004
▁Do	-9005
▁GM	-9006
▁Po	-9007
imea	-9008
mail	-9009
raum	-9010
uler	-9011
uvri	-9012
▁CBC	-9013
▁Est	-9014
▁Gay	-9015
▁Ire	-9016
▁Kim	-9017
▁Now	-9018
▁Pig	-9019
▁Yum	-9020
▁arc	-9021
▁mic	-9022
enian	-9023
odies	-9024
ooper	-9025
stain	-9026
▁1984	-9027
▁2012	-9028
▁Erik	-9029
▁Este	-9030
▁Fall	-9031
▁Gate	-9032
▁Hans	-9033
▁Ping	-9034
▁fate	-9035
▁hadn	-9036
▁hate	-9037
▁mart	-9038
▁1566,	-9039
▁1839,	-9040
▁1993.	-9041
▁2013,	-9042
▁Curie	-9043
▁Ouvri	-9044
▁Piggy	-9045
▁Ruler	-9046
▁Sarah	-9047
▁Traum	-9048
▁butts	-9049
▁prank	-9050
▁proof	-9051
▁stepp	-9052
▁Crimea	-9053
▁Fallon	-9054
▁Greeks	-9055
▁Looper	-9056
▁Panama	-9057
▁bodies	-9058
▁images	-9059
▁marked	-9060
▁titles	-9061
essenian	-9062
▁Elliott	-9063
▁Embassy	-9064
▁Ireland	-9065
▁Kristin	-9066
▁Trudeau	-9067
▁corslet	-9068
▁cutting	-9069
▁injured	-9070
▁killing	-9071
▁martial	-9072
▁sustain	-9073
▁unaware	-9074
asibility	-9075
▁Ancestry	-9076
▁attracts	-9077
▁drinking	-9078
▁executed	-9079
▁generals	-9080
▁required	-9081
▁stepping	-9082
▁stopping	-9083
akeholders	-9084
ceptionist	-9085
detectable	-9086
ecifically	-9087
erestimate	-9088
integrated	-9089
iscaucasus	-9090
ologically	-9091
ontvieille	-9092
remarkable	-9093
songwriter	-9094
tremendous	-9095
▁2013-2014	-9096
▁Administr	-9097
▁Alcoholic	-9098
▁Alejandra	-9099
usb	-9100
bums	-9101
emis	-9102
ntal	-9103
ucca	-9104
▁10,	-9105
▁BID	-9106
▁map	-9107
▁nun	-9108
▁obl	-9109
ceeds	-9110
earth	-9111
ender	-9112
estus	-9113
ichol	-9114
▁$1.4	-9115
▁2020	-9116
▁Casa	-9117
▁Mash	-9118
▁Pear	-9119
▁gear	-9120
▁husb	-9121
▁lies	-9122
▁nuns	-9123
▁ores	-9124
▁sear	-9125
▁seed	-9126
▁stir	-9127
▁thus	-9128
earths	-9129
ethnic	-9130
parent	-9131
recent	-9132
▁2006,	-9133
▁Pearl	-9134
▁Remis	-9135
▁depth	-9136
▁obliv	-9137
▁phone	-9138
▁pilot	-9139
icholas	-9140
▁Before	-9141
▁Enough	-9142
▁Lahore	-9143
▁Marvel	-9144
▁Nestus	-9145
▁Rachel	-9146
▁chilly	-9147
▁dating	-9148
▁gender	-9149
▁league	-9150
▁medics	-9151
▁regime	-9152
▁rental	-9153
▁search	-9154
▁slated	-9155
▁Denmark	-9156
▁Pelucca	-9157
▁actress	-9158
▁derived	-9159
▁exceeds	-9160
▁farmers	-9161
▁husband	-9162
▁singing	-9163
▁Jennings	-9164
▁Literacy	-9165
▁Nicholas	-9166
▁Thompson	-9167
▁communal	-9168
▁hysteria	-9169
▁mystical	-9170
▁oblivion	-9171
▁offences	-9172
▁planning	-9173
▁province	-9174
▁switched	-9175
▁troubled	-9176
▁unearths	-9177
▁Amendment	-9178
▁Assistant	-9179
▁Athenians	-9180
▁Austrians	-9181
▁Billboard	-9182
▁Blindleia	-9183
▁Bonaparte	-9184
▁Bosphorus	-9185
▁Byzantium	-9186
▁Calabrian	-9187
▁Cameroons	-9188
▁Caracalla	-9189
▁Cassation	-9190
▁Catherine	-9191
▁Churchill	-9192
▁Cifuentes	-9193
▁Coalition	-9194
▁Community	-9195
▁Companies	-9196
▁Consonant	-9197
▁Currently	-9198
▁Dominican	-9199
Off	-9200
osc	-9201
▁£2	-9202
Offs	-9203
east	-9204
high	-9205
inda	-9206
iven	-9207
osen	-9208
rone	-9209
▁Inn	-9210
▁Our	-9211
arted	-9212
ectar	-9213
matic	-9214
osing	-9215
uaron	-9216
▁Hack	-9217
▁Head	-9218
▁Mosc	-9219
▁Nine	-9220
▁Vine	-9221
▁Wild	-9222
▁ball	-9223
▁dumb	-9224
▁nine	-9225
▁pros	-9226
▁prox	-9227
▁ring	-9228
▁unad	-9229
▁Beust	-9230
▁Given	-9231
▁Multi	-9232
▁Space	-9233
▁Three	-9234
▁Trade	-9235
▁beast	-9236
▁blown	-9237
▁chain	-9238
▁color	-9239
▁curve	-9240
▁hills	-9241
▁Cuaron	-9242
▁Glinda	-9243
▁Nectar	-9244
▁actual	-9245
▁adults	-9246
▁chosen	-9247
▁closer	-9248
▁devoid	-9249
▁fourth	-9250
▁laying	-9251
▁settle	-9252
▁throne	-9253
▁trails	-9254
▁tribes	-9255
Offshore	-9256
▁Conserv	-9257
▁Moscone	-9258
▁charted	-9259
▁comment	-9260
▁leaders	-9261
▁liberty	-9262
▁prosper	-9263
▁proxies	-9264
▁reading	-9265
▁transit	-9266
▁workout	-9267
▁Barrosos	-9268
▁Election	-9269
▁enlisted	-9270
▁imposing	-9271
▁obtained	-9272
▁suspects	-9273
▁thousand	-9274
ingshausen	-9275
▁Education	-9276
▁Episcopal	-9277
▁Europeans	-9278
▁Flensburg	-9279
▁Grenville	-9280
▁Guangzhou	-9281
▁Historian	-9282
▁Hollywood	-9283
▁Hortefeux	-9284
▁Jerusalem	-9285
▁Kamchatka	-9286
▁Knightley	-9287
▁Liberties	-9288
▁Lillesand	-9289
▁Macedonia	-9290
▁Megabazus	-9291
▁Merdingen	-9292
▁Messenian	-9293
▁Microsoft	-9294
▁Migration	-9295
▁Mongolian	-9296
▁Nashville	-9297
▁Paeonians	-9298
▁Panvalkar	-9299
In	-9300
▁24	-9301
▁25	-9302
▁27	-9303
▁8.	-9304
Most	-9305
ngel	-9306
xist	-9307
▁1%.	-9308
▁Eld	-9309
▁Jin	-9310
▁Let	-9311
▁Los	-9312
▁Yas	-9313
rises	-9314
▁Bian	-9315
▁Dust	-9316
▁Land	-9317
▁Last	-9318
▁Mate	-9319
▁Meza	-9320
▁Rian	-9321
▁arts	-9322
▁bump	-9323
▁cast	-9324
▁cold	-9325
▁dust	-9326
▁none	-9327
▁sort	-9328
▁uses	-9329
ouring	-9330
▁1856,	-9331
▁1977,	-9332
▁550),	-9333
▁Award	-9334
▁Elder	-9335
▁Smith	-9336
▁Witch	-9337
▁inner	-9338
▁jeans	-9339
▁movie	-9340
▁owned	-9341
▁plain	-9342
Snowman	-9343
▁Morgan	-9344
▁Oblast	-9345
▁Tories	-9346
▁Yannis	-9347
▁agenda	-9348
▁script	-9349
▁sexist	-9350
▁stands	-9351
▁stores	-9352
▁wished	-9353
▁Cologne	-9354
▁Courant	-9355
▁Sulphur	-9356
▁clients	-9357
▁inhibit	-9358
▁notable	-9359
▁whoever	-9360
▁Deciding	-9361
▁Designed	-9362
▁affluent	-9363
▁attended	-9364
▁critical	-9365
▁enhanced	-9366
▁incurred	-9367
▁occurred	-9368
▁rocketed	-9369
▁standard	-9370
▁Privately	-9371
▁Rastislav	-9372
▁Renewable	-9373
▁Sallyanne	-9374
▁Secretary	-9375
▁Sectorial	-9376
▁Sephardic	-9377
▁Seventies	-9378
▁Smaragdis	-9379
▁Southeast	-9380
▁Sternlieb	-9381
▁Sukhothai	-9382
▁Tennessee	-9383
▁Testament	-9384
▁Therefore	-9385
▁Universal	-9386
▁Victorias	-9387
▁Wednesday	-9388
▁Yudhoyono	-9389
▁abandoned	-9390
▁abilities	-9391
▁acclaimed	-9392
▁accolades	-9393
▁activated	-9394
▁addiction	-9395
▁adherents	-9396
▁admission	-9397
▁adulterer	-9398
▁advancing	-9399
Hey	-9400
ept	-9401
ipo	-9402
▁("	-9403
▁Dr	-9404
Game	-9405
bany	-9406
chok	-9407
made	-9408
udes	-9409
unch	-9410
▁spy	-9411
▁upt	-9412
icken	-9413
▁1933	-9414
▁2011	-9415
▁Egan	-9416
▁Five	-9417
▁Iran	-9418
▁Pall	-9419
▁Tell	-9420
▁clin	-9421
▁fish	-9422
▁hall	-9423
▁keen	-9424
▁leap	-9425
▁tipo	-9426
▁wait	-9427
flight	-9428
▁1,165	-9429
▁1882,	-9430
▁1987.	-9431
▁Force	-9432
▁Frank	-9433
▁Lower	-9434
▁adept	-9435
▁apart	-9436
▁bunch	-9437
▁cites	-9438
▁error	-9439
▁rites	-9440
▁shall	-9441
▁wheat	-9442
▁wheel	-9443
choking	-9444
▁Albany	-9445
▁Andrew	-9446
▁Juliet	-9447
▁cattle	-9448
▁cinema	-9449
▁condos	-9450
▁finish	-9451
▁grants	-9452
▁height	-9453
▁sought	-9454
▁willow	-9455
▁330,000	-9456
▁annexed	-9457
▁blinder	-9458
▁chicken	-9459
▁contest	-9460
▁feeling	-9461
▁funeral	-9462
▁greatly	-9463
▁highest	-9464
▁irksome	-9465
▁municip	-9466
▁outputs	-9467
▁partner	-9468
▁shallow	-9469
▁£10,000	-9470
▁Anglican	-9471
▁LaBrocca	-9472
▁approved	-9473
▁breaches	-9474
▁breeding	-9475
▁clinical	-9476
▁consists	-9477
▁councils	-9478
▁creation	-9479
▁imported	-9480
▁informed	-9481
▁monument	-9482
▁musician	-9483
▁powerful	-9484
▁progress	-9485
▁property	-9486
▁upturned	-9487
▁affection	-9488
▁afternoon	-9489
▁aggregate	-9490
▁alienated	-9491
▁alliances	-9492
▁allowance	-9493
▁alongside	-9494
▁analysing	-9495
▁anthology	-9496
▁antiquity	-9497
▁apartment	-9498
▁appealing	-9499
Some	-9500
nine	-9501
Every	-9502
▁Dean	-9503
▁crew	-9504
▁jail	-9505
▁nary	-9506
▁vary	-9507
▁walk	-9508
▁comic	-9509
▁creat	-9510
▁guild	-9511
▁share	-9512
▁stone	-9513
▁asking	-9514
▁widely	-9515
▁Grafton	-9516
▁acutely	-9517
▁embrace	-9518
▁nowhere	-9519
▁Moravian	-9520
▁conceded	-9521
▁creative	-9522
▁criminal	-9523
▁enraging	-9524
▁artifacts	-9525
▁assembled	-9526
▁attending	-9527
▁audiences	-9528
▁autosomal	-9529
▁balancing	-9530
▁behaviour	-9531
▁benefited	-9532
▁biography	-9533
▁bordering	-9534
▁botanical	-9535
▁bothering	-9536
▁breakdown	-9537
▁buildings	-9538
▁burgesses	-9539
▁candidacy	-9540
▁captained	-9541
▁carefully	-9542
▁carpenter	-9543
▁cautioned	-9544
▁celebrity	-9545
▁certainty	-9546
▁cinematic	-9547
▁civilians	-9548
▁classical	-9549
▁coalition	-9550
▁collected	-9551
▁collision	-9552
▁colonised	-9553
▁colonists	-9554
▁combative	-9555
▁commented	-9556
▁committed	-9557
▁communist	-9558
▁community	-9559
▁competing	-9560
▁component	-9561
▁conceived	-9562
▁concerned	-9563
▁conferred	-9564
▁consisted	-9565
▁consolate	-9566
▁consulted	-9567
▁consumers	-9568
▁contained	-9569
▁contested	-9570
▁continues	-9571
▁converted	-9572
▁convinced	-9573
▁courtship	-9574
▁cowritten	-9575
▁criticize	-9576
▁currently	-9577
▁customary	-9578
▁daughters	-9579
▁deducting	-9580
▁defending	-9581
▁deficient	-9582
▁delighted	-9583
▁departure	-9584
▁dependent	-9585
▁depletion	-9586
▁designers	-9587
▁difficult	-9588
▁dimension	-9589
▁dinosaurs	-9590
▁direction	-9591
▁disappear	-9592
▁disasters	-9593
▁disbanded	-9594
▁discourse	-9595
▁discovery	-9596
▁discredit	-9597
▁discusses	-9598
▁dismissal	-9599
▁dismisses	-9600
▁dispersed	-9601
▁displaced	-9602
▁disrupted	-9603
▁downsized	-9604
▁economics	-9605
▁effective	-9606
▁elections	-9607
▁emergence	-9608
▁emergency	-9609
▁emigrated	-9610
▁emissions	-9611
▁emotional	-9612
▁employees	-9613
▁equinoxes	-9614
▁estranged	-9615
▁evidenced	-9616
▁excellent	-9617
▁excessive	-9618
▁excluding	-9619
▁exhibited	-9620
▁existence	-9621
▁expansive	-9622
▁expectant	-9623
▁expecting	-9624
▁expensive	-9625
▁expressed	-9626
▁extending	-9627
▁extensive	-9628
▁extremely	-9629
▁fantastic	-9630
▁finalized	-9631
▁followers	-9632
▁fortified	-9633
▁fragrance	-9634
▁framework	-9635
▁frontline	-9636
▁generally	-9637
▁generated	-9638
▁generator	-9639
▁geography	-9640
▁germinate	-9641
▁gradation	-9642
▁graduated	-9643
▁grievance	-9644
▁guarantee	-9645
▁guardians	-9646
▁guitarist	-9647
▁happening	-9648
▁happiness	-9649
▁headlines	-9650
▁headscarf	-9651
▁hierarchy	-9652
▁idealized	-9653
▁illegally	-9654
▁imaginary	-9655
▁immigrant	-9656
▁impressed	-9657
▁incumbent	-9658
▁indisting	-9659
▁injection	-9660
▁innuendos	-9661
▁inspiring	-9662
▁intensive	-9663
▁interface	-9664
▁introduce	-9665
▁irritated	-9666
▁jewellery	-9667
▁justified	-9668
▁kilowatts	-9669
▁legalised	-9670
▁liberties	-9671
▁licensing	-9672
▁listening	-9673
▁literally	-9674
▁livestock	-9675
▁locations	-9676
▁lollipops	-9677
▁lucrative	-9678
▁malicious	-9679
▁manganese	-9680
▁materials	-9681
▁megaliths	-9682
▁merchants	-9683
▁miniature	-9684
▁motocross	-9685
▁mutations	-9686
▁narrative	-9687
▁naturally	-9688
▁necessary	-9689
▁newcomers	-9690
▁northwest	-9691
▁obsession	-9692
▁obviously	-9693
▁occasions	-9694
▁occurring	-9695
▁offensive	-9696
▁offerings	-9697
▁officials	-9698
▁offspring	-9699
▁operating	-9700
▁operation	-9701
▁operators	-9702
▁orogenies	-9703
▁oversight	-9704
▁overthrew	-9705
▁paintings	-9706
▁parallels	-9707
▁paralysis	-9708
▁paramilit	-9709
▁parenting	-9710
▁passwords	-9711
▁penalties	-9712
▁pencilled	-9713
▁performed	-9714
▁plantains	-9715
▁pollution	-9716
▁portrayal	-9717
▁possessed	-9718
▁potential	-9719
▁practical	-9720
▁precision	-9721
▁predicted	-9722
▁preferred	-9723
▁preparing	-9724
▁presenter	-9725
▁primaries	-9726
▁principle	-9727
▁prisoners	-9728
▁privately	-9729
▁procedure	-9730
▁proconsul	-9731
▁producers	-9732
▁producing	-9733
▁prominent	-9734
▁promoting	-9735
▁prompting	-9736
▁protected	-9737
▁providing	-9738
▁proximity	-9739
▁racetrack	-9740
▁radically	-9741
▁recording	-9742
▁recovered	-9743
▁reference	-9744
▁regretted	-9745
▁regulates	-9746
▁reimburse	-9747
▁relatives	-9748
▁reluctant	-9749
▁renovated	-9750
▁reporters	-9751
▁residence	-9752
▁residents	-9753
▁resources	-9754
▁responses	-9755
▁safeguard	-9756
▁sanctuary	-9757
▁satisfied	-9758
▁scholarly	-9759
▁seaplanes	-9760
▁sensation	-9761
▁sensitive	-9762
▁seventeen	-9763
▁shoulders	-9764
▁situation	-9765
▁slapstick	-9766
▁socialist	-9767
▁solstices	-9768
▁solutions	-9769
▁specimens	-9770
▁spotlight	-9771
▁stallions	-9772
▁standings	-9773
▁stereotyp	-9774
▁stoplight	-9775
▁stylistic	-9776
▁subsidies	-9777
▁succeeded	-9778
▁successes	-9779
▁successor	-9780
▁supervise	-9781
▁supported	-9782
▁surrender	-9783
▁surveying	-9784
▁suspected	-9785
▁taxpayers	-9786
▁teachings	-9787
▁temperate	-9788
▁theorized	-9789
▁thousands	-9790
▁throwback	-9791
▁timelines	-9792
▁tolerance	-9793
▁traceable	-9794
▁travelled	-9795
▁treasurer	-9796
▁treatment	-9797
▁troubling	-9798
▁typically	-9799
▁unearthed	-9800
▁unethical	-9801
▁universes	-9802
▁unlimited	-9803
▁unnoticed	-9804
▁unsettled	-9805
▁untrained	-9806
▁unusually	-9807
▁unwilling	-9808
▁visionary	-9809
▁volcanoes	-9810
▁warranted	-9811
▁wholesale	-9812
▁withdrawn	-9813
▁withdraws	-9814
▁yellowish	-9815
▁yesterday	-9816
▁£15,001-£	-9817
Superheroes	-9818
altercation	-9819
performance	-9820
▁2015-2016.	-9821
▁Aborigines	-9822
▁Afterwards	-9823
▁Antarctica	-9824
▁Archbishop	-9825
▁Associated	-9826
▁Austerlitz	-9827
▁Basilicata	-9828
▁Bellingham	-9829
▁Bransfield	-9830
▁Businesses	-9831
▁Caesarians	-9832
▁California	-9833
▁Christians	-9834
▁Compromise	-9835
▁Controlled	-9836
▁Department	-9837
▁Engagement	-9838
▁Eventually	-9839
▁ExxonMobil	-9840
▁Floridians	-9841
▁Friendship	-9842
▁Georgetown	-9843
▁Guilbeault	-9844
▁Hitchhiker	-9845
▁Humblebums	-9846
▁Indonesian	-9847
▁Kirriemuir	-9848
▁Liberation	-9849
▁Lubumbashi	-9850
▁MahaNakhon	-9851
▁Nottingham	-9852
▁Pettersson	-9853
▁Phoenician	-9854
▁Previously	-9855
▁Production	-9856
▁Protection	-9857
▁Protestant	-9858
▁Resistance	-9859
▁Seychelles	-9860
▁Shackleton	-9861
▁Socialists	-9862
▁Southasian	-9863
▁Strathearn	-9864
▁Sunderland	-9865
▁Surprising	-9866
▁Technology	-9867
▁Versailles	-9868
▁Villeneuve	-9869
▁Zuckerberg	-9870
▁absolutely	-9871
▁accessible	-9872
▁accidental	-9873
▁accurately	-9874
▁additional	-9875
▁addressing	-9876
▁adolescent	-9877
▁advantages	-9878
▁afterwards	-9879
▁aggressive	-9880
▁allegiance	-9881
▁ambassador	-9882
▁anticipate	-9883
▁apparently	-9884
▁applicable	-9885
▁artificial	-9886
▁assessment	-9887
▁atmosphere	-9888
▁auspicious	-9889
▁autonomous	-9890
▁boundaries	-9891
▁buttresses	-9892
▁calculated	-9893
▁carbonated	-9894
▁cellphones	-9895
▁censorship	-9896
▁ceremonies	-9897
▁chalkstone	-9898
▁challenged	-9899
▁chronicles	-9900
▁cigarettes	-9901
▁classified	-9902
▁coastlines	-9903
▁collection	-9904
▁collectors	-9905
▁combatants	-9906
▁compaction	-9907
▁comparison	-9908
▁complaints	-9909
▁completion	-9910
▁compromise	-9911
▁compulsion	-9912
▁conceptual	-9913
▁conditions	-9914
▁conference	-9915
▁confidence	-9916
▁connective	-9917
▁conquering	-9918
▁containing	-9919
▁continents	-9920
▁contingent	-9921
▁conversion	-9922
▁courthouse	-9923
▁culturally	-9924
▁curtailing	-9925
▁dedication	-9926
▁definitely	-9927
▁delineates	-9928
▁demolished	-9929
▁descendant	-9930
▁describing	-9931
▁determines	-9932
▁developing	-9933
▁difference	-9934
▁discomfort	-9935
▁discussion	-9936
▁dispatched	-9937
▁disruption	-9938
▁distinctly	-9939
▁documented	-9940
▁domination	-9941
▁dramatists	-9942
▁economical	-9943
▁economists	-9944
▁ecosystems	-9945
▁emphasised	-9946
▁enormously	-9947
▁executives	-9948
▁exhibition	-9949
▁expression	-9950
▁favourable	-9951
▁filmmakers	-9952
▁firebombed	-9953
▁foreigners	-9954
▁formidable	-9955
▁foundation	-9956
▁freshwater	-9957
▁friendship	-9958
▁generating	-9959
▁generators	-9960
▁girlfriend	-9961
▁grassroots	-9962
▁groundwork	-9963
▁harmonious	-9964
▁headwaters	-9965
▁horrendous	-9966
▁hurricanes	-9967
▁hypothesis	-9968
▁impairment	-9969
▁importance	-9970
▁impossible	-9971
▁incomplete	-9972
▁incredibly	-9973
▁indicating	-9974
▁individual	-9975
▁industrial	-9976
▁inimitably	-9977
▁insatiable	-9978
▁insolvency	-9979
▁instructed	-9980
▁integrated	-9981
▁interested	-9982
▁inventions	-9983
▁irrigation	-9984
▁journalist	-9985
▁kilometers	-9986
▁laboratory	-9987
▁litigation	-9988
▁logistical	-9989
▁maintained	-9990
▁manageable	-9991
▁manuscript	-9992
▁mechanisms	-9993
▁meteoritic	-9994
▁mindlessly	-9995
▁ministries	-9996
▁minorities	-9997
▁molybdenum	-9998
▁monarchies	-9999
▁neighbours	-10000
▁noteworthy	-10001
▁numismatic	-10002
▁occurrence	-10003
▁officially	-10004
▁operations	-10005
▁opposition	-10006
▁originates	-10007
▁overseeing	-10008
▁permission	-10009
▁persistent	-10010
▁personally	-10011
▁popularity	-10012
▁possession	-10013
▁posthumous	-10014
▁precarious	-10015
▁precursors	-10016
▁prepayment	-10017
▁presenting	-10018
▁presumably	-10019
▁prevailing	-10020
▁preventing	-10021
▁previously	-10022
▁principles	-10023
▁processing	-10024
▁production	-10025
▁propaganda	-10026
▁properties	-10027
▁protesting	-10028
▁provincial	-10029
▁psychology	-10030
▁racecourse	-10031
▁reasonable	-10032
▁reasonably	-10033
▁recognized	-10034
▁redemption	-10035
▁reductions	-10036
▁referenced	-10037
▁references	-10038
▁regardless	-10039
▁registered	-10040
▁relaxation	-10041
▁remarkable	-10042
▁resistance	-10043
▁resolution	-10044
▁responding	-10045
▁scrutinise	-10046
▁sculptural	-10047
▁separately	-10048
▁separation	-10049
▁shockwaves	-10050
▁situations	-10051
▁socialists	-10052
▁southwards	-10053
▁statuettes	-10054
▁structures	-10055
▁struggling	-10056
▁subduction	-10057
▁submission	-10058
▁subsequent	-10059
▁succeeding	-10060
▁suggesting	-10061
▁sunglasses	-10062
▁surrenders	-10063
▁suspension	-10064
▁suzerainty	-10065
▁theatrical	-10066
▁thirteenth	-10067
▁travellers	-10068
▁treatments	-10069
▁trivialize	-10070
▁ultrasound	-10071
▁unanswered	-10072
▁unassuming	-10073
▁uncovering	-10074
▁undercover	-10075
▁underlying	-10076
▁underscore	-10077
▁undertaken	-10078
▁undisputed	-10079
▁uneventful	-10080
▁university	-10081
▁unofficial	-10082
▁unreliable	-10083
▁vegetation	-10084
▁vernacular	-10085
▁villainous	-10086
▁waterfront	-10087
▁witchcraft	-10088
Architecture	-10089
Pithekoussae	-10090
accentuating	-10091
domesticated	-10092
▁Addenbrooke	-10093
▁Australians	-10094
▁Carcassonne	-10095
▁Celebrities	-10096
▁Chamberlain	-10097
▁Ciscaucasus	-10098
▁Corporation	-10099
▁Environment	-10100
▁Fontvieille	-10101
▁Franciscans	-10102
▁Hammersmith	-10103
▁Independent	-10104
▁Inquisition	-10105
▁Kilimanjaro	-10106
▁Krasnoyarsk	-10107
▁Melanesians	-10108
▁Mississippi	-10109
▁Nonetheless	-10110
▁Northampton	-10111
▁Philippines	-10112
▁Phoenicians	-10113
▁Plantagenet	-10114
▁Reformation	-10115
▁Reichenbach	-10116
▁Renaissance	-10117
▁Republicans	-10118
▁Rupertsberg	-10119
▁Thermopylae	-10120
▁Traditional	-10121
▁Universiade	-10122
▁Vindication	-10123
▁Vladivostok	-10124
▁abandonment	-10125
▁accumulated	-10126
▁achievement	-10127
▁anniversary	-10128
▁anticipated	-10129
▁appointment	-10130
▁association	-10131
▁attachments	-10132
▁battlefield	-10133
▁candidature	-10134
▁cardholders	-10135
▁celebrating	-10136
▁celebration	-10137
▁combination	-10138
▁comfortable	-10139
▁commercials	-10140
▁competition	-10141
▁complicated	-10142
▁concentrate	-10143
▁conclusions	-10144
▁connections	-10145
▁constituted	-10146
▁constitutes	-10147
▁continental	-10148
▁contracting	-10149
▁contributed	-10150
▁counsellors	-10151
▁countryside	-10152
▁declaration	-10153
▁demographic	-10154
▁demonstrate	-10155
▁dilapidated	-10156
▁disapproval	-10157
▁discordance	-10158
▁disparaging	-10159
▁distributor	-10160
▁drastically	-10161
▁electricity	-10162
▁enforcement	-10163
▁entertained	-10164
▁ethnicities	-10165
▁exceptional	-10166
▁existential	-10167
▁expeditions	-10168
▁exploration	-10169
▁extensively	-10170
▁extravagant	-10171
▁feasibility	-10172
▁forecasting	-10173
▁fulfillment	-10174
▁fundamental	-10175
▁grandstands	-10176
▁heartwarmer	-10177
▁helicopters	-10178
▁highlighted	-10179
▁iconography	-10180
▁immigration	-10181
▁immortality	-10182
▁importantly	-10183
▁impregnable	-10184
▁incompetent	-10185
▁influential	-10186
▁inhabitants	-10187
▁inscription	-10188
▁instruction	-10189
▁integration	-10190
▁intensifies	-10191
▁intercepted	-10192
▁interpreted	-10193
▁intertwined	-10194
▁journalists	-10195
▁nationalism	-10196
▁nationality	-10197
▁observatory	-10198
▁overlooking	-10199
▁partitioned	-10200
▁percentages	-10201
▁photographs	-10202
▁planetarium	-10203
▁playwrights	-10204
▁politicians	-10205
▁populations	-10206
▁practically	-10207
▁precautions	-10208
▁predictable	-10209
▁preoccupies	-10210
▁preparation	-10211
▁prerogative	-10212
▁proactively	-10213
▁problematic	-10214
▁prohibiting	-10215
▁promotional	-10216
▁punishments	-10217
▁reclamation	-10218
▁refurbished	-10219
▁restrictive	-10220
▁revelations	-10221
▁settlements	-10222
▁shenanigans	-10223
▁smartphones	-10224
▁songwriting	-10225
▁specialized	-10226
▁spokeswoman	-10227
▁statistical	-10228
▁stipulation	-10229
▁storyboards	-10230
▁substantial	-10231
▁suggestions	-10232
▁technicians	-10233
▁telegraphic	-10234
▁temperature	-10235
▁territorial	-10236
▁territories	-10237
▁topographic	-10238
▁townspeople	-10239
▁transformed	-10240
▁transitions	-10241
▁unadvisable	-10242
▁undesirable	-10243
▁undeveloped	-10244
▁unqualified	-10245
▁unstoppable	-10246
▁volcanology	-10247
▁vulcanology	-10248
▁whereabouts	-10249
▁withdrawing	-10250
Unfortunately	-10251
▁Agricultural	-10252
▁Castelfranco	-10253
▁Championship	-10254
▁Concurrently	-10255
▁Explanations	-10256
▁Hillsborough	-10257
▁Kristiansand	-10258
▁Mesoamerican	-10259
▁Metropolitan	-10260
▁Obermarsberg	-10261
▁Organization	-10262
▁Peloponnesus	-10263
▁Presidential	-10264
▁Romanization	-10265
▁Specifically	-10266
▁Thematically	-10267
▁acknowledged	-10268
▁administered	-10269
▁alternatives	-10270
▁ambassadress	-10271
▁announcement	-10272
▁architecture	-10273
▁arrangements	-10274
▁astronomical	-10275
▁cabinetmaker	-10276
▁certificates	-10277
▁childbearing	-10278
▁civilization	-10279
▁collaborates	-10280
▁colonisation	-10281
▁commissioned	-10282
▁compensation	-10283
▁confidential	-10284
▁congratulate	-10285
▁conservative	-10286
▁conservatory	-10287
▁constituency	-10288
▁construction	-10289
▁consultation	-10290
▁contaminants	-10291
▁contemporary	-10292
▁continuation	-10293
▁continuously	-10294
▁contributing	-10295
▁declinations	-10296
▁definitively	-10297
▁degenerative	-10298
▁disabilities	-10299
▁disappointed	-10300
▁discontinued	-10301
▁domesticated	-10302
▁expectations	-10303
▁experiencing	-10304
▁humanitarian	-10305
▁impersonator	-10306
▁inflammatory	-10307
▁inordinately	-10308
▁institutions	-10309
▁insufficient	-10310
▁intelligence	-10311
▁intermarried	-10312
▁intersection	-10313
▁investigated	-10314
▁investigator	-10315
▁legitimately	-10316
▁logistically	-10317
▁manipulating	-10318
▁manufacturer	-10319
▁municipality	-10320
▁negotiations	-10321
▁neighbouring	-10322
▁nevertheless	-10323
▁northwestern	-10324
▁participants	-10325
▁performances	-10326
▁persistently	-10327
▁posthumously	-10328
▁prescription	-10329
▁presidential	-10330
▁productivity	-10331
▁professional	-10332
▁questionings	-10333
▁receptionist	-10334
▁registration	-10335
▁salinization	-10336
▁scrupulously	-10337
▁shipbuilding	-10338
▁similarities	-10339
▁speculations	-10340
▁stakeholders	-10341
▁strengthened	-10342
▁successfully	-10343
▁temperatures	-10344
▁transmitting	-10345
▁transporting	-10346
▁unacceptable	-10347
▁unemployment	-10348
▁unimaginable	-10349
▁vicissitudes	-10350
▁Corresponding	-10351
▁Disibodenberg	-10352
▁Environmental	-10353
▁Investigation	-10354
▁Theoretically	-10355
▁Thunderstorms	-10356
▁Transcaucasus	-10357
▁Unfortunately	-10358
▁administrator	-10359
▁advertisement	-10360
▁agglomeration	-10361
▁assassination	-10362
▁characterised	-10363
▁circumstances	-10364
▁climatologies	-10365
▁confrontation	-10366
▁conservatives	-10367
▁constructions	-10368
▁contamination	-10369
▁disintegrated	-10370
▁encouragement	-10371
▁environmental	-10372
▁exceptionally	-10373
▁expropriating	-10374
▁incorporating	-10375
▁independently	-10376
▁institutional	-10377
▁intellectuals	-10378
▁intentionally	-10379
▁investigative	-10380
▁justification	-10381
▁organisations	-10382
▁organizations	-10383
▁parliamentary	-10384
▁participation	-10385
▁precipitation	-10386
▁professionals	-10387
▁relationships	-10388
▁retrospective	-10389
▁revolutionary	-10390
▁significantly	-10391
▁stereotypical	-10392
▁swordsmanship	-10393
▁theoretically	-10394
▁traditionally	-10395
▁uncooperative	-10396
▁undercarriage	-10397
▁underestimate	-10398
▁unprecedented	-10399
▁unpretentious	-10400
▁vulnerability	-10401
▁£3,000-£5,000	-10402
▁Bellingshausen	-10403
▁Cambridgeshire	-10404
▁Czechoslovakia	-10405
▁administration	-10406
▁administrative	-10407
▁capitalisation	-10408
▁climatologists	-10409
▁contraceptives	-10410
▁federalization	-10411
▁identification	-10412
▁infrastructure	-10413
▁organizational	-10414
▁paramilitaries	-10415
▁reconciliation	-10416
▁reconstruction	-10417
▁sacrococcygeal	-10418
▁schoolchildren	-10419
▁transportation	-10420
▁unconventional	-10421
▁Administrations	-10422
▁commercializing	-10423
▁discontinuation	-10424
▁representatives	-10425
▁technologically	-10426
▁transformations	-10427
▁uncommunicative	-10428
▁£15,001-£19,999	-10429
$5,	-10430
0),	-10431
03.	-10432
1.5	-10433
191	-10434
195	-10435
197	-10436
198	-10437
25,	-10438
28,	-10439
3.7	-10440
519	-10441
55,	-10442
60.	-10443
61,	-10444
63.	-10445
79,	-10446
79.	-10447
82.	-10448
87.	-10449
GEL	-10450
SCA	-10451
aha	-10452
dha	-10453
ebr	-10454
feg	-10455
kai	-10456
ngl	-10457
nov	-10458
shi	-10459
spi	-10460
£19	-10461
£5,	-10462
▁66	-10463
▁70	-10464
▁83	-10465
▁Zá	-10466
2-51	-10467
2016	-10468
ahel	-10469
akeh	-10470
alax	-10471
alma	-10472
amme	-10473
appo	-10474
atka	-10475
azed	-10476
bels	-10477
bler	-10478
born	-10479
capp	-10480
cuit	-10481
curs	-10482
dbad	-10483
draw	-10484
eakn	-10485
efen	-10486
eleg	-10487
enef	-10488
etti	-10489
eyas	-10490
gery	-10491
ggle	-10492
glom	-10493
gora	-10494
gued	-10495
haky	-10496
hnic	-10497
ietr	-10498
ijin	-10499
26,	-10500
56,	-10501
6,5	-10502
66,	-10503
flu	-10504
obb	-10505
uga	-10506
upa	-10507
Beij	-10508
ccup	-10509
elgr	-10510
enny	-10511
esco	-10512
irlf	-10513
joys	-10514
lney	-10515
nott	-10516
nual	-10517
ougl	-10518
play	-10519
plet	-10520
puts	-10521
rash	-10522
rats	-10523
ridg	-10524
rinc	-10525
rink	-10526
rock	-10527
roco	-10528
rosp	-10529
ruyn	-10530
scap	-10531
sett	-10532
sman	-10533
soci	-10534
spir	-10535
swal	-10536
tale	-10537
thel	-10538
tiqu	-10539
ttom	-10540
uena	-10541
ugby	-10542
uins	-10543
umae	-10544
ungs	-10545
valk	-10546
vann	-10547
wnsp	-10548
xico	-10549
ypes	-10550
ypot	-10551
zinc	-10552
£19,	-10553
▁135	-10554
▁139	-10555
▁163	-10556
▁168	-10557
▁179	-10558
▁35,	-10559
▁ATM	-10560
▁Apr	-10561
▁Baj	-10562
▁Blu	-10563
▁Cze	-10564
▁Egy	-10565
▁Erd	-10566
▁Ern	-10567
▁GIF	-10568
▁HFC	-10569
▁Lah	-10570
▁Naz	-10571
▁Obl	-10572
▁Osw	-10573
▁Plu	-10574
▁Pyr	-10575
▁Seg	-10576
▁Suk	-10577
▁Uax	-10578
▁Zuc	-10579
▁ack	-10580
▁hij	-10581
▁hyd	-10582
▁lob	-10583
▁obj	-10584
▁obv	-10585
▁riv	-10586
▁syn	-10587
2016.	-10588
6.30-	-10589
Tulce	-10590
agoon	-10591
aimed	-10592
alano	-10593
anama	-10594
anned	-10595
apole	-10596
ariff	-10597
armon	-10598
arpur	-10599
ckn	-10600
cyc	-10601
eek	-10602
rmy	-10603
alty	-10604
crib	-10605
erns	-10606
immy	-10607
lock	-10608
ompe	-10609
sday	-10610
ssal	-10611
ysic	-10612
▁Isl	-10613
▁Mex	-10614
▁Mez	-10615
▁Sey	-10616
▁mov	-10617
▁roo	-10618
arrat	-10619
athol	-10620
atisf	-10621
atute	-10622
azing	-10623
baniz	-10624
bined	-10625
bitat	-10626
blems	-10627
bling	-10628
botsf	-10629
bours	-10630
cadem	-10631
canic	-10632
ccept	-10633
celle	-10634
ceptu	-10635
cials	-10636
cient	-10637
clear	-10638
ctual	-10639
cured	-10640
dessa	-10641
dives	-10642
ebrit	-10643
elves	-10644
emale	-10645
enges	-10646
enins	-10647
ennes	-10648
eriod	-10649
esale	-10650
espec	-10651
▁	-10652
e	-10653
t	-10654
a	-10655
i	-10656
n	-10657
o	-10658
r	-10659
s	-10660
h	-10661
l	-10662
d	-10663
c	-10664
u	-10665
m	-10666
f	-10667
p	-10668
g	-10669
w	-10670
y	-10671
b	-10672
.	-10673
,	-10674
v	-10675
k	-10676
T	-10677
A	-10678
I	-10679
S	-10680
1	-10681
0	-10682
C	-10683
M	-10684
B	-10685
x	-10686
"	-10687
'	-10688
-	-10689
H	-10690
P	-10691
G	-10692
R	-10693
2	-10694
E	-10695
9	-10696
D	-10697
W	-10698
N	-10699
F	-10700
O	-10701
z	-10702
j	-10703
3	-10704
L	-10705
K	-10706
5	-10707
J	-10708
q	-10709
U	-10710
6	-10711
8	-10712
7	-10713
4	-10714
’	-10715
(	-10716
)	-10717
V	-10718
“	-10719
”	-10720
Y	-10721
:	-10722
%	-10723
;	-10724
?	-10725
£	-10726
Z	-10727
—	-10728
$	-10729
á	-10730
