<unk>	0
<s>	0
</s>	0
th	-0
in	-1
the	-2
an	-3
er	-4
on	-5
re	-6
,_	-7
at	-8
en	-9
ed	-10
st	-11
al	-12
ar	-13
or	-14
of	-15
is	-16
to	-17
it	-18
as	-19
and	-20
ing	-21
es	-22
ou	-23
ic	-24
ion	-25
le	-26
ro	-27
ent	-28
be	-29
il	-30
ch	-31
se	-32
de	-33
ly	-34
ve	-35
ac	-36
co	-37
me	-38
wh	-39
ur	-40
for	-41
ad	-42
ol	-43
un	-44
▁the	-45
he	-46
was	-47
ver	-48
ow	-49
ter	-50
con	-51
ce	-52
ir	-53
ig	-54
id	-55
am	-56
that	-57
pe	-58
mo	-59
wi	-60
are	-61
ab	-62
ay	-63
ut	-64
im	-65
ge	-66
ation	-67
su	-68
ct	-69
with	-70
_1	-71
ne	-72
op	-73
ri	-74
ot	-75
so	-76
by	-77
li	-78
ap	-79
us	-80
ate	-81
ain	-82
ill	-83
em	-84
ha	-85
ld	-86
we	-87
res	-88
ther	-89
di	-90
rom	-91
pl	-92
com	-93
ere	-94
um	-95
ke	-96
ex	-97
ul	-98
art	-99
tr	-100
oun	-101
out	-102
ers	-103
pro	-104
ag	-105
ist	-106
lo	-107
his	-108
from	-109
all	-110
one	-111
po	-112
ear	-113
ment	-114
ant	-115
ast	-116
man	-117
this	-118
te	-119
our	-120
wor	-121
per	-122
have	-123
af	-124
but	-125
ti	-126
ich	-127
cl	-128
sh	-129
igh	-130
were	-131
has	-132
ish	-133
ity	-134
sp	-135
end	-136
▁in	-137
au	-138
ess	-139
ial	-140
ll	-141
si	-142
ies	-143
ong	-144
_2	-145
ma	-146
ts	-147
der	-148
had	-149
ould	-150
ans	-151
ber	-152
not	-153
which	-154
qu	-155
up	-156
her	-157
fe	-158
ard	-159
str	-160
go	-161
br	-162
sa	-163
mar	-164
_19	-165
bl	-166
bo	-167
if	-168
land	-169
year	-170
their	-171
who	-172
du	-173
_20	-174
its	-175
new	-176
ical	-177
pres	-178
do	-179
gr	-180
ia	-181
ous	-182
king	-183
gh	-184
ace	-185
act	-186
can	-187
dis	-188
ated	-189
been	-190
0_	-191
more	-192
gre	-193
also	-194
part	-195
"_	-196
ca	-197
od	-198
cont	-199
ions	-200
wo	-201
ted	-202
after	-203
age	-204
est	-205
inter	-206
ev	-207
iv	-208
ive	-209
ound	-210
they	-211
ure	-212
gu	-213
min	-214
▁it	-215
cent	-216
about	-217
no	-218
ach	-219
ack	-220
pol	-221
will	-222
car	-223
day	-224
por	-225
ok	-226
ud	-227
vi	-228
off	-229
able	-230
comp	-231
time	-232
ary	-233
ice	-234
med	-235
own	-236
ition	-237
would	-238
_"	-239
ine	-240
ally	-241
ance	-242
ight	-243
ough	-244
there	-245
ph	-246
ass	-247
ore	-248
ren	-249
other	-250
fir	-251
mer	-252
mon	-253
two	-254
ip	-255
pr	-256
ta	-257
low	-258
nor	-259
ord	-260
pos	-261
war	-262
first	-263
oc	-264
dur	-265
pre	-266
vel	-267
ence	-268
peop	-269
ction	-270
_(	-271
pu	-272
acc	-273
bet	-274
ian	-275
ory	-276
she	-277
ever	-278
than	-279
during	-280
av	-281
pt	-282
many	-283
ms	-284
my	-285
▁"	-286
ign	-287
ten	-288
ust	-289
ater	-290
most	-291
work	-292
people	-293
et	-294
att	-295
ced	-296
cre	-297
fer	-298
par	-299
like	-300
over	-301
publ	-302
said	-303
under	-304
_3	-305
aw	-306
fr	-307
fin	-308
row	-309
tur	-310
▁he	-311
_201	-312
into	-313
some	-314
when	-315
el	-316
ban	-317
ire	-318
sou	-319
amer	-320
cial	-321
gover	-322
years	-323
cr	-324
eu	-325
00_	-326
how	-327
ict	-328
ild	-329
ors	-330
ved	-331
fl	-332
cur	-333
des	-334
sur	-335
used	-336
vest	-337
ween	-338
▁this	-339
govern	-340
between	-341
ree	-342
ser	-343
coun	-344
fore	-345
ican	-346
only	-347
ef	-348
ep	-349
om	-350
,"_	-351
gan	-352
ger	-353
int	-354
ite	-355
old	-356
reg	-357
spe	-358
arge	-359
ident	-360
world	-361
nation	-362
government	-363
dr	-364
gy	-365
iz	-366
ces	-367
col	-368
ful	-369
gen	-370
ina	-371
euro	-372
ital	-373
last	-374
ting	-375
bu	-376
jo	-377
▁a	-378
air	-379
fil	-380
him	-381
way	-382
cour	-383
ents	-384
hist	-385
ning	-386
play	-387
such	-388
ving	-389
invest	-390
ds	-391
ele	-392
hel	-393
now	-394
pow	-395
sch	-396
sea	-397
tre	-398
tri	-399
city	-400
north	-401
where	-402
._	-403
ble	-404
ens	-405
ile	-406
lin	-407
unt	-408
appe	-409
high	-410
read	-411
public	-412
ci	-413
ck	-414
la	-415
sy	-416
ty	-417
ame	-418
fol	-419
ise	-420
lit	-421
set	-422
ared	-423
ates	-424
comm	-425
dire	-426
eral	-427
ered	-428
form	-429
ious	-430
main	-431
well	-432
▁but	-433
again	-434
could	-435
south	-436
state	-437
ations	-438
national	-439
ek	-440
ew	-441
ho	-442
any	-443
bor	-444
cau	-445
ium	-446
may	-447
nat	-448
put	-449
say	-450
sel	-451
ury	-452
vol	-453
ased	-454
brit	-455
cted	-456
grow	-457
port	-458
stru	-459
turn	-460
devel	-461
while	-462
develop	-463
:_	-464
ade	-465
ang	-466
bur	-467
cle	-468
mor	-469
num	-470
red	-471
thr	-472
vis	-473
back	-474
came	-475
come	-476
incl	-477
ists	-478
took	-479
what	-480
ately	-481
great	-482
place	-483
polit	-484
follow	-485
century	-486
present	-487
ak	-488
ie	-489
ra	-490
”_	-491
app	-492
dec	-493
did	-494
ily	-495
iss	-496
pri	-497
ric	-498
sts	-499
tal	-500
win	-501
cess	-502
help	-503
just	-504
long	-505
sign	-506
stem	-507
ters	-508
them	-509
vers	-510
being	-511
contin	-512
however	-513
,0	-514
_5	-515
bc	-516
ue	-517
cap	-518
clo	-519
don	-520
get	-521
leg	-522
les	-523
ose	-524
rit	-525
sul	-526
val	-527
vot	-528
▁on	-529
both	-530
ific	-531
ited	-532
need	-533
allow	-534
ating	-535
emper	-536
ished	-537
large	-538
power	-539
these	-540
europe	-541
return	-542
system	-543
)_	-544
;_	-545
cy	-546
io	-547
ss	-548
▁i	-549
▁“	-550
_18	-551
bal	-552
cer	-553
dif	-554
ied	-555
kes	-556
olo	-557
pop	-558
sum	-559
tim	-560
tow	-561
tro	-562
ump	-563
ves	-564
you	-565
_200	-566
film	-567
ians	-568
ided	-569
mill	-570
ship	-571
tain	-572
view	-573
cause	-574
china	-575
incre	-576
ister	-577
ities	-578
ments	-579
month	-580
ought	-581
produ	-582
thern	-583
three	-584
until	-585
before	-586
direct	-587
president	-588
."	-589
4_	-590
5_	-591
ib	-592
kn	-593
ob	-594
,”_	-595
2,_	-596
ane	-597
cts	-598
emp	-599
eng	-600
ool	-601
_199	-602
aced	-603
ards	-604
ason	-605
ings	-606
mark	-607
peri	-608
stud	-609
then	-610
ures	-611
vent	-612
very	-613
began	-614
found	-615
lands	-616
popul	-617
quest	-618
sever	-619
ution	-620
ically	-621
school	-622
▁after	-623
against	-624
▁during	-625
-_	-626
19	-627
7_	-628
ft	-629
os	-630
sm	-631
abl	-632
arr	-633
bon	-634
bre	-635
cas	-636
dep	-637
err	-638
ide	-639
ont	-640
see	-641
son	-642
ste	-643
uch	-644
ames	-645
ange	-646
ants	-647
area	-648
cond	-649
decl	-650
each	-651
econ	-652
hand	-653
kill	-654
lead	-655
life	-656
open	-657
pers	-658
tech	-659
,000_	-660
anish	-661
ative	-662
austr	-663
clear	-664
marke	-665
offic	-666
stand	-667
start	-668
accord	-669
around	-670
comple	-671
establ	-672
includ	-673
region	-674
remain	-675
austral	-676
because	-677
million	-678
several	-679
through	-680
▁however	-681
%_	-682
'_	-683
1_	-684
je	-685
ls	-686
lu	-687
ru	-688
ys	-689
0,_	-690
add	-691
ale	-692
als	-693
amp	-694
bus	-695
cri	-696
fri	-697
fur	-698
jor	-699
led	-700
ood	-701
ped	-702
sin	-703
sol	-704
suc	-705
ton	-706
try	-707
whe	-708
wit	-709
▁as	-710
ages	-711
alth	-712
arch	-713
beli	-714
char	-715
indi	-716
line	-717
made	-718
mber	-719
much	-720
octo	-721
says	-722
self	-723
west	-724
child	-725
every	-726
ility	-727
major	-728
ology	-729
posed	-730
prote	-731
resul	-732
trans	-733
treat	-734
americ	-735
appear	-736
became	-737
police	-738
british	-739
history	-740
october	-741
american	-742
political	-743
).	-744
az	-745
dy	-746
ps	-747
ath	-748
ese	-749
fam	-750
giv	-751
hit	-752
hum	-753
imp	-754
ind	-755
isl	-756
loc	-757
rel	-758
sit	-759
_191	-760
army	-761
bank	-762
cord	-763
east	-764
head	-765
less	-766
lled	-767
pass	-768
rece	-769
rele	-770
serv	-771
show	-772
side	-773
stop	-774
take	-775
told	-776
ussi	-777
week	-778
atter	-779
known	-780
ready	-781
repor	-782
trump	-783
water	-784
course	-785
depend	-786
differ	-787
ential	-788
friend	-789
histor	-790
▁there	-791
allowed	-792
general	-793
without	-794
according	-795
_£	-796
ry	-797
ail	-798
aim	-799
ann	-800
ata	-801
ave	-802
big	-803
bro	-804
civ	-805
cul	-806
def	-807
equ	-808
ern	-809
ext	-810
far	-811
ism	-812
lan	-813
law	-814
men	-815
mid	-816
mus	-817
ner	-818
ney	-819
pon	-820
sco	-821
sub	-822
uni	-823
use	-824
ven	-825
▁at	-826
▁by	-827
abor	-828
agre	-829
best	-830
bill	-831
clim	-832
even	-833
face	-834
four	-835
ived	-836
mean	-837
name	-838
post	-839
ress	-840
rich	-841
ross	-842
sive	-843
▁she	-844
anean	-845
ather	-846
build	-847
civil	-848
domin	-849
event	-850
iterr	-851
later	-852
level	-853
party	-854
right	-855
russi	-856
since	-857
still	-858
techn	-859
those	-860
ually	-861
change	-862
curren	-863
likely	-864
number	-865
partic	-866
period	-867
recent	-868
record	-869
second	-870
social	-871
winter	-872
already	-873
company	-874
further	-875
increas	-876
success	-877
election	-878
mediterr	-879
released	-880
mediterranean	-881
".	-882
gl	-883
sl	-884
uk	-885
),_	-886
6,_	-887
anu	-888
blo	-889
cup	-890
cut	-891
del	-892
due	-893
gin	-894
har	-895
ilt	-896
ink	-897
ken	-898
let	-899
lim	-900
mil	-901
nex	-902
pur	-903
rad	-904
roy	-905
rul	-906
six	-907
tic	-908
ude	-909
une	-910
var	-911
why	-912
atch	-913
aver	-914
batt	-915
book	-916
call	-917
chin	-918
cons	-919
data	-920
expe	-921
expl	-922
free	-923
gest	-924
good	-925
ides	-926
igin	-927
ised	-928
keep	-929
left	-930
ones	-931
ried	-932
stic	-933
thir	-934
▁for	-935
appro	-936
ature	-937
claim	-938
colon	-939
contr	-940
cover	-941
ement	-942
iness	-943
often	-944
ously	-945
river	-946
thing	-947
times	-948
▁with	-949
compan	-950
econom	-951
ground	-952
market	-953
respon	-954
states	-955
summer	-956
worked	-957
average	-958
spanish	-959
.”	-960
_8	-961
ai	-962
hy	-963
ij	-964
ju	-965
uc	-966
vo	-967
1,_	-968
apr	-969
aul	-970
bar	-971
deb	-972
fed	-973
fre	-974
ged	-975
glo	-976
inc	-977
ked	-978
met	-979
nic	-980
oce	-981
ort	-982
rop	-983
sal	-984
sci	-985
sug	-986
sup	-987
tle	-988
ual	-989
won	-990
bell	-991
bers	-992
care	-993
chri	-994
cing	-995
dern	-996
does	-997
draw	-998
gree	-999
hard	-1000
indu	-1001
issu	-1002
late	-1003
lied	-1004
make	-1005
miss	-1006
next	-1007
oper	-1008
ount	-1009
prov	-1010
real	-1011
redu	-1012
same	-1013
song	-1014
stit	-1015
stri	-1016
tion	-1017
ured	-1018
writ	-1019
▁and	-1020
ained	-1021
april	-1022
confl	-1023
early	-1024
ences	-1025
front	-1026
gener	-1027
given	-1028
ights	-1029
least	-1030
natur	-1031
possi	-1032
ption	-1033
reach	-1034
revol	-1035
small	-1036
study	-1037
trade	-1038
▁that	-1039
▁they	-1040
access	-1041
bility	-1042
commun	-1043
contro	-1044
france	-1045
german	-1046
growth	-1047
modern	-1048
months	-1049
origin	-1050
reason	-1051
united	-1052
america	-1053
current	-1054
decided	-1055
emperor	-1056
ificant	-1057
ization	-1058
univers	-1059
vention	-1060
whether	-1061
business	-1062
complete	-1063
conflict	-1064
independ	-1065
investig	-1066
minister	-1067
received	-1068
republic	-1069
southern	-1070
agreement	-1071
following	-1072
including	-1073
presented	-1074
struction	-1075
population	-1076
▁according	-1077
development	-1078
significant	-1079
3_	-1080
5.	-1081
60	-1082
6_	-1083
7.	-1084
8_	-1085
_'	-1086
_“	-1087
▁l	-1088
▁m	-1089
_-_	-1090
_10	-1091
_16	-1092
adv	-1093
ama	-1094
amb	-1095
bed	-1096
bum	-1097
cil	-1098
dar	-1099
egy	-1100
ery	-1101
exp	-1102
fic	-1103
flo	-1104
flu	-1105
hab	-1106
ham	-1107
hor	-1108
ino	-1109
mal	-1110
pay	-1111
pet	-1112
pho	-1113
pot	-1114
run	-1115
sec	-1116
sun	-1117
top	-1118
ute	-1119
wal	-1120
xim	-1121
_197	-1122
acti	-1123
ains	-1124
atic	-1125
augh	-1126
augu	-1127
ched	-1128
chur	-1129
date	-1130
days	-1131
dest	-1132
educ	-1133
effe	-1134
ency	-1135
fact	-1136
fall	-1137
find	-1138
fort	-1139
fran	-1140
grap	-1141
hong	-1142
ices	-1143
inte	-1144
iron	-1145
janu	-1146
jour	-1147
kong	-1148
lect	-1149
mone	-1150
news	-1151
ours	-1152
ouse	-1153
plan	-1154
reco	-1155
rese	-1156
ring	-1157
seem	-1158
seph	-1159
spec	-1160
stor	-1161
tail	-1162
town	-1163
trad	-1164
ular	-1165
vict	-1166
vote	-1167
ways	-1168
wife	-1169
alban	-1170
along	-1171
ament	-1172
among	-1173
begin	-1174
built	-1175
carib	-1176
court	-1177
cross	-1178
earli	-1179
earth	-1180
elect	-1181
euros	-1182
films	-1183
games	-1184
greek	-1185
human	-1186
italy	-1187
liter	-1188
maced	-1189
milit	-1190
press	-1191
refer	-1192
roman	-1193
targe	-1194
tries	-1195
using	-1196
aining	-1197
august	-1198
battle	-1199
become	-1200
border	-1201
church	-1202
consid	-1203
empire	-1204
ending	-1205
family	-1206
formed	-1207
having	-1208
health	-1209
island	-1210
little	-1211
minist	-1212
needed	-1213
person	-1214
rather	-1215
russia	-1216
treaty	-1217
vision	-1218
voting	-1219
capital	-1220
chinese	-1221
climate	-1222
continu	-1223
country	-1224
january	-1225
macedon	-1226
working	-1227
building	-1228
children	-1229
declared	-1230
economic	-1231
european	-1232
northern	-1233
official	-1234
reported	-1235
companies	-1236
countries	-1237
different	-1238
investors	-1239
tradition	-1240
considered	-1241
revolution	-1242
established	-1243
international	-1244
20	-1245
2_	-1246
3.	-1247
_-	-1248
_4	-1249
ae	-1250
ao	-1251
hn	-1252
hu	-1253
ii	-1254
ki	-1255
sc	-1256
wa	-1257
ze	-1258
▁c	-1259
_14	-1260
_15	-1261
ago	-1262
aps	-1263
ash	-1264
bel	-1265
bin	-1266
cum	-1267
dem	-1268
den	-1269
div	-1270
dle	-1271
eas	-1272
eds	-1273
few	-1274
fie	-1275
fun	-1276
gir	-1277
got	-1278
igr	-1279
inv	-1280
lun	-1281
net	-1282
ots	-1283
pal	-1284
pen	-1285
pic	-1286
plo	-1287
ris	-1288
ron	-1289
sen	-1290
spo	-1291
stu	-1292
tar	-1293
tor	-1294
xic	-1295
zer	-1296
▁an	-1297
▁to	-1298
_198	-1299
acts	-1300
anim	-1301
aren	-1302
asia	-1303
asse	-1304
audi	-1305
bean	-1306
body	-1307
coll	-1308
crit	-1309
cust	-1310
dece	-1311
demo	-1312
died	-1313
disc	-1314
down	-1315
fire	-1316
food	-1317
fren	-1318
gold	-1319
hill	-1320
home	-1321
ives	-1322
ized	-1323
june	-1324
look	-1325
meet	-1326
near	-1327
otto	-1328
priv	-1329
prom	-1330
rate	-1331
remo	-1332
rica	-1333
rise	-1334
seen	-1335
sour	-1336
star	-1337
sure	-1338
ties	-1339
vide	-1340
wide	-1341
ying	-1342
youn	-1343
▁its	-1344
aring	-1345
chall	-1346
chang	-1347
clint	-1348
coast	-1349
conne	-1350
conqu	-1351
distr	-1352
ember	-1353
ended	-1354
enter	-1355
exper	-1356
field	-1357
guide	-1358
influ	-1359
invol	-1360
ision	-1361
iting	-1362
langu	-1363
liber	-1364
light	-1365
lines	-1366
occup	-1367
ocean	-1368
paris	-1369
parts	-1370
peace	-1371
point	-1372
separ	-1373
sites	-1374
skill	-1375
stead	-1376
think	-1377
▁from	-1378
action	-1379
africa	-1380
almost	-1381
always	-1382
believ	-1383
called	-1384
coming	-1385
concer	-1386
former	-1387
french	-1388
ishing	-1389
joseph	-1390
limits	-1391
living	-1392
middle	-1393
mother	-1394
played	-1395
powers	-1396
result	-1397
rights	-1398
should	-1399
temper	-1400
territ	-1401
within	-1402
albania	-1403
britain	-1404
brought	-1405
claimed	-1406
clinton	-1407
command	-1408
council	-1409
earlier	-1410
federal	-1411
ottoman	-1412
percent	-1413
thought	-1414
various	-1415
followed	-1416
interest	-1417
majority	-1418
position	-1419
remained	-1420
responsi	-1421
returned	-1422
students	-1423
australia	-1424
caribbean	-1425
developed	-1426
formation	-1427
meanwhile	-1428
australian	-1429
completely	-1430
eventually	-1431
technology	-1432
throughout	-1433
university	-1434
1.	-1435
_6	-1436
_9	-1437
ba	-1438
ff	-1439
ga	-1440
gn	-1441
na	-1442
pi	-1443
py	-1444
ua	-1445
▁w	-1446
3,_	-1447
:_"	-1448
_13	-1449
abo	-1450
ald	-1451
alp	-1452
ats	-1453
avi	-1454
bad	-1455
ben	-1456
bly	-1457
cha	-1458
die	-1459
dre	-1460
ety	-1461
exe	-1462
hal	-1463
hop	-1464
iii	-1465
imm	-1466
jap	-1467
ker	-1468
ler	-1469
ley	-1470
ned	-1471
ock	-1472
oes	-1473
ons	-1474
ops	-1475
ori	-1476
pti	-1477
que	-1478
roc	-1479
rup	-1480
sam	-1481
san	-1482
sar	-1483
sat	-1484
sha	-1485
tit	-1486
too	-1487
tra	-1488
tum	-1489
usu	-1490
wro	-1491
yet	-1492
▁we	-1493
_--_	-1494
aces	-1495
ades	-1496
alli	-1497
alys	-1498
answ	-1499
aret	-1500
ario	-1501
asty	-1502
ator	-1503
away	-1504
beij	-1505
born	-1506
camp	-1507
cape	-1508
cell	-1509
conf	-1510
cost	-1511
deep	-1512
dies	-1513
drop	-1514
emen	-1515
emer	-1516
enem	-1517
fied	-1518
fill	-1519
five	-1520
game	-1521
geor	-1522
here	-1523
ired	-1524
john	-1525
july	-1526
know	-1527
lack	-1528
leav	-1529
male	-1530
meas	-1531
mong	-1532
nove	-1533
olic	-1534
past	-1535
ploy	-1536
qing	-1537
rain	-1538
rend	-1539
rest	-1540
seas	-1541
sent	-1542
sept	-1543
shen	-1544
sing	-1545
spot	-1546
stre	-1547
stry	-1548
term	-1549
toge	-1550
tool	-1551
want	-1552
ward	-1553
went	-1554
your	-1555
▁her	-1556
▁one	-1557
above	-1558
album	-1559
alone	-1560
alter	-1561
ances	-1562
atory	-1563
based	-1564
board	-1565
bonds	-1566
canad	-1567
ctive	-1568
cture	-1569
daugh	-1570
death	-1571
deser	-1572
ently	-1573
estim	-1574
finan	-1575
force	-1576
habit	-1577
iding	-1578
islam	-1579
japan	-1580
leave	-1581
local	-1582
lower	-1583
lying	-1584
makes	-1585
metro	-1586
might	-1587
money	-1588
moved	-1589
oking	-1590
onium	-1591
organ	-1592
photo	-1593
relig	-1594
royed	-1595
short	-1596
shown	-1597
space	-1598
spent	-1599
stone	-1600
stood	-1601
suspe	-1602
taken	-1603
teach	-1604
terms	-1605
third	-1606
total	-1607
union	-1608
whose	-1609
wrote	-1610
young	-1611
artist	-1612
attern	-1613
christ	-1614
cities	-1615
commer	-1616
ctions	-1617
democr	-1618
depart	-1619
descri	-1620
design	-1621
disney	-1622
donald	-1623
entire	-1624
events	-1625
execut	-1626
forced	-1627
forces	-1628
forman	-1629
global	-1630
greece	-1631
iction	-1632
import	-1633
instit	-1634
itions	-1635
legisl	-1636
longer	-1637
making	-1638
mongol	-1639
office	-1640
placed	-1641
proble	-1642
proper	-1643
review	-1644
scient	-1645
season	-1646
selves	-1647
signed	-1648
spring	-1649
tained	-1650
tumour	-1651
another	-1652
beijing	-1653
brother	-1654
certain	-1655
conserv	-1656
covered	-1657
eastern	-1658
effects	-1659
getting	-1660
greater	-1661
include	-1662
islands	-1663
married	-1664
natural	-1665
numbers	-1666
outside	-1667
pattern	-1668
playing	-1669
someone	-1670
special	-1671
started	-1672
suggest	-1673
written	-1674
addition	-1675
administ	-1676
although	-1677
appeared	-1678
audience	-1679
cloister	-1680
continue	-1681
contract	-1682
director	-1683
electric	-1684
internet	-1685
military	-1686
november	-1687
polonium	-1688
possible	-1689
research	-1690
resulted	-1691
together	-1692
beginning	-1693
destroyed	-1694
interview	-1695
performan	-1696
questions	-1697
september	-1698
commercial	-1699
convention	-1700
historical	-1701
macedonian	-1702
particular	-1703
themselves	-1704
transition	-1705
destruction	-1706
information	-1707
represented	-1708
10	-1709
2.	-1710
30	-1711
4.	-1712
77	-1713
bn	-1714
bs	-1715
ee	-1716
ei	-1717
ks	-1718
mi	-1719
rh	-1720
sw	-1721
án	-1722
—_	-1723
5,_	-1724
9,_	-1725
:_“	-1726
_1_	-1727
aff	-1728
ali	-1729
aoh	-1730
arm	-1731
arn	-1732
ars	-1733
ato	-1734
aut	-1735
bab	-1736
bbc	-1737
bir	-1738
bog	-1739
bri	-1740
bud	-1741
cat	-1742
cep	-1743
che	-1744
cop	-1745
cor	-1746
dan	-1747
dav	-1748
ded	-1749
dyn	-1750
era	-1751
eth	-1752
fav	-1753
fit	-1754
fut	-1755
gar	-1756
gol	-1757
hen	-1758
hib	-1759
hun	-1760
ior	-1761
jud	-1762
key	-1763
kil	-1764
lev	-1765
lym	-1766
mem	-1767
mit	-1768
mur	-1769
nal	-1770
odi	-1771
ole	-1772
omy	-1773
ork	-1774
oup	-1775
pan	-1776
pap	-1777
pil	-1778
pun	-1779
raf	-1780
ref	-1781
saf	-1782
sed	-1783
sim	-1784
sty	-1785
tes	-1786
tex	-1787
ush	-1788
yer	-1789
zed	-1790
▁re	-1791
▁th	-1792
_(19	-1793
_10_	-1794
_149	-1795
_188	-1796
acha	-1797
aged	-1798
ague	-1799
aign	-1800
ails	-1801
aint	-1802
alle	-1803
ansp	-1804
assi	-1805
asso	-1806
athe	-1807
ault	-1808
auth	-1809
avia	-1810
berg	-1811
bris	-1812
burg	-1813
cand	-1814
case	-1815
cast	-1816
cele	-1817
cept	-1818
chat	-1819
coal	-1820
cult	-1821
deal	-1822
defe	-1823
desp	-1824
didn	-1825
dist	-1826
dome	-1827
ener	-1828
enro	-1829
epis	-1830
espe	-1831
evir	-1832
fell	-1833
flow	-1834
full	-1835
girl	-1836
golf	-1837
grew	-1838
haps	-1839
held	-1840
hold	-1841
igen	-1842
itar	-1843
ject	-1844
kans	-1845
kers	-1846
kish	-1847
kore	-1848
laun	-1849
list	-1850
lord	-1851
love	-1852
lung	-1853
mart	-1854
medi	-1855
mess	-1856
moon	-1857
moun	-1858
must	-1859
olym	-1860
once	-1861
park	-1862
phar	-1863
ples	-1864
poin	-1865
pose	-1866
prim	-1867
prin	-1868
quar	-1869
race	-1870
rodu	-1871
rome	-1872
rona	-1873
rout	-1874
ruin	-1875
sail	-1876
send	-1877
sequ	-1878
sess	-1879
sett	-1880
sion	-1881
sold	-1882
soon	-1883
step	-1884
ster	-1885
swit	-1886
teen	-1887
tele	-1888
tell	-1889
thre	-1890
twit	-1891
upon	-1892
vill	-1893
wash	-1894
wind	-1895
york	-1896
▁two	-1897
_1960	-1898
acked	-1899
adver	-1900
aging	-1901
ality	-1902
alpha	-1903
armed	-1904
artph	-1905
assad	-1906
birth	-1907
blunt	-1908
bound	-1909
brand	-1910
brief	-1911
camer	-1912
champ	-1913
class	-1914
close	-1915
drama	-1916
enced	-1917
ented	-1918
equip	-1919
esday	-1920
exten	-1921
ferty	-1922
final	-1923
grand	-1924
graph	-1925
grown	-1926
heart	-1927
helps	-1928
hitch	-1929
hours	-1930
house	-1931
ified	-1932
issue	-1933
kesha	-1934
labor	-1935
legal	-1936
lived	-1937
mater	-1938
media	-1939
mexic	-1940
music	-1941
needs	-1942
never	-1943
occur	-1944
offer	-1945
ondon	-1946
opium	-1947
order	-1948
ounts	-1949
plant	-1950
ports	-1951
posts	-1952
pract	-1953
prior	-1954
ptian	-1955
pursu	-1956
resol	-1957
respe	-1958
ribut	-1959
rican	-1960
round	-1961
royal	-1962
saint	-1963
schol	-1964
secur	-1965
seems	-1966
seven	-1967
spain	-1968
speak	-1969
starr	-1970
story	-1971
surve	-1972
tried	-1973
tural	-1974
ultim	-1975
urban	-1976
watch	-1977
women	-1978
worst	-1979
worth	-1980
▁more	-1981
▁when	-1982
5,000_	-1983
active	-1984
agency	-1985
agents	-1986
alysis	-1987
announ	-1988
assist	-1989
associ	-1990
attend	-1991
better	-1992
candid	-1993
carbon	-1994
career	-1995
cepted	-1996
chance	-1997
charac	-1998
cially	-1999
common	-2000
create	-2001
critic	-2002
custom	-2003
danish	-2004
debate	-2005
demand	-2006
discus	-2007
either	-2008
emenid	-2009
employ	-2010
ention	-2011
estate	-2012
evirke	-2013
expect	-2014
experi	-2015
higher	-2016
icians	-2017
idence	-2018
ighted	-2019
immigr	-2020
indian	-2021
inking	-2022
killed	-2023
latest	-2024
levels	-2025
native	-2026
nature	-2027
opened	-2028
others	-2029
rebell	-2030
recogn	-2031
remark	-2032
senate	-2033
series	-2034
specif	-2035
spokes	-2036
strong	-2037
taking	-2038
target	-2039
transp	-2040
troops	-2041
▁these	-2042
account	-2043
actions	-2044
agement	-2045
biggest	-2046
charged	-2047
content	-2048
defence	-2049
despite	-2050
display	-2051
dynasty	-2052
economy	-2053
fiction	-2054
foreign	-2055
forward	-2056
friends	-2057
fulfill	-2058
germany	-2059
growing	-2060
habitat	-2061
helping	-2062
himself	-2063
igenous	-2064
introdu	-2065
journey	-2066
largely	-2067
looking	-2068
markets	-2069
moravia	-2070
morning	-2071
olympic	-2072
ontario	-2073
paralle	-2074
passing	-2075
perhaps	-2076
pharaoh	-2077
portion	-2078
private	-2079
regions	-2080
request	-2081
richard	-2082
smartph	-2083
station	-2084
stories	-2085
surface	-2086
systems	-2087
towards	-2088
usually	-2089
version	-2090
victory	-2091
weather	-2092
western	-2093
workers	-2094
actually	-2095
ambassad	-2096
campaign	-2097
canadian	-2098
challeng	-2099
champion	-2100
daughter	-2101
december	-2102
decision	-2103
defeated	-2104
directed	-2105
domestic	-2106
dominant	-2107
egyptian	-2108
industry	-2109
language	-2110
launched	-2111
material	-2112
mongolia	-2113
officers	-2114
pressure	-2115
problems	-2116
publican	-2117
rafferty	-2118
standing	-2119
starring	-2120
withdraw	-2121
administr	-2122
assistant	-2123
christian	-2124
conquered	-2125
continent	-2126
contribut	-2127
danevirke	-2128
described	-2129
education	-2130
essential	-2131
establish	-2132
financial	-2133
important	-2134
increases	-2135
published	-2136
rebellion	-2137
religious	-2138
sometimes	-2139
territory	-2140
achaemenid	-2141
appearance	-2142
businesses	-2143
department	-2144
especially	-2145
indigenous	-2146
successful	-2147
ultimately	-2148
▁meanwhile	-2149
performance	-2150
independence	-2151
specifically	-2152
responsibility	-2153
..	-2154
12	-2155
16	-2156
18	-2157
50	-2158
9.	-2159
9_	-2160
_7	-2161
cn	-2162
cu	-2163
fi	-2164
gg	-2165
hi	-2166
ka	-2167
kr	-2168
mr	-2169
pa	-2170
rd	-2171
tt	-2172
tu	-2173
ug	-2174
wr	-2175
zá	-2176
%,_	-2177
,00	-2178
,_"	-2179
-19	-2180
0%_	-2181
4,_	-2182
60_	-2183
7,_	-2184
8,_	-2185
_1,	-2186
_12	-2187
_33	-2188
_—_	-2189
aan	-2190
abb	-2191
acy	-2192
aly	-2193
aud	-2194
avy	-2195
bas	-2196
bby	-2197
bot	-2198
boy	-2199
bru	-2200
bul	-2201
cal	-2202
cel	-2203
cen	-2204
chi	-2205
cin	-2206
cis	-2207
cit	-2208
cnn	-2209
cot	-2210
dig	-2211
dio	-2212
dit	-2213
dol	-2214
ena	-2215
env	-2216
eve	-2217
fem	-2218
ffy	-2219
fig	-2220
gel	-2221
ges	-2222
gon	-2223
gri	-2224
han	-2225
hol	-2226
hon	-2227
hot	-2228
ick	-2229
ics	-2230
iff	-2231
ify	-2232
ima	-2233
iot	-2234
isn	-2235
ius	-2236
jas	-2237
jes	-2238
jew	-2239
ket	-2240
kha	-2241
lab	-2242
lad	-2243
lar	-2244
lat	-2245
log	-2246
los	-2247
lot	-2248
lov	-2249
mad	-2250
mbl	-2251
moj	-2252
mps	-2253
mul	-2254
nam	-2255
nap	-2256
nut	-2257
oft	-2258
ost	-2259
pac	-2260
pig	-2261
pom	-2262
pup	-2263
ral	-2264
ram	-2265
ror	-2266
ros	-2267
sil	-2268
suf	-2269
tel	-2270
tis	-2271
uck	-2272
urs	-2273
usa	-2274
vid	-2275
vig	-2276
wat	-2277
▁do	-2278
▁if	-2279
_177	-2280
_192	-2281
_194	-2282
_3%_	-2283
_50_	-2284
ably	-2285
acks	-2286
agal	-2287
akia	-2288
aled	-2289
alps	-2290
amaz	-2291
amin	-2292
anch	-2293
anci	-2294
apid	-2295
apse	-2296
argu	-2297
arri	-2298
assu	-2299
auty	-2300
band	-2301
bane	-2302
bass	-2303
beha	-2304
bogd	-2305
capt	-2306
card	-2307
cath	-2308
cide	-2309
clou	-2310
cock	-2311
comb	-2312
coup	-2313
cret	-2314
dead	-2315
ding	-2316
done	-2317
easy	-2318
empt	-2319
enjo	-2320
exam	-2321
exce	-2322
feel	-2323
fine	-2324
ford	-2325
gard	-2326
glas	-2327
grad	-2328
gram	-2329
gres	-2330
grou	-2331
guys	-2332
half	-2333
happ	-2334
hope	-2335
hosp	-2336
icip	-2337
icts	-2338
iday	-2339
idea	-2340
ilar	-2341
ilip	-2342
ille	-2343
illy	-2344
imag	-2345
inea	-2346
init	-2347
inqu	-2348
kipl	-2349
labe	-2350
lest	-2351
luck	-2352
mail	-2353
marg	-2354
mass	-2355
maya	-2356
mind	-2357
mine	-2358
ming	-2359
mose	-2360
nine	-2361
note	-2362
obvi	-2363
oked	-2364
olog	-2365
onio	-2366
opin	-2367
ores	-2368
ouch	-2369
pain	-2370
pair	-2371
paul	-2372
phen	-2373
pict	-2374
ping	-2375
prof	-2376
push	-2377
rail	-2378
rare	-2379
reli	-2380
reve	-2381
ries	-2382
role	-2383
roma	-2384
rule	-2385
rupt	-2386
scri	-2387
sell	-2388
shot	-2389
simp	-2390
site	-2391
situ	-2392
stat	-2393
susp	-2394
swed	-2395
tect	-2396
test	-2397
text	-2398
thes	-2399
thom	-2400
thut	-2401
tour	-2402
trou	-2403
uals	-2404
uber	-2405
unit	-2406
utes	-2407
vari	-2408
wall	-2409
wood	-2410
▁his	-2411
▁not	-2412
_100_	-2413
acing	-2414
agent	-2415
agric	-2416
aking	-2417
alarm	-2418
alive	-2419
ample	-2420
andes	-2421
apart	-2422
areas	-2423
arent	-2424
athen	-2425
benef	-2426
blame	-2427
blood	-2428
books	-2429
break	-2430
bring	-2431
broke	-2432
canal	-2433
carol	-2434
casus	-2435
ceded	-2436
chape	-2437
chief	-2438
chose	-2439
cinem	-2440
colle	-2441
colum	-2442
comed	-2443
comes	-2444
consu	-2445
costs	-2446
curie	-2447
cycle	-2448
david	-2449
defin	-2450
demon	-2451
doesn	-2452
dress	-2453
egypt	-2454
eight	-2455
enses	-2456
esses	-2457
exact	-2458
exist	-2459
exped	-2460
extre	-2461
famil	-2462
fault	-2463
fight	-2464
freed	-2465
frequ	-2466
funds	-2467
gests	-2468
grade	-2469
grain	-2470
guard	-2471
hands	-2472
henry	-2473
herod	-2474
hills	-2475
hopes	-2476
ially	-2477
illes	-2478
incip	-2479
india	-2480
intel	-2481
inten	-2482
itive	-2483
jects	-2484
khaan	-2485
kings	-2486
lobby	-2487
march	-2488
maxim	-2489
means	-2490
model	-2491
mount	-2492
multi	-2493
names	-2494
nicol	-2495
nings	-2496
oscar	-2497
papua	-2498
plane	-2499
plans	-2500
price	-2501
promo	-2502
regre	-2503
reput	-2504
ruler	-2505
rules	-2506
seeds	-2507
shows	-2508
sized	-2509
solve	-2510
stage	-2511
stant	-2512
super	-2513
surpr	-2514
throw	-2515
title	-2516
trend	-2517
trial	-2518
unity	-2519
vague	-2520
video	-2521
vings	-2522
voice	-2523
wards	-2524
weeks	-2525
whate	-2526
wheel	-2527
white	-2528
witch	-2529
woman	-2530
words	-2531
works	-2532
▁four	-2533
▁like	-2534
▁only	-2535
▁what	-2536
_2014.	-2537
across	-2538
advant	-2539
affair	-2540
allies	-2541
appeal	-2542
atives	-2543
atures	-2544
austri	-2545
author	-2546
beauty	-2547
behavi	-2548
belief	-2549
belong	-2550
borrow	-2551
caused	-2552
celebr	-2553
classi	-2554
clouds	-2555
combin	-2556
consul	-2557
cotton	-2558
deeply	-2559
desert	-2560
desire	-2561
detail	-2562
diesel	-2563
disput	-2564
distin	-2565
emails	-2566
encour	-2567
energy	-2568
entino	-2569
ethnic	-2570
father	-2571
future	-2572
gained	-2573
garden	-2574
george	-2575
graphy	-2576
groups	-2577
guinea	-2578
immedi	-2579
impact	-2580
income	-2581
ington	-2582
integr	-2583
ishima	-2584
ission	-2585
issues	-2586
itself	-2587
korean	-2588
lasted	-2589
latter	-2590
london	-2591
looked	-2592
mainly	-2593
makers	-2594
member	-2595
mental	-2596
meters	-2597
mexico	-2598
murder	-2599
nether	-2600
option	-2601
orders	-2602
orship	-2603
parade	-2604
philip	-2605
phones	-2606
plants	-2607
prefer	-2608
primar	-2609
prompt	-2610
provis	-2611
render	-2612
report	-2613
repres	-2614
rivers	-2615
seagal	-2616
secret	-2617
secure	-2618
seeing	-2619
served	-2620
shared	-2621
skills	-2622
source	-2623
spread	-2624
stated	-2625
storms	-2626
street	-2627
strial	-2628
sunday	-2629
suppor	-2630
tariff	-2631
terror	-2632
things	-2633
thirty	-2634
thouse	-2635
thrace	-2636
threat	-2637
travel	-2638
trying	-2639
utions	-2640
volcan	-2641
wanted	-2642
waters	-2643
wonder	-2644
▁first	-2645
▁since	-2646
▁their	-2647
_1492,_	-2648
ability	-2649
african	-2650
agricul	-2651
ancient	-2652
animals	-2653
answers	-2654
antonio	-2655
appears	-2656
applied	-2657
artists	-2658
believe	-2659
briefly	-2660
central	-2661
changed	-2662
clearly	-2663
comfort	-2664
concern	-2665
constit	-2666
constru	-2667
contact	-2668
control	-2669
created	-2670
decline	-2671
digital	-2672
divided	-2673
dropped	-2674
element	-2675
enemies	-2676
england	-2677
environ	-2678
example	-2679
exposed	-2680
express	-2681
extreme	-2682
feature	-2683
finally	-2684
founded	-2685
graphic	-2686
iceland	-2687
igation	-2688
incredi	-2689
individ	-2690
islamic	-2691
itation	-2692
jasmine	-2693
journal	-2694
kipling	-2695
leaving	-2696
legally	-2697
located	-2698
lovakia	-2699
maximum	-2700
meaning	-2701
members	-2702
mission	-2703
musical	-2704
nations	-2705
pacific	-2706
parties	-2707
peoples	-2708
politan	-2709
popular	-2710
prevent	-2711
princip	-2712
process	-2713
produce	-2714
program	-2715
provide	-2716
purpose	-2717
refused	-2718
remains	-2719
reports	-2720
russian	-2721
science	-2722
section	-2723
service	-2724
settled	-2725
similar	-2726
sources	-2727
starred	-2728
stephen	-2729
stopher	-2730
subject	-2731
suspect	-2732
switzer	-2733
tallest	-2734
tuesday	-2735
turkish	-2736
twitter	-2737
unclear	-2738
visited	-2739
wearing	-2740
winning	-2741
▁having	-2742
▁invest	-2743
▁wright	-2744
accepted	-2745
accounts	-2746
advertis	-2747
alphabet	-2748
approxim	-2749
aviation	-2750
bankrupt	-2751
brisbane	-2752
carolina	-2753
catholic	-2754
caucasus	-2755
collabor	-2756
colonies	-2757
columbus	-2758
comments	-2759
composed	-2760
consumer	-2761
contains	-2762
contrace	-2763
covering	-2764
demonstr	-2765
dissolve	-2766
district	-2767
gressive	-2768
historic	-2769
hospital	-2770
included	-2771
increase	-2772
interior	-2773
involved	-2774
involves	-2775
isations	-2776
japanese	-2777
landmark	-2778
margaret	-2779
mountain	-2780
parallel	-2781
petition	-2782
produced	-2783
quarters	-2784
question	-2785
reducing	-2786
revealed	-2787
rounding	-2788
scholars	-2789
security	-2790
spending	-2791
starting	-2792
suggests	-2793
thinking	-2794
thutmose	-2795
training	-2796
transpor	-2797
whatever	-2798
winstone	-2799
▁despite	-2800
announced	-2801
continued	-2802
criticism	-2803
currently	-2804
customers	-2805
districts	-2806
estimated	-2807
hitchcock	-2808
influence	-2809
initially	-2810
institute	-2811
intellect	-2812
naturally	-2813
particles	-2814
potential	-2815
remaining	-2816
represent	-2817
spokesman	-2818
surrender	-2819
valentino	-2820
workplace	-2821
worldwide	-2822
▁although	-2823
challenges	-2824
commission	-2825
controlled	-2826
experience	-2827
increasing	-2828
industrial	-2829
introduced	-2830
literature	-2831
proclaimed	-2832
protection	-2833
provisions	-2834
represents	-2835
republican	-2836
reputation	-2837
scientists	-2838
smartphone	-2839
understood	-2840
washington	-2841
association	-2842
christopher	-2843
differences	-2844
grandmother	-2845
immediately	-2846
independent	-2847
investments	-2848
legislation	-2849
netherlands	-2850
recognition	-2851
surrounding	-2852
switzerland	-2853
traditional	-2854
agricultural	-2855
developments	-2856
intervention	-2857
metropolitan	-2858
particularly	-2859
approximately	-2860
investigating	-2861
%.	-2862
'.	-2863
-£	-2864
5-	-2865
ax	-2866
da	-2867
fu	-2868
ik	-2869
ky	-2870
ny	-2871
og	-2872
tv	-2873
ub	-2874
yn	-2875
yu	-2876
”.	-2877
▁b	-2878
▁f	-2879
▁s	-2880
▁v	-2881
"_(	-2882
,_'	-2883
200	-2884
201	-2885
_..	-2886
_3_	-2887
_60	-2888
acu	-2889
ado	-2890
ami	-2891
ano	-2892
apu	-2893
aro	-2894
asc	-2895
ati	-2896
avo	-2897
aya	-2898
bey	-2899
94	-2900
ez	-2901
lt	-2902
mc	-2903
vw	-2904
ya	-2905
33_	-2906
_£3	-2907
cab	-2908
chu	-2909
chy	-2910
cir	-2911
cks	-2912
cod	-2913
cze	-2914
dev	-2915
eco	-2916
fle	-2917
foc	-2918
fro	-2919
gow	-2920
goy	-2921
hyd	-2922
ica	-2923
icy	-2924
ida	-2925
iji	-2926
ils	-2927
ime	-2928
inj	-2929
inn	-2930
ira	-2931
ita	-2932
jer	-2933
jim	-2934
jol	-2935
kle	-2936
kri	-2937
las	-2938
lax	-2939
lay	-2940
lia	-2941
mat	-2942
meg	-2943
mic	-2944
mos	-2945
mun	-2946
nan	-2947
nes	-2948
non	-2949
oms	-2950
ono	-2951
orn	-2952
ouf	-2953
pey	-2954
rac	-2955
ran	-2956
rev	-2957
rhe	-2958
rid	-2959
rog	-2960
ses	-2961
sir	-2962
smo	-2963
sta	-2964
tap	-2965
til	-2966
tom	-2967
typ	-2968
und	-2969
vat	-2970
wil	-2971
xit	-2972
yas	-2973
zay	-2974
zen	-2975
zes	-2976
▁ad	-2977
▁al	-2978
▁gr	-2979
▁mr	-2980
▁of	-2981
1.5_	-2982
32,_	-2983
52,_	-2984
760_	-2985
96,_	-2986
_1,3	-2987
_107	-2988
_11_	-2989
_14_	-2990
_156	-2991
_185	-2992
_187	-2993
_21_	-2994
_34_	-2995
_£12	-2996
abil	-2997
adop	-2998
aean	-2999
fc	-3000
_4_	-3001
aft	-3002
bap	-3003
gop	-3004
jut	-3005
mag	-3006
ode	-3007
via	-3008
vie	-3009
vul	-3010
,000	-3011
agan	-3012
alas	-3013
alty	-3014
andy	-3015
anne	-3016
anni	-3017
anta	-3018
anti	-3019
aper	-3020
arab	-3021
arct	-3022
arel	-3023
arez	-3024
arid	-3025
ayer	-3026
azil	-3027
barr	-3028
belg	-3029
bels	-3030
bian	-3031
bish	-3032
brid	-3033
ceed	-3034
cers	-3035
chal	-3036
chem	-3037
chos	-3038
cked	-3039
club	-3040
code	-3041
coin	-3042
core	-3043
crop	-3044
cuba	-3045
danu	-3046
dark	-3047
debt	-3048
dust	-3049
earn	-3050
edge	-3051
enda	-3052
ened	-3053
enge	-3054
enor	-3055
enty	-3056
esar	-3057
eval	-3058
fasc	-3059
felt	-3060
finn	-3061
forg	-3062
fres	-3063
fuel	-3064
fund	-3065
gate	-3066
gaud	-3067
gery	-3068
ggle	-3069
goal	-3070
guar	-3071
hair	-3072
hall	-3073
hara	-3074
hemo	-3075
herz	-3076
hour	-3077
huge	-3078
ible	-3079
ient	-3080
ieve	-3081
ighb	-3082
inks	-3083
insp	-3084
insu	-3085
ique	-3086
isis	-3087
ison	-3088
isth	-3089
itor	-3090
izer	-3091
jews	-3092
jobs	-3093
juli	-3094
jump	-3095
kept	-3096
khit	-3097
knew	-3098
korn	-3099
fj	-3100
blu	-3101
dna	-3102
dom	-3103
fif	-3104
ico	-3105
job	-3106
scr	-3107
sic	-3108
squ	-3109
ths	-3110
tol	-3111
umb	-3112
_190	-3113
_196	-3114
adul	-3115
alex	-3116
bach	-3117
bron	-3118
cade	-3119
cors	-3120
disp	-3121
drin	-3122
duke	-3123
edin	-3124
ends	-3125
erdo	-3126
fish	-3127
ging	-3128
give	-3129
hael	-3130
hous	-3131
inet	-3132
lago	-3133
lear	-3134
leng	-3135
liam	-3136
liao	-3137
lies	-3138
lift	-3139
ligh	-3140
ling	-3141
link	-3142
live	-3143
lost	-3144
mate	-3145
mbly	-3146
mere	-3147
mers	-3148
meth	-3149
mium	-3150
mode	-3151
mojm	-3152
mood	-3153
narr	-3154
ndar	-3155
ness	-3156
nest	-3157
none	-3158
odes	-3159
oles	-3160
oned	-3161
ongy	-3162
onne	-3163
ored	-3164
oret	-3165
palm	-3166
pard	-3167
peak	-3168
pebe	-3169
plat	-3170
plic	-3171
pope	-3172
pous	-3173
pred	-3174
pugh	-3175
quot	-3176
rach	-3177
rang	-3178
rast	-3179
rena	-3180
requ	-3181
resc	-3182
rian	-3183
rift	-3184
room	-3185
rust	-3186
safe	-3187
sami	-3188
sara	-3189
scar	-3190
scen	-3191
seat	-3192
seld	-3193
silt	-3194
slav	-3195
soft	-3196
stay	-3197
surv	-3198
team	-3199
ye	-3200
",_	-3201
_36	-3202
alv	-3203
dee	-3204
gca	-3205
ize	-3206
jef	-3207
lez	-3208
pra	-3209
tax	-3210
web	-3211
▁is	-3212
▁ms	-3213
,_19	-3214
atal	-3215
cass	-3216
coln	-3217
cool	-3218
flic	-3219
flor	-3220
grav	-3221
icle	-3222
ipul	-3223
lose	-3224
mild	-3225
myst	-3226
ouis	-3227
prec	-3228
roso	-3229
tens	-3230
thai	-3231
thum	-3232
tina	-3233
traf	-3234
trib	-3235
trix	-3236
unte	-3237
urer	-3238
usal	-3239
uses	-3240
vast	-3241
wang	-3242
wast	-3243
wild	-3244
wine	-3245
wise	-3246
word	-3247
yuan	-3248
zens	-3249
zodi	-3250
zone	-3251
▁bar	-3252
▁con	-3253
▁cor	-3254
▁lam	-3255
▁may	-3256
▁mic	-3257
▁von	-3258
▁who	-3259
▁you	-3260
,_200	-3261
_1970	-3262
_1990	-3263
_30,_	-3264
_31,_	-3265
_330_	-3266
_500_	-3267
aband	-3268
acade	-3269
accur	-3270
ackle	-3271
activ	-3272
added	-3273
adesh	-3274
advan	-3275
advis	-3276
alled	-3277
alleg	-3278
analy	-3279
anaya	-3280
andal	-3281
ander	-3282
andre	-3283
ansel	-3284
anted	-3285
archy	-3286
argue	-3287
asion	-3288
asked	-3289
assum	-3290
astic	-3291
ators	-3292
award	-3293
below	-3294
beria	-3295
black	-3296
blast	-3297
blind	-3298
bonus	-3299
▁un	-3300
adds	-3301
join	-3302
nile	-3303
sens	-3304
apply	-3305
burgh	-3306
caval	-3307
cells	-3308
certi	-3309
chris	-3310
citiz	-3311
color	-3312
compe	-3313
condu	-3314
count	-3315
custo	-3316
defic	-3317
delta	-3318
depos	-3319
deter	-3320
dians	-3321
diver	-3322
docum	-3323
dream	-3324
duffy	-3325
elite	-3326
emiss	-3327
empts	-3328
endit	-3329
endum	-3330
endur	-3331
enemy	-3332
ening	-3333
enorm	-3334
equal	-3335
erous	-3336
evacu	-3337
exhib	-3338
faced	-3339
fewer	-3340
fleet	-3341
flood	-3342
forms	-3343
frank	-3344
fresh	-3345
geron	-3346
geyer	-3347
girls	-3348
goals	-3349
going	-3350
gonzá	-3351
goods	-3352
goyne	-3353
grave	-3354
griev	-3355
heavy	-3356
herit	-3357
herzl	-3358
hydro	-3359
icial	-3360
icine	-3361
ickly	-3362
icles	-3363
imens	-3364
iment	-3365
impro	-3366
inary	-3367
indic	-3368
inner	-3369
inval	-3370
james	-3371
jesus	-3372
karel	-3373
klein	-3374
krist	-3375
label	-3376
lanes	-3377
latin	-3378
laugh	-3379
learn	-3380
leive	-3381
litre	-3382
lives	-3383
loved	-3384
lunar	-3385
maker	-3386
males	-3387
marco	-3388
marks	-3389
match	-3390
mayor	-3391
medal	-3392
meiji	-3393
modif	-3394
monal	-3395
motor	-3396
mycen	-3397
named	-3398
neath	-3399
newsp	-3400
night	-3401
nutri	-3402
obama	-3403
occas	-3404
oleon	-3405
orial	-3406
ories	-3407
outer	-3408
pania	-3409
phoen	-3410
pical	-3411
plain	-3412
plate	-3413
polls	-3414
previ	-3415
punta	-3416
radar	-3417
radio	-3418
raine	-3419
rainy	-3420
rapid	-3421
recon	-3422
reign	-3423
relax	-3424
rests	-3425
retro	-3426
riage	-3427
rival	-3428
ruins	-3429
ruled	-3430
rying	-3431
sahel	-3432
santa	-3433
satis	-3434
satur	-3435
scope	-3436
score	-3437
scots	-3438
scott	-3439
shake	-3440
shape	-3441
ships	-3442
shock	-3443
shoes	-3444
signs	-3445
soldi	-3446
spart	-3447
spons	-3448
sting	-3449
stock	-3450
style	-3451
table	-3452
tarlo	-3453
texts	-3454
theme	-3455
thous	-3456
thurs	-3457
tools	-3458
toric	-3459
tourn	-3460
tower	-3461
toxic	-3462
train	-3463
trave	-3464
trips	-3465
twent	-3466
unpre	-3467
usage	-3468
users	-3469
utely	-3470
value	-3471
vigor	-3472
ville	-3473
votes	-3474
wants	-3475
waste	-3476
whole	-3477
write	-3478
▁also	-3479
▁back	-3480
▁both	-3481
▁each	-3482
▁gold	-3483
▁hong	-3484
▁many	-3485
▁news	-3486
▁shen	-3487
▁some	-3488
▁thai	-3489
▁then	-3490
0,000_	-3491
_1912_	-3492
_1916_	-3493
_1991_	-3494
_2004_	-3495
_2008_	-3496
_2010_	-3497
_2013_	-3498
_2016_	-3499
_2017.	-3500
_2017_	-3501
_£760_	-3502
aanite	-3503
abbots	-3504
agreed	-3505
ailing	-3506
alaska	-3507
animal	-3508
annual	-3509
artill	-3510
athens	-3511
atolog	-3512
attack	-3513
awards	-3514
babies	-3515
branch	-3516
brazil	-3517
breach	-3518
brexit	-3519
bronze	-3520
budget	-3521
burial	-3522
caesar	-3523
camero	-3524
capita	-3525
carlos	-3526
carson	-3527
celtic	-3528
center	-3529
charge	-3530
cinema	-3531
claims	-3532
closed	-3533
combat	-3534
comedy	-3535
confer	-3536
copies	-3537
copper	-3538
couple	-3539
credit	-3540
crisis	-3541
cumber	-3542
danube	-3543
decade	-3544
decide	-3545
degree	-3546
detect	-3547
disast	-3548
disrup	-3549
driver	-3550
effort	-3551
elabor	-3552
emphas	-3553
encing	-3554
engers	-3555
enjoys	-3556
enough	-3557
enroll	-3558
ensive	-3559
ession	-3560
expand	-3561
expert	-3562
extent	-3563
fallen	-3564
favour	-3565
female	-3566
fertil	-3567
fights	-3568
flight	-3569
forgot	-3570
fortun	-3571
franco	-3572
frozen	-3573
gather	-3574
giving	-3575
globin	-3576
guitar	-3577
handle	-3578
hardly	-3579
highly	-3580
humans	-3581
idency	-3582
ightly	-3583
insula	-3584
joliot	-3585
kadesh	-3586
kansas	-3587
knight	-3588
leaves	-3589
letter	-3590
linked	-3591
logist	-3592
loving	-3593
machin	-3594
madrid	-3595
mailis	-3596
manchu	-3597
margin	-3598
martin	-3599
matter	-3600
method	-3601
morric	-3602
mostly	-3603
motion	-3604
moving	-3605
neighb	-3606
norway	-3607
nowman	-3608
oceans	-3609
opport	-3610
output	-3611
persec	-3612
pilots	-3613
places	-3614
plenty	-3615
points	-3616
poland	-3617
policy	-3618
pompey	-3619
prayer	-3620
prepar	-3621
priate	-3622
prizes	-3623
provin	-3624
punish	-3625
pyongy	-3626
raised	-3627
ration	-3628
really	-3629
rebels	-3630
reduce	-3631
reform	-3632
regard	-3633
regist	-3634
regret	-3635
relied	-3636
remove	-3637
resist	-3638
resses	-3639
rising	-3640
rocket	-3641
romans	-3642
romise	-3643
routes	-3644
sahara	-3645
sailed	-3646
saying	-3647
seldom	-3648
select	-3649
serves	-3650
sevent	-3651
sicily	-3652
simple	-3653
single	-3654
spared	-3655
stance	-3656
stands	-3657
starts	-3658
strain	-3659
studio	-3660
suffer	-3661
talent	-3662
theory	-3663
thered	-3664
thomas	-3665
though	-3666
thrown	-3667
toward	-3668
tracks	-3669
troubl	-3670
turned	-3671
twenty	-3672
valley	-3673
venice	-3674
verbal	-3675
warned	-3676
worthy	-3677
writer	-3678
zodiac	-3679
▁among	-3680
▁china	-3681
▁louis	-3682
▁north	-3683
▁prior	-3684
▁today	-3685
▁using	-3686
_1770,_	-3687
_1911,_	-3688
_1914,_	-3689
_2010,_	-3690
_2011,_	-3691
_2012,_	-3692
_2015,_	-3693
academy	-3694
accused	-3695
achieve	-3696
airline	-3697
alvarez	-3698
anselmi	-3699
antarct	-3700
anticip	-3701
archite	-3702
arrived	-3703
athetic	-3704
attempt	-3705
austria	-3706
balkans	-3707
barroso	-3708
battles	-3709
beating	-3710
beliefs	-3711
benefit	-3712
billion	-3713
borough	-3714
cabinet	-3715
carried	-3716
casting	-3717
caution	-3718
cavalry	-3719
changes	-3720
chapels	-3721
clothes	-3722
coastal	-3723
colours	-3724
concept	-3725
concert	-3726
consequ	-3727
contain	-3728
contest	-3729
context	-3730
crossed	-3731
ctively	-3732
culture	-3733
decades	-3734
dismiss	-3735
diverse	-3736
edition	-3737
elected	-3738
equally	-3739
erdogan	-3740
experts	-3741
fascist	-3742
filming	-3743
finding	-3744
finnish	-3745
fishing	-3746
forgone	-3747
francis	-3748
glasgow	-3749
gravity	-3750
healthy	-3751
holders	-3752
holiday	-3753
housing	-3754
illance	-3755
impacts	-3756
implied	-3757
inappro	-3758
instead	-3759
invalid	-3760
isation	-3761
isthmus	-3762
jutting	-3763
kingdom	-3764
labeouf	-3765
landing	-3766
largest	-3767
leaders	-3768
leading	-3769
letters	-3770
limited	-3771
lincoln	-3772
lowland	-3773
marched	-3774
marital	-3775
measure	-3776
meeting	-3777
message	-3778
mineral	-3779
minutes	-3780
mishima	-3781
nicolai	-3782
nothing	-3783
obvious	-3784
offered	-3785
officer	-3786
opinion	-3787
opposed	-3788
overall	-3789
persist	-3790
pointed	-3791
possess	-3792
posthum	-3793
premium	-3794
product	-3795
protect	-3796
pursued	-3797
quickly	-3798
radical	-3799
railway	-3800
receive	-3801
records	-3802
reduced	-3803
resembl	-3804
respect	-3805
retreat	-3806
running	-3807
savings	-3808
scandal	-3809
secured	-3810
seeking	-3811
shortly	-3812
sighted	-3813
sitting	-3814
skilled	-3815
species	-3816
spotify	-3817
staging	-3818
starlin	-3819
studied	-3820
succeed	-3821
support	-3822
surgery	-3823
survive	-3824
suspend	-3825
swedish	-3826
theater	-3827
theless	-3828
tissues	-3829
traffic	-3830
trained	-3831
treated	-3832
turning	-3833
ukraine	-3834
unteers	-3835
variety	-3836
waiting	-3837
william	-3838
▁disney	-3839
▁france	-3840
▁george	-3841
▁golden	-3842
▁joseph	-3843
▁lamarr	-3844
▁seagal	-3845
accompan	-3846
accorded	-3847
actively	-3848
americas	-3849
analysis	-3850
analysts	-3851
answered	-3852
apparent	-3853
approach	-3854
artistic	-3855
assembly	-3856
attempts	-3857
augustus	-3858
becoming	-3859
behavior	-3860
believed	-3861
believes	-3862
billions	-3863
boundary	-3864
breaking	-3865
burgoyne	-3866
cameroun	-3867
captured	-3868
centered	-3869
chemical	-3870
churches	-3871
citizens	-3872
collapse	-3873
colonial	-3874
combined	-3875
communal	-3876
contamin	-3877
controls	-3878
cultures	-3879
defenses	-3880
deposits	-3881
directly	-3882
dispatch	-3883
displays	-3884
disputed	-3885
earnings	-3886
educated	-3887
emperors	-3888
enrolled	-3889
entirely	-3890
episodes	-3891
equipped	-3892
everyone	-3893
evidence	-3894
examples	-3895
exchange	-3896
expected	-3897
expelled	-3898
expendit	-3899
facebook	-3900
families	-3901
features	-3902
fication	-3903
fighting	-3904
finished	-3905
flicking	-3906
foremost	-3907
gathered	-3908
gonzález	-3909
governor	-3910
heritage	-3911
hispania	-3912
hormonal	-3913
humanity	-3914
improved	-3915
incident	-3916
includes	-3917
intended	-3918
invasion	-3919
judicial	-3920
learning	-3921
literary	-3922
measures	-3923
medicine	-3924
napoleon	-3925
numerous	-3926
nutrient	-3927
occupied	-3928
occupies	-3929
oriented	-3930
ottomans	-3931
overseas	-3932
particip	-3933
peaceful	-3934
pictures	-3935
platform	-3936
presides	-3937
princess	-3938
products	-3939
projects	-3940
promptly	-3941
proposed	-3942
protests	-3943
provided	-3944
provides	-3945
publicly	-3946
ramesses	-3947
reaching	-3948
reaction	-3949
referred	-3950
relation	-3951
reliable	-3952
removing	-3953
replaced	-3954
requests	-3955
resolved	-3956
rhetoric	-3957
saturday	-3958
scotsman	-3959
separate	-3960
services	-3961
slightly	-3962
slovakia	-3963
speakers	-3964
steadily	-3965
struggle	-3966
surprise	-3967
swearing	-3968
tainment	-3969
targeted	-3970
teachers	-3971
teaching	-3972
thousand	-3973
thursday	-3974
unbeliev	-3975
unlikely	-3976
▁between	-3977
▁further	-3978
▁outside	-3979
▁perhaps	-3980
▁several	-3981
abilities	-3982
advantage	-3983
alexander	-3984
ambitions	-3985
americans	-3986
artillery	-3987
ationists	-3988
attention	-3989
borrowing	-3990
canaanite	-3991
candidate	-3992
challenge	-3993
character	-3994
coalition	-3995
commander	-3996
community	-3997
completed	-3998
condition	-3999
conducted	-4000
confident	-4001
democrats	-4002
directors	-4003
discussed	-4004
dominance	-4005
dominated	-4006
edinburgh	-4007
elaborate	-4008
emissions	-4009
encourage	-4010
endurance	-4011
equipment	-4012
estimates	-4013
exception	-4014
executive	-4015
explained	-4016
extension	-4017
extensive	-4018
forgotten	-4019
gathering	-4020
governing	-4021
hospitals	-4022
icelandic	-4023
ification	-4024
increased	-4025
intention	-4026
interests	-4027
landscape	-4028
languages	-4029
lawmakers	-4030
liberties	-4031
lobbyists	-4032
machinery	-4033
modifying	-4034
morricone	-4035
mycenaean	-4036
newspaper	-4037
otherwise	-4038
peninsula	-4039
practices	-4040
primarily	-4041
privately	-4042
programme	-4043
protected	-4044
provision	-4045
pyongyang	-4046
requested	-4047
sanctions	-4048
satisfied	-4049
secondary	-4050
secretary	-4051
separated	-4052
something	-4053
standards	-4054
structure	-4055
suggested	-4056
technique	-4057
therefore	-4058
transform	-4059
wonderful	-4060
▁rafferty	-4061
▁research	-4062
▁students	-4063
▁winstone	-4064
abbotsford	-4065
characters	-4066
climatolog	-4067
completing	-4068
compromise	-4069
connection	-4070
cumberland	-4071
democratic	-4072
discovered	-4073
dominantly	-4074
empathetic	-4075
enrollment	-4076
evacuation	-4077
everything	-4078
expedition	-4079
experiment	-4080
explaining	-4081
fertilizer	-4082
frequently	-4083
friendship	-4084
generation	-4085
guidelines	-4086
hemoglobin	-4087
historians	-4088
identified	-4089
immigrants	-4090
incredible	-4091
influenced	-4092
integrated	-4093
investment	-4094
invitation	-4095
lighthouse	-4096
management	-4097
meaningful	-4098
motorcycle	-4099
occupation	-4100
oretically	-4101
originally	-4102
passengers	-4103
presidency	-4104
previously	-4105
production	-4106
profession	-4107
publishing	-4108
referendum	-4109
remarkable	-4110
reportedly	-4111
resistance	-4112
responding	-4113
scientific	-4114
socialists	-4115
supporting	-4116
surpassing	-4117
television	-4118
tournament	-4119
underneath	-4120
vigorously	-4121
volunteers	-4122
winterkorn	-4123
▁australia	-4124
▁christian	-4125
▁following	-4126
▁hitchcock	-4127
▁naturally	-4128
accompanied	-4129
advertising	-4130
alternative	-4131
ambassadors	-4132
authorities	-4133
communities	-4134
composition	-4135
constructed	-4136
distinction	-4137
electricity	-4138
fortunately	-4139
governments	-4140
individuals	-4141
interesting	-4142
interviewed	-4143
legislative	-4144
opportunity	-4145
persecution	-4146
possibility	-4147
potentially	-4148
prehistoric	-4149
progressive	-4150
responsible	-4151
sponsorship	-4152
surrendered	-4153
temperament	-4154
transported	-4155
underground	-4156
▁throughout	-4157
architecture	-4158
consequences	-4159
continuation	-4160
demonstrated	-4161
domesticated	-4162
establishing	-4163
expenditures	-4164
headquarters	-4165
increasingly	-4166
intellectual	-4167
marketplaces	-4168
organization	-4169
preferential	-4170
presidential	-4171
principality	-4172
resemblances	-4173
respectively	-4174
surveillance	-4175
unbelievable	-4176
urbanization	-4177
▁furthermore	-4178
▁researchers	-4179
civilisations	-4180
contraception	-4181
contributions	-4182
entertainment	-4183
environmental	-4184
inappropriate	-4185
investigation	-4186
predominantly	-4187
understanding	-4188
classification	-4189
collaborations	-4190
conservationists	-4191
-10	-4192
.5-	-4193
1-£	-4194
16.	-4195
6%.	-4196
99.	-4197
axy	-4198
dpa	-4199
30.	-4200
_62	-4201
_90	-4202
baj	-4203
cbs	-4204
eye	-4205
fcs	-4206
fix	-4207
kfc	-4208
kug	-4209
ppi	-4210
pyj	-4211
rtt	-4212
uax	-4213
ynt	-4214
-196	-4215
-197	-4216
-201	-4217
._1_	-4218
165_	-4219
5-20	-4220
_"10	-4221
_134	-4222
_330	-4223
_550	-4224
_90-	-4225
_90_	-4226
_£10	-4227
arna	-4228
atán	-4229
baby	-4230
baja	-4231
bapt	-4232
bluf	-4233
buff	-4234
dati	-4235
dedu	-4236
diox	-4237
drew	-4238
drey	-4239
emoj	-4240
erik	-4241
erog	-4242
fost	-4243
gesh	-4244
goog	-4245
hfcs	-4246
ikai	-4247
innu	-4248
itol	-4249
jaro	-4250
jeff	-4251
karn	-4252
khal	-4253
kori	-4254
kras	-4255
mcne	-4256
mith	-4257
mlas	-4258
navy	-4259
pyla	-4260
rhus	-4261
samn	-4262
siri	-4263
snap	-4264
suez	-4265
ugal	-4266
vega	-4267
yars	-4268
yche	-4269
yono	-4270
zhen	-4271
zuck	-4272
▁wil	-4273
-1970	-4274
0,_18	-4275
3-201	-4276
30-10	-4277
5,000	-4278
_..._	-4279
_1,33	-4280
_1,36	-4281
_1.5-	-4282
_1350	-4283
_137_	-4284
_1492	-4285
_363.	-4286
_62%_	-4287
_700_	-4288
_833_	-4289
abbey	-4290
adaan	-4291
alaxy	-4292
amynt	-4293
apuli	-4294
aquar	-4295
arrog	-4296
asque	-4297
athes	-4298
atoga	-4299
99_	-4300
999_	-4301
migr	-4302
zero	-4303
,999_	-4304
_1980	-4305
avian	-4306
avier	-4307
avoid	-4308
bably	-4309
bapti	-4310
basil	-4311
basin	-4312
bassy	-4313
beyon	-4314
bible	-4315
boats	-4316
bolic	-4317
botan	-4318
buena	-4319
calab	-4320
censu	-4321
chalk	-4322
chaos	-4323
chron	-4324
cibly	-4325
circu	-4326
click	-4327
cools	-4328
coron	-4329
craft	-4330
daily	-4331
deepe	-4332
delhi	-4333
dietr	-4334
draft	-4335
ducks	-4336
emoji	-4337
energ	-4338
enjoy	-4339
erico	-4340
evalu	-4341
faces	-4342
favou	-4343
fifty	-4344
fiore	-4345
fired	-4346
fixed	-4347
fjord	-4348
flows	-4349
gaunt	-4350
georg	-4351
gradu	-4352
group	-4353
halif	-4354
hibit	-4355
hilly	-4356
holic	-4357
honor	-4358
hunan	-4359
icacy	-4360
icono	-4361
idiot	-4362
ieyas	-4363
injur	-4364
insat	-4365
ivost	-4366
joked	-4367
keira	-4368
kilow	-4369
knuck	-4370
kugaw	-4371
kylar	-4372
lasse	-4373
ldoms	-4374
links	-4375
logne	-4376
loops	-4377
lungs	-4378
magma	-4379
maior	-4380
maren	-4381
mbled	-4382
mcgre	-4383
megab	-4384
megar	-4385
memes	-4386
minee	-4387
mired	-4388
murph	-4389
naive	-4390
negot	-4391
odias	-4392
oller	-4393
onnes	-4394
paire	-4395
palms	-4396
peaks	-4397
penal	-4398
piety	-4399
32_	-4400
93.	-4401
_--	-4402
_45	-4403
pae	-4404
3.7_	-4405
_153	-4406
_23.	-4407
_42_	-4408
_45_	-4409
ashi	-4410
belt	-4411
dden	-4412
ease	-4413
haze	-4414
hugh	-4415
kiki	-4416
kilo	-4417
nash	-4418
obsc	-4419
zeit	-4420
_1519	-4421
_23.4	-4422
_393.	-4423
_400_	-4424
achae	-4425
ashed	-4426
bashi	-4427
betel	-4428
clash	-4429
cumae	-4430
demol	-4431
denum	-4432
fraud	-4433
husum	-4434
paeon	-4435
piggy	-4436
pithe	-4437
plato	-4438
pregn	-4439
premi	-4440
pupae	-4441
pyjam	-4442
pylae	-4443
redem	-4444
reviv	-4445
rique	-4446
rises	-4447
robin	-4448
robot	-4449
rocke	-4450
romeo	-4451
ronom	-4452
roots	-4453
route	-4454
safer	-4455
sails	-4456
saurs	-4457
sberg	-4458
sburg	-4459
scene	-4460
scrip	-4461
scrup	-4462
scrut	-4463
seats	-4464
segel	-4465
sened	-4466
sense	-4467
shaky	-4468
shots	-4469
silic	-4470
sippi	-4471
soils	-4472
statu	-4473
stays	-4474
steps	-4475
stole	-4476
styli	-4477
suzer	-4478
tapie	-4479
telek	-4480
tells	-4481
tesco	-4482
tesla	-4483
texas	-4484
threw	-4485
tolle	-4486
tomac	-4487
types	-4488
unfit	-4489
unusu	-4490
vouch	-4491
walks	-4492
woods	-4493
wrong	-4494
yarsk	-4495
yemen	-4496
ánche	-4497
ángel	-4498
▁alco	-4499
_49_	-4500
wald	-4501
walk	-4502
_1820	-4503
franz	-4504
moneg	-4505
oices	-4506
poole	-4507
rains	-4508
tailb	-4509
towns	-4510
uency	-4511
ufact	-4512
wales	-4513
yerba	-4514
▁bogd	-4515
▁cape	-4516
▁fast	-4517
▁iron	-4518
▁john	-4519
▁none	-4520
▁pebe	-4521
▁rona	-4522
▁sand	-4523
▁tina	-4524
▁vega	-4525
,000-£	-4526
,001-£	-4527
103.7_	-4528
1832,_	-4529
25,000	-4530
_(1918	-4531
_1075.	-4532
_1200_	-4533
_1399.	-4534
_1530.	-4535
_1777_	-4536
_1820.	-4537
_1858_	-4538
_1860_	-4539
_1879.	-4540
_1933_	-4541
_1960.	-4542
_1973.	-4543
_1975.	-4544
_1976_	-4545
_1979.	-4546
_1981_	-4547
_1984_	-4548
_1987.	-4549
_1988_	-4550
_1992.	-4551
_1993.	-4552
_20%,_	-4553
_2012.	-4554
_2019_	-4555
_3300_	-4556
_352,_	-4557
absent	-4558
accept	-4559
actile	-4560
adults	-4561
alized	-4562
alterc	-4563
amazed	-4564
amazon	-4565
amchat	-4566
anjaro	-4567
antiqu	-4568
arison	-4569
artime	-4570
asurer	-4571
banded	-4572
banned	-4573
bdenum	-4574
beault	-4575
begins	-4576
behalf	-4577
berius	-4578
bishop	-4579
blocks	-4580
bogart	-4581
bridge	-4582
bruary	-4583
burned	-4584
calcul	-4585
calend	-4586
canoes	-4587
caribs	-4588
catast	-4589
causes	-4590
census	-4591
chapel	-4592
cheery	-4593
chosen	-4594
circum	-4595
claret	-4596
corona	-4597
corpor	-4598
crouch	-4599
12-	-4600
28_	-4601
60.	-4602
._16	-4603
12-5	-4604
328_	-4605
39,_	-4606
5.5_	-4607
7.5_	-4608
94).	-4609
_10-	-4610
_16,	-4611
_161	-4612
_168	-4613
_33_	-4614
_53_	-4615
cili	-4616
dino	-4617
inox	-4618
mbed	-4619
ramb	-4620
sung	-4621
walt	-4622
▁bes	-4623
▁dar	-4624
▁len	-4625
12-51	-4626
_16,5	-4627
_7.5_	-4628
cites	-4629
embed	-4630
expan	-4631
ficul	-4632
haute	-4633
madge	-4634
malic	-4635
moham	-4636
scary	-4637
somal	-4638
sungl	-4639
_(328_	-4640
_1000_	-4641
_15.5_	-4642
_2003_	-4643
_£360.	-4644
ackham	-4645
anchor	-4646
bombed	-4647
chalet	-4648
deceit	-4649
deduct	-4650
denied	-4651
dinner	-4652
divine	-4653
dozens	-4654
drinks	-4655
earths	-4656
easily	-4657
easing	-4658
editor	-4659
emerge	-4660
enbach	-4661
enlist	-4662
ensure	-4663
episco	-4664
except	-4665
facing	-4666
factor	-4667
famili	-4668
ficult	-4669
figure	-4670
fjords	-4671
flowed	-4672
flying	-4673
forded	-4674
fueled	-4675
gently	-4676
glenda	-4677
gondol	-4678
graded	-4679
grainy	-4680
graphs	-4681
hammer	-4682
hanced	-4683
harley	-4684
hitler	-4685
holden	-4686
hoping	-4687
hopley	-4688
horton	-4689
hothai	-4690
hoyono	-4691
humano	-4692
hundre	-4693
hunted	-4694
hyster	-4695
ialize	-4696
ifacts	-4697
ijinks	-4698
imagin	-4699
voy	-4700
yuc	-4701
barn	-4702
devo	-4703
gaul	-4704
grop	-4705
pati	-4706
salz	-4707
vole	-4708
zinc	-4709
agglo	-4710
akhon	-4711
bella	-4712
debit	-4713
envoy	-4714
incor	-4715
lured	-4716
metti	-4717
plied	-4718
realm	-4719
saler	-4720
sales	-4721
torch	-4722
voter	-4723
abella	-4724
amount	-4725
ancing	-4726
assets	-4727
balked	-4728
devoid	-4729
distri	-4730
figaro	-4731
florid	-4732
gaulle	-4733
gropes	-4734
helmet	-4735
immers	-4736
incumb	-4737
induce	-4738
inmate	-4739
inoxes	-4740
inquir	-4741
inquis	-4742
insati	-4743
inscri	-4744
intell	-4745
jadaan	-4746
joined	-4747
julian	-4748
juliet	-4749
karnak	-4750
khalin	-4751
khitan	-4752
kilter	-4753
kramer	-4754
labour	-4755
lacked	-4756
ladder	-4757
larger	-4758
latium	-4759
laughs	-4760
laying	-4761
lcomed	-4762
ledged	-4763
length	-4764
lilles	-4765
litchy	-4766
maglev	-4767
marcel	-4768
medics	-4769
menico	-4770
merely	-4771
missed	-4772
missis	-4773
mitted	-4774
nearby	-4775
nearly	-4776
negoti	-4777
nesday	-4778
nessee	-4779
normal	-4780
oldest	-4781
ontvie	-4782
orized	-4783
orture	-4784
oswald	-4785
oudest	-4786
parker	-4787
payers	-4788
penist	-4789
penter	-4790
picnic	-4791
pithek	-4792
plains	-4793
planet	-4794
potato	-4795
pothes	-4796
praise	-4797
precip	-4798
predic	-4799
hym	-4800
yuk	-4801
_84_	-4802
blog	-4803
grip	-4804
hymn	-4805
rado	-4806
slap	-4807
▁due	-4808
_16,_	-4809
aires	-4810
annex	-4811
block	-4812
catch	-4813
dried	-4814
drink	-4815
feats	-4816
glect	-4817
glory	-4818
harsh	-4819
horte	-4820
icken	-4821
itude	-4822
keeps	-4823
kense	-4824
milan	-4825
mitig	-4826
optic	-4827
slack	-4828
songs	-4829
texti	-4830
udeau	-4831
uneth	-4832
záhor	-4833
▁expl	-4834
baltic	-4835
beyond	-4836
colony	-4837
deplet	-4838
dimens	-4839
explor	-4840
milice	-4841
noptic	-4842
poised	-4843
prepay	-4844
prison	-4845
promin	-4846
ptives	-4847
pushes	-4848
racetr	-4849
racist	-4850
ranges	-4851
rastiz	-4852
reddit	-4853
regime	-4854
reliev	-4855
rescue	-4856
rogers	-4857
romano	-4858
rosane	-4859
rosoft	-4860
runoff	-4861
runway	-4862
rustic	-4863
sacked	-4864
safety	-4865
salmon	-4866
script	-4867
seemed	-4868
serena	-4869
seyche	-4870
shenan	-4871
shikai	-4872
shockw	-4873
shores	-4874
silica	-4875
silver	-4876
simply	-4877
skylar	-4878
slavic	-4879
smoked	-4880
sparta	-4881
speeds	-4882
sphere	-4883
square	-4884
static	-4885
steady	-4886
stices	-4887
stipul	-4888
stones	-4889
stored	-4890
strike	-4891
sucked	-4892
sudden	-4893
suffic	-4894
summit	-4895
superv	-4896
survey	-4897
tablet	-4898
tackle	-4899
_80_	-4900
aism	-4901
harv	-4902
juan	-4903
kven	-4904
menh	-4905
nerv	-4906
scot	-4907
subs	-4908
xism	-4909
_120_	-4910
atoma	-4911
gress	-4912
hiker	-4913
lania	-4914
olney	-4915
oppon	-4916
subdu	-4917
toler	-4918
urged	-4919
venue	-4920
▁gran	-4921
assive	-4922
audrey	-4923
billed	-4924
bremen	-4925
caplan	-4926
ceived	-4927
entuck	-4928
inrich	-4929
jeffre	-4930
manner	-4931
menhir	-4932
nobody	-4933
numism	-4934
poster	-4935
runner	-4936
scores	-4937
steven	-4938
subsid	-4939
tailor	-4940
tapper	-4941
teenth	-4942
tended	-4943
ternal	-4944
ticket	-4945
tified	-4946
traces	-4947
tracts	-4948
trails	-4949
trassi	-4950
tribes	-4951
tsberg	-4952
turkey	-4953
uaxact	-4954
ulrich	-4955
undere	-4956
unders	-4957
univer	-4958
unpret	-4959
usband	-4960
useful	-4961
vastly	-4962
victim	-4963
villen	-4964
vindic	-4965
voters	-4966
vulcan	-4967
wholes	-4968
winham	-4969
winner	-4970
wooden	-4971
ánchez	-4972
▁adnan	-4973
▁barri	-4974
▁bouch	-4975
▁domin	-4976
▁forts	-4977
▁given	-4978
▁isner	-4979
▁kesha	-4980
▁liter	-4981
▁maybe	-4982
▁those	-4983
▁trade	-4984
▁winto	-4985
,_2001.	-4986
._1600_	-4987
15,000_	-4988
19,999_	-4989
25,000.	-4990
3-2014_	-4991
5,001-£	-4992
5-2016.	-4993
_"100%_	-4994
_1,365_	-4995
_10,_18	-4996
_1519,_	-4997
_1563,_	-4998
_1566,_	-4999
6).	-5000
_8.	-5001
_£2	-5002
azi	-5003
gaz	-5004
46).	-5005
broo	-5006
nazi	-5007
oath	-5008
uddy	-5009
yann	-5010
846).	-5011
anned	-5012
banks	-5013
capua	-5014
ernli	-5015
gazet	-5016
gezer	-5017
gives	-5018
hides	-5019
humph	-5020
islav	-5021
muddy	-5022
thail	-5023
ailure	-5024
athina	-5025
attery	-5026
bigger	-5027
brooke	-5028
ernlie	-5029
extend	-5030
famine	-5031
farmer	-5032
lessly	-5033
parent	-5034
passed	-5035
purpos	-5036
raging	-5037
rambow	-5038
releas	-5039
ussian	-5040
washed	-5041
yannis	-5042
▁major	-5043
▁trump	-5044
_1610,_	-5045
_1832,_	-5046
_1839,_	-5047
_1879,_	-5048
_1882,_	-5049
_1913,_	-5050
_1918,_	-5051
_1928,_	-5052
_1961,_	-5053
_1969,_	-5054
_1996,_	-5055
_1997,_	-5056
_2003,_	-5057
_2009,_	-5058
_2013,_	-5059
_23.45.	-5060
_30,_19	-5061
_512-51	-5062
_550),_	-5063
abandon	-5064
admired	-5065
adopted	-5066
adverse	-5067
advises	-5068
affairs	-5069
alleged	-5070
alysing	-5071
amental	-5072
amounts	-5073
angular	-5074
annexed	-5075
aplanes	-5076
applies	-5077
apulian	-5078
arettes	-5079
arrests	-5080
article	-5081
assebot	-5082
assumed	-5083
assumes	-5084
attress	-5085
authors	-5086
baptism	-5087
barrack	-5088
barratt	-5089
basilic	-5090
battery	-5091
bearing	-5092
becomes	-5093
belgium	-5094
blindle	-5095
bluffed	-5096
borders	-5097
boundar	-5098
buddies	-5099
").	-5100
3%_	-5101
luc	-5102
lux	-5103
rub	-5104
20,_	-5105
_1%_	-5106
_31_	-5107
bath	-5108
bush	-5109
etry	-5110
jets	-5111
reje	-5112
relu	-5113
sink	-5114
tons	-5115
urru	-5116
._31_	-5117
_53%_	-5118
absol	-5119
afton	-5120
focus	-5121
fried	-5122
horus	-5123
insol	-5124
itled	-5125
jeans	-5126
lucas	-5127
lucca	-5128
pedro	-5129
ruper	-5130
uscri	-5131
wheat	-5132
wiped	-5133
▁char	-5134
,_1977	-5135
_2011_	-5136
amurru	-5137
consol	-5138
finale	-5139
infill	-5140
kerber	-5141
luther	-5142
luxury	-5143
moscon	-5144
online	-5145
openly	-5146
oppers	-5147
persed	-5148
persia	-5149
poetry	-5150
reagan	-5151
reluct	-5152
stages	-5153
textil	-5154
uclear	-5155
▁pedro	-5156
_1820,_	-5157
_5,000_	-5158
archies	-5159
athearn	-5160
calling	-5161
cancers	-5162
capitol	-5163
capture	-5164
careful	-5165
carries	-5166
catfish	-5167
cellent	-5168
charges	-5169
charter	-5170
choices	-5171
circuit	-5172
classic	-5173
climbed	-5174
closely	-5175
collect	-5176
cologne	-5177
commons	-5178
compete	-5179
confuse	-5180
connect	-5181
consist	-5182
consult	-5183
corslet	-5184
cracked	-5185
ctorial	-5186
curtail	-5187
deepest	-5188
deficit	-5189
defined	-5190
denberg	-5191
derived	-5192
derives	-5193
describ	-5194
deserts	-5195
desired	-5196
details	-5197
devices	-5198
dioxide	-5199
.7_	-5200
198	-5201
27_	-5202
aza	-5203
..._	-5204
_17_	-5205
arry	-5206
casa	-5207
cash	-5208
erry	-5209
floc	-5210
piaf	-5211
sony	-5212
▁198	-5213
▁ale	-5214
_5.7_	-5215
amson	-5216
angel	-5217
antee	-5218
aside	-5219
avery	-5220
breed	-5221
desks	-5222
error	-5223
inson	-5224
kerry	-5225
larry	-5226
osion	-5227
plaza	-5228
steel	-5229
steep	-5230
udson	-5231
▁alej	-5232
_1994_	-5233
_1997_	-5234
_2007_	-5235
arings	-5236
arrard	-5237
cameos	-5238
chants	-5239
ctures	-5240
declar	-5241
drones	-5242
escape	-5243
flames	-5244
gamson	-5245
guards	-5246
hudson	-5247
invent	-5248
jerked	-5249
kinson	-5250
marked	-5251
skerry	-5252
sonant	-5253
thened	-5254
tional	-5255
titles	-5256
tlands	-5257
▁1987_	-5258
▁surpr	-5259
,_1927_	-5260
_1992,_	-5261
arrange	-5262
declare	-5263
disease	-5264
divides	-5265
drivers	-5266
editing	-5267
educate	-5268
eliding	-5269
embassy	-5270
emerged	-5271
emergen	-5272
emotion	-5273
employe	-5274
enjoyed	-5275
ennings	-5276
enrique	-5277
ensburg	-5278
entucky	-5279
ernlieb	-5280
erosion	-5281
evening	-5282
expects	-5283
explain	-5284
explode	-5285
factual	-5286
farmers	-5287
fencing	-5288
ficates	-5289
fifteen	-5290
figures	-5291
fontvie	-5292
frankly	-5293
funeral	-5294
furious	-5295
garrard	-5296
gaudens	-5297
gazette	-5298
geology	-5299
6%_	-5300
_9_	-5301
ccy	-5302
eib	-5303
gio	-5304
hio	-5305
nio	-5306
qib	-5307
sln	-5308
-198	-5309
_15_	-5310
_184	-5311
_£1.	-5312
balt	-5313
bump	-5314
cyth	-5315
diff	-5316
dump	-5317
engl	-5318
fsln	-5319
giov	-5320
loss	-5321
obes	-5322
obli	-5323
ohio	-5324
tima	-5325
trol	-5326
yves	-5327
-1980	-5328
_56%_	-5329
_£1.4	-5330
anbul	-5331
brook	-5332
ccyge	-5333
dited	-5334
emple	-5335
ennio	-5336
lakes	-5337
lipop	-5338
marta	-5339
matic	-5340
obliv	-5341
obser	-5342
rocca	-5343
saqib	-5344
scyth	-5345
stake	-5346
wkish	-5347
átima	-5348
_1842_	-5349
_1886_	-5350
_2015_	-5351
bachel	-5352
brooks	-5353
cobalt	-5354
dating	-5355
debris	-5356
eibing	-5357
fellin	-5358
fought	-5359
fátima	-5360
images	-5361
lipops	-5362
petrol	-5363
sister	-5364
subian	-5365
sumers	-5366
temple	-5367
uelled	-5368
viewed	-5369
wished	-5370
bracing	-5371
ccygeal	-5372
coating	-5373
differs	-5374
english	-5375
fellini	-5376
fuelled	-5377
glitchy	-5378
greeted	-5379
gregate	-5380
gripped	-5381
gthened	-5382
guiding	-5383
hallstr	-5384
handful	-5385
hawkish	-5386
hijinks	-5387
hitting	-5388
honored	-5389
hortefe	-5390
humphre	-5391
husband	-5392
iansand	-5393
ibility	-5394
ighteen	-5395
igrated	-5396
imagine	-5397
imports	-5398
impregn	-5399
_5_	-5400
_7_	-5401
cbc	-5402
cily	-5403
rico	-5404
talk	-5405
true	-5406
ables	-5407
bruce	-5408
celia	-5409
crime	-5410
indon	-5411
irrit	-5412
isles	-5413
issit	-5414
kilim	-5415
loose	-5416
metal	-5417
ongue	-5418
orias	-5419
rites	-5420
roles	-5421
sulph	-5422
viose	-5423
wined	-5424
winst	-5425
▁just	-5426
▁once	-5427
_2002.	-5428
bursts	-5429
cecily	-5430
closer	-5431
crimea	-5432
excess	-5433
priest	-5434
propri	-5435
pushed	-5436
rental	-5437
sought	-5438
tality	-5439
tongue	-5440
twined	-5441
uviose	-5442
▁sulph	-5443
_1903,_	-5444
artific	-5445
cecelia	-5446
icissit	-5447
idiotic	-5448
indiana	-5449
indones	-5450
inhabit	-5451
innuend	-5452
inquiry	-5453
intense	-5454
intensi	-5455
itarian	-5456
itaries	-5457
jection	-5458
jeffrey	-5459
jerusal	-5460
johnson	-5461
judaism	-5462
justice	-5463
khitans	-5464
khothai	-5465
killing	-5466
kilowat	-5467
kristin	-5468
lateral	-5469
lengths	-5470
leveled	-5471
lightly	-5472
lovings	-5473
maiorum	-5474
managed	-5475
manipul	-5476
manship	-5477
marengo	-5478
margins	-5479
martial	-5480
marxism	-5481
megabaz	-5482
melanes	-5483
mildred	-5484
militia	-5485
mitting	-5486
monsoon	-5487
monster	-5488
monthly	-5489
mopylae	-5490
mounted	-5491
municip	-5492
neglect	-5493
nervous	-5494
nominee	-5495
noyarsk	-5496
nuclear	-5497
obesity	-5498
observe	-5499
):_	-5500
akp	-5501
kie	-5502
rai	-5503
angz	-5504
burb	-5505
burd	-5506
dred	-5507
itra	-5508
nkie	-5509
rael	-5510
snat	-5511
spie	-5512
visc	-5513
weak	-5514
▁bur	-5515
adept	-5516
andra	-5517
angzh	-5518
apple	-5519
arium	-5520
burse	-5521
burst	-5522
comey	-5523
decid	-5524
immor	-5525
moral	-5526
nitra	-5527
rased	-5528
siade	-5529
urred	-5530
visit	-5531
_1925_	-5532
albums	-5533
carang	-5534
curred	-5535
ilapid	-5536
instru	-5537
israel	-5538
lawful	-5539
morals	-5540
nkieli	-5541
opters	-5542
posted	-5543
radium	-5544
snatch	-5545
specul	-5546
struck	-5547
suburb	-5548
unstop	-5549
▁lenny	-5550
▁while	-5551
airport	-5552
angzhou	-5553
brities	-5554
burdens	-5555
carangi	-5556
complic	-5557
decider	-5558
dilapid	-5559
dredged	-5560
greatly	-5561
imately	-5562
imburse	-5563
inately	-5564
oceanic	-5565
ography	-5566
onboard	-5567
onnesus	-5568
oratory	-5569
origins	-5570
partner	-5571
pelucca	-5572
penalty	-5573
petters	-5574
phrased	-5575
picious	-5576
picture	-5577
plaints	-5578
plantag	-5579
playboy	-5580
pollack	-5581
posting	-5582
postwar	-5583
potomac	-5584
praised	-5585
predict	-5586
prescri	-5587
pretext	-5588
putting	-5589
pyjamas	-5590
quoting	-5591
ranging	-5592
rapidly	-5593
reached	-5594
regrets	-5595
reigned	-5596
related	-5597
remarks	-5598
renders	-5599
lah	-5600
sla	-5601
sym	-5602
4),_	-5603
eman	-5604
emic	-5605
ewan	-5606
folk	-5607
furb	-5608
glin	-5609
holy	-5610
lake	-5611
litz	-5612
neck	-5613
syll	-5614
trig	-5615
type	-5616
wboy	-5617
▁sim	-5618
54),_	-5619
ainty	-5620
appet	-5621
ausea	-5622
bious	-5623
catal	-5624
dates	-5625
forty	-5626
frame	-5627
harir	-5628
highl	-5629
homer	-5630
inise	-5631
moroc	-5632
olise	-5633
orset	-5634
prime	-5635
reads	-5636
slave	-5637
upset	-5638
anyway	-5639
commit	-5640
county	-5641
cowboy	-5642
declin	-5643
dorset	-5644
emicro	-5645
formid	-5646
glinda	-5647
hariri	-5648
heroes	-5649
lahore	-5650
linare	-5651
merset	-5652
mestre	-5653
molise	-5654
nausea	-5655
offset	-5656
rachel	-5657
refurb	-5658
rename	-5659
swords	-5660
unless	-5661
▁simon	-5662
_1952,_	-5663
adulter	-5664
dubious	-5665
freeman	-5666
linares	-5667
morocco	-5668
pressed	-5669
pursuit	-5670
ressing	-5671
restore	-5672
results	-5673
reviews	-5674
revoked	-5675
romanov	-5676
rubbish	-5677
ructure	-5678
salerno	-5679
samples	-5680
samsung	-5681
scholar	-5682
schools	-5683
scripts	-5684
scythia	-5685
seasons	-5686
sellers	-5687
selling	-5688
sellors	-5689
sephard	-5690
sequent	-5691
serbian	-5692
session	-5693
sevente	-5694
signify	-5695
silicon	-5696
singers	-5697
singing	-5698
snowman	-5699
_17	-5700
byz	-5701
ctu	-5702
irr	-5703
iva	-5704
lif	-5705
lop	-5706
nep	-5707
oil	-5708
adri	-5709
amne	-5710
aped	-5711
aust	-5712
azid	-5713
enna	-5714
feas	-5715
gain	-5716
gill	-5717
glor	-5718
grim	-5719
hate	-5720
heim	-5721
infl	-5722
liot	-5723
prox	-5724
shif	-5725
till	-5726
vain	-5727
wave	-5728
▁oil	-5729
_1794	-5730
_2000	-5731
altar	-5732
aviva	-5733
azidi	-5734
cares	-5735
czech	-5736
emplo	-5737
ettes	-5738
illed	-5739
liott	-5740
meant	-5741
nephe	-5742
pelop	-5743
salas	-5744
scarf	-5745
stall	-5746
versa	-5747
▁amne	-5748
▁drop	-5749
▁even	-5750
antium	-5751
austro	-5752
cilled	-5753
ctuary	-5754
denver	-5755
erberg	-5756
fiorel	-5757
gloria	-5758
inflam	-5759
lifted	-5760
megrim	-5761
mories	-5762
necess	-5763
nephew	-5764
shaped	-5765
shifts	-5766
tribut	-5767
yazidi	-5768
_9,_200	-5769
antenna	-5770
comment	-5771
degener	-5772
elliott	-5773
employs	-5774
exceeds	-5775
gillard	-5776
inflamm	-5777
ishable	-5778
menhirs	-5779
organiz	-5780
outputs	-5781
proxies	-5782
renaiss	-5783
soldier	-5784
solheim	-5785
southas	-5786
spelled	-5787
sphorus	-5788
spotted	-5789
spurred	-5790
stalled	-5791
stances	-5792
statist	-5793
staying	-5794
stoller	-5795
storybo	-5796
surging	-5797
sánchez	-5798
tactile	-5799
oz	-5800
abr	-5801
abs	-5802
beg	-5803
cai	-5804
hai	-5805
imo	-5806
koz	-5807
zim	-5808
anth	-5809
ayal	-5810
bark	-5811
fare	-5812
gear	-5813
hest	-5814
imen	-5815
kozy	-5816
pson	-5817
sabr	-5818
seaf	-5819
sude	-5820
utch	-5821
uted	-5822
ware	-5823
wars	-5824
▁are	-5825
▁blo	-5826
▁let	-5827
absor	-5828
acall	-5829
alien	-5830
begun	-5831
cairo	-5832
clean	-5833
coons	-5834
doing	-5835
dutch	-5836
entry	-5837
mundo	-5838
races	-5839
stran	-5840
trail	-5841
ulman	-5842
▁over	-5843
absorb	-5844
acalla	-5845
anghai	-5846
asound	-5847
dingen	-5848
ighest	-5849
sunder	-5850
trayal	-5851
zimmer	-5852
▁bloch	-5853
aceable	-5854
amation	-5855
cocoons	-5856
erarchy	-5857
highest	-5858
ication	-5859
ination	-5860
reading	-5861
regimen	-5862
sabrina	-5863
sarkozy	-5864
seafood	-5865
signals	-5866
sudeten	-5867
talking	-5868
targets	-5869
textile	-5870
thrones	-5871
tingham	-5872
tokugaw	-5873
tonight	-5874
tosomal	-5875
tourism	-5876
tracked	-5877
transit	-5878
travell	-5879
tresses	-5880
tribute	-5881
trigger	-5882
trudeau	-5883
twitchy	-5884
typeset	-5885
ulously	-5886
unadvis	-5887
unassum	-5888
unevent	-5889
unknown	-5890
unstopp	-5891
unusual	-5892
urrican	-5893
uscript	-5894
utional	-5895
vailing	-5896
variant	-5897
viewing	-5898
village	-5899
km	-5900
cam	-5901
cea	-5902
irk	-5903
kir	-5904
sew	-5905
sig	-5906
uir	-5907
viv	-5908
zir	-5909
▁ne	-5910
_6%_	-5911
acid	-5912
amat	-5913
cham	-5914
curs	-5915
hook	-5916
hung	-5917
imit	-5918
irid	-5919
irit	-5920
leus	-5921
peal	-5922
pton	-5923
save	-5924
scan	-5925
stir	-5926
tsar	-5927
▁nev	-5928
_1950	-5929
agant	-5930
butts	-5931
chair	-5932
curve	-5933
defen	-5934
emuir	-5935
iring	-5936
kirri	-5937
owned	-5938
raise	-5939
secon	-5940
sewer	-5941
sigur	-5942
ulcea	-5943
utter	-5944
vivid	-5945
_1947.	-5946
ampton	-5947
anyone	-5948
aparte	-5949
dramat	-5950
endous	-5951
fourth	-5952
hanzir	-5953
inimit	-5954
petent	-5955
plates	-5956
preted	-5957
repeal	-5958
spirit	-5959
tulcea	-5960
viable	-5961
▁nevad	-5962
avagant	-5963
cambrid	-5964
chamber	-5965
commune	-5966
cursors	-5967
cuticle	-5968
defense	-5969
granted	-5970
hungary	-5971
iridium	-5972
irksome	-5973
khanzir	-5974
malleus	-5975
mendous	-5976
seconds	-5977
utterly	-5978
villain	-5979
voucher	-5980
warfare	-5981
warming	-5982
watched	-5983
wellery	-5984
wheeler	-5985
winston	-5986
witness	-5987
worries	-5988
wrights	-5989
writing	-5990
younger	-5991
yucatán	-5992
záhorie	-5993
▁aldrin	-5994
▁barrie	-5995
▁before	-5996
▁buried	-5997
▁darius	-5998
▁emphas	-5999
nh	-6000
_28	-6001
ani	-6002
bid	-6003
bun	-6004
ege	-6005
hey	-6006
kan	-6007
nhs	-6008
nun	-6009
ouv	-6010
owi	-6011
tun	-6012
_202	-6013
_205	-6014
abow	-6015
aman	-6016
doct	-6017
erto	-6018
moto	-6019
nand	-6020
nich	-6021
nter	-6022
nuns	-6023
onmo	-6024
reno	-6025
abowo	-6026
bever	-6027
bunch	-6028
corin	-6029
flock	-6030
mesta	-6031
okowi	-6032
onmob	-6033
oting	-6034
ouvri	-6035
renov	-6036
rever	-6037
salin	-6038
sarah	-6039
siege	-6040
stabb	-6041
stale	-6042
steal	-6043
tunip	-6044
weary	-6045
_2020_	-6046
_2050_	-6047
apulia	-6048
balkan	-6049
buffal	-6050
chilly	-6051
errani	-6052
harbor	-6053
igines	-6054
irable	-6055
jokowi	-6056
nichol	-6057
ooting	-6058
puerto	-6059
xonmob	-6060
_1976,_	-6061
_2020_-	-6062
belongs	-6063
beverly	-6064
buffalo	-6065
corinth	-6066
darnand	-6067
doctors	-6068
guarded	-6069
itioned	-6070
posters	-6071
prabowo	-6072
salaman	-6073
▁explan	-6074
▁forced	-6075
▁global	-6076
▁greece	-6077
▁higher	-6078
▁histor	-6079
▁humans	-6080
▁native	-6081
▁nevada	-6082
▁philip	-6083
▁police	-6084
▁pompey	-6085
▁rather	-6086
▁really	-6087
▁retail	-6088
▁russia	-6089
▁shaped	-6090
▁themat	-6091
▁things	-6092
▁unlike	-6093
▁voting	-6094
▁wilkes	-6095
15,001-£	-6096
_(1994).	-6097
_10,000_	-6098
_16,500_	-6099
_25	-6100
anz	-6101
bce	-6102
boo	-6103
eur	-6104
gur	-6105
sac	-6106
vet	-6107
wol	-6108
acle	-6109
aice	-6110
bono	-6111
chil	-6112
desc	-6113
dumb	-6114
feli	-6115
hect	-6116
hero	-6117
joan	-6118
nato	-6119
rent	-6120
seam	-6121
sted	-6122
tanz	-6123
viol	-6124
_3%,_	-6125
booby	-6126
legit	-6127
lubum	-6128
lyvet	-6129
maldi	-6130
quebe	-6131
sacro	-6132
share	-6133
_£125_	-6134
aurent	-6135
bermar	-6136
chilia	-6137
felipe	-6138
ganese	-6139
heroin	-6140
hosted	-6141
iracle	-6142
plaice	-6143
poused	-6144
prices	-6145
quebec	-6146
salary	-6147
tanzan	-6148
vulner	-6149
wolmar	-6150
_1990,_	-6151
carious	-6152
descend	-6153
eurasia	-6154
hectare	-6155
hillary	-6156
issuing	-6157
itively	-6158
laurent	-6159
miracle	-6160
monitor	-6161
obermar	-6162
pompous	-6163
primary	-6164
regards	-6165
sacroco	-6166
sending	-6167
telekom	-6168
viscous	-6169
_1794),_	-6170
_30,_201	-6171
_35,000_	-6172
achaeans	-6173
ackleton	-6174
activity	-6175
afforded	-6176
agglomer	-6177
airplane	-6178
alliance	-6179
allowing	-6180
altering	-6181
amchatka	-6182
amentary	-6183
ancestry	-6184
annivers	-6185
announce	-6186
ansfield	-6187
antilles	-6188
anything	-6189
approval	-6190
approved	-6191
aquarium	-6192
arenting	-6193
arrogant	-6194
articles	-6195
assroots	-6196
astronom	-6197
atkinson	-6198
attitude	-6199
▁j	-6200
bei	-6201
cly	-6202
gch	-6203
nac	-6204
oty	-6205
sex	-6206
wri	-6207
▁de	-6208
_71_	-6209
chan	-6210
clud	-6211
ctar	-6212
dean	-6213
emon	-6214
gchq	-6215
gods	-6216
gong	-6217
guam	-6218
iled	-6219
ines	-6220
levy	-6221
mead	-6222
noma	-6223
poll	-6224
rely	-6225
seed	-6226
shit	-6227
stim	-6228
uter	-6229
vein	-6230
▁jin	-6231
clyde	-6232
hubei	-6233
lshit	-6234
luiss	-6235
muses	-6236
pines	-6237
strum	-6238
yalty	-6239
▁much	-6240
_1997.	-6241
assume	-6242
bluish	-6243
castel	-6244
chanis	-6245
dashed	-6246
ereoty	-6247
essing	-6248
exclud	-6249
exiled	-6250
javier	-6251
nectar	-6252
princi	-6253
sexist	-6254
sorely	-6255
stuffy	-6256
vernac	-6257
versed	-6258
weight	-6259
anybody	-6260
ceremon	-6261
germain	-6262
gongmin	-6263
loyalty	-6264
monious	-6265
nicolas	-6266
nostrum	-6267
release	-6268
stimate	-6269
thering	-6270
torture	-6271
attracts	-6272
bachelor	-6273
balances	-6274
baptized	-6275
beatings	-6276
bellings	-6277
bergeron	-6278
blockage	-6279
boarding	-6280
breaches	-6281
breathes	-6282
breeding	-6283
brothers	-6284
bullshit	-6285
bullying	-6286
calendar	-6287
cameroon	-6288
campbell	-6289
carefree	-6290
carriage	-6291
carrying	-6292
catalano	-6293
catastro	-6294
catching	-6295
cautions	-6296
cedented	-6297
centrate	-6298
chamberl	-6299
iga	-6300
lei	-6301
smi	-6302
adap	-6303
aded	-6304
atro	-6305
diam	-6306
grat	-6307
imin	-6308
itic	-6309
leap	-6310
orye	-6311
paid	-6312
roof	-6313
thed	-6314
vlad	-6315
atrol	-6316
bench	-6317
crack	-6318
crash	-6319
gorye	-6320
korea	-6321
marat	-6322
peter	-6323
remed	-6324
sixti	-6325
smith	-6326
taiga	-6327
umors	-6328
ureau	-6329
vency	-6330
aldrin	-6331
allegi	-6332
births	-6333
bureau	-6334
crimin	-6335
diamon	-6336
dollar	-6337
goryeo	-6338
gratul	-6339
ingent	-6340
naming	-6341
oblast	-6342
oritic	-6343
panama	-6344
patrol	-6345
remedy	-6346
rumors	-6347
schlei	-6348
tecton	-6349
_1340,_	-6350
amyntas	-6351
assured	-6352
benches	-6353
blinded	-6354
cutting	-6355
earthed	-6356
gaining	-6357
invaded	-6358
phoenic	-6359
siberia	-6360
▁people	-6361
adapting	-6362
chanisms	-6363
charging	-6364
classics	-6365
coincide	-6366
colorado	-6367
commands	-6368
communic	-6369
compared	-6370
conceded	-6371
concerns	-6372
confront	-6373
confused	-6374
connects	-6375
conquers	-6376
consists	-6377
constant	-6378
contrary	-6379
cordance	-6380
corsican	-6381
councils	-6382
countess	-6383
creative	-6384
credited	-6385
criminal	-6386
critical	-6387
cultural	-6388
currence	-6389
currency	-6390
customar	-6391
customer	-6392
davidson	-6393
deceased	-6394
deciding	-6395
definite	-6396
degraded	-6397
delicacy	-6398
demanded	-6399
-2	-6400
21	-6401
?_	-6402
zi	-6403
▁e	-6404
▁k	-6405
-29	-6406
221	-6407
_31	-6408
cli	-6409
lap	-6410
mis	-6411
niv	-6412
saw	-6413
tzi	-6414
uar	-6415
amil	-6416
angl	-6417
buck	-6418
enet	-6419
onto	-6420
prep	-6421
vass	-6422
whip	-6423
wing	-6424
▁eon	-6425
_10%_	-6426
chain	-6427
diale	-6428
minor	-6429
nival	-6430
palma	-6431
remis	-6432
uaron	-6433
▁king	-6434
▁yuan	-6435
agenda	-6436
breast	-6437
compon	-6438
cooper	-6439
laptop	-6440
looper	-6441
prince	-6442
pupils	-6443
vassal	-6444
widely	-6445
_1917,_	-6446
amazing	-6447
carcass	-6448
caustic	-6449
clients	-6450
closure	-6451
florida	-6452
idenced	-6453
network	-6454
paramil	-6455
railing	-6456
resided	-6457
stopped	-6458
worried	-6459
▁cuaron	-6460
anglican	-6461
breasted	-6462
carnival	-6463
democrat	-6464
detailed	-6465
determin	-6466
dialects	-6467
diamonds	-6468
dietrich	-6469
disaster	-6470
disputes	-6471
distinct	-6472
disunity	-6473
division	-6474
document	-6475
domenico	-6476
dressing	-6477
drinking	-6478
earldoms	-6479
earliest	-6480
ednesday	-6481
eibingen	-6482
eighteen	-6483
embedded	-6484
employed	-6485
employee	-6486
emptying	-6487
energies	-6488
enhanced	-6489
enormous	-6490
enraging	-6491
ensation	-6492
entering	-6493
entirety	-6494
entitled	-6495
espoused	-6496
eurozone	-6497
everyday	-6498
everyman	-6499
92	-6500
cg	-6501
df	-6502
ec	-6503
ku	-6504
oe	-6505
oo	-6506
tc	-6507
yl	-6508
▁d	-6509
35.	-6510
bio	-6511
cgi	-6512
dfb	-6513
ecb	-6514
gby	-6515
kuo	-6516
mot	-6517
noc	-6518
wid	-6519
zoo	-6520
92)_	-6521
asyl	-6522
atms	-6523
conv	-6524
crtc	-6525
egan	-6526
feet	-6527
hadn	-6528
knoc	-6529
luis	-6530
mand	-6531
mant	-6532
prop	-6533
smar	-6534
smog	-6535
beust	-6536
brace	-6537
bsite	-6538
canoe	-6539
ender	-6540
ering	-6541
fatal	-6542
floor	-6543
greco	-6544
jason	-6545
mandl	-6546
rrhus	-6547
rugby	-6548
spoke	-6549
undes	-6550
widow	-6551
_2035.	-6552
accent	-6553
asylum	-6554
convin	-6555
critti	-6556
gender	-6557
google	-6558
inside	-6559
lywood	-6560
mantle	-6561
motors	-6562
propag	-6563
racial	-6564
smarag	-6565
warmer	-6566
weller	-6567
zayion	-6568
accentu	-6569
airlift	-6570
arrival	-6571
college	-6572
embrace	-6573
geshire	-6574
politti	-6575
pyrrhus	-6576
quality	-6577
removed	-6578
scritti	-6579
shallow	-6580
vialize	-6581
website	-6582
▁cotton	-6583
_(1992)_	-6584
applying	-6585
executed	-6586
expenses	-6587
explains	-6588
expropri	-6589
extended	-6590
external	-6591
favoured	-6592
february	-6593
federico	-6594
financed	-6595
fiorello	-6596
flocking	-6597
focusing	-6598
follower	-6599
gk	-6600
mg	-6601
xy	-6602
ibo	-6603
map	-6604
mgb	-6605
oxy	-6606
pad	-6607
psy	-6608
uit	-6609
_36_	-6610
aple	-6611
avor	-6612
beat	-6613
blad	-6614
clin	-6615
edal	-6616
ende	-6617
gkok	-6618
iami	-6619
ktel	-6620
pets	-6621
trac	-6622
alger	-6623
baden	-6624
curio	-6625
ettel	-6626
fruit	-6627
grows	-6628
haste	-6629
impos	-6630
omous	-6631
psych	-6632
shore	-6633
teran	-6634
▁most	-6635
andino	-6636
antage	-6637
asking	-6638
asktel	-6639
berlin	-6640
buying	-6641
cultic	-6642
dbaden	-6643
disibo	-6644
encore	-6645
filmed	-6646
floren	-6647
helena	-6648
operas	-6649
oxygen	-6650
ported	-6651
prerog	-6652
spedal	-6653
spoken	-6654
staple	-6655
thanos	-6656
upbeat	-6657
uppets	-6658
zettel	-6659
▁miami	-6660
▁under	-6661
_1856,_	-6662
algeria	-6663
bangkok	-6664
bladder	-6665
equator	-6666
firstly	-6667
leaking	-6668
muppets	-6669
notable	-6670
onomous	-6671
sasktel	-6672
sixties	-6673
trouble	-6674
vaguely	-6675
vantage	-6676
veteran	-6677
▁caplan	-6678
▁cultic	-6679
,_1977,_	-6680
clinical	-6681
cospedal	-6682
endeavor	-6683
floating	-6684
florence	-6685
forcibly	-6686
foretold	-6687
fostered	-6688
founding	-6689
fraction	-6690
francisc	-6691
freedoms	-6692
frequent	-6693
friendly	-6694
generals	-6695
germaine	-6696
geronimo	-6697
getation	-6698
giovanni	-6699
bj	-6700
bá	-6701
awe	-6702
dou	-6703
hep	-6704
ids	-6705
lee	-6706
mly	-6707
sle	-6708
spb	-6709
sto	-6710
wiz	-6711
_830	-6712
aids	-6713
amic	-6714
awei	-6715
deed	-6716
hech	-6717
infr	-6718
lady	-6719
rspb	-6720
sade	-6721
wasn	-6722
zira	-6723
attle	-6724
bills	-6725
culpt	-6726
incom	-6727
sesto	-6728
sleep	-6729
walls	-6730
xican	-6731
_1632_	-6732
cattle	-6733
firmly	-6734
gezira	-6735
hepbur	-6736
huawei	-6737
intado	-6738
locate	-6739
multip	-6740
sculpt	-6741
sweden	-6742
▁south	-6743
douglas	-6744
execute	-6745
fection	-6746
floated	-6747
hechler	-6748
hepburn	-6749
infrast	-6750
luckily	-6751
melania	-6752
mexican	-6753
mothers	-6754
natives	-6755
packham	-6756
persian	-6757
pintado	-6758
setback	-6759
telltal	-6760
▁indeed	-6761
amicable	-6762
changing	-6763
deserved	-6764
grieving	-6765
guessing	-6766
habsburg	-6767
hanakhon	-6768
handover	-6769
happened	-6770
hardened	-6771
hardware	-6772
hearings	-6773
heinrich	-6774
herodias	-6775
homeland	-6776
homeless	-6777
honorary	-6778
hortefeu	-6779
humanism	-6780
humanoid	-6781
humphrey	-6782
hundreds	-6783
hurrican	-6784
hypothes	-6785
hysteria	-6786
icopters	-6787
ilbeault	-6788
immersed	-6789
imported	-6790
imposing	-6791
incorpor	-6792
incurred	-6793
informed	-6794
injuries	-6795
inquired	-6796
inspired	-6797
instance	-6798
insuffic	-6799
?'	-6800
gm	-6801
jr	-6802
za	-6803
aku	-6804
aus	-6805
ctv	-6806
gor	-6807
hat	-6808
ier	-6809
iny	-6810
lol	-6811
mei	-6812
shi	-6813
?'"_	-6814
bums	-6815
clau	-6816
emit	-6817
fans	-6818
meza	-6819
omed	-6820
risk	-6821
shad	-6822
shed	-6823
tiny	-6824
uent	-6825
uier	-6826
abaku	-6827
anshi	-6828
artin	-6829
basis	-6830
brice	-6831
chand	-6832
clock	-6833
gerry	-6834
ggers	-6835
igali	-6836
looks	-6837
reich	-6838
bodies	-6839
clause	-6840
format	-6841
genies	-6842
grants	-6843
hatred	-6844
ifuent	-6845
impair	-6846
kigali	-6847
lagoon	-6848
pursue	-6849
shadow	-6850
_2007,_	-6851
abakumo	-6852
acutely	-6853
blebums	-6854
bloomed	-6855
cifuent	-6856
crative	-6857
entious	-6858
farming	-6859
leather	-6860
mystery	-6861
ogenies	-6862
resting	-6863
samnium	-6864
viguier	-6865
whoever	-6866
▁london	-6867
▁martin	-6868
abakumov	-6869
appetite	-6870
bloggers	-6871
chandler	-6872
designed	-6873
emitters	-6874
factions	-6875
intensif	-6876
inviting	-6877
isabella	-6878
istanbul	-6879
jennings	-6880
kentucky	-6881
kesteven	-6882
keyboard	-6883
knocking	-6884
labelled	-6885
lifetime	-6886
lighting	-6887
lineates	-6888
lowlands	-6889
lybdenum	-6890
maldives	-6891
manufact	-6892
marcelle	-6893
markings	-6894
massebot	-6895
mattress	-6896
mcgregor	-6897
mcneilly	-6898
measured	-6899
_29	-6900
ank	-6901
itt	-6902
mes	-6903
nar	-6904
yud	-6905
',_'	-6906
alin	-6907
beam	-6908
fair	-6909
gren	-6910
iced	-6911
meso	-6912
move	-6913
pros	-6914
seek	-6915
sort	-6916
_1%,_	-6917
altit	-6918
brush	-6919
edgar	-6920
garth	-6921
hotel	-6922
movie	-6923
newly	-6924
pilot	-6925
ppard	-6926
prank	-6927
probe	-6928
slavs	-6929
tally	-6930
_2900_	-6931
acious	-6932
argued	-6933
auster	-6934
corner	-6935
edward	-6936
ernest	-6937
fallon	-6938
levitt	-6939
narrow	-6940
perial	-6941
ruling	-6942
stalin	-6943
strang	-6944
ticino	-6945
▁weiss	-6946
_2000,_	-6947
curious	-6948
entrust	-6949
estrang	-6950
ivostok	-6951
noticed	-6952
objects	-6953
passera	-6954
prosper	-6955
pushing	-6956
reasons	-6957
routine	-6958
totally	-6959
▁donald	-6960
▁stalin	-6961
achments	-6962
altitude	-6963
findings	-6964
gracious	-6965
imperial	-6966
interact	-6967
invested	-6968
medieval	-6969
meetings	-6970
megarian	-6971
memories	-6972
mexicans	-6973
militant	-6974
millican	-6975
minerals	-6976
ministry	-6977
mobility	-6978
mohammed	-6979
monarchy	-6980
moravian	-6981
mosphere	-6982
multiple	-6983
musicals	-6984
musician	-6985
narrates	-6986
oblivion	-6987
obscured	-6988
observed	-6989
obtained	-6990
occasion	-6991
offences	-6992
offering	-6993
offshore	-6994
olescent	-6995
operates	-6996
opponent	-6997
original	-6998
ortation	-6999
atr	-7000
ert	-7001
exu	-7002
ggl	-7003
jan	-7004
lic	-7005
mut	-7006
nas	-7007
▁no	-7008
_...	-7009
agor	-7010
aits	-7011
ales	-7012
budd	-7013
ears	-7014
eing	-7015
eras	-7016
fant	-7017
goff	-7018
ilst	-7019
mens	-7020
otic	-7021
recl	-7022
reti	-7023
thus	-7024
zexu	-7025
zing	-7026
agora	-7027
codes	-7028
enian	-7029
forth	-7030
ieces	-7031
monte	-7032
osbor	-7033
rehab	-7034
squad	-7035
ssaly	-7036
staff	-7037
stric	-7038
tears	-7039
terri	-7040
winds	-7041
▁cele	-7042
_1945.	-7043
assert	-7044
boeing	-7045
buddha	-7046
colour	-7047
drople	-7048
ggling	-7049
goffre	-7050
licens	-7051
nascar	-7052
ources	-7053
photos	-7054
pieces	-7055
theatr	-7056
throne	-7057
tories	-7058
trojan	-7059
whilst	-7060
chaotic	-7061
dolmens	-7062
episode	-7063
females	-7064
inhibit	-7065
matters	-7066
osborne	-7067
restric	-7068
retiree	-7069
stables	-7070
straits	-7071
attacked	-7072
attended	-7073
conquest	-7074
designer	-7075
droplets	-7076
freezing	-7077
goffredo	-7078
outbreak	-7079
outgoing	-7080
overtook	-7081
painting	-7082
papworth	-7083
paraging	-7084
pardoned	-7085
passages	-7086
patients	-7087
peniston	-7088
personal	-7089
petrassi	-7090
planning	-7091
plicable	-7092
pluviose	-7093
politics	-7094
populate	-7095
portions	-7096
portugal	-7097
positive	-7098
powerful	-7099
▁u	-7100
,_1	-7101
,_“	-7102
.,_	-7103
atl	-7104
eag	-7105
gay	-7106
kim	-7107
len	-7108
rhs	-7109
tou	-7110
voc	-7111
beno	-7112
enck	-7113
hors	-7114
lder	-7115
maps	-7116
toad	-7117
ural	-7118
,_10_	-7119
_367_	-7120
_40%_	-7121
arose	-7122
badar	-7123
boost	-7124
deeds	-7125
eagle	-7126
elder	-7127
judge	-7128
lenno	-7129
limit	-7130
monum	-7131
spend	-7132
toads	-7133
tough	-7134
villa	-7135
vocal	-7136
▁dust	-7137
_1538_	-7138
abouts	-7139
aliths	-7140
assass	-7141
atlant	-7142
horses	-7143
iature	-7144
ilding	-7145
lennox	-7146
montre	-7147
palmer	-7148
panval	-7149
stream	-7150
▁catal	-7151
▁papua	-7152
_2006,_	-7153
counter	-7154
factors	-7155
garonne	-7156
georges	-7157
gilding	-7158
panvalk	-7159
rescind	-7160
schenck	-7161
statute	-7162
unarmed	-7163
atlantic	-7164
badarpur	-7165
enlisted	-7166
millions	-7167
montreal	-7168
monument	-7169
prepared	-7170
presided	-7171
pressing	-7172
priority	-7173
probably	-7174
producer	-7175
profound	-7176
progress	-7177
promised	-7178
promoted	-7179
properly	-7180
proudest	-7181
province	-7182
provoked	-7183
prussian	-7184
ptionist	-7185
purposes	-7186
rational	-7187
realized	-7188
recently	-7189
recorded	-7190
recovery	-7191
regarded	-7192
rejected	-7193
relieved	-7194
religion	-7195
remarked	-7196
required	-7197
retained	-7198
retrospe	-7199
agr	-7200
mma	-7201
nis	-7202
oto	-7203
ras	-7204
spy	-7205
ube	-7206
uno	-7207
▁ca	-7208
aine	-7209
aler	-7210
anas	-7211
anda	-7212
bant	-7213
beer	-7214
jail	-7215
llow	-7216
rasa	-7217
tint	-7218
usen	-7219
▁new	-7220
_11,_	-7221
adopt	-7222
bantu	-7223
bruno	-7224
disap	-7225
fragr	-7226
irish	-7227
jesse	-7228
lemma	-7229
merit	-7230
otter	-7231
oussa	-7232
regul	-7233
sally	-7234
solid	-7235
spite	-7236
swath	-7237
_2004.	-7238
adless	-7239
deploy	-7240
elaine	-7241
glides	-7242
hausen	-7243
levies	-7244
maroto	-7245
mocked	-7246
murphy	-7247
newton	-7248
oussae	-7249
outube	-7250
pilate	-7251
singer	-7252
slated	-7253
stores	-7254
tennis	-7255
tintin	-7256
unborn	-7257
unwill	-7258
yellow	-7259
▁three	-7260
alerted	-7261
amiable	-7262
bananas	-7263
dilemma	-7264
drawing	-7265
lasting	-7266
plotter	-7267
refusal	-7268
sharing	-7269
skylark	-7270
thunder	-7271
timings	-7272
wartime	-7273
youtube	-7274
▁cather	-7275
▁likely	-7276
belgrade	-7277
hibiting	-7278
nicholas	-7279
opinions	-7280
reunited	-7281
reverend	-7282
reversed	-7283
revivals	-7284
roadless	-7285
rocketed	-7286
sakhalin	-7287
salzburg	-7288
saratoga	-7289
scenario	-7290
schulman	-7291
scotland	-7292
scottish	-7293
securing	-7294
sequence	-7295
shenanig	-7296
sheppard	-7297
shockwav	-7298
shoppers	-7299
0;	-7300
8.	-7301
rr	-7302
_2_	-7303
bob	-7304
eta	-7305
hes	-7306
ums	-7307
yum	-7308
0;_"	-7309
brow	-7310
clus	-7311
idas	-7312
ires	-7313
lous	-7314
oing	-7315
pact	-7316
pear	-7317
wasp	-7318
▁mrs	-7319
_66%.	-7320
comic	-7321
feast	-7322
finer	-7323
hesit	-7324
ideas	-7325
ising	-7326
izure	-7327
kenya	-7328
lousy	-7329
pearl	-7330
reets	-7331
stain	-7332
traps	-7333
▁ford	-7334
_1998.	-7335
_50;_"	-7336
albany	-7337
browse	-7338
cultur	-7339
feasts	-7340
forums	-7341
manage	-7342
proxim	-7343
puppet	-7344
search	-7345
stingu	-7346
victor	-7347
▁sails	-7348
▁spain	-7349
▁water	-7350
_1948,_	-7351
advance	-7352
conclus	-7353
czechos	-7354
debated	-7355
hammers	-7356
italian	-7357
ongoing	-7358
plastic	-7359
rachida	-7360
seizure	-7361
serious	-7362
streets	-7363
sunrise	-7364
sustain	-7365
▁adidas	-7366
barrosos	-7367
develops	-7368
hesitant	-7369
phically	-7370
populace	-7371
requires	-7372
resident	-7373
shortage	-7374
sinister	-7375
situated	-7376
sixtieth	-7377
snapchat	-7378
soldiers	-7379
somebody	-7380
spartans	-7381
springer	-7382
stabbing	-7383
stantial	-7384
stealers	-7385
stemming	-7386
stepping	-7387
stereoty	-7388
sterling	-7389
stickers	-7390
stopping	-7391
stranger	-7392
stresses	-7393
strongly	-7394
subianto	-7395
suffered	-7396
sunglass	-7397
supposed	-7398
suspects	-7399
aco	-7400
iag	-7401
ike	-7402
kel	-7403
mum	-7404
pul	-7405
rsc	-7406
1.4_	-7407
aoun	-7408
arts	-7409
bler	-7410
blur	-7411
extr	-7412
foun	-7413
graz	-7414
keen	-7415
lers	-7416
pull	-7417
qued	-7418
thug	-7419
ultr	-7420
umul	-7421
wake	-7422
wice	-7423
yest	-7424
▁our	-7425
▁war	-7426
_200_	-7427
anach	-7428
arted	-7429
carlo	-7430
gence	-7431
izing	-7432
mummy	-7433
opers	-7434
proof	-7435
rossi	-7436
saved	-7437
spike	-7438
twice	-7439
▁doss	-7440
_1980_	-7441
alpine	-7442
andrew	-7443
boemer	-7444
comers	-7445
friday	-7446
galaxy	-7447
ieyasu	-7448
monaco	-7449
monkey	-7450
nickel	-7451
oppose	-7452
piqued	-7453
presum	-7454
tients	-7455
walked	-7456
walter	-7457
yester	-7458
_1,165_	-7459
_1926,_	-7460
accumul	-7461
causing	-7462
charted	-7463
choking	-7464
cranach	-7465
feeling	-7466
founder	-7467
grazing	-7468
placing	-7469
rambler	-7470
resides	-7471
suspens	-7472
▁amazon	-7473
absentee	-7474
commuter	-7475
identity	-7476
presence	-7477
settlers	-7478
severity	-7479
somerset	-7480
switched	-7481
syllable	-7482
synoptic	-7483
tailbone	-7484
talmadge	-7485
tanzania	-7486
telltale	-7487
tempered	-7488
tensions	-7489
terrible	-7490
textiles	-7491
thailand	-7492
theology	-7493
theories	-7494
thessaly	-7495
thompson	-7496
thoughts	-7497
tiberius	-7498
tientsin	-7499
6.	-7500
▁or	-7501
_(6.	-7502
ball	-7503
bert	-7504
dipo	-7505
else	-7506
etic	-7507
hasn	-7508
lone	-7509
pall	-7510
poem	-7511
poor	-7512
spor	-7513
tipo	-7514
topo	-7515
warr	-7516
whom	-7517
▁all	-7518
_70%_	-7519
afflu	-7520
amend	-7521
ategy	-7522
beast	-7523
chmer	-7524
divor	-7525
inord	-7526
meyer	-7527
quite	-7528
stuff	-7529
allows	-7530
antill	-7531
canada	-7532
dipole	-7533
emberg	-7534
germin	-7535
height	-7536
jewish	-7537
lonely	-7538
moment	-7539
sports	-7540
willow	-7541
angeles	-7542
belling	-7543
drought	-7544
genetic	-7545
golfers	-7546
gondola	-7547
hearing	-7548
herbert	-7549
lagoons	-7550
liberty	-7551
massive	-7552
medical	-7553
tschmer	-7554
affluent	-7555
alarming	-7556
antillas	-7557
divorced	-7558
enbrooke	-7559
expanded	-7560
germanic	-7561
imperson	-7562
investor	-7563
labrocca	-7564
resolver	-7565
strategy	-7566
tlements	-7567
tokugawa	-7568
totaling	-7569
tracking	-7570
troopers	-7571
tropical	-7572
troubled	-7573
uaxactun	-7574
unaccept	-7575
uncooper	-7576
undersea	-7577
unearths	-7578
unemploy	-7579
uniforms	-7580
unimagin	-7581
upturned	-7582
villeneu	-7583
violence	-7584
visiting	-7585
volcanic	-7586
watching	-7587
waterway	-7588
weakness	-7589
websites	-7590
weekdays	-7591
welcomed	-7592
wetlands	-7593
whenever	-7594
wildlife	-7595
williams	-7596
witching	-7597
worrying	-7598
worsened	-7599
_24	-7600
buy	-7601
joe	-7602
lla	-7603
nia	-7604
spr	-7605
tio	-7606
_20_	-7607
aims	-7608
cens	-7609
enos	-7610
essa	-7611
fate	-7612
hase	-7613
lles	-7614
marr	-7615
mete	-7616
nude	-7617
tide	-7618
tive	-7619
vene	-7620
butor	-7621
conte	-7622
crust	-7623
davis	-7624
diess	-7625
effor	-7626
empor	-7627
essay	-7628
essen	-7629
irony	-7630
phase	-7631
spraw	-7632
sulla	-7633
trust	-7634
_1887.	-7635
_2012_	-7636
buenos	-7637
cedure	-7638
covery	-7639
devout	-7640
fornia	-7641
greeks	-7642
indies	-7643
lected	-7644
models	-7645
morgan	-7646
odessa	-7647
ouring	-7648
sprawl	-7649
subdue	-7650
tioman	-7651
veneto	-7652
verted	-7653
▁later	-7654
_1492;_	-7655
_2014,_	-7656
alarmed	-7657
belgian	-7658
chicken	-7659
compact	-7660
daytime	-7661
efforts	-7662
enforce	-7663
essment	-7664
liberal	-7665
planned	-7666
project	-7667
tribune	-7668
workout	-7669
accurate	-7670
branches	-7671
emporary	-7672
marriage	-7673
mystical	-7674
ordinary	-7675
outposts	-7676
selected	-7677
writhing	-7678
xonmobil	-7679
ysicians	-7680
zodiacal	-7681
▁amnesty	-7682
▁another	-7683
▁artists	-7684
▁bananas	-7685
▁because	-7686
▁british	-7687
▁charles	-7688
▁chinese	-7689
▁clinton	-7690
▁corrado	-7691
▁current	-7692
▁elliott	-7693
▁failing	-7694
▁finally	-7695
▁founded	-7696
▁granite	-7697
▁habitat	-7698
▁indians	-7699
eme	-7700
fee	-7701
god	-7702
▁go	-7703
_195	-7704
_19_	-7705
bern	-7706
blow	-7707
cali	-7708
flat	-7709
gema	-7710
hans	-7711
hind	-7712
imum	-7713
kind	-7714
knot	-7715
mach	-7716
qual	-7717
rice	-7718
yard	-7719
adher	-7720
arets	-7721
brain	-7722
brant	-7723
brate	-7724
bruyn	-7725
congo	-7726
facts	-7727
inher	-7728
knott	-7729
negan	-7730
older	-7731
phone	-7732
rhine	-7733
stive	-7734
trees	-7735
upper	-7736
usher	-7737
ardent	-7738
behind	-7739
donors	-7740
fellow	-7741
genius	-7742
scheme	-7743
string	-7744
udyard	-7745
unqual	-7746
▁gomer	-7747
_1955,_	-7748
actical	-7749
appoint	-7750
bernard	-7751
festive	-7752
harvard	-7753
ictated	-7754
injured	-7755
machine	-7756
matches	-7757
minimum	-7758
newable	-7759
outlook	-7760
relaxed	-7761
rendous	-7762
rudyard	-7763
vibrate	-7764
▁gomery	-7765
dictated	-7766
distance	-7767
firewall	-7768
inherent	-7769
messages	-7770
minarets	-7771
slapstic	-7772
southsea	-7773
standard	-7774
tactical	-7775
tectonic	-7776
ushering	-7777
▁earlier	-7778
▁instead	-7779
▁leaders	-7780
▁michael	-7781
▁mishima	-7782
▁nicolai	-7783
▁phrased	-7784
▁snowman	-7785
▁starlin	-7786
▁stephen	-7787
▁sulphur	-7788
▁through	-7789
▁thunder	-7790
▁trudeau	-7791
▁tuesday	-7792
▁various	-7793
▁warning	-7794
▁wintour	-7795
3-2014_—_	-7796
_(1918),_	-7797
_(1954),_	-7798
_(6.30-10	-7799
cig	-7800
dos	-7801
gif	-7802
blin	-7803
boat	-7804
capp	-7805
doss	-7806
este	-7807
gifs	-7808
gord	-7809
harm	-7810
indo	-7811
sole	-7812
wait	-7813
wool	-7814
_20,_	-7815
decca	-7816
ental	-7817
favor	-7818
kiera	-7819
linds	-7820
opted	-7821
plano	-7822
preme	-7823
quits	-7824
tends	-7825
touch	-7826
units	-7827
▁land	-7828
▁such	-7829
_1904_	-7830
arking	-7831
cannot	-7832
capped	-7833
condos	-7834
crying	-7835
gordon	-7836
igence	-7837
observ	-7838
peking	-7839
relate	-7840
showed	-7841
theast	-7842
unions	-7843
uplift	-7844
▁still	-7845
blinder	-7846
courant	-7847
engaged	-7848
herself	-7849
lindsay	-7850
nanking	-7851
supreme	-7852
vatican	-7853
▁cities	-7854
▁dozens	-7855
_30,_195	-7856
admitted	-7857
adriatic	-7858
advanced	-7859
appalled	-7860
chairman	-7861
disposed	-7862
liberate	-7863
mitigate	-7864
oriental	-7865
possibly	-7866
sessions	-7867
sparking	-7868
_--_2017_	-7869
_100,000_	-7870
_168,000_	-7871
_2020_--_	-7872
_330,000_	-7873
_512-511_	-7874
_600,000_	-7875
_£10,000_	-7876
_£12,000_	-7877
_£3,000-£	-7878
abandoned	-7879
acclaimed	-7880
activated	-7881
addiction	-7882
adherents	-7883
admission	-7884
advancing	-7885
affection	-7886
aggregate	-7887
alienated	-7888
alliances	-7889
allowance	-7890
alongside	-7891
amendment	-7892
analysing	-7893
antarctic	-7894
anthology	-7895
antiquity	-7896
apartment	-7897
appealing	-7898
artifacts	-7899
dry	-7900
guy	-7901
_1%.	-7902
_18_	-7903
aunt	-7904
cars	-7905
cold	-7906
cups	-7907
etym	-7908
hack	-7909
iran	-7910
ivia	-7911
nary	-7912
omes	-7913
udes	-7914
vary	-7915
vine	-7916
▁day	-7917
alice	-7918
blown	-7919
cache	-7920
clown	-7921
crist	-7922
diary	-7923
drawn	-7924
extra	-7925
guest	-7926
homes	-7927
ivity	-7928
moron	-7929
rocco	-7930
sight	-7931
umble	-7932
vance	-7933
vital	-7934
wells	-7935
▁lord	-7936
_1882.	-7937
_2005_	-7938
actual	-7939
backed	-7940
carter	-7941
compul	-7942
johnny	-7943
league	-7944
mining	-7945
monday	-7946
notice	-7947
offers	-7948
olivia	-7949
remote	-7950
unable	-7951
willis	-7952
_1,335_	-7953
afterno	-7954
attacks	-7955
cleared	-7956
crumble	-7957
demands	-7958
existed	-7959
failure	-7960
futures	-7961
hostage	-7962
legions	-7963
premier	-7964
promise	-7965
avoiding	-7966
cristina	-7967
evaluate	-7968
familiar	-7969
patterns	-7970
property	-7971
robinson	-7972
socially	-7973
upcoming	-7974
vicissit	-7975
▁gaining	-7976
▁grafton	-7977
afternoon	-7978
assembled	-7979
astically	-7980
athenians	-7981
attending	-7982
audiences	-7983
austrians	-7984
autosomal	-7985
balancing	-7986
behaviour	-7987
benefited	-7988
billboard	-7989
biography	-7990
blindleia	-7991
bonaparte	-7992
bordering	-7993
bosphorus	-7994
botanical	-7995
bothering	-7996
breakdown	-7997
buildings	-7998
burgesses	-7999
_("	-8000
_30	-8001
gta	-8002
▁my	-8003
▁so	-8004
_30_	-8005
arms	-8006
avro	-8007
boom	-8008
crew	-8009
feed	-8010
ipas	-8011
mare	-8012
saul	-8013
shoc	-8014
slow	-8015
unaw	-8016
vels	-8017
watt	-8018
▁dur	-8019
▁low	-8020
aving	-8021
cases	-8022
depth	-8023
exams	-8024
flown	-8025
jimmy	-8026
norma	-8027
oppos	-8028
parli	-8029
parma	-8030
revel	-8031
stren	-8032
▁last	-8033
_3000_	-8034
amarna	-8035
brands	-8036
livest	-8037
marvel	-8038
nestus	-8039
norman	-8040
novels	-8041
▁blunt	-8042
▁durán	-8043
antipas	-8044
booming	-8045
coinage	-8046
craving	-8047
denmark	-8048
halifax	-8049
idental	-8050
kenseth	-8051
romania	-8052
spiegel	-8053
unaware	-8054
▁reagan	-8055
animated	-8056
creation	-8057
formerly	-8058
nobility	-8059
opposite	-8060
seasonal	-8061
shanghai	-8062
shocking	-8063
shooting	-8064
supplied	-8065
supports	-8066
symbolic	-8067
byzantium	-8068
calabrian	-8069
candidacy	-8070
captained	-8071
caracalla	-8072
carefully	-8073
carpenter	-8074
cassation	-8075
cautioned	-8076
celebrity	-8077
certainty	-8078
certified	-8079
churchill	-8080
cifuentes	-8081
ciliation	-8082
cinematic	-8083
civilians	-8084
classical	-8085
collected	-8086
collision	-8087
colonised	-8088
colonists	-8089
combative	-8090
commented	-8091
committed	-8092
communist	-8093
competing	-8094
component	-8095
conceived	-8096
concerned	-8097
conferred	-8098
congratul	-8099
15_	-8100
_27	-8101
arc	-8102
_28_	-8103
crow	-8104
epic	-8105
evol	-8106
flap	-8107
mash	-8108
surd	-8109
▁was	-8110
accol	-8111
arise	-8112
bread	-8113
crowd	-8114
folks	-8115
guild	-8116
irena	-8117
joint	-8118
lasts	-8119
noble	-8120
noise	-8121
opens	-8122
print	-8123
slate	-8124
surge	-8125
traum	-8126
waits	-8127
._96,_	-8128
_1415_	-8129
_1900_	-8130
absurd	-8131
acknow	-8132
advice	-8133
counts	-8134
effect	-8135
finish	-8136
greens	-8137
intent	-8138
lining	-8139
marina	-8140
player	-8141
quoted	-8142
revolt	-8143
▁where	-8144
-1962,_	-8145
_1072,_	-8146
_6,000_	-8147
actress	-8148
darling	-8149
evolved	-8150
factory	-8151
finland	-8152
grounds	-8153
ireland	-8154
michael	-8155
moscone	-8156
nowhere	-8157
players	-8158
protein	-8159
serving	-8160
whereas	-8161
▁enough	-8162
occurred	-8163
printing	-8164
teratoma	-8165
▁besides	-8166
accolades	-8167
adulterer	-8168
cameroons	-8169
consisted	-8170
consolate	-8171
consulted	-8172
consumers	-8173
contained	-8174
contested	-8175
continues	-8176
converted	-8177
convinced	-8178
courtship	-8179
cowritten	-8180
criticize	-8181
customary	-8182
daughters	-8183
deducting	-8184
defending	-8185
deficient	-8186
delighted	-8187
departure	-8188
dependent	-8189
depletion	-8190
designers	-8191
difficult	-8192
dimension	-8193
dinosaurs	-8194
direction	-8195
disappear	-8196
disasters	-8197
disbanded	-8198
discourse	-8199
discovery	-8200
discredit	-8201
discusses	-8202
dismissal	-8203
dismisses	-8204
dispersed	-8205
displaced	-8206
disrupted	-8207
downsized	-8208
economics	-8209
ecosystem	-8210
effective	-8211
elections	-8212
emergence	-8213
emergency	-8214
emigrated	-8215
emotional	-8216
employees	-8217
episcopal	-8218
equinoxes	-8219
estranged	-8220
europeans	-8221
evidenced	-8222
excellent	-8223
excessive	-8224
excluding	-8225
exhibited	-8226
existence	-8227
expansive	-8228
expectant	-8229
expecting	-8230
expensive	-8231
expressed	-8232
extending	-8233
extremely	-8234
fantastic	-8235
finalized	-8236
flensburg	-8237
followers	-8238
fortified	-8239
fragrance	-8240
framework	-8241
frontline	-8242
generally	-8243
generated	-8244
generator	-8245
geography	-8246
germinate	-8247
gradation	-8248
graduated	-8249
grenville	-8250
grievance	-8251
guangzhou	-8252
guarantee	-8253
guardians	-8254
guitarist	-8255
happening	-8256
happiness	-8257
headlines	-8258
headscarf	-8259
hierarchy	-8260
hollywood	-8261
hortefeux	-8262
idealized	-8263
illegally	-8264
imaginary	-8265
immigrant	-8266
impressed	-8267
incumbent	-8268
injection	-8269
innuendos	-8270
inspiring	-8271
intensive	-8272
interface	-8273
introduce	-8274
irritated	-8275
jerusalem	-8276
jewellery	-8277
justified	-8278
kamchatka	-8279
kilowatts	-8280
knightley	-8281
legalised	-8282
licensing	-8283
lillesand	-8284
listening	-8285
literally	-8286
livestock	-8287
locations	-8288
lollipops	-8289
lucrative	-8290
macedonia	-8291
malicious	-8292
manganese	-8293
materials	-8294
megabazus	-8295
megaliths	-8296
merchants	-8297
merdingen	-8298
messenian	-8299
migration	-8300
miniature	-8301
mongolian	-8302
motocross	-8303
mutations	-8304
narrative	-8305
nashville	-8306
necessary	-8307
newcomers	-8308
northwest	-8309
obsession	-8310
obviously	-8311
occasions	-8312
occurring	-8313
offensive	-8314
offerings	-8315
officials	-8316
offspring	-8317
operating	-8318
operation	-8319
operators	-8320
orogenies	-8321
oversight	-8322
overthrew	-8323
paeonians	-8324
paintings	-8325
panvalkar	-8326
parallels	-8327
paralysis	-8328
parenting	-8329
passwords	-8330
penalties	-8331
pencilled	-8332
performed	-8333
plantains	-8334
pollution	-8335
portrayal	-8336
possessed	-8337
practical	-8338
precision	-8339
predicted	-8340
preferred	-8341
preparing	-8342
presenter	-8343
primaries	-8344
principle	-8345
prisoners	-8346
procedure	-8347
proconsul	-8348
producers	-8349
producing	-8350
prominent	-8351
promoting	-8352
prompting	-8353
providing	-8354
proximity	-8355
racetrack	-8356
radically	-8357
rastislav	-8358
recording	-8359
recovered	-8360
reference	-8361
regretted	-8362
regulates	-8363
reimburse	-8364
relations	-8365
relatives	-8366
reluctant	-8367
renewable	-8368
renovated	-8369
reporters	-8370
residence	-8371
residents	-8372
resources	-8373
responses	-8374
rttemberg	-8375
safeguard	-8376
sallyanne	-8377
sanctuary	-8378
scholarly	-8379
seaplanes	-8380
sectorial	-8381
sensation	-8382
sensitive	-8383
sephardic	-8384
seventeen	-8385
seventies	-8386
shoulders	-8387
situation	-8388
slapstick	-8389
smaragdis	-8390
socialist	-8391
solstices	-8392
solutions	-8393
southeast	-8394
specimens	-8395
spotlight	-8396
stallions	-8397
standings	-8398
sternlieb	-8399
stoplight	-8400
stylistic	-8401
subsidies	-8402
succeeded	-8403
successes	-8404
successor	-8405
sukhothai	-8406
supervise	-8407
supported	-8408
surveying	-8409
suspected	-8410
taxpayers	-8411
teachings	-8412
technolog	-8413
temperate	-8414
tennessee	-8415
testament	-8416
theorized	-8417
thousands	-8418
throwback	-8419
timelines	-8420
tolerance	-8421
traceable	-8422
travelled	-8423
treasurer	-8424
treatment	-8425
troubling	-8426
typically	-8427
unearthed	-8428
unethical	-8429
universal	-8430
universes	-8431
unlimited	-8432
unnoticed	-8433
unsettled	-8434
untrained	-8435
unusually	-8436
unwilling	-8437
victorias	-8438
visionary	-8439
volcanoes	-8440
warranted	-8441
wednesday	-8442
wholesale	-8443
withdrawn	-8444
withdraws	-8445
yellowish	-8446
yesterday	-8447
yudhoyono	-8448
▁analysis	-8449
▁bouchard	-8450
▁catalano	-8451
▁deciding	-8452
▁designed	-8453
▁emphasis	-8454
▁examples	-8455
▁federico	-8456
▁financed	-8457
▁literacy	-8458
▁medicine	-8459
▁moreover	-8460
▁napoleon	-8461
▁national	-8462
▁northern	-8463
▁numerous	-8464
▁ramesses	-8465
▁republic	-8466
▁shenzhen	-8467
▁tiberius	-8468
▁whatever	-8469
_20,_2001.	-8470
_30,_1955.	-8471
_9,_2002,_	-8472
_£15,001-£	-8473
aborigines	-8474
absolutely	-8475
accessible	-8476
accidental	-8477
accurately	-8478
additional	-8479
addressing	-8480
adolescent	-8481
advantages	-8482
afterwards	-8483
aggressive	-8484
allegiance	-8485
ambassador	-8486
antarctica	-8487
anticipate	-8488
apparently	-8489
applicable	-8490
archbishop	-8491
artificial	-8492
assessment	-8493
associated	-8494
atmosphere	-8495
auspicious	-8496
austerlitz	-8497
autonomous	-8498
basilicata	-8499
bellingham	-8500
boundaries	-8501
bransfield	-8502
buttresses	-8503
caesarians	-8504
calculated	-8505
california	-8506
carbonated	-8507
cellphones	-8508
censorship	-8509
ceremonies	-8510
chalkstone	-8511
challenged	-8512
christians	-8513
chronicles	-8514
cigarettes	-8515
classified	-8516
coastlines	-8517
collection	-8518
collectors	-8519
combatants	-8520
compaction	-8521
comparison	-8522
complaints	-8523
completion	-8524
compulsion	-8525
conceptual	-8526
conditions	-8527
conference	-8528
confidence	-8529
connective	-8530
conquering	-8531
containing	-8532
continents	-8533
contingent	-8534
conversion	-8535
courthouse	-8536
culturally	-8537
curtailing	-8538
dedication	-8539
definitely	-8540
delineates	-8541
demolished	-8542
descendant	-8543
describing	-8544
detectable	-8545
determines	-8546
developing	-8547
difference	-8548
discomfort	-8549
discussion	-8550
dispatched	-8551
disruption	-8552
distinctly	-8553
documented	-8554
domination	-8555
dramatists	-8556
economical	-8557
economists	-8558
ecosystems	-8559
emphasised	-8560
engagement	-8561
enormously	-8562
executives	-8563
exhibition	-8564
expression	-8565
exxonmobil	-8566
favourable	-8567
filmmakers	-8568
firebombed	-8569
floridians	-8570
foreigners	-8571
formidable	-8572
foundation	-8573
freshwater	-8574
generating	-8575
generators	-8576
georgetown	-8577
girlfriend	-8578
grassroots	-8579
groundwork	-8580
guilbeault	-8581
harmonious	-8582
headwaters	-8583
hitchhiker	-8584
horrendous	-8585
humblebums	-8586
hurricanes	-8587
hypothesis	-8588
impairment	-8589
importance	-8590
impossible	-8591
incomplete	-8592
incredibly	-8593
indicating	-8594
indistingu	-8595
individual	-8596
indonesian	-8597
inimitably	-8598
insatiable	-8599
insolvency	-8600
instructed	-8601
interested	-8602
inventions	-8603
irrigation	-8604
journalist	-8605
kilometers	-8606
kirriemuir	-8607
laboratory	-8608
liberation	-8609
litigation	-8610
logistical	-8611
lubumbashi	-8612
mahanakhon	-8613
maintained	-8614
manageable	-8615
manuscript	-8616
mechanisms	-8617
meteoritic	-8618
mindlessly	-8619
ministries	-8620
minorities	-8621
molybdenum	-8622
monarchies	-8623
monegasque	-8624
neighbours	-8625
noteworthy	-8626
nottingham	-8627
numismatic	-8628
occurrence	-8629
officially	-8630
operations	-8631
opposition	-8632
originates	-8633
overseeing	-8634
permission	-8635
persistent	-8636
personally	-8637
pettersson	-8638
phoenician	-8639
physicians	-8640
popularity	-8641
possession	-8642
posthumous	-8643
precarious	-8644
precursors	-8645
prepayment	-8646
presenting	-8647
presumably	-8648
prevailing	-8649
preventing	-8650
principles	-8651
processing	-8652
propaganda	-8653
properties	-8654
protestant	-8655
protesting	-8656
provincial	-8657
psychology	-8658
racecourse	-8659
reasonable	-8660
reasonably	-8661
recognized	-8662
redemption	-8663
reductions	-8664
referenced	-8665
references	-8666
regardless	-8667
registered	-8668
relaxation	-8669
resolution	-8670
scrutinise	-8671
sculptural	-8672
separately	-8673
separation	-8674
seychelles	-8675
shackleton	-8676
shockwaves	-8677
situations	-8678
songwriter	-8679
southasian	-8680
southwards	-8681
statuettes	-8682
strathearn	-8683
structures	-8684
struggling	-8685
subduction	-8686
submission	-8687
subsequent	-8688
succeeding	-8689
suggesting	-8690
sunderland	-8691
sunglasses	-8692
surrenders	-8693
suspension	-8694
suzerainty	-8695
theatrical	-8696
thirteenth	-8697
travellers	-8698
treatments	-8699
tremendous	-8700
trivialize	-8701
ultrasound	-8702
unanswered	-8703
unassuming	-8704
uncommunic	-8705
uncovering	-8706
undercover	-8707
underlying	-8708
underscore	-8709
understand	-8710
undertaken	-8711
undisputed	-8712
uneventful	-8713
unofficial	-8714
unreliable	-8715
vegetation	-8716
vernacular	-8717
versailles	-8718
villainous	-8719
villeneuve	-8720
waterfront	-8721
witchcraft	-8722
zuckerberg	-8723
▁alcoholic	-8724
▁alejandra	-8725
▁catherine	-8726
▁companies	-8727
▁consonant	-8728
▁currently	-8729
▁dominican	-8730
▁education	-8731
▁historian	-8732
▁investors	-8733
▁microsoft	-8734
▁privately	-8735
▁therefore	-8736
▁tradition	-8737
▁valentino	-8738
_10,_1896,_	-8739
_2015-2016.	-8740
_30,_2015,_	-8741
_31,_1832,_	-8742
abandonment	-8743
accumulated	-8744
achievement	-8745
addenbrooke	-8746
altercation	-8747
anniversary	-8748
anticipated	-8749
appointment	-8750
attachments	-8751
australians	-8752
battlefield	-8753
candidature	-8754
carcassonne	-8755
cardholders	-8756
celebrating	-8757
celebration	-8758
chamberlain	-8759
ciscaucasus	-8760
combination	-8761
comfortable	-8762
commercials	-8763
competition	-8764
complicated	-8765
concentrate	-8766
conclusions	-8767
connections	-8768
constituted	-8769
constitutes	-8770
continental	-8771
contracting	-8772
contributed	-8773
corporation	-8774
counsellors	-8775
countryside	-8776
declaration	-8777
demographic	-8778
demonstrate	-8779
dilapidated	-8780
disapproval	-8781
discordance	-8782
disparaging	-8783
distributor	-8784
drastically	-8785
enforcement	-8786
entertained	-8787
environment	-8788
ethnicities	-8789
exceptional	-8790
existential	-8791
expeditions	-8792
exploration	-8793
extensively	-8794
extravagant	-8795
feasibility	-8796
fontvieille	-8797
forecasting	-8798
franciscans	-8799
fulfillment	-8800
fundamental	-8801
grandstands	-8802
hammersmith	-8803
heartwarmer	-8804
helicopters	-8805
highlighted	-8806
iconography	-8807
immigration	-8808
immortality	-8809
importantly	-8810
impregnable	-8811
incompetent	-8812
influential	-8813
inhabitants	-8814
inquisition	-8815
inscription	-8816
instruction	-8817
integration	-8818
intensifies	-8819
intercepted	-8820
interpreted	-8821
intertwined	-8822
journalists	-8823
kilimanjaro	-8824
krasnoyarsk	-8825
melanesians	-8826
mississippi	-8827
nationalism	-8828
nationality	-8829
northampton	-8830
observatory	-8831
overlooking	-8832
partitioned	-8833
percentages	-8834
philippines	-8835
phoenicians	-8836
photographs	-8837
planetarium	-8838
plantagenet	-8839
playwrights	-8840
politicians	-8841
populations	-8842
practically	-8843
precautions	-8844
predictable	-8845
preoccupies	-8846
preparation	-8847
prerogative	-8848
proactively	-8849
problematic	-8850
prohibiting	-8851
promotional	-8852
punishments	-8853
reclamation	-8854
reformation	-8855
refurbished	-8856
reichenbach	-8857
renaissance	-8858
restrictive	-8859
revelations	-8860
rupertsberg	-8861
settlements	-8862
shenanigans	-8863
smartphones	-8864
songwriting	-8865
specialized	-8866
spokeswoman	-8867
statistical	-8868
stipulation	-8869
storyboards	-8870
substantial	-8871
suggestions	-8872
superheroes	-8873
technicians	-8874
telegraphic	-8875
temperature	-8876
territorial	-8877
territories	-8878
thermopylae	-8879
topographic	-8880
townspeople	-8881
transformed	-8882
transitions	-8883
unadvisable	-8884
undesirable	-8885
undeveloped	-8886
universiade	-8887
unqualified	-8888
unstoppable	-8889
vindication	-8890
vladivostok	-8891
volcanology	-8892
vulcanology	-8893
whereabouts	-8894
withdrawing	-8895
▁afterwards	-8896
▁businesses	-8897
▁department	-8898
▁eventually	-8899
▁previously	-8900
▁production	-8901
▁republican	-8902
▁surprising	-8903
accentuating	-8904
acknowledged	-8905
administered	-8906
alternatives	-8907
ambassadress	-8908
announcement	-8909
arrangements	-8910
astronomical	-8911
cabinetmaker	-8912
castelfranco	-8913
certificates	-8914
championship	-8915
childbearing	-8916
civilization	-8917
collaborates	-8918
colonisation	-8919
commissioned	-8920
compensation	-8921
confidential	-8922
congratulate	-8923
conservative	-8924
conservatory	-8925
constituency	-8926
construction	-8927
consultation	-8928
contaminants	-8929
contemporary	-8930
continuously	-8931
contributing	-8932
conventional	-8933
declinations	-8934
definitively	-8935
degenerative	-8936
disabilities	-8937
disappointed	-8938
discontinued	-8939
expectations	-8940
experiencing	-8941
hillsborough	-8942
humanitarian	-8943
impersonator	-8944
inflammatory	-8945
inordinately	-8946
institutions	-8947
insufficient	-8948
intelligence	-8949
intermarried	-8950
intersection	-8951
investigated	-8952
investigator	-8953
kristiansand	-8954
legitimately	-8955
logistically	-8956
manipulating	-8957
manufacturer	-8958
mesoamerican	-8959
municipality	-8960
negotiations	-8961
neighbouring	-8962
nevertheless	-8963
northwestern	-8964
obermarsberg	-8965
participants	-8966
peloponnesus	-8967
performances	-8968
persistently	-8969
pithekoussae	-8970
posthumously	-8971
prescription	-8972
productivity	-8973
professional	-8974
questionings	-8975
receptionist	-8976
registration	-8977
relationship	-8978
romanization	-8979
salinization	-8980
scrupulously	-8981
shipbuilding	-8982
similarities	-8983
speculations	-8984
stakeholders	-8985
strengthened	-8986
successfully	-8987
temperatures	-8988
transmitting	-8989
transporting	-8990
unacceptable	-8991
unemployment	-8992
unimaginable	-8993
vicissitudes	-8994
▁celebrities	-8995
▁christopher	-8996
▁investments	-8997
▁nonetheless	-8998
▁republicans	-8999
_2013-2014_—_	-9000
administrator	-9001
advertisement	-9002
agglomeration	-9003
assassination	-9004
characterised	-9005
circumstances	-9006
climatologies	-9007
confrontation	-9008
conservatives	-9009
constructions	-9010
contamination	-9011
disibodenberg	-9012
disintegrated	-9013
encouragement	-9014
exceptionally	-9015
expropriating	-9016
hydroelectric	-9017
incorporating	-9018
independently	-9019
institutional	-9020
intellectuals	-9021
intentionally	-9022
investigative	-9023
justification	-9024
organisations	-9025
organizations	-9026
parliamentary	-9027
participation	-9028
precipitation	-9029
professionals	-9030
relationships	-9031
retrospective	-9032
revolutionary	-9033
significantly	-9034
stereotypical	-9035
swordsmanship	-9036
theoretically	-9037
traditionally	-9038
transcaucasus	-9039
uncooperative	-9040
undercarriage	-9041
underestimate	-9042
unfortunately	-9043
unprecedented	-9044
unpretentious	-9045
vulnerability	-9046
▁agricultural	-9047
▁concurrently	-9048
▁explanations	-9049
▁specifically	-9050
▁thematically	-9051
administration	-9052
administrative	-9053
bellingshausen	-9054
cambridgeshire	-9055
capitalisation	-9056
climatologists	-9057
contraceptives	-9058
czechoslovakia	-9059
federalization	-9060
identification	-9061
infrastructure	-9062
organizational	-9063
paramilitaries	-9064
reconciliation	-9065
reconstruction	-9066
sacrococcygeal	-9067
schoolchildren	-9068
transportation	-9069
unconventional	-9070
▁corresponding	-9071
▁investigation	-9072
▁theoretically	-9073
▁thunderstorms	-9074
▁unfortunately	-9075
_£3,000-£5,000_	-9076
administrations	-9077
commercializing	-9078
discontinuation	-9079
representatives	-9080
technologically	-9081
transformations	-9082
uncommunicative	-9083
catastrophically	-9084
hydroelectricity	-9085
,16	-9086
-20	-9087
...	-9088
0-£	-9089
03.	-9090
100	-9091
183	-9092
2%_	-9093
20.	-9094
360	-9095
63.	-9096
71_	-9097
75.	-9098
81_	-9099
19,	-9100
191	-9101
192	-9102
195	-9103
197	-9104
37_	-9105
519	-9106
82.	-9107
87.	-9108
87_	-9109
88_	-9110
_49	-9111
_70	-9112
bje	-9113
hfc	-9114
hij	-9115
hnn	-9116
naz	-9117
oga	-9118
uba	-9119
£19	-9120
▁tu	-9121
▁yu	-9122
,001	-9123
,_20	-9124
-£19	-9125
0,_1	-9126
0,_2	-9127
125_	-9128
2016	-9129
28,_	-9130
63,_	-9131
66,_	-9132
70,_	-9133
777_	-9134
79,_	-9135
8),_	-9136
_100	-9137
_135	-9138
_139	-9139
_15.	-9140
_163	-9141
abaz	-9142
aeon	-9143
alax	-9144
amyn	-9145
aphy	-9146
apua	-9147
aska	-9148
azed	-9149
azon	-9150
bedd	-9151
brem	-9152
bsit	-9153
bumb	-9154
bune	-9155
catf	-9156
cind	-9157
cisc	-9158
crip	-9159
dari	-9160
dels	-9161
ecut	-9162
egyp	-9163
enry	-9164
erba	-9165
faul	-9166
ffed	-9167
fici	-9168
font	-9169
froz	-9170
fuse	-9171
gali	-9172
gins	-9173
glob	-9174
habs	-9175
hypo	-9176
ifax	-9177
iker	-9178
ircu	-9179
irls	-9180
jink	-9181
joys	-9182
keny	-9183
kerr	-9184
kier	-9185
lels	-9186
ltic	-9187
madr	-9188
mpic	-9189
nson	-9190
obje	-9191
ockw	-9192
olai	-9193
ontl	-9194
onzá	-9195
oons	-9196
osen	-9197
oslo	-9198
ougl	-9199
.5_	-9200
04_	-9201
14_	-9202
35_	-9203
45_	-9204
65_	-9205
94_	-9206
ibs	-9207
knu	-9208
obs	-9209
82,_	-9210
92,_	-9211
cert	-9212
dify	-9213
empa	-9214
ibbe	-9215
obam	-9216
pels	-9217
pelu	-9218
piet	-9219
pond	-9220
pons	-9221
rane	-9222
rols	-9223
ruct	-9224
sati	-9225
shak	-9226
shik	-9227
slov	-9228
stuf	-9229
subm	-9230
summ	-9231
sunr	-9232
tled	-9233
trop	-9234
tton	-9235
ucas	-9236
ucat	-9237
ucky	-9238
umae	-9239
ungl	-9240
unkn	-9241
upae	-9242
usum	-9243
vidu	-9244
wath	-9245
xico	-9246
xpay	-9247
yasu	-9248
ylar	-9249
ysic	-9250
ysis	-9251
zech	-9252
áhor	-9253
ánch	-9254
ánge	-9255
átim	-9256
▁bog	-9257
▁doz	-9258
▁emp	-9259
▁giv	-9260
▁hab	-9261
▁hit	-9262
▁hum	-9263
▁kes	-9264
▁lou	-9265
▁nap	-9266
▁pom	-9267
▁raf	-9268
▁ram	-9269
▁ron	-9270
▁sin	-9271
▁ste	-9272
100%_	-9273
1987_	-9274
2001.	-9275
2014_	-9276
2016.	-9277
50),_	-9278
_(191	-9279
_1530	-9280
_1912	-9281
_1914	-9282
_1917	-9283
_1918	-9284
_1973	-9285
_1979	-9286
_1993	-9287
_1997	-9288
_2002	-9289
_2004	-9290
_2008	-9291
_2009	-9292
_512-	-9293
acute	-9294
aemen	-9295
aglev	-9296
agoon	-9297
akumo	-9298
ambit	-9299
0,0	-9300
2,0	-9301
2;_	-9302
3,0	-9303
4).	-9304
5,0	-9305
6,0	-9306
_51	-9307
_55	-9308
_56	-9309
_182	-9310
_186	-9311
adio	-9312
alue	-9313
asib	-9314
capu	-9315
clos	-9316
cyge	-9317
enue	-9318
iogr	-9319
legi	-9320
orcy	-9321
sult	-9322
uell	-9323
uely	-9324
valr	-9325
vind	-9326
winh	-9327
▁cap	-9328
▁don	-9329
▁val	-9330
▁vot	-9331
▁win	-9332
ampbe	-9333
amsun	-9334
anama	-9335
anese	-9336
anzan	-9337
apole	-9338
archb	-9339
arles	-9340
arnak	-9341
arrat	-9342
asons	-9343
asseb	-9344
atolo	-9345
audre	-9346
aulle	-9347
avell	-9348
balan	-9349
bangk	-9350
beaul	-9351
beaut	-9352
belgr	-9353
belie	-9354
bigge	-9355
bouch	-9356
bours	-9357
btain	-9358
ccess	-9359
celle	-9360
cenae	-9361
chatk	-9362
chell	-9363
climb	-9364
copal	-9365
cords	-9366
crats	-9367
ctual	-9368
cured	-9369
cuted	-9370
cutic	-9371
cutiv	-9372
danev	-9373
deple	-9374
deplo	-9375
dibly	-9376
dings	-9377
dless	-9378
effre	-9379
eille	-9380
email	-9381
emale	-9382
engag	-9383
enged	-9384
enges	-9385
ength	-9386
equat	-9387
erged	-9388
erked	-9389
ersmi	-9390
expen	-9391
extil	-9392
fects	-9393
feder	-9394
figar	-9395
firew	-9396
fluen	-9397
franc	-9398
garet	-9399
189	-9400
600	-9401
akh	-9402
akn	-9403
aks	-9404
iey	-9405
nak	-9406
vak	-9407
▁19	-9408
▁ra	-9409
aiss	-9410
apie	-9411
ield	-9412
ieli	-9413
mora	-9414
morr	-9415
mort	-9416
numb	-9417
onze	-9418
orie	-9419
reak	-9420
redg	-9421
ucle	-9422
vann	-9423
ysts	-9424
zbur	-9425
▁num	-9426
▁pri	-9427
▁thr	-9428
_1916	-9429
_2005	-9430
adily	-9431
akers	-9432
amily	-9433
angul	-9434
appen	-9435
appin	-9436
arred	-9437
burgo	-9438
ckily	-9439
decad	-9440
decis	-9441
divis	-9442
garon	-9443
geles	-9444
gency	-9445
getow	-9446
ggest	-9447
glasg	-9448
glend	-9449
harle	-9450
headw	-9451
hetor	-9452
hnson	-9453
holid	-9454
huawe	-9455
ibing	-9456
icata	-9457
icros	-9458
ideal	-9459
idson	-9460
idual	-9461
igins	-9462
ijing	-9463
ijink	-9464
ilipp	-9465
ilots	-9466
imals	-9467
imbur	-9468
imply	-9469
inclu	-9470
indig	-9471
indiv	-9472
inese	-9473
inhib	-9474
inosa	-9475
inste	-9476
insuf	-9477
invas	-9478
invit	-9479
ircum	-9480
issal	-9481
issed	-9482
issis	-9483
itles	-9484
jerus	-9485
journ	-9486
jured	-9487
kades	-9488
keswo	-9489
kieli	-9490
kills	-9491
ladiv	-9492
laxed	-9493
leged	-9494
liams	-9495
llect	-9496
lltal	-9497
longs	-9498
lovak	-9499
3.4	-9500
eks	-9501
ews	-9502
kho	-9503
_50;	-9504
cauc	-9505
gium	-9506
msel	-9507
nium	-9508
puts	-9509
rais	-9510
sbor	-9511
selv	-9512
udho	-9513
volv	-9514
xury	-9515
ademy	-9516
adium	-9517
afety	-9518
anges	-9519
anied	-9520
anybo	-9521
anyth	-9522
atium	-9523
becau	-9524
capit	-9525
caust	-9526
ected	-9527
ekday	-9528
erals	-9529
ewing	-9530
ewish	-9531
levis	-9532
mains	-9533
maint	-9534
masse	-9535
maybe	-9536
melan	-9537
moglo	-9538
morav	-9539
nasty	-9540
natch	-9541
nativ	-9542
nects	-9543
nerab	-9544
nexed	-9545
numis	-9546
odiac	-9547
ograp	-9548
ondol	-9549
ontvi	-9550
opped	-9551
oryeo	-9552
oslov	-9553
ostok	-9554
oters	-9555
ouple	-9556
peluc	-9557
penin	-9558
petro	-9559
plann	-9560
poken	-9561
pokes	-9562
portu	-9563
potat	-9564
potom	-9565
pport	-9566
princ	-9567
ptual	-9568
pupil	-9569
purpo	-9570
puted	-9571
putes	-9572
pyong	-9573
quick	-9574
rants	-9575
rator	-9576
recog	-9577
refus	-9578
relat	-9579
rency	-9580
resem	-9581
ronic	-9582
ropes	-9583
rosos	-9584
sahar	-9585
sampl	-9586
sente	-9587
shenz	-9588
simil	-9589
sists	-9590
smart	-9591
solst	-9592
solut	-9593
songw	-9594
stemm	-9595
stems	-9596
steph	-9597
stepp	-9598
stern	-9599
89	-9600
.4_	-9601
01.	-9602
aty	-9603
cky	-9604
dri	-9605
eel	-9606
emi	-9607
ems	-9608
erm	-9609
hav	-9610
lae	-9611
lak	-9612
pus	-9613
syn	-9614
tem	-9615
vio	-9616
vor	-9617
yem	-9618
yla	-9619
zus	-9620
aill	-9621
aise	-9622
cipl	-9623
ckil	-9624
cosy	-9625
deci	-9626
duck	-9627
eric	-9628
glit	-9629
iate	-9630
iden	-9631
idge	-9632
ifty	-9633
inci	-9634
inem	-9635
irty	-9636
kous	-9637
lave	-9638
lind	-9639
litt	-9640
ller	-9641
mock	-9642
pate	-9643
peac	-9644
quad	-9645
setb	-9646
soci	-9647
suck	-9648
sula	-9649
syst	-9650
xand	-9651
▁lit	-9652
▁nor	-9653
ainly	-9654
anton	-9655
arlin	-9656
draws	-9657
enbro	-9658
erlit	-9659
gland	-9660
idges	-9661
illan	-9662
illen	-9663
illis	-9664
illow	-9665
inate	-9666
irety	-9667
ither	-9668
litch	-9669
perty	-9670
reate	-9671
riate	-9672
riter	-9673
ritor	-9674
stery	-9675
stitu	-9676
stopl	-9677
studi	-9678
subse	-9679
subur	-9680
succe	-9681
sults	-9682
sured	-9683
tails	-9684
talle	-9685
tarif	-9686
terss	-9687
tests	-9688
thens	-9689
thnic	-9690
tholo	-9691
thron	-9692
ticin	-9693
ticke	-9694
tific	-9695
tiliz	-9696
tized	-9697
tokug	-9698
torcy	-9699
ji	-9700
oy	-9701
rw	-9702
api	-9703
apl	-9704
apt	-9705
cus	-9706
esn	-9707
ett	-9708
gne	-9709
lel	-9710
lli	-9711
mme	-9712
nea	-9713
neg	-9714
nop	-9715
onk	-9716
oph	-9717
opi	-9718
osp	-9719
ria	-9720
rix	-9721
riz	-9722
soc	-9723
som	-9724
yli	-9725
zon	-9726
adar	-9727
apit	-9728
attl	-9729
emig	-9730
enic	-9731
enli	-9732
fter	-9733
gers	-9734
icly	-9735
iege	-9736
ilot	-9737
isap	-9738
isne	-9739
lian	-9740
moni	-9741
neig	-9742
neil	-9743
onap	-9744
onso	-9745
opes	-9746
ople	-9747
oted	-9748
otes	-9749
rene	-9750
rial	-9751
rist	-9752
seap	-9753
shar	-9754
unli	-9755
urat	-9756
▁art	-9757
▁ear	-9758
▁how	-9759
▁nat	-9760
aised	-9761
aling	-9762
awful	-9763
bankr	-9764
barri	-9765
entag	-9766
entif	-9767
icers	-9768
irely	-9769
oolch	-9770
oping	-9771
orner	-9772
orsle	-9773
oused	-9774
rient	-9775
sible	-9776
somer	-9777
stion	-9778
tense	-9779
thors	-9780
tland	-9781
tress	-9782
trysi	-9783
ttish	-9784
tured	-9785
tures	-9786
ucate	-9787
ucker	-9788
ulner	-9789
unbor	-9790
uncle	-9791
undre	-9792
unner	-9793
uppet	-9794
ushes	-9795
ussed	-9796
usual	-9797
valid	-9798
varez	-9799
15	-9800
rp	-9801
tb	-9802
áh	-9803
4_—	-9804
8,0	-9805
aba	-9806
aot	-9807
ayb	-9808
chc	-9809
ctr	-9810
dim	-9811
ect	-9812
gag	-9813
gge	-9814
hem	-9815
idd	-9816
imu	-9817
ipb	-9818
loo	-9819
niz	-9820
occ	-9821
ome	-9822
ray	-9823
suk	-9824
urr	-9825
uti	-9826
utt	-9827
▁em	-9828
anet	-9829
apan	-9830
assy	-9831
ctic	-9832
ctor	-9833
ensi	-9834
ests	-9835
exti	-9836
fail	-9837
flam	-9838
idab	-9839
ilap	-9840
itiz	-9841
jose	-9842
lege	-9843
llap	-9844
onab	-9845
onse	-9846
orus	-9847
outh	-9848
pect	-9849
pire	-9850
reta	-9851
roac	-9852
rone	-9853
sigh	-9854
talm	-9855
teri	-9856
toso	-9857
unbe	-9858
ursu	-9859
utat	-9860
utic	-9861
yway	-9862
_2019	-9863
alith	-9864
assem	-9865
disne	-9866
enden	-9867
fract	-9868
imits	-9869
mance	-9870
micha	-9871
onors	-9872
orres	-9873
ourth	-9874
pects	-9875
plast	-9876
recar	-9877
umbus	-9878
uting	-9879
veill	-9880
vices	-9881
vided	-9882
vides	-9883
views	-9884
viron	-9885
voked	-9886
volun	-9887
volut	-9888
weiss	-9889
worry	-9890
ximum	-9891
xonmo	-9892
yazid	-9893
zález	-9894
▁aldr	-9895
▁alth	-9896
▁anal	-9897
▁brit	-9898
▁chri	-9899
02	-9900
cc	-9901
np	-9902
tl	-9903
86_	-9904
abi	-9905
amm	-9906
amn	-9907
ape	-9908
bam	-9909
dam	-9910
dli	-9911
eam	-9912
emb	-9913
epe	-9914
fus	-9915
gam	-9916
idg	-9917
idi	-9918
idn	-9919
lam	-9920
lie	-9921
mog	-9922
mom	-9923
omp	-9924
pid	-9925
pth	-9926
rmo	-9927
tab	-9928
vab	-9929
wab	-9930
xam	-9931
xpe	-9932
yaz	-9933
zid	-9934
▁pe	-9935
▁wi	-9936
15,_	-9937
4_—_	-9938
_512	-9939
abit	-9940
abro	-9941
adid	-9942
adil	-9943
afer	-9944
amed	-9945
anat	-9946
ares	-9947
arif	-9948
cies	-9949
erts	-9950
geol	-9951
goti	-9952
iner	-9953
ises	-9954
itis	-9955
kare	-9956
meij	-9957
onus	-9958
orid	-9959
pare	-9960
pean	-9961
pest	-9962
preg	-9963
quer	-9964
rien	-9965
rope	-9966
sues	-9967
tham	-9968
tian	-9969
uare	-9970
admit	-9971
afric	-9972
artan	-9973
busin	-9974
erate	-9975
erend	-9976
grets	-9977
hople	-9978
horie	-9979
icals	-9980
illic	-9981
inage	-9982
inare	-9983
mothe	-9984
newab	-9985
sions	-9986
stopp	-9987
strat	-9988
uncom	-9989
▁desp	-9990
▁educ	-9991
▁exam	-9992
▁fail	-9993
▁geor	-9994
▁graf	-9995
▁gree	-9996
▁inve	-9997
▁lead	-9998
▁mean	-9999
55	-10000
dv	-10001
tf	-10002
vu	-10003
aby	-10004
aig	-10005
ams	-10006
cce	-10007
cei	-10008
coc	-10009
dow	-10010
eir	-10011
gim	-10012
hig	-10013
hir	-10014
irm	-10015
irs	-10016
lut	-10017
mpl	-10018
ozy	-10019
rce	-10020
saq	-10021
sue	-10022
tam	-10023
uat	-10024
uce	-10025
uly	-10026
usp	-10027
uve	-10028
xce	-10029
yne	-10030
acce	-10031
ainy	-10032
bots	-10033
canc	-10034
cest	-10035
cong	-10036
cono	-10037
darl	-10038
erat	-10039
exch	-10040
heig	-10041
ighe	-10042
imal	-10043
inct	-10044
iris	-10045
irth	-10046
lief	-10047
mmer	-10048
onig	-10049
pter	-10050
repl	-10051
romo	-10052
sume	-10053
tere	-10054
tert	-10055
terv	-10056
terw	-10057
thor	-10058
trar	-10059
tter	-10060
uner	-10061
urgh	-10062
usic	-10063
utor	-10064
verb	-10065
vert	-10066
xter	-10067
achie	-10068
aughs	-10069
barro	-10070
iming	-10071
imple	-10072
iscon	-10073
ishab	-10074
onver	-10075
orrow	-10076
orter	-10077
suing	-10078
terce	-10079
tship	-10080
verto	-10081
▁priv	-10082
▁reag	-10083
▁rese	-10084
▁sail	-10085
▁snow	-10086
▁spec	-10087
▁star	-10088
▁stud	-10089
-2014_	-10090
0,_201	-10091
1896,_	-10092
5,000.	-10093
6,000_	-10094
_(1992	-10095
_512-5	-10096
_£3,00	-10097
ablish	-10098
aborig	-10099
"1	-10100
.._	-10101
aun	-10102
bol	-10103
cim	-10104
cti	-10105
dly	-10106
dwi	-10107
fon	-10108
hac	-10109
igg	-10110
inf	-10111
jam	-10112
jun	-10113
lce	-10114
olc	-10115
olh	-10116
olk	-10117
oll	-10118
olm	-10119
oln	-10120
ond	-10121
pco	-10122
rep	-10123
roj	-10124
sia	-10125
tmo	-10126
ued	-10127
una	-10128
unb	-10129
unc	-10130
unl	-10131
unr	-10132
unu	-10133
unw	-10134
▁fr	-10135
ador	-10136
aily	-10137
alma	-10138
arte	-10139
brac	-10140
cana	-10141
carp	-10142
chol	-10143
ench	-10144
erge	-10145
ictu	-10146
idac	-10147
inat	-10148
inde	-10149
javi	-10150
olhe	-10151
olin	-10152
olis	-10153
olon	-10154
opon	-10155
orav	-10156
reun	-10157
stol	-10158
unch	-10159
unic	-10160
unis	-10161
unof	-10162
unse	-10163
unst	-10164
whol	-10165
770,_	-10166
ainst	-10167
coccy	-10168
econo	-10169
erber	-10170
icone	-10171
iscom	-10172
johnn	-10173
leton	-10174
minan	-10175
notab	-10176
tated	-10177
unfor	-10178
ustic	-10179
veral	-10180
verit	-10181
verly	-10182
▁them	-10183
abrina	-10184
achers	-10185
achida	-10186
acific	-10187
acters	-10188
addict	-10189
admiss	-10190
adress	-10191
advert	-10192
aggres	-10193
agoons	-10194
ailand	-10195
akdown	-10196
alised	-10197
alists	-10198
allels	-10199
47	-10200
qi	-10201
adg	-10202
adl	-10203
adn	-10204
adq	-10205
ady	-10206
atc	-10207
aur	-10208
bev	-10209
cco	-10210
dsh	-10211
ead	-10212
emm	-10213
fly	-10214
hur	-10215
iti	-10216
kly	-10217
mey	-10218
nad	-10219
olf	-10220
owh	-10221
sad	-10222
scy	-10223
sem	-10224
urb	-10225
urd	-10226
urf	-10227
uri	-10228
urk	-10229
urn	-10230
urp	-10231
zat	-10232
▁ch	-10233
▁mo	-10234
▁wh	-10235
aden	-10236
adic	-10237
adiv	-10238
ainm	-10239
apto	-10240
atly	-10241
ctab	-10242
delh	-10243
dien	-10244
duff	-10245
emed	-10246
foru	-10247
gthe	-10248
igns	-10249
ilis	-10250
inab	-10251
mfor	-10252
orri	-10253
pend	-10254
reng	-10255
rity	-10256
root	-10257
sane	-10258
soil	-10259
thur	-10260
uate	-10261
uran	-10262
uras	-10263
uris	-10264
urse	-10265
urst	-10266
urve	-10267
vial	-10268
vier	-10269
whit	-10270
xide	-10271
_2003	-10272
acebo	-10273
bated	-10274
bined	-10275
curta	-10276
enfor	-10277
enist	-10278
equin	-10279
erfor	-10280
examp	-10281
grant	-10282
ianto	-10283
icnic	-10284
infor	-10285
itect	-10286
medit	-10287
oured	-10288
pered	-10289
refor	-10290
alleng	-10291
allian	-10292
alread	-10293
alysts	-10294
ampion	-10295
analys	-10296
anches	-10297
anding	-10298
anging	-10299
,1	-10300
45	-10301
ej	-10302
sn	-10303
£3	-10304
aci	-10305
ais	-10306
coa	-10307
cog	-10308
cov	-10309
eac	-10310
edg	-10311
edw	-10312
geo	-10313
hoy	-10314
iac	-10315
lco	-10316
lme	-10317
mea	-10318
meb	-10319
mee	-10320
mel	-10321
mew	-10322
nco	-10323
nig	-10324
oby	-10325
oct	-10326
oth	-10327
rne	-10328
tac	-10329
wco	-10330
xac	-10331
▁me	-10332
▁ve	-10333
abin	-10334
acal	-10335
acro	-10336
anct	-10337
arac	-10338
arir	-10339
beco	-10340
boem	-10341
caut	-10342
celi	-10343
cill	-10344
coat	-10345
coco	-10346
dram	-10347
enco	-10348
erac	-10349
erco	-10350
erst	-10351
exts	-10352
fict	-10353
gart	-10354
haan	-10355
habe	-10356
icac	-10357
inco	-10358
inim	-10359
meon	-10360
moji	-10361
noun	-10362
onac	-10363
outg	-10364
quat	-10365
rees	-10366
reme	-10367
rith	-10368
stab	-10369
stok	-10370
supp	-10371
uild	-10372
whic	-10373
acter	-10374
alent	-10375
alers	-10376
ctare	-10377
iegel	-10378
nians	-10379
ontar	-10380
schul	-10381
selmi	-10382
sumer	-10383
verse	-10384
ansand	-10385
anscau	-10386
ansive	-10387
anspor	-10388
apidly	-10389
appall	-10390
appare	-10391
approx	-10392
apstic	-10393
argely	-10394
arians	-10395
arming	-10396
arrack	-10397
arring	-10398
arters	-10399
.3	-10400
88	-10401
dd	-10402
dg	-10403
nk	-10404
aca	-10405
cue	-10406
deo	-10407
dia	-10408
eff	-10409
ely	-10410
emo	-10411
eru	-10412
lyw	-10413
mab	-10414
mir	-10415
mod	-10416
nde	-10417
onb	-10418
onv	-10419
osu	-10420
ote	-10421
owl	-10422
seb	-10423
siz	-10424
sly	-10425
tly	-10426
unn	-10427
veg	-10428
yde	-10429
▁se	-10430
abri	-10431
alit	-10432
arle	-10433
arve	-10434
atts	-10435
deve	-10436
enly	-10437
ense	-10438
erve	-10439
ethe	-10440
ffal	-10441
hear	-10442
hyst	-10443
icon	-10444
igan	-10445
illa	-10446
inly	-10447
inve	-10448
irew	-10449
irte	-10450
istr	-10451
itut	-10452
lyde	-10453
olid	-10454
orse	-10455
otat	-10456
oude	-10457
oute	-10458
sand	-10459
sear	-10460
sely	-10461
seth	-10462
stam	-10463
stly	-10464
uiss	-10465
unde	-10466
usin	-10467
vely	-10468
volt	-10469
warm	-10470
▁nic	-10471
_(195	-10472
_2016	-10473
ainou	-10474
arter	-10475
boden	-10476
chill	-10477
comer	-10478
esign	-10479
incum	-10480
ipped	-10481
lowed	-10482
nethe	-10483
ortly	-10484
rompt	-10485
rople	-10486
rothe	-10487
shall	-10488
simon	-10489
store	-10490
thano	-10491
2002,_	-10492
ascist	-10493
asonab	-10494
astisl	-10495
astlin	-10496
asured	-10497
atants	-10498
atched	-10499
▁n	-10500
30_	-10501
anv	-10502
ays	-10503
cad	-10504
chb	-10505
chl	-10506
chm	-10507
chn	-10508
cho	-10509
dil	-10510
ech	-10511
edy	-10512
eot	-10513
gil	-10514
iab	-10515
idu	-10516
igi	-10517
igu	-10518
ila	-10519
ilk	-10520
ilo	-10521
ilw	-10522
mse	-10523
nch	-10524
nif	-10525
rch	-10526
sef	-10527
seg	-10528
sei	-10529
sep	-10530
sev	-10531
tch	-10532
thi	-10533
uad	-10534
uns	-10535
urv	-10536
xil	-10537
zil	-10538
▁am	-10539
ache	-10540
achi	-10541
asno	-10542
asur	-10543
ayor	-10544
cher	-10545
deas	-10546
enid	-10547
esid	-10548
gant	-10549
icil	-10550
ifte	-10551
ilan	-10552
ilat	-10553
illm	-10554
ilor	-10555
imil	-10556
irli	-10557
itch	-10558
lean	-10559
mall	-10560
mann	-10561
mopy	-10562
ower	-10563
perv	-10564
phur	-10565
serb	-10566
tare	-10567
thun	-10568
turk	-10569
urgo	-10570
veal	-10571
vera	-10572
_2006	-10573
_2014	-10574
annis	-10575
aying	-10576
carry	-10577
ching	-10578
ergen	-10579
illeg	-10580
indle	-10581
legis	-10582
nting	-10583
olmar	-10584
poses	-10585
terne	-10586
urial	-10587
arated	-10588
atches	-10589
atform	-10590
atings	-10591
ationi	-10592
atment	-10593
attles	-10594
audens	-10595
bative	-10596
batter	-10597
belled	-10598
billbo	-10599
",	-10600
41	-10601
67	-10602
db	-10603
dp	-10604
rx	-10605
atá	-10606
ayw	-10607
bea	-10608
bod	-10609
dbe	-10610
dut	-10611
enb	-10612
enc	-10613
gle	-10614
hle	-10615
iro	-10616
lta	-10617
otl	-10618
owe	-10619
roh	-10620
rok	-10621
sah	-10622
sus	-10623
wer	-10624
xan	-10625
xes	-10626
yar	-10627
ybe	-10628
yle	-10629
▁be	-10630
adre	-10631
anig	-10632
ateg	-10633
dent	-10634
derf	-10635
ente	-10636
enti	-10637
entr	-10638
esse	-10639
fron	-10640
germ	-10641
hein	-10642
ibil	-10643
idly	-10644
imed	-10645
larr	-10646
lein	-10647
lent	-10648
leon	-10649
liab	-10650
olly	-10651
ongu	-10652
oups	-10653
pent	-10654
rebe	-10655
rets	-10656
stro	-10657
thro	-10658
unat	-10659
94),_	-10660
_2010	-10661
aming	-10662
andst	-10663
asily	-10664
bited	-10665
canol	-10666
domen	-10667
edent	-10668
entin	-10669
ewell	-10670
fough	-10671
hanak	-10672
ilate	-10673
illbo	-10674
itans	-10675
_	-10676
e	-10677
t	-10678
a	-10679
i	-10680
n	-10681
o	-10682
r	-10683
s	-10684
h	-10685
l	-10686
d	-10687
c	-10688
u	-10689
m	-10690
p	-10691
f	-10692
g	-10693
w	-10694
b	-10695
y	-10696
.	-10697
,	-10698
▁	-10699
v	-10700
k	-10701
1	-10702
0	-10703
x	-10704
j	-10705
"	-10706
'	-10707
-	-10708
2	-10709
9	-10710
z	-10711
3	-10712
5	-10713
q	-10714
6	-10715
8	-10716
7	-10717
4	-10718
’	-10719
(	-10720
)	-10721
“	-10722
”	-10723
:	-10724
%	-10725
;	-10726
?	-10727
£	-10728
á	-10729
—	-10730
