<unk>	0
<s>	0
</s>	0
an	-0
▁d	-1
er	-2
▁m	-3
▁s	-4
▁p	-5
ar	-6
eN	-7
▁t	-8
ang	-9
▁b	-10
in	-11
la	-12
▁k	-13
▁meN	-14
▁.	-15
▁,	-16
un	-17
en	-18
at	-19
ak	-20
▁di	-21
▁se	-22
ah	-23
as	-24
ad	-25
tu	-26
ya	-27
kan	-28
al	-29
▁y	-30
▁yang	-31
is	-32
▁ke	-33
am	-34
ada	-35
▁dan	-36
ik	-37
on	-38
▁i	-39
ing	-40
▁h	-41
▁per	-42
lah	-43
ap	-44
▁ber	-45
or	-46
nya	-47
il	-48
es	-49
▁peN	-50
ga	-51
us	-52
em	-53
lam	-54
ut	-55
▁in	-56
ara	-57
ari	-58
▁r	-59
ek	-60
▁j	-61
gan	-62
▁ter	-63
ir	-64
it	-65
ol	-66
▁un	-67
akan	-68
id	-69
um	-70
▁l	-71
tuk	-72
ur	-73
▁n	-74
▁untuk	-75
el	-76
ia	-77
▁pada	-78
▁ini	-79
eb	-80
▁den	-81
▁seb	-82
▁dengan	-83
uk	-84
alam	-85
▁itu	-86
▁dari	-87
ti	-88
asi	-89
▁tah	-90
▁c	-91
▁a	-92
gi	-93
▁dalam	-94
ul	-95
▁1	-96
▁tahun	-97
ih	-98
▁g	-99
▁la	-100
et	-101
▁sa	-102
ent	-103
idak	-104
ung	-105
per	-106
▁ada	-107
im	-108
▁tidak	-109
wa	-110
elah	-111
si	-112
ud	-113
uh	-114
▁ba	-115
and	-116
▁meNb	-117
ama	-118
▁mer	-119
ta	-120
om	-121
ed	-122
aga	-123
orang	-124
▁meNt	-125
asa	-126
▁pr	-127
ja	-128
▁w	-129
eh	-130
▁f	-131
▁ia	-132
eka	-133
ian	-134
▁bah	-135
▁adalah	-136
oleh	-137
tr	-138
▁mereka	-139
ua	-140
anya	-141
agai	-142
angan	-143
▁meNk	-144
▁oleh	-145
any	-146
ok	-147
▁kem	-148
▁pert	-149
ep	-150
up	-151
ber	-152
▁yang▁di	-153
eg	-154
isi	-155
end	-156
▁sebagai	-157
▁an	-158
▁telah	-159
ub	-160
▁akan	-161
ukan	-162
▁pada▁tahun	-163
os	-164
apa	-165
ata	-166
emp	-167
▁meNp	-168
▁bahwa	-169
▁orang	-170
adi	-171
ika	-172
▁meNj	-173
esar	-174
ingg	-175
lama	-176
▁meNs	-177
eng	-178
op	-179
▁2	-180
▁19	-181
ikan	-182
▁kon	-183
ter	-184
ebih	-185
▁meNd	-186
ot	-187
▁“	-188
ela	-189
inya	-190
▁set	-191
▁lebih	-192
amp	-193
▁sek	-194
od	-195
ana	-196
ula	-197
atan	-198
▁tent	-199
atu	-200
anyak	-201
ic	-202
gian	-203
▁meNm	-204
ali	-205
▁banyak	-206
▁ju	-207
int	-208
ahan	-209
▁besar	-210
▁bar	-211
isa	-212
▁sem	-213
▁selama	-214
angk	-215
ulan	-216
▁kep	-217
ab	-218
uah	-219
▁20	-220
▁juga	-221
▁ak	-222
apat	-223
▁sebuah	-224
lu	-225
anj	-226
angg	-227
aran	-228
uan	-229
▁kar	-230
ebut	-231
▁bisa	-232
▁saya	-233
▁meNjadi	-234
ib	-235
aan	-236
api	-237
perti	-238
▁setelah	-239
hir	-240
▁meNh	-241
▁bulan	-242
▁tentang	-243
ist	-244
amb	-245
▁satu	-246
▁seperti	-247
uj	-248
ong	-249
uat	-250
cara	-251
▁ant	-252
▁nam	-253
ob	-254
▁ser	-255
empat	-256
▁sang	-257
▁namun	-258
▁al	-259
▁v	-260
aya	-261
emb	-262
ena	-263
iki	-264
▁as	-265
▁neg	-266
▁terb	-267
▁ters	-268
ota	-269
wan	-270
erja	-271
▁bagian	-272
gun	-273
ind	-274
▁tan	-275
▁tapi	-276
sa	-277
▁tr	-278
ungk	-279
uran	-280
▁meNl	-281
▁saat	-282
▁sangat	-283
iri	-284
atas	-285
▁men	-286
atakan	-287
▁”	-288
ita	-289
▁ti	-290
amer	-291
elum	-292
▁pas	-293
▁baru	-294
▁di▁m	-295
▁sela	-296
ch	-297
ati	-298
▁ar	-299
▁ka	-300
alan	-301
iliki	-302
▁meNc	-303
tus	-304
▁bi	-305
adap	-306
▁beb	-307
▁pol	-308
annya	-309
▁hari	-310
▁para	-311
▁meNmiliki	-312
▁(	-313
ulai	-314
▁dib	-315
ungan	-316
▁bert	-317
ungkin	-318
▁)	-319
lak	-320
▁har	-321
▁par	-322
▁di▁s	-323
▁peNp	-324
▁antara	-325
▁negara	-326
▁secara	-327
▁tersebut	-328
00	-329
▁3	-330
ain	-331
ris	-332
▁ag	-333
▁re	-334
▁th	-335
atau	-336
udah	-337
▁atau	-338
▁lain	-339
angkan	-340
▁peNper	-341
▁o	-342
ami	-343
anc	-344
tan	-345
▁kek	-346
ingga	-347
▁laut	-348
▁seorang	-349
aman	-350
ilih	-351
onal	-352
usia	-353
▁dis	-354
▁hal	-355
▁kota	-356
▁yang▁ber	-357
▁er	-358
▁si	-359
▁su	-360
▁201	-361
erapa	-362
▁masa	-363
▁peNt	-364
gunakan	-365
▁karena	-366
▁peNperint	-367
▁dua	-368
▁ked	-369
▁sej	-370
▁peNb	-371
▁beberapa	-372
aw	-373
ki	-374
▁e	-375
eri	-376
est	-377
▁ek	-378
▁ma	-379
anda	-380
ingk	-381
▁ker	-382
▁ket	-383
▁mas	-384
▁amer	-385
inggal	-386
▁mulai	-387
▁hingga	-388
▁perang	-389
▁meNbuat	-390
▁ap	-391
▁ut	-392
entu	-393
▁kes	-394
▁mes	-395
▁sed	-396
▁sel	-397
▁sep	-398
▁baik	-399
▁terh	-400
▁sudah	-401
▁pertama	-402
og	-403
ila	-404
ont	-405
elas	-406
itar	-407
▁dip	-408
▁dir	-409
akhir	-410
ingan	-411
ingin	-412
▁berb	-413
▁pers	-414
ekerja	-415
▁hanya	-416
▁untuk▁meN	-417
AS	-418
ag	-419
ASH	-420
lik	-421
ump	-422
▁sp	-423
DASH	-424
bali	-425
uhan	-426
unan	-427
▁pun	-428
▁kami	-429
▁perj	-430
▁amerika	-431
▁kembali	-432
▁sebelum	-433
▁yang▁meN	-434
le	-435
ima	-436
orm	-437
wal	-438
▁lu	-439
ihat	-440
itik	-441
▁mus	-442
atkan	-443
▁berk	-444
▁sekitar	-445
▁terhadap	-446
las	-447
tur	-448
▁ab	-449
▁kh	-450
angi	-451
asil	-452
ustr	-453
▁dit	-454
▁fil	-455
▁ind	-456
▁kom	-457
▁tet	-458
▁ingg	-459
▁dapat	-460
▁tempat	-461
▁inggris	-462
▁meNdapat	-463
ea	-464
ju	-465
mb	-466
ra	-467
ans	-468
▁de	-469
▁uj	-470
idup	-471
ikut	-472
main	-473
unia	-474
▁kec	-475
▁mar	-476
▁pal	-477
▁wak	-478
▁di▁b	-479
▁film	-480
▁dunia	-481
▁terakhir	-482
ai	-483
oh	-484
▁5	-485
▁:	-486
ili	-487
ini	-488
unj	-489
yah	-490
▁is	-491
▁st	-492
angs	-493
▁dia	-494
ukkan	-495
▁awal	-496
▁peNk	-497
▁sama	-498
▁send	-499
▁kepada	-500
▁mungkin	-501
▁selatan	-502
▁sendiri	-503
▁meNkatakan	-504
ec	-505
ig	-506
ow	-507
pa	-508
har	-509
imp	-510
▁ja	-511
ania	-512
ensi	-513
usah	-514
angka	-515
arkan	-516
▁bers	-517
▁luar	-518
▁peNd	-519
▁terl	-520
upakan	-521
▁akhir	-522
▁harus	-523
▁kedua	-524
▁waktu	-525
▁peNperintah	-526
iv	-527
man	-528
opa	-529
ses	-530
alia	-531
arah	-532
uang	-533
utus	-534
▁apa	-535
▁dik	-536
▁keb	-537
▁pes	-538
▁sen	-539
▁abad	-540
▁saja	-541
▁wila	-542
▁diper	-543
▁semua	-544
▁tetap	-545
lakukan	-546
ca	-547
▁'	-548
▁z	-549
ill	-550
ode	-551
uka	-552
unc	-553
▁of	-554
▁pa	-555
akin	-556
iter	-557
▁pan	-558
▁tak	-559
agian	-560
ahkan	-561
entuk	-562
▁kita	-563
▁kons	-564
▁meNr	-565
▁ujar	-566
▁eropa	-567
▁tangg	-568
▁wilayah	-569
▁sebagian	-570
▁merupakan	-571
ny	-572
lis	-573
ogi	-574
usi	-575
▁br	-576
antu	-577
emen	-578
iden	-579
▁tek	-580
ampil	-581
inggi	-582
ologi	-583
enting	-584
ilihan	-585
nya▁di	-586
▁tiong	-587
angsung	-588
▁di▁mana	-589
▁meNdapatkan	-590
ip	-591
ne	-592
ov	-593
to	-594
▁%	-595
▁;	-596
000	-597
enc	-598
ers	-599
hen	-600
ium	-601
uku	-602
▁18	-603
▁ra	-604
an▁m	-605
luar	-606
olah	-607
umum	-608
▁200	-609
▁pos	-610
ambil	-611
i▁dan	-612
tulis	-613
▁di▁p	-614
▁jika	-615
▁lagi	-616
▁nama	-617
▁pres	-618
▁hidup	-619
▁salah	-620
▁suara	-621
▁utara	-622
usahaan	-623
▁bahasa	-624
▁keluar	-625
▁bekerja	-626
▁tanggal	-627
▁pada▁bulan	-628
▁perusahaan	-629
gu	-630
aik	-631
ger	-632
ina	-633
kok	-634
ola	-635
ons	-636
osi	-637
por	-638
uta	-639
yar	-640
▁,”	-641
▁da	-642
asan	-643
enal	-644
inta	-645
iran	-646
itas	-647
onom	-648
uasa	-649
unga	-650
usus	-651
vest	-652
▁199	-653
▁did	-654
▁din	-655
▁kap	-656
▁keh	-657
▁rep	-658
istem	-659
ublik	-660
udara	-661
ulkan	-662
▁atas	-663
▁berd	-664
▁lalu	-665
▁tiga	-666
anjang	-667
▁inter	-668
▁jelas	-669
▁kemud	-670
▁kontr	-671
▁meski	-672
▁tanpa	-673
▁khusus	-674
▁paling	-675
▁tiongkok	-676
▁ini▁adalah	-677
▁peNpilihan	-678
▁sebagian▁besar	-679
ej	-680
ev	-681
if	-682
ou	-683
mas	-684
und	-685
wah	-686
▁ch	-687
▁kr	-688
▁sm	-689
▁te	-690
alis	-691
enuh	-692
▁air	-693
▁dep	-694
▁rom	-695
▁tem	-696
anjut	-697
arang	-698
ember	-699
umlah	-700
▁bagi	-701
▁berp	-702
▁peNs	-703
▁pend	-704
anjian	-705
▁austr	-706
▁meNla	-707
▁berada	-708
▁yang▁m	-709
kan▁bahwa	-710
▁kemudian	-711
▁telah▁meN	-712
▁perjanjian	-713
▁salah▁satu	-714
▁untuk▁meNb	-715
▁yang▁lebih	-716
ay	-717
ck	-718
ei	-719
fr	-720
▁?	-721
2▁,	-722
ark	-723
tai	-724
tif	-725
umb	-726
utr	-727
wak	-728
▁en	-729
▁ga	-730
▁gr	-731
eral	-732
form	-733
land	-734
trik	-735
uduk	-736
▁000	-737
▁alb	-738
▁art	-739
▁kan	-740
▁med	-741
▁ses	-742
▁the	-743
ancis	-744
atang	-745
▁anda	-746
▁lama	-747
▁terp	-748
▁.▁000	-749
▁bawah	-750
▁biasa	-751
asional	-752
▁invest	-753
▁ketika	-754
▁sistem	-755
▁akhirnya	-756
▁meNlihat	-757
▁presiden	-758
▁pada▁hari	-759
▁lebih▁dari	-760
▁meNtinggal	-761
▁yang▁telah	-762
▁-	-763
ade	-764
omp	-765
ton	-766
utu	-767
▁),	-768
▁.”	-769
▁10	-770
▁at	-771
▁em	-772
▁ok	-773
arik	-774
erah	-775
etak	-776
ikit	-777
ukum	-778
unya	-779
urat	-780
uruh	-781
▁ben	-782
▁eks	-783
▁jer	-784
▁lah	-785
▁mak	-786
▁mil	-787
▁tim	-788
inggu	-789
ungai	-790
▁anak	-791
▁area	-792
▁peri	-793
▁pern	-794
▁pula	-795
▁tekn	-796
▁terd	-797
▁terj	-798
irikan	-799
▁belum	-800
▁pasar	-801
▁yunan	-802
▁tinggi	-803
an▁untuk	-804
unjukkan	-805
▁penting	-806
▁politik	-807
▁prancis	-808
▁sedikit	-809
▁sekolah	-810
▁semakin	-811
▁meNputus	-812
▁digunakan	-813
aj	-814
bp	-815
li	-816
mi	-817
th	-818
ank	-819
ard	-820
emu	-821
ikl	-822
tud	-823
unt	-824
wab	-825
▁dr	-826
▁ob	-827
▁op	-828
▁wa	-829
akah	-830
an▁b	-831
asih	-832
elak	-833
ibat	-834
tumb	-835
ubah	-836
urut	-837
▁191	-838
▁dem	-839
▁gbp	-840
▁gel	-841
▁kol	-842
▁kur	-843
▁pul	-844
ampak	-845
apkan	-846
hasil	-847
irkan	-848
tober	-849
umber	-850
▁juta	-851
▁meng	-852
▁peNl	-853
▁perb	-854
▁perk	-855
▁rasa	-856
▁seti	-857
▁tahu	-858
▁tert	-859
emukan	-860
▁batas	-861
▁dan▁p	-862
▁hukum	-863
▁kecil	-864
▁kerja	-865
▁musim	-866
▁spany	-867
▁tanah	-868
formasi	-869
ubungan	-870
▁apakah	-871
▁jerman	-872
▁meNper	-873
▁sungai	-874
▁yunani	-875
▁abad▁ke	-876
▁masalah	-877
▁oktober	-878
▁sejarah	-879
▁seluruh	-880
nya▁untuk	-881
▁meNbantu	-882
▁yang▁bisa	-883
▁meNlakukan	-884
▁yang▁paling	-885
▁pada▁tanggal	-886
ew	-887
ez	-888
na	-889
6▁,	-890
ant	-891
ira	-892
lat	-893
ond	-894
ord	-895
ori	-896
son	-897
aruh	-898
asti	-899
ikat	-900
▁and	-901
▁car	-902
▁dek	-903
▁dil	-904
▁mod	-905
▁pet	-906
▁pro	-907
▁rek	-908
aikan	-909
angun	-910
askan	-911
endah	-912
icara	-913
lukan	-914
uatan	-915
uncul	-916
▁kari	-917
▁keka	-918
▁perd	-919
▁perm	-920
▁roma	-921
▁tind	-922
▁umum	-923
alanan	-924
asikan	-925
embang	-926
idikan	-927
i▁oleh	-928
▁barat	-929
▁dan▁b	-930
▁diber	-931
▁masih	-932
▁meNba	-933
▁trans	-934
▁trump	-935
▁ekonom	-936
▁intern	-937
▁jumlah	-938
▁meNber	-939
▁meNter	-940
▁polisi	-941
▁setiap	-942
enangkan	-943
nyatakan	-944
▁berikut	-945
▁bersama	-946
▁menurut	-947
▁spanyol	-948
▁tentara	-949
▁tinggal	-950
▁di▁bawah	-951
▁meNambil	-952
▁penduduk	-953
▁sekarang	-954
▁yang▁dis	-955
▁australia	-956
▁di▁antara	-957
▁kembali▁ke	-958
▁dalam▁sebuah	-959
▁meNtunjukkan	-960
60	-961
co	-962
ey	-963
ug	-964
▁4	-965
▁7	-966
0▁,	-967
ala	-968
art	-969
erd	-970
etu	-971
get	-972
hat	-973
ine	-974
kap	-975
nis	-976
ott	-977
▁).	-978
▁ad	-979
▁el	-980
▁il	-981
▁”.	-982
abis	-983
aksi	-984
awat	-985
elaj	-986
ilis	-987
itan	-988
oduk	-989
ungi	-990
usim	-991
▁dom	-992
▁her	-993
▁hit	-994
▁ikl	-995
▁kal	-996
▁kel	-997
▁man	-998
▁met	-999
▁res	-1000
▁sah	-1001
▁sal	-1002
▁tel	-1003
▁tuj	-1004
▁und	-1005
angsa	-1006
ar▁di	-1007
engah	-1008
iring	-1009
olusi	-1010
ukung	-1011
▁angg	-1012
▁berl	-1013
▁kali	-1014
▁lagu	-1015
▁ment	-1016
▁peng	-1017
▁pria	-1018
▁raja	-1019
encana	-1020
entara	-1021
ia▁dan	-1022
wakili	-1023
▁empat	-1024
▁ingin	-1025
▁keras	-1026
▁pulau	-1027
▁rusia	-1028
▁sejak	-1029
▁udara	-1030
an▁yang	-1031
ibatkan	-1032
▁itu▁di	-1033
▁lanjut	-1034
▁meNser	-1035
▁muncul	-1036
▁partai	-1037
▁pernah	-1038
▁rendah	-1039
▁bermain	-1040
▁di▁sana	-1041
▁periode	-1042
▁seiring	-1043
kan▁untuk	-1044
▁berbagai	-1045
▁di▁dalam	-1046
▁di▁musim	-1047
▁kekuatan	-1048
▁keluarga	-1049
▁meNhadap	-1050
▁nasional	-1051
▁tindakan	-1052
▁tidak▁ada	-1053
▁berikutnya	-1054
▁meNberikan	-1055
▁meNgunakan	-1056
▁untuk▁meNp	-1057
▁bagian▁dari	-1058
▁negara▁bagian	-1059
▁peNperintahan	-1060
ft	-1061
ha	-1062
me	-1063
oc	-1064
uc	-1065
▁á	-1066
3▁,	-1067
ail	-1068
egi	-1069
eks	-1070
fer	-1071
gar	-1072
han	-1073
oni	-1074
tik	-1075
uda	-1076
urn	-1077
▁15	-1078
▁bl	-1079
▁cl	-1080
▁up	-1081
caya	-1082
irim	-1083
isar	-1084
pada	-1085
terb	-1086
timb	-1087
tudi	-1088
uari	-1089
uruk	-1090
▁197	-1091
▁afr	-1092
▁jam	-1093
▁kas	-1094
▁lis	-1095
▁mat	-1096
▁mor	-1097
▁nor	-1098
▁pel	-1099
▁rum	-1100
▁ten	-1101
impin	-1102
inasi	-1103
jalan	-1104
masuk	-1105
tikan	-1106
uanya	-1107
▁data	-1108
▁jauh	-1109
▁rata	-1110
▁sosi	-1111
anggap	-1112
i▁yang	-1113
landia	-1114
oritas	-1115
▁bukan	-1116
▁depan	-1117
▁jawab	-1118
▁serta	-1119
▁studi	-1120
▁timur	-1121
empuran	-1122
▁afrika	-1123
▁bangsa	-1124
▁daerah	-1125
▁dingin	-1126
▁kaisar	-1127
▁meNkur	-1128
▁minggu	-1129
▁sumber	-1130
andingan	-1131
embangan	-1132
i▁dengan	-1133
▁hal▁itu	-1134
▁ia▁juga	-1135
▁pasukan	-1136
▁pekerja	-1137
▁pertumb	-1138
▁terjadi	-1139
▁daripada	-1140
▁hubungan	-1141
▁langsung	-1142
▁termasuk	-1143
▁yang▁dik	-1144
▁yang▁dit	-1145
▁kemungkin	-1146
▁meNhadapi	-1147
▁meNterima	-1148
▁sementara	-1149
▁teknologi	-1150
▁yang▁sama	-1151
▁berkembang	-1152
▁luar▁biasa	-1153
▁perjalanan	-1154
▁sebelumnya	-1155
▁yang▁tidak	-1156
▁pertempuran	-1157
▁pertandingan	-1158
de	-1159
ge	-1160
iz	-1161
ka	-1162
ro	-1163
▁$	-1164
▁8	-1165
7▁.	-1166
bor	-1167
eda	-1168
eja	-1169
ell	-1170
elu	-1171
ern	-1172
ess	-1173
inc	-1174
iss	-1175
ity	-1176
ona	-1177
pan	-1178
raf	-1179
ran	-1180
ril	-1181
uri	-1182
▁16	-1183
▁gl	-1184
▁he	-1185
▁ir	-1186
▁it	-1187
akat	-1188
amai	-1189
asal	-1190
atif	-1191
esai	-1192
gkap	-1193
ilan	-1194
inan	-1195
kand	-1196
mark	-1197
oman	-1198
ungg	-1199
usat	-1200
▁198	-1201
▁:▁“	-1202
▁des	-1203
▁dih	-1204
▁dim	-1205
▁eur	-1206
▁ged	-1207
▁ger	-1208
▁jan	-1209
▁kat	-1210
▁kor	-1211
▁leg	-1212
▁min	-1213
▁pak	-1214
▁ped	-1215
▁pop	-1216
▁rev	-1217
▁sam	-1218
▁seh	-1219
▁str	-1220
▁tar	-1221
▁war	-1222
▁win	-1223
ancur	-1224
emuan	-1225
erita	-1226
ikasi	-1227
imana	-1228
isasi	-1229
onton	-1230
uhkan	-1231
ulasi	-1232
▁agar	-1233
▁alam	-1234
▁alas	-1235
▁buku	-1236
▁cara	-1237
▁diri	-1238
▁di▁l	-1239
▁hong	-1240
▁kata	-1241
▁kong	-1242
▁kont	-1243
▁mili	-1244
▁suku	-1245
▁uang	-1246
▁univ	-1247
akanan	-1248
anding	-1249
empuan	-1250
isaran	-1251
ubahan	-1252
▁album	-1253
▁april	-1254
▁biara	-1255
▁dan▁t	-1256
▁drama	-1257
▁masuk	-1258
▁musik	-1259
▁panas	-1260
▁surat	-1261
▁terus	-1262
atannya	-1263
▁gedung	-1264
▁italia	-1265
▁peNber	-1266
▁publik	-1267
▁sedang	-1268
▁ungkap	-1269
▁bertemu	-1270
▁dan▁meN	-1271
▁di▁luar	-1272
▁industr	-1273
▁listrik	-1274
▁perteng	-1275
▁serikat	-1276
timbulkan	-1277
▁baru▁ini	-1278
▁di▁bulan	-1279
▁investor	-1280
▁revolusi	-1281
▁saat▁ini	-1282
▁terletak	-1283
nya▁adalah	-1284
▁khususnya	-1285
▁meNdukung	-1286
▁perempuan	-1287
▁perubahan	-1288
▁sepanjang	-1289
▁kekaisaran	-1290
▁meNkurangi	-1291
▁orang▁yang	-1292
▁tidak▁akan	-1293
▁kemungkinan	-1294
▁meNnyatakan	-1295
▁pertumbuhan	-1296
▁meNtinggalkan	-1297
eo	-1298
ji	-1299
ui	-1300
▁9	-1301
5▁.	-1302
ban	-1303
bat	-1304
bia	-1305
edi	-1306
eor	-1307
eta	-1308
men	-1309
oba	-1310
one	-1311
res	-1312
uli	-1313
urg	-1314
uru	-1315
yak	-1316
▁--	-1317
▁14	-1318
▁ed	-1319
▁ib	-1320
▁ii	-1321
▁im	-1322
▁pu	-1323
adar	-1324
ahas	-1325
akup	-1326
apai	-1327
apan	-1328
arat	-1329
ator	-1330
edon	-1331
eksi	-1332
eles	-1333
epat	-1334
flik	-1335
iksi	-1336
isah	-1337
obil	-1338
tiga	-1339
unuh	-1340
▁ang	-1341
▁bek	-1342
▁fed	-1343
▁gol	-1344
▁hak	-1345
▁huj	-1346
▁ins	-1347
▁kej	-1348
▁may	-1349
▁mem	-1350
▁new	-1351
▁pem	-1352
▁pen	-1353
▁tur	-1354
adaan	-1355
adang	-1356
adisi	-1357
alkan	-1358
ampir	-1359
egitu	-1360
enuhi	-1361
gerak	-1362
henti	-1363
inkan	-1364
itkan	-1365
udaya	-1366
ustus	-1367
▁agen	-1368
▁alat	-1369
▁angk	-1370
▁batu	-1371
▁di▁c	-1372
▁euro	-1373
▁istr	-1374
▁jend	-1375
▁kand	-1376
▁kini	-1377
▁meNn	-1378
▁naik	-1379
▁peNc	-1380
▁tant	-1381
an▁dan	-1382
an▁ini	-1383
ingkat	-1384
porkan	-1385
uangan	-1386
▁acara	-1387
▁akses	-1388
▁iklim	-1389
▁kapal	-1390
▁keber	-1391
▁mesir	-1392
▁north	-1393
▁puluh	-1394
▁siapa	-1395
▁upaya	-1396
▁utama	-1397
agangan	-1398
intangi	-1399
yarakat	-1400
▁akibat	-1401
▁berita	-1402
▁dari▁s	-1403
▁datang	-1404
▁diberi	-1405
▁hampir	-1406
▁meNkej	-1407
▁meNseb	-1408
▁peNgun	-1409
▁produk	-1410
▁sekali	-1411
▁selain	-1412
▁target	-1413
ingkatan	-1414
kan▁oleh	-1415
▁dinasti	-1416
▁dirinya	-1417
▁ekonomi	-1418
▁januari	-1419
▁konflik	-1420
▁makanan	-1421
▁meNberi	-1422
▁mediter	-1423
▁menteri	-1424
▁panjang	-1425
▁rencana	-1426
▁selesai	-1427
▁sepenuh	-1428
▁terbuka	-1429
▁tradisi	-1430
▁univers	-1431
akibatkan	-1432
▁di▁dunia	-1433
▁industri	-1434
▁jenderal	-1435
▁meNcakup	-1436
▁meNlawan	-1437
▁peNtulis	-1438
▁pertahan	-1439
▁pertanya	-1440
▁republik	-1441
▁hong▁kong	-1442
▁informasi	-1443
▁pada▁saat	-1444
▁yang▁meNp	-1445
▁masyarakat	-1446
▁mulai▁dari	-1447
▁perdagangan	-1448
▁pertengahan	-1449
▁sebagai▁peN	-1450
▁yang▁sangat	-1451
▁lebih▁banyak	-1452
▁meNmenangkan	-1453
▁peNtingkatan	-1454
20	-1455
ac	-1456
av	-1457
ef	-1458
ho	-1459
ly	-1460
mu	-1461
ri	-1462
▁6	-1463
▁q	-1464
aft	-1465
aja	-1466
ani	-1467
eph	-1468
era	-1469
esi	-1470
gel	-1471
her	-1472
ice	-1473
iko	-1474
mak	-1475
ney	-1476
oto	-1477
pil	-1478
pun	-1479
rat	-1480
ros	-1481
tor	-1482
uni	-1483
▁33	-1484
▁fr	-1485
▁me	-1486
▁ol	-1487
▁or	-1488
▁sk	-1489
adai	-1490
adis	-1491
aian	-1492
akwa	-1493
ecah	-1494
edia	-1495
enar	-1496
ersi	-1497
fung	-1498
iaya	-1499
ican	-1500
ikir	-1501
isir	-1502
isti	-1503
laku	-1504
obal	-1505
olak	-1506
otes	-1507
tual	-1508
ulit	-1509
upun	-1510
yang	-1511
▁bag	-1512
▁bay	-1513
▁cat	-1514
▁dat	-1515
▁fin	-1516
▁ide	-1517
▁jos	-1518
▁kab	-1519
▁lam	-1520
▁mis	-1521
▁nov	-1522
▁ott	-1523
▁ric	-1524
▁sak	-1525
▁sas	-1526
▁tul	-1527
▁uni	-1528
▁wal	-1529
adara	-1530
ambut	-1531
edaan	-1532
ektur	-1533
ender	-1534
e▁dan	-1535
ilang	-1536
inton	-1537
isten	-1538
istik	-1539
kenal	-1540
unggu	-1541
▁asal	-1542
▁asia	-1543
▁asli	-1544
▁baga	-1545
▁bank	-1546
▁berr	-1547
▁bias	-1548
▁dipr	-1549
▁di▁k	-1550
▁laki	-1551
▁lima	-1552
▁meNg	-1553
▁meny	-1554
▁pand	-1555
▁peNr	-1556
▁post	-1557
▁prib	-1558
▁real	-1559
▁sese	-1560
▁usia	-1561
adinya	-1562
angani	-1563
an▁itu	-1564
elajar	-1565
erdeka	-1566
fungsi	-1567
istiwa	-1568
lahkan	-1569
tember	-1570
us▁dan	-1571
▁dewan	-1572
▁gadis	-1573
▁karya	-1574
▁paris	-1575
▁rumah	-1576
▁sipil	-1577
▁tentu	-1578
abiskan	-1579
asilkan	-1580
ebaskan	-1581
eluaran	-1582
engaruh	-1583
idaknya	-1584
ingkali	-1585
kandung	-1586
nya▁ber	-1587
unungan	-1588
▁begitu	-1589
▁joseph	-1590
▁ketiga	-1591
▁konser	-1592
▁meNhil	-1593
▁miliar	-1594
▁modern	-1595
▁peNsel	-1596
▁selalu	-1597
▁sosial	-1598
▁tenaga	-1599
▁tujuan	-1600
▁undang	-1601
iri▁dari	-1602
utradara	-1603
▁berusia	-1604
▁clinton	-1605
▁distrik	-1606
▁ia▁akan	-1607
▁kalinya	-1608
▁karibia	-1609
▁kehidup	-1610
▁keputus	-1611
▁kontrak	-1612
▁lainnya	-1613
▁makedon	-1614
▁meNcoba	-1615
▁menarik	-1616
▁militer	-1617
▁peNbuat	-1618
▁peluang	-1619
▁pesawat	-1620
▁pesisir	-1621
▁saat▁ia	-1622
▁terbaik	-1623
▁yang▁se	-1624
asal▁dari	-1625
elesaikan	-1626
ung▁jawab	-1627
▁berhasil	-1628
▁berjalan	-1629
▁biasanya	-1630
▁dan▁meNp	-1631
▁dibangun	-1632
▁internet	-1633
▁ke▁dalam	-1634
▁meNkirim	-1635
▁meNseber	-1636
▁meNtolak	-1637
▁tertentu	-1638
▁transisi	-1639
▁bagaimana	-1640
▁berbicara	-1641
▁berfungsi	-1642
▁didirikan	-1643
▁di▁bagian	-1644
▁kemerdeka	-1645
▁mayoritas	-1646
▁peNberont	-1647
▁perbedaan	-1648
▁pertemuan	-1649
▁seseorang	-1650
▁tantangan	-1651
▁di▁wilayah	-1652
▁itu▁adalah	-1653
▁meNkandung	-1654
▁pertahanan	-1655
▁sepenuhnya	-1656
▁seringkali	-1657
▁tentu▁saja	-1658
▁tidak▁bisa	-1659
▁untuk▁meNt	-1660
▁meNhasilkan	-1661
▁peNkeluaran	-1662
▁terletak▁di	-1663
▁lebih▁lanjut	-1664
▁meNhilangkan	-1665
▁meNtimbulkan	-1666
▁perkembangan	-1667
▁terdiri▁dari	-1668
▁sementara▁itu	-1669
▁bahasa▁spanyol	-1670
▁amerika▁serikat	-1671
▁peNpilihan▁umum	-1672
ba	-1673
bc	-1674
ce	-1675
ex	-1676
hi	-1677
ht	-1678
ry	-1679
ty	-1680
▁u	-1681
1▁,	-1682
3▁.	-1683
5▁,	-1684
7▁,	-1685
9▁,	-1686
aku	-1687
arl	-1688
ast	-1689
car	-1690
cha	-1691
den	-1692
eij	-1693
ens	-1694
fat	-1695
fek	-1696
imb	-1697
ino	-1698
irk	-1699
iti	-1700
jak	-1701
lan	-1702
ler	-1703
lui	-1704
ohn	-1705
ram	-1706
ric	-1707
rut	-1708
sud	-1709
tin	-1710
ual	-1711
yek	-1712
▁17	-1713
▁am	-1714
▁co	-1715
▁ep	-1716
▁fl	-1717
▁go	-1718
▁gu	-1719
▁ny	-1720
▁os	-1721
▁sh	-1722
▁sw	-1723
ahun	-1724
ario	-1725
asar	-1726
ater	-1727
burg	-1728
engk	-1729
gera	-1730
hard	-1731
ings	-1732
isla	-1733
isme	-1734
iswa	-1735
jian	-1736
miah	-1737
onis	-1738
otal	-1739
tasi	-1740
tung	-1741
tutu	-1742
udra	-1743
umor	-1744
utri	-1745
utuh	-1746
▁,▁5	-1747
▁100	-1748
▁195	-1749
▁bad	-1750
▁bin	-1751
▁bis	-1752
▁col	-1753
▁deb	-1754
▁end	-1755
▁era	-1756
▁est	-1757
▁fak	-1758
▁gan	-1759
▁gun	-1760
▁hab	-1761
▁int	-1762
▁jep	-1763
▁lab	-1764
▁mei	-1765
▁mon	-1766
▁pat	-1767
▁put	-1768
▁rut	-1769
▁sch	-1770
▁sig	-1771
▁sta	-1772
▁top	-1773
an▁ke	-1774
atasi	-1775
egang	-1776
ening	-1777
entar	-1778
enter	-1779
ganti	-1780
ganya	-1781
harga	-1782
igasi	-1783
ikian	-1784
kan▁r	-1785
ograf	-1786
onald	-1787
onium	-1788
orong	-1789
rania	-1790
takan	-1791
ukses	-1792
utkan	-1793
vensi	-1794
▁acha	-1795
▁bala	-1796
▁cina	-1797
▁cont	-1798
▁dana	-1799
▁diny	-1800
▁efek	-1801
▁enam	-1802
▁foto	-1803
▁geor	-1804
▁hill	-1805
▁ikan	-1806
▁isti	-1807
▁jadi	-1808
▁john	-1809
▁juli	-1810
▁juni	-1811
▁kaum	-1812
▁kuat	-1813
▁meks	-1814
▁mela	-1815
▁mong	-1816
▁oper	-1817
▁pagi	-1818
▁pola	-1819
▁prog	-1820
▁qing	-1821
▁samp	-1822
▁teks	-1823
▁teng	-1824
adakan	-1825
al▁dan	-1826
aranya	-1827
atasan	-1828
at▁dan	-1829
eijing	-1830
entang	-1831
iburan	-1832
ingmas	-1833
kannya	-1834
▁asing	-1835
▁bangk	-1836
▁benar	-1837
▁berga	-1838
▁dasar	-1839
▁dekat	-1840
▁gelar	-1841
▁kasus	-1842
▁keter	-1843
▁komun	-1844
▁kulit	-1845
▁lahan	-1846
▁lahir	-1847
▁meNja	-1848
▁meNsa	-1849
▁mobil	-1850
▁morav	-1851
▁organ	-1852
▁punya	-1853
▁putri	-1854
▁situs	-1855
▁taman	-1856
▁teman	-1857
▁terla	-1858
▁titik	-1859
▁total	-1860
▁tumor	-1861
▁zaman	-1862
artemen	-1863
asarkan	-1864
ebutnya	-1865
ediakan	-1866
elakang	-1867
elaskan	-1868
isahkan	-1869
izinkan	-1870
umumkan	-1871
unjungi	-1872
wancara	-1873
▁analis	-1874
▁bisnis	-1875
▁dampak	-1876
▁disney	-1877
▁donald	-1878
▁global	-1879
▁ilmiah	-1880
▁jepang	-1881
▁karier	-1882
▁kepala	-1883
▁koloni	-1884
▁kurang	-1885
▁maupun	-1886
▁meNing	-1887
▁meNlam	-1888
▁negeri	-1889
▁persen	-1890
▁persis	-1891
▁posisi	-1892
▁proyek	-1893
▁segera	-1894
▁sering	-1895
▁tampak	-1896
▁yang▁r	-1897
ambarkan	-1898
ampilkan	-1899
asi▁yang	-1900
laporkan	-1901
▁agustus	-1902
▁albania	-1903
▁anggota	-1904
▁awalnya	-1905
▁belajar	-1906
▁dataran	-1907
▁denmark	-1908
▁dikenal	-1909
▁di▁area	-1910
▁di▁kota	-1911
▁federal	-1912
▁ini▁meN	-1913
▁katanya	-1914
▁keadaan	-1915
▁kekuasa	-1916
▁manusia	-1917
▁meksiko	-1918
▁melalui	-1919
▁mengapa	-1920
▁ottoman	-1921
▁percaya	-1922
▁saudara	-1923
▁sebesar	-1924
▁tanaman	-1925
▁yang▁ia	-1926
andingkan	-1927
embangkan	-1928
ingmasing	-1929
▁bangkrut	-1930
▁bertahan	-1931
▁bertahun	-1932
▁binatang	-1933
▁dan▁saya	-1934
▁demikian	-1935
▁ini▁akan	-1936
▁istrinya	-1937
▁meNcapai	-1938
▁meNjalan	-1939
▁meNpilih	-1940
▁meskipun	-1941
▁november	-1942
▁perminta	-1943
▁polonium	-1944
▁populasi	-1945
▁semuanya	-1946
▁terbesar	-1947
▁terlibat	-1948
▁yang▁dib	-1949
▁yang▁did	-1950
▁dua▁tahun	-1951
▁itu▁tidak	-1952
▁kehidupan	-1953
▁meNbentuk	-1954
▁meNdapati	-1955
▁meNdorong	-1956
▁pada▁satu	-1957
▁peNgunaan	-1958
▁peristiwa	-1959
▁postingan	-1960
▁september	-1961
▁tertinggi	-1962
▁yang▁berl	-1963
▁yang▁juga	-1964
▁diperlukan	-1965
▁di▁seluruh	-1966
▁meNdirikan	-1967
▁meNtemukan	-1968
▁peNdidikan	-1969
▁pertanyaan	-1970
▁saya▁tidak	-1971
▁setidaknya	-1972
▁tahun▁yang	-1973
▁telah▁meNs	-1974
▁university	-1975
▁yang▁sudah	-1976
▁berlangsung	-1977
▁dengan▁baik	-1978
▁kemerdekaan	-1979
▁meNhabiskan	-1980
▁meNjelaskan	-1981
▁meNsediakan	-1982
▁dibandingkan	-1983
▁dinasti▁qing	-1984
▁donald▁trump	-1985
▁masingmasing	-1986
▁meNseberangi	-1987
▁mediterrania	-1988
▁mungkin▁saja	-1989
▁peNselidikan	-1990
▁bertemu▁dengan	-1991
▁tahun▁terakhir	-1992
▁pertama▁kalinya	-1993
▁tidak▁meNmiliki	-1994
bo	-1995
fa	-1996
he	-1997
ph	-1998
vi	-1999
2▁.	-2000
8▁,	-2001
ahi	-2002
akl	-2003
aky	-2004
ash	-2005
ate	-2006
ean	-2007
eat	-2008
ema	-2009
gas	-2010
ges	-2011
ham	-2012
icu	-2013
ida	-2014
iks	-2015
isk	-2016
ive	-2017
jah	-2018
ley	-2019
mer	-2020
mos	-2021
nif	-2022
odi	-2023
ole	-2024
ork	-2025
oug	-2026
ped	-2027
pen	-2028
tas	-2029
taw	-2030
tip	-2031
tra	-2032
ubl	-2033
uga	-2034
uno	-2035
val	-2036
yut	-2037
▁12	-2038
▁13	-2039
▁30	-2040
▁31	-2041
▁36	-2042
▁50	-2043
▁cr	-2044
▁le	-2045
▁mo	-2046
▁ta	-2047
▁uk	-2048
▁ya	-2049
aksa	-2050
amen	-2051
ance	-2052
anta	-2053
an▁n	-2054
apua	-2055
aris	-2056
berg	-2057
bung	-2058
disi	-2059
ekam	-2060
elan	-2061
elid	-2062
enda	-2063
epas	-2064
epsi	-2065
erti	-2066
esia	-2067
etis	-2068
evel	-2069
e▁of	-2070
ffer	-2071
gara	-2072
iade	-2073
ight	-2074
insi	-2075
ital	-2076
itat	-2077
jata	-2078
jual	-2079
laim	-2080
ling	-2081
mewa	-2082
odes	-2083
olia	-2084
olik	-2085
oper	-2086
oris	-2087
rasi	-2088
ston	-2089
tern	-2090
titu	-2091
truk	-2092
udut	-2093
uman	-2094
umen	-2095
▁149	-2096
▁188	-2097
▁192	-2098
▁3▁%	-2099
▁api	-2100
▁ass	-2101
▁ath	-2102
▁bal	-2103
▁bog	-2104
▁del	-2105
▁dig	-2106
▁duk	-2107
▁gen	-2108
▁gur	-2109
▁ibu	-2110
▁iii	-2111
▁ist	-2112
▁jab	-2113
▁jal	-2114
▁jas	-2115
▁jut	-2116
▁kad	-2117
▁kam	-2118
▁kin	-2119
▁kir	-2120
▁lak	-2121
▁lok	-2122
▁ont	-2123
▁pow	-2124
▁ram	-2125
▁ris	-2126
▁sat	-2127
▁sin	-2128
▁sub	-2129
▁tok	-2130
▁val	-2131
▁web	-2132
▁á▁n	-2133
adian	-2134
akter	-2135
amaan	-2136
andat	-2137
anian	-2138
atian	-2139
ation	-2140
awasi	-2141
ental	-2142
evirk	-2143
harap	-2144
harus	-2145
idang	-2146
ihati	-2147
ikuti	-2148
iraun	-2149
jakan	-2150
kanan	-2151
kan▁b	-2152
muwan	-2153
okter	-2154
ondon	-2155
ongan	-2156
resif	-2157
tutup	-2158
uasai	-2159
ukaan	-2160
umbuh	-2161
urkan	-2162
uru▁b	-2163
usaha	-2164
utama	-2165
utasi	-2166
▁1960	-2167
▁2014	-2168
▁alih	-2169
▁arah	-2170
▁bayi	-2171
▁dela	-2172
▁duta	-2173
▁ener	-2174
▁golf	-2175
▁hati	-2176
▁hist	-2177
▁horm	-2178
▁imig	-2179
▁kaya	-2180
▁kebi	-2181
▁komp	-2182
▁kris	-2183
▁kuda	-2184
▁lemb	-2185
▁maju	-2186
▁mata	-2187
▁muda	-2188
▁petu	-2189
▁pros	-2190
▁sens	-2191
▁shen	-2192
▁syut	-2193
▁unit	-2194
▁york	-2195
adanya	-2196
ailand	-2197
amerun	-2198
amping	-2199
ampuan	-2200
angkit	-2201
angkut	-2202
anusia	-2203
apatan	-2204
ar▁dan	-2205
elanda	-2206
emenid	-2207
entuan	-2208
fferty	-2209
hatian	-2210
ingkap	-2211
irakan	-2212
menang	-2213
terima	-2214
uburan	-2215
ungkan	-2216
unuhan	-2217
▁agama	-2218
▁alpen	-2219
▁angin	-2220
▁artis	-2221
▁bebas	-2222
▁bekas	-2223
▁benua	-2224
▁buruk	-2225
▁damai	-2226
▁dan▁g	-2227
▁dan▁s	-2228
▁email	-2229
▁great	-2230
▁harga	-2231
▁hitch	-2232
▁hujan	-2233
▁india	-2234
▁islam	-2235
▁kalah	-2236
▁keseh	-2237
▁kesha	-2238
▁kisah	-2239
▁korea	-2240
▁kursi	-2241
▁lapor	-2242
▁layak	-2243
▁level	-2244
▁malam	-2245
▁musuh	-2246
▁nyata	-2247
▁olimp	-2248
▁opium	-2249
▁pasir	-2250
▁peNad	-2251
▁peNla	-2252
▁peNtu	-2253
▁pecah	-2254
▁resmi	-2255
▁ruang	-2256
▁saint	-2257
▁sakit	-2258
▁suatu	-2259
▁tepat	-2260
▁terka	-2261
▁tujuh	-2262
▁tulis	-2263
▁turki	-2264
aklukan	-2265
alisasi	-2266
ancuran	-2267
angsaan	-2268
an▁dari	-2269
ational	-2270
atorium	-2271
elidiki	-2272
enangan	-2273
enarnya	-2274
entikan	-2275
entukan	-2276
gantung	-2277
hasilan	-2278
indungi	-2279
nifikan	-2280
nya▁dan	-2281
turunan	-2282
ublican	-2283
unduran	-2284
urangan	-2285
▁ada▁di	-2286
▁bahkan	-2287
▁budaya	-2288
▁cerita	-2289
▁contoh	-2290
▁dekade	-2291
▁dibuat	-2292
▁dijual	-2293
▁firaun	-2294
▁gereja	-2295
▁gunung	-2296
▁hancur	-2297
▁hilang	-2298
▁itulah	-2299
▁juru▁b	-2300
▁kajian	-2301
▁kanada	-2302
▁kereta	-2303
▁kering	-2304
▁langka	-2305
▁meNhad	-2306
▁meNmas	-2307
▁meNnik	-2308
▁protes	-2309
▁sastra	-2310
▁senang	-2311
▁tampil	-2312
▁tengah	-2313
aklukkan	-2314
ambahkan	-2315
ancurkan	-2316
asi▁baru	-2317
empatkan	-2318
isi▁lain	-2319
kenalkan	-2320
nya▁pada	-2321
umpulkan	-2322
untungan	-2323
▁apa▁pun	-2324
▁beijing	-2325
▁berbeda	-2326
▁berlaku	-2327
▁dilihat	-2328
▁di▁atas	-2329
▁di▁sini	-2330
▁habitat	-2331
▁ilmuwan	-2332
▁kamerun	-2333
▁ke▁arah	-2334
▁ke▁laut	-2335
▁kinerja	-2336
▁kondisi	-2337
▁konserv	-2338
▁legisla	-2339
▁meNbaca	-2340
▁meNbawa	-2341
▁meNbuka	-2342
▁meNcari	-2343
▁meNrasa	-2344
▁moravia	-2345
▁ontario	-2346
▁peNmain	-2347
▁peNterb	-2348
▁petugas	-2349
▁pribadi	-2350
▁richard	-2351
▁samudra	-2352
▁seharus	-2353
▁syuting	-2354
▁tekanan	-2355
▁terlalu	-2356
▁tidak▁b	-2357
▁ujarnya	-2358
▁untuk▁m	-2359
▁winston	-2360
inya▁yang	-2361
terbitkan	-2362
ungkinkan	-2363
▁bahwa▁ia	-2364
▁bergerak	-2365
▁berhenti	-2366
▁berkuasa	-2367
▁berpikir	-2368
▁bertangg	-2369
▁danevirk	-2370
▁dengan▁c	-2371
▁desember	-2372
▁di▁barat	-2373
▁dominasi	-2374
▁hidupnya	-2375
▁historis	-2376
▁ini▁juga	-2377
▁istimewa	-2378
▁karakter	-2379
▁keduanya	-2380
▁kematian	-2381
▁komentar	-2382
▁masa▁jab	-2383
▁meNtulis	-2384
▁menengah	-2385
▁mongolia	-2386
▁pasangan	-2387
▁peNharga	-2388
▁rafferty	-2389
▁real▁est	-2390
▁rekening	-2391
▁sehingga	-2392
▁sejumlah	-2393
▁tak▁lama	-2394
▁tak▁terb	-2395
▁tenggara	-2396
▁tentunya	-2397
▁terutama	-2398
▁thailand	-2399
▁yang▁dip	-2400
an▁penting	-2401
impin▁oleh	-2402
▁dalam▁per	-2403
▁dapat▁meN	-2404
▁di▁sebuah	-2405
▁hidup▁dan	-2406
▁kekuasaan	-2407
▁kepadanya	-2408
▁meNbangun	-2409
▁meNtonton	-2410
▁meNwakili	-2411
▁olimpiade	-2412
▁pada▁awal	-2413
▁perhatian	-2414
▁permukaan	-2415
▁pertanian	-2416
▁sedangkan	-2417
▁telah▁ber	-2418
▁terbentuk	-2419
▁waktu▁ini	-2420
▁yang▁akan	-2421
▁yang▁berk	-2422
▁yang▁berp	-2423
▁yang▁meNb	-2424
▁yang▁meNk	-2425
▁yang▁meNs	-2426
andatangani	-2427
bung▁dengan	-2428
nya▁sebagai	-2429
▁achaemenid	-2430
▁bergantung	-2431
▁dalam▁film	-2432
▁departemen	-2433
▁di▁mana▁ia	-2434
▁di▁sekolah	-2435
▁kehancuran	-2436
▁kemunduran	-2437
▁keterampil	-2438
▁meNtentang	-2439
▁minggu▁ini	-2440
▁peNbangkit	-2441
▁peNbunuhan	-2442
▁peNdapatan	-2443
▁perbatasan	-2444
▁republican	-2445
▁sebenarnya	-2446
▁selain▁itu	-2447
▁selama▁dua	-2448
▁signifikan	-2449
▁tahun▁lalu	-2450
▁terjadinya	-2451
▁untuk▁meNr	-2452
▁yang▁besar	-2453
ikuti▁dengan	-2454
▁berdasarkan	-2455
▁juru▁bicara	-2456
▁meNingatkan	-2457
▁mereka▁yang	-2458
▁negara▁kota	-2459
▁orang▁eropa	-2460
▁peNtaklukan	-2461
▁selama▁masa	-2462
▁semua▁orang	-2463
▁tidak▁dapat	-2464
▁tidak▁jelas	-2465
▁tradisional	-2466
▁berada▁dalam	-2467
▁dalam▁bahasa	-2468
▁dalam▁jumlah	-2469
▁di▁sisi▁lain	-2470
▁meNakibatkan	-2471
▁meNtambahkan	-2472
▁peNterbangan	-2473
▁perang▁dunia	-2474
▁tidak▁pernah	-2475
▁yang▁disebut	-2476
utradarai▁oleh	-2477
▁karena▁mereka	-2478
▁peNberontakan	-2479
▁penduduk▁asli	-2480
▁sekitar▁tahun	-2481
▁tetap▁meNjadi	-2482
▁untuk▁meNbuat	-2483
▁yang▁kemudian	-2484
▁dalam▁beberapa	-2485
▁dataran▁rendah	-2486
▁di▁musim▁panas	-2487
▁mereka▁sendiri	-2488
▁selama▁periode	-2489
▁semakin▁banyak	-2490
▁yang▁ditemukan	-2491
▁yang▁meNwakili	-2492
▁bergantung▁pada	-2493
▁di▁musim▁dingin	-2494
▁lahan▁pertanian	-2495
▁salah▁satu▁dari	-2496
▁selama▁bertahun	-2497
▁untuk▁meNbentuk	-2498
50	-2499
br	-2500
do	-2501
dr	-2502
ma	-2503
mp	-2504
nn	-2505
oy	-2506
9▁.	-2507
abr	-2508
ado	-2509
agi	-2510
aki	-2511
arm	-2512
arr	-2513
ary	-2514
awa	-2515
bil	-2516
bon	-2517
cak	-2518
cap	-2519
dar	-2520
deb	-2521
eNd	-2522
ebr	-2523
eko	-2524
eli	-2525
e▁t	-2526
fab	-2527
ico	-2528
inj	-2529
ior	-2530
ith	-2531
jui	-2532
lar	-2533
min	-2534
oal	-2535
obi	-2536
oci	-2537
oin	-2538
oks	-2539
omb	-2540
onm	-2541
ood	-2542
orn	-2543
ots	-2544
own	-2545
ras	-2546
rid	-2547
rit	-2548
rol	-2549
rom	-2550
rop	-2551
tis	-2552
tiv	-2553
tug	-2554
uck	-2555
ugh	-2556
uhu	-2557
umi	-2558
ver	-2559
wit	-2560
yan	-2561
ybo	-2562
▁..	-2563
▁11	-2564
▁ah	-2565
▁ca	-2566
▁ev	-2567
▁gi	-2568
▁hi	-2569
▁jo	-2570
▁kl	-2571
▁kn	-2572
▁li	-2573
▁my	-2574
▁ne	-2575
▁no	-2576
▁ot	-2577
▁pe	-2578
▁rh	-2579
▁ro	-2580
▁sc	-2581
▁tn	-2582
▁ul	-2583
▁ur	-2584
▁us	-2585
▁wr	-2586
adah	-2587
adik	-2588
agal	-2589
agam	-2590
ahud	-2591
akar	-2592
alir	-2593
amat	-2594
arif	-2595
asif	-2596
atis	-2597
atuh	-2598
bane	-2599
cock	-2600
d▁kh	-2601
edak	-2602
ekan	-2603
elam	-2604
elis	-2605
elur	-2606
enek	-2607
enry	-2608
epon	-2609
eran	-2610
etah	-2611
eyer	-2612
guna	-2613
hima	-2614
iang	-2615
idat	-2616
ideo	-2617
ihak	-2618
ikel	-2619
ille	-2620
ilot	-2621
imen	-2622
inci	-2623
irah	-2624
irsa	-2625
isip	-2626
itif	-2627
jaga	-2628
mine	-2629
mose	-2630
obin	-2631
odoh	-2632
odus	-2633
ohon	-2634
okok	-2635
okus	-2636
onio	-2637
ontr	-2638
on▁b	-2639
otor	-2640
ouch	-2641
paui	-2642
pert	-2643
rich	-2644
rist	-2645
ting	-2646
tion	-2647
tuju	-2648
uaca	-2649
uali	-2650
ubuh	-2651
ucas	-2652
ukti	-2653
ukup	-2654
ukur	-2655
uler	-2656
uluh	-2657
un▁t	-2658
upuk	-2659
urie	-2660
utip	-2661
wasa	-2662
▁$▁1	-2663
▁,▁“	-2664
▁177	-2665
▁183	-2666
▁194	-2667
▁196	-2668
▁1▁%	-2669
▁1▁.	-2670
▁330	-2671
▁500	-2672
▁aku	-2673
▁amb	-2674
▁anc	-2675
▁ans	-2676
▁arm	-2677
▁bbc	-2678
▁bum	-2679
▁cap	-2680
▁cnn	-2681
▁com	-2682
▁cor	-2683
▁dav	-2684
▁dor	-2685
▁for	-2686
▁gaj	-2687
▁gam	-2688
▁hel	-2689
▁his	-2690
▁jar	-2691
▁jen	-2692
▁kaw	-2693
▁kil	-2694
▁kim	-2695
▁kip	-2696
▁kla	-2697
▁lap	-2698
▁lez	-2699
▁log	-2700
▁lov	-2701
▁mic	-2702
▁nas	-2703
▁nic	-2704
▁nug	-2705
▁obl	-2706
▁out	-2707
▁pik	-2708
▁pla	-2709
▁rea	-2710
▁ret	-2711
▁sla	-2712
▁sus	-2713
▁tal	-2714
▁taw	-2715
▁ven	-2716
▁you	-2717
▁yud	-2718
abnya	-2719
ahari	-2720
ajaan	-2721
akira	-2722
akyat	-2723
alami	-2724
alnya	-2725
ambar	-2726
andar	-2727
angat	-2728
angga	-2729
anksi	-2730
asang	-2731
ayaan	-2732
embus	-2733
endek	-2734
enden	-2735
ensif	-2736
ephen	-2737
erang	-2738
etnis	-2739
fabet	-2740
galam	-2741
garet	-2742
hawat	-2743
ibusi	-2744
ihkan	-2745
illes	-2746
impan	-2747
indah	-2748
indak	-2749
ingen	-2750
intah	-2751
isode	-2752
lahan	-2753
layar	-2754
mpang	-2755
nyany	-2756
ocrat	-2757
olina	-2758
ompok	-2759
onjak	-2760
onsel	-2761
opher	-2762
roduk	-2763
ropol	-2764
tihan	-2765
tikel	-2766
titut	-2767
tuduh	-2768
uktur	-2769
umbus	-2770
umpah	-2771
umpur	-2772
yakan	-2773
yakin	-2774
▁1970	-2775
▁1980	-2776
▁2013	-2777
▁ahli	-2778
▁aman	-2779
▁beku	-2780
▁berh	-2781
▁berj	-2782
▁bern	-2783
▁biji	-2784
▁bris	-2785
▁carl	-2786
▁daya	-2787
▁di▁w	-2788
▁emas	-2789
▁flor	-2790
▁hind	-2791
▁ibuk	-2792
▁ke▁t	-2793
▁kode	-2794
▁kuno	-2795
▁land	-2796
▁lord	-2797
▁mana	-2798
▁mati	-2799
▁nila	-2800
▁norm	-2801
▁park	-2802
▁paru	-2803
▁paul	-2804
▁peNh	-2805
▁perl	-2806
▁plan	-2807
▁prak	-2808
▁pras	-2809
▁prem	-2810
▁raya	-2811
▁rela	-2812
▁rona	-2813
▁rute	-2814
▁seni	-2815
▁seri	-2816
▁siap	-2817
▁sisa	-2818
▁sisi	-2819
▁suhu	-2820
▁suka	-2821
▁tamb	-2822
▁temb	-2823
▁teor	-2824
▁terk	-2825
▁thut	-2826
▁tren	-2827
▁uber	-2828
▁will	-2829
adikal	-2830
akaian	-2831
akwaan	-2832
alaman	-2833
amanya	-2834
andang	-2835
anggan	-2836
angkah	-2837
angkat	-2838
angkau	-2839
arawan	-2840
asepsi	-2841
ashing	-2842
atuhan	-2843
awasan	-2844
borasi	-2845
ediaan	-2846
ediksi	-2847
ekonom	-2848
empati	-2849
enaran	-2850
entino	-2851
etujui	-2852
fikasi	-2853
iarkan	-2854
iksaan	-2855
maksud	-2856
nya▁ke	-2857
ografi	-2858
ombang	-2859
otensi	-2860
pedisi	-2861
undang	-2862
ungguh	-2863
usakan	-2864
utuhan	-2865
witter	-2866
▁aktif	-2867
▁andes	-2868
▁angka	-2869
▁badai	-2870
▁badan	-2871
▁bagus	-2872
▁bantu	-2873
▁belas	-2874
▁biaya	-2875
▁blunt	-2876
▁bodoh	-2877
▁celah	-2878
▁chris	-2879
▁cuaca	-2880
▁cukup	-2881
▁danau	-2882
▁dan▁h	-2883
▁dan▁j	-2884
▁dan▁m	-2885
▁diser	-2886
▁di▁as	-2887
▁di▁ke	-2888
▁emisi	-2889
▁fiksi	-2890
▁fokus	-2891
▁gener	-2892
▁gurun	-2893
▁halus	-2894
▁henry	-2895
▁hewan	-2896
▁iklan	-2897
▁indep	-2898
▁jalan	-2899
▁jalur	-2900
▁juara	-2901
▁kabar	-2902
▁kartu	-2903
▁kehil	-2904
▁kelih	-2905
▁lawan	-2906
▁legal	-2907
▁lingk	-2908
▁liter	-2909
▁massa	-2910
▁media	-2911
▁merah	-2912
▁mudah	-2913
▁nenek	-2914
▁opini	-2915
▁oscar	-2916
▁paksa	-2917
▁palem	-2918
▁perlu	-2919
▁pesta	-2920
▁pihak	-2921
▁pilot	-2922
▁polit	-2923
▁puing	-2924
▁putih	-2925
▁refer	-2926
▁riset	-2927
▁saham	-2928
▁senat	-2929
▁siswa	-2930
▁tanda	-2931
▁tarif	-2932
▁tokoh	-2933
▁tubuh	-2934
▁ujung	-2935
▁versi	-2936
▁video	-2937
▁warga	-2938
▁warna	-2939
▁yahud	-2940
▁yakin	-2941
aftaran	-2942
angunan	-2943
an▁akan	-2944
arankan	-2945
arapkan	-2946
d▁khaan	-2947
elajari	-2948
empatan	-2949
entuhan	-2950
hentian	-2951
idangan	-2952
ikirkan	-2953
isipasi	-2954
kirakan	-2955
roduksi	-2956
wakilan	-2957
▁1492▁,	-2958
▁2010▁,	-2959
▁2014▁.	-2960
▁2015▁,	-2961
▁2017▁.	-2962
▁alasan	-2963
▁associ	-2964
▁athena	-2965
▁aturan	-2966
▁barang	-2967
▁benarb	-2968
▁christ	-2969
▁dan▁ia	-2970
▁desain	-2971
▁dewasa	-2972
▁di▁seb	-2973
▁elemen	-2974
▁keaman	-2975
▁kepent	-2976
▁keungg	-2977
▁komand	-2978
▁kontam	-2979
▁kritik	-2980
▁london	-2981
▁martin	-2982
▁materi	-2983
▁meNdek	-2984
▁memang	-2985
▁nugini	-2986
▁pantai	-2987
▁pantas	-2988
▁parade	-2989
▁peNseb	-2990
▁perada	-2991
▁pernik	-2992
▁ponsel	-2993
▁powers	-2994
▁proses	-2995
▁rakyat	-2996
▁saling	-2997
▁sanksi	-2998
▁sayang	-2999
▁seagal	-3000
▁sebaga	-3001
▁selasa	-3002
▁stabil	-3003
▁sumpah	-3004
▁teater	-3005
▁winter	-3006
▁wright	-3007
ahan▁dan	-3008
ampaikan	-3009
andalkan	-3010
anggaran	-3011
angkaian	-3012
debatkan	-3013
eluruhan	-3014
ia▁untuk	-3015
inggiran	-3016
inginkan	-3017
lahirkan	-3018
usatunya	-3019
▁akan▁di	-3020
▁alfabet	-3021
▁ancaman	-3022
▁angkasa	-3023
▁antonio	-3024
▁asisten	-3025
▁bisa▁di	-3026
▁catatan	-3027
▁dakwaan	-3028
▁dalam▁p	-3029
▁dan▁per	-3030
▁digital	-3031
▁dimulai	-3032
▁dirilis	-3033
▁disebut	-3034
▁ditarik	-3035
▁di▁awal	-3036
▁di▁laut	-3037
▁di▁masa	-3038
▁di▁roma	-3039
▁endapan	-3040
▁episode	-3041
▁genting	-3042
▁hal▁ini	-3043
▁herodes	-3044
▁ia▁meNk	-3045
▁imigran	-3046
▁itu▁tak	-3047
▁jasmine	-3048
▁katolik	-3049
▁keingin	-3050
▁ketidak	-3051
▁kipling	-3052
▁koleksi	-3053
▁kontrol	-3054
▁kristen	-3055
▁langkah	-3056
▁meNjaga	-3057
▁meNpert	-3058
▁meNubah	-3059
▁mishima	-3060
▁operasi	-3061
▁panduan	-3062
▁pemirsa	-3063
▁program	-3064
▁radikal	-3065
▁sekadar	-3066
▁standar	-3067
▁stephen	-3068
▁telepon	-3069
▁teratas	-3070
▁terkait	-3071
akan▁oleh	-3072
ania▁raya	-3073
arah▁pada	-3074
ashington	-3075
ebangsaan	-3076
ekonomian	-3077
nya▁tidak	-3078
olaborasi	-3079
opher▁col	-3080
ropolitan	-3081
▁adalah▁b	-3082
▁akan▁ada	-3083
▁analisis	-3084
▁berakhir	-3085
▁berlayar	-3086
▁berrubah	-3087
▁brisbane	-3088
▁carolina	-3089
▁dan▁juga	-3090
▁dan▁meNh	-3091
▁dan▁meNk	-3092
▁democrat	-3093
▁dengan▁s	-3094
▁direktur	-3095
▁diterima	-3096
▁film▁ini	-3097
▁institut	-3098
▁itu▁juga	-3099
▁kalender	-3100
▁kandidat	-3101
▁kerajaan	-3102
▁kesukses	-3103
▁kirakira	-3104
▁konsumen	-3105
▁landmark	-3106
▁margaret	-3107
▁matahari	-3108
▁meNbunuh	-3109
▁meNdarat	-3110
▁meNkejar	-3111
▁meNledak	-3112
▁meNminta	-3113
▁meNmulai	-3114
▁meNpinta	-3115
▁meNrilis	-3116
▁meNtaruh	-3117
▁mengerti	-3118
▁menyerah	-3119
▁obligasi	-3120
▁partikel	-3121
▁peNkuasa	-3122
▁pengalam	-3123
▁produksi	-3124
▁reputasi	-3125
▁sebabnya	-3126
▁serangan	-3127
▁sosialis	-3128
▁struktur	-3129
▁terbunuh	-3130
▁terburuk	-3131
▁terdapat	-3132
▁terpilih	-3133
▁terpisah	-3134
▁thutmose	-3135
▁winstone	-3136
▁yang▁ada	-3137
▁yang▁men	-3138
▁bertindak	-3139
▁dalam▁hal	-3140
▁danevirke	-3141
▁diberikan	-3142
▁dilakukan	-3143
▁dipandang	-3144
▁ditinggal	-3145
▁di▁afrika	-3146
▁di▁bidang	-3147
▁di▁tempat	-3148
▁ekspedisi	-3149
▁gelombang	-3150
▁hitchcock	-3151
▁ini▁tidak	-3152
▁investasi	-3153
▁itu▁telah	-3154
▁kebutuhan	-3155
▁kejatuhan	-3156
▁kemampuan	-3157
▁kemanusia	-3158
▁keputusan	-3159
▁kerusakan	-3160
▁ketentuan	-3161
▁keturunan	-3162
▁makedonia	-3163
▁masa▁kini	-3164
▁masih▁ada	-3165
▁meNadakan	-3166
▁meNderita	-3167
▁meNhadiri	-3168
▁meNlonjak	-3169
▁meNpenuhi	-3170
▁meNserang	-3171
▁meNtunggu	-3172
▁pada▁masa	-3173
▁peNadilan	-3174
▁peNtonton	-3175
▁pekerjaan	-3176
▁sebagai▁p	-3177
▁sejarawan	-3178
▁seperti▁b	-3179
▁siapa▁pun	-3180
▁situs▁web	-3181
▁tahun▁ini	-3182
▁tahun▁itu	-3183
▁tersangka	-3184
▁tiga▁kali	-3185
▁valentino	-3186
▁wawancara	-3187
an▁terhadap	-3188
apua▁nugini	-3189
epas▁pantai	-3190
▁anda▁harus	-3191
▁baru▁untuk	-3192
▁besar▁dari	-3193
▁bogd▁khaan	-3194
▁dari▁semua	-3195
▁dibintangi	-3196
▁dilaporkan	-3197
▁dinyatakan	-3198
▁diprediksi	-3199
▁di▁inggris	-3200
▁di▁sebelah	-3201
▁di▁sekitar	-3202
▁duta▁besar	-3203
▁ia▁bekerja	-3204
▁independen	-3205
▁ini▁berada	-3206
▁intervensi	-3207
▁itu▁dengan	-3208
▁kehilangan	-3209
▁kemenangan	-3210
▁keunggulan	-3211
▁keuntungan	-3212
▁kita▁harus	-3213
▁meNbiarkan	-3214
▁meNjangkau	-3215
▁meNlampaui	-3216
▁meNsingkap	-3217
▁meNtingkat	-3218
▁meNumumkan	-3219
▁orang▁lain	-3220
▁organisasi	-3221
▁peNlanggan	-3222
▁peNtumpang	-3223
▁perwakilan	-3224
▁saya▁sudah	-3225
▁sendiri▁di	-3226
▁tiga▁puluh	-3227
▁untuk▁meNc	-3228
▁untuk▁meNd	-3229
▁yang▁bebas	-3230
▁yang▁dapat	-3231
▁yang▁diper	-3232
▁yang▁ingin	-3233
▁yang▁tepat	-3234
▁akan▁sangat	-3235
▁antara▁lain	-3236
▁banyak▁dari	-3237
▁berpengaruh	-3238
▁dan▁meNjadi	-3239
▁dengan▁cara	-3240
▁diberi▁tahu	-3241
▁dihancurkan	-3242
▁ini▁mungkin	-3243
▁karena▁usia	-3244
▁keluar▁dari	-3245
▁kembali▁dan	-3246
▁kepentingan	-3247
▁keseluruhan	-3248
▁kontrasepsi	-3249
▁meNbebaskan	-3250
▁meNbintangi	-3251
▁meNharapkan	-3252
▁meNhentikan	-3253
▁meNkejutkan	-3254
▁meNmasukkan	-3255
▁meNpikirkan	-3256
▁meNputuskan	-3257
▁meNsalahkan	-3258
▁meNsebutnya	-3259
▁meNserahkan	-3260
▁mereka▁akan	-3261
▁musim▁panas	-3262
▁peNbangunan	-3263
▁peNdaftaran	-3264
▁pengunungan	-3265
▁persidangan	-3266
▁real▁estate	-3267
▁sama▁dengan	-3268
▁sama▁sekali	-3269
▁satusatunya	-3270
▁sejak▁tahun	-3271
▁seperti▁itu	-3272
▁tidak▁boleh	-3273
▁yang▁sedang	-3274
▁antara▁tahun	-3275
▁berasal▁dari	-3276
▁dalam▁negeri	-3277
▁dalam▁perang	-3278
▁dari▁prancis	-3279
▁digunakan▁di	-3280
▁di▁sepanjang	-3281
▁firaun▁mesir	-3282
▁great▁powers	-3283
▁keberhasilan	-3284
▁kecil▁dengan	-3285
▁laut▁karibia	-3286
▁meNgambarkan	-3287
▁memungkinkan	-3288
▁mereka▁harus	-3289
▁metropolitan	-3290
▁musim▁dingin	-3291
▁pada▁abad▁ke	-3292
▁peNkembangan	-3293
▁peNlanggaran	-3294
▁sangat▁tidak	-3295
▁yang▁dijalan	-3296
▁yang▁meNbuat	-3297
▁yang▁terjadi	-3298
▁yang▁tinggal	-3299
opher▁columbus	-3300
▁belum▁selesai	-3301
▁dan▁bagaimana	-3302
▁dan▁khususnya	-3303
▁dan▁yang▁juga	-3304
▁diperdebatkan	-3305
▁internasional	-3306
▁kalender▁cina	-3307
▁makedonia▁dan	-3308
▁meNkembangkan	-3309
▁meNselesaikan	-3310
▁perjalanan▁ke	-3311
▁seorang▁gadis	-3312
▁bekerja▁dengan	-3313
▁bulan▁november	-3314
▁dan▁pada▁tahun	-3315
▁di▁wilayah▁ini	-3316
▁listrik▁tenaga	-3317
▁north▁carolina	-3318
▁sebagai▁akibat	-3319
▁sendiri▁dengan	-3320
▁surat▁obligasi	-3321
▁tapi▁tidak▁ada	-3322
▁terlibat▁dalam	-3323
▁yang▁digunakan	-3324
▁yang▁merupakan	-3325
▁amerika▁selatan	-3326
▁dan▁meNdapatkan	-3327
▁dibintangi▁oleh	-3328
▁dikenal▁sebagai	-3329
▁keuntungan▁dari	-3330
▁untuk▁meNpenuhi	-3331
14	-3332
16	-3333
30	-3334
cu	-3335
da	-3336
eu	-3337
fc	-3338
fi	-3339
fs	-3340
gy	-3341
ix	-3342
jm	-3343
my	-3344
ni	-3345
no	-3346
ps	-3347
qu	-3348
yn	-3349
yu	-3350
za	-3351
zi	-3352
zl	-3353
0▁%	-3354
4▁,	-3355
6▁%	-3356
8▁.	-3357
alu	-3358
aro	-3359
ase	-3360
ass	-3361
att	-3362
bal	-3363
bul	-3364
cad	-3365
cas	-3366
chu	-3367
cun	-3368
dum	-3369
eNr	-3370
eal	-3371
ebe	-3372
ebo	-3373
ect	-3374
eet	-3375
egr	-3376
eku	-3377
elg	-3378
emy	-3379
epi	-3380
erh	-3381
ewa	-3382
gen	-3383
gow	-3384
hai	-3385
hal	-3386
hoa	-3387
iam	-3388
iao	-3389
iba	-3390
idi	-3391
ilb	-3392
ins	-3393
ion	-3394
iot	-3395
ire	-3396
ish	-3397
jau	-3398
jek	-3399
se	-3400
amm	-3401
asc	-3402
eou	-3403
jol	-3404
kah	-3405
kop	-3406
lap	-3407
les	-3408
let	-3409
lev	-3410
low	-3411
mar	-3412
mon	-3413
nak	-3414
now	-3415
nur	-3416
oda	-3417
oga	-3418
ogl	-3419
oln	-3420
oma	-3421
ono	-3422
onz	-3423
ool	-3424
ora	-3425
ore	-3426
oss	-3427
ous	-3428
pek	-3429
pir	-3430
put	-3431
que	-3432
rav	-3433
ret	-3434
rey	-3435
san	-3436
sim	-3437
sin	-3438
sit	-3439
sus	-3440
tel	-3441
tic	-3442
tih	-3443
til	-3444
tim	-3445
uba	-3446
ube	-3447
ugi	-3448
uki	-3449
ulu	-3450
uma	-3451
ums	-3452
urv	-3453
usa	-3454
ven	-3455
weg	-3456
yol	-3457
▁'.	-3458
▁21	-3459
▁25	-3460
▁28	-3461
▁34	-3462
▁35	-3463
▁53	-3464
▁60	-3465
▁90	-3466
▁av	-3467
▁bo	-3468
▁bu	-3469
▁ex	-3470
▁fi	-3471
▁fj	-3472
▁ge	-3473
▁ha	-3474
▁iv	-3475
▁lo	-3476
▁mc	-3477
▁ms	-3478
▁ng	-3479
▁nn	-3480
▁om	-3481
▁ph	-3482
▁py	-3483
▁rs	-3484
▁ts	-3485
▁uc	-3486
▁vi	-3487
▁vw	-3488
▁”,	-3489
4▁),	-3490
60▁.	-3491
abut	-3492
adir	-3493
adop	-3494
agar	-3495
agum	-3496
ahab	-3497
aina	-3498
ajam	-3499
arn	-3500
esp	-3501
vir	-3502
▁84	-3503
ahla	-3504
akai	-3505
akum	-3506
alih	-3507
alon	-3508
amil	-3509
ampu	-3510
anan	-3511
anco	-3512
andi	-3513
andu	-3514
angl	-3515
anut	-3516
an▁h	-3517
apus	-3518
arab	-3519
arez	-3520
aria	-3521
arki	-3522
arkt	-3523
arta	-3524
arth	-3525
asia	-3526
asis	-3527
asok	-3528
asta	-3529
atik	-3530
atka	-3531
atur	-3532
atus	-3533
awal	-3534
beda	-3535
bots	-3536
cena	-3537
cord	-3538
cuan	-3539
diri	-3540
drin	-3541
edah	-3542
egah	-3543
ejak	-3544
ekut	-3545
elek	-3546
elmi	-3547
eman	-3548
emeh	-3549
emui	-3550
emuk	-3551
enic	-3552
enov	-3553
enya	-3554
eouf	-3555
erai	-3556
erit	-3557
erus	-3558
esse	-3559
esus	-3560
eten	-3561
etuj	-3562
ewat	-3563
exit	-3564
e▁pr	-3565
ford	-3566
ftar	-3567
hael	-3568
heel	-3569
ibun	-3570
ibut	-3571
iday	-3572
idik	-3573
ihan	-3574
ikap	-3575
iker	-3576
iksa	-3577
ilik	-3578
ilip	-3579
iman	-3580
imat	-3581
irip	-3582
isan	-3583
isil	-3584
istr	-3585
ivid	-3586
jang	-3587
jauh	-3588
korn	-3589
lagi	-3590
lahr	-3591
lant	-3592
lein	-3593
luas	-3594
mara	-3595
nest	-3596
okan	-3597
olai	-3598
olis	-3599
^20	-3600
esh	-3601
iro	-3602
saj	-3603
▁ik	-3604
fesi	-3605
ingi	-3606
omas	-3607
omer	-3608
onds	-3609
oner	-3610
onor	-3611
osot	-3612
otif	-3613
ough	-3614
ouis	-3615
ound	-3616
ower	-3617
oyne	-3618
race	-3619
ring	-3620
romi	-3621
roso	-3622
sial	-3623
sias	-3624
tawa	-3625
tium	-3626
tori	-3627
uatu	-3628
udul	-3629
ukit	-3630
ulau	-3631
ulti	-3632
ulut	-3633
untu	-3634
urah	-3635
urus	-3636
usak	-3637
usin	-3638
vasi	-3639
ward	-3640
wiss	-3641
▁,▁4	-3642
▁.▁9	-3643
▁107	-3644
▁156	-3645
▁185	-3646
▁187	-3647
▁190	-3648
▁760	-3649
▁alv	-3650
▁app	-3651
▁aug	-3652
▁bab	-3653
▁bob	-3654
▁bon	-3655
▁bre	-3656
▁bud	-3657
▁cab	-3658
▁cak	-3659
▁cec	-3660
▁ced	-3661
▁cel	-3662
▁cot	-3663
▁cup	-3664
▁dah	-3665
▁def	-3666
▁det	-3667
▁dic	-3668
▁dij	-3669
▁dna	-3670
▁dol	-3671
▁fac	-3672
▁fat	-3673
▁gab	-3674
▁gca	-3675
▁gez	-3676
▁gop	-3677
▁gor	-3678
▁hat	-3679
▁hem	-3680
▁hol	-3681
▁hor	-3682
▁jaj	-3683
▁jef	-3684
▁jim	-3685
▁jol	-3686
▁jul	-3687
▁kag	-3688
▁keg	-3689
▁kod	-3690
▁lar	-3691
▁las	-3692
▁len	-3693
▁mad	-3694
▁mag	-3695
▁maj	-3696
▁mau	-3697
▁nap	-3698
▁nil	-3699
▁non	-3700
▁peg	-3701
▁pho	-3702
▁pia	-3703
▁rem	-3704
▁rib	-3705
▁ros	-3706
▁r▁i	-3707
▁sab	-3708
▁san	-3709
▁sol	-3710
▁sum	-3711
▁tab	-3712
▁tam	-3713
▁tip	-3714
▁tol	-3715
▁tua	-3716
▁ukr	-3717
▁ver	-3718
▁waj	-3719
▁wan	-3720
▁wil	-3721
▁wol	-3722
▁yan	-3723
▁zay	-3724
▁”▁(	-3725
abrik	-3726
agang	-3727
ahami	-3728
ah▁di	-3729
airan	-3730
akses	-3731
aktif	-3732
akuan	-3733
alano	-3734
amati	-3735
andai	-3736
ander	-3737
andia	-3738
anjir	-3739
ansas	-3740
aptis	-3741
arian	-3742
arlin	-3743
artph	-3744
asiun	-3745
atnya	-3746
ban▁m	-3747
bilan	-3748
buhan	-3749
burgh	-3750
curie	-3751
cu▁su	-3752
dogan	-3753
ebook	-3754
ecual	-3755
elgia	-3756
eliti	-3757
elola	-3758
empur	-3759
emuka	-3760
enanj	-3761
encan	-3762
endum	-3763
erdas	-3764
er▁di	-3765
esaan	-3766
esain	-3767
esali	-3768
esies	-3769
esses	-3770
estik	-3771
etapa	-3772
evisi	-3773
gelam	-3774
getar	-3775
iayai	-3776
ikota	-3777
ik▁ke	-3778
ileri	-3779
imbah	-3780
insip	-3781
intas	-3782
iraan	-3783
isang	-3784
isial	-3785
isi▁t	-3786
itasi	-3787
ium▁b	-3788
jemen	-3789
kan▁m	-3790
kapai	-3791
lamat	-3792
lasik	-3793
lowak	-3794
makna	-3795
odiak	-3796
okasi	-3797
oklam	-3798
okrat	-3799
omers	-3800
omosi	-3801
ompey	-3802
onjol	-3803
onsor	-3804
onz▁á	-3805
osisi	-3806
oskop	-3807
otify	-3808
pania	-3809
pansi	-3810
rihat	-3811
rolan	-3812
sberg	-3813
sesua	-3814
sifat	-3815
simal	-3816
tunya	-3817
turun	-3818
turut	-3819
uduki	-3820
uncil	-3821
urvei	-3822
ville	-3823
wegia	-3824
▁1916	-3825
▁1990	-3826
▁1991	-3827
▁1994	-3828
▁2004	-3829
▁2015	-3830
▁20▁,	-3831
▁acad	-3832
▁agak	-3833
▁akal	-3834
▁alex	-3835
▁andr	-3836
▁antu	-3837
▁apul	-3838
▁arab	-3839
▁awan	-3840
▁ayah	-3841
▁baja	-3842
▁band	-3843
▁bara	-3844
▁bass	-3845
▁blog	-3846
▁brit	-3847
▁burg	-3848
▁ceko	-3849
▁comm	-3850
▁cuma	-3851
▁debu	-3852
▁diab	-3853
▁ditr	-3854
▁diwa	-3855
▁di▁g	-3856
▁di▁h	-3857
▁di▁t	-3858
▁di▁y	-3859
▁doss	-3860
▁edin	-3861
▁ekos	-3862
▁elit	-3863
▁ford	-3864
▁grav	-3865
▁hous	-3866
▁jurn	-3867
▁kait	-3868
▁kaki	-3869
▁kamp	-3870
▁kana	-3871
▁kano	-3872
▁kayu	-3873
▁keag	-3874
▁keen	-3875
▁kena	-3876
▁koal	-3877
▁krim	-3878
▁lamp	-3879
▁lans	-3880
▁liao	-3881
▁linc	-3882
▁main	-3883
▁mark	-3884
▁maya	-3885
▁merd	-3886
▁miss	-3887
▁mojm	-3888
▁mons	-3889
▁ndar	-3890
▁news	-3891
▁opsi	-3892
▁paus	-3893
▁peNg	-3894
▁perc	-3895
▁peta	-3896
▁poin	-3897
▁prot	-3898
▁prov	-3899
▁pugh	-3900
▁purn	-3901
▁rach	-3902
▁radi	-3903
▁ramb	-3904
▁reco	-3905
▁roda	-3906
▁sara	-3907
▁serv	-3908
▁skot	-3909
▁slav	-3910
▁snow	-3911
▁ster	-3912
▁subs	-3913
▁taut	-3914
▁tema	-3915
▁tepi	-3916
▁terr	-3917
▁tiba	-3918
▁tina	-3919
▁trix	-3920
▁ucap	-3921
▁visi	-3922
▁wang	-3923
▁yuan	-3924
▁zona	-3925
adatan	-3926
ahasia	-3927
ahatan	-3928
aikkan	-3929
ainkan	-3930
ajukan	-3931
akuasi	-3932
alatan	-3933
ang▁pa	-3934
an▁mod	-3935
an▁pun	-3936
arinya	-3937
ascist	-3938
asifik	-3939
asi▁kh	-3940
aterai	-3941
awanya	-3942
bernur	-3943
caucas	-3944
cayaan	-3945
ebasan	-3946
ebriti	-3947
edakan	-3948
editer	-3949
egahan	-3950
ejabat	-3951
ejarah	-3952
ekutif	-3953
el▁rek	-3954
enjata	-3955
entasi	-3956
epatan	-3957
erahan	-3958
erhana	-3959
erinya	-3960
er▁dan	-3961
etahui	-3962
etakan	-3963
eteksi	-3964
e▁town	-3965
ibutor	-3966
igrasi	-3967
ikanya	-3968
indari	-3969
ingham	-3970
intasi	-3971
invest	-3972
isikan	-3973
isinya	-3974
is▁dan	-3975
kandal	-3976
lasgow	-3977
muasal	-3978
oduser	-3979
ompong	-3980
ontrol	-3981
osiasi	-3982
otanya	-3983
ricone	-3984
tawari	-3985
tipuan	-3986
truksi	-3987
tutupi	-3988
uannya	-3989
uaskan	-3990
udiday	-3991
udukan	-3992
ulauan	-3993
ulitan	-3994
urance	-3995
utrisi	-3996
valeri	-3997
vironm	-3998
yboard	-3999
▁admin	-4000
▁agung	-4001
▁alami	-4002
▁alarm	-4003
▁anaya	-4004
▁aplik	-4005
▁arsit	-4006
▁belak	-4007
▁berat	-4008
▁brand	-4009
▁bukti	-4010
▁busin	-4011
▁cepat	-4012
▁curah	-4013
▁dan▁a	-4014
▁darah	-4015
▁david	-4016
▁debat	-4017
▁delap	-4018
▁delta	-4019
▁diken	-4020
▁domin	-4021
▁etnis	-4022
▁fakta	-4023
▁feder	-4024
▁final	-4025
▁fitur	-4026
▁ganja	-4027
▁geyer	-4028
▁gitar	-4029
▁habis	-4030
▁hadir	-4031
▁hasil	-4032
▁herzl	-4033
▁hijau	-4034
▁hills	-4035
▁hitam	-4036
▁human	-4037
▁impor	-4038
▁istri	-4039
▁james	-4040
▁jatuh	-4041
▁jejak	-4042
▁kabut	-4043
▁kamis	-4044
▁kanal	-4045
▁kapel	-4046
▁karel	-4047
▁keind	-4048
▁keker	-4049
▁kelah	-4050
▁kemar	-4051
▁kenal	-4052
▁keper	-4053
▁kesal	-4054
▁ke▁al	-4055
▁klasi	-4056
▁klein	-4057
▁kolon	-4058
▁labor	-4059
▁latin	-4060
▁layan	-4061
▁layar	-4062
▁leive	-4063
▁lewat	-4064
▁liber	-4065
▁lihat	-4066
▁lokal	-4067
▁louis	-4068
▁mahas	-4069
▁malah	-4070
▁marco	-4071
▁maret	-4072
▁medis	-4073
▁meiji	-4074
▁menit	-4075
▁merek	-4076
▁meter	-4077
▁metro	-4078
▁milik	-4079
▁model	-4080
▁my▁he	-4081
▁ngeri	-4082
▁nilai	-4083
▁obama	-4084
▁olahr	-4085
▁omong	-4086
▁pajak	-4087
▁pakar	-4088
▁pangl	-4089
▁pasti	-4090
▁pohon	-4091
▁puisi	-4092
▁pulih	-4093
▁punta	-4094
▁pusat	-4095
▁radar	-4096
▁retor	-4097
▁rilis	-4098
▁roman	-4099
▁rutin	-4100
▁sahel	-4101
▁samar	-4102
▁santa	-4103
▁sisil	-4104
▁strat	-4105
▁super	-4106
▁teori	-4107
▁the▁w	-4108
▁tingg	-4109
▁turun	-4110
▁union	-4111
▁urban	-4112
▁usaha	-4113
▁utang	-4114
▁von▁b	-4115
▁wadah	-4116
▁wafat	-4117
▁wajah	-4118
▁wheel	-4119
▁yesus	-4120
adangan	-4121
agumkan	-4122
ahankan	-4123
ahlawan	-4124
aksikan	-4125
alahkan	-4126
alir▁ke	-4127
al▁yang	-4128
amannya	-4129
amatama	-4130
anyakan	-4131
an▁juga	-4132
arktika	-4133
asionis	-4134
berikan	-4135
cenaean	-4136
eNdapat	-4137
eNrinci	-4138
elahian	-4139
embakan	-4140
engkapi	-4141
enician	-4142
enovasi	-4143
ensinya	-4144
erjakan	-4145
ertakan	-4146
etapkan	-4147
faatkan	-4148
hatikan	-4149
indukan	-4150
injaman	-4151
iptakan	-4152
latform	-4153
mainkan	-4154
oglobin	-4155
okratik	-4156
ominasi	-4157
ongyang	-4158
operasi	-4159
ormatan	-4160
peramen	-4161
perimen	-4162
residen	-4163
sajikan	-4164
tivitas	-4165
unculan	-4166
ungan▁s	-4167
unjukan	-4168
urnamen	-4169
yakinan	-4170
▁1770▁,	-4171
▁1911▁,	-4172
▁1914▁,	-4173
▁1976▁,	-4174
▁1997▁.	-4175
▁2003▁,	-4176
▁2007▁,	-4177
▁2011▁,	-4178
▁2012▁,	-4179
▁abbots	-4180
▁adanya	-4181
▁akun▁t	-4182
▁akurat	-4183
▁alaska	-4184
▁aldrin	-4185
▁altern	-4186
▁americ	-4187
▁anggur	-4188
▁armada	-4189
▁asmara	-4190
▁atlant	-4191
▁balkan	-4192
▁berdua	-4193
▁berhat	-4194
▁bilang	-4195
▁brasil	-4196
▁brexit	-4197
▁cabang	-4198
▁caesar	-4199
▁cakram	-4200
▁carlos	-4201
▁carson	-4202
▁cedera	-4203
▁celtic	-4204
▁cendek	-4205
▁cender	-4206
▁cerdas	-4207
▁cotton	-4208
▁cumber	-4209
▁daftar	-4210
▁dan▁br	-4211
▁dan▁gr	-4212
▁dari▁l	-4213
▁dibuka	-4214
▁dipicu	-4215
▁di▁nor	-4216
▁di▁ped	-4217
▁dokter	-4218
▁energi	-4219
▁faktor	-4220
▁gambar	-4221
▁gandum	-4222
▁george	-4223
▁gonz▁á	-4224
▁ground	-4225
▁hindia	-4226
▁hormat	-4227
▁ikan▁l	-4228
▁indian	-4229
▁inspir	-4230
▁invasi	-4231
▁istana	-4232
▁jarang	-4233
▁joliot	-4234
▁kadang	-4235
▁kadesh	-4236
▁kantor	-4237
▁kapita	-4238
▁karbon	-4239
▁klimat	-4240
▁komedi	-4241
▁komisi	-4242
▁konsep	-4243
▁konyol	-4244
▁krisis	-4245
▁kristi	-4246
▁kursus	-4247
▁laguna	-4248
▁lamarr	-4249
▁limbah	-4250
▁lumpur	-4251
▁madrid	-4252
▁mailis	-4253
▁maksud	-4254
▁manchu	-4255
▁mantan	-4256
▁meNgan	-4257
▁meNkes	-4258
▁meNman	-4259
▁meNpuj	-4260
▁medali	-4261
▁menang	-4262
▁menara	-4263
▁metode	-4264
▁minyak	-4265
▁napole	-4266
▁naskah	-4267
▁output	-4268
▁para▁p	-4269
▁pascap	-4270
▁patung	-4271
▁persia	-4272
▁petani	-4273
▁petisi	-4274
▁philip	-4275
▁pindah	-4276
▁pompey	-4277
▁poster	-4278
▁puncak	-4279
▁rambut	-4280
▁reagan	-4281
▁reaksi	-4282
▁really	-4283
▁record	-4284
▁rekons	-4285
▁sahara	-4286
▁sampai	-4287
▁school	-4288
▁sehari	-4289
▁sejauh	-4290
▁sekutu	-4291
▁sepatu	-4292
▁setara	-4293
▁slowak	-4294
▁sparta	-4295
▁spring	-4296
▁street	-4297
▁studio	-4298
▁sukses	-4299
▁swasta	-4300
▁swedia	-4301
▁tambah	-4302
▁tangan	-4303
▁tangga	-4304
▁teknik	-4305
▁temuan	-4306
▁terbit	-4307
▁thomas	-4308
▁thrace	-4309
▁tribun	-4310
▁tumbuh	-4311
▁ukuran	-4312
▁vulkan	-4313
▁wanita	-4314
▁zodiak	-4315
aftar▁di	-4316
ahabatan	-4317
ahkan▁ke	-4318
al▁namun	-4319
ang▁yang	-4320
an▁badai	-4321
artphone	-4322
asan▁ini	-4323
at▁dalam	-4324
ayangkan	-4325
elektual	-4326
eluarkan	-4327
enanjung	-4328
engaruhi	-4329
entangan	-4330
enterian	-4331
fesional	-4332
harapkan	-4333
ia▁kedua	-4334
ilikinya	-4335
indungan	-4336
ingannya	-4337
kan▁diri	-4338
nya▁akan	-4339
nya▁yang	-4340
olaholah	-4341
tawarkan	-4342
tifikasi	-4343
tugaskan	-4344
ubungkan	-4345
uncurkan	-4346
ungannya	-4347
▁$▁1▁,▁5	-4348
▁.▁000▁.	-4349
▁5▁.▁000	-4350
▁academy	-4351
▁agresif	-4352
▁alvarez	-4353
▁anselmi	-4354
▁artikel	-4355
▁artinya	-4356
▁austria	-4357
▁bahwa▁r	-4358
▁balapan	-4359
▁baterai	-4360
▁berdiri	-4361
▁berkomp	-4362
▁bioskop	-4363
▁council	-4364
▁dalam▁a	-4365
▁dan▁gbp	-4366
▁dan▁kon	-4367
▁dan▁peN	-4368
▁dan▁ser	-4369
▁dan▁wal	-4370
▁dari▁sc	-4371
▁delapan	-4372
▁didakwa	-4373
▁dikirim	-4374
▁dipamer	-4375
▁dipilih	-4376
▁di▁asia	-4377
▁di▁brit	-4378
▁duke▁of	-4379
▁erdogan	-4380
▁florida	-4381
▁gelangg	-4382
▁harapan	-4383
▁hiburan	-4384
▁hukuman	-4385
▁ia▁bisa	-4386
▁ia▁lalu	-4387
▁ibukota	-4388
▁individ	-4389
▁ini▁dan	-4390
▁itu▁dan	-4391
▁itu▁dik	-4392
▁jajaran	-4393
▁jalanan	-4394
▁jawaban	-4395
▁jutting	-4396
▁kampany	-4397
▁katakan	-4398
▁kebiasa	-4399
▁kecuali	-4400
▁koalisi	-4401
▁komando	-4402
▁konseku	-4403
▁konteks	-4404
▁kuburan	-4405
▁labeouf	-4406
▁lakinya	-4407
▁lakukan	-4408
▁lanskap	-4409
▁laporan	-4410
▁latihan	-4411
▁liburan	-4412
▁lincoln	-4413
▁lingkup	-4414
▁majelis	-4415
▁meNbagi	-4416
▁meNlaju	-4417
▁meNtuju	-4418
▁michael	-4419
▁mineral	-4420
▁minuman	-4421
▁musikal	-4422
▁nicolai	-4423
▁obrolan	-4424
▁pandang	-4425
▁peNguna	-4426
▁peNjaga	-4427
▁peNlari	-4428
▁peNlobi	-4429
▁perdana	-4430
▁perkota	-4431
▁pikiran	-4432
▁pilihan	-4433
▁populer	-4434
▁praktik	-4435
▁prinsip	-4436
▁puluhan	-4437
▁purnama	-4438
▁rahasia	-4439
▁relawan	-4440
▁sakit▁p	-4441
▁saluran	-4442
▁sepuluh	-4443
▁sesuatu	-4444
▁singkat	-4445
▁skandal	-4446
▁snowman	-4447
▁spesies	-4448
▁sponsor	-4449
▁spotify	-4450
▁starlin	-4451
▁stasiun	-4452
▁susunan	-4453
▁tahanan	-4454
▁tekstil	-4455
▁tembaga	-4456
▁terikat	-4457
▁tersisa	-4458
▁tertawa	-4459
▁twitter	-4460
▁ukraina	-4461
▁uni▁ini	-4462
▁untuk▁t	-4463
▁venesia	-4464
▁william	-4465
akaiannya	-4466
angguhkan	-4467
an▁budaya	-4468
an▁dengan	-4469
an▁mereka	-4470
an▁minggu	-4471
ar▁secara	-4472
ian▁suara	-4473
ium▁bonds	-4474
larasikan	-4475
onal▁pria	-4476
orientasi	-4477
rihatinan	-4478
tumbuhkan	-4479
▁10▁.▁000	-4480
▁air▁dari	-4481
▁akan▁dis	-4482
▁anggaran	-4483
▁angkatan	-4484
▁antusias	-4485
▁artileri	-4486
▁artistik	-4487
▁augustus	-4488
▁berharap	-4489
▁bersifat	-4490
▁bertanya	-4491
▁bumi▁dan	-4492
▁burgoyne	-4493
▁business	-4494
▁catalano	-4495
▁dan▁guru	-4496
▁dan▁meNl	-4497
▁dan▁nama	-4498
▁dan▁pers	-4499
▁depannya	-4500
▁depan▁st	-4501
▁desainer	-4502
▁dianggap	-4503
▁disimpan	-4504
▁di▁akhir	-4505
▁di▁album	-4506
▁di▁kelas	-4507
▁di▁paris	-4508
▁di▁pulau	-4509
▁di▁rumah	-4510
▁di▁tahun	-4511
▁di▁timur	-4512
▁domestik	-4513
▁dorongan	-4514
▁ekspansi	-4515
▁environm	-4516
▁euro▁per	-4517
▁evakuasi	-4518
▁facebook	-4519
▁gabungan	-4520
▁gaji▁dan	-4521
▁gubernur	-4522
▁hal▁lain	-4523
▁harganya	-4524
▁hari▁ini	-4525
▁hatihati	-4526
▁hispania	-4527
▁ia▁telah	-4528
▁ikan▁kod	-4529
▁ini▁berp	-4530
▁ini▁naik	-4531
▁intensif	-4532
▁irlandia	-4533
▁islandia	-4534
▁itu▁yang	-4535
▁jaringan	-4536
▁jurnalis	-4537
▁juta▁dan	-4538
▁kali▁ini	-4539
▁karyawan	-4540
▁kavaleri	-4541
▁keamanan	-4542
▁kedokter	-4543
▁kejadian	-4544
▁kelompok	-4545
▁kenaikan	-4546
▁kesamaan	-4547
▁keuangan	-4548
▁kota▁ini	-4549
▁lagilagi	-4550
▁lagi▁dan	-4551
▁lapangan	-4552
▁logistik	-4553
▁maksimal	-4554
▁maskapai	-4555
▁masuk▁ke	-4556
▁meNawasi	-4557
▁meNbahas	-4558
▁meNcinta	-4559
▁meNhapus	-4560
▁meNjabat	-4561
▁meNklaim	-4562
▁meNkutip	-4563
▁meNpakai	-4564
▁meNrekam	-4565
▁meNselam	-4566
▁meNtarik	-4567
▁meNtekan	-4568
▁meNtemui	-4569
▁meNtuduh	-4570
▁mercu▁su	-4571
▁miliaran	-4572
▁misalnya	-4573
▁nama▁era	-4574
▁national	-4575
▁new▁york	-4576
▁olahraga	-4577
▁orang▁di	-4578
▁pada▁apa	-4579
▁pagi▁ini	-4580
▁panglima	-4581
▁peNakuan	-4582
▁peNcalon	-4583
▁peNnyany	-4584
▁peNpilih	-4585
▁peNsebab	-4586
▁pengaruh	-4587
▁perairan	-4588
▁perilaku	-4589
▁perunggu	-4590
▁polandia	-4591
▁produser	-4592
▁properti	-4593
▁provinsi	-4594
▁ramesses	-4595
▁satu▁pun	-4596
▁sembilan	-4597
▁seminggu	-4598
▁setempat	-4599
▁setengah	-4600
▁tapi▁ini	-4601
▁televisi	-4602
▁temannya	-4603
▁teoretis	-4604
▁terampil	-4605
▁terbakar	-4606
▁terlihat	-4607
▁tionghoa	-4608
▁undangan	-4609
▁untuk▁di	-4610
▁waktunya	-4611
▁walikota	-4612
▁yang▁bag	-4613
▁yang▁mah	-4614
▁yang▁mem	-4615
▁yudisial	-4616
ambil▁alih	-4617
ang▁pacuan	-4618
antisipasi	-4619
asi▁dengan	-4620
asi▁khitan	-4621
gelisahkan	-4622
gerak▁maju	-4623
hawatirkan	-4624
ikuti▁oleh	-4625
nya▁secara	-4626
oklamirkan	-4627
udidayakan	-4628
▁administr	-4629
▁akan▁meNs	-4630
▁album▁itu	-4631
▁alexander	-4632
▁baik▁saat	-4633
▁bangsawan	-4634
▁banyaknya	-4635
▁batu▁bara	-4636
▁berbentuk	-4637
▁berlanjut	-4638
▁bertempur	-4639
▁biji▁dari	-4640
▁cape▁town	-4641
▁cenderung	-4642
▁dalam▁ser	-4643
▁dan▁harus	-4644
▁dan▁mulai	-4645
▁dan▁tahun	-4646
▁dan▁tidak	-4647
▁dengannya	-4648
▁dengan▁si	-4649
▁diabaikan	-4650
▁dia▁dalam	-4651
▁ditemukan	-4652
▁di▁lokasi	-4653
▁di▁negara	-4654
▁dna▁tumor	-4655
▁edinburgh	-4656
▁ekosistem	-4657
▁eksekutif	-4658
▁endurance	-4659
▁finlandia	-4660
▁ini▁dalam	-4661
▁institute	-4662
▁itu▁mulai	-4663
▁jam▁kerja	-4664
▁jauh▁dari	-4665
▁kaitannya	-4666
▁kami▁akan	-4667
▁kasus▁peN	-4668
▁keagamaan	-4669
▁kebijakan	-4670
▁kekalahan	-4671
▁kelahiran	-4672
▁kelihatan	-4673
▁kepompong	-4674
▁kepulauan	-4675
▁kesehatan	-4676
▁kesulitan	-4677
▁ketenaran	-4678
▁ketika▁ia	-4679
▁kurangnya	-4680
▁label▁rek	-4681
▁legislasi	-4682
▁lez▁anaya	-4683
▁mahasiswa	-4684
▁manajemen	-4685
▁mata▁uang	-4686
▁meNanggap	-4687
▁meNbuat▁f	-4688
▁meNduduki	-4689
▁meNjalani	-4690
▁meNlarang	-4691
▁meNnikahi	-4692
▁meNpegang	-4693
▁meNsaingi	-4694
▁meNsambut	-4695
▁meNsesali	-4696
▁meNtandai	-4697
▁meNtonjol	-4698
▁meNundang	-4699
▁morricone	-4700
▁negaranya	-4701
▁oleh▁para	-4702
▁orang▁itu	-4703
▁pada▁abad	-4704
▁para▁kons	-4705
▁para▁peNd	-4706
▁para▁peNp	-4707
▁para▁peNt	-4708
▁peNmenang	-4709
▁peNrayaan	-4710
▁peNtampil	-4711
▁peNtemuan	-4712
▁perangkat	-4713
▁perkiraan	-4714
▁per▁tahun	-4715
▁pinggiran	-4716
▁progresif	-4717
▁pulau▁ini	-4718
▁puterinya	-4719
▁reformasi	-4720
▁sayangnya	-4721
▁saya▁juga	-4722
▁saya▁meNk	-4723
▁saya▁rasa	-4724
▁sederhana	-4725
▁selebriti	-4726
▁seperti▁r	-4727
▁taman▁ini	-4728
▁tempat▁di	-4729
▁tempat▁ia	-4730
▁terkemuka	-4731
▁tidak▁dik	-4732
▁tidak▁sah	-4733
▁tingginya	-4734
▁ungkapnya	-4735
▁uni▁eropa	-4736
▁untuk▁mps	-4737
▁waktu▁itu	-4738
▁yang▁baik	-4739
▁yang▁jika	-4740
▁yang▁kaya	-4741
▁yang▁kuat	-4742
▁yang▁meNg	-4743
▁yang▁meNh	-4744
▁yang▁meNj	-4745
▁yang▁meNl	-4746
▁yang▁meng	-4747
▁yang▁terb	-4748
▁yang▁terp	-4749
akan▁bagian	-4750
akan▁selama	-4751
annya▁dalam	-4752
ar▁di▁punta	-4753
inya▁dengan	-4754
itif▁dengan	-4755
perimen▁ini	-4756
▁abbotsford	-4757
▁alternatif	-4758
▁antarktika	-4759
▁arsitektur	-4760
▁asalmuasal	-4761
▁awalnya▁di	-4762
▁barat▁laut	-4763
▁batu▁besar	-4764
▁belakangan	-4765
▁benarbenar	-4766
▁bersenjata	-4767
▁bertemu▁di	-4768
▁bulan▁lalu	-4769
▁cumberland	-4770
▁dalam▁enam	-4771
▁dalam▁pola	-4772
▁dan▁banyak	-4773
▁dan▁dengan	-4774
▁dan▁tumbuh	-4775
▁dari▁sudut	-4776
▁dari▁udara	-4777
▁demokratik	-4778
▁dengan▁ini	-4779
▁dengan▁kap	-4780
▁diandalkan	-4781
▁dilengkapi	-4782
▁di▁belanda	-4783
▁di▁pesawat	-4784
▁fokus▁pada	-4785
▁hanya▁bisa	-4786
▁hari▁dalam	-4787
▁hemoglobin	-4788
▁ibu▁mereka	-4789
▁ingin▁tahu	-4790
▁ini▁sangat	-4791
▁jauh▁lebih	-4792
▁kata▁leive	-4793
▁kekurangan	-4794
▁kemunculan	-4795
▁kepada▁cnn	-4796
▁kepresiden	-4797
▁kesempatan	-4798
▁kesuksesan	-4799
▁kolaborasi	-4800
▁kontaminan	-4801
▁kontribusi	-4802
▁laut▁hitam	-4803
▁legislatif	-4804
▁masuk▁akal	-4805
▁meNbawanya	-4806
▁meNhindari	-4807
▁meNizinkan	-4808
▁meNlainkan	-4809
▁meNlintasi	-4810
▁meNmainkan	-4811
▁meNsetujui	-4812
▁meNtangani	-4813
▁nama▁depan	-4814
▁orang▁mati	-4815
▁parade▁itu	-4816
▁para▁biara	-4817
▁pasukannya	-4818
▁peNbuangan	-4819
▁peNhentian	-4820
▁peNkawasan	-4821
▁peNkuburan	-4822
▁peNlabuhan	-4823
▁pegunungan	-4824
▁pendudukan	-4825
▁pernikahan	-4826
▁persediaan	-4827
▁per▁kapita	-4828
▁pesan▁yang	-4829
▁phoenician	-4830
▁prasejarah	-4831
▁referendum	-4832
▁sedikitnya	-4833
▁sehubungan	-4834
▁sejarahnya	-4835
▁skotlandia	-4836
▁sungai▁nil	-4837
▁tapi▁tidak	-4838
▁temperamen	-4839
▁terlupakan	-4840
▁tidak▁lagi	-4841
▁untuk▁meNl	-4842
▁untuk▁peNp	-4843
▁urbanisasi	-4844
▁wilayah▁di	-4845
▁winterkorn	-4846
▁yang▁harus	-4847
▁yang▁hidup	-4848
▁yang▁jelas	-4849
▁yang▁keras	-4850
▁yang▁riang	-4851
▁yang▁sehat	-4852
andai▁dengan	-4853
annya▁adalah	-4854
arankan▁agar	-4855
enal▁sebagai	-4856
ibatkan▁para	-4857
investasikan	-4858
maksud▁untuk	-4859
urnamen▁golf	-4860
utuhkan▁oleh	-4861
▁apa▁yang▁ia	-4862
▁association	-4863
▁bangsa▁roma	-4864
▁bekas▁biara	-4865
▁belas▁tahun	-4866
▁berhatihati	-4867
▁berpeNdapat	-4868
▁bersentuhan	-4869
▁besar▁untuk	-4870
▁curah▁hujan	-4871
▁dalam▁dunia	-4872
▁dan▁meNbuat	-4873
▁dan▁sejarah	-4874
▁dan▁semakin	-4875
▁datang▁dari	-4876
▁demikianlah	-4877
▁dengan▁area	-4878
▁dengan▁kata	-4879
▁dipicu▁oleh	-4880
▁diri▁mereka	-4881
▁ditempatkan	-4882
▁diterbitkan	-4883
▁ditunjukkan	-4884
▁diwawancara	-4885
▁di▁belakang	-4886
▁di▁dalamnya	-4887
▁di▁kemudian	-4888
▁di▁kota▁itu	-4889
▁di▁norwegia	-4890
▁di▁tenggara	-4891
▁di▁tiongkok	-4892
▁ekonomi▁dan	-4893
▁gurun▁pasir	-4894
▁hujan▁badai	-4895
▁ia▁meNmulai	-4896
▁ini▁sebagai	-4897
▁intelektual	-4898
▁itu▁sendiri	-4899
▁jadi▁sangat	-4900
▁kawasan▁ini	-4901
▁kematiannya	-4902
▁kementerian	-4903
▁kepercayaan	-4904
▁klasifikasi	-4905
▁klimatologi	-4906
▁koloni▁lama	-4907
▁konservatif	-4908
▁korea▁utara	-4909
▁kulit▁putih	-4910
▁massa▁udara	-4911
▁meNdominasi	-4912
▁meNgantikan	-4913
▁meNjalankan	-4914
▁meNlaporkan	-4915
▁meNselidiki	-4916
▁meNtetapkan	-4917
▁menyertakan	-4918
▁musim▁hujan	-4919
▁namun▁tidak	-4920
▁orang▁yahud	-4921
▁panjang▁dan	-4922
▁pascaperang	-4923
▁peNbentukan	-4924
▁peNberontak	-4925
▁peNkurangan	-4926
▁peNtembakan	-4927
▁peNtunjukan	-4928
▁peradaban▁m	-4929
▁perkelahian	-4930
▁persen▁dari	-4931
▁pertamatama	-4932
▁pertama▁dan	-4933
▁petugas▁itu	-4934
▁polisi▁di▁b	-4935
▁profesional	-4936
▁rasa▁hormat	-4937
▁sangat▁meNb	-4938
▁sebagaimana	-4939
▁sebuah▁kota	-4940
▁sekolah▁ini	-4941
▁selama▁satu	-4942
▁semenanjung	-4943
▁seorang▁pun	-4944
▁setelah▁itu	-4945
▁sistem▁yang	-4946
▁telah▁diper	-4947
▁tidak▁semua	-4948
▁ujar▁mailis	-4949
▁untuk▁meNla	-4950
▁untuk▁tidak	-4951
▁yang▁banyak	-4952
▁yang▁diduga	-4953
▁yang▁pernah	-4954
▁yang▁secara	-4955
tulis▁bersama	-4956
yakinan▁agama	-4957
▁adalah▁untuk	-4958
▁afrika▁timur	-4959
▁anak▁berusia	-4960
▁banyak▁orang	-4961
▁bekerja▁sama	-4962
▁belum▁pernah	-4963
▁dan▁akhirnya	-4964
▁dan▁istrinya	-4965
▁dan▁kemudian	-4966
▁dan▁penduduk	-4967
▁dengan▁bantu	-4968
▁dengan▁gelar	-4969
▁diperhatikan	-4970
▁diperkirakan	-4971
▁diri▁sendiri	-4972
▁fiksi▁ilmiah	-4973
▁hewan▁zodiak	-4974
▁ini▁meNbantu	-4975
▁itu▁sebabnya	-4976
▁kaisar▁meiji	-4977
▁keprihatinan	-4978
▁kesehatannya	-4979
▁ketika▁orang	-4980
▁laboratorium	-4981
▁lebih▁senang	-4982
▁lebih▁tinggi	-4983
▁luar▁angkasa	-4984
▁masa▁jabatan	-4985
▁meNarah▁pada	-4986
▁meNbantu▁meN	-4987
▁meNberi▁tahu	-4988
▁meNdaftar▁di	-4989
▁meNjaga▁agar	-4990
▁meNkeluarkan	-4991
▁meNkumpulkan	-4992
▁meNpengaruhi	-4993
▁meNtaklukkan	-4994
▁meNtampilkan	-4995
▁meNtempatkan	-4996
▁meNtontonnya	-4997
▁media▁sosial	-4998
▁mereka▁hanya	-4999
▁mereka▁tidak	-5000
▁meskipun▁ada	-5001
▁meski▁begitu	-5002
▁mulai▁muncul	-5003
▁oleh▁tentara	-5004
▁opini▁publik	-5005
▁orang▁dengan	-5006
▁papua▁nugini	-5007
▁peNperiksaan	-5008
▁peluang▁bagi	-5009
▁perang▁opium	-5010
▁perang▁sipil	-5011
▁perekonomian	-5012
▁perlindungan	-5013
▁persahabatan	-5014
▁pertama▁kali	-5015
▁pihak▁ketiga	-5016
▁saudara▁laki	-5017
▁secara▁legal	-5018
▁selama▁bulan	-5019
▁selama▁tahun	-5020
▁tak▁terbatas	-5021
▁telah▁meNper	-5022
▁tempat▁kerja	-5023
▁tenaga▁kerja	-5024
▁tentang▁cara	-5025
▁tentang▁data	-5026
▁terus▁muncul	-5027
▁thutmose▁iii	-5028
▁tina▁anselmi	-5029
▁tinggal▁di▁l	-5030
▁untuk▁meNper	-5031
▁wadah▁cakram	-5032
▁yang▁bekerja	-5033
▁yang▁berbeda	-5034
▁yang▁berdiri	-5035
▁yang▁lainnya	-5036
▁yang▁meNjadi	-5037
▁yang▁terbaik	-5038
nya▁di▁selatan	-5039
nya▁pada▁tahun	-5040
tumbuhkan▁dari	-5041
▁ada▁perbedaan	-5042
▁amerika▁latin	-5043
▁amerika▁utara	-5044
▁berkebangsaan	-5045
▁berkembangnya	-5046
▁buku▁tersebut	-5047
▁bulan▁purnama	-5048
▁dalam▁konteks	-5049
▁dalam▁permain	-5050
▁dan▁berfungsi	-5051
▁dan▁meNpimpin	-5052
▁dengan▁banyak	-5053
▁dengan▁dengan	-5054
▁dibudidayakan	-5055
▁dinasi▁khitan	-5056
▁dipimpin▁oleh	-5057
▁disimpan▁di▁s	-5058
▁di▁bulan▁juli	-5059
▁di▁bulan▁juni	-5060
▁di▁sekitarnya	-5061
▁di▁washington	-5062
▁drama▁musikal	-5063
▁hal▁yang▁sama	-5064
▁hanya▁sedikit	-5065
▁hormonal▁pria	-5066
▁international	-5067
▁kinerja▁untuk	-5068
▁korea▁selatan	-5069
▁marco▁antonio	-5070
▁meNambil▁alih	-5071
▁mereka▁berdua	-5072
▁pada▁akhirnya	-5073
▁panjang▁dalam	-5074
▁para▁investor	-5075
▁peran▁penting	-5076
▁percaya▁bahwa	-5077
▁peristiwa▁ini	-5078
▁ponsel▁cerdas	-5079
▁premium▁bonds	-5080
▁rata▁nasional	-5081
▁saya▁meNlihat	-5082
▁secara▁khusus	-5083
▁sekitar▁empat	-5084
▁selama▁perang	-5085
▁setelah▁wafat	-5086
▁sumber▁inspir	-5087
▁tanah▁genting	-5088
▁tantangan▁itu	-5089
▁telah▁berubah	-5090
▁tidak▁mungkin	-5091
▁tiongkok▁yang	-5092
▁university▁of	-5093
▁yang▁berpusat	-5094
▁yang▁dianggap	-5095
▁yang▁telah▁di	-5096
▁yang▁terakhir	-5097
▁adalah▁seorang	-5098
▁afrika▁selatan	-5099
▁akses▁istimewa	-5100
▁beberapa▁bulan	-5101
▁beberapa▁orang	-5102
▁bermain▁dengan	-5103
▁dengan▁praktik	-5104
▁dianggap▁bahwa	-5105
▁diikuti▁dengan	-5106
▁diproklamirkan	-5107
▁di▁pertengahan	-5108
▁eksperimen▁ini	-5109
▁endapan▁lumpur	-5110
▁euro▁per▁liter	-5111
▁informasi▁dari	-5112
▁itu▁meNkatakan	-5113
▁itu▁tidak▁akan	-5114
▁juga▁meNterima	-5115
▁kontrak▁dengan	-5116
▁meNjadi▁target	-5117
▁meNkhawatirkan	-5118
▁meNmiliki▁satu	-5119
▁meNrekam▁versi	-5120
▁meNtunggu▁kita	-5121
▁orang▁eropa▁ke	-5122
▁pada▁waktu▁ini	-5123
▁pada▁waktu▁itu	-5124
▁para▁peNpimpin	-5125
▁para▁peNteliti	-5126
▁partai▁politik	-5127
▁peNbuat▁undang	-5128
▁peNtulis▁drama	-5129
▁perang▁dunia▁i	-5130
▁perempuan▁yang	-5131
▁sangat▁menarik	-5132
▁sebagai▁tempat	-5133
▁segera▁setelah	-5134
▁selalu▁meNcari	-5135
▁selama▁abad▁ke	-5136
▁seperti▁banyak	-5137
▁setelah▁perang	-5138
▁tanggung▁jawab	-5139
▁tapi▁itu▁tidak	-5140
▁telah▁meNminta	-5141
▁untuk▁meNamati	-5142
▁untuk▁meNambil	-5143
▁untuk▁meNbantu	-5144
▁untuk▁meNrebut	-5145
▁yang▁bagus▁dan	-5146
▁yang▁bisa▁meNh	-5147
▁yang▁diberikan	-5148
▁yang▁meNdukung	-5149
▁zaman▁perunggu	-5150
▁beberapa▁negara	-5151
▁berada▁di▁bawah	-5152
▁bermain▁sebagai	-5153
▁binatang▁dengan	-5154
▁bisa▁meNlakukan	-5155
▁dan▁meNserahkan	-5156
▁digunakan▁dalam	-5157
▁dirinya▁sebagai	-5158
▁di▁bagian▁utara	-5159
▁di▁dalam▁negeri	-5160
▁di▁lepas▁pantai	-5161
▁hubungan▁asmara	-5162
▁karena▁usia▁tua	-5163
▁masa▁jabatannya	-5164
▁masyarakat▁umum	-5165
▁meNdapati▁bahwa	-5166
▁meNdeklarasikan	-5167
▁meNjadi▁semakin	-5168
▁meNrilis▁sebuah	-5169
▁meNtandatangani	-5170
▁pada▁bulan▁juli	-5171
▁pada▁hari▁kamis	-5172
▁peNberian▁suara	-5173
▁perdana▁menteri	-5174
▁pertempuran▁itu	-5175
▁pria▁di▁sekolah	-5176
▁saat▁ini▁adalah	-5177
▁saudara▁lakinya	-5178
▁saya▁meNtemukan	-5179
▁saya▁tidak▁tahu	-5180
▁sebagai▁peNmain	-5181
▁sebuah▁tindakan	-5182
▁secara▁teoretis	-5183
▁siapa▁yang▁bisa	-5184
▁tahun▁yang▁lalu	-5185
▁tanaman▁yang▁di	-5186
▁tapi▁setidaknya	-5187
▁telah▁meNterima	-5188
▁terbit▁matahari	-5189
▁terutama▁adalah	-5190
▁yang▁berkembang	-5191
▁yang▁dijalankan	-5192
▁yang▁diperlukan	-5193
▁yang▁lebih▁baik	-5194
azi	-5195
eux	-5196
nio	-5197
nox	-5198
uyn	-5199
16▁.	-5200
30▁.	-5201
6▁%.	-5202
aluw	-5203
anni	-5204
asno	-5205
eneu	-5206
fiel	-5207
iggy	-5208
jaza	-5209
ummy	-5210
yono	-5211
zidi	-5212
▁830	-5213
▁boe	-5214
▁kfc	-5215
▁mcg	-5216
▁pyr	-5217
▁rsc	-5218
▁rsp	-5219
▁tzi	-5220
^2014	-5221
ammed	-5222
anbul	-5223
asque	-5224
aurus	-5225
cerai	-5226
ebums	-5227
ecret	-5228
ectar	-5229
eeman	-5230
egrim	-5231
eneuv	-5232
essee	-5233
ettel	-5234
field	-5235
ganda	-5236
gurus	-5237
halin	-5238
hearn	-5239
hiker	-5240
h▁tip	-5241
ilbab	-5242
jekak	-5243
latih	-5244
leton	-5245
lihan	-5246
nesty	-5247
omery	-5248
owatt	-5249
racun	-5250
rique	-5251
setuj	-5252
sigen	-5253
tagen	-5254
treal	-5255
udrey	-5256
uluki	-5257
untuh	-5258
yntas	-5259
za▁de	-5260
▁.▁99	-5261
▁1858	-5262
▁70▁%	-5263
▁aviv	-5264
▁bobr	-5265
▁dahs	-5266
▁etim	-5267
▁exec	-5268
▁gory	-5269
▁hack	-5270
▁haut	-5271
▁ikon	-5272
▁july	-5273
▁kven	-5274
▁mcgr	-5275
▁mcne	-5276
▁noma	-5277
▁nonf	-5278
▁pebe	-5279
▁piag	-5280
▁pora	-5281
▁pyrr	-5282
▁rspb	-5283
▁rugi	-5284
▁sore	-5285
▁tamu	-5286
▁tipo	-5287
▁tsar	-5288
▁watt	-5289
▁wilk	-5290
abutan	-5291
adopsi	-5292
akumov	-5293
aluasi	-5294
aluwar	-5295
al▁det	-5296
ampion	-5297
anjaro	-5298
an▁wol	-5299
timis	-5300
aria▁b	-5301
arnand	-5302
asia▁h	-5303
atusan	-5304
at▁sum	-5305
bermar	-5306
chatka	-5307
d▁serv	-5308
ealers	-5309
ederai	-5310
ed▁app	-5311
ematik	-5312
entsin	-5313
erarki	-5314
erosot	-5315
espons	-5316
ew▁sum	-5317
e▁pred	-5318
franco	-5319
hi▁kag	-5320
ia▁hol	-5321
ictori	-5322
ik▁sol	-5323
integr	-5324
irewal	-5325
ishing	-5326
ish▁is	-5327
isi▁ty	-5328
is▁cup	-5329
klasik	-5330
laksan	-5331
lintas	-5332
my▁car	-5333
nessee	-5334
nest▁s	-5335
ne▁hor	-5336
orough	-5337
pajang	-5338
pektif	-5339
rosoft	-5340
secret	-5341
se▁hal	-5342
torial	-5343
to▁san	-5344
udeten	-5345
ugikan	-5346
ukiman	-5347
ukisan	-5348
uk▁kfc	-5349
ulu▁ka	-5350
▁.▁999	-5351
▁1▁,▁4	-5352
▁2015$	-5353
▁352▁,	-5354
▁360▁.	-5355
▁66▁%.	-5356
▁aviva	-5357
▁award	-5358
▁bonus	-5359
▁bruyn	-5360
▁budak	-5361
▁budha	-5362
▁cagar	-5363
▁defin	-5364
▁dijam	-5365
▁earth	-5366
▁ennio	-5367
▁fatal	-5368
▁fjord	-5369
▁guilb	-5370
▁hamil	-5371
▁haute	-5372
▁holly	-5373
▁homer	-5374
▁jesse	-5375
▁kegeg	-5376
▁kelap	-5377
▁lampu	-5378
▁larry	-5379
▁larut	-5380
▁las▁v	-5381
▁lower	-5382
▁mampu	-5383
▁mirip	-5384
▁molis	-5385
▁multi	-5386
▁mummy	-5387
▁paire	-5388
▁piggy	-5389
▁racun	-5390
▁radio	-5391
▁remis	-5392
▁rosan	-5393
▁rossi	-5394
▁rusak	-5395
▁sabtu	-5396
▁sabuk	-5397
▁sikap	-5398
▁tabel	-5399
▁tolle	-5400
▁versa	-5401
▁wajar	-5402
▁wajib	-5403
abutnya	-5404
alih▁ke	-5405
an▁hadi	-5406
an▁nusa	-5407
aratoga	-5408
asnoyar	-5409
a▁lihat	-5410
ef▁exec	-5411
egasque	-5412
el▁ramb	-5413
enville	-5414
et▁ster	-5415
ew▁summ	-5416
e▁henry	-5417
f▁dan▁m	-5418
g▁rutin	-5419
h▁tipis	-5420
ice▁hor	-5421
ilitasi	-5422
ilkan▁m	-5423
irewall	-5424
iri▁app	-5425
kan▁mik	-5426
laza▁de	-5427
led▁app	-5428
migrasi	-5429
misikan	-5430
m▁jalur	-5431
oga▁sep	-5432
ohammed	-5433
olisian	-5434
omerset	-5435
onorary	-5436
osaurus	-5437
s▁multi	-5438
tagenet	-5439
tansial	-5440
t▁dan▁m	-5441
ul▁bass	-5442
vention	-5443
wan▁san	-5444
ward▁iv	-5445
▁(▁1994	-5446
▁1075▁.	-5447
▁1566▁,	-5448
▁1879▁,	-5449
▁1903▁,	-5450
▁1998▁.	-5451
▁audrey	-5452
▁baptis	-5453
▁belgia	-5454
▁boeing	-5455
▁danube	-5456
▁di▁tun	-5457
▁di▁yuc	-5458
▁dolmen	-5459
▁energy	-5460
▁father	-5461
▁ford▁t	-5462
▁forums	-5463
▁gomery	-5464
▁gop▁di	-5465
▁go▁bre	-5466
▁ikatan	-5467
▁julian	-5468
▁kagumi	-5469
▁kansas	-5470
▁keenam	-5471
▁kegela	-5472
▁krimin	-5473
▁lahore	-5474
▁latium	-5475
▁maglev	-5476
▁mark▁a	-5477
▁molise	-5478
▁of▁len	-5479
▁opsi▁v	-5480
▁pabrik	-5481
▁percob	-5482
▁piagam	-5483
▁protec	-5484
▁radium	-5485
▁rambow	-5486
▁ribuan	-5487
▁rosane	-5488
▁runtuh	-5489
▁salmon	-5490
▁sekret	-5491
▁select	-5492
▁servic	-5493
▁solarl	-5494
▁stiker	-5495
▁survei	-5496
▁tamana	-5497
▁timbul	-5498
▁wilkes	-5499
ovanni	-5500
▁terkub	-5501
▁yahudi	-5502
▁zayion	-5503
▁zettel	-5504
ah▁agung	-5505
amiliter	-5506
an▁modal	-5507
an▁paksa	-5508
arth▁jen	-5509
ashville	-5510
asnoyars	-5511
bal▁lain	-5512
caucasus	-5513
ecualian	-5514
edah▁jen	-5515
egaria▁b	-5516
elfranco	-5517
emukakan	-5518
g▁cotton	-5519
hi▁kagum	-5520
ice▁hort	-5521
ictorias	-5522
ief▁exec	-5523
ik▁solhe	-5524
ilalihan	-5525
ilikanya	-5526
imanjaro	-5527
inansial	-5528
inisikan	-5529
ins▁yang	-5530
ipnya▁ke	-5531
iri▁hack	-5532
iscaucas	-5533
i▁danube	-5534
lik▁taut	-5535
ly▁hills	-5536
l▁street	-5537
opaganda	-5538
oria▁hol	-5539
ot▁human	-5540
ower▁meN	-5541
ow▁dan▁a	-5542
sesuaian	-5543
tributor	-5544
tuk▁roda	-5545
udarinya	-5546
uier▁dan	-5547
uliah▁di	-5548
ulu▁di▁p	-5549
vensinya	-5550
ycenaean	-5551
▁amnesty	-5552
▁amyntas	-5553
▁bandara	-5554
▁barroso	-5555
▁blogger	-5556
▁borough	-5557
▁commons	-5558
▁control	-5559
▁dan▁jun	-5560
▁dan▁mos	-5561
▁dijamin	-5562
▁dipasok	-5563
▁diteman	-5564
▁ditrans	-5565
▁di▁hamm	-5566
▁di▁krim	-5567
▁di▁kuba	-5568
▁dominna	-5569
▁enrique	-5570
▁fascist	-5571
▁gravity	-5572
▁guilbea	-5573
▁habisan	-5574
▁henry▁i	-5575
▁indiana	-5576
▁iv▁akan	-5577
▁kanal▁b	-5578
▁keenamp	-5579
▁kemarin	-5580
▁kesaleh	-5581
▁ke▁ceko	-5582
▁kota▁bu	-5583
▁larry▁v	-5584
▁liberal	-5585
▁liberti	-5586
▁lukisan	-5587
▁meNanut	-5588
▁meNpuji	-5589
▁merdeka	-5590
▁migrasi	-5591
▁monster	-5592
▁my▁head	-5593
▁nutrisi	-5594
▁oksigen	-5595
▁optimis	-5596
▁pahatan	-5597
▁pasifik	-5598
▁paul▁vi	-5599
e▁carl	-5600
t▁hind	-5601
▁norma	-5602
▁plano	-5603
▁premi	-5604
e▁carlo	-5605
▁kode▁n	-5606
▁lord▁h	-5607
▁paulus	-5608
▁planet	-5609
ban▁kuno	-5610
nya▁rute	-5611
▁bernama	-5612
▁bernard	-5613
▁di▁ibuk	-5614
▁di▁paru	-5615
▁florenc	-5616
▁lord▁gr	-5617
▁paus▁fr	-5618
▁peNgemb	-5619
▁pejabat	-5620
▁persewa	-5621
▁politis	-5622
▁politti	-5623
▁potensi	-5624
▁promosi	-5625
▁rachida	-5626
▁records	-5627
▁romanov	-5628
▁salaman	-5629
▁selokan	-5630
▁seniman	-5631
▁strateg	-5632
▁subsidi	-5633
▁sudeten	-5634
▁the▁wiz	-5635
▁tiba▁di	-5636
▁t▁paire	-5637
▁ujar▁ms	-5638
▁warisan	-5639
▁wheeler	-5640
▁zay▁dan	-5641
abilitasi	-5642
adangan▁b	-5643
akumulasi	-5644
alan▁kaki	-5645
al▁detail	-5646
ang▁merah	-5647
anjir▁dan	-5648
anut▁oleh	-5649
an▁hadiah	-5650
arth▁jenn	-5651
asan▁kode	-5652
asia▁hing	-5653
asnoyarsk	-5654
ata▁malah	-5655
d▁service	-5656
ecualikan	-5657
edah▁jeni	-5658
editerani	-5659
egaria▁by	-5660
elat▁hind	-5661
ellingham	-5662
el▁dan▁gr	-5663
emen▁poin	-5664
encanakan	-5665
endekatka	-5666
est▁milik	-5667
etuk▁roda	-5668
et▁record	-5669
et▁stereo	-5670
evasionis	-5671
ew▁summit	-5672
ian▁samar	-5673
ihan▁nama	-5674
ingham▁jo	-5675
ing▁my▁he	-5676
iri▁apple	-5677
ishing▁in	-5678
i▁standar	-5679
kan▁mikro	-5680
kan▁video	-5681
martphone	-5682
oga▁sepad	-5683
onis▁miss	-5684
oni▁halus	-5685
ot▁humano	-5686
oucher▁di	-5687
o▁alfabet	-5688
pertsberg	-5689
p▁jalanan	-5690
ra▁gonz▁á	-5691
ripnya▁ke	-5692
rospektif	-5693
ro▁energy	-5694
san▁drama	-5695
secretary	-5696
sesuaikan	-5697
tifascist	-5698
ub▁swasta	-5699
e▁you	-5700
f▁you	-5701
ribusi	-5702
tensif	-5703
▁venet	-5704
▁youtu	-5705
▁yudho	-5706
f▁you▁b	-5707
isihkan	-5708
layakan	-5709
salahan	-5710
▁lilles	-5711
▁veneto	-5712
▁youtub	-5713
ersihkan	-5714
etribusi	-5715
et▁layan	-5716
▁christi	-5717
▁youtube	-5718
hawatiran	-5719
intah▁lis	-5720
uki▁pasar	-5721
ungguhnya	-5722
▁19▁.▁999	-5723
▁35▁.▁000	-5724
▁abakumov	-5725
▁agak▁lam	-5726
▁aku▁suka	-5727
▁andre▁pr	-5728
▁anggur▁b	-5729
▁anne▁hor	-5730
▁antilles	-5731
▁associat	-5732
▁awan▁huj	-5733
▁benarben	-5734
▁berbasis	-5735
▁bergetar	-5736
▁berjudul	-5737
▁bermakna	-5738
▁berracun	-5739
▁bersikap	-5740
▁biografi	-5741
▁celah▁th	-5742
▁cendekia	-5743
▁dalam▁pp	-5744
▁dan▁bern	-5745
▁dan▁debu	-5746
▁dan▁elit	-5747
▁dan▁grup	-5748
▁dan▁june	-5749
▁dan▁pebe	-5750
▁dan▁terr	-5751
▁david▁cr	-5752
▁daya▁tah	-5753
▁dibaptis	-5754
▁dibiayai	-5755
▁didesain	-5756
▁dijuluki	-5757
▁dikenali	-5758
▁di▁bukit	-5759
▁di▁garis	-5760
▁di▁jalan	-5761
▁di▁swiss	-5762
▁di▁tunip	-5763
▁di▁versa	-5764
▁di▁yerus	-5765
▁dominika	-5766
▁earth▁di	-5767
▁emisi▁al	-5768
▁energies	-5769
▁federico	-5770
▁florence	-5771
▁generasi	-5772
▁geografi	-5773
▁go▁break	-5774
▁hasilnya	-5775
▁hierarki	-5776
▁hillsbor	-5777
▁hongaria	-5778
▁honorary	-5779
▁if▁you▁b	-5780
▁ikan▁lid	-5781
▁impor▁bi	-5782
▁impor▁di	-5783
▁indah▁di	-5784
▁individu	-5785
▁istanbul	-5786
▁jatuhnya	-5787
▁kanaan▁h	-5788
▁ketidakm	-5789
▁keyboard	-5790
▁kode▁nuk	-5791
▁kompeten	-5792
▁kompromi	-5793
▁krisis▁s	-5794
▁laguna▁d	-5795
▁love▁you	-5796
▁mau▁lagi	-5797
▁meNalami	-5798
▁meNmanip	-5799
s▁cor	-5800
▁1777	-5801
▁1904	-5802
▁1▁%,	-5803
▁1▁%.	-5804
▁game	-5805
▁lapt	-5806
▁pikn	-5807
▁susu	-5808
▁talm	-5809
ar▁rea	-5810
etrich	-5811
ia▁arm	-5812
osting	-5813
tion▁p	-5814
▁bbc▁w	-5815
▁comey	-5816
▁force	-5817
▁for▁r	-5818
▁helik	-5819
▁kilom	-5820
▁klaus	-5821
▁lezat	-5822
▁logam	-5823
▁nicho	-5824
▁tawar	-5825
▁tawon	-5826
ter▁cnn	-5827
turun▁t	-5828
▁1832▁,	-5829
▁1947▁.	-5830
▁1961▁,	-5831
▁1962▁,	-5832
▁1▁.▁16	-5833
▁1▁.▁33	-5834
▁1▁.▁36	-5835
▁ambisi	-5836
▁berhak	-5837
▁caplan	-5838
▁helena	-5839
▁hister	-5840
▁laptop	-5841
▁piknik	-5842
▁plaice	-5843
▁playbo	-5844
▁sepert	-5845
▁talent	-5846
▁talmad	-5847
▁ulrich	-5848
ar▁reach	-5849
ilia▁arm	-5850
s▁corpor	-5851
tion▁pic	-5852
ukur▁lam	-5853
▁1▁.▁165	-5854
▁1▁.▁335	-5855
▁1▁.▁365	-5856
▁bbc▁wor	-5857
▁dikutip	-5858
▁force▁o	-5859
▁for▁ren	-5860
▁helikop	-5861
▁kilomet	-5862
▁klausul	-5863
▁playboy	-5864
▁talenta	-5865
▁the▁tal	-5866
orter▁cnn	-5867
ultietnis	-5868
▁bbc▁worl	-5869
▁dietrich	-5870
▁di▁curie	-5871
▁force▁ou	-5872
▁for▁rene	-5873
▁histeria	-5874
▁meNpupuk	-5875
▁meNsulut	-5876
▁meNyakin	-5877
▁mengadop	-5878
▁metro▁in	-5879
▁minatnya	-5880
▁modelnya	-5881
▁montreal	-5882
▁napoleon	-5883
▁neneknya	-5884
▁nicholas	-5885
▁nilai▁vw	-5886
▁nila▁set	-5887
▁paru▁bay	-5888
▁pedagang	-5889
▁persetuj	-5890
▁pinjaman	-5891
▁politisi	-5892
▁prasasti	-5893
▁retorika	-5894
▁sakhalin	-5895
▁salmon▁f	-5896
▁semangat	-5897
▁sisa▁dua	-5898
▁sisa▁per	-5899
eille	-5900
in▁sc	-5901
otors	-5902
rokok	-5903
▁urus	-5904
▁usul	-5905
asific	-5906
elisih	-5907
on▁bon	-5908
▁bouch	-5909
▁meyer	-5910
▁nikel	-5911
▁ragam	-5912
▁robin	-5913
▁rokok	-5914
▁scots	-5915
▁zirah	-5916
atis▁ke	-5917
engadah	-5918
istirah	-5919
rokoksi	-5920
vieille	-5921
▁dijaga	-5922
▁urusan	-5923
an▁bakar	-5924
elamatan	-5925
in▁scott	-5926
ior▁rach	-5927
ju▁zirah	-5928
om▁robin	-5929
on▁bonap	-5930
▁istirah	-5931
▁positif	-5932
an▁motors	-5933
rokoksige	-5934
▁berragam	-5935
▁bouchard	-5936
▁di▁siang	-5937
▁permohon	-5938
▁scotsman	-5939
▁slowakia	-5940
▁springer	-5941
▁stealers	-5942
▁sterling	-5943
▁strategy	-5944
▁susu▁seb	-5945
▁tabungan	-5946
▁tarif▁pr	-5947
▁tema▁itu	-5948
▁teorinya	-5949
▁terkubur	-5950
▁terlatih	-5951
▁tetangga	-5952
▁the▁talk	-5953
▁tipo▁and	-5954
▁top▁sara	-5955
▁ujungnya	-5956
▁utamanya	-5957
▁visioner	-5958
▁von▁bell	-5959
▁vulkanik	-5960
▁wang▁ans	-5961
▁wheelnya	-5962
▁williams	-5963
ahan▁danau	-5964
akses▁jika	-5965
aky▁ground	-5966
alan▁cuaca	-5967
alatan▁dan	-5968
aluasi▁apa	-5969
amah▁agung	-5970
anda▁sahel	-5971
annya▁di▁w	-5972
ansmisikan	-5973
arik▁pajak	-5974
asia▁hinga	-5975
asifik▁dan	-5976
asikan▁amb	-5977
ati▁puncak	-5978
at▁katolik	-5979
bria▁kedua	-5980
efinisikan	-5981
egaria▁byz	-5982
en▁hiburan	-5983
eran▁besar	-5984
erly▁hills	-5985
f▁jurnalis	-5986
ganti▁rugi	-5987
ge▁academy	-5988
ik▁solheim	-5989
il▁liberti	-5990
ingen▁di▁s	-5991
ing▁dibuka	-5992
ins▁dengan	-5993
ior▁rachel	-5994
isang▁raja	-5995
is▁cup▁ber	-5996
itik▁rusak	-5997
kan▁mikrof	-5998
lamat▁pada	-5999
forn	-6000
oods	-6001
ooks	-6002
very	-6003
▁joe	-6004
▁rhs	-6005
injam	-6006
ortug	-6007
own▁b	-6008
rassi	-6009
tives	-6010
ucker	-6011
▁fior	-6012
▁gigi	-6013
▁otak	-6014
▁peju	-6015
▁pith	-6016
▁roya	-6017
▁scot	-6018
▁soal	-6019
fornia	-6020
icolas	-6021
ongmin	-6022
ridges	-6023
romosi	-6024
▁blood	-6025
▁gigih	-6026
▁joe▁s	-6027
▁ke▁no	-6028
▁knott	-6029
▁knuck	-6030
▁negan	-6031
▁rhine	-6032
▁royal	-6033
▁woods	-6034
f▁knott	-6035
own▁bid	-6036
rasakan	-6037
▁brooks	-6038
▁deklar	-6039
▁heroin	-6040
▁knight	-6041
▁otonom	-6042
▁patrol	-6043
▁portug	-6044
▁the▁ro	-6045
▁zucker	-6046
icolas▁s	-6047
▁di▁bumi	-6048
▁fiorell	-6049
▁gongmin	-6050
▁of▁scot	-6051
▁pada▁no	-6052
▁pejuang	-6053
▁pitheko	-6054
alifornia	-6055
ambridges	-6056
ras▁udara	-6057
romosikan	-6058
▁fiorello	-6059
▁peNlayan	-6060
▁petrassi	-6061
▁the▁rock	-6062
getown▁bid	-6063
kan▁rencan	-6064
man▁kristi	-6065
monegasque	-6066
ne▁terkait	-6067
nya▁memang	-6068
ohammed▁al	-6069
ok▁dan▁ser	-6070
ongan▁baja	-6071
ono▁adalah	-6072
onte▁carlo	-6073
otes▁fakta	-6074
o▁petrassi	-6075
so▁alfabet	-6076
ti▁keingin	-6077
ti▁politti	-6078
torial▁und	-6079
turutturut	-6080
ualifikasi	-6081
ukti▁untuk	-6082
unan▁dan▁h	-6083
urat▁kabar	-6084
uruh▁mampu	-6085
ur▁di▁masa	-6086
▁$▁5▁.▁000	-6087
▁330▁.▁000	-6088
▁agung▁sal	-6089
▁ahli▁dari	-6090
▁air▁tawar	-6091
▁aktivitas	-6092
▁aku▁hanya	-6093
▁alarm▁keb	-6094
▁album▁wil	-6095
▁aman▁di▁s	-6096
▁aman▁kita	-6097
▁asal▁usul	-6098
▁atau▁mati	-6099
99▁.	-6100
dred	-6101
tabr	-6102
▁550	-6103
enico	-6104
ide▁t	-6105
▁tabr	-6106
armuka	-6107
awa▁di	-6108
bonasi	-6109
cak▁dr	-6110
ide▁to	-6111
▁palma	-6112
▁parma	-6113
▁saldo	-6114
agi▁dua	-6115
ebruari	-6116
▁1399▁.	-6117
▁1979▁.	-6118
▁550▁),	-6119
▁gandar	-6120
arbonasi	-6121
februari	-6122
oyangkan	-6123
tabrakan	-6124
▁di▁kaki	-6125
▁mildred	-6126
▁peNbawa	-6127
▁peNbeli	-6128
cak▁drone	-6129
eNdidikan	-6130
▁di▁palma	-6131
▁domenico	-6132
▁guide▁to	-6133
▁tabrakan	-6134
armuka▁kec	-6135
ungkawa▁di	-6136
▁aturannya	-6137
▁awan▁atau	-6138
▁bahwa▁kim	-6139
▁bahwa▁rog	-6140
▁ba▁dan▁ia	-6141
▁beban▁pun	-6142
▁bekas▁out	-6143
▁berdagang	-6144
▁berhembus	-6145
▁berjangka	-6146
▁berkompet	-6147
▁biaya▁itu	-6148
▁blunt▁dit	-6149
▁bumi▁yang	-6150
▁carlos▁sa	-6151
▁ceko▁meNt	-6152
▁cepat▁dan	-6153
▁ciscaucas	-6154
▁dan▁iklan	-6155
▁dan▁jatuh	-6156
▁dan▁pupuk	-6157
▁dan▁warna	-6158
▁deklarasi	-6159
▁delapan▁a	-6160
▁delapan▁b	-6161
▁dibedakan	-6162
▁dicederai	-6163
▁diperiksa	-6164
▁disebut▁v	-6165
▁disetujui	-6166
▁di▁athena	-6167
▁di▁istana	-6168
▁di▁kansas	-6169
▁di▁krimea	-6170
▁di▁lahore	-6171
▁di▁laptop	-6172
▁di▁puncak	-6173
▁dolar▁dan	-6174
▁doss▁bisa	-6175
▁dua▁fakta	-6176
▁edward▁iv	-6177
▁ekstensif	-6178
▁elemen▁ir	-6179
▁emas▁atau	-6180
▁etimologi	-6181
▁fitur▁top	-6182
▁gaji▁yang	-6183
▁gandarusa	-6184
▁gandum▁di	-6185
▁generator	-6186
▁guilbeaul	-6187
▁henry▁bre	-6188
▁herzl▁dik	-6189
▁hijau▁kek	-6190
▁humanisme	-6191
▁ibu▁hamil	-6192
▁induk▁kfc	-6193
▁itu▁dihal	-6194
▁itu▁mudah	-6195
▁jalan▁air	-6196
▁jesse▁lab	-6197
▁jimmy▁car	-6198
▁joe▁stern	-6199
▁kimia	-6200
▁sandi	-6201
▁warna▁tr	-6202
▁kabar▁ini	-6203
▁kamchatka	-6204
▁kartu▁deb	-6205
▁kartu▁ini	-6206
▁kecepatan	-6207
▁kedalaman	-6208
▁kedaluwar	-6209
▁kegelapan	-6210
▁kejahatan	-6211
▁kekerasan	-6212
▁kelaparan	-6213
▁kelayakan	-6214
▁keretakan	-6215
▁ke▁aliran	-6216
▁ke▁thrace	-6217
▁knightley	-6218
▁kode▁berp	-6219
▁kode▁nukl	-6220
▁komposisi	-6221
▁kontingen	-6222
▁kota▁buen	-6223
▁kuliah▁di	-6224
▁lasse▁hal	-6225
▁lingkup▁l	-6226
▁literatur	-6227
▁lord▁hali	-6228
▁maksudnya	-6229
▁malah▁dit	-6230
▁meNajukan	-6231
▁meNcintai	-6232
▁meNkomers	-6233
▁meNpahami	-6234
▁meNpasang	-6235
▁meNsimpan	-6236
▁meNsurvei	-6237
▁meNtembus	-6238
▁merek▁her	-6239
▁merugikan	-6240
▁michael▁f	-6241
▁mycenaean	-6242
▁nama▁apul	-6243
▁nashville	-6244
▁negosiasi	-6245
▁now▁dan▁a	-6246
▁of▁americ	-6247
▁of▁lennox	-6248
▁of▁rambow	-6249
▁of▁winter	-6250
▁oleh▁grav	-6251
▁peNcarian	-6252
▁peNtipuan	-6253
▁pebe▁meNp	-6254
▁percobaan	-6255
▁pesta▁ini	-6256
▁peter▁dan	-6257
▁pithekous	-6258
▁planetari	-6259
▁pria▁arab	-6260
▁rata▁zona	-6261
▁referensi	-6262
▁rekonsili	-6263
▁rspb▁juga	-6264
▁rute▁laut	-6265
▁sakit▁pap	-6266
▁sel▁darah	-6267
▁seni▁meNg	-6268
▁sikap▁peN	-6269
▁sinematik	-6270
▁studio▁ke	-6271
▁sudah▁dic	-6272
▁suku▁kana	-6273
▁super▁ber	-6274
▁tautan▁ke	-6275
▁tekstil▁n	-6276
▁tenggelam	-6277
▁tennessee	-6278
▁teratas▁u	-6279
▁tiga▁poin	-6280
▁tower▁meN	-6281
▁ucapannya	-6282
▁ukuran▁as	-6283
▁usg▁rutin	-6284
▁versi▁rom	-6285
▁wanita▁ya	-6286
▁yang▁norm	-6287
▁yang▁subs	-6288
▁yang▁suhu	-6289
▁yg▁cotton	-6290
▁yudhoyono	-6291
▁zaman▁dah	-6292
▁zona▁suhu	-6293
aan▁pemirsa	-6294
adian▁blood	-6295
ado▁sebagai	-6296
agar▁tinggi	-6297
agi▁meNjadi	-6298
akan▁oleh▁f	-6299
▁mcgreg	-6300
e▁pribadi	-6301
▁mcgregor	-6302
ak▁samudra	-6303
e▁di▁barat	-6304
i▁dominasi	-6305
▁meNcari▁b	-6306
▁of▁spring	-6307
ambilalihan	-6308
angan▁gigih	-6309
angan▁lawan	-6310
an▁angkatan	-6311
an▁dan▁lamp	-6312
an▁juga▁dip	-6313
an▁konsumen	-6314
apar▁secara	-6315
ap▁dan▁meNl	-6316
ar▁di▁ujung	-6317
asinya▁yang	-6318
astelfranco	-6319
at▁dalam▁lo	-6320
bermarsberg	-6321
co▁catalano	-6322
ctorial▁und	-6323
dentifikasi	-6324
ebasan▁kong	-6325
ehabilitasi	-6326
ejalan▁kaki	-6327
el▁bahwa▁ia	-6328
ensian▁akan	-6329
ensi▁london	-6330
enya▁berada	-6331
er▁mongolia	-6332
eta▁william	-6333
et▁record▁c	-6334
et▁tak▁lama	-6335
eux▁seorang	-6336
e▁pria▁arab	-6337
ganti▁palem	-6338
gar▁di▁masa	-6339
ia▁dan▁kven	-6340
ik▁matahari	-6341
ilan▁budaya	-6342
il▁thutmose	-6343
inan▁budaya	-6344
ingannya▁pr	-6345
ir▁yang▁men	-6346
isang▁dan▁p	-6347
isinya▁yang	-6348
istirahatan	-6349
is▁dorongan	-6350
is▁sehingga	-6351
itel▁dan▁gr	-6352
jekak▁darah	-6353
kamah▁agung	-6354
kan▁ratusan	-6355
kan▁tekanan	-6356
lam▁sepuluh	-6357
latform▁ini	-6358
latih▁sejak	-6359
l▁alarm▁keb	-6360
mati▁puncak	-6361
mur▁di▁masa	-6362
nyata▁malah	-6363
nya▁ke▁dana	-6364
ny▁adalah▁b	-6365
obot▁humano	-6366
oga▁sepadan	-6367
ografi▁atau	-6368
ok▁peNkuasa	-6369
om▁robinson	-6370
ontrol▁oleh	-6371
on▁adalah▁b	-6372
on▁harganya	-6373
oria▁holden	-6374
osot▁hingga	-6375
oti▁keingin	-6376
ot▁meNpakai	-6377
rokoksigeal	-6378
rotes▁fakta	-6379
salahan▁tak	-6380
s▁of▁winter	-6381
tion▁pictur	-6382
tret▁stereo	-6383
uasai▁senat	-6384
udarinya▁di	-6385
udra▁hindia	-6386
ui▁tak▁lama	-6387
undang▁rasa	-6388
uno▁nicolai	-6389
utria▁untuk	-6390
u▁akan▁meNs	-6391
ver▁my▁head	-6392
y▁meNnikahi	-6393
▁15▁.▁000▁.	-6394
▁25▁.▁000▁.	-6395
▁acara▁andr	-6396
▁adalah▁bab	-6397
▁agak▁samar	-6398
▁agen▁badan	-6399
▁fjords	-6400
▁adanya▁s	-6401
▁atlantik	-6402
ah▁ke▁laut	-6403
lah▁tampil	-6404
▁ke▁lautan	-6405
▁protestan	-6406
kan▁ke▁arah	-6407
tus▁meNbawa	-6408
▁agung▁salz	-6409
▁akan▁disel	-6410
▁alarm▁anda	-6411
▁alasan▁meN	-6412
▁alat▁aplik	-6413
▁album▁wild	-6414
▁and▁select	-6415
▁anggotanya	-6416
▁antonio▁ga	-6417
▁atas▁saldo	-6418
▁awal▁roman	-6419
▁awan▁hujam	-6420
▁badai▁debu	-6421
▁bahwa▁biji	-6422
▁bahwa▁kano	-6423
▁baju▁zirah	-6424
▁beroperasi	-6425
▁berpotensi	-6426
▁berselisih	-6427
▁brice▁hort	-6428
▁brooks▁dan	-6429
▁cadangan▁b	-6430
▁california	-6431
▁celtic▁dan	-6432
▁chief▁exec	-6433
▁chilia▁arm	-6434
▁council▁of	-6435
▁dalam▁ikon	-6436
▁dan▁carlos	-6437
▁dan▁dolmen	-6438
▁dan▁gambar	-6439
▁dan▁pindah	-6440
▁dan▁sampai	-6441
▁dan▁senang	-6442
▁dan▁sepert	-6443
▁dari▁debat	-6444
▁dari▁scrit	-6445
▁dari▁swiss	-6446
▁daya▁alami	-6447
▁dengan▁suk	-6448
▁dewasa▁ini	-6449
▁dia▁tumbuh	-6450
▁diharapkan	-6451
▁diinginkan	-6452
▁dilahirkan	-6453
▁dinosaurus	-6454
▁direktur▁g	-6455
▁direnovasi	-6456
▁dirindukan	-6457
▁disarankan	-6458
▁disertakan	-6459
▁di▁album▁w	-6460
▁di▁ontario	-6461
▁di▁roma▁tr	-6462
▁di▁tingkat	-6463
▁di▁uni▁ini	-6464
▁dokter▁per	-6465
▁dua▁petani	-6466
▁emas▁kedua	-6467
▁emisi▁alfa	-6468
▁eropa▁soal	-6469
▁father▁did	-6470
▁guilbeault	-6471
▁helikopter	-6472
▁herodes▁an	-6473
▁hitchhiker	-6474
▁ia▁meNbawa	-6475
▁ikan▁lidah	-6476
▁individual	-6477
▁istana▁dan	-6478
▁james▁watt	-6479
▁jeff▁knott	-6480
▁jesse▁labr	-6481
▁juta▁warga	-6482
▁kami▁turun	-6483
▁kantor▁itu	-6484
▁katolik▁an	-6485
▁kedokteran	-6486
▁kehormatan	-6487
▁kepahlawan	-6488
▁ke▁jalanan	-6489
▁koleksi▁bi	-6490
▁komisi▁itu	-6491
▁konseptual	-6492
▁lalu▁iklan	-6493
▁lawan▁main	-6494
▁lewat▁dari	-6495
▁lingkupnya	-6496
▁lokal▁di▁p	-6497
▁lord▁north	-6498
▁louis▁sang	-6499
m▁gor	-6500
▁biro	-6501
▁garr	-6502
▁pyrrh	-6503
yam▁gor	-6504
▁von▁be	-6505
an▁resmi	-6506
es▁saint	-6507
▁garrard	-6508
▁peNadil	-6509
▁pyrrhus	-6510
an▁dibuat	-6511
egalisasi	-6512
el▁kereta	-6513
italisasi	-6514
ode▁tujuh	-6515
ves▁saint	-6516
▁ayam▁gor	-6517
▁gunung▁k	-6518
▁kajian▁p	-6519
▁meNnikah	-6520
▁musisi▁t	-6521
▁raja▁gez	-6522
▁sebagain	-6523
▁suatu▁pr	-6524
▁von▁beus	-6525
atorium▁as	-6526
▁biro▁sens	-6527
▁cerita▁ke	-6528
▁dijual▁ke	-6529
▁kajian▁pb	-6530
▁kemerosot	-6531
▁ke▁gereja	-6532
▁malam▁ini	-6533
▁musuh▁itu	-6534
▁von▁beust	-6535
adang▁pasir	-6536
angsaan▁ser	-6537
an▁dari▁per	-6538
vatorium▁as	-6539
▁ada▁di▁pun	-6540
▁bahkan▁rep	-6541
▁cerita▁ini	-6542
▁dilindungi	-6543
▁finalisasi	-6544
▁itu▁hancur	-6545
▁kajian▁pbb	-6546
▁kanada▁ter	-6547
▁kereta▁api	-6548
▁kesal▁saat	-6549
▁koran▁dari	-6550
▁malam▁saat	-6551
▁margaret▁d	-6552
▁mark▁avery	-6553
▁masuk▁ke▁m	-6554
▁meNcarinya	-6555
▁meNjadi▁no	-6556
▁meNmajukan	-6557
▁meNperluas	-6558
▁meNrespons	-6559
▁meNtaruh▁b	-6560
▁meNtempati	-6561
▁meNubahnya	-6562
▁menara▁mas	-6563
▁mendekatka	-6564
▁merah▁yang	-6565
▁mereka▁cec	-6566
▁mode▁tujuh	-6567
▁moral▁yang	-6568
▁nama▁danau	-6569
▁oksigen▁ke	-6570
▁oleh▁keind	-6571
▁opsi▁vanta	-6572
▁pabrik▁kap	-6573
▁pada▁tokoh	-6574
▁palem▁yang	-6575
▁parade▁dan	-6576
▁para▁siswa	-6577
▁paus▁frans	-6578
▁peNcegahan	-6579
▁peNcerahan	-6580
▁peNhiburan	-6581
▁peNlatihan	-6582
▁peNperiksa	-6583
▁peNsebaran	-6584
▁peNsediaan	-6585
▁pelat▁hind	-6586
▁pengalaman	-6587
▁perhentian	-6588
▁pernikatan	-6589
▁pertamanya	-6590
▁pesta▁pora	-6591
▁piaf▁dan▁m	-6592
▁piknik▁ped	-6593
▁pilot▁yang	-6594
▁premier▁di	-6595
▁produser▁m	-6596
▁protes▁dan	-6597
▁punya▁sisi	-6598
▁racun▁bagi	-6599
etahu	-6600
harles	-6601
▁shenz	-6602
y▁dan▁s	-6603
▁sensor	-6604
▁shen▁k	-6605
xy▁dan▁s	-6606
▁angin▁l	-6607
▁belanda	-6608
▁charles	-6609
▁dan▁sol	-6610
▁dan▁sun	-6611
▁shen▁ku	-6612
▁york▁ke	-6613
ampingkan	-6614
embirakan	-6615
ingungkan	-6616
untungkan	-6617
▁dan▁pros	-6618
▁muda▁itu	-6619
▁shenzhen	-6620
▁shen▁kuo	-6621
an▁belanda	-6622
an▁manusia	-6623
ep▁dan▁sun	-6624
iran▁alpen	-6625
laxy▁dan▁s	-6626
▁ada▁kisah	-6627
▁benua▁itu	-6628
▁dan▁solar	-6629
▁dari▁york	-6630
▁datar▁dan	-6631
▁harga▁ben	-6632
▁islam▁dan	-6633
▁kursi▁itu	-6634
▁layak▁dim	-6635
▁mata▁meNb	-6636
▁muda▁di▁m	-6637
▁pria▁muda	-6638
angkut▁di▁s	-6639
ar▁dan▁raja	-6640
etahui▁oleh	-6641
i▁dan▁india	-6642
menang▁bala	-6643
▁angka▁yang	-6644
▁artis▁atau	-6645
▁dan▁prosed	-6646
▁dari▁benua	-6647
▁di▁samping	-6648
▁email▁atau	-6649
▁level▁yang	-6650
▁meNdamping	-6651
▁peNtentuan	-6652
▁rasa▁sakit	-6653
▁reaksi▁ber	-6654
▁real▁estat	-6655
▁rel▁kereta	-6656
▁roma▁dan▁a	-6657
▁r▁i▁dengan	-6658
▁saat▁kesha	-6659
▁sakit▁papw	-6660
▁sanksi▁itu	-6661
▁saya▁kenal	-6662
▁saya▁lihat	-6663
▁sebagai▁ot	-6664
▁sejauh▁ini	-6665
▁sejumlah▁b	-6666
▁sejumlah▁j	-6667
▁sekretaris	-6668
▁seolaholah	-6669
▁siap▁untuk	-6670
▁siri▁apple	-6671
▁sisa▁perib	-6672
▁star▁reach	-6673
▁sukses▁dan	-6674
▁s▁guide▁to	-6675
▁tampil▁tel	-6676
▁tapi▁geyer	-6677
▁tarif▁prap	-6678
▁teater▁bon	-6679
▁teleponaku	-6680
▁terkaitnya	-6681
▁terlalu▁kh	-6682
▁terpuaskan	-6683
▁tersingkap	-6684
▁tribun▁dit	-6685
▁trix▁telah	-6686
▁tujuh▁hari	-6687
▁t▁go▁break	-6688
▁ukuran▁asl	-6689
▁untuk▁unit	-6690
▁wajar▁saja	-6691
▁waktu▁berj	-6692
▁washington	-6693
▁west▁milik	-6694
▁wheelnya▁e	-6695
▁willis▁dan	-6696
▁yang▁cukup	-6697
▁yang▁dicap	-6698
▁yang▁halus	-6699
o▁sub	-6700
at▁á▁n	-6701
le▁sat	-6702
ur▁á▁n	-6703
▁energ	-6704
▁ikuti	-6705
▁power	-6706
▁sinis	-6707
▁s▁á▁n	-6708
dle▁sat	-6709
ikkan▁b	-6710
ization	-6711
kan▁bom	-6712
owongan	-6713
owo▁sub	-6714
▁2014▁,	-6715
▁kental	-6716
▁kompon	-6717
▁lembar	-6718
▁lokasi	-6719
▁mutasi	-6720
▁risiko	-6721
▁sinema	-6722
▁tokuga	-6723
ana▁hati	-6724
ang▁kayu	-6725
ang▁kuda	-6726
oriental	-6727
ro▁s▁á▁n	-6728
undurkan	-6729
▁ditutup	-6730
▁dur▁á▁n	-6731
abowo▁sub	-6732
api▁sinis	-6733
dle▁satur	-6734
kan▁biaya	-6735
▁hati▁dan	-6736
▁hati▁ide	-6737
▁komponen	-6738
▁kuda▁jan	-6739
▁lowongan	-6740
▁oleh▁sub	-6741
▁oriental	-6742
▁power▁of	-6743
▁tokugawa	-6744
asana▁hati	-6745
awasi▁lima	-6746
dle▁saturd	-6747
entikkan▁b	-6748
ikuti▁satu	-6749
ro▁s▁á▁nch	-6750
uasai▁kuat	-6751
ukang▁kayu	-6752
ukan▁fatal	-6753
▁dalam▁ram	-6754
▁dari▁uber	-6755
▁energinya	-6756
▁golf▁yang	-6757
▁kapan▁pun	-6758
▁oleh▁subd	-6759
▁tema▁lain	-6760
ankan▁biaya	-6761
an▁gabungan	-6762
ental▁dalam	-6763
harap▁untuk	-6764
kan▁bom▁api	-6765
▁bahwa▁bayi	-6766
▁kita▁ikuti	-6767
▁lembar▁res	-6768
▁orang▁kaya	-6769
▁tokugawa▁i	-6770
▁yang▁layak	-6771
▁yang▁mahal	-6772
▁yang▁mampu	-6773
▁yang▁menet	-6774
▁yang▁mirip	-6775
▁yang▁nenek	-6776
▁yang▁nyata	-6777
▁yuan▁mulai	-6778
▁yves▁saint	-6779
▁zuckerberg	-6780
abowo▁subian	-6781
agi▁dua▁oleh	-6782
agumkan▁bisa	-6783
ahan▁dan▁keh	-6784
aikkan▁pasar	-6785
ajam▁di▁area	-6786
akannya▁pada	-6787
akan▁erdogan	-6788
akan▁oleh▁kr	-6789
ak▁kejahatan	-6790
alnya▁dengan	-6791
andu▁pesawat	-6792
anya▁akan▁di	-6793
an▁dari▁amer	-6794
an▁nicolas▁s	-6795
an▁peNrayaan	-6796
ap▁sebagai▁p	-6797
ard▁business	-6798
arkan▁metode	-6799
an▁nn	-6800
pital	-6801
truks	-6802
▁1492	-6803
▁1886	-6804
▁1925	-6805
▁1927	-6806
▁kamu	-6807
▁odes	-6808
▁ya▁k	-6809
agelan	-6810
aksa▁a	-6811
astruk	-6812
elanja	-6813
le▁ass	-6814
onesia	-6815
▁balok	-6816
▁garis	-6817
▁jason	-6818
▁melan	-6819
▁sudut	-6820
istance	-6821
laim▁ke	-6822
ospital	-6823
▁1492▁;	-6824
▁1882▁,	-6825
▁1882▁.	-6826
▁1887▁.	-6827
▁agenda	-6828
▁athina	-6829
▁baltik	-6830
▁bogart	-6831
▁france	-6832
▁glenda	-6833
▁odessa	-6834
▁ya▁kne	-6835
berg▁dib	-6836
ekam▁apa	-6837
frastruk	-6838
itik▁bal	-6839
nest▁sha	-6840
ogle▁ass	-6841
onesia▁b	-6842
udut▁ada	-6843
▁belanja	-6844
▁dagelan	-6845
▁ekstern	-6846
▁kontitu	-6847
▁senjata	-6848
▁ya▁knew	-6849
laim▁oleh	-6850
▁berkelan	-6851
▁garis▁im	-6852
▁jason▁se	-6853
▁kanan▁nn	-6854
▁klaim▁ke	-6855
▁meNcerit	-6856
▁pengerti	-6857
berg▁dibub	-6858
esia▁timur	-6859
nest▁shack	-6860
rey▁bogart	-6861
▁dan▁benda	-6862
▁dari▁kamu	-6863
▁eksternal	-6864
▁konstruks	-6865
▁odessa▁ob	-6866
▁studi▁gen	-6867
ary▁clinton	-6868
frastruktur	-6869
hrey▁bogart	-6870
ogle▁assist	-6871
olusi▁sudut	-6872
onesia▁bing	-6873
▁garis▁imaj	-6874
▁karena▁lok	-6875
▁meNpaksa▁a	-6876
▁new▁france	-6877
▁pengertiak	-6878
▁resistance	-6879
arki▁romanov	-6880
ar▁di▁tengah	-6881
ati▁setengah	-6882
at▁kaitannya	-6883
awal▁sebagai	-6884
ayaan▁minggu	-6885
a▁dan▁senang	-6886
a▁sendiri▁di	-6887
dle▁saturday	-6888
ebasan▁kongo	-6889
edakan▁pasar	-6890
egaria▁byzan	-6891
el▁dengannya	-6892
emuk▁clinton	-6893
enberg▁dibub	-6894
enovasi▁lima	-6895
epat▁meNbuka	-6896
erang▁adalah	-6897
eran▁politik	-6898
etus▁meNbawa	-6899
oole	-6900
valk	-6901
▁125	-6902
▁134	-6903
▁137	-6904
▁crt	-6905
ckham	-6906
gesag	-6907
immer	-6908
iskop	-6909
iskus	-6910
naval	-6911
odias	-6912
opley	-6913
osped	-6914
ought	-6915
ugaan	-6916
▁.▁30	-6917
▁1200	-6918
▁50▁;	-6919
▁crtc	-6920
▁taun	-6921
iskusi	-6922
mosfer	-6923
ranean	-6924
valkar	-6925
▁.▁30$	-6926
▁363▁.	-6927
▁crana	-6928
▁dr▁le	-6929
ahi▁mat	-6930
ema▁dan	-6931
ema▁ini	-6932
gesages	-6933
iksanya	-6934
iskopal	-6935
ospedal	-6936
▁1340▁,	-6937
▁50▁;▁“	-6938
▁dilema	-6939
▁dr▁lee	-6940
▁dugaan	-6941
▁harley	-6942
▁hopley	-6943
▁palmer	-6944
▁perges	-6945
▁zimmer	-6946
gesagesa	-6947
mer▁meNr	-6948
ontraksi	-6949
▁6▁.▁30$	-6950
▁achaean	-6951
▁cranach	-6952
▁jika▁ya	-6953
▁packham	-6954
▁thought	-6955
apat▁crtc	-6956
asahi▁mat	-6957
▁atmosfer	-6958
▁cospedal	-6959
▁di▁poole	-6960
▁gema▁dan	-6961
▁herodias	-6962
▁karnaval	-6963
▁pergeser	-6964
chmer▁meNr	-6965
▁(▁6▁.▁30$	-6966
▁episkopal	-6967
▁panvalkar	-6968
▁sangat▁ta	-6969
▁skema▁ini	-6970
cas▁cranach	-6971
jah▁pesisir	-6972
nya▁imigran	-6973
▁berdiskusi	-6974
▁dilema▁ser	-6975
chmer▁meNrab	-6976
ea▁episkopal	-6977
everly▁hills	-6978
e▁dan▁stiker	-6979
e▁of▁commons	-6980
e▁willis▁dan	-6981
gurus▁bisnis	-6982
iakan▁selama	-6983
ia▁untuk▁men	-6984
icu▁revolusi	-6985
id▁yang▁meNj	-6986
ikan▁ketidak	-6987
ik▁ke▁hindia	-6988
imanjaro▁dan	-6989
impin▁komisi	-6990
incian▁samar	-6991
ing▁dan▁meNk	-6992
ini▁depan▁st	-6993
inya▁pilihan	-6994
isinya▁dalam	-6995
ivil▁liberti	-6996
jar▁di▁ujung	-6997
kan▁stealers	-6998
kan▁untuk▁kl	-6999
phy	-7000
luvi	-7001
mith	-7002
osph	-7003
awahi	-7004
board	-7005
othai	-7006
urphy	-7007
viasi	-7008
▁javi	-7009
bawahi	-7010
hothai	-7011
luvios	-7012
osphor	-7013
ersmith	-7014
luviose	-7015
▁1918▁,	-7016
▁1992▁.	-7017
▁javier	-7018
▁murphy	-7019
h▁menang	-7020
illboard	-7021
isbawahi	-7022
osphorus	-7023
▁meNremeh	-7024
eth▁menang	-7025
ugh▁murphy	-7026
▁bosphorus	-7027
garisbawahi	-7028
i▁dan▁tujuh	-7029
▁javier▁mar	-7030
▁syuting▁th	-7031
e▁university	-7032
lah▁tampilan	-7033
lah▁waktunya	-7034
lasemen▁poin	-7035
las▁menengah	-7036
laxy▁dan▁son	-7037
nya▁bergetar	-7038
nya▁histeria	-7039
nya▁meNledak	-7040
n▁hanya▁bisa	-7041
oi▁dan▁india	-7042
ok▁dan▁seram	-7043
olisian▁kota	-7044
oner▁radikal	-7045
otor▁listrik	-7046
ottingham▁jo	-7047
ouch▁meNberi	-7048
roduksi▁oleh	-7049
sajikan▁oleh	-7050
ta▁kelahiran	-7051
tion▁picture	-7052
trasikan▁amb	-7053
tributor▁per	-7054
tuju▁untuk▁m	-7055
uil▁thutmose	-7056
ul▁di▁sebuah	-7057
ungai▁danube	-7058
ur▁hidup▁dan	-7059
wan▁mcgregor	-7060
wa▁meNwakili	-7061
y▁bulan▁lalu	-7062
y▁dari▁semua	-7063
▁agresif▁dan	-7064
▁air▁dari▁al	-7065
▁akan▁meNsaj	-7066
▁akses▁jalan	-7067
▁akses▁ke▁al	-7068
▁anggur▁buah	-7069
▁angin▁musim	-7070
▁angka▁untuk	-7071
▁anne▁horton	-7072
▁apakah▁seri	-7073
▁asing▁opium	-7074
▁athina▁film	-7075
▁avro▁energy	-7076
▁awalnya▁dij	-7077
▁bahan▁bakar	-7078
▁bahwa▁harga	-7079
▁bahwa▁klein	-7080
▁berhak▁yang	-7081
▁berkompromi	-7082
▁berlayar▁ke	-7083
▁biro▁sensus	-7084
▁boeing▁yang	-7085
▁budha▁untuk	-7086
▁buruh▁mampu	-7087
▁contoh▁terb	-7088
▁dalam▁kisah	-7089
▁dalam▁pamer	-7090
▁dalam▁tabel	-7091
▁dan▁ancaman	-7092
▁dan▁enrique	-7093
▁dan▁hal▁ini	-7094
▁dan▁jatuh▁c	-7095
▁dan▁lincoln	-7096
▁dan▁meNbaca	-7097
▁dan▁pasific	-7098
▁dan▁peNmain	-7099
▁ribu	-7100
▁remaja	-7101
▁dua▁ribu	-7102
ir▁populasi	-7103
u▁peNgunaan	-7104
▁permintaan	-7105
▁raja▁gezer	-7106
▁yang▁ia▁ak	-7107
ing▁istrinya	-7108
isi▁terlibat	-7109
▁dan▁persimp	-7110
▁dan▁seragam	-7111
▁dan▁spotify	-7112
▁dan▁ukraina	-7113
▁dari▁americ	-7114
▁dari▁energi	-7115
▁dari▁kantor	-7116
▁dari▁komand	-7117
▁dari▁latium	-7118
▁daya▁slowak	-7119
▁dengan▁kapt	-7120
▁de▁tipo▁and	-7121
▁dia▁dan▁per	-7122
▁dia▁dan▁wal	-7123
▁dikemukakan	-7124
▁diluncurkan	-7125
▁dimundurkan	-7126
▁disampaikan	-7127
▁disebut▁vol	-7128
▁ditaklukkan	-7129
▁di▁domenico	-7130
▁di▁pedesaan	-7131
▁di▁platform	-7132
▁di▁plaza▁de	-7133
▁di▁provinsi	-7134
▁di▁thailand	-7135
▁dunia▁usaha	-7136
▁elemen▁irid	-7137
▁emisi▁besar	-7138
▁environment	-7139
▁father▁didn	-7140
▁final▁musim	-7141
▁gaji▁yang▁l	-7142
▁halus▁telah	-7143
▁hancur▁pada	-7144
▁hari▁selasa	-7145
▁hati▁mereka	-7146
▁hijau▁kekun	-7147
▁historisnya	-7148
▁historis▁di	-7149
▁hugh▁murphy	-7150
▁ia▁berkuasa	-7151
▁ia▁dikenali	-7152
▁ia▁meNpilih	-7153
▁ia▁meNyakin	-7154
▁ia▁mengerti	-7155
▁iklim▁gurun	-7156
▁iklim▁sahel	-7157
▁iman▁kristi	-7158
▁ini▁artinya	-7159
▁ini▁meNbuka	-7160
▁invasi▁brit	-7161
▁ironi▁halus	-7162
▁itu▁standar	-7163
▁jaringannya	-7164
▁jason▁segel	-7165
▁joe▁sternli	-7166
▁juara▁dunia	-7167
▁juta▁rakyat	-7168
▁kanaan▁hang	-7169
▁kandungan▁s	-7170
▁kata▁zimmer	-7171
▁kaum▁yahudi	-7172
▁keenampuluh	-7173
▁kejadian▁di	-7174
▁kekerasan▁g	-7175
▁kepulauan▁l	-7176
▁kering▁samp	-7177
▁keselamatan	-7178
▁ke▁arah▁kar	-7179
▁ke▁landmark	-7180
▁klausul▁ini	-7181
▁kode▁nuklir	-7182
▁komando▁dua	-7183
▁kontituensi	-7184
▁konyol▁ke▁t	-7185
▁kota▁buenos	-7186
▁krisis▁sand	-7187
▁kuda▁jantan	-7188
▁larut▁dalam	-7189
▁lautan▁akan	-7190
▁liburan▁ini	-7191
▁lingkup▁lit	-7192
▁lord▁halifa	-7193
▁maju▁sejauh	-7194
▁mata▁uang▁t	-7195
▁maya▁adalah	-7196
▁meNandalkan	-7197
▁meNbangun▁j	-7198
▁meNcabutnya	-7199
▁betapa	-7200
illeneuv	-7201
▁mcneill	-7202
illeneuve	-7203
t▁dan▁mol	-7204
▁analis▁r	-7205
▁belakang	-7206
▁dari▁scy	-7207
▁koloni▁m	-7208
▁mcneilly	-7209
▁meNlamar	-7210
▁somerset	-7211
curie▁meNs	-7212
nya▁segera	-7213
▁dari▁mana	-7214
▁diumumkan	-7215
▁ini▁meNas	-7216
▁keadaan▁d	-7217
▁kepala▁un	-7218
▁persisnya	-7219
▁sering▁di	-7220
asan▁global	-7221
elakanginya	-7222
isi▁panduan	-7223
nnya▁segera	-7224
ontasi▁yang	-7225
ry▁mcneilly	-7226
t▁dan▁molib	-7227
umumkan▁peN	-7228
▁analis▁rag	-7229
▁bisnis▁dan	-7230
▁dan▁persen	-7231
▁dari▁scyth	-7232
▁dipisahkan	-7233
▁karier▁car	-7234
▁keadaan▁em	-7235
▁melalui▁er	-7236
▁persen▁air	-7237
▁posisi▁ini	-7238
▁posisi▁ram	-7239
▁tampak▁ten	-7240
▁villeneuve	-7241
ahan▁danau▁r	-7242
egang▁posisi	-7243
ukung▁caesar	-7244
unjungi▁oleh	-7245
▁agustus▁dan	-7246
▁akan▁meNlam	-7247
▁akan▁segera	-7248
▁anak▁jepang	-7249
▁analis▁ragu	-7250
▁dari▁disney	-7251
▁dataran▁ini	-7252
▁dikenal▁dan	-7253
▁firaun▁saat	-7254
▁ini▁meNasum	-7255
▁isi▁panduan	-7256
▁keadaan▁dar	-7257
▁kualifikasi	-7258
▁laki▁maupun	-7259
▁meNdampingi	-7260
▁meNdapati▁w	-7261
▁meNkesalkan	-7262
▁meNkisahkan	-7263
▁meNpelajari	-7264
▁meNpilihnya	-7265
▁meNproduksi	-7266
▁meNrindukan	-7267
▁meNsaksikan	-7268
▁meNsisihkan	-7269
▁meNtawarkan	-7270
▁meNtekankan	-7271
▁meNtentukan	-7272
▁meNukur▁lam	-7273
▁menarik▁taw	-7274
▁minggu▁sore	-7275
▁minuman▁ber	-7276
▁mishima▁meN	-7277
▁national▁sa	-7278
▁negara▁maju	-7279
▁nicholas▁st	-7280
▁of▁scotland	-7281
▁olahraga▁di	-7282
▁oleh▁subduk	-7283
▁pada▁satu▁t	-7284
▁pahatan▁dan	-7285
▁paksa▁dapat	-7286
▁pandang▁ini	-7287
▁pantas▁bagi	-7288
▁paramiliter	-7289
▁para▁biaraw	-7290
▁para▁konsel	-7291
▁para▁sekutu	-7292
▁patroli▁dan	-7293
▁peNhadangan	-7294
▁peNhormatan	-7295
▁peNmain▁dan	-7296
▁pedang▁yang	-7297
▁pesta▁resmi	-7298
▁philip▁meNh	-7299
a▁dekat	-7300
beijing	-7301
u▁morav	-7302
ami▁bass	-7303
at▁dan▁r	-7304
bu▁morav	-7305
▁bergaam	-7306
▁bergaya	-7307
▁gelar▁m	-7308
▁keterat	-7309
▁komunal	-7310
▁komunik	-7311
a▁dekat▁s	-7312
iami▁bass	-7313
ingkannya	-7314
kan▁dasar	-7315
pan▁total	-7316
▁putri▁di	-7317
▁putri▁lu	-7318
▁totalnya	-7319
▁apartemen	-7320
▁berat▁dan	-7321
▁dasar▁kan	-7322
▁gelar▁itu	-7323
▁komunitas	-7324
▁kulit▁dan	-7325
▁mobilitas	-7326
▁senat▁dan	-7327
▁tak▁punya	-7328
▁teman▁ger	-7329
▁teman▁ses	-7330
▁yang▁ia▁p	-7331
kannya▁kota	-7332
ulingkannya	-7333
▁akan▁berga	-7334
▁dan▁ambisi	-7335
▁dasar▁kank	-7336
▁email▁berb	-7337
▁kasus▁yang	-7338
▁komunikasi	-7339
▁meNjauhkan	-7340
▁organ▁yang	-7341
▁putri▁dian	-7342
▁putri▁luis	-7343
▁satu▁titik	-7344
▁teman▁baik	-7345
▁teman▁gerr	-7346
▁titik▁awal	-7347
at▁berat▁dan	-7348
at▁dan▁relak	-7349
a▁dekat▁sund	-7350
edo▁petrassi	-7351
e▁tahun▁lalu	-7352
▁dasar▁untuk	-7353
▁henry▁i▁dan	-7354
▁ilmuwan▁dan	-7355
▁kedua▁kasus	-7356
▁keteraturan	-7357
▁komunikatif	-7358
▁poster▁film	-7359
▁program▁itu	-7360
▁pulih▁dan▁b	-7361
▁pyrrhus▁dip	-7362
▁radio▁dan▁t	-7363
▁ragam▁hijau	-7364
▁ramesses▁ii	-7365
▁rasa▁sayang	-7366
▁richard▁dan	-7367
▁saat▁christ	-7368
▁sangat▁kaya	-7369
▁satu▁studio	-7370
▁saya▁senang	-7371
▁segera▁meNn	-7372
▁semua▁biaya	-7373
▁semua▁opini	-7374
▁sepatu▁berl	-7375
▁seperti▁bir	-7376
▁seperti▁rai	-7377
▁serangkaian	-7378
▁setiap▁peta	-7379
▁sistem▁sara	-7380
▁sparta▁meNk	-7381
▁sterling▁ke	-7382
▁sudah▁dican	-7383
▁suhu▁global	-7384
▁surat▁kabar	-7385
▁tak▁terbant	-7386
▁tanaman▁ini	-7387
▁tangan▁yang	-7388
▁tarif▁tetap	-7389
▁telepon▁sel	-7390
▁tembaga▁pat	-7391
▁terkalahkan	-7392
▁terlalu▁ses	-7393
▁tersisa▁dib	-7394
▁terutama▁ke	-7395
▁the▁talking	-7396
▁tidak▁asing	-7397
▁tiga▁kali▁l	-7398
▁top▁sara▁er	-7399
▁georg	-7400
▁topik	-7401
atasi▁t	-7402
ementer	-7403
enter▁t	-7404
ol▁hill	-7405
tiganya	-7406
vensi▁p	-7407
▁center	-7408
▁johnny	-7409
▁juliet	-7410
▁sampel	-7411
ening▁co	-7412
enter▁tv	-7413
ian▁john	-7414
lementer	-7415
▁cina▁ad	-7416
▁dinyany	-7417
▁efektif	-7418
▁istilah	-7419
▁john▁of	-7420
aranya▁da	-7421
ase▁bulan	-7422
itol▁hill	-7423
ukan▁mong	-7424
utusan▁ke	-7425
vensi▁pek	-7426
▁foto▁itu	-7427
▁georg▁re	-7428
▁harga▁ro	-7429
▁peNganti	-7430
▁suaranya	-7431
▁teks▁mes	-7432
▁utaranya	-7433
atasi▁pada	-7434
atasi▁tump	-7435
ersial▁dan	-7436
ganti▁nama	-7437
ganya▁oleh	-7438
kenalkan▁r	-7439
nya▁ke▁mat	-7440
ukan▁mongl	-7441
▁bbc▁bahwa	-7442
▁enam▁oper	-7443
▁hari▁jadi	-7444
▁modal▁dan	-7445
▁of▁madrid	-7446
▁pesat▁dan	-7447
▁rian▁john	-7448
▁teks▁meso	-7449
▁topik▁ini	-7450
▁utusan▁ke	-7451
al▁dan▁peNp	-7452
an▁ke▁utara	-7453
apitol▁hill	-7454
atasi▁tanpa	-7455
es▁yang▁dip	-7456
▁apulia▁dan	-7457
▁besar▁efek	-7458
▁dan▁juliet	-7459
▁dengan▁cbc	-7460
▁evening▁co	-7461
▁georg▁reic	-7462
▁harga▁roti	-7463
▁john▁of▁ga	-7464
▁peNgantian	-7465
▁video▁yang	-7466
aranya▁dalah	-7467
ukan▁monglia	-7468
utkan▁itu▁di	-7469
vensi▁peking	-7470
▁dengan▁teks	-7471
▁dinyanyikan	-7472
▁hingga▁juni	-7473
▁listrik▁top	-7474
▁parlementer	-7475
▁relawan▁dan	-7476
▁sebagai▁sta	-7477
▁sebuah▁pola	-7478
▁selama▁enam	-7479
▁teknik▁asli	-7480
▁total▁suara	-7481
▁ujar▁gonz▁á	-7482
▁ungkapan▁ke	-7483
▁unit▁khusus	-7484
▁untuk▁diman	-7485
▁untuk▁fokus	-7486
▁untuk▁meNre	-7487
▁untuk▁tarif	-7488
▁verbal▁lain	-7489
▁versi▁romeo	-7490
▁vulkanologi	-7491
▁wajib▁pajak	-7492
▁waktu▁lahir	-7493
▁wall▁street	-7494
▁winston▁cup	-7495
▁yang▁ada▁di	-7496
▁yang▁dibent	-7497
▁yang▁dicapl	-7498
▁yang▁hilang	-7499
▁gof	-7500
monis	-7501
sburg	-7502
▁1950	-7503
▁goal	-7504
▁guam	-7505
▁guna	-7506
▁mony	-7507
enario	-7508
engkel	-7509
engker	-7510
hardic	-7511
tasiun	-7512
tasi▁t	-7513
▁100▁%	-7514
▁1▁,▁5	-7515
▁7▁,▁5	-7516
▁goffr	-7517
▁integ	-7518
▁monak	-7519
▁mulut	-7520
▁shang	-7521
▁shika	-7522
astisla	-7523
engketa	-7524
kanisme	-7525
ori▁sch	-7526
portasi	-7527
u▁mulut	-7528
▁15▁,▁5	-7529
▁1879▁.	-7530
▁1955▁.	-7531
▁era▁ke	-7532
▁monako	-7533
▁monark	-7534
▁monyet	-7535
▁schenc	-7536
▁shikai	-7537
▁the▁go	-7538
▁things	-7539
astislav	-7540
a▁the▁go	-7541
engkeram	-7542
▁atas▁os	-7543
▁faktual	-7544
▁oleh▁sh	-7545
▁patahan	-7546
▁schenck	-7547
▁turisme	-7548
▁“▁100▁%	-7549
engkelkan	-7550
er▁things	-7551
ori▁schul	-7552
tasi▁tint	-7553
▁bisnis▁r	-7554
▁dilaksan	-7555
▁era▁keem	-7556
▁habsburg	-7557
▁harmonis	-7558
▁kota▁col	-7559
▁oleh▁bad	-7560
▁shanghai	-7561
▁skenario	-7562
a▁the▁good	-7563
ta▁atas▁os	-7564
▁adu▁mulut	-7565
▁guna▁meNp	-7566
▁integrasi	-7567
▁kaisar▁sh	-7568
▁koloninya	-7569
▁mekanisme	-7570
▁oleh▁shep	-7571
▁rastislav	-7572
▁sephardic	-7573
ik▁ke▁tahun	-7574
portasi▁air	-7575
tasi▁tintin	-7576
▁goal▁dalam	-7577
▁kano▁kecil	-7578
▁kori▁schul	-7579
▁kota▁colog	-7580
▁kuda▁kerja	-7581
▁oleh▁shepp	-7582
▁peNsiksaan	-7583
▁seperti▁go	-7584
anger▁things	-7585
asi▁yang▁ses	-7586
a▁the▁good▁w	-7587
faatkan▁oleh	-7588
ipta▁atas▁os	-7589
ter▁dilaksan	-7590
▁atas▁monako	-7591
▁katolik▁dan	-7592
▁siswa▁goffr	-7593
▁yang▁meNhas	-7594
▁yang▁meNlek	-7595
▁yang▁meNmas	-7596
▁yang▁meNses	-7597
▁yang▁menemp	-7598
▁yang▁saling	-7599
exu	-7600
19▁,	-7601
45▁,	-7602
93▁.	-7603
denb	-7604
eimb	-7605
irku	-7606
▁179	-7607
▁flo	-7608
▁ohi	-7609
3▁.▁4	-7610
chler	-7611
denum	-7612
den▁g	-7613
▁amar	-7614
▁amin	-7615
▁amur	-7616
▁asty	-7617
▁earl	-7618
▁kens	-7619
▁mual	-7620
▁ohio	-7621
▁simb	-7622
▁zexu	-7623
andler	-7624
denbro	-7625
etulan	-7626
irkuit	-7627
l▁amar	-7628
▁393▁.	-7629
▁amurr	-7630
▁drast	-7631
▁flock	-7632
▁ke▁fl	-7633
▁pacar	-7634
▁perhi	-7635
arl▁har	-7636
imbangi	-7637
in▁zexu	-7638
▁1519▁,	-7639
▁1917▁,	-7640
▁1997▁,	-7641
▁2009▁,	-7642
▁23▁.▁4	-7643
▁amurru	-7644
▁hitler	-7645
denbrook	-7646
den▁gate	-7647
irkuit▁y	-7648
l▁amarna	-7649
▁1794▁),	-7650
▁hechler	-7651
▁meNjual	-7652
denbrooke	-7653
jek▁obama	-7654
▁chandler	-7655
▁dan▁kens	-7656
▁ke▁flens	-7657
▁lin▁zexu	-7658
▁peNseimb	-7659
▁simbolik	-7660
arl▁harbor	-7661
irkuit▁yas	-7662
▁23▁.▁45▁.	-7663
▁asty▁film	-7664
▁di▁amurru	-7665
▁kebetulan	-7666
▁perhiasan	-7667
▁rasa▁mual	-7668
hi▁di▁bulan	-7669
▁ejek▁obama	-7670
▁meNimbangi	-7671
ler▁yang▁ber	-7672
▁addenbrooke	-7673
▁golden▁gate	-7674
▁pacarnya▁di	-7675
▁sirkuit▁yas	-7676
▁sungai▁ohio	-7677
▁tell▁amarna	-7678
▁yuan▁shikai	-7679
abrik▁peNbuat	-7680
adian▁melalui	-7681
ado▁sebagai▁b	-7682
aga▁batu▁bara	-7683
ahan▁polonium	-7684
akan▁meNtulis	-7685
akan▁oleh▁f▁á	-7686
ak▁dua▁petani	-7687
ak▁meNlampaui	-7688
ak▁prasejarah	-7689
alabria▁kedua	-7690
alahkan▁musuh	-7691
al▁untuk▁unit	-7692
al▁yang▁kedua	-7693
aman▁intensif	-7694
ambarkan▁oleh	-7695
amental▁dalam	-7696
amudra▁hindia	-7697
anadian▁blood	-7698
ancurkan▁sisa	-7699
baz	-7700
bach	-7701
bazu	-7702
erba	-7703
bazuz	-7704
▁kerba	-7705
▁yerba	-7706
gabazuz	-7707
henbach	-7708
▁kerbau	-7709
▁meNperba	-7710
▁yerba▁bu	-7711
▁megabazuz	-7712
henbach▁oleh	-7713
nya▁berharap	-7714
▁berbicara▁p	-7715
▁ia▁meNtolak	-7716
▁meNperbaiki	-7717
▁meNseberang	-7718
▁paru▁kerbau	-7719
▁transisi▁ke	-7720
▁yerba▁buena	-7721
angan▁bioskop	-7722
angganya▁oleh	-7723
angun▁stasiun	-7724
ang▁legislasi	-7725
annya▁di▁well	-7726
annya▁meNcari	-7727
an▁komisi▁itu	-7728
an▁mereka▁meN	-7729
an▁model▁ramb	-7730
an▁nusa▁dan▁b	-7731
an▁paksa▁bert	-7732
apnnya▁segera	-7733
ap▁dan▁meNlar	-7734
ariasi▁dengan	-7735
armuka▁kecerd	-7736
ar▁dan▁raja▁f	-7737
asahi▁matanya	-7738
asia▁meNminta	-7739
asifik▁dan▁ma	-7740
asi▁baru▁yang	-7741
askan▁dan▁peN	-7742
as▁dan▁tumbuh	-7743
atan▁di▁rumah	-7744
atorium▁santa	-7745
at▁dalam▁loop	-7746
awasi▁program	-7747
ctorial▁under	-7748
da▁yang▁dapat	-7749
eau▁akan▁meNs	-7750
ebankan▁biaya	-7751
egel▁bahwa▁ia	-7752
ekam▁meNpakai	-7753
ekankan▁bahwa	-7754
eli▁kebutuhan	-7755
ell▁meNadakan	-7756
enis▁dorongan	-7757
entukan▁hukum	-7758
epatan▁dengan	-7759
epsionis▁miss	-7760
etapa▁inggris	-7761
e▁ke▁landmark	-7762
fat▁perubahan	-7763
guna▁daripada	-7764
ia▁untuk▁menn	-7765
ice▁yang▁meNb	-7766
idik▁di▁dalam	-7767
ily▁meNnikahi	-7768
imen▁polonium	-7769
inet▁tak▁lama	-7770
in▁di▁sekitar	-7771
iptakan▁celah	-7772
isahkan▁kedua	-7773
isi▁permukaan	-7774
ity▁of▁madrid	-7775
izinkan▁orang	-7776
i▁standar▁kec	-7777
i▁yang▁pindah	-7778
kamah▁agung▁a	-7779
kannya▁barang	-7780
kan▁di▁negara	-7781
kan▁peNtonton	-7782
lahirkan▁anak	-7783
let▁yang▁akan	-7784
le▁and▁select	-7785
le▁seringkali	-7786
luviose▁tahun	-7787
man▁di▁sebuah	-7788
m▁jalur▁bawah	-7789
nya▁mata▁uang	-7790
nya▁peNgunaan	-7791
nya▁tiga▁kali	-7792
ny▁adalah▁buj	-7793
obot▁humanoid	-7794
okan▁berbagai	-7795
olaholah▁dari	-7796
oleh▁reputasi	-7797
om▁dan▁pindah	-7798
ong▁hidup▁dan	-7799
▁gem	-7800
▁odi	-7801
matik	-7802
▁marx	-7803
▁pray	-7804
▁than	-7805
i▁kita	-7806
▁diram	-7807
▁gemar	-7808
▁the▁m	-7809
at▁than	-7810
ismatik	-7811
▁atau▁k	-7812
▁a▁pray	-7813
▁marxis	-7814
▁peNpan	-7815
▁peNpul	-7816
▁berlian	-7817
▁diramal	-7818
▁praktis	-7819
▁the▁mup	-7820
ahat▁than	-7821
i▁saat▁ia	-7822
sesi▁kita	-7823
umismatik	-7824
uran▁atau	-7825
▁antara▁a	-7826
▁atau▁kob	-7827
▁atau▁peN	-7828
▁a▁prayer	-7829
▁dan▁peNp	-7830
▁lagu▁hit	-7831
▁lain▁dan	-7832
▁mereka▁s	-7833
▁the▁mupp	-7834
an▁terbaik	-7835
t▁tersebut	-7836
uan▁mereka	-7837
▁antara▁ao	-7838
▁lain▁yang	-7839
▁marxismen	-7840
▁mobil▁itu	-7841
▁negara▁ba	-7842
▁pada▁peNp	-7843
▁pandang▁s	-7844
▁secara▁pr	-7845
▁yang▁seja	-7846
ahat▁thanos	-7847
ar▁dibangun	-7848
en▁dibangun	-7849
ulasi▁hanya	-7850
▁dan▁peNpuk	-7851
▁negara▁baw	-7852
▁negara▁dan	-7853
▁numismatik	-7854
▁proyek▁per	-7855
▁terbaiknya	-7856
▁the▁muppet	-7857
alaman▁tanpa	-7858
ebut▁wilayah	-7859
nya▁dibangun	-7860
nya▁ke▁dalam	-7861
tar▁dibangun	-7862
uncuran▁atau	-7863
▁antara▁aoun	-7864
▁atau▁peNlis	-7865
▁belanda▁itu	-7866
▁dengan▁nama	-7867
▁dukungannya	-7868
▁istri▁trump	-7869
▁ke▁dalamnya	-7870
▁lagu▁hitnya	-7871
▁marxismenya	-7872
▁meNkirimkan	-7873
▁obsesi▁kita	-7874
▁oleh▁negara	-7875
▁pesisir▁dan	-7876
▁secara▁priv	-7877
▁the▁muppets	-7878
▁tidak▁biasa	-7879
asal▁dari▁ini	-7880
ekulasi▁hanya	-7881
ong▁meNpenuhi	-7882
orie▁di▁barat	-7883
oroti▁keingin	-7884
s▁corporation	-7885
s▁dan▁semakin	-7886
tar▁di▁tengah	-7887
turun▁sekitar	-7888
tutupan▁total	-7889
uasai▁inggris	-7890
uhan▁meNselam	-7891
uhkan▁hukuman	-7892
umen▁tersebut	-7893
umumkan▁peNra	-7894
unjungi▁acara	-7895
untungan▁rata	-7896
up▁agung▁salz	-7897
ur▁itu▁adalah	-7898
usir▁populasi	-7899
alok	-7900
bert	-7901
ktel	-7902
osir	-7903
▁akp	-7904
▁thr	-7905
iklan	-7906
▁arus	-7907
▁cari	-7908
▁harv	-7909
▁kair	-7910
esalan	-7911
i▁hari	-7912
ktel▁l	-7913
▁cangk	-7914
▁carib	-7915
▁dibuj	-7916
▁di▁sw	-7917
▁hak▁c	-7918
▁kairs	-7919
▁parah	-7920
▁peNaj	-7921
▁thron	-7922
arungan	-7923
bert▁di	-7924
irannya	-7925
mukiman	-7926
wa▁di▁s	-7927
▁meNcat	-7928
▁para▁w	-7929
ak▁karel	-7930
amaannya	-7931
ati▁dari	-7932
e▁mereka	-7933
i▁paling	-7934
uli▁pada	-7935
▁dibujuk	-7936
▁di▁swed	-7937
▁ini▁dib	-7938
▁meNadap	-7939
▁peNpind	-7940
▁sang▁pr	-7941
▁thrones	-7942
dewa▁di▁s	-7943
ilirannya	-7944
ktel▁lind	-7945
uler▁kita	-7946
ungkapkan	-7947
▁arus▁kas	-7948
▁berusaha	-7949
▁hari▁itu	-7950
▁ini▁meNs	-7951
▁ke▁sabuk	-7952
▁meNcatat	-7953
alokasikan	-7954
annya▁meNj	-7955
bert▁diess	-7956
itik▁peNaj	-7957
wai▁paling	-7958
▁dari▁para	-7959
▁demi▁hari	-7960
▁kekesalan	-7961
▁laut▁kita	-7962
▁namun▁har	-7963
▁para▁agen	-7964
▁para▁wali	-7965
▁sang▁prok	-7966
▁yang▁bert	-7967
andingannya	-7968
eli▁di▁swed	-7969
inya▁kepada	-7970
ktel▁lindsa	-7971
ladewa▁di▁s	-7972
ritik▁peNaj	-7973
▁dan▁naskah	-7974
▁dengan▁meN	-7975
▁dibujuk▁ke	-7976
▁gilirannya	-7977
▁jika▁bulan	-7978
▁kaum▁carib	-7979
▁peNmukiman	-7980
▁reagan▁dan	-7981
▁sar▁secara	-7982
▁studi▁atau	-7983
▁tiga▁cangk	-7984
an▁mati▁dari	-7985
e▁of▁thrones	-7986
ktel▁lindsay	-7987
uawai▁paling	-7988
▁benak▁karel	-7989
▁kesamaannya	-7990
▁peNpindaian	-7991
▁peduli▁pada	-7992
▁pertarungan	-7993
▁setiap▁kali	-7994
annya▁meNjanj	-7995
at▁jika▁bulan	-7996
gabung▁dengan	-7997
kieli▁di▁swed	-7998
ungkapkan▁peN	-7999
”,	-8000
chn	-8001
anji	-8002
apas	-8003
urch	-8004
▁gch	-8005
▁mez	-8006
20▁--	-8007
ati▁p	-8008
chnol	-8009
her▁k	-8010
▁1832	-8011
▁2017	-8012
▁coup	-8013
▁gchq	-8014
▁kiri	-8015
▁meza	-8016
angkok	-8017
anji▁t	-8018
apas▁r	-8019
a▁di▁m	-8020
ujukan	-8021
▁aires	-8022
▁badut	-8023
▁tiber	-8024
ang▁dua	-8025
as▁di▁m	-8026
at▁baru	-8027
chnolog	-8028
et▁foto	-8029
um▁baru	-8030
urchill	-8031
uther▁k	-8032
▁pastor	-8033
▁tiberi	-8034
aka▁di▁m	-8035
chnology	-8036
fum▁baru	-8037
ina▁meNc	-8038
omosikan	-8039
ompati▁p	-8040
tisipasi	-8041
▁--▁2017	-8042
▁2020▁--	-8043
▁coup▁de	-8044
▁de▁meza	-8045
▁janji▁t	-8046
▁rujukan	-8047
apas▁rest	-8048
fset▁foto	-8049
▁akun▁tes	-8050
▁dan▁para	-8051
▁luther▁k	-8052
▁terpaksa	-8053
▁tiberius	-8054
endang▁dua	-8055
ormat▁baru	-8056
▁baru▁juga	-8057
▁churchill	-8058
▁kiri▁tepi	-8059
▁krisis▁su	-8060
▁luas▁di▁m	-8061
▁pastor▁he	-8062
apas▁restor	-8063
atakan▁oleh	-8064
▁akun▁tesco	-8065
▁badut▁bagi	-8066
▁coup▁de▁gr	-8067
▁di▁bangkok	-8068
▁oleh▁james	-8069
▁suaka▁di▁m	-8070
▁technology	-8071
amanya▁untuk	-8072
ar▁luas▁di▁m	-8073
evaluasi▁apa	-8074
ina▁meNcantu	-8075
▁baru▁dengan	-8076
▁de▁meza▁dib	-8077
▁format▁baru	-8078
▁janji▁tatan	-8079
▁krisis▁suez	-8080
▁lebih▁kecil	-8081
▁luther▁king	-8082
▁offset▁foto	-8083
▁parfum▁baru	-8084
▁partisipasi	-8085
▁pastor▁hein	-8086
▁rujukan▁ter	-8087
▁senat▁meNja	-8088
apas▁restoran	-8089
atakan▁oleh▁m	-8090
er▁technology	-8091
ina▁meNcantum	-8092
vatorium▁astr	-8093
wabnya▁secara	-8094
yang▁dan▁meNk	-8095
▁$▁25▁.▁000▁.	-8096
▁acara▁andrew	-8097
▁adalah▁titik	-8098
▁adalah▁tumor	-8099
eam	-8100
▁tro	-8101
asien	-8102
entet	-8103
indik	-8104
saing	-8105
▁dind	-8106
▁trud	-8107
entase	-8108
uran▁r	-8109
▁dream	-8110
▁kemih	-8111
▁peNsa	-8112
▁persa	-8113
▁petak	-8114
▁troya	-8115
entetan	-8116
▁bidang	-8117
▁commun	-8118
▁pasien	-8119
▁petaka	-8120
entase▁c	-8121
eritanya	-8122
saing▁di	-8123
ukuran▁r	-8124
▁a▁dream	-8125
▁dinding	-8126
ung▁kemih	-8127
▁meNindik	-8128
▁rentetan	-8129
formasi▁di	-8130
ungan▁saya	-8131
uran▁telah	-8132
▁sejak▁itu	-8133
▁telah▁ada	-8134
entase▁cond	-8135
eteksi▁efek	-8136
▁batas▁luar	-8137
▁dan▁bremen	-8138
▁federico▁f	-8139
▁film▁tahun	-8140
▁persaingan	-8141
▁telah▁meNl	-8142
entase▁condo	-8143
ian▁meNlihat	-8144
ras▁udara▁di	-8145
ukuran▁ringk	-8146
uran▁sebagai	-8147
▁ayam▁goreng	-8148
▁pasien▁peNd	-8149
▁sangat▁terp	-8150
ingungan▁saya	-8151
ne▁dan▁bremen	-8152
saing▁di▁kons	-8153
▁ada▁di▁kapal	-8154
▁agar▁ia▁bisa	-8155
▁agar▁peNguna	-8156
▁akan▁diaktif	-8157
▁akan▁meNlamb	-8158
▁akses▁ke▁alk	-8159
▁alasan▁besar	-8160
▁albania▁akan	-8161
▁aldrin▁sudah	-8162
▁alfabet▁baru	-8163
▁andi▁saat▁ia	-8164
▁and▁a▁prayer	-8165
▁antonio▁gaud	-8166
▁area▁perkota	-8167
▁artikel▁oleh	-8168
▁artis▁belgia	-8169
▁atau▁jajaran	-8170
▁atau▁seharus	-8171
▁bagian▁dalam	-8172
▁bagian▁delta	-8173
▁bagi▁barroso	-8174
▁bagi▁manusia	-8175
▁bagus▁itu▁di	-8176
▁bala▁tentara	-8177
▁balok▁tinggi	-8178
▁banyak▁kapel	-8179
▁begitu▁buruk	-8180
▁berada▁di▁as	-8181
▁berita▁cuaca	-8182
▁berkarbonasi	-8183
▁berkompetisi	-8184
▁berkontraksi	-8185
▁berlaku▁pada	-8186
▁bernard▁tapi	-8187
▁berorientasi	-8188
▁besaran▁juga	-8189
▁betapa▁sudah	-8190
▁biografi▁res	-8191
▁brice▁hortef	-8192
▁bukan▁barang	-8193
▁business▁itu	-8194
▁cadangan▁bes	-8195
▁carlos▁salas	-8196
▁ceko▁meNtemb	-8197
▁chandler▁dan	-8198
▁comey▁hampir	-8199
atr	-8200
ych	-8201
▁(“	-8202
asab	-8203
ment	-8204
oket	-8205
rani	-8206
satr	-8207
▁700	-8208
▁tik	-8209
▁veg	-8210
▁vok	-8211
gunya	-8212
ina▁c	-8213
ments	-8214
rebut	-8215
▁babi	-8216
▁rena	-8217
▁sana	-8218
an▁dim	-8219
asabah	-8220
h▁bank	-8221
satria	-8222
ychell	-8223
▁roket	-8224
▁tiket	-8225
▁veget	-8226
▁vokal	-8227
ak▁baru	-8228
ayatnya	-8229
ina▁cif	-8230
tungnya	-8231
▁anak▁m	-8232
▁di▁sil	-8233
▁lembut	-8234
▁naik▁b	-8235
▁pertob	-8236
▁serena	-8237
an▁ini▁t	-8238
ina▁cifu	-8239
rebutkan	-8240
satria▁l	-8241
uth▁bank	-8242
ychelles	-8243
▁lagunya	-8244
▁nasabah	-8245
▁negaran	-8246
▁renaiss	-8247
▁tersent	-8248
▁tiket▁f	-8249
adai▁bagi	-8250
okok▁peNr	-8251
oman▁akan	-8252
outh▁bank	-8253
satria▁ly	-8254
unak▁baru	-8255
▁dan▁ters	-8256
▁di▁silic	-8257
▁dua▁lagi	-8258
▁hayatnya	-8259
▁vegetasi	-8260
akan▁malam	-8261
an▁lagunya	-8262
satria▁lyv	-8263
toman▁akan	-8264
▁baik▁dari	-8265
▁baru▁dari	-8266
▁lanjut▁ke	-8267
▁metro▁inf	-8268
▁negaraneg	-8269
▁tersentak	-8270
▁untungnya	-8271
an▁ini▁tamp	-8272
awal▁lamarr	-8273
emu▁tentang	-8274
ina▁cifuent	-8275
okok▁peNraw	-8276
▁anak▁melak	-8277
▁dan▁mos▁ma	-8278
▁dan▁terseb	-8279
▁di▁silicon	-8280
▁ini▁bahkan	-8281
▁lunak▁baru	-8282
▁seychelles	-8283
▁south▁bank	-8284
angkan▁untuk	-8285
nya▁institut	-8286
or▁teknologi	-8287
satria▁lyvet	-8288
unan▁dan▁hub	-8289
▁bahwa▁badan	-8290
▁dengan▁para	-8291
▁investments	-8292
▁makan▁malam	-8293
▁meNkalahkan	-8294
▁renaissance	-8295
▁sisilia▁dan	-8296
▁untuk▁meNja	-8297
ana▁meNtandai	-8298
empat▁di▁roma	-8299
sl	-8300
pih	-8301
sen	-8302
sln	-8303
▁ve	-8304
▁beg	-8305
▁rez	-8306
▁fsln	-8307
▁serk	-8308
▁vega	-8309
▁color	-8310
▁rezim	-8311
or▁satu	-8312
▁di▁ant	-8313
▁lainny	-8314
▁messen	-8315
▁serpih	-8316
asa▁satu	-8317
▁dan▁á▁n	-8318
▁del▁est	-8319
▁ini▁beg	-8320
▁pertamb	-8321
▁rezim▁n	-8322
ak▁dengan	-8323
angan▁ant	-8324
ikut▁fsln	-8325
omor▁satu	-8326
▁colorado	-8327
▁lainnyas	-8328
▁peNusaha	-8329
▁satu▁ini	-8330
▁dia▁salah	-8331
▁di▁balkan	-8332
▁pasa▁satu	-8333
▁seperti▁d	-8334
▁yang▁rent	-8335
angan▁antar	-8336
▁ada▁banyak	-8337
▁alami▁jika	-8338
▁celah▁ther	-8339
▁dan▁á▁ngel	-8340
▁rezim▁nazi	-8341
migrasi▁dari	-8342
sa▁seperti▁d	-8343
▁adalah▁peta	-8344
▁celah▁therm	-8345
▁kerja▁paksa	-8346
▁sebelum▁pem	-8347
egangan▁antar	-8348
ina▁cifuentes	-8349
i▁yang▁rendah	-8350
lah▁dia▁salah	-8351
▁ada▁banyak▁m	-8352
▁contoh▁riset	-8353
▁cukup▁langka	-8354
▁dalam▁aturan	-8355
▁dalam▁aviasi	-8356
▁dalam▁dekade	-8357
▁dalam▁risiko	-8358
▁dalam▁urusan	-8359
▁dan▁belakang	-8360
▁dan▁harganya	-8361
▁dan▁ia▁harus	-8362
▁dan▁komentar	-8363
▁dan▁meNganti	-8364
▁dan▁meNhukum	-8365
▁dan▁meNtaruh	-8366
▁dan▁prosedur	-8367
▁dan▁tak▁lama	-8368
▁dan▁á▁ngel▁p	-8369
▁dari▁scythia	-8370
▁dekat▁sungai	-8371
▁dengan▁benar	-8372
▁dengan▁mudah	-8373
▁dengan▁woods	-8374
▁diakses▁jika	-8375
▁diberikan▁di	-8376
▁dih▁bbc▁worl	-8377
▁diikuti▁oleh	-8378
▁dikembangkan	-8379
▁dilegalisasi	-8380
▁dilema▁serup	-8381
▁dilihat▁oleh	-8382
▁dipasok▁oleh	-8383
▁diperlakukan	-8384
▁dipromosikan	-8385
▁direncanakan	-8386
▁ditarik▁dari	-8387
▁di▁billboard	-8388
▁di▁kedalaman	-8389
▁di▁peNadilan	-8390
▁di▁pinggiran	-8391
▁di▁pulau▁ini	-8392
▁di▁siang▁har	-8393
▁di▁sudut▁ada	-8394
▁di▁zaman▁dah	-8395
▁domestik▁dan	-8396
▁dominna▁suku	-8397
▁ekspedisi▁ke	-8398
▁email▁berbah	-8399
lack	-8400
▁...	-8401
iorum	-8402
istis	-8403
unjuk	-8404
utaan	-8405
▁upay	-8406
embaga	-8407
ter▁de	-8408
z▁bisa	-8409
▁kobal	-8410
ak▁bisa	-8411
e▁dan▁h	-8412
it▁bisa	-8413
▁berapi	-8414
▁di▁bbc	-8415
▁looper	-8416
▁mistis	-8417
ari▁saya	-8418
embagaan	-8419
itz▁bisa	-8420
pun▁bisa	-8421
r▁di▁bbc	-8422
▁nter▁de	-8423
▁pada▁si	-8424
▁pollack	-8425
▁terbang	-8426
adak▁bisa	-8427
e▁dan▁hus	-8428
litz▁bisa	-8429
uduk▁meNb	-8430
▁berbukit	-8431
▁bisa▁ber	-8432
▁bulan▁di	-8433
▁di▁kentu	-8434
▁kedutaan	-8435
▁meNsebut	-8436
▁upayanya	-8437
anya▁bulan	-8438
an▁meNjadi	-8439
an▁tentang	-8440
itari▁saya	-8441
ondon▁lalu	-8442
▁bisa▁juga	-8443
▁saya▁meNs	-8444
▁suara▁itu	-8445
▁untuk▁tay	-8446
arkan▁islam	-8447
e▁dan▁husum	-8448
▁banyak▁pak	-8449
▁di▁kentuck	-8450
▁duduk▁meNb	-8451
▁meski▁area	-8452
▁yang▁untuk	-8453
akan▁tentang	-8454
asan▁terbang	-8455
endadak▁bisa	-8456
injam▁antara	-8457
ondon▁lalu▁g	-8458
terlitz▁bisa	-8459
usi▁internet	-8460
▁bisa▁beranj	-8461
▁damai▁tidak	-8462
▁dan▁koneksi	-8463
▁dan▁pollack	-8464
▁disney▁juga	-8465
▁di▁kentucky	-8466
▁itu▁meNjadi	-8467
▁kedaluwarsa	-8468
▁kelembagaan	-8469
▁marr▁di▁bbc	-8470
▁meNjadi▁dua	-8471
▁meNkirim▁em	-8472
▁saluran▁dis	-8473
▁setelah▁kem	-8474
▁setelah▁peN	-8475
▁teman▁damai	-8476
ejabat▁jerman	-8477
elas▁bulan▁di	-8478
kusi▁internet	-8479
unjuk▁sebagai	-8480
▁ada▁kenaikan	-8481
▁akan▁meNjadi	-8482
▁andes▁tengah	-8483
▁bahwa▁mereka	-8484
▁baru▁pada▁si	-8485
▁episode▁baru	-8486
▁era▁keemasan	-8487
▁erik▁solheim	-8488
▁evakuasi▁itu	-8489
▁federalisasi	-8490
▁fiorello▁did	-8491
▁foto▁yang▁se	-8492
▁game▁obrolan	-8493
▁ganja▁dijual	-8494
▁garis▁imajin	-8495
▁garrard▁yang	-8496
▁gelar▁kaisar	-8497
▁harga▁bensin	-8498
▁hidup▁maupun	-8499
abu	-8500
ace	-8501
▁00	-8502
cana	-8503
epan	-8504
▁001	-8505
ampai	-8506
apati	-8507
awini	-8508
beria	-8509
gangg	-8510
iaran	-8511
▁daun	-8512
▁nuan	-8513
▁peNj	-8514
▁rabu	-8515
ganggu	-8516
iki▁de	-8517
▁.▁001	-8518
▁jeffr	-8519
▁kepal	-8520
▁thace	-8521
▁wilay	-8522
iki▁dee	-8523
isampai	-8524
▁berten	-8525
▁daun▁p	-8526
▁di▁kar	-8527
▁meNlol	-8528
▁tapi▁n	-8529
▁wacana	-8530
aisampai	-8531
▁jeffrey	-8532
▁lembaga	-8533
▁siberia	-8534
an▁wolmar	-8535
as▁partai	-8536
inya▁juga	-8537
kan▁kepal	-8538
u▁kontrol	-8539
▁15▁.▁001	-8540
▁adalah▁v	-8541
▁daun▁pin	-8542
▁kiki▁dee	-8543
▁meNlolos	-8544
▁peNjelas	-8545
▁proaktif	-8546
▁sebuah▁c	-8547
▁sebuah▁h	-8548
▁terdepan	-8549
al▁tentang	-8550
minya▁juga	-8551
operasikan	-8552
▁di▁karnak	-8553
▁meNkawini	-8554
▁tapi▁nasi	-8555
▁tentang▁i	-8556
▁terganggu	-8557
an▁keuangan	-8558
aru▁kontrol	-8559
atang▁untuk	-8560
▁atau▁tidak	-8561
▁celah▁meNt	-8562
▁jeffrey▁de	-8563
▁kebanyakan	-8564
▁keras▁nuan	-8565
▁sebuah▁hot	-8566
▁tapi▁nasib	-8567
▁tentang▁id	-8568
▁thace▁kini	-8569
arkas▁partai	-8570
engkan▁kepal	-8571
omal▁tentang	-8572
▁cendekiaran	-8573
▁dan▁meNaman	-8574
▁dan▁richard	-8575
▁daun▁pinang	-8576
▁meNloloskan	-8577
▁pada▁wacana	-8578
▁sebuah▁cinc	-8579
▁terus▁meNla	-8580
▁wilayan▁ini	-8581
an▁perusahaan	-8582
enakan▁bagian	-8583
i▁dan▁peNlobi	-8584
oman▁tersebut	-8585
▁celah▁meNteb	-8586
▁hitler▁dan▁p	-8587
▁imigran▁atau	-8588
▁impor▁bijian	-8589
▁ingin▁dijual	-8590
▁ini▁akan▁dir	-8591
▁ini▁begadang	-8592
▁ini▁biasanya	-8593
▁ini▁dalam▁se	-8594
▁ini▁dan▁dari	-8595
▁italia▁punya	-8596
▁itu▁dan▁saya	-8597
▁itu▁diterima	-8598
▁itu▁tak▁diny	-8599
gb	-8600
hs	-8601
ilh	-8602
engi	-8603
otom	-8604
▁isa	-8605
▁mgb	-8606
▁nhs	-8607
▁tra	-8608
ambat	-8609
enang	-8610
olong	-8611
▁2008	-8612
▁akut	-8613
▁isab	-8614
▁semi	-8615
golong	-8616
ilhami	-8617
nyanyi	-8618
otomac	-8619
wenang	-8620
▁s▁tra	-8621
a▁dewan	-8622
iratkan	-8623
▁di▁mar	-8624
▁isabel	-8625
b▁selama	-8626
engi▁itu	-8627
otomac▁r	-8628
▁meNalir	-8629
▁s▁traum	-8630
an▁di▁mar	-8631
db▁selama	-8632
iran▁yang	-8633
▁besar▁di	-8634
▁isabella	-8635
▁meNtangk	-8636
annya▁tapi	-8637
otomac▁riv	-8638
▁bahwa▁nhs	-8639
▁baru▁lagu	-8640
▁meNnyanyi	-8641
▁yang▁lama	-8642
an▁di▁marok	-8643
estasi▁yang	-8644
ikiran▁yang	-8645
ilhami▁oleh	-8646
▁dan▁apakah	-8647
▁disiratkan	-8648
▁kita▁perlu	-8649
▁lebih▁akut	-8650
▁maka▁dewan	-8651
▁meNtangkap	-8652
▁pdb▁selama	-8653
▁selama▁tah	-8654
ami▁kandidat	-8655
an▁di▁maroko	-8656
golongkannya	-8657
nya▁di▁bawah	-8658
otomac▁river	-8659
▁baru▁lagu▁h	-8660
ar▁lebih▁akut	-8661
le▁terkaitnya	-8662
▁albania▁yang	-8663
▁diambil▁alih	-8664
▁di▁dalam▁mgb	-8665
▁itu▁terbakar	-8666
▁jahat▁thanos	-8667
▁jemu▁tentang	-8668
▁jesse▁labroc	-8669
▁joan▁meNjadi	-8670
▁juga▁meNbuka	-8671
▁kali▁ini▁dia	-8672
▁kandungannya	-8673
▁karakter▁itu	-8674
▁karena▁cuaca	-8675
▁kariernya▁di	-8676
▁kasus▁peNtus	-8677
▁keadaan▁berb	-8678
▁kecuali▁saya	-8679
▁kedua▁monark	-8680
▁kekhawatiran	-8681
▁kelihatannya	-8682
▁kepada▁media	-8683
▁kepahlawanan	-8684
▁kepulauan▁gr	-8685
▁keterampilan	-8686
▁ke▁arah▁yang	-8687
▁ke▁dalam▁per	-8688
▁ke▁flensburg	-8689
▁ke▁puterinya	-8690
▁khusus▁obama	-8691
▁kipling▁juga	-8692
▁klaim▁ke▁tah	-8693
▁koleksi▁bila	-8694
▁koleksi▁uang	-8695
▁koloninya▁pu	-8696
▁kondisi▁roda	-8697
▁kontribusi▁f	-8698
▁kontrol▁tamb	-8699
11	-8700
511	-8701
yla	-8702
^511	-8703
emud	-8704
ratt	-8705
ulas	-8706
ylae	-8707
▁juj	-8708
▁ula	-8709
▁yay	-8710
emudi	-8711
icata	-8712
is▁di	-8713
▁aran	-8714
▁le▁f	-8715
▁wint	-8716
atahan	-8717
ekatan	-8718
opylae	-8719
umahan	-8720
▁.▁500	-8721
▁arans	-8722
▁dalih	-8723
▁di▁th	-8724
▁jujur	-8725
▁rekor	-8726
▁winto	-8727
inggian	-8728
▁bertop	-8729
▁ia▁pun	-8730
▁lembah	-8731
▁le▁fig	-8732
ill▁noma	-8733
ulasinya	-8734
umahan▁g	-8735
▁barratt	-8736
▁berdamp	-8737
▁bertopi	-8738
▁di▁bank	-8739
▁keempat	-8740
▁oleh▁ju	-8741
▁wintour	-8742
▁yayasan	-8743
ah▁sekali	-8744
asilicata	-8745
▁16▁.▁500	-8746
▁banyak▁r	-8747
▁bayi▁din	-8748
▁dimiliki	-8749
▁di▁thess	-8750
▁sebanyak	-8751
▁yang▁dic	-8752
atahan▁ind	-8753
etak▁rekor	-8754
umahan▁gta	-8755
▁aransemen	-8756
▁dan▁trump	-8757
▁le▁figaro	-8758
▁oleh▁juan	-8759
▁peNkemudi	-8760
▁sudah▁ada	-8761
▁waktu▁dan	-8762
▁yang▁hari	-8763
atahan▁indo	-8764
at▁bayi▁din	-8765
opylae▁yang	-8766
▁asal▁semua	-8767
▁dan▁proyek	-8768
▁di▁glasgow	-8769
▁di▁thessal	-8770
▁jujur▁saja	-8771
▁ketinggian	-8772
▁komunis▁di	-8773
▁peNdekatan	-8774
▁seperti▁ob	-8775
la▁dan▁trump	-8776
▁dari▁banyak	-8777
▁di▁thessaly	-8778
▁ia▁pun▁bisa	-8779
▁populasinya	-8780
▁yayasan▁itu	-8781
aran▁yang▁ber	-8782
ersihkan▁laut	-8783
ipat▁bayi▁din	-8784
▁berdampingan	-8785
▁dekat▁dengan	-8786
▁dengan▁dalih	-8787
▁identifikasi	-8788
▁kota▁ini▁meN	-8789
▁kota▁moravia	-8790
▁kota▁ontario	-8791
▁kota▁pesisir	-8792
▁kriminal▁dan	-8793
▁laguna▁kecil	-8794
▁lagu▁yang▁di	-8795
▁latihan▁angk	-8796
▁layar▁dengan	-8797
▁lewat▁lilles	-8798
▁lokal▁di▁pel	-8799
cb	-8800
ktr	-8801
▁ki	-8802
10▁,	-8803
ebot	-8804
orot	-8805
sela	-8806
▁5▁,	-8807
▁ecb	-8808
▁ela	-8809
▁mot	-8810
angku	-8811
elomp	-8812
esktr	-8813
oresp	-8814
sebot	-8815
▁bela	-8816
▁camp	-8817
▁5▁,▁7	-8818
▁campb	-8819
▁esktr	-8820
▁kiera	-8821
▁motoc	-8822
▁peNab	-8823
▁sekel	-8824
▁sekut	-8825
akannya	-8826
anginya	-8827
selatan	-8828
▁1610▁,	-8829
▁elaine	-8830
▁kieraa	-8831
▁peNteg	-8832
atif▁ecb	-8833
orespond	-8834
▁disorot	-8835
▁dominan	-8836
▁esktrem	-8837
▁georges	-8838
▁meNdeng	-8839
▁peNangg	-8840
▁ujar▁sa	-8841
akannya▁r	-8842
▁massebot	-8843
▁meNmudah	-8844
▁motocros	-8845
▁pertengk	-8846
▁ujar▁saq	-8847
ga▁dominan	-8848
ogatif▁ecb	-8849
▁ada▁pohon	-8850
▁bela▁diri	-8851
▁dan▁sekut	-8852
▁ia▁meNper	-8853
▁ia▁sangat	-8854
▁meNberi▁t	-8855
▁peNabaian	-8856
▁peNkelomp	-8857
onakannya▁r	-8858
▁dengan▁jam	-8859
▁ia▁meNperk	-8860
▁peNtegakan	-8861
▁sama▁besar	-8862
▁sekelompok	-8863
▁tanamannya	-8864
▁ujar▁saqib	-8865
aiga▁dominan	-8866
anginya▁dari	-8867
an▁merupakan	-8868
erogatif▁ecb	-8869
inya▁sebagai	-8870
orespondensi	-8871
▁adalah▁alat	-8872
▁dan▁achaean	-8873
▁dan▁prancis	-8874
▁juga▁sangat	-8875
▁meNmudahkan	-8876
▁orang▁lebih	-8877
gelamkan▁diri	-8878
▁anda▁meNdeng	-8879
▁esktrem▁dari	-8880
▁kristen▁meNk	-8881
▁lord▁halifax	-8882
▁mahasiswa▁di	-8883
▁maksimal▁den	-8884
▁malah▁diteor	-8885
▁manajemennya	-8886
▁marah▁sekali	-8887
▁martin▁belum	-8888
▁masuk▁ke▁mah	-8889
▁mau▁berjalan	-8890
▁meNberi▁tunj	-8891
▁meNbuat▁sang	-8892
▁meNcakup▁sam	-8893
▁meNcapai▁res	-8894
▁meNcengkeram	-8895
▁meNceritakan	-8896
▁meNklik▁taut	-8897
▁meNlaju▁ke▁t	-8898
▁meNlompati▁p	-8899
▁22	-8900
▁rt	-8901
engo	-8902
hire	-8903
▁193	-8904
▁221	-8905
▁lub	-8906
inter	-8907
opang	-8908
▁diam	-8909
▁reig	-8910
atikan	-8911
empeng	-8912
engapa	-8913
ultasi	-8914
▁$▁221	-8915
▁edgar	-8916
▁manus	-8917
▁payah	-8918
▁reign	-8919
an▁data	-8920
▁1933▁,	-8921
▁lubumb	-8922
▁manusk	-8923
at▁dan▁p	-8924
ir▁utara	-8925
opangnya	-8926
ulistiwa	-8927
▁lempeng	-8928
▁marengo	-8929
▁meNteng	-8930
▁peNungk	-8931
▁vatikan	-8932
interaksi	-8933
▁berramai	-8934
▁lubumbas	-8935
▁namun▁ke	-8936
▁reign▁of	-8937
▁rttember	-8938
an▁mengapa	-8939
atulistiwa	-8940
ik▁lempeng	-8941
▁jika▁peNl	-8942
▁peNangkut	-8943
▁relatives	-8944
▁rttemberg	-8945
▁tapi▁sama	-8946
annya▁tidak	-8947
entuhan▁ini	-8948
p▁sepanjang	-8949
▁beberapa▁b	-8950
▁diberi▁keb	-8951
▁film▁edgar	-8952
▁konsultasi	-8953
▁peNpadatan	-8954
an▁jika▁peNl	-8955
i▁yang▁belum	-8956
jazair▁utara	-8957
onik▁lempeng	-8958
otret▁stereo	-8959
▁dan▁masalah	-8960
▁jerman▁diam	-8961
▁larry▁vance	-8962
▁pada▁banyak	-8963
▁payah▁dalam	-8964
▁peNangkutan	-8965
▁peNungkapan	-8966
▁vatikan▁dan	-8967
ambridgeshire	-8968
apannya▁tidak	-8969
at▁dan▁publik	-8970
▁bagian▁barat	-8971
▁berinteraksi	-8972
▁ia▁meNkelola	-8973
▁khatulistiwa	-8974
▁meNmilikinya	-8975
▁meNrasa▁kuat	-8976
▁meNsampaikan	-8977
▁meNtarik▁kes	-8978
▁meNtingkat▁t	-8979
▁meNtonjolkan	-8980
▁meNtuju▁saya	-8981
▁meNtulis▁ula	-8982
▁medis▁mereka	-8983
▁mengapa▁saya	-8984
▁mesir▁bagian	-8985
▁meski▁materi	-8986
▁metro▁adalah	-8987
▁mobil▁dengan	-8988
▁mobil▁paling	-8989
▁mulai▁dengan	-8990
▁musuh▁publik	-8991
▁naik▁banding	-8992
▁namun▁mereka	-8993
▁nasabah▁bank	-8994
▁national▁sav	-8995
▁negaranegara	-8996
▁negara▁islam	-8997
▁negara▁untuk	-8998
▁new▁earth▁di	-8999
gal	-9000
osc	-9001
ugb	-9002
ih▁m	-9003
masa	-9004
opon	-9005
sika	-9006
ugby	-9007
utos	-9008
▁emp	-9009
▁puj	-9010
▁sos	-9011
brina	-9012
intus	-9013
oponn	-9014
▁3▁%,	-9015
▁helm	-9016
▁laur	-9017
▁mosc	-9018
an▁bum	-9019
ar▁dip	-9020
encian	-9021
enggar	-9022
ujih▁m	-9023
▁angel	-9024
▁autos	-9025
▁empir	-9026
▁gagal	-9027
▁rugby	-9028
▁sosok	-9029
ap▁mosc	-9030
masalah	-9031
oponnes	-9032
umpuhan	-9033
▁berapa	-9034
▁bisa▁t	-9035
▁buatan	-9036
▁permes	-9037
▁pujian	-9038
an▁orang	-9039
an▁rugby	-9040
ine▁news	-9041
▁korsika	-9042
▁laurent	-9043
▁meNtund	-9044
▁sabrina	-9045
antar▁dip	-9046
apa▁orang	-9047
ari▁bahwa	-9048
▁di▁dasar	-9049
▁helm▁sep	-9050
▁korintus	-9051
▁lama▁ini	-9052
ap▁moscone	-9053
aran▁akhir	-9054
ive▁martin	-9055
▁bisa▁tumb	-9056
▁gagal▁pan	-9057
▁kebencian	-9058
▁memungkin	-9059
▁nine▁news	-9060
▁peNdatang	-9061
adari▁bahwa	-9062
araan▁rugby	-9063
asan▁buatan	-9064
enapa▁orang	-9065
ujih▁mangan	-9066
▁akan▁meNba	-9067
▁awal▁tahun	-9068
▁dalam▁perj	-9069
▁dari▁bulan	-9070
▁empire▁dan	-9071
▁kelumpuhan	-9072
▁kolonisasi	-9073
▁pas▁dengan	-9074
▁permesinan	-9075
▁ponsel▁mat	-9076
▁propaganda	-9077
antar▁dipind	-9078
ar▁tidak▁ada	-9079
ca▁nine▁news	-9080
intaan▁orang	-9081
osisi▁kepada	-9082
utive▁martin	-9083
▁atau▁berapa	-9084
▁dari▁caesar	-9085
▁gagal▁panen	-9086
▁helm▁sepeda	-9087
▁lama▁ini▁ia	-9088
▁orang▁tidak	-9089
▁ponsel▁mate	-9090
▁pujian▁atas	-9091
▁saran▁akhir	-9092
▁tergesagesa	-9093
arth▁jennings	-9094
juaraan▁rugby	-9095
oponnesus▁dan	-9096
ut▁dari▁bulan	-9097
▁atap▁moscone	-9098
▁bisa▁tumbang	-9099
hub	-9100
lub	-9101
alek	-9102
anit	-9103
egal	-9104
jara	-9105
pres	-9106
anite	-9107
endur	-9108
urati	-9109
ulanya	-9110
▁bersa	-9111
ekspres	-9112
hubungi	-9113
ing▁mei	-9114
menerus	-9115
▁austro	-9116
▁dialek	-9117
▁ilegal	-9118
▁kendur	-9119
▁of▁art	-9120
▁peNgil	-9121
▁ringan	-9122
▁ternak	-9123
ikulanya	-9124
uat▁dari	-9125
urati▁ir	-9126
▁di▁klub	-9127
▁penjara	-9128
▁akan▁ber	-9129
▁dan▁akan	-9130
▁meNlebih	-9131
▁ping▁mei	-9132
ca▁records	-9133
utikulanya	-9134
▁akan▁meNb	-9135
▁buku▁hari	-9136
▁meNintegr	-9137
▁meNlebihi	-9138
cca▁records	-9139
in▁ping▁mei	-9140
▁bersaudara	-9141
▁dialek▁fin	-9142
▁empat▁lagi	-9143
▁ingin▁meNc	-9144
▁meNekspres	-9145
▁peNbenaran	-9146
▁saya▁telah	-9147
i▁pada▁tahun	-9148
▁film▁ringan	-9149
▁kutikulanya	-9150
▁muncul▁di▁c	-9151
▁peNgilingan	-9152
▁sebagai▁res	-9153
▁terlindungi	-9154
anya▁akan▁ber	-9155
hubungi▁telah	-9156
uat▁dari▁kayu	-9157
▁delapan▁film	-9158
▁jasmine▁juga	-9159
▁jin▁ping▁mei	-9160
▁meNtundukkan	-9161
▁mereka▁lahir	-9162
▁muncul▁di▁ct	-9163
▁nicolai▁berk	-9164
▁november▁dan	-9165
▁obermarsberg	-9166
▁oleh▁badan▁m	-9167
▁oleh▁beijing	-9168
▁opsi▁vantage	-9169
▁orang▁dewasa	-9170
▁organization	-9171
▁ottoman▁tapi	-9172
▁pabrik▁kapas	-9173
▁pada▁awalnya	-9174
▁paling▁bodoh	-9175
▁para▁tahanan	-9176
▁pasangan▁itu	-9177
▁paus▁paul▁vi	-9178
▁peNdidikan▁k	-9179
▁peNdiri▁hack	-9180
▁peNikut▁fsln	-9181
▁peNlariannya	-9182
▁peNsebab▁kel	-9183
▁peNtopangnya	-9184
▁pearl▁harbor	-9185
▁penangguhkan	-9186
▁pengecualian	-9187
▁perangnya▁di	-9188
▁perang▁serta	-9189
▁perang▁troya	-9190
▁percaya▁diri	-9191
▁persis▁dekat	-9192
▁pertambangan	-9193
▁pertengkaran	-9194
▁pertentangan	-9195
▁petaka▁untuk	-9196
▁pisang▁dan▁p	-9197
▁platform▁ini	-9198
▁pola▁yang▁di	-9199
12	-9200
12$	-9201
epb	-9202
eguh	-9203
▁bia	-9204
▁kos	-9205
▁sku	-9206
berla	-9207
ena▁d	-9208
epian	-9209
onsum	-9210
▁512$	-9211
▁biay	-9212
▁hepb	-9213
▁puas	-9214
▁rich	-9215
ambang	-9216
ena▁dw	-9217
la▁kem	-9218
▁(▁195	-9219
▁alian	-9220
▁sigur	-9221
▁skuad	-9222
▁teguh	-9223
amberla	-9224
untutan	-9225
▁1969▁,	-9226
▁consum	-9227
▁pendah	-9228
▁winham	-9229
ena▁dwik	-9230
gala▁kem	-9231
hentikan	-9232
nya▁bisa	-9233
ustralia	-9234
▁aliansi	-9235
▁hepburn	-9236
▁sigur▁r	-9237
amberlain	-9238
atasannya	-9239
australia	-9240
ira▁bahwa	-9241
▁dua▁dari	-9242
▁kesepian	-9243
▁ke▁orang	-9244
▁pendahul	-9245
▁tuntutan	-9246
alih▁ke▁kr	-9247
er▁yang▁di	-9248
isi▁negara	-9249
ukan▁bahwa	-9250
▁(▁1954▁),	-9251
▁bahwa▁roc	-9252
▁didakwa▁t	-9253
▁dua▁orang	-9254
▁omong▁kos	-9255
▁tanda▁per	-9256
▁tulis▁ped	-9257
der▁yang▁di	-9258
egang▁teguh	-9259
ena▁dwikutu	-9260
tulis▁surat	-9261
▁kira▁bahwa	-9262
▁lasse▁hall	-9263
▁tanda▁perp	-9264
alih▁ke▁kred	-9265
atasannya▁ke	-9266
ena▁dwikutub	-9267
ung▁ke▁orang	-9268
▁adalah▁mojm	-9269
▁chamberlain	-9270
▁dan▁pekerja	-9271
▁dari▁negara	-9272
▁didakwa▁tas	-9273
▁khusus▁pada	-9274
▁lasse▁halls	-9275
▁meNjadi▁sas	-9276
▁oleh▁christ	-9277
▁pendahuluan	-9278
▁untuk▁riset	-9279
ar▁dihentikan	-9280
entikkan▁bola	-9281
iksi▁terakhir	-9282
▁baru▁cina▁ad	-9283
▁politisi▁dan	-9284
▁polonium▁dan	-9285
▁posisi▁ramah	-9286
▁pos▁terdepan	-9287
▁prinsip▁peNp	-9288
▁puluhan▁bank	-9289
▁putri▁dianim	-9290
▁rabu▁tentang	-9291
▁radio▁dan▁tv	-9292
▁raja▁gongmin	-9293
▁raja▁salaman	-9294
▁rekonstruksi	-9295
▁rendah▁telah	-9296
▁republik▁ini	-9297
▁retrospektif	-9298
▁ribuan▁tahun	-9299
▁32	-9300
▁db	-9301
iaan	-9302
ukul	-9303
▁328	-9304
▁any	-9305
▁hfc	-9306
▁jok	-9307
▁sky	-9308
tuasi	-9309
▁56▁%	-9310
▁bawa	-9311
▁dbad	-9312
▁skyl	-9313
agiaan	-9314
era▁ir	-9315
imanya	-9316
ouglas	-9317
▁	-9318
a	-9319
n	-9320
e	-9321
i	-9322
t	-9323
r	-9324
u	-9325
k	-9326
s	-9327
d	-9328
m	-9329
l	-9330
g	-9331
p	-9332
b	-9333
h	-9334
o	-9335
y	-9336
N	-9337
.	-9338
,	-9339
j	-9340
c	-9341
w	-9342
f	-9343
1	-9344
0	-9345
v	-9346
2	-9347
9	-9348
3	-9349
5	-9350
“	-9351
”	-9352
z	-9353
6	-9354
8	-9355
7	-9356
4	-9357
(	-9358
)	-9359
$	-9360
A	-9361
D	-9362
H	-9363
S	-9364
^	-9365
:	-9366
-	-9367
'	-9368
x	-9369
%	-9370
;	-9371
?	-9372
q	-9373
á	-9374
