<unk>	0
<s>	0
</s>	0
an	-0
▁d	-1
er	-2
en	-3
▁m	-4
▁s	-5
▁p	-6
ar	-7
ang	-8
▁t	-9
▁b	-10
in	-11
la	-12
▁k	-13
un	-14
at	-15
ak	-16
▁di	-17
em	-18
ah	-19
▁men	-20
▁se	-21
as	-22
ad	-23
ya	-24
tu	-25
kan	-26
al	-27
▁y	-28
is	-29
▁yang	-30
am	-31
ada	-32
▁dan	-33
▁ke	-34
ik	-35
on	-36
ing	-37
▁i	-38
▁per	-39
▁h	-40
lah	-41
ap	-42
or	-43
▁ber	-44
nya	-45
ga	-46
il	-47
es	-48
eng	-49
us	-50
ara	-51
▁mem	-52
ut	-53
lam	-54
ari	-55
▁in	-56
ek	-57
el	-58
▁r	-59
▁meng	-60
▁ter	-61
▁j	-62
ir	-63
it	-64
ol	-65
▁un	-66
akan	-67
um	-68
id	-69
▁l	-70
ur	-71
tuk	-72
▁untuk	-73
ia	-74
▁n	-75
▁pada	-76
eb	-77
▁ini	-78
▁seb	-79
ung	-80
engan	-81
uk	-82
▁dengan	-83
▁itu	-84
alam	-85
▁dari	-86
ul	-87
asi	-88
▁tah	-89
ti	-90
▁a	-91
▁c	-92
ian	-93
▁dalam	-94
▁tahun	-95
et	-96
ih	-97
▁la	-98
▁g	-99
▁mer	-100
idak	-101
im	-102
▁sa	-103
▁1	-104
ent	-105
▁ada	-106
and	-107
elah	-108
wa	-109
▁tidak	-110
ud	-111
si	-112
uh	-113
▁ba	-114
ama	-115
▁pen	-116
▁memb	-117
emb	-118
ta	-119
per	-120
orang	-121
om	-122
ed	-123
ja	-124
asa	-125
aga	-126
▁pr	-127
ela	-128
▁w	-129
eh	-130
▁ia	-131
▁f	-132
eka	-133
anya	-134
eg	-135
▁bah	-136
▁adalah	-137
tr	-138
oleh	-139
▁mereka	-140
ua	-141
agai	-142
ingg	-143
angan	-144
▁oleh	-145
ep	-146
any	-147
ok	-148
ata	-149
▁pem	-150
up	-151
ub	-152
▁yang▁di	-153
isi	-154
▁pert	-155
▁sebagai	-156
ant	-157
▁telah	-158
▁akan	-159
▁meny	-160
os	-161
ukan	-162
▁pada▁tahun	-163
apa	-164
emp	-165
esar	-166
ikan	-167
▁bahwa	-168
▁orang	-169
ika	-170
lama	-171
adi	-172
▁mend	-173
▁peng	-174
op	-175
atu	-176
end	-177
ter	-178
▁kon	-179
▁menj	-180
ebih	-181
ot	-182
ula	-183
inya	-184
gi	-185
▁2	-186
▁“	-187
ana	-188
▁lebih	-189
▁set	-190
od	-191
▁19	-192
atan	-193
gian	-194
▁sek	-195
▁tent	-196
anyak	-197
ic	-198
amp	-199
ali	-200
▁banyak	-201
▁ju	-202
ahan	-203
int	-204
isa	-205
ulan	-206
▁besar	-207
ob	-208
▁bar	-209
angg	-210
▁kem	-211
▁selama	-212
angk	-213
ab	-214
uah	-215
▁20	-216
▁sem	-217
▁juga	-218
ib	-219
sa	-220
apat	-221
▁kep	-222
▁sebuah	-223
lu	-224
anj	-225
uan	-226
▁ak	-227
aran	-228
▁kar	-229
ong	-230
ebut	-231
▁bisa	-232
api	-233
perti	-234
▁satu	-235
uj	-236
hir	-237
▁bulan	-238
▁mengh	-239
▁menjadi	-240
▁setelah	-241
▁tentang	-242
ist	-243
amb	-244
cara	-245
▁saya	-246
uat	-247
▁ant	-248
▁dib	-249
▁nam	-250
empat	-251
▁seperti	-252
aan	-253
▁ser	-254
▁namun	-255
ota	-256
▁al	-257
▁neg	-258
▁sang	-259
aya	-260
ena	-261
iki	-262
wan	-263
▁as	-264
atas	-265
▁mel	-266
▁terb	-267
▁ters	-268
▁memil	-269
▁v	-270
ind	-271
erja	-272
▁bagian	-273
ati	-274
gun	-275
annya	-276
▁tapi	-277
▁tr	-278
ungk	-279
▁saat	-280
anc	-281
iri	-282
ita	-283
atakan	-284
▁sangat	-285
amer	-286
elum	-287
▁pas	-288
▁baru	-289
▁di▁m	-290
▁sela	-291
utu	-292
▁ar	-293
▁ka	-294
▁ti	-295
▁mela	-296
▁menc	-297
ki	-298
▁bi	-299
adap	-300
alan	-301
eber	-302
uran	-303
▁pol	-304
▁hari	-305
▁pemb	-306
▁memiliki	-307
ch	-308
▁(	-309
ulai	-310
▁bert	-311
▁para	-312
▁pend	-313
ungkin	-314
ain	-315
▁har	-316
▁par	-317
▁tan	-318
▁di▁s	-319
▁antara	-320
▁negara	-321
▁secara	-322
▁tersebut	-323
00	-324
ami	-325
ris	-326
atau	-327
udah	-328
ungan	-329
▁atau	-330
▁lain	-331
angkan	-332
▁pemer	-333
▁ag	-334
▁kek	-335
ingga	-336
▁seorang	-337
▁o	-338
eri	-339
▁re	-340
▁th	-341
aman	-342
anda	-343
onal	-344
usia	-345
▁hal	-346
▁kota	-347
▁yang▁ber	-348
est	-349
▁er	-350
▁su	-351
▁201	-352
▁dis	-353
▁masa	-354
gunakan	-355
▁karena	-356
▁pemerint	-357
ag	-358
og	-359
ila	-360
▁dua	-361
▁ked	-362
▁sej	-363
▁beber	-364
▁pertama	-365
▁beberapa	-366
ber	-367
ump	-368
▁ek	-369
▁si	-370
elas	-371
ingk	-372
▁ker	-373
▁mas	-374
▁amer	-375
inggal	-376
▁hingga	-377
▁perang	-378
▁membuat	-379
le	-380
▁3	-381
tan	-382
▁ap	-383
▁ut	-384
entu	-385
▁kes	-386
▁ket	-387
▁sed	-388
▁sep	-389
▁baik	-390
▁terh	-391
▁mulai	-392
▁sudah	-393
▁e	-394
ont	-395
wal	-396
▁lu	-397
▁me	-398
itar	-399
uhan	-400
▁dip	-401
▁dir	-402
▁sel	-403
akhir	-404
ingan	-405
ingin	-406
▁berb	-407
▁laut	-408
▁pers	-409
ekerja	-410
▁hanya	-411
ans	-412
lik	-413
▁ma	-414
▁sp	-415
ilih	-416
unan	-417
▁mes	-418
▁pun	-419
▁kemb	-420
▁perj	-421
▁amerika	-422
▁kembali	-423
▁sebelum	-424
ola	-425
orm	-426
ihat	-427
itik	-428
▁mus	-429
atkan	-430
▁sekitar	-431
▁terhadap	-432
ai	-433
ea	-434
ima	-435
▁ab	-436
▁kh	-437
angi	-438
asil	-439
ustr	-440
▁dit	-441
▁fil	-442
▁ind	-443
▁kom	-444
▁tet	-445
▁berk	-446
▁ingg	-447
▁dapat	-448
▁inggris	-449
▁mendapat	-450
oh	-451
pa	-452
ini	-453
▁an	-454
▁de	-455
▁uj	-456
idup	-457
ikut	-458
unia	-459
usah	-460
▁kec	-461
▁mar	-462
▁pal	-463
▁pel	-464
▁wak	-465
▁di▁b	-466
▁film	-467
▁kami	-468
▁luar	-469
▁dunia	-470
▁tempat	-471
▁terakhir	-472
ig	-473
ili	-474
las	-475
unj	-476
yah	-477
▁dia	-478
agian	-479
angka	-480
kukan	-481
ukkan	-482
▁awal	-483
▁sama	-484
▁send	-485
▁kepada	-486
▁mungkin	-487
▁selatan	-488
▁sendiri	-489
▁mengatakan	-490
ac	-491
af	-492
aw	-493
ec	-494
ju	-495
ow	-496
imp	-497
und	-498
▁is	-499
▁ja	-500
▁st	-501
sung	-502
arkan	-503
▁bers	-504
▁terl	-505
upakan	-506
▁akhir	-507
▁harus	-508
▁kedua	-509
▁waktu	-510
▁pemerintah	-511
iv	-512
har	-513
man	-514
alia	-515
ania	-516
arah	-517
uang	-518
utus	-519
▁apa	-520
▁dik	-521
▁keb	-522
▁pes	-523
▁sen	-524
▁abad	-525
▁peny	-526
▁saja	-527
▁wila	-528
▁semua	-529
▁tetap	-530
ip	-531
ne	-532
ill	-533
ode	-534
opa	-535
tur	-536
uka	-537
unc	-538
▁of	-539
akin	-540
ensi	-541
iter	-542
ulis	-543
▁tak	-544
ahkan	-545
entuk	-546
▁kons	-547
▁ujar	-548
▁eropa	-549
▁mengg	-550
▁tangg	-551
usahaan	-552
▁wilayah	-553
▁sebagian	-554
▁merupakan	-555
ay	-556
mb	-557
▁z	-558
enc	-559
ger	-560
ogi	-561
ses	-562
usi	-563
▁br	-564
antu	-565
emen	-566
iden	-567
luar	-568
main	-569
olah	-570
▁tek	-571
ampil	-572
inggi	-573
ologi	-574
▁kita	-575
enting	-576
ilihan	-577
nya▁di	-578
▁diper	-579
▁tiong	-580
angsung	-581
▁di▁mana	-582
▁untuk▁mem	-583
▁untuk▁men	-584
▁mendapatkan	-585
0-	-586
ov	-587
ers	-588
hen	-589
ium	-590
tus	-591
uku	-592
▁18	-593
▁gr	-594
umum	-595
unga	-596
▁200	-597
▁pos	-598
ambil	-599
i▁dan	-600
udara	-601
▁berd	-602
▁jika	-603
▁lagi	-604
▁nama	-605
▁hidup	-606
▁salah	-607
▁suara	-608
▁utara	-609
▁bahasa	-610
▁keluar	-611
▁bekerja	-612
▁tanggal	-613
▁pada▁bulan	-614
▁perusahaan	-615
,”	-616
gu	-617
if	-618
ug	-619
000	-620
aik	-621
aja	-622
ina	-623
kok	-624
ons	-625
osi	-626
por	-627
tai	-628
uta	-629
asan	-630
enal	-631
eral	-632
iran	-633
itas	-634
onom	-635
uasa	-636
usus	-637
vest	-638
▁did	-639
▁din	-640
▁kap	-641
▁keh	-642
▁rep	-643
angsa	-644
arang	-645
istem	-646
ublik	-647
ulkan	-648
▁atas	-649
▁lalu	-650
▁pres	-651
▁tiga	-652
anjang	-653
▁inter	-654
▁jelas	-655
▁kemud	-656
▁kontr	-657
▁tanpa	-658
▁khusus	-659
▁paling	-660
▁tiongkok	-661
▁yang▁men	-662
▁sebagian▁besar	-663
di	-664
ej	-665
ev	-666
pr	-667
mas	-668
utr	-669
wah	-670
yar	-671
▁ch	-672
▁kr	-673
▁pa	-674
▁sm	-675
an▁m	-676
enuh	-677
inta	-678
ulau	-679
urat	-680
▁air	-681
▁dep	-682
▁pan	-683
▁rom	-684
▁tem	-685
anjut	-686
ember	-687
umlah	-688
▁bagi	-689
▁di▁p	-690
anjian	-691
▁austr	-692
▁meski	-693
▁berada	-694
▁menyer	-695
an▁untuk	-696
kan▁bahwa	-697
▁kemudian	-698
▁mengambil	-699
▁pemilihan	-700
▁ini▁adalah	-701
▁perjanjian	-702
▁salah▁satu	-703
▁yang▁lebih	-704
▁yang▁telah	-705
2,	-706
fr	-707
oc	-708
th	-709
▁5	-710
ark	-711
imb	-712
ira	-713
umb	-714
wak	-715
▁en	-716
▁te	-717
alis	-718
form	-719
land	-720
trik	-721
uduk	-722
▁199	-723
▁alb	-724
▁art	-725
▁med	-726
ancis	-727
atang	-728
umber	-729
ungai	-730
▁lama	-731
▁bawah	-732
▁biasa	-733
asional	-734
▁invest	-735
▁melihat	-736
▁akhirnya	-737
▁membantu	-738
▁yang▁ter	-739
▁melakukan	-740
▁pada▁hari	-741
▁yang▁meng	-742
▁lebih▁dari	-743
),	-744
.”	-745
5.	-746
ca	-747
se	-748
▁-	-749
ade	-750
ank	-751
lat	-752
tif	-753
ton	-754
▁da	-755
▁dr	-756
▁em	-757
▁ga	-758
▁ob	-759
▁ok	-760
ahun	-761
arik	-762
etak	-763
ikit	-764
ukum	-765
unya	-766
uruh	-767
▁ben	-768
▁eks	-769
▁jer	-770
▁lah	-771
▁mak	-772
▁mil	-773
inggu	-774
▁anak	-775
▁anda	-776
▁area	-777
▁berp	-778
▁pern	-779
▁tekn	-780
erikan	-781
irikan	-782
i▁oleh	-783
▁belum	-784
▁dan▁p	-785
▁menya	-786
▁pasar	-787
▁yunan	-788
an▁yang	-789
▁ketika	-790
▁sistem	-791
▁tinggi	-792
unjukkan	-793
▁penting	-794
▁politik	-795
▁prancis	-796
▁sedikit	-797
▁sekolah	-798
▁presiden	-799
▁yang▁mem	-800
▁digunakan	-801
▁menggunakan	-802
ij	-803
li	-804
na	-805
uc	-806
ard	-807
art	-808
emu	-809
ikl	-810
omp	-811
tob	-812
unt	-813
wab	-814
▁at	-815
▁op	-816
akah	-817
an▁b	-818
asih	-819
ibat	-820
pert	-821
tumb	-822
ubah	-823
urut	-824
▁dem	-825
▁gel	-826
▁kol	-827
▁kur	-828
▁pul	-829
▁the	-830
ampak	-831
apkan	-832
hasil	-833
irkan	-834
tober	-835
▁di▁k	-836
▁juta	-837
▁perb	-838
▁perk	-839
▁rasa	-840
▁tahu	-841
▁tert	-842
emukan	-843
▁batas	-844
▁hukum	-845
▁kecil	-846
▁kerja	-847
▁musim	-848
▁spany	-849
▁tanah	-850
formasi	-851
ubungan	-852
▁apakah	-853
▁jerman	-854
▁sungai	-855
▁yunani	-856
▁abad▁ke	-857
▁masalah	-858
▁memutus	-859
▁oktober	-860
▁sejarah	-861
▁seluruh	-862
▁semakin	-863
kan▁untuk	-864
▁yang▁bisa	-865
▁yang▁paling	-866
▁pada▁tanggal	-867
).	-868
6,	-869
ew	-870
mi	-871
ogr	-872
ord	-873
org	-874
ori	-875
son	-876
▁10	-877
▁ge	-878
▁wa	-879
abis	-880
aruh	-881
asti	-882
ebas	-883
elak	-884
ikat	-885
tiap	-886
▁191	-887
▁car	-888
▁dek	-889
▁dil	-890
▁mod	-891
▁pet	-892
▁pro	-893
▁rek	-894
▁tim	-895
angun	-896
endah	-897
icara	-898
lukan	-899
uatan	-900
ukung	-901
uncul	-902
▁perd	-903
▁perm	-904
▁roma	-905
▁terp	-906
▁tind	-907
▁umum	-908
alanan	-909
embang	-910
idikan	-911
▁barat	-912
▁dan▁b	-913
▁masih	-914
▁mener	-915
▁menga	-916
▁trans	-917
▁trump	-918
▁ekonom	-919
▁intern	-920
▁jumlah	-921
▁muncul	-922
▁polisi	-923
enangkan	-924
▁berikut	-925
▁bersama	-926
▁spanyol	-927
▁tentara	-928
▁tinggal	-929
nya▁untuk	-930
▁di▁bawah	-931
▁penduduk	-932
▁sekarang	-933
▁yang▁dis	-934
▁australia	-935
▁di▁antara	-936
▁kembali▁ke	-937
▁menyatakan	-938
▁menunjukkan	-939
▁dalam▁sebuah	-940
0,	-941
ku	-942
me	-943
ou	-944
”.	-945
▁£	-946
ala	-947
aru	-948
erd	-949
ern	-950
ine	-951
kap	-952
nis	-953
ond	-954
oni	-955
ott	-956
▁el	-957
▁il	-958
aksi	-959
awat	-960
elaj	-961
erah	-962
ilis	-963
iode	-964
itan	-965
jadi	-966
oduk	-967
usim	-968
▁and	-969
▁hit	-970
▁ikl	-971
▁kal	-972
▁met	-973
▁res	-974
▁sah	-975
▁sal	-976
▁seh	-977
▁tel	-978
▁tuj	-979
▁und	-980
ar▁di	-981
engah	-982
iring	-983
olusi	-984
▁berl	-985
▁kali	-986
▁kari	-987
▁keka	-988
▁lagu	-989
▁pria	-990
▁raja	-991
asikan	-992
encana	-993
entara	-994
ia▁dan	-995
wakili	-996
▁empat	-997
▁ingin	-998
▁keras	-999
▁pulau	-1000
▁rusia	-1001
▁sejak	-1002
▁udara	-1003
ibatkan	-1004
▁lanjut	-1005
▁mengur	-1006
▁partai	-1007
▁pernah	-1008
▁rendah	-1009
▁setiap	-1010
▁bermain	-1011
▁di▁sana	-1012
▁hal▁itu	-1013
▁menurut	-1014
▁periode	-1015
▁seiring	-1016
inggalkan	-1017
▁berbagai	-1018
▁di▁musim	-1019
▁kekuatan	-1020
▁keluarga	-1021
▁nasional	-1022
▁tindakan	-1023
▁yang▁dit	-1024
▁menghadap	-1025
▁tidak▁ada	-1026
▁berikutnya	-1027
▁memberikan	-1028
▁pemerintahan	-1029
▁negara▁bagian	-1030
1,	-1031
3,	-1032
de	-1033
▁'	-1034
ail	-1035
egi	-1036
eja	-1037
eks	-1038
esa	-1039
etu	-1040
fer	-1041
get	-1042
han	-1043
tik	-1044
uda	-1045
urn	-1046
▁ad	-1047
▁bl	-1048
▁cl	-1049
▁up	-1050
akat	-1051
anti	-1052
caya	-1053
irim	-1054
isar	-1055
omin	-1056
pada	-1057
rata	-1058
tudi	-1059
uari	-1060
uruk	-1061
▁197	-1062
▁afr	-1063
▁dih	-1064
▁her	-1065
▁jam	-1066
▁kel	-1067
▁lis	-1068
▁mat	-1069
▁mor	-1070
▁nor	-1071
▁rum	-1072
▁ten	-1073
edung	-1074
emuan	-1075
erita	-1076
impin	-1077
isasi	-1078
jalan	-1079
masuk	-1080
uanya	-1081
▁angg	-1082
▁data	-1083
▁dila	-1084
▁jauh	-1085
▁rata	-1086
▁sosi	-1087
▁terd	-1088
anggap	-1089
anusia	-1090
an▁dan	-1091
i▁yang	-1092
landia	-1093
oritas	-1094
ubahan	-1095
undang	-1096
▁bukan	-1097
▁depan	-1098
▁jawab	-1099
▁serta	-1100
▁timur	-1101
empuran	-1102
▁afrika	-1103
▁bangsa	-1104
▁dingin	-1105
▁kaisar	-1106
▁memper	-1107
▁minggu	-1108
▁sumber	-1109
andingan	-1110
embangan	-1111
i▁dengan	-1112
▁di▁luar	-1113
▁ia▁juga	-1114
▁pasukan	-1115
▁pekerja	-1116
▁pertumb	-1117
▁daripada	-1118
▁di▁dalam	-1119
▁hubungan	-1120
▁langsung	-1121
▁menerima	-1122
▁termasuk	-1123
▁yang▁dik	-1124
▁kemungkin	-1125
▁membentuk	-1126
▁sementara	-1127
▁teknologi	-1128
▁yang▁sama	-1129
▁berkembang	-1130
▁menghadapi	-1131
▁perjalanan	-1132
▁sebelumnya	-1133
▁yang▁tidak	-1134
▁pertempuran	-1135
▁pertandingan	-1136
7.	-1137
av	-1138
ha	-1139
iz	-1140
ka	-1141
ra	-1142
:▁“	-1143
aft	-1144
bor	-1145
eda	-1146
ell	-1147
elu	-1148
inc	-1149
iss	-1150
ity	-1151
i▁k	-1152
ona	-1153
ril	-1154
uri	-1155
uru	-1156
▁gl	-1157
▁he	-1158
▁it	-1159
.000	-1160
amai	-1161
asal	-1162
asus	-1163
atif	-1164
engg	-1165
esai	-1166
gkap	-1167
ilan	-1168
isah	-1169
mark	-1170
oman	-1171
urun	-1172
yang	-1173
▁198	-1174
▁dim	-1175
▁eur	-1176
▁kan	-1177
▁kat	-1178
▁leg	-1179
▁min	-1180
▁pak	-1181
▁ped	-1182
▁pop	-1183
▁rev	-1184
▁tar	-1185
▁war	-1186
▁win	-1187
adang	-1188
ancur	-1189
atian	-1190
henti	-1191
ikasi	-1192
imana	-1193
onton	-1194
tahun	-1195
uhkan	-1196
ulasi	-1197
▁agar	-1198
▁alam	-1199
▁alas	-1200
▁buku	-1201
▁cara	-1202
▁diri	-1203
▁di▁l	-1204
▁hong	-1205
▁kata	-1206
▁kong	-1207
▁kont	-1208
▁laki	-1209
▁mili	-1210
▁suku	-1211
▁uang	-1212
▁univ	-1213
akanan	-1214
anding	-1215
andung	-1216
an▁itu	-1217
empuan	-1218
isaran	-1219
▁album	-1220
▁april	-1221
▁biara	-1222
▁dan▁t	-1223
▁diter	-1224
▁drama	-1225
▁masuk	-1226
▁menja	-1227
▁musik	-1228
▁panas	-1229
▁studi	-1230
▁surat	-1231
▁daerah	-1232
▁gedung	-1233
▁italia	-1234
▁menyel	-1235
▁pember	-1236
▁publik	-1237
▁sedang	-1238
▁ungkap	-1239
▁yang▁m	-1240
▁bertemu	-1241
▁industr	-1242
▁listrik	-1243
▁serikat	-1244
▁di▁bulan	-1245
▁investor	-1246
▁mewakili	-1247
▁revolusi	-1248
▁saat▁ini	-1249
▁terletak	-1250
nya▁adalah	-1251
▁dalam▁per	-1252
▁khususnya	-1253
▁mendukung	-1254
▁perempuan	-1255
▁perubahan	-1256
▁sepanjang	-1257
▁kekaisaran	-1258
▁luar▁biasa	-1259
▁mengurangi	-1260
▁tidak▁akan	-1261
▁bagian▁dari	-1262
▁kemungkinan	-1263
▁pertumbuhan	-1264
aj	-1265
eo	-1266
ey	-1267
ez	-1268
ro	-1269
ui	-1270
▁4	-1271
▁6	-1272
▁8	-1273
ani	-1274
awa	-1275
ban	-1276
bat	-1277
bia	-1278
edi	-1279
eta	-1280
gab	-1281
her	-1282
jad	-1283
oba	-1284
one	-1285
pan	-1286
pen	-1287
uli	-1288
urg	-1289
yak	-1290
▁--	-1291
▁14	-1292
▁15	-1293
▁ed	-1294
▁fr	-1295
▁ib	-1296
▁ii	-1297
▁im	-1298
▁ir	-1299
▁pu	-1300
adar	-1301
adis	-1302
ahas	-1303
akup	-1304
apai	-1305
apan	-1306
arat	-1307
ator	-1308
edon	-1309
eksi	-1310
enda	-1311
epat	-1312
flik	-1313
iaya	-1314
iksi	-1315
obil	-1316
olak	-1317
truk	-1318
unuh	-1319
▁196	-1320
▁ang	-1321
▁bek	-1322
▁fed	-1323
▁fin	-1324
▁ger	-1325
▁gol	-1326
▁hak	-1327
▁huj	-1328
▁ins	-1329
▁new	-1330
▁sam	-1331
▁ses	-1332
adaan	-1333
adisi	-1334
alkan	-1335
ampir	-1336
egitu	-1337
gerak	-1338
inkan	-1339
itkan	-1340
orong	-1341
udaya	-1342
ustus	-1343
▁agen	-1344
▁alat	-1345
▁angk	-1346
▁batu	-1347
▁di▁c	-1348
▁euro	-1349
▁istr	-1350
▁jend	-1351
▁keti	-1352
▁kini	-1353
▁naik	-1354
▁penc	-1355
▁tant	-1356
anuari	-1357
an▁ini	-1358
ingkat	-1359
porkan	-1360
uangan	-1361
▁acara	-1362
▁akses	-1363
▁berla	-1364
▁dan▁s	-1365
▁domin	-1366
▁iklim	-1367
▁kapal	-1368
▁mengk	-1369
▁mesir	-1370
▁north	-1371
▁penga	-1372
▁puluh	-1373
▁siapa	-1374
▁terus	-1375
▁upaya	-1376
▁utama	-1377
agangan	-1378
atannya	-1379
engahan	-1380
intangi	-1381
yarakat	-1382
▁akibat	-1383
▁berita	-1384
▁dari▁s	-1385
▁datang	-1386
▁diberi	-1387
▁hampir	-1388
▁mengak	-1389
▁mengej	-1390
▁menimb	-1391
▁produk	-1392
▁sekali	-1393
▁selain	-1394
▁target	-1395
▁yang▁b	-1396
ingkatan	-1397
iterania	-1398
▁dinasti	-1399
▁dirinya	-1400
▁konflik	-1401
▁makanan	-1402
▁melawan	-1403
▁memberi	-1404
▁meminta	-1405
▁menarik	-1406
▁panjang	-1407
▁penggun	-1408
▁penulis	-1409
▁rencana	-1410
▁selesai	-1411
▁sepenuh	-1412
▁terbuka	-1413
▁tradisi	-1414
▁univers	-1415
▁dan▁meng	-1416
▁di▁dunia	-1417
▁industri	-1418
▁jenderal	-1419
▁mencakup	-1420
▁republik	-1421
▁hong▁kong	-1422
▁informasi	-1423
▁pada▁saat	-1424
▁masyarakat	-1425
▁orang▁yang	-1426
▁menimbulkan	-1427
▁peningkatan	-1428
▁perdagangan	-1429
▁pertengahan	-1430
▁yang▁sangat	-1431
▁lebih▁banyak	-1432
19	-1433
20	-1434
3.	-1435
7,	-1436
co	-1437
ef	-1438
ly	-1439
mu	-1440
▁9	-1441
▁q	-1442
ens	-1443
eph	-1444
era	-1445
erb	-1446
esi	-1447
ess	-1448
gar	-1449
ice	-1450
igr	-1451
iko	-1452
ney	-1453
oto	-1454
pil	-1455
pun	-1456
rat	-1457
ros	-1458
ugh	-1459
uni	-1460
▁16	-1461
▁ol	-1462
adai	-1463
aian	-1464
akwa	-1465
ance	-1466
asar	-1467
baru	-1468
ecah	-1469
edia	-1470
enar	-1471
engk	-1472
ersi	-1473
fung	-1474
hati	-1475
ican	-1476
ikir	-1477
isir	-1478
isme	-1479
laki	-1480
laut	-1481
obal	-1482
teri	-1483
tiwa	-1484
tual	-1485
ulit	-1486
ungg	-1487
ungi	-1488
upun	-1489
utri	-1490
yata	-1491
▁bag	-1492
▁bay	-1493
▁cat	-1494
▁dat	-1495
▁den	-1496
▁des	-1497
▁ide	-1498
▁jos	-1499
▁kab	-1500
▁kor	-1501
▁lam	-1502
▁may	-1503
▁mis	-1504
▁mon	-1505
▁nov	-1506
▁ott	-1507
▁ric	-1508
▁sas	-1509
▁uni	-1510
▁wal	-1511
adara	-1512
an▁ke	-1513
edaan	-1514
egara	-1515
ektur	-1516
ender	-1517
entar	-1518
enuhi	-1519
e▁dan	-1520
ilang	-1521
inton	-1522
isten	-1523
istik	-1524
kenal	-1525
organ	-1526
unggu	-1527
▁asal	-1528
▁asia	-1529
▁asli	-1530
▁baga	-1531
▁bank	-1532
▁bias	-1533
▁dipr	-1534
▁hati	-1535
▁lima	-1536
▁pand	-1537
▁post	-1538
▁prib	-1539
▁prot	-1540
▁real	-1541
▁sese	-1542
▁usia	-1543
ahanan	-1544
anyaan	-1545
elajar	-1546
erdeka	-1547
fungsi	-1548
lahkan	-1549
tember	-1550
▁dewan	-1551
▁gadis	-1552
▁karya	-1553
▁keber	-1554
▁paris	-1555
▁rumah	-1556
▁sipil	-1557
▁teman	-1558
▁tentu	-1559
abiskan	-1560
asilkan	-1561
ebaskan	-1562
eluaran	-1563
engaruh	-1564
esaikan	-1565
idaknya	-1566
ingkali	-1567
nya▁ber	-1568
unungan	-1569
▁begitu	-1570
▁itu▁di	-1571
▁joseph	-1572
▁ketiga	-1573
▁konser	-1574
▁miliar	-1575
▁modern	-1576
▁pemain	-1577
▁penyel	-1578
▁selalu	-1579
▁sosial	-1580
▁tenaga	-1581
▁tujuan	-1582
▁undang	-1583
baru▁ini	-1584
ilangkan	-1585
iri▁dari	-1586
kan▁oleh	-1587
utradara	-1588
▁berubah	-1589
▁berusia	-1590
▁clinton	-1591
▁distrik	-1592
▁ekonomi	-1593
▁federal	-1594
▁ia▁akan	-1595
▁januari	-1596
▁kalinya	-1597
▁kehidup	-1598
▁keputus	-1599
▁kontrak	-1600
▁lainnya	-1601
▁makedon	-1602
▁memilih	-1603
▁mencoba	-1604
▁mengapa	-1605
▁menteri	-1606
▁menulis	-1607
▁militer	-1608
▁pelangg	-1609
▁peluang	-1610
▁pembuat	-1611
▁pesawat	-1612
▁pesisir	-1613
▁saat▁ia	-1614
▁terbaik	-1615
asal▁dari	-1616
ung▁jawab	-1617
▁berhasil	-1618
▁berjalan	-1619
▁biasanya	-1620
▁dibangun	-1621
▁internet	-1622
▁mengirim	-1623
▁menyeber	-1624
▁tertentu	-1625
▁transisi	-1626
▁bagaimana	-1627
▁berbicara	-1628
▁berfungsi	-1629
▁didirikan	-1630
▁di▁bagian	-1631
▁kemerdeka	-1632
▁pemberont	-1633
▁perbedaan	-1634
▁pertemuan	-1635
▁seseorang	-1636
▁tantangan	-1637
▁itu▁adalah	-1638
▁mengandung	-1639
▁mulai▁dari	-1640
▁sepenuhnya	-1641
▁seringkali	-1642
▁tentu▁saja	-1643
▁tidak▁bisa	-1644
▁untuk▁memb	-1645
▁mediterania	-1646
▁pengeluaran	-1647
▁terletak▁di	-1648
▁lebih▁lanjut	-1649
▁menghasilkan	-1650
▁perkembangan	-1651
▁mengakibatkan	-1652
▁menghilangkan	-1653
▁sementara▁itu	-1654
▁bahasa▁spanyol	-1655
▁amerika▁serikat	-1656
-1	-1657
30	-1658
5,	-1659
bc	-1660
be	-1661
ex	-1662
he	-1663
hi	-1664
ho	-1665
ji	-1666
ri	-1667
ry	-1668
ty	-1669
▁7	-1670
aca	-1671
ach	-1672
agi	-1673
arl	-1674
ast	-1675
cha	-1676
den	-1677
fat	-1678
fek	-1679
gas	-1680
ino	-1681
iti	-1682
jah	-1683
jak	-1684
lan	-1685
ler	-1686
lui	-1687
mak	-1688
ock	-1689
ohn	-1690
ric	-1691
rut	-1692
sud	-1693
tin	-1694
ual	-1695
yek	-1696
▁17	-1697
▁am	-1698
▁be	-1699
▁co	-1700
▁ep	-1701
▁fl	-1702
▁go	-1703
▁os	-1704
▁sh	-1705
▁sk	-1706
▁sw	-1707
adan	-1708
akit	-1709
anak	-1710
ario	-1711
aris	-1712
ater	-1713
burg	-1714
elam	-1715
elis	-1716
enti	-1717
epas	-1718
erti	-1719
gera	-1720
hard	-1721
ikel	-1722
iksa	-1723
ings	-1724
insi	-1725
isla	-1726
iswa	-1727
miah	-1728
onis	-1729
otal	-1730
tasi	-1731
udra	-1732
umor	-1733
usat	-1734
utuh	-1735
▁bin	-1736
▁bis	-1737
▁col	-1738
▁deb	-1739
▁end	-1740
▁era	-1741
▁est	-1742
▁fak	-1743
▁gun	-1744
▁hab	-1745
▁int	-1746
▁jep	-1747
▁pat	-1748
▁put	-1749
▁rut	-1750
▁sch	-1751
▁sig	-1752
▁sta	-1753
▁top	-1754
▁tur	-1755
5.000	-1756
alent	-1757
atasi	-1758
egang	-1759
enang	-1760
ening	-1761
enter	-1762
harga	-1763
igasi	-1764
ijing	-1765
ikian	-1766
kan▁m	-1767
kan▁r	-1768
ograf	-1769
onald	-1770
onium	-1771
takan	-1772
ukses	-1773
utkan	-1774
vensi	-1775
wasan	-1776
▁acha	-1777
▁bala	-1778
▁cina	-1779
▁cont	-1780
▁dana	-1781
▁diny	-1782
▁efek	-1783
▁enam	-1784
▁foto	-1785
▁hill	-1786
▁isti	-1787
▁john	-1788
▁juli	-1789
▁juni	-1790
▁kand	-1791
▁kaum	-1792
▁meks	-1793
▁memp	-1794
▁mong	-1795
▁oper	-1796
▁pagi	-1797
▁pola	-1798
▁qing	-1799
▁teks	-1800
abatan	-1801
adakan	-1802
al▁dan	-1803
angani	-1804
antung	-1805
aranya	-1806
atasan	-1807
entang	-1808
iburan	-1809
istiwa	-1810
masing	-1811
negara	-1812
us▁dan	-1813
▁asing	-1814
▁bangk	-1815
▁benar	-1816
▁dasar	-1817
▁dekat	-1818
▁gelar	-1819
▁georg	-1820
▁kasus	-1821
▁keter	-1822
▁komun	-1823
▁kulit	-1824
▁lahan	-1825
▁lahir	-1826
▁melam	-1827
▁merek	-1828
▁morav	-1829
▁organ	-1830
▁progr	-1831
▁punya	-1832
▁putri	-1833
▁situs	-1834
▁taman	-1835
▁tengg	-1836
▁terla	-1837
▁titik	-1838
▁total	-1839
▁tumor	-1840
▁zaman	-1841
an▁dari	-1842
artemen	-1843
asarkan	-1844
ebutnya	-1845
ediakan	-1846
elakang	-1847
elaskan	-1848
izinkan	-1849
nya▁dan	-1850
umumkan	-1851
wancara	-1852
▁analis	-1853
▁bisnis	-1854
▁cerita	-1855
▁dampak	-1856
▁disney	-1857
▁donald	-1858
▁global	-1859
▁ilmiah	-1860
▁jepang	-1861
▁karier	-1862
▁kepala	-1863
▁koloni	-1864
▁kurang	-1865
▁masing	-1866
▁maupun	-1867
▁negeri	-1868
▁persen	-1869
▁persis	-1870
▁posisi	-1871
▁proyek	-1872
▁segera	-1873
▁sering	-1874
▁tampak	-1875
▁yang▁k	-1876
▁yang▁r	-1877
ambarkan	-1878
ampilkan	-1879
asi▁yang	-1880
▁agustus	-1881
▁albania	-1882
▁anggota	-1883
▁awalnya	-1884
▁belajar	-1885
▁dataran	-1886
▁denmark	-1887
▁dikenal	-1888
▁di▁area	-1889
▁di▁kota	-1890
▁karibia	-1891
▁katanya	-1892
▁keadaan	-1893
▁kekuasa	-1894
▁manusia	-1895
▁meksiko	-1896
▁melalui	-1897
▁menging	-1898
▁menolak	-1899
▁ottoman	-1900
▁percaya	-1901
▁saudara	-1902
▁sebesar	-1903
▁tanaman	-1904
▁terjadi	-1905
▁yang▁ia	-1906
andingkan	-1907
asi▁dalam	-1908
embangkan	-1909
▁bangkrut	-1910
▁bertahan	-1911
▁bertahun	-1912
▁binatang	-1913
▁dan▁saya	-1914
▁demikian	-1915
▁dengan▁s	-1916
▁ini▁akan	-1917
▁istrinya	-1918
▁ke▁dalam	-1919
▁mencapai	-1920
▁menjalan	-1921
▁meskipun	-1922
▁november	-1923
▁perminta	-1924
▁polonium	-1925
▁populasi	-1926
▁semuanya	-1927
▁terbesar	-1928
▁terlibat	-1929
▁yang▁dib	-1930
▁yang▁did	-1931
▁dua▁tahun	-1932
▁investasi	-1933
▁itu▁tidak	-1934
▁mayoritas	-1935
▁mendapati	-1936
▁mendorong	-1937
▁menemukan	-1938
▁mengganti	-1939
▁meninggal	-1940
▁pada▁satu	-1941
▁pengharga	-1942
▁postingan	-1943
▁september	-1944
▁tertinggi	-1945
▁yang▁berl	-1946
▁yang▁juga	-1947
▁yang▁memb	-1948
nya▁sebagai	-1949
▁baru▁untuk	-1950
▁diperlukan	-1951
▁di▁seluruh	-1952
▁di▁wilayah	-1953
▁mendirikan	-1954
▁pendidikan	-1955
▁penggunaan	-1956
▁pertahanan	-1957
▁setidaknya	-1958
▁tahun▁yang	-1959
▁telah▁meng	-1960
▁university	-1961
▁yang▁sudah	-1962
▁berlangsung	-1963
▁dengan▁baik	-1964
▁kemerdekaan	-1965
▁menjelaskan	-1966
▁menyediakan	-1967
▁dibandingkan	-1968
▁dinasti▁qing	-1969
▁donald▁trump	-1970
▁menghabiskan	-1971
▁meninggalkan	-1972
▁menyeberangi	-1973
▁mungkin▁saja	-1974
▁penyelidikan	-1975
▁bertemu▁dengan	-1976
▁pemilihan▁umum	-1977
▁tahun▁terakhir	-1978
▁tidak▁memiliki	-1979
▁pertama▁kalinya	-1980
2.	-1981
60	-1982
8,	-1983
9,	-1984
bo	-1985
br	-1986
fa	-1987
ge	-1988
ht	-1989
ma	-1990
ph	-1991
pu	-1992
vi	-1993
án	-1994
▁—	-1995
aba	-1996
ahi	-1997
akl	-1998
aku	-1999
aky	-2000
ash	-2001
ate	-2002
bon	-2003
car	-2004
ean	-2005
eat	-2006
egr	-2007
eli	-2008
ema	-2009
e▁t	-2010
gum	-2011
ham	-2012
icu	-2013
ida	-2014
irk	-2015
isk	-2016
ive	-2017
jam	-2018
ley	-2019
mer	-2020
mos	-2021
nif	-2022
odi	-2023
ole	-2024
ork	-2025
ped	-2026
pos	-2027
res	-2028
sat	-2029
tor	-2030
tra	-2031
tre	-2032
ubl	-2033
uga	-2034
uno	-2035
val	-2036
yut	-2037
▁13	-2038
▁3%	-2039
▁31	-2040
▁50	-2041
▁cr	-2042
▁le	-2043
▁ta	-2044
▁uk	-2045
▁£1	-2046
aksa	-2047
amen	-2048
anta	-2049
an▁n	-2050
apua	-2051
berg	-2052
disi	-2053
ekan	-2054
elan	-2055
ener	-2056
epsi	-2057
esia	-2058
etis	-2059
evel	-2060
e▁of	-2061
iade	-2062
ight	-2063
inan	-2064
ital	-2065
itat	-2066
jata	-2067
jian	-2068
jual	-2069
laim	-2070
ling	-2071
ment	-2072
mewa	-2073
odes	-2074
ohon	-2075
olia	-2076
olik	-2077
oper	-2078
oris	-2079
saya	-2080
ston	-2081
tern	-2082
titu	-2083
udut	-2084
uman	-2085
umen	-2086
wasi	-2087
▁(19	-2088
▁100	-2089
▁149	-2090
▁188	-2091
▁192	-2092
▁195	-2093
▁api	-2094
▁ass	-2095
▁bal	-2096
▁bog	-2097
▁del	-2098
▁dig	-2099
▁ibu	-2100
▁iii	-2101
▁ist	-2102
▁jal	-2103
▁jas	-2104
▁jut	-2105
▁kej	-2106
▁lok	-2107
▁ont	-2108
▁pac	-2109
▁pow	-2110
▁raf	-2111
▁ram	-2112
▁ris	-2113
▁sin	-2114
▁sub	-2115
▁tok	-2116
▁web	-2117
akter	-2118
amaan	-2119
ambar	-2120
ambut	-2121
ampai	-2122
andar	-2123
andat	-2124
angat	-2125
anian	-2126
antan	-2127
ation	-2128
ayaan	-2129
batas	-2130
evirk	-2131
ferty	-2132
ganya	-2133
harap	-2134
idang	-2135
idiki	-2136
ikuti	-2137
iraun	-2138
kan▁b	-2139
kan▁l	-2140
muwan	-2141
n▁dan	-2142
okter	-2143
ondon	-2144
ukaan	-2145
umbuh	-2146
urkan	-2147
uru▁b	-2148
usaha	-2149
utama	-2150
▁2014	-2151
▁alih	-2152
▁arah	-2153
▁bayi	-2154
▁berg	-2155
▁biji	-2156
▁dela	-2157
▁duta	-2158
▁ener	-2159
▁golf	-2160
▁hist	-2161
▁horm	-2162
▁jadi	-2163
▁kira	-2164
▁kris	-2165
▁kuda	-2166
▁lemb	-2167
▁maju	-2168
▁mata	-2169
▁muda	-2170
▁pant	-2171
▁pela	-2172
▁perh	-2173
▁petu	-2174
▁pros	-2175
▁sens	-2176
▁shen	-2177
▁syut	-2178
▁unit	-2179
▁york	-2180
adanya	-2181
ailand	-2182
amerun	-2183
ampuan	-2184
am▁itu	-2185
angkit	-2186
angkut	-2187
apatan	-2188
at▁dan	-2189
ayakan	-2190
bitkan	-2191
elanda	-2192
emenid	-2193
entuan	-2194
gabung	-2195
inerja	-2196
ingkap	-2197
irakan	-2198
uburan	-2199
unuhan	-2200
▁agama	-2201
▁alpen	-2202
▁angin	-2203
▁artis	-2204
▁bekas	-2205
▁benua	-2206
▁dan▁g	-2207
▁dan▁m	-2208
▁email	-2209
▁great	-2210
▁harga	-2211
▁hitch	-2212
▁hujan	-2213
▁imigr	-2214
▁india	-2215
▁islam	-2216
▁kalah	-2217
▁keseh	-2218
▁kesha	-2219
▁kisah	-2220
▁kursi	-2221
▁lapor	-2222
▁layak	-2223
▁level	-2224
▁malam	-2225
▁menik	-2226
▁mobil	-2227
▁musuh	-2228
▁nyata	-2229
▁olimp	-2230
▁opium	-2231
▁pasir	-2232
▁pecah	-2233
▁penak	-2234
▁pengg	-2235
▁resmi	-2236
▁ruang	-2237
▁sakit	-2238
▁suatu	-2239
▁tepat	-2240
▁terka	-2241
▁tujuh	-2242
▁tulis	-2243
▁turki	-2244
ancuran	-2245
angsaan	-2246
ational	-2247
atorium	-2248
enangan	-2249
enarnya	-2250
entikan	-2251
entukan	-2252
hasilan	-2253
jadinya	-2254
nifikan	-2255
truktur	-2256
ublican	-2257
unduran	-2258
urangan	-2259
▁ada▁di	-2260
▁alasan	-2261
▁bahkan	-2262
▁budaya	-2263
▁contoh	-2264
▁dari▁b	-2265
▁dekade	-2266
▁dibuat	-2267
▁dijual	-2268
▁firaun	-2269
▁gereja	-2270
▁gunung	-2271
▁hancur	-2272
▁hilang	-2273
▁itulah	-2274
▁juru▁b	-2275
▁kajian	-2276
▁kereta	-2277
▁kering	-2278
▁langka	-2279
▁masa▁j	-2280
▁menamb	-2281
▁mendek	-2282
▁menyam	-2283
▁merasa	-2284
▁penerb	-2285
▁pengad	-2286
▁sastra	-2287
▁senang	-2288
▁tampil	-2289
▁tengah	-2290
aklukkan	-2291
ancurkan	-2292
isi▁lain	-2293
nya▁pada	-2294
umpulkan	-2295
untungan	-2296
▁apa▁pun	-2297
▁berbeda	-2298
▁berlaku	-2299
▁dan▁per	-2300
▁dilihat	-2301
▁di▁atas	-2302
▁di▁sini	-2303
▁habitat	-2304
▁ia▁meng	-2305
▁ilmuwan	-2306
▁ke▁arah	-2307
▁ke▁laut	-2308
▁kondisi	-2309
▁konserv	-2310
▁legisla	-2311
▁membawa	-2312
▁membuka	-2313
▁mencari	-2314
▁menghad	-2315
▁moravia	-2316
▁ontario	-2317
▁petugas	-2318
▁pribadi	-2319
▁richard	-2320
▁syuting	-2321
▁terlalu	-2322
▁tidak▁b	-2323
▁ujarnya	-2324
▁winston	-2325
▁yang▁se	-2326
▁bahwa▁ia	-2327
▁bergerak	-2328
▁berhenti	-2329
▁berpikir	-2330
▁bertangg	-2331
▁danevirk	-2332
▁desember	-2333
▁diterima	-2334
▁di▁barat	-2335
▁dominasi	-2336
▁hidupnya	-2337
▁historis	-2338
▁ini▁juga	-2339
▁istimewa	-2340
▁karakter	-2341
▁keduanya	-2342
▁kematian	-2343
▁komentar	-2344
▁kota▁ini	-2345
▁membunuh	-2346
▁menengah	-2347
▁menonton	-2348
▁mongolia	-2349
▁pasangan	-2350
▁pemenang	-2351
▁rafferty	-2352
▁real▁est	-2353
▁rekening	-2354
▁sehingga	-2355
▁sejumlah	-2356
▁tak▁lama	-2357
▁tak▁terb	-2358
▁tenggara	-2359
▁tentunya	-2360
▁terutama	-2361
▁thailand	-2362
an▁penting	-2363
impin▁oleh	-2364
▁dilakukan	-2365
▁di▁sebuah	-2366
▁hidup▁dan	-2367
▁kehidupan	-2368
▁kekuasaan	-2369
▁kepadanya	-2370
▁membangun	-2371
▁memungkin	-2372
▁menentang	-2373
▁olimpiade	-2374
▁pada▁awal	-2375
▁perhatian	-2376
▁peristiwa	-2377
▁permukaan	-2378
▁pertanian	-2379
▁sedangkan	-2380
▁terbentuk	-2381
▁waktu▁ini	-2382
▁yang▁berk	-2383
▁yang▁berp	-2384
▁yang▁terd	-2385
andatangani	-2386
antung▁pada	-2387
▁achaemenid	-2388
▁dalam▁film	-2389
▁departemen	-2390
▁di▁sekolah	-2391
▁kehancuran	-2392
▁kemunduran	-2393
▁keterampil	-2394
▁minggu▁ini	-2395
▁pembunuhan	-2396
▁penaklukan	-2397
▁pendapatan	-2398
▁perbatasan	-2399
▁pertanyaan	-2400
▁republican	-2401
▁selain▁itu	-2402
▁selama▁dua	-2403
▁signifikan	-2404
▁tahun▁lalu	-2405
▁terjadinya	-2406
▁untuk▁meng	-2407
▁yang▁besar	-2408
ikuti▁dengan	-2409
▁berdasarkan	-2410
▁juru▁bicara	-2411
▁membebaskan	-2412
▁menambahkan	-2413
▁menyebutnya	-2414
▁orang▁eropa	-2415
▁penerbangan	-2416
▁pengunungan	-2417
▁selama▁masa	-2418
▁semua▁orang	-2419
▁tidak▁dapat	-2420
▁tidak▁jelas	-2421
▁tradisional	-2422
gabung▁dengan	-2423
▁berada▁dalam	-2424
▁dalam▁bahasa	-2425
▁di▁sisi▁lain	-2426
▁mengingatkan	-2427
▁perang▁dunia	-2428
▁saudara▁laki	-2429
▁tidak▁pernah	-2430
▁yang▁disebut	-2431
▁yang▁terjadi	-2432
angkit▁listrik	-2433
utradarai▁oleh	-2434
▁karena▁mereka	-2435
▁menggambarkan	-2436
▁menyelesaikan	-2437
▁pemberontakan	-2438
▁penduduk▁asli	-2439
▁perjalanan▁ke	-2440
▁sekitar▁tahun	-2441
▁tetap▁menjadi	-2442
▁untuk▁membuat	-2443
▁yang▁kemudian	-2444
▁dalam▁beberapa	-2445
▁dataran▁rendah	-2446
▁di▁musim▁panas	-2447
▁mereka▁sendiri	-2448
▁selama▁periode	-2449
▁yang▁ditemukan	-2450
▁bergantung▁pada	-2451
▁di▁musim▁dingin	-2452
▁lahan▁pertanian	-2453
▁salah▁satu▁dari	-2454
▁selama▁bertahun	-2455
-5	-2456
..	-2457
.3	-2458
16	-2459
32	-2460
9.	-2461
ck	-2462
dr	-2463
ei	-2464
nn	-2465
ny	-2466
oy	-2467
pi	-2468
to	-2469
ue	-2470
za	-2471
”,	-2472
,▁“	-2473
-20	-2474
...	-2475
abr	-2476
ace	-2477
ado	-2478
aki	-2479
akr	-2480
arm	-2481
arr	-2482
ary	-2483
bel	-2484
bil	-2485
cak	-2486
cap	-2487
deb	-2488
ebr	-2489
eko	-2490
fab	-2491
hal	-2492
iam	-2493
iji	-2494
ior	-2495
ith	-2496
jui	-2497
kem	-2498
lar	-2499
lis	-2500
mar	-2501
min	-2502
oal	-2503
oci	-2504
oin	-2505
oks	-2506
omb	-2507
ood	-2508
oti	-2509
ots	-2510
own	-2511
rid	-2512
rit	-2513
rol	-2514
rop	-2515
sar	-2516
set	-2517
tis	-2518
tiv	-2519
uas	-2520
uck	-2521
uhu	-2522
ver	-2523
wit	-2524
yan	-2525
ybo	-2526
yer	-2527
▁1%	-2528
▁11	-2529
▁30	-2530
▁36	-2531
▁ah	-2532
▁ca	-2533
▁ev	-2534
▁gu	-2535
▁hi	-2536
▁jo	-2537
▁kl	-2538
▁mp	-2539
▁my	-2540
▁no	-2541
▁ot	-2542
▁pe	-2543
▁rh	-2544
▁sc	-2545
▁tn	-2546
▁ub	-2547
▁ul	-2548
▁ur	-2549
▁us	-2550
▁wr	-2551
▁ya	-2552
adah	-2553
adik	-2554
agal	-2555
agam	-2556
ahud	-2557
akar	-2558
alir	-2559
amin	-2560
arif	-2561
asif	-2562
atis	-2563
atuh	-2564
atur	-2565
bane	-2566
batu	-2567
cock	-2568
d▁kh	-2569
edak	-2570
elur	-2571
enek	-2572
enic	-2573
enry	-2574
epon	-2575
eran	-2576
etah	-2577
guna	-2578
hari	-2579
hena	-2580
hima	-2581
iang	-2582
idat	-2583
ideo	-2584
ihak	-2585
ihan	-2586
ille	-2587
ilot	-2588
imen	-2589
inci	-2590
ingi	-2591
irah	-2592
irsa	-2593
isip	-2594
itif	-2595
jaga	-2596
kami	-2597
kand	-2598
kira	-2599
masa	-2600
mine	-2601
mose	-2602
obin	-2603
odoh	-2604
odus	-2605
ogan	-2606
okok	-2607
okus	-2608
onio	-2609
ontr	-2610
otor	-2611
ouch	-2612
ough	-2613
paru	-2614
paui	-2615
prom	-2616
rich	-2617
rist	-2618
sama	-2619
ting	-2620
uaca	-2621
uali	-2622
ubuh	-2623
ukti	-2624
ukup	-2625
ukur	-2626
uler	-2627
uluh	-2628
upuk	-2629
urie	-2630
utip	-2631
wasa	-2632
▁177	-2633
▁194	-2634
▁330	-2635
▁amb	-2636
▁anc	-2637
▁ans	-2638
▁arm	-2639
▁bbc	-2640
▁beb	-2641
▁bon	-2642
▁cap	-2643
▁cnn	-2644
▁com	-2645
▁cor	-2646
▁dav	-2647
▁duk	-2648
▁for	-2649
▁gaj	-2650
▁hel	-2651
▁his	-2652
▁jar	-2653
▁jen	-2654
▁kad	-2655
▁kam	-2656
▁kil	-2657
▁kip	-2658
▁kla	-2659
▁lap	-2660
▁log	-2661
▁lov	-2662
▁mei	-2663
▁mic	-2664
▁nas	-2665
▁nic	-2666
▁nug	-2667
▁obl	-2668
▁out	-2669
▁pik	-2670
▁ret	-2671
▁sla	-2672
▁sus	-2673
▁taw	-2674
▁thr	-2675
▁tib	-2676
▁ven	-2677
▁yud	-2678
abnya	-2679
aftar	-2680
ahari	-2681
ajaan	-2682
akyat	-2683
alnya	-2684
angga	-2685
anksi	-2686
an▁di	-2687
asang	-2688
buhan	-2689
bulan	-2690
embus	-2691
enden	-2692
ensif	-2693
ental	-2694
ephen	-2695
erang	-2696
esain	-2697
etnis	-2698
fabet	-2699
garet	-2700
harus	-2701
hawat	-2702
ibusi	-2703
ihkan	-2704
illes	-2705
impan	-2706
indah	-2707
indak	-2708
ingen	-2709
insip	-2710
intah	-2711
isode	-2712
jaran	-2713
jelas	-2714
jikan	-2715
kanan	-2716
lahan	-2717
lawan	-2718
ocrat	-2719
okasi	-2720
olina	-2721
omong	-2722
ompok	-2723
onjak	-2724
onsel	-2725
opher	-2726
puing	-2727
pulau	-2728
ropol	-2729
tihan	-2730
tikel	-2731
titut	-2732
tulis	-2733
uasai	-2734
ubung	-2735
umbus	-2736
umpah	-2737
umpur	-2738
utasi	-2739
yakin	-2740
▁2013	-2741
▁ahli	-2742
▁aman	-2743
▁beku	-2744
▁berh	-2745
▁bern	-2746
▁bris	-2747
▁carl	-2748
▁daya	-2749
▁di▁g	-2750
▁di▁w	-2751
▁emas	-2752
▁flor	-2753
▁hind	-2754
▁ibuk	-2755
▁ke▁t	-2756
▁kuno	-2757
▁lord	-2758
▁mana	-2759
▁mati	-2760
▁maya	-2761
▁nila	-2762
▁norm	-2763
▁park	-2764
▁paru	-2765
▁paul	-2766
▁pera	-2767
▁perl	-2768
▁plan	-2769
▁prak	-2770
▁pras	-2771
▁prem	-2772
▁pula	-2773
▁raya	-2774
▁rela	-2775
▁rona	-2776
▁rute	-2777
▁seni	-2778
▁seri	-2779
▁siap	-2780
▁sisa	-2781
▁sisi	-2782
▁suhu	-2783
▁suka	-2784
▁tamb	-2785
▁temb	-2786
▁teor	-2787
▁thut	-2788
▁tren	-2789
▁twit	-2790
▁uber	-2791
▁will	-2792
adikal	-2793
akaian	-2794
akwaan	-2795
alaman	-2796
amanya	-2797
andang	-2798
angkah	-2799
angkat	-2800
angkau	-2801
arawan	-2802
asepsi	-2803
ashing	-2804
atikan	-2805
atuhan	-2806
bagian	-2807
ediaan	-2808
ediksi	-2809
ekonom	-2810
empati	-2811
enaran	-2812
enteng	-2813
erinya	-2814
es▁dan	-2815
etujui	-2816
fikasi	-2817
iarkan	-2818
ingkan	-2819
isinya	-2820
maksud	-2821
nya▁ke	-2822
oduksi	-2823
ografi	-2824
olabor	-2825
ombang	-2826
otensi	-2827
pedisi	-2828
ucasus	-2829
umpang	-2830
usakan	-2831
utuhan	-2832
▁1492,	-2833
▁1970-	-2834
▁2010,	-2835
▁2014.	-2836
▁2015,	-2837
▁2017.	-2838
▁aktif	-2839
▁alami	-2840
▁angka	-2841
▁badai	-2842
▁bagus	-2843
▁bantu	-2844
▁belas	-2845
▁biaya	-2846
▁blunt	-2847
▁bodoh	-2848
▁celah	-2849
▁cepat	-2850
▁chris	-2851
▁cuaca	-2852
▁cukup	-2853
▁damai	-2854
▁danau	-2855
▁dan▁h	-2856
▁dan▁j	-2857
▁disel	-2858
▁di▁as	-2859
▁di▁ke	-2860
▁emisi	-2861
▁fiksi	-2862
▁fokus	-2863
▁gener	-2864
▁halus	-2865
▁henry	-2866
▁hewan	-2867
▁iklan	-2868
▁indep	-2869
▁jalan	-2870
▁jalur	-2871
▁juara	-2872
▁kabar	-2873
▁kartu	-2874
▁kehil	-2875
▁kelih	-2876
▁ketur	-2877
▁korea	-2878
▁lawan	-2879
▁legal	-2880
▁lingk	-2881
▁liter	-2882
▁massa	-2883
▁media	-2884
▁memik	-2885
▁merah	-2886
▁mudah	-2887
▁nenek	-2888
▁opini	-2889
▁oscar	-2890
▁paksa	-2891
▁palem	-2892
▁pengh	-2893
▁perlu	-2894
▁pesta	-2895
▁pihak	-2896
▁pilot	-2897
▁polit	-2898
▁puing	-2899
▁putih	-2900
▁refer	-2901
▁riset	-2902
▁saint	-2903
▁senat	-2904
▁siswa	-2905
▁tanda	-2906
▁tarif	-2907
▁tokoh	-2908
▁tubuh	-2909
▁ujung	-2910
▁versi	-2911
▁video	-2912
▁warga	-2913
▁warna	-2914
▁yahud	-2915
▁yakin	-2916
aftaran	-2917
alisasi	-2918
andmark	-2919
angunan	-2920
arankan	-2921
arapkan	-2922
asukkan	-2923
d▁khaan	-2924
elajari	-2925
empatan	-2926
entuhan	-2927
hentian	-2928
idangan	-2929
isahkan	-2930
kirakan	-2931
satunya	-2932
unjungi	-2933
wakilan	-2934
▁associ	-2935
▁athena	-2936
▁barang	-2937
▁christ	-2938
▁dan▁ia	-2939
▁dewasa	-2940
▁di▁kan	-2941
▁di▁seb	-2942
▁elemen	-2943
▁ia▁mem	-2944
▁kadang	-2945
▁kanada	-2946
▁karbon	-2947
▁keaman	-2948
▁kepent	-2949
▁keungg	-2950
▁komand	-2951
▁kritik	-2952
▁london	-2953
▁martin	-2954
▁materi	-2955
▁melaju	-2956
▁memang	-2957
▁menyes	-2958
▁nugini	-2959
▁pantai	-2960
▁pantas	-2961
▁parade	-2962
▁pengak	-2963
▁penyeb	-2964
▁perada	-2965
▁pernik	-2966
▁ponsel	-2967
▁powers	-2968
▁proses	-2969
▁rakyat	-2970
▁saling	-2971
▁sanksi	-2972
▁sayang	-2973
▁seagal	-2974
▁sebaga	-2975
▁selasa	-2976
▁stabil	-2977
▁sumpah	-2978
▁teater	-2979
▁valent	-2980
▁winter	-2981
▁wright	-2982
ahan▁dan	-2983
andalkan	-2984
angkaian	-2985
debatkan	-2986
eluruhan	-2987
empatkan	-2988
harusnya	-2989
inggiran	-2990
inginkan	-2991
kan▁diri	-2992
kenalkan	-2993
nya▁yang	-2994
produksi	-2995
▁akan▁di	-2996
▁alfabet	-2997
▁ancaman	-2998
▁angkasa	-2999
▁antonio	-3000
▁asisten	-3001
▁beijing	-3002
▁catatan	-3003
▁dakwaan	-3004
▁dalam▁p	-3005
▁dan▁mem	-3006
▁digital	-3007
▁dimulai	-3008
▁dirilis	-3009
▁disebut	-3010
▁ditarik	-3011
▁di▁awal	-3012
▁di▁laut	-3013
▁di▁masa	-3014
▁di▁roma	-3015
▁endapan	-3016
▁episode	-3017
▁genting	-3018
▁hal▁ini	-3019
▁herodes	-3020
▁imigran	-3021
▁jasmine	-3022
▁kamerun	-3023
▁katolik	-3024
▁keingin	-3025
▁ketidak	-3026
▁kinerja	-3027
▁kipling	-3028
▁koleksi	-3029
▁kontrol	-3030
▁kristen	-3031
▁langkah	-3032
▁meledak	-3033
▁membaca	-3034
▁mempert	-3035
▁menaruh	-3036
▁menjaga	-3037
▁merebut	-3038
▁merekam	-3039
▁merilis	-3040
▁mishima	-3041
▁operasi	-3042
▁panduan	-3043
▁pemirsa	-3044
▁radikal	-3045
▁samudra	-3046
▁sekadar	-3047
▁standar	-3048
▁tekanan	-3049
▁telepon	-3050
▁teratas	-3051
▁terkait	-3052
▁twitter	-3053
akan▁oleh	-3054
ania▁raya	-3055
arah▁pada	-3056
ashington	-3057
ebangsaan	-3058
ekonomian	-3059
opher▁col	-3060
ropolitan	-3061
▁adalah▁b	-3062
▁akan▁ada	-3063
▁analisis	-3064
▁berakhir	-3065
▁berharap	-3066
▁berkuasa	-3067
▁berlayar	-3068
▁brisbane	-3069
▁carolina	-3070
▁dan▁juga	-3071
▁dan▁peng	-3072
▁democrat	-3073
▁direktur	-3074
▁film▁ini	-3075
▁institut	-3076
▁kalender	-3077
▁kandidat	-3078
▁kerajaan	-3079
▁kesukses	-3080
▁konsumen	-3081
▁kontamin	-3082
▁margaret	-3083
▁matahari	-3084
▁melonjak	-3085
▁mendarat	-3086
▁mengejar	-3087
▁mengubah	-3088
▁menunggu	-3089
▁menyerah	-3090
▁obligasi	-3091
▁partikel	-3092
▁pengalam	-3093
▁penguasa	-3094
▁penonton	-3095
▁perayaan	-3096
▁produksi	-3097
▁reputasi	-3098
▁sebabnya	-3099
▁serangan	-3100
▁sosialis	-3101
▁terbunuh	-3102
▁terburuk	-3103
▁terdapat	-3104
▁terpisah	-3105
▁thutmose	-3106
▁winstone	-3107
▁yang▁ada	-3108
▁bertindak	-3109
▁dalam▁hal	-3110
▁danevirke	-3111
▁dan▁mengh	-3112
▁dengannya	-3113
▁diberikan	-3114
▁dipandang	-3115
▁di▁afrika	-3116
▁di▁bidang	-3117
▁di▁tempat	-3118
▁ekspedisi	-3119
▁gelombang	-3120
▁hitchcock	-3121
▁ini▁tidak	-3122
▁kebutuhan	-3123
▁kejatuhan	-3124
▁kemampuan	-3125
▁kemanusia	-3126
▁keputusan	-3127
▁kerusakan	-3128
▁ketentuan	-3129
▁keturunan	-3130
▁makedonia	-3131
▁masa▁kini	-3132
▁masih▁ada	-3133
▁melampaui	-3134
▁menderita	-3135
▁meningkat	-3136
▁menyerang	-3137
▁pada▁masa	-3138
▁pekerjaan	-3139
▁pelanggan	-3140
▁pemeriksa	-3141
▁penumpang	-3142
▁sebagai▁p	-3143
▁sejarawan	-3144
▁seperti▁b	-3145
▁siapa▁pun	-3146
▁tahun▁ini	-3147
▁tahun▁itu	-3148
▁tersangka	-3149
▁tiga▁kali	-3150
▁valentino	-3151
▁wawancara	-3152
▁yang▁akan	-3153
an▁terhadap	-3154
apua▁nugini	-3155
epas▁pantai	-3156
inya▁dengan	-3157
▁besar▁dari	-3158
▁bogd▁khaan	-3159
▁dalam▁peng	-3160
▁dari▁semua	-3161
▁dibintangi	-3162
▁dilaporkan	-3163
▁dinyatakan	-3164
▁diprediksi	-3165
▁di▁inggris	-3166
▁di▁mana▁ia	-3167
▁di▁sebelah	-3168
▁di▁sekitar	-3169
▁duta▁besar	-3170
▁ia▁bekerja	-3171
▁independen	-3172
▁ini▁berada	-3173
▁intervensi	-3174
▁itu▁dengan	-3175
▁kehilangan	-3176
▁kemenangan	-3177
▁keunggulan	-3178
▁keuntungan	-3179
▁kita▁harus	-3180
▁melaporkan	-3181
▁membiarkan	-3182
▁membuatnya	-3183
▁memikirkan	-3184
▁memutuskan	-3185
▁mengadakan	-3186
▁menghadiri	-3187
▁menjangkau	-3188
▁menyingkap	-3189
▁orang▁lain	-3190
▁organisasi	-3191
▁pengadilan	-3192
▁pengawasan	-3193
▁perwakilan	-3194
▁saya▁sudah	-3195
▁saya▁tidak	-3196
▁sebenarnya	-3197
▁seharusnya	-3198
▁telah▁meny	-3199
▁tiga▁puluh	-3200
▁untuk▁menc	-3201
▁untuk▁mend	-3202
▁yang▁bebas	-3203
▁yang▁belum	-3204
▁yang▁dapat	-3205
▁yang▁diper	-3206
▁yang▁ingin	-3207
▁akan▁sangat	-3208
▁antara▁lain	-3209
▁banyak▁dari	-3210
▁berpengaruh	-3211
▁besar▁untuk	-3212
▁dengan▁cara	-3213
▁diberi▁tahu	-3214
▁dihancurkan	-3215
▁ini▁mungkin	-3216
▁ini▁sebagai	-3217
▁karena▁usia	-3218
▁keluar▁dari	-3219
▁kembali▁dan	-3220
▁kepentingan	-3221
▁keseluruhan	-3222
▁kontrasepsi	-3223
▁membintangi	-3224
▁memenangkan	-3225
▁mengejutkan	-3226
▁mengizinkan	-3227
▁mengumumkan	-3228
▁menyalahkan	-3229
▁menyelidiki	-3230
▁menyerahkan	-3231
▁mereka▁akan	-3232
▁mereka▁yang	-3233
▁musim▁panas	-3234
▁negara▁kota	-3235
▁pelanggaran	-3236
▁pembangunan	-3237
▁pendaftaran	-3238
▁persidangan	-3239
▁real▁estate	-3240
▁sama▁dengan	-3241
▁sama▁sekali	-3242
▁sejak▁tahun	-3243
▁seperti▁itu	-3244
▁tidak▁boleh	-3245
▁yang▁sedang	-3246
▁antara▁tahun	-3247
▁banyak▁orang	-3248
▁berasal▁dari	-3249
▁dalam▁jumlah	-3250
▁dalam▁perang	-3251
▁dari▁prancis	-3252
▁dengan▁orang	-3253
▁digunakan▁di	-3254
▁firaun▁mesir	-3255
▁great▁powers	-3256
▁keberhasilan	-3257
▁kecil▁dengan	-3258
▁masa▁jabatan	-3259
▁memungkinkan	-3260
▁mengharapkan	-3261
▁menghentikan	-3262
▁mereka▁harus	-3263
▁metropolitan	-3264
▁musim▁dingin	-3265
▁pada▁abad▁ke	-3266
▁sangat▁tidak	-3267
▁terdiri▁dari	-3268
▁yang▁dijalan	-3269
▁yang▁tinggal	-3270
nya▁pada▁tahun	-3271
opher▁columbus	-3272
▁dan▁bagaimana	-3273
▁dan▁khususnya	-3274
▁dan▁yang▁juga	-3275
▁diperdebatkan	-3276
▁internasional	-3277
▁kalender▁cina	-3278
▁makedonia▁dan	-3279
▁mengarah▁pada	-3280
▁seorang▁gadis	-3281
▁yang▁mewakili	-3282
▁bulan▁november	-3283
▁dan▁pada▁tahun	-3284
▁di▁wilayah▁ini	-3285
▁mengambil▁alih	-3286
▁north▁carolina	-3287
▁sebagai▁akibat	-3288
▁semakin▁banyak	-3289
▁sendiri▁dengan	-3290
▁surat▁obligasi	-3291
▁tapi▁tidak▁ada	-3292
▁untuk▁memenuhi	-3293
▁yang▁digunakan	-3294
▁yang▁merupakan	-3295
▁amerika▁selatan	-3296
▁dan▁mendapatkan	-3297
▁dibintangi▁oleh	-3298
▁dikenal▁sebagai	-3299
▁keuntungan▁dari	-3300
▁menjadi▁semakin	-3301
▁mereka▁memiliki	-3302
▁untuk▁membentuk	-3303
'.	-3304
,5	-3305
0%	-3306
10	-3307
4,	-3308
50	-3309
6%	-3310
8.	-3311
94	-3312
az	-3313
ba	-3314
cb	-3315
ct	-3316
cu	-3317
db	-3318
eu	-3319
fc	-3320
fi	-3321
gy	-3322
hu	-3323
ix	-3324
jm	-3325
my	-3326
nd	-3327
ni	-3328
no	-3329
re	-3330
rr	-3331
sl	-3332
yu	-3333
zl	-3334
zá	-3335
1,5	-3336
60.	-3337
760	-3338
ack	-3339
alk	-3340
alu	-3341
amm	-3342
anz	-3343
aro	-3344
ase	-3345
ass	-3346
att	-3347
a▁b	-3348
cad	-3349
cas	-3350
cer	-3351
dan	-3352
dis	-3353
ebe	-3354
ebo	-3355
eco	-3356
eku	-3357
elg	-3358
emy	-3359
eor	-3360
epi	-3361
erh	-3362
erj	-3363
esh	-3364
ewa	-3365
fas	-3366
gal	-3367
gam	-3368
gel	-3369
ges	-3370
gow	-3371
guh	-3372
gur	-3373
hai	-3374
hoa	-3375
iao	-3376
ide	-3377
idi	-3378
ilb	-3379
inj	-3380
ins	-3381
ion	-3382
iot	-3383
ire	-3384
iro	-3385
ish	-3386
jau	-3387
jek	-3388
jol	-3389
kah	-3390
kar	-3391
kep	-3392
kop	-3393
kor	-3394
lak	-3395
lap	-3396
les	-3397
let	-3398
lev	-3399
lez	-3400
mat	-3401
mes	-3402
mon	-3403
nak	-3404
nes	-3405
now	-3406
obi	-3407
oda	-3408
oga	-3409
ogl	-3410
ojm	-3411
oln	-3412
oma	-3413
ono	-3414
ool	-3415
ora	-3416
ore	-3417
oss	-3418
ouf	-3419
oun	-3420
ous	-3421
oya	-3422
pek	-3423
pes	-3424
pet	-3425
pir	-3426
put	-3427
que	-3428
ras	-3429
ret	-3430
rey	-3431
r▁i	-3432
san	-3433
seb	-3434
sek	-3435
ser	-3436
sia	-3437
sik	-3438
sim	-3439
sin	-3440
sit	-3441
str	-3442
sus	-3443
tar	-3444
taw	-3445
tel	-3446
tem	-3447
tic	-3448
tih	-3449
til	-3450
tim	-3451
tip	-3452
tok	-3453
tuj	-3454
tup	-3455
uba	-3456
ube	-3457
uju	-3458
uki	-3459
ulu	-3460
uma	-3461
umi	-3462
ums	-3463
urv	-3464
usa	-3465
war	-3466
weg	-3467
yol	-3468
”▁(	-3469
▁12	-3470
▁21	-3471
▁28	-3472
▁33	-3473
▁34	-3474
▁53	-3475
▁90	-3476
▁av	-3477
▁ex	-3478
▁fi	-3479
▁iv	-3480
▁kn	-3481
▁lo	-3482
▁mc	-3483
▁ms	-3484
▁ng	-3485
▁nn	-3486
▁ph	-3487
▁py	-3488
▁rs	-3489
▁ru	-3490
▁uc	-3491
▁vi	-3492
▁vw	-3493
abut	-3494
acun	-3495
adir	-3496
adop	-3497
agar	-3498
aina	-3499
,▁'	-3500
1,4	-3501
arn	-3502
esp	-3503
akai	-3504
akum	-3505
alih	-3506
alon	-3507
al▁d	-3508
amil	-3509
ampu	-3510
anan	-3511
anco	-3512
andu	-3513
angl	-3514
anja	-3515
anut	-3516
an▁h	-3517
apus	-3518
arab	-3519
arez	-3520
arki	-3521
arkt	-3522
arta	-3523
arth	-3524
asis	-3525
asok	-3526
asta	-3527
atka	-3528
atus	-3529
awal	-3530
beda	-3531
bots	-3532
cena	-3533
cist	-3534
cord	-3535
dewa	-3536
diri	-3537
drin	-3538
edah	-3539
egah	-3540
ejak	-3541
ekut	-3542
elek	-3543
elmi	-3544
eman	-3545
emat	-3546
emeh	-3547
emui	-3548
emuk	-3549
enov	-3550
enya	-3551
erla	-3552
erus	-3553
esif	-3554
esus	-3555
ewat	-3556
exit	-3557
ford	-3558
gesa	-3559
hael	-3560
heel	-3561
iami	-3562
iasa	-3563
ia▁h	-3564
ibun	-3565
ibut	-3566
idik	-3567
iker	-3568
ilia	-3569
ilip	-3570
iman	-3571
imat	-3572
imia	-3573
irip	-3574
iron	-3575
isan	-3576
istr	-3577
is▁d	-3578
ivid	-3579
jang	-3580
jauh	-3581
kita	-3582
kota	-3583
lagi	-3584
lahr	-3585
lami	-3586
lant	-3587
lein	-3588
mara	-3589
mbut	-3590
ndar	-3591
nest	-3592
okan	-3593
olai	-3594
olar	-3595
olas	-3596
olis	-3597
omas	-3598
onds	-3599
gaj	-3600
gen	-3601
▁ik	-3602
ajam	-3603
fesi	-3604
omer	-3605
oner	-3606
onor	-3607
onzá	-3608
osot	-3609
otes	-3610
otif	-3611
ouis	-3612
ound	-3613
owak	-3614
ower	-3615
oyne	-3616
part	-3617
pres	-3618
ring	-3619
roso	-3620
sial	-3621
sias	-3622
sisa	-3623
tama	-3624
tawa	-3625
timb	-3626
trat	-3627
uatu	-3628
udid	-3629
uduh	-3630
udul	-3631
ukit	-3632
ulti	-3633
ulut	-3634
untu	-3635
urah	-3636
usak	-3637
usin	-3638
vasi	-3639
ward	-3640
wiss	-3641
▁...	-3642
▁1.3	-3643
▁107	-3644
▁156	-3645
▁183	-3646
▁185	-3647
▁187	-3648
▁190	-3649
▁20,	-3650
▁500	-3651
▁60-	-3652
▁aku	-3653
▁alv	-3654
▁ana	-3655
▁aug	-3656
▁bab	-3657
▁bad	-3658
▁bob	-3659
▁bre	-3660
▁bud	-3661
▁bum	-3662
▁cab	-3663
▁cec	-3664
▁ced	-3665
▁cel	-3666
▁cot	-3667
▁cup	-3668
▁dah	-3669
▁def	-3670
▁dic	-3671
▁dom	-3672
▁env	-3673
▁erd	-3674
▁fac	-3675
▁fat	-3676
▁gab	-3677
▁gam	-3678
▁gez	-3679
▁gop	-3680
▁gor	-3681
▁gub	-3682
▁hem	-3683
▁hor	-3684
▁jim	-3685
▁jol	-3686
▁jul	-3687
▁kas	-3688
▁keg	-3689
▁kod	-3690
▁lar	-3691
▁las	-3692
▁len	-3693
▁lib	-3694
▁mad	-3695
▁mag	-3696
▁maj	-3697
▁mau	-3698
▁mps	-3699
▁nap	-3700
▁nil	-3701
▁non	-3702
▁pah	-3703
▁peg	-3704
▁pho	-3705
▁pia	-3706
▁pla	-3707
▁rem	-3708
▁rib	-3709
▁ros	-3710
▁sab	-3711
▁san	-3712
▁sir	-3713
▁sis	-3714
▁sol	-3715
▁sum	-3716
▁tab	-3717
▁tam	-3718
▁tes	-3719
▁tip	-3720
▁tol	-3721
▁tua	-3722
▁tul	-3723
▁ukr	-3724
▁von	-3725
▁waj	-3726
▁wan	-3727
▁wil	-3728
▁wol	-3729
▁yan	-3730
▁you	-3731
▁zay	-3732
▁£12	-3733
abrik	-3734
adian	-3735
agang	-3736
ahami	-3737
ah▁di	-3738
aktif	-3739
ak▁ke	-3740
alano	-3741
amati	-3742
anchu	-3743
andai	-3744
ander	-3745
andia	-3746
andum	-3747
anjir	-3748
ansas	-3749
antor	-3750
aptis	-3751
arian	-3752
arlin	-3753
artph	-3754
asiun	-3755
atnya	-3756
ban▁m	-3757
benar	-3758
benda	-3759
beouf	-3760
besar	-3761
burgh	-3762
curie	-3763
cu▁su	-3764
dalam	-3765
diper	-3766
ebook	-3767
ecual	-3768
elgia	-3769
eliti	-3770
elola	-3771
empur	-3772
enanj	-3773
encan	-3774
encar	-3775
endek	-3776
endum	-3777
engar	-3778
en▁di	-3779
erdas	-3780
ernur	-3781
esaan	-3782
esies	-3783
esses	-3784
estik	-3785
etapa	-3786
evisi	-3787
geron	-3788
getar	-3789
iayai	-3790
ikota	-3791
ik▁ke	-3792
ilaku	-3793
ileri	-3794
imbah	-3795
intas	-3796
ipuan	-3797
iraan	-3798
isang	-3799
isial	-3800
isi▁t	-3801
itasi	-3802
ium▁b	-3803
jemen	-3804
jukan	-3805
kapai	-3806
lamat	-3807
lasik	-3808
makna	-3809
mulai	-3810
nyata	-3811
odiak	-3812
oklam	-3813
okrat	-3814
oleon	-3815
omers	-3816
omosi	-3817
ompey	-3818
ongan	-3819
onjol	-3820
onsor	-3821
orasi	-3822
oskop	-3823
otify	-3824
pania	-3825
pansi	-3826
promi	-3827
resif	-3828
rihat	-3829
rolan	-3830
sberg	-3831
sifat	-3832
sinya	-3833
tanda	-3834
trans	-3835
treet	-3836
tunya	-3837
turut	-3838
tutup	-3839
uduki	-3840
uncil	-3841
upaya	-3842
urvei	-3843
utupi	-3844
ville	-3845
wegia	-3846
▁1916	-3847
▁1960	-3848
▁1991	-3849
▁2004	-3850
▁2015	-3851
▁acad	-3852
▁agak	-3853
▁akal	-3854
▁akun	-3855
▁alex	-3856
▁antu	-3857
▁apul	-3858
▁arab	-3859
▁awan	-3860
▁ayah	-3861
▁baja	-3862
▁band	-3863
▁bara	-3864
▁bass	-3865
▁berj	-3866
▁blog	-3867
▁brit	-3868
▁burg	-3869
▁cakr	-3870
▁ceko	-3871
▁comm	-3872
▁cuma	-3873
▁debu	-3874
▁diwa	-3875
▁di▁h	-3876
▁di▁t	-3877
▁di▁v	-3878
▁di▁y	-3879
▁doss	-3880
▁edin	-3881
▁ekos	-3882
▁elit	-3883
▁ford	-3884
▁grav	-3885
▁hous	-3886
▁ikan	-3887
▁jurn	-3888
▁kait	-3889
▁kaki	-3890
▁kamp	-3891
▁kana	-3892
▁kano	-3893
▁kaya	-3894
▁kayu	-3895
▁keag	-3896
▁keen	-3897
▁kena	-3898
▁ke▁m	-3899
▁koal	-3900
▁kode	-3901
▁krim	-3902
▁kuat	-3903
▁lans	-3904
▁liao	-3905
▁linc	-3906
▁main	-3907
▁mand	-3908
▁mark	-3909
▁merd	-3910
▁miss	-3911
▁mons	-3912
▁news	-3913
▁opsi	-3914
▁paus	-3915
▁perc	-3916
▁peta	-3917
▁plat	-3918
▁poin	-3919
▁prov	-3920
▁pugh	-3921
▁purn	-3922
▁rach	-3923
▁radi	-3924
▁ramb	-3925
▁reag	-3926
▁roda	-3927
▁samp	-3928
▁sand	-3929
▁sara	-3930
▁semb	-3931
▁serv	-3932
▁skot	-3933
▁slav	-3934
▁snow	-3935
▁ster	-3936
▁subs	-3937
▁taut	-3938
▁tema	-3939
▁tepi	-3940
▁tiba	-3941
▁timb	-3942
▁tina	-3943
▁trix	-3944
▁ucap	-3945
▁visi	-3946
▁wang	-3947
▁yuan	-3948
▁zona	-3949
▁£760	-3950
5.000.	-3951
adatan	-3952
adikan	-3953
ahasia	-3954
aikkan	-3955
ainkan	-3956
akuasi	-3957
alangi	-3958
alatan	-3959
alenta	-3960
amudra	-3961
an▁mod	-3962
an▁pun	-3963
arinya	-3964
asifik	-3965
asi▁kh	-3966
aterai	-3967
awanya	-3968
bangsa	-3969
cayaan	-3970
ebasan	-3971
ebriti	-3972
edakan	-3973
egahan	-3974
ejabat	-3975
ejarah	-3976
ekutif	-3977
enjata	-3978
entasi	-3979
epatan	-3980
erahan	-3981
erhana	-3982
er▁dan	-3983
esalan	-3984
etahui	-3985
etakan	-3986
eteksi	-3987
e▁town	-3988
gawasi	-3989
gumkan	-3990
ibutor	-3991
igrasi	-3992
ijakan	-3993
ikanya	-3994
ikinya	-3995
indari	-3996
inding	-3997
indung	-3998
ingham	-3999
ingung	-4000
intasi	-4001
invest	-4002
isikan	-4003
is▁dan	-4004
jadian	-4005
kandal	-4006
kemuka	-4007
lasgow	-4008
muasal	-4009
oduser	-4010
ompong	-4011
ontrol	-4012
otanya	-4013
paikan	-4014
ricone	-4015
sumber	-4016
tawari	-4017
tempat	-4018
truksi	-4019
uannya	-4020
udukan	-4021
ulauan	-4022
ulitan	-4023
ungnya	-4024
unjung	-4025
untung	-4026
urance	-4027
utrisi	-4028
valeri	-4029
yboard	-4030
▁1770,	-4031
▁1911,	-4032
▁1914,	-4033
▁1960-	-4034
▁1976,	-4035
▁1980-	-4036
▁1990-	-4037
▁1997.	-4038
▁2003,	-4039
▁2007,	-4040
▁2011,	-4041
▁2012,	-4042
▁admin	-4043
▁agung	-4044
▁alarm	-4045
▁anaya	-4046
▁andes	-4047
▁angel	-4048
▁aplik	-4049
▁arsit	-4050
▁badan	-4051
▁balap	-4052
▁berat	-4053
▁berga	-4054
▁berpr	-4055
▁brand	-4056
▁bukti	-4057
▁buruk	-4058
▁busin	-4059
▁curah	-4060
▁dan▁a	-4061
▁dan▁d	-4062
▁darah	-4063
▁david	-4064
▁debat	-4065
▁delap	-4066
▁delta	-4067
▁diaba	-4068
▁diken	-4069
▁dimil	-4070
▁diser	-4071
▁etnis	-4072
▁fakta	-4073
▁final	-4074
▁fitur	-4075
▁ganja	-4076
▁geyer	-4077
▁gitar	-4078
▁gonzá	-4079
▁gurun	-4080
▁habis	-4081
▁hadir	-4082
▁hasil	-4083
▁herzl	-4084
▁hijau	-4085
▁hills	-4086
▁hitam	-4087
▁human	-4088
▁impor	-4089
▁istri	-4090
▁james	-4091
▁jatuh	-4092
▁jejak	-4093
▁kabut	-4094
▁kagum	-4095
▁kamis	-4096
▁kapel	-4097
▁karel	-4098
▁keind	-4099
▁keker	-4100
▁kelah	-4101
▁kemar	-4102
▁kenal	-4103
▁keper	-4104
▁kesal	-4105
▁ke▁al	-4106
▁klasi	-4107
▁klein	-4108
▁kolon	-4109
▁label	-4110
▁labor	-4111
▁latin	-4112
▁layan	-4113
▁layar	-4114
▁leive	-4115
▁lewat	-4116
▁lihat	-4117
▁lokal	-4118
▁louis	-4119
▁mahas	-4120
▁malah	-4121
▁marco	-4122
▁maret	-4123
▁medis	-4124
▁meiji	-4125
▁meman	-4126
▁memer	-4127
▁memuj	-4128
▁menaw	-4129
▁menet	-4130
▁menit	-4131
▁meter	-4132
▁metro	-4133
▁milik	-4134
▁model	-4135
▁my▁he	-4136
▁ngeri	-4137
▁nilai	-4138
▁obama	-4139
▁olahr	-4140
▁omong	-4141
▁pajak	-4142
▁pakar	-4143
▁pangl	-4144
▁pasti	-4145
▁pelop	-4146
▁pemuk	-4147
▁perum	-4148
▁pohon	-4149
▁puisi	-4150
▁pulih	-4151
▁punta	-4152
▁pusat	-4153
▁radar	-4154
▁retor	-4155
▁rilis	-4156
▁roman	-4157
▁rutin	-4158
▁saham	-4159
▁sahel	-4160
▁samar	-4161
▁santa	-4162
▁sehat	-4163
▁strat	-4164
▁super	-4165
▁tajam	-4166
▁teori	-4167
▁tingg	-4168
▁turun	-4169
▁union	-4170
▁urban	-4171
▁usaha	-4172
▁utang	-4173
▁wadah	-4174
▁wafat	-4175
▁wajah	-4176
▁wheel	-4177
▁yesus	-4178
adangan	-4179
ahankan	-4180
aksikan	-4181
alir▁ke	-4182
amannya	-4183
anggang	-4184
antisip	-4185
anyakan	-4186
an▁akan	-4187
an▁juga	-4188
arktika	-4189
asionis	-4190
beijing	-4191
berikan	-4192
cenaean	-4193
elahian	-4194
embakan	-4195
endapat	-4196
engkapi	-4197
enician	-4198
enovasi	-4199
ensinya	-4200
erjakan	-4201
er▁yang	-4202
faatkan	-4203
fascist	-4204
hatikan	-4205
ia▁yang	-4206
indukan	-4207
indungi	-4208
injaman	-4209
iptakan	-4210
i▁kimia	-4211
lakinya	-4212
mainkan	-4213
masalah	-4214
oglobin	-4215
okratik	-4216
ongyang	-4217
operasi	-4218
ormatan	-4219
peramen	-4220
perimen	-4221
perinci	-4222
residen	-4223
sajikan	-4224
saudara	-4225
sungguh	-4226
tivitas	-4227
unculan	-4228
ungan▁s	-4229
unjukan	-4230
urnamen	-4231
utuhkan	-4232
yakinan	-4233
▁abbots	-4234
▁adanya	-4235
▁akurat	-4236
▁alaska	-4237
▁aldrin	-4238
▁altern	-4239
▁americ	-4240
▁armada	-4241
▁asmara	-4242
▁atlant	-4243
▁aturan	-4244
▁berdua	-4245
▁bilang	-4246
▁brasil	-4247
▁brexit	-4248
▁cabang	-4249
▁caesar	-4250
▁carlos	-4251
▁carson	-4252
▁cedera	-4253
▁celtic	-4254
▁cendek	-4255
▁cender	-4256
▁cerdas	-4257
▁cotton	-4258
▁cumber	-4259
▁daftar	-4260
▁dan▁br	-4261
▁dan▁di	-4262
▁dan▁gr	-4263
▁dan▁se	-4264
▁dari▁l	-4265
▁desain	-4266
▁dibuka	-4267
▁dipicu	-4268
▁di▁kor	-4269
▁di▁med	-4270
▁di▁ped	-4271
▁dokter	-4272
▁energi	-4273
▁faktor	-4274
▁gambar	-4275
▁gandum	-4276
▁george	-4277
▁ground	-4278
▁hindia	-4279
▁hormat	-4280
▁ikan▁l	-4281
▁indian	-4282
▁inspir	-4283
▁invasi	-4284
▁istana	-4285
▁jarang	-4286
▁joliot	-4287
▁kadesh	-4288
▁kantor	-4289
▁kapita	-4290
▁klimat	-4291
▁komedi	-4292
▁komisi	-4293
▁konsep	-4294
▁konyol	-4295
▁krisis	-4296
▁kristi	-4297
▁kursus	-4298
▁laguna	-4299
▁lamarr	-4300
▁limbah	-4301
▁lumpur	-4302
▁madrid	-4303
▁mailis	-4304
▁maksim	-4305
▁maksud	-4306
▁mantan	-4307
▁medali	-4308
▁menang	-4309
▁menara	-4310
▁menges	-4311
▁menuju	-4312
▁metode	-4313
▁minyak	-4314
▁naskah	-4315
▁oleh▁m	-4316
▁output	-4317
▁pacuan	-4318
▁pascap	-4319
▁patung	-4320
▁pelari	-4321
▁penutu	-4322
▁persah	-4323
▁petani	-4324
▁petisi	-4325
▁philip	-4326
▁pindah	-4327
▁pompey	-4328
▁poster	-4329
▁protes	-4330
▁puncak	-4331
▁rambut	-4332
▁reaksi	-4333
▁really	-4334
▁record	-4335
▁rekons	-4336
▁sahara	-4337
▁sampai	-4338
▁school	-4339
▁sehari	-4340
▁sejauh	-4341
▁sekutu	-4342
▁sepatu	-4343
▁setara	-4344
▁sparta	-4345
▁spring	-4346
▁street	-4347
▁studio	-4348
▁sukses	-4349
▁swasta	-4350
▁swedia	-4351
▁tambah	-4352
▁tangan	-4353
▁tangga	-4354
▁teknik	-4355
▁temuan	-4356
▁terbit	-4357
▁thomas	-4358
▁thrace	-4359
▁tribun	-4360
▁tumbuh	-4361
▁ukuran	-4362
▁vulkan	-4363
▁wanita	-4364
▁zodiak	-4365
aftar▁di	-4366
ahkan▁ke	-4367
am▁dalam	-4368
ang▁yang	-4369
an▁badai	-4370
an▁besar	-4371
artphone	-4372
asi▁baru	-4373
at▁dalam	-4374
ayangkan	-4375
caucasus	-4376
elabuhan	-4377
elektual	-4378
eluarkan	-4379
enanjung	-4380
engaruhi	-4381
entangan	-4382
enterian	-4383
fesional	-4384
harapkan	-4385
ia▁kedua	-4386
indungan	-4387
ingannya	-4388
ironment	-4389
na▁tumor	-4390
nya▁akan	-4391
partikel	-4392
tifikasi	-4393
uncurkan	-4394
▁academy	-4395
▁agresif	-4396
▁alvarez	-4397
▁anselmi	-4398
▁artikel	-4399
▁artinya	-4400
▁austria	-4401
▁bahwa▁r	-4402
▁baterai	-4403
▁berdiri	-4404
▁berhati	-4405
▁bioskop	-4406
▁council	-4407
▁dalam▁a	-4408
▁dan▁kon	-4409
▁dan▁mel	-4410
▁dan▁ser	-4411
▁dan▁wal	-4412
▁dari▁sc	-4413
▁delapan	-4414
▁dibudid	-4415
▁didakwa	-4416
▁dikirim	-4417
▁dipamer	-4418
▁dipilih	-4419
▁di▁asia	-4420
▁di▁brit	-4421
▁duke▁of	-4422
▁erdogan	-4423
▁florida	-4424
▁harapan	-4425
▁hiburan	-4426
▁hukuman	-4427
▁ia▁bisa	-4428
▁ia▁lalu	-4429
▁ibukota	-4430
▁individ	-4431
▁ini▁dan	-4432
▁ini▁dip	-4433
▁itu▁dan	-4434
▁itu▁dik	-4435
▁itu▁tak	-4436
▁jajaran	-4437
▁jalanan	-4438
▁jawaban	-4439
▁jutting	-4440
▁kampany	-4441
▁kandung	-4442
▁katakan	-4443
▁kawasan	-4444
▁kebiasa	-4445
▁kecuali	-4446
▁ketingg	-4447
▁koalisi	-4448
▁kolabor	-4449
▁komando	-4450
▁konseku	-4451
▁konteks	-4452
▁kuburan	-4453
▁labeouf	-4454
▁lakukan	-4455
▁lanskap	-4456
▁latihan	-4457
▁liburan	-4458
▁lincoln	-4459
▁lingkup	-4460
▁majelis	-4461
▁memakai	-4462
▁menekan	-4463
▁menemui	-4464
▁menuduh	-4465
▁menurun	-4466
▁meremeh	-4467
▁michael	-4468
▁mineral	-4469
▁minuman	-4470
▁musikal	-4471
▁nicolai	-4472
▁obrolan	-4473
▁pandang	-4474
▁pemilih	-4475
▁penjaga	-4476
▁penyany	-4477
▁perdana	-4478
▁perkota	-4479
▁pikiran	-4480
▁pilihan	-4481
▁populer	-4482
▁praktik	-4483
▁prinsip	-4484
▁puluhan	-4485
▁purnama	-4486
▁rahasia	-4487
▁rekaman	-4488
▁relawan	-4489
▁sakit▁p	-4490
▁saluran	-4491
▁sepuluh	-4492
▁sesuatu	-4493
▁singkat	-4494
▁skandal	-4495
▁snowman	-4496
▁spesies	-4497
▁sponsor	-4498
▁spotify	-4499
▁starlin	-4500
▁stasiun	-4501
▁stephen	-4502
▁susunan	-4503
▁tahanan	-4504
▁tekstil	-4505
▁tembaga	-4506
▁tersisa	-4507
▁tertawa	-4508
▁ukraina	-4509
▁uni▁ini	-4510
▁untuk▁t	-4511
▁venesia	-4512
▁william	-4513
akaiannya	-4514
angguhkan	-4515
an▁budaya	-4516
an▁dengan	-4517
an▁mereka	-4518
an▁minggu	-4519
elahirkan	-4520
elakangan	-4521
elisahkan	-4522
ian▁suara	-4523
ium▁bonds	-4524
larasikan	-4525
lez▁anaya	-4526
onal▁pria	-4527
orientasi	-4528
rihatinan	-4529
terbitkan	-4530
tumbuhkan	-4531
▁adalah▁m	-4532
▁air▁dari	-4533
▁anggaran	-4534
▁angkatan	-4535
▁antusias	-4536
▁artileri	-4537
▁artistik	-4538
▁augustus	-4539
▁bersifat	-4540
▁bertanya	-4541
▁bumi▁dan	-4542
▁burgoyne	-4543
▁business	-4544
▁catalano	-4545
▁dan▁guru	-4546
▁dan▁memp	-4547
▁dan▁nama	-4548
▁dan▁pers	-4549
▁dan▁satu	-4550
▁dengan▁c	-4551
▁depannya	-4552
▁depan▁st	-4553
▁dianggap	-4554
▁disimpan	-4555
▁ditempat	-4556
▁di▁akhir	-4557
▁di▁album	-4558
▁di▁kelas	-4559
▁di▁paris	-4560
▁di▁pulau	-4561
▁di▁rumah	-4562
▁di▁tahun	-4563
▁di▁timur	-4564
▁ekspansi	-4565
▁euro▁per	-4566
▁evakuasi	-4567
▁facebook	-4568
▁gabungan	-4569
▁gaji▁dan	-4570
▁gubernur	-4571
▁harganya	-4572
▁hari▁ini	-4573
▁hispania	-4574
▁ia▁telah	-4575
▁ini▁naik	-4576
▁intensif	-4577
▁irlandia	-4578
▁islandia	-4579
▁itu▁juga	-4580
▁itu▁yang	-4581
▁jaringan	-4582
▁jurnalis	-4583
▁juta▁dan	-4584
▁kali▁ini	-4585
▁karyawan	-4586
▁kavaleri	-4587
▁keamanan	-4588
▁kedokter	-4589
▁kelompok	-4590
▁kenaikan	-4591
▁kesamaan	-4592
▁keuangan	-4593
▁lagi▁dan	-4594
▁landmark	-4595
▁lapangan	-4596
▁logistik	-4597
▁maskapai	-4598
▁melarang	-4599
▁membahas	-4600
▁memegang	-4601
▁memenuhi	-4602
▁menandai	-4603
▁menangan	-4604
▁mendomin	-4605
▁mengerti	-4606
▁mengukur	-4607
▁mengutip	-4608
▁menikahi	-4609
▁menjabat	-4610
▁menyelam	-4611
▁mercu▁su	-4612
▁miliaran	-4613
▁misalnya	-4614
▁napoleon	-4615
▁national	-4616
▁new▁york	-4617
▁norwegia	-4618
▁olahraga	-4619
▁pada▁apa	-4620
▁pagi▁ini	-4621
▁panglima	-4622
▁para▁pem	-4623
▁para▁pen	-4624
▁penampil	-4625
▁pencalon	-4626
▁penemuan	-4627
▁pengaruh	-4628
▁pengguna	-4629
▁penipuan	-4630
▁penyebab	-4631
▁perairan	-4632
▁pertanya	-4633
▁perunggu	-4634
▁polandia	-4635
▁produser	-4636
▁properti	-4637
▁provinsi	-4638
▁ramesses	-4639
▁satu▁pun	-4640
▁sebuah▁l	-4641
▁sembilan	-4642
▁seminggu	-4643
▁setempat	-4644
▁setengah	-4645
▁tapi▁ini	-4646
▁televisi	-4647
▁teoretis	-4648
▁terampil	-4649
▁terbakar	-4650
▁terlihat	-4651
▁terpilih	-4652
▁tionghoa	-4653
▁undangan	-4654
▁untuk▁di	-4655
▁waktunya	-4656
▁walikota	-4657
▁yang▁bag	-4658
▁yang▁dip	-4659
▁yang▁mah	-4660
▁yang▁mel	-4661
▁yudisial	-4662
asi▁khitan	-4663
batu▁besar	-4664
gerak▁maju	-4665
hawatirkan	-4666
ikuti▁oleh	-4667
istik▁yang	-4668
nya▁secara	-4669
oklamirkan	-4670
orang▁yang	-4671
pertanyaan	-4672
perusahaan	-4673
saya▁tidak	-4674
▁administr	-4675
▁akan▁memb	-4676
▁album▁itu	-4677
▁alexander	-4678
▁baik▁saat	-4679
▁bangsawan	-4680
▁banyaknya	-4681
▁batu▁bara	-4682
▁berbentuk	-4683
▁berlanjut	-4684
▁bermaksud	-4685
▁bertempur	-4686
▁cape▁town	-4687
▁cenderung	-4688
▁dalam▁ser	-4689
▁dan▁harus	-4690
▁dan▁mulai	-4691
▁dan▁tahun	-4692
▁dan▁tidak	-4693
▁dan▁untuk	-4694
▁dari▁biji	-4695
▁diabaikan	-4696
▁ditemukan	-4697
▁ditinggal	-4698
▁di▁lokasi	-4699
▁di▁negara	-4700
▁edinburgh	-4701
▁ekosistem	-4702
▁eksekutif	-4703
▁endurance	-4704
▁finlandia	-4705
▁ini▁dalam	-4706
▁institute	-4707
▁itu▁benar	-4708
▁itu▁mulai	-4709
▁itu▁telah	-4710
▁jam▁kerja	-4711
▁jauh▁dari	-4712
▁kaitannya	-4713
▁kami▁akan	-4714
▁keagamaan	-4715
▁kebijakan	-4716
▁kekalahan	-4717
▁kelahiran	-4718
▁kelihatan	-4719
▁kepulauan	-4720
▁kesehatan	-4721
▁kesulitan	-4722
▁ketenaran	-4723
▁ketika▁ia	-4724
▁kurangnya	-4725
▁lain▁yang	-4726
▁legislasi	-4727
▁mahasiswa	-4728
▁manajemen	-4729
▁mata▁uang	-4730
▁melainkan	-4731
▁melintasi	-4732
▁membatasi	-4733
▁membuat▁f	-4734
▁menduduki	-4735
▁mengawasi	-4736
▁menghapus	-4737
▁mengklaim	-4738
▁menjalani	-4739
▁menyaingi	-4740
▁menyambut	-4741
▁menyesali	-4742
▁morricone	-4743
▁negaranya	-4744
▁oleh▁para	-4745
▁orang▁itu	-4746
▁pada▁abad	-4747
▁para▁kons	-4748
▁para▁pend	-4749
▁pengakuan	-4750
▁pengganti	-4751
▁perkiraan	-4752
▁per▁tahun	-4753
▁pinggiran	-4754
▁progresif	-4755
▁puterinya	-4756
▁reformasi	-4757
▁sayangnya	-4758
▁saya▁juga	-4759
▁saya▁rasa	-4760
▁sederhana	-4761
▁selebriti	-4762
▁seperti▁r	-4763
▁situs▁web	-4764
▁taman▁ini	-4765
▁tempat▁di	-4766
▁tempat▁ia	-4767
▁terkemuka	-4768
▁tidak▁dik	-4769
▁tidak▁sah	-4770
▁tingginya	-4771
▁ungkapnya	-4772
▁uni▁eropa	-4773
▁untuk▁mel	-4774
▁untuk▁mps	-4775
▁untuk▁pem	-4776
▁waktu▁itu	-4777
▁winterkor	-4778
▁yang▁baik	-4779
▁yang▁jika	-4780
▁yang▁kaya	-4781
▁yang▁kuat	-4782
▁yang▁menj	-4783
▁yang▁terp	-4784
akan▁bagian	-4785
akan▁selama	-4786
annya▁dalam	-4787
ar▁di▁punta	-4788
itif▁dengan	-4789
perimen▁ini	-4790
▁abbotsford	-4791
▁akan▁disel	-4792
▁alternatif	-4793
▁anda▁harus	-4794
▁antarktika	-4795
▁arsitektur	-4796
▁awalnya▁di	-4797
▁banyak▁per	-4798
▁barat▁laut	-4799
▁berpotensi	-4800
▁bersenjata	-4801
▁bertemu▁di	-4802
▁bisa▁diter	-4803
▁bulan▁lalu	-4804
▁cumberland	-4805
▁dalam▁enam	-4806
▁dalam▁pola	-4807
▁dan▁banyak	-4808
▁dan▁dengan	-4809
▁dan▁tumbuh	-4810
▁dari▁sudut	-4811
▁dari▁udara	-4812
▁demokratik	-4813
▁dengan▁ini	-4814
▁dengan▁kap	-4815
▁diandalkan	-4816
▁dilengkapi	-4817
▁di▁belanda	-4818
▁di▁pesawat	-4819
▁fokus▁pada	-4820
▁gedung▁itu	-4821
▁gelanggang	-4822
▁hanya▁bisa	-4823
▁hemoglobin	-4824
▁ia▁memulai	-4825
▁ibu▁mereka	-4826
▁ingin▁tahu	-4827
▁ini▁sangat	-4828
▁jauh▁lebih	-4829
▁juga▁telah	-4830
▁kata▁leive	-4831
▁kekurangan	-4832
▁kepada▁cnn	-4833
▁kepresiden	-4834
▁kesempatan	-4835
▁kesuksesan	-4836
▁kolaborasi	-4837
▁kontribusi	-4838
▁laut▁hitam	-4839
▁legislatif	-4840
▁masuk▁akal	-4841
▁melibatkan	-4842
▁memasukkan	-4843
▁membawanya	-4844
▁menawarkan	-4845
▁menetapkan	-4846
▁menganggap	-4847
▁mengundang	-4848
▁menjadikan	-4849
▁menyetujui	-4850
▁mereka▁men	-4851
▁nama▁depan	-4852
▁oleh▁orang	-4853
▁orang▁mati	-4854
▁parade▁itu	-4855
▁para▁biara	-4856
▁pasukannya	-4857
▁pegunungan	-4858
▁pembuangan	-4859
▁pendudukan	-4860
▁penembakan	-4861
▁penguburan	-4862
▁penunjukan	-4863
▁pernikahan	-4864
▁persediaan	-4865
▁per▁kapita	-4866
▁pesan▁yang	-4867
▁phoenician	-4868
▁prasejarah	-4869
▁referendum	-4870
▁sedikitnya	-4871
▁sehubungan	-4872
▁sejarahnya	-4873
▁sendiri▁di	-4874
▁skotlandia	-4875
▁sungai▁nil	-4876
▁tapi▁tidak	-4877
▁temperamen	-4878
▁tenaga▁air	-4879
▁terlupakan	-4880
▁tidak▁lagi	-4881
▁urbanisasi	-4882
▁wadah▁cakr	-4883
▁wilayah▁di	-4884
▁yang▁buruk	-4885
▁yang▁harus	-4886
▁yang▁hidup	-4887
▁yang▁jelas	-4888
▁yang▁keras	-4889
▁yang▁riang	-4890
▁yang▁sehat	-4891
▁yang▁tepat	-4892
andai▁dengan	-4893
annya▁adalah	-4894
arankan▁agar	-4895
asi▁yang▁men	-4896
enal▁sebagai	-4897
investasikan	-4898
laut▁karibia	-4899
urnamen▁golf	-4900
utuhkan▁oleh	-4901
▁apa▁yang▁ia	-4902
▁association	-4903
▁bagi▁mereka	-4904
▁bangsa▁roma	-4905
▁bekas▁biara	-4906
▁belas▁tahun	-4907
▁berpendapat	-4908
▁bersentuhan	-4909
▁curah▁hujan	-4910
▁dalam▁dunia	-4911
▁dalam▁kasus	-4912
▁dan▁membuat	-4913
▁dan▁sejarah	-4914
▁dan▁semakin	-4915
▁datang▁dari	-4916
▁demikianlah	-4917
▁dengan▁area	-4918
▁dengan▁kata	-4919
▁dengan▁rasa	-4920
▁dipicu▁oleh	-4921
▁diri▁mereka	-4922
▁diterbitkan	-4923
▁ditunjukkan	-4924
▁diwawancara	-4925
▁di▁belakang	-4926
▁di▁dalamnya	-4927
▁di▁kemudian	-4928
▁di▁kota▁itu	-4929
▁di▁tenggara	-4930
▁di▁tiongkok	-4931
▁ekonomi▁dan	-4932
▁environment	-4933
▁hujan▁badai	-4934
▁intelektual	-4935
▁itu▁sendiri	-4936
▁jadi▁sangat	-4937
▁kawasan▁ini	-4938
▁kematiannya	-4939
▁kementerian	-4940
▁kepercayaan	-4941
▁klasifikasi	-4942
▁klimatologi	-4943
▁konservatif	-4944
▁kulit▁putih	-4945
▁luar▁negeri	-4946
▁massa▁udara	-4947
▁menaklukkan	-4948
▁menampilkan	-4949
▁mengagumkan	-4950
▁mengalahkan	-4951
▁menghindari	-4952
▁mengunjungi	-4953
▁menjalankan	-4954
▁menontonnya	-4955
▁menyertakan	-4956
▁musim▁hujan	-4957
▁namun▁tidak	-4958
▁panjang▁dan	-4959
▁pascaperang	-4960
▁pembentukan	-4961
▁pemberontak	-4962
▁penghentian	-4963
▁pengurangan	-4964
▁peradaban▁m	-4965
▁perkelahian	-4966
▁persen▁dari	-4967
▁pertama▁dan	-4968
▁petugas▁itu	-4969
▁polisi▁di▁b	-4970
▁profesional	-4971
▁sebagaimana	-4972
▁sebuah▁kota	-4973
▁selama▁satu	-4974
▁semenanjung	-4975
▁seorang▁pun	-4976
▁setelah▁itu	-4977
▁sistem▁yang	-4978
▁telah▁diper	-4979
▁terakhirnya	-4980
▁tidak▁asing	-4981
▁tidak▁semua	-4982
▁ujar▁mailis	-4983
▁untuk▁tidak	-4984
▁yang▁banyak	-4985
▁yang▁diduga	-4986
▁yang▁pernah	-4987
▁yang▁secara	-4988
rata▁nasional	-4989
tulis▁bersama	-4990
yakinan▁agama	-4991
▁afrika▁timur	-4992
▁bekerja▁sama	-4993
▁dan▁akhirnya	-4994
▁dan▁kemudian	-4995
▁dan▁memimpin	-4996
▁dan▁penduduk	-4997
▁dengan▁bantu	-4998
▁diperhatikan	-4999
▁fiksi▁ilmiah	-5000
▁hewan▁zodiak	-5001
▁ini▁membantu	-5002
▁itu▁sebabnya	-5003
▁kaisar▁meiji	-5004
▁kesehatannya	-5005
▁ketika▁orang	-5006
▁laboratorium	-5007
▁lebih▁senang	-5008
▁lebih▁tinggi	-5009
▁luar▁angkasa	-5010
▁media▁sosial	-5011
▁memberi▁tahu	-5012
▁mempengaruhi	-5013
▁mendaftar▁di	-5014
▁mengeluarkan	-5015
▁menjaga▁agar	-5016
▁menyampaikan	-5017
▁menyenangkan	-5018
▁mereka▁hanya	-5019
▁mereka▁tidak	-5020
▁meskipun▁ada	-5021
▁meski▁begitu	-5022
▁mulai▁muncul	-5023
▁oleh▁tentara	-5024
▁opini▁publik	-5025
▁papua▁nugini	-5026
▁para▁pembuat	-5027
▁peluang▁bagi	-5028
▁pengembangan	-5029
▁perang▁opium	-5030
▁perang▁sipil	-5031
▁perekonomian	-5032
▁perlindungan	-5033
▁persahabatan	-5034
▁pertama▁kali	-5035
▁pihak▁ketiga	-5036
▁saya▁melihat	-5037
▁secara▁legal	-5038
▁selama▁bulan	-5039
▁selama▁tahun	-5040
▁tak▁terbatas	-5041
▁tempat▁kerja	-5042
▁tenaga▁kerja	-5043
▁tentang▁cara	-5044
▁tentang▁data	-5045
▁terus▁muncul	-5046
▁thutmose▁iii	-5047
▁tina▁anselmi	-5048
▁tinggal▁di▁l	-5049
▁untuk▁memper	-5050
▁yang▁bekerja	-5051
▁yang▁berbeda	-5052
▁yang▁berdiri	-5053
▁yang▁lainnya	-5054
▁yang▁membuat	-5055
▁yang▁menjadi	-5056
▁yang▁terbaik	-5057
nya▁di▁selatan	-5058
▁ada▁perbedaan	-5059
▁amerika▁latin	-5060
▁amerika▁utara	-5061
▁berkebangsaan	-5062
▁berkembangnya	-5063
▁buku▁tersebut	-5064
▁bulan▁purnama	-5065
▁dalam▁permain	-5066
▁dan▁berfungsi	-5067
▁dengan▁dengan	-5068
▁dengan▁posisi	-5069
▁dibudidayakan	-5070
▁dinasi▁khitan	-5071
▁disimpan▁di▁s	-5072
▁di▁bulan▁juli	-5073
▁di▁bulan▁juni	-5074
▁di▁sekitarnya	-5075
▁di▁washington	-5076
▁drama▁musikal	-5077
▁hal▁yang▁sama	-5078
▁hanya▁sedikit	-5079
▁hormonal▁pria	-5080
▁international	-5081
▁juga▁menerima	-5082
▁kinerja▁untuk	-5083
▁korea▁selatan	-5084
▁marco▁antonio	-5085
▁membantu▁meng	-5086
▁mengembangkan	-5087
▁menunggu▁kita	-5088
▁merekam▁versi	-5089
▁mereka▁berdua	-5090
▁pada▁akhirnya	-5091
▁panjang▁dalam	-5092
▁para▁investor	-5093
▁para▁pemimpin	-5094
▁para▁peneliti	-5095
▁penulis▁drama	-5096
▁peran▁penting	-5097
▁percaya▁bahwa	-5098
▁peristiwa▁ini	-5099
▁ponsel▁cerdas	-5100
▁premium▁bonds	-5101
▁secara▁khusus	-5102
▁sekitar▁empat	-5103
▁selama▁perang	-5104
▁setelah▁wafat	-5105
▁sumber▁inspir	-5106
▁tanah▁genting	-5107
▁tantangan▁itu	-5108
▁telah▁berubah	-5109
▁telah▁meminta	-5110
▁tidak▁mungkin	-5111
▁tiongkok▁yang	-5112
▁university▁of	-5113
▁untuk▁menarik	-5114
▁untuk▁merebut	-5115
▁yang▁berpusat	-5116
▁yang▁dianggap	-5117
▁yang▁telah▁di	-5118
▁yang▁terakhir	-5119
▁yang▁terlibat	-5120
▁adalah▁seorang	-5121
▁afrika▁selatan	-5122
▁akses▁istimewa	-5123
▁banyak▁ilmuwan	-5124
▁beberapa▁bulan	-5125
▁beberapa▁orang	-5126
▁bekerja▁dengan	-5127
▁bisa▁melakukan	-5128
▁dalam▁seminggu	-5129
▁dengan▁praktik	-5130
▁dianggap▁bahwa	-5131
▁diikuti▁dengan	-5132
▁diproklamirkan	-5133
▁di▁pertengahan	-5134
▁eksperimen▁ini	-5135
▁endapan▁lumpur	-5136
▁euro▁per▁liter	-5137
▁gonzález▁anaya	-5138
▁itu▁mengatakan	-5139
▁itu▁tidak▁akan	-5140
▁kontaminan▁itu	-5141
▁kontrak▁dengan	-5142
▁menandatangani	-5143
▁menggelisahkan	-5144
▁menjadi▁target	-5145
▁merilis▁sebuah	-5146
▁orang▁eropa▁ke	-5147
▁pada▁waktu▁ini	-5148
▁pada▁waktu▁itu	-5149
▁perang▁dunia▁i	-5150
▁sangat▁menarik	-5151
▁saya▁menemukan	-5152
▁sebagai▁pemain	-5153
▁sebagai▁tempat	-5154
▁segera▁setelah	-5155
▁selalu▁mencari	-5156
▁selama▁abad▁ke	-5157
▁seperti▁banyak	-5158
▁setelah▁perang	-5159
▁tanggung▁jawab	-5160
▁tapi▁itu▁tidak	-5161
▁telah▁menerima	-5162
▁untuk▁membantu	-5163
▁wawancara▁baru	-5164
▁yang▁bagus▁dan	-5165
▁yang▁diberikan	-5166
▁yang▁mendukung	-5167
▁zaman▁perunggu	-5168
negara▁yang▁meng	-5169
▁beberapa▁negara	-5170
▁berada▁di▁bawah	-5171
▁bermain▁sebagai	-5172
▁binatang▁dengan	-5173
▁dan▁menyerahkan	-5174
▁digunakan▁dalam	-5175
▁dirinya▁sebagai	-5176
▁di▁bagian▁utara	-5177
▁di▁lepas▁pantai	-5178
▁hubungan▁asmara	-5179
▁karena▁usia▁tua	-5180
▁masyarakat▁umum	-5181
▁memiliki▁dampak	-5182
▁mendapati▁bahwa	-5183
▁mendeklarasikan	-5184
▁mengkhawatirkan	-5185
▁menimbulkan▁kek	-5186
▁pada▁bulan▁juli	-5187
▁pada▁hari▁kamis	-5188
▁pemberian▁suara	-5189
▁perdana▁menteri	-5190
▁pertempuran▁itu	-5191
▁pria▁di▁sekolah	-5192
▁saat▁ini▁adalah	-5193
▁sebuah▁tindakan	-5194
▁secara▁langsung	-5195
▁secara▁teoretis	-5196
▁siapa▁yang▁bisa	-5197
▁tahun▁yang▁lalu	-5198
▁tanaman▁yang▁di	-5199
▁tapi▁setidaknya	-5200
▁terbit▁matahari	-5201
▁terutama▁adalah	-5202
▁untuk▁mengamati	-5203
▁yang▁berkembang	-5204
▁yang▁bisa▁mengh	-5205
▁yang▁dijalankan	-5206
▁yang▁diperlukan	-5207
▁yang▁lebih▁baik	-5208
azi	-5209
bau	-5210
eux	-5211
nio	-5212
nox	-5213
',▁'	-5214
360.	-5215
50),	-5216
anni	-5217
a▁by	-5218
fiel	-5219
gdis	-5220
iggy	-5221
lect	-5222
lstr	-5223
oyal	-5224
pets	-5225
reco	-5226
serp	-5227
serv	-5228
yono	-5229
▁56%	-5230
▁66%	-5231
▁fsl	-5232
▁kfc	-5233
▁mcg	-5234
▁rsc	-5235
▁rsp	-5236
agora	-5237
ammed	-5238
anzir	-5239
asque	-5240
asuki	-5241
a▁byz	-5242
ctori	-5243
diser	-5244
ebums	-5245
ecret	-5246
ectar	-5247
eeman	-5248
efeux	-5249
ektar	-5250
eotip	-5251
eteor	-5252
ettel	-5253
e▁you	-5254
field	-5255
f▁you	-5256
gabaz	-5257
gurus	-5258
hearn	-5259
hiker	-5260
holas	-5261
h▁tip	-5262
ilbab	-5263
ismat	-5264
jekak	-5265
leton	-5266
lowak	-5267
meski	-5268
mesta	-5269
nesty	-5270
noyar	-5271
onnes	-5272
ostok	-5273
peten	-5274
rassi	-5275
re▁pr	-5276
sigen	-5277
sikap	-5278
tagen	-5279
tugal	-5280
udrey	-5281
untuh	-5282
ussia	-5283
▁1.33	-5284
▁1.36	-5285
▁1200	-5286
▁15,5	-5287
▁1794	-5288
▁1858	-5289
▁3300	-5290
▁66%.	-5291
▁aviv	-5292
▁bobr	-5293
▁dahs	-5294
▁etim	-5295
▁fsln	-5296
▁game	-5297
▁gory	-5298
▁hack	-5299
uluki	-5300
warsa	-5301
▁ikon	-5302
▁july	-5303
▁mcne	-5304
▁pebe	-5305
▁piaf	-5306
▁pora	-5307
▁psik	-5308
▁rspb	-5309
▁sore	-5310
▁tamu	-5311
▁tipo	-5312
▁view	-5313
▁watt	-5314
▁wilk	-5315
abutan	-5316
adopsi	-5317
akumov	-5318
alking	-5319
aluasi	-5320
al▁det	-5321
ampion	-5322
anjaro	-5323
ansial	-5324
an▁wol	-5325
arnand	-5326
at▁sum	-5327
chatka	-5328
d▁serv	-5329
entsin	-5330
erarki	-5331
erlain	-5332
erosot	-5333
erusal	-5334
espons	-5335
franco	-5336
gabazu	-5337
galami	-5338
geshir	-5339
h▁hous	-5340
ia▁hol	-5341
icolas	-5342
ik▁sol	-5343
il▁lib	-5344
ishing	-5345
ish▁is	-5346
isi▁ty	-5347
is▁cup	-5348
juluki	-5349
klasik	-5350
lintas	-5351
materi	-5352
my▁car	-5353
ne▁hor	-5354
ngurus	-5355
noyars	-5356
owakia	-5357
pektif	-5358
pesona	-5359
protes	-5360
secret	-5361
strang	-5362
to▁san	-5363
transm	-5364
ukisan	-5365
uk▁kfc	-5366
ulu▁ka	-5367
us▁kas	-5368
valkar	-5369
ven▁di	-5370
▁(1994	-5371
▁1.335	-5372
▁1.365	-5373
▁1072,	-5374
▁1075.	-5375
▁1563,	-5376
▁1566,	-5377
▁1839,	-5378
▁1856,	-5379
▁1860.	-5380
▁1903,	-5381
▁2008.	-5382
▁550),	-5383
▁antip	-5384
▁aviva	-5385
▁award	-5386
▁break	-5387
▁budak	-5388
▁budha	-5389
▁cagar	-5390
▁defin	-5391
▁earth	-5392
▁ennio	-5393
▁fatal	-5394
▁franz	-5395
▁gagal	-5396
▁greco	-5397
▁guilb	-5398
▁hamil	-5399
▁homer	-5400
▁kegeg	-5401
▁kelap	-5402
▁knott	-5403
▁las▁v	-5404
▁magma	-5405
▁miami	-5406
▁mirip	-5407
▁molis	-5408
▁multi	-5409
▁mulut	-5410
▁orasi	-5411
▁paire	-5412
▁piggy	-5413
▁remis	-5414
▁rosan	-5415
▁rossi	-5416
▁royal	-5417
▁rusak	-5418
▁sabtu	-5419
▁sabuk	-5420
▁sandi	-5421
▁shack	-5422
▁tabel	-5423
▁tesco	-5424
▁tesla	-5425
▁tolle	-5426
▁von▁b	-5427
▁wajar	-5428
▁wajib	-5429
▁£360.	-5430
15.000.	-5431
abutnya	-5432
anadian	-5433
an▁hadi	-5434
an▁nusa	-5435
aratoga	-5436
at▁di▁v	-5437
a▁lihat	-5438
ctorial	-5439
egasque	-5440
el▁ramb	-5441
enville	-5442
et▁ster	-5443
f▁knott	-5444
f▁you▁b	-5445
gabazuz	-5446
geshire	-5447
g▁rutin	-5448
her▁fat	-5449
h▁house	-5450
h▁tipis	-5451
ia▁hing	-5452
ia▁plat	-5453
ice▁hor	-5454
ilitasi	-5455
in▁view	-5456
ismatik	-5457
ivostok	-5458
juannya	-5459
migrasi	-5460
oga▁sep	-5461
ohammed	-5462
olisian	-5463
onorary	-5464
ontroll	-5465
oun▁dan	-5466
prussia	-5467
sekolah	-5468
s▁multi	-5469
tagenet	-5470
tansial	-5471
tungnya	-5472
t▁paire	-5473
ul▁bass	-5474
u▁mulut	-5475
wan▁mcg	-5476
wan▁san	-5477
ward▁iv	-5478
▁1794),	-5479
▁baptis	-5480
▁belgia	-5481
▁bercer	-5482
▁chilia	-5483
▁danube	-5484
▁dengar	-5485
▁di▁dom	-5486
▁di▁tun	-5487
▁di▁yuc	-5488
▁energy	-5489
▁ernest	-5490
▁ford▁t	-5491
▁gezira	-5492
▁gop▁di	-5493
▁goreng	-5494
▁hektar	-5495
▁ikatan	-5496
▁julian	-5497
▁kansas	-5498
▁kasasi	-5499
timis	-5500
▁kedalu	-5501
▁keenam	-5502
▁kegela	-5503
▁ke▁alk	-5504
▁ke▁mah	-5505
▁knight	-5506
▁krimin	-5507
▁lahore	-5508
▁maglev	-5509
▁mark▁a	-5510
▁mark▁z	-5511
▁masseb	-5512
▁memuji	-5513
▁molise	-5514
▁observ	-5515
▁of▁len	-5516
▁opsi▁v	-5517
▁pabrik	-5518
▁pelobi	-5519
▁perges	-5520
▁plaice	-5521
▁playbo	-5522
▁rambow	-5523
▁reagan	-5524
▁ribuan	-5525
▁rosane	-5526
▁runtuh	-5527
▁rupert	-5528
▁sampel	-5529
▁sekret	-5530
▁select	-5531
▁solarl	-5532
▁somers	-5533
▁supaya	-5534
▁survei	-5535
▁tamana	-5536
▁tennes	-5537
▁timbal	-5538
▁timbul	-5539
▁tulang	-5540
▁von▁be	-5541
▁wilkes	-5542
▁zayion	-5543
alisis▁d	-5544
amchatka	-5545
amiliter	-5546
andarusa	-5547
an▁modal	-5548
arth▁jen	-5549
ashville	-5550
asnoyars	-5551
divostok	-5552
ecualian	-5553
edah▁jen	-5554
elfranco	-5555
entak▁ke	-5556
erusalem	-5557
es▁saint	-5558
es▁union	-5559
g▁cotton	-5560
hi▁kagum	-5561
ian▁rspb	-5562
ia▁hinga	-5563
ide▁lama	-5564
ikan▁kod	-5565
ik▁solhe	-5566
ilikanya	-5567
imanjaro	-5568
ine▁news	-5569
inisikan	-5570
ins▁yang	-5571
iro▁sens	-5572
i▁danube	-5573
kan▁mojm	-5574
lap▁pend	-5575
ly▁hills	-5576
l▁street	-5577
marsberg	-5578
m▁goreng	-5579
ood▁serv	-5580
oria▁hol	-5581
os▁angel	-5582
ot▁human	-5583
ow▁dan▁a	-5584
presiden	-5585
presikan	-5586
sisa▁per	-5587
temannya	-5588
tok▁di▁b	-5589
to▁san▁g	-5590
tributor	-5591
tuk▁roda	-5592
udarinya	-5593
udul▁mar	-5594
uier▁dan	-5595
uliah▁di	-5596
ulu▁kala	-5597
up▁agung	-5598
ur▁impor	-5599
an▁paksa	-5600
vensinya	-5601
wan▁mcgr	-5602
ycenaean	-5603
▁(1994).	-5604
▁amnesty	-5605
▁barroso	-5606
▁beracun	-5607
▁berhulu	-5608
▁bingung	-5609
▁blogger	-5610
▁diberla	-5611
▁dikemuk	-5612
▁diteman	-5613
▁ditrans	-5614
▁ditutup	-5615
▁di▁bumi	-5616
▁di▁hamm	-5617
▁di▁krim	-5618
▁di▁kuba	-5619
▁gravity	-5620
▁guilbea	-5621
▁hallstr	-5622
▁indiana	-5623
▁iv▁akan	-5624
▁kartu▁n	-5625
▁keenamp	-5626
▁kemarin	-5627
▁kesaleh	-5628
▁ke▁ceko	-5629
▁ke▁mahk	-5630
▁kven▁di	-5631
▁liberal	-5632
▁lukisan	-5633
▁memanip	-5634
▁memerik	-5635
▁merdeka	-5636
▁migrasi	-5637
▁monster	-5638
▁my▁head	-5639
▁nutrisi	-5640
▁optimis	-5641
▁pasifik	-5642
▁paus▁fr	-5643
▁pejabat	-5644
▁pelopor	-5645
▁persewa	-5646
▁playboy	-5647
▁politis	-5648
▁politti	-5649
▁promosi	-5650
▁rachida	-5651
▁records	-5652
▁romanov	-5653
▁sandera	-5654
▁selamat	-5655
▁selokan	-5656
▁seniman	-5657
▁subsidi	-5658
▁talenta	-5659
▁terawal	-5660
▁ujar▁ms	-5661
▁warisan	-5662
▁wheeler	-5663
▁zay▁dan	-5664
▁£12.000	-5665
abilitasi	-5666
adangan▁b	-5667
akumulasi	-5668
alking▁de	-5669
al▁detail	-5670
ama▁james	-5671
ang▁merah	-5672
anjir▁dan	-5673
an▁hadiah	-5674
an▁meteor	-5675
arth▁jenn	-5676
asan▁kode	-5677
asnoyarsk	-5678
asok▁oleh	-5679
benar▁par	-5680
db▁selama	-5681
diperiksa	-5682
d▁service	-5683
ebat▁di▁v	-5684
ecualikan	-5685
edah▁jeni	-5686
egalisasi	-5687
ellingham	-5688
el▁dan▁gr	-5689
encanakan	-5690
ers▁wheel	-5691
estik▁dan	-5692
est▁milik	-5693
etuk▁roda	-5694
et▁record	-5695
evasionis	-5696
hai▁dan▁g	-5697
ikut▁fsln	-5698
ingham▁jo	-5699
ummy	-5700
▁mummy	-5701
e▁henry	-5702
m▁jalur	-5703
v▁chris	-5704
▁dan▁jun	-5705
▁henry▁i	-5706
▁potensi	-5707
ingungkan	-5708
ing▁my▁he	-5709
ishing▁in	-5710
isi▁etnis	-5711
is▁dorong	-5712
i▁standar	-5713
kan▁ratus	-5714
kan▁video	-5715
kepompong	-5716
kup▁agung	-5717
martphone	-5718
ne▁dan▁br	-5719
ne▁horton	-5720
obi▁kimia	-5721
onis▁miss	-5722
oni▁halus	-5723
ot▁humano	-5724
pelabuhan	-5725
pets▁dari	-5726
ras▁udara	-5727
rata▁zona	-5728
rospektif	-5729
san▁drama	-5730
secretary	-5731
tih▁sejak	-5732
timbulkan	-5733
tret▁ster	-5734
ub▁swasta	-5735
udul▁marv	-5736
umismatik	-5737
unjungi▁k	-5738
untungkan	-5739
upaya▁kes	-5740
ush▁house	-5741
ves▁saint	-5742
▁abakumov	-5743
▁agak▁lam	-5744
▁andre▁pr	-5745
▁aoun▁dan	-5746
▁arus▁kas	-5747
▁associat	-5748
▁awan▁huj	-5749
▁bercerai	-5750
▁bergeron	-5751
▁bergetar	-5752
▁berjudul	-5753
▁bermakna	-5754
▁berprest	-5755
▁biografi	-5756
▁butuhkan	-5757
▁caucasus	-5758
▁celah▁th	-5759
▁controll	-5760
▁dalam▁pp	-5761
▁dan▁debu	-5762
▁dan▁elit	-5763
▁dan▁grup	-5764
▁dan▁june	-5765
▁dan▁pebe	-5766
▁de▁las▁v	-5767
▁dibaptis	-5768
▁dibiayai	-5769
▁dikenali	-5770
▁ditawari	-5771
▁di▁bukit	-5772
▁di▁jalan	-5773
▁di▁kanal	-5774
▁di▁korin	-5775
▁di▁medan	-5776
▁di▁pelop	-5777
▁di▁swiss	-5778
▁di▁tunip	-5779
▁earth▁di	-5780
▁edisi▁ty	-5781
▁el▁greco	-5782
▁energies	-5783
▁geografi	-5784
▁hack▁for	-5785
▁hasilnya	-5786
▁hillsbor	-5787
▁honorary	-5788
▁h▁street	-5789
▁if▁you▁b	-5790
▁ikan▁lel	-5791
▁ikan▁lid	-5792
▁indah▁di	-5793
▁individu	-5794
▁jejaknya	-5795
▁kampanye	-5796
▁kanaan▁h	-5797
▁karbondi	-5798
▁kejadian	-5799
ovanni	-5800
▁plano	-5801
▁premi	-5802
▁radio	-5803
iovanni	-5804
▁planet	-5805
▁serial	-5806
aku▁suka	-5807
asingkan	-5808
ipnya▁ke	-5809
nya▁rute	-5810
ulingkan	-5811
▁benteng	-5812
▁khanzir	-5813
▁premier	-5814
▁salaman	-5815
▁vatikan	-5816
elles▁dan	-5817
ian▁samar	-5818
ripnya▁ke	-5819
▁ketidakm	-5820
▁keyboard	-5821
▁ke▁alkit	-5822
▁komandon	-5823
▁komedi▁d	-5824
▁kompeten	-5825
▁kompromi	-5826
▁laguna▁d	-5827
▁love▁you	-5828
▁maksimal	-5829
▁mau▁lagi	-5830
▁memeriks	-5831
▁memperba	-5832
▁mencegah	-5833
▁mengadop	-5834
▁menuju▁p	-5835
▁menyesak	-5836
▁metro▁in	-5837
▁minatnya	-5838
▁modelnya	-5839
▁neneknya	-5840
▁nicholas	-5841
▁nilai▁vw	-5842
▁oleh▁mal	-5843
▁pedagang	-5844
▁pergeser	-5845
▁perilaku	-5846
▁petrassi	-5847
▁pinjaman	-5848
▁politisi	-5849
▁prasasti	-5850
▁proaktif	-5851
▁retorika	-5852
▁sisa▁dua	-5853
▁somerset	-5854
▁springer	-5855
▁sterling	-5856
▁tabungan	-5857
▁tema▁itu	-5858
▁tennesse	-5859
▁teorinya	-5860
▁terlatih	-5861
▁ternyata	-5862
▁tipo▁and	-5863
▁top▁sara	-5864
▁tv▁chris	-5865
▁via▁plat	-5866
▁visioner	-5867
▁von▁beus	-5868
▁vulkanik	-5869
▁wang▁ans	-5870
▁williams	-5871
ahan▁danau	-5872
ai▁keingin	-5873
akan▁kolon	-5874
aky▁ground	-5875
ak▁samudra	-5876
alan▁cuaca	-5877
alatan▁dan	-5878
aluasi▁apa	-5879
am▁memakai	-5880
analisis▁d	-5881
anda▁sahel	-5882
antisipasi	-5883
anut▁agama	-5884
an▁nicolas	-5885
asia▁hinga	-5886
asifik▁dan	-5887
ati▁puncak	-5888
ator▁radar	-5889
at▁katolik	-5890
bria▁kedua	-5891
curie▁meny	-5892
ed▁twitter	-5893
efinisikan	-5894
egitu▁pula	-5895
eja▁vulkan	-5896
ekat▁dalam	-5897
erly▁hills	-5898
ermarsberg	-5899
e▁carl	-5900
t▁hind	-5901
▁norma	-5902
alokasi	-5903
e▁carlo	-5904
isihkan	-5905
jelasan	-5906
prinsip	-5907
sailles	-5908
salahan	-5909
▁berhak	-5910
▁daya▁s	-5911
▁lilles	-5912
▁lord▁h	-5913
▁normal	-5914
▁norman	-5915
▁paulus	-5916
ban▁kuno	-5917
ersihkan	-5918
et▁layan	-5919
ubungkan	-5920
ubung▁ke	-5921
▁bernard	-5922
▁di▁ibuk	-5923
▁di▁paru	-5924
▁lord▁gr	-5925
▁norma▁t	-5926
ersailles	-5927
intah▁lis	-5928
jelas▁mel	-5929
pulau▁ini	-5930
▁antilles	-5931
▁dan▁bern	-5932
▁daya▁tah	-5933
▁di▁garis	-5934
annya▁di▁w	-5935
es▁dan▁hal	-5936
etujuannya	-5937
f▁jurnalis	-5938
ik▁solheim	-5939
il▁liberti	-5940
inding▁pen	-5941
ingen▁di▁s	-5942
ing▁dibuka	-5943
irian▁rspb	-5944
iro▁sensus	-5945
isang▁raja	-5946
iscaucasus	-5947
isikan▁per	-5948
is▁cup▁ber	-5949
itik▁rusak	-5950
kan▁desain	-5951
lap▁pendar	-5952
ld▁service	-5953
monegasque	-5954
m▁goreng▁d	-5955
ne▁terkait	-5956
nya▁memang	-5957
ohammed▁al	-5958
ok▁dan▁ser	-5959
ongan▁baja	-5960
ono▁adalah	-5961
onte▁carlo	-5962
ood▁servic	-5963
oret▁layan	-5964
os▁angeles	-5965
ott▁thomas	-5966
ot▁memakai	-5967
ridgeshire	-5968
sebenarnya	-5969
se▁hallstr	-5970
sisa▁perib	-5971
sungguhnya	-5972
ti▁politti	-5973
ualifikasi	-5974
ubungkan▁f	-5975
unan▁dan▁h	-5976
urat▁kabar	-5977
ur▁di▁masa	-5978
utuhkannya	-5979
val▁brasil	-5980
wan▁mcgreg	-5981
▁ahli▁dari	-5982
▁aktivitas	-5983
▁aku▁hanya	-5984
▁alarm▁keb	-5985
▁album▁wil	-5986
▁aman▁di▁s	-5987
▁aman▁kita	-5988
▁atau▁mati	-5989
▁awan▁atau	-5990
▁bahwa▁rog	-5991
▁ba▁dan▁ia	-5992
▁belasungk	-5993
▁berdagang	-5994
▁berjangka	-5995
▁beruntung	-5996
▁biaya▁itu	-5997
▁blunt▁dit	-5998
▁brice▁hor	-5999
s▁cor	-6000
▁corr	-6001
▁kamu	-6002
▁pikn	-6003
▁susu	-6004
ribusi	-6005
tensif	-6006
▁comey	-6007
▁for▁r	-6008
▁helik	-6009
▁kilom	-6010
▁klaus	-6011
▁logam	-6012
▁outer	-6013
▁tawar	-6014
▁tawon	-6015
▁thron	-6016
▁venet	-6017
▁yudho	-6018
ing▁mei	-6019
▁helena	-6020
▁hister	-6021
▁kental	-6022
▁piknik	-6023
▁tiberi	-6024
▁veneto	-6025
an▁di▁at	-6026
asang▁ka	-6027
etribusi	-6028
oriental	-6029
s▁corpor	-6030
▁agung▁a	-6031
▁christi	-6032
▁corrado	-6033
▁for▁ren	-6034
▁helikop	-6035
▁kilomet	-6036
▁klausul	-6037
▁thrones	-6038
asang▁kaw	-6039
hawatiran	-6040
ultietnis	-6041
▁didesain	-6042
▁dukungan	-6043
▁for▁rene	-6044
▁histeria	-6045
▁oriental	-6046
▁pahlawan	-6047
▁ping▁mei	-6048
▁susu▁seb	-6049
▁tiberius	-6050
ah▁agung▁a	-6051
an▁di▁atap	-6052
▁air▁tawar	-6053
▁beban▁pun	-6054
▁carlos▁sa	-6055
▁celah▁men	-6056
▁cepat▁dan	-6057
▁dan▁duduk	-6058
▁dan▁jatuh	-6059
▁dan▁melar	-6060
▁dan▁solar	-6061
▁dan▁warna	-6062
▁dari▁kamu	-6063
▁delapan▁a	-6064
▁delapan▁b	-6065
▁dibedakan	-6066
▁didakwa▁t	-6067
▁dideteksi	-6068
▁dihalangi	-6069
▁dikunjung	-6070
▁disebut▁v	-6071
▁disetujui	-6072
▁di▁istana	-6073
▁di▁kansas	-6074
▁di▁krimea	-6075
▁di▁lahore	-6076
▁di▁puncak	-6077
▁dna▁tumor	-6078
▁doss▁bisa	-6079
▁dua▁fakta	-6080
▁edward▁iv	-6081
▁ekstensif	-6082
▁elemen▁ir	-6083
▁emas▁atau	-6084
▁etimologi	-6085
▁fakta▁itu	-6086
▁finansial	-6087
▁fitur▁top	-6088
▁fokus▁men	-6089
▁gagal▁pan	-6090
▁gaji▁yang	-6091
▁gandum▁di	-6092
▁generator	-6093
▁gravitasi	-6094
▁henry▁bre	-6095
▁hijau▁kek	-6096
▁humanisme	-6097
▁ibu▁hamil	-6098
▁ikan▁lele	-6099
eille	-6100
lihan	-6101
otors	-6102
ought	-6103
tisip	-6104
▁1777	-6105
▁1904	-6106
esimen	-6107
etrich	-6108
okoksi	-6109
orough	-6110
produs	-6111
▁1947.	-6112
▁1948,	-6113
▁bbc▁w	-6114
▁bebek	-6115
▁bonap	-6116
▁bonus	-6117
▁bouch	-6118
▁robin	-6119
▁rokok	-6120
▁vouch	-6121
▁zirah	-6122
ampingi	-6123
istirah	-6124
promosi	-6125
ter▁cnn	-6126
vieille	-6127
▁ambisi	-6128
▁caplan	-6129
▁dijaga	-6130
▁ulrich	-6131
angkat▁v	-6132
ilalihan	-6133
ju▁zirah	-6134
okoksige	-6135
om▁robin	-6136
ontraksi	-6137
paru▁kan	-6138
paru▁ker	-6139
▁bbc▁wor	-6140
▁borough	-6141
▁dikutip	-6142
▁memupuk	-6143
▁penerus	-6144
▁positif	-6145
▁seluler	-6146
▁thought	-6147
▁voucher	-6148
an▁motors	-6149
ihan▁nama	-6150
kira▁sama	-6151
orter▁cnn	-6152
produseri	-6153
▁bonapart	-6154
▁bouchard	-6155
▁dietrich	-6156
▁di▁curie	-6157
▁partisip	-6158
▁spesimen	-6159
asikan▁amb	-6160
okoksigeal	-6161
ontvieille	-6162
promosikan	-6163
ukti▁untuk	-6164
▁bonaparte	-6165
▁dan▁pupuk	-6166
▁induk▁kfc	-6167
▁itu▁disel	-6168
▁itu▁mudah	-6169
▁jalan▁air	-6170
▁jimmy▁car	-6171
▁kabar▁ini	-6172
▁kapan▁pun	-6173
▁kartu▁deb	-6174
▁kartu▁ini	-6175
▁karya▁non	-6176
▁kedalaman	-6177
▁kegegeran	-6178
▁kegelapan	-6179
▁keinginan	-6180
▁kekerasan	-6181
▁kelaparan	-6182
▁kemegahan	-6183
▁kemerosot	-6184
▁keretakan	-6185
▁ke▁aliran	-6186
▁ke▁mahkam	-6187
▁ke▁manchu	-6188
▁ke▁thrace	-6189
▁kilometer	-6190
▁knightley	-6191
▁kode▁berp	-6192
▁kontingen	-6193
▁kristiani	-6194
▁label▁rek	-6195
▁lagi▁pula	-6196
▁lingkup▁l	-6197
▁literatur	-6198
▁lord▁hali	-6199
very	-6200
▁1%,	-6201
▁1%.	-6202
▁joe	-6203
aturd	-6204
enico	-6205
etahu	-6206
in▁sc	-6207
orset	-6208
pihan	-6209
setuj	-6210
tives	-6211
▁guam	-6212
▁joan	-6213
▁otak	-6214
▁peju	-6215
▁scot	-6216
▁urus	-6217
▁usul	-6218
asific	-6219
eransi	-6220
uaskan	-6221
▁joe▁s	-6222
▁ke▁no	-6223
▁kilow	-6224
▁meyer	-6225
▁ragam	-6226
▁scots	-6227
aturday	-6228
engadah	-6229
setelah	-6230
▁dorset	-6231
▁gratis	-6232
▁meluas	-6233
▁otonom	-6234
▁urusan	-6235
an▁bakar	-6236
eransi▁r	-6237
istin▁sc	-6238
setujuan	-6239
▁beragam	-6240
▁jika▁ya	-6241
▁of▁scot	-6242
▁pada▁no	-6243
▁pejuang	-6244
▁pelayan	-6245
ge▁gratis	-6246
kan▁motor	-6247
▁canadian	-6248
▁generasi	-6249
▁kilowatt	-6250
▁mengalir	-6251
▁saturday	-6252
▁scotsman	-6253
▁serpihan	-6254
▁asal▁usul	-6255
▁joe▁stern	-6256
▁magma▁ini	-6257
▁maksudnya	-6258
▁malah▁dit	-6259
▁mark▁zuck	-6260
▁maya▁kuno	-6261
▁megabazuz	-6262
▁memprotes	-6263
▁menaikkan	-6264
▁menaruh▁b	-6265
▁mengalami	-6266
▁menguasai	-6267
▁menyimpan	-6268
▁michael▁f	-6269
▁mycenaean	-6270
▁nama▁apul	-6271
▁nashville	-6272
▁nine▁news	-6273
▁norma▁tal	-6274
▁now▁dan▁a	-6275
▁of▁americ	-6276
▁of▁lennox	-6277
▁of▁spring	-6278
▁of▁winter	-6279
▁orasi▁par	-6280
▁pada▁flor	-6281
▁pada▁psik	-6282
▁panvalkar	-6283
▁paus▁paul	-6284
▁pelabuhan	-6285
▁penutupan	-6286
▁perumahan	-6287
▁pesta▁ini	-6288
▁planetari	-6289
▁posisinya	-6290
▁pria▁arab	-6291
▁pula▁opsi	-6292
▁rachida▁d	-6293
▁referensi	-6294
▁rekonsili	-6295
▁relatives	-6296
▁rute▁laut	-6297
▁school▁of	-6298
▁sel▁darah	-6299
▁ue	-6300
-201	-6301
capl	-6302
jaza	-6303
laza	-6304
mith	-6305
oods	-6306
ooks	-6307
pith	-6308
-2014	-6309
-2016	-6310
akhal	-6311
bella	-6312
ekous	-6313
etown	-6314
irsar	-6315
▁garr	-6316
▁roti	-6317
▁soal	-6318
▁tabr	-6319
▁tsar	-6320
-2016.	-6321
armuka	-6322
cak▁dr	-6323
caplok	-6324
e▁garr	-6325
iorell	-6326
jazair	-6327
ongmin	-6328
▁woods	-6329
-2014▁—	-6330
akhalin	-6331
ebruari	-6332
ekoussa	-6333
ersmith	-6334
etown▁b	-6335
iorello	-6336
to▁juga	-6337
▁brooks	-6338
▁deklar	-6339
▁heroin	-6340
▁patrol	-6341
ace▁kini	-6342
ekoussae	-6343
februari	-6344
hal▁lain	-6345
iji▁dari	-6346
isabella	-6347
mar▁yang	-6348
▁berdiam	-6349
▁gongmin	-6350
▁kairsar	-6351
biji▁dari	-6352
cak▁drone	-6353
ence▁garr	-6354
etown▁bid	-6355
hal▁mulai	-6356
italisasi	-6357
▁aljazair	-6358
▁di▁plaza	-6359
▁fiorello	-6360
▁go▁break	-6361
▁interior	-6362
▁isabella	-6363
▁tabrakan	-6364
armuka▁kec	-6365
ianto▁juga	-6366
t▁go▁break	-6367
yamar▁yang	-6368
▁deklarasi	-6369
▁sudah▁dic	-6370
▁sungai▁rh	-6371
▁super▁ber	-6372
▁tautan▁ke	-6373
▁tekstil▁n	-6374
▁teleponku	-6375
▁terdaftar	-6376
▁terpencar	-6377
▁tiga▁poin	-6378
▁tindak▁ke	-6379
▁uber▁akan	-6380
▁ucapannya	-6381
▁ukuran▁as	-6382
▁untungnya	-6383
▁versi▁rom	-6384
▁von▁beust	-6385
▁yang▁suhu	-6386
▁yg▁cotton	-6387
▁yudhoyono	-6388
▁zaman▁dah	-6389
▁zona▁suhu	-6390
aan▁pemirsa	-6391
aca▁pikiran	-6392
ado▁sebagai	-6393
agar▁tinggi	-6394
agora▁hanya	-6395
akan▁oleh▁f	-6396
alers▁wheel	-6397
alking▁dead	-6398
ambilalihan	-6399
-51	-6400
.16	-6401
6.3	-6402
ppi	-6403
-511	-6404
.165	-6405
dred	-6406
lack	-6407
2-511	-6408
6.30-	-6409
sippi	-6410
▁1832	-6411
12-511	-6412
entuck	-6413
▁1.165	-6414
6.30-10	-6415
entucky	-6416
issippi	-6417
▁johnny	-6418
▁lainny	-6419
oyangkan	-6420
▁512-511	-6421
▁mildred	-6422
▁pollack	-6423
▁(6.30-10	-6424
▁lainnyas	-6425
angan▁lawan	-6426
angkat▁verb	-6427
an▁angkatan	-6428
an▁juga▁dip	-6429
an▁konsumen	-6430
an▁mereka▁m	-6431
arakan▁oleh	-6432
aru▁kontrol	-6433
ar▁di▁ujung	-6434
ar▁sebuah▁l	-6435
asang▁kawat	-6436
asi▁agresif	-6437
astelfranco	-6438
atan▁dan▁se	-6439
bagian▁dari	-6440
bangsa▁lain	-6441
benar▁parah	-6442
ctorial▁und	-6443
dentifikasi	-6444
ebasan▁kong	-6445
ebat▁di▁vil	-6446
ekspresikan	-6447
engar▁lebih	-6448
enis▁dorong	-6449
ensi▁london	-6450
ental▁dalam	-6451
enteng▁juga	-6452
entucky▁dan	-6453
entuhan▁ini	-6454
enya▁berada	-6455
eransi▁rasi	-6456
er▁dan▁paul	-6457
er▁interior	-6458
etahui▁oleh	-6459
eta▁william	-6460
et▁record▁c	-6461
e▁pria▁arab	-6462
gar▁di▁masa	-6463
gawasi▁lima	-6464
ik▁matahari	-6465
ilan▁budaya	-6466
ilkan▁motor	-6467
il▁thutmose	-6468
inan▁budaya	-6469
ingannya▁pr	-6470
intah▁lisan	-6471
isang▁dan▁p	-6472
isi▁panduan	-6473
istirahatan	-6474
itel▁dan▁gr	-6475
jelas▁tidak	-6476
kami▁secara	-6477
kan▁tekanan	-6478
lagi▁karena	-6479
las▁diberla	-6480
le▁saturday	-6481
lowakia▁dan	-6482
l▁alarm▁keb	-6483
mati▁puncak	-6484
mur▁di▁masa	-6485
ny▁adalah▁b	-6486
obot▁humano	-6487
om▁robinson	-6488
onjol▁tidak	-6489
ontrol▁oleh	-6490
op▁di▁rumah	-6491
oria▁holden	-6492
paru▁kerbau	-6493
que▁memutus	-6494
salahan▁tak	-6495
sekolah▁ini	-6496
s▁of▁winter	-6497
tanam▁dalam	-6498
tok▁di▁bill	-6499
▁yuan▁sh	-6500
d▁sehingga	-6501
angani▁akun	-6502
et▁tak▁lama	-6503
is▁sehingga	-6504
tugal▁namun	-6505
uaskan▁diri	-6506
udarinya▁di	-6507
ui▁tak▁lama	-6508
ur▁impor▁di	-6509
▁2015-2016.	-6510
▁adalah▁bab	-6511
▁agak▁samar	-6512
▁agen▁badan	-6513
▁akun▁tesco	-6514
▁alami▁jika	-6515
▁alarm▁anda	-6516
▁alat▁aplik	-6517
▁album▁wild	-6518
▁and▁select	-6519
▁antonio▁ga	-6520
▁associated	-6521
▁awan▁hujam	-6522
▁badai▁debu	-6523
▁bahwa▁kano	-6524
▁baju▁zirah	-6525
▁belakangan	-6526
▁beroperasi	-6527
▁brice▁hort	-6528
▁brooks▁dan	-6529
▁bukan▁di▁g	-6530
▁cadangan▁b	-6531
▁cagar▁alam	-6532
▁celah▁ther	-6533
▁celtic▁dan	-6534
▁chilia▁arm	-6535
▁controlled	-6536
▁dalam▁ikon	-6537
▁dan▁carlos	-6538
▁darah▁di▁p	-6539
▁dari▁debat	-6540
▁dari▁scrit	-6541
▁dari▁swiss	-6542
▁daya▁alami	-6543
▁dengan▁cbc	-6544
▁dewasa▁ini	-6545
▁de▁las▁vic	-6546
▁dia▁tumbuh	-6547
▁diharapkan	-6548
▁diinginkan	-6549
▁dipisahkan	-6550
▁direktur▁g	-6551
▁direnovasi	-6552
▁dirindukan	-6553
▁disarankan	-6554
▁disertakan	-6555
▁di▁album▁w	-6556
▁di▁glasgow	-6557
▁di▁mediter	-6558
▁di▁roma▁tr	-6559
▁di▁samudra	-6560
▁di▁tingkat	-6561
▁dokter▁per	-6562
▁emas▁kedua	-6563
▁eropa▁soal	-6564
▁fishing▁in	-6565
▁gezer▁yang	-6566
▁harga▁roti	-6567
▁helikopter	-6568
▁hitchhiker	-6569
▁impor▁biji	-6570
▁individual	-6571
▁ini▁kadang	-6572
▁istana▁dan	-6573
▁judul▁marv	-6574
▁kami▁turun	-6575
▁kanada▁ter	-6576
▁kano▁kecil	-6577
▁karya▁nonf	-6578
▁kedokteran	-6579
▁kehormatan	-6580
▁ketidakses	-6581
▁ke▁alkitab	-6582
▁ke▁jalanan	-6583
▁koleksi▁bi	-6584
▁komandonya	-6585
▁komedi▁dag	-6586
▁komisi▁itu	-6587
▁konseptual	-6588
▁lalu▁iklan	-6589
▁lawan▁main	-6590
▁lewat▁dari	-6591
▁lord▁north	-6592
▁louis▁sang	-6593
▁maglev▁ini	-6594
▁maksimal▁d	-6595
▁margaret▁b	-6596
▁margaret▁d	-6597
▁mark▁avery	-6598
▁melindungi	-6599
▁rhs	-6600
za▁dib	-6601
e▁pribadi	-6602
▁meza▁dib	-6603
▁rhs▁meng	-6604
ah▁ke▁laut	-6605
e▁di▁barat	-6606
i▁dominasi	-6607
▁ke▁lautan	-6608
▁kondisi▁s	-6609
▁membawa▁b	-6610
▁yang▁setu	-6611
el▁bahwa▁ia	-6612
kan▁ke▁arah	-6613
nya▁di▁sini	-6614
▁di▁ontario	-6615
▁membawa▁ke	-6616
▁memberinya	-6617
▁membuka▁vw	-6618
▁menara▁mas	-6619
▁mencarinya	-6620
▁mendekatka	-6621
▁mengkomers	-6622
▁menjabat▁j	-6623
▁menuju▁por	-6624
▁menyajikan	-6625
▁merah▁yang	-6626
▁mereka▁cec	-6627
▁meremehkan	-6628
▁merenovasi	-6629
▁merindukan	-6630
▁miami▁bass	-6631
▁naik▁ke▁no	-6632
▁nama▁danau	-6633
▁nilai▁dahs	-6634
▁norma▁talm	-6635
▁oleh▁keind	-6636
▁opsi▁vanta	-6637
▁orang▁kaya	-6638
▁orasi▁parl	-6639
▁pada▁tokoh	-6640
▁parade▁dan	-6641
▁para▁siswa	-6642
▁patung▁men	-6643
▁paus▁frans	-6644
▁pdb▁selama	-6645
▁pelat▁hind	-6646
▁penampilan	-6647
▁pencabutan	-6648
▁pencerahan	-6649
▁pengajaran	-6650
▁pengakuran	-6651
▁pengalaman	-6652
▁penyebaran	-6653
▁penyerahan	-6654
▁penyesalan	-6655
▁perhentian	-6656
▁pernikatan	-6657
▁pertamanya	-6658
▁piknik▁ped	-6659
▁pilot▁yang	-6660
▁ponsel▁mat	-6661
▁punya▁sisi	-6662
▁raja▁franz	-6663
▁reagan▁dan	-6664
▁reaksi▁ber	-6665
▁real▁estat	-6666
▁roma▁dan▁a	-6667
▁saya▁kenal	-6668
▁saya▁lihat	-6669
▁sebagai▁ot	-6670
▁sejauh▁ini	-6671
▁sejumlah▁b	-6672
▁semoga▁sep	-6673
▁seni▁mengg	-6674
▁shackleton	-6675
▁siap▁untuk	-6676
▁sir▁ernest	-6677
▁sukses▁dan	-6678
▁tapi▁geyer	-6679
▁tautan▁dan	-6680
▁teater▁bon	-6681
▁teratas▁ue	-6682
▁terkaitnya	-6683
▁terlalu▁kh	-6684
▁terlindung	-6685
▁terperinci	-6686
▁terpuaskan	-6687
▁thace▁kini	-6688
▁trix▁telah	-6689
▁ukuran▁asl	-6690
▁untuk▁ikan	-6691
▁upaya▁perc	-6692
▁wajar▁saja	-6693
▁west▁milik	-6694
▁willis▁dan	-6695
▁yahudi▁dan	-6696
▁yang▁cukup	-6697
▁yang▁mahal	-6698
▁yang▁mampu	-6699
103,	-6700
103,7	-6701
samudra	-6702
▁menyamp	-6703
▁tulis▁j	-6704
an▁dibuat	-6705
el▁kereta	-6706
it▁dari▁b	-6707
ode▁tujuh	-6708
▁adanya▁s	-6709
▁atlantik	-6710
▁dari▁bum	-6711
▁dijuluki	-6712
▁gunung▁k	-6713
▁kajian▁p	-6714
▁sebagain	-6715
▁suatu▁pr	-6716
atorium▁as	-6717
en▁berbeda	-6718
lah▁tampil	-6719
▁dari▁uber	-6720
▁dijual▁ke	-6721
▁kajian▁pb	-6722
▁ke▁gereja	-6723
▁mendekati	-6724
▁tulis▁jes	-6725
atan▁dari▁b	-6726
men▁berbeda	-6727
nya▁ke▁dana	-6728
ulai▁adanya	-6729
urit▁dari▁b	-6730
▁ada▁di▁pun	-6731
▁bahkan▁rep	-6732
▁dan▁merasa	-6733
▁dari▁turki	-6734
▁itu▁hancur	-6735
▁kajian▁pbb	-6736
▁kereta▁api	-6737
▁menyamping	-6738
▁mode▁tujuh	-6739
▁rel▁kereta	-6740
▁tampil▁tel	-6741
▁tujuh▁hari	-6742
▁yang▁mirip	-6743
▁yang▁nenek	-6744
▁yuan▁mulai	-6745
▁yuan▁shika	-6746
▁yves▁saint	-6747
ahanan▁aktif	-6748
ahan▁dan▁keh	-6749
akannya▁pada	-6750
akan▁erdogan	-6751
akan▁ia▁meng	-6752
akan▁oleh▁fá	-6753
ak▁melampaui	-6754
alaman▁tanpa	-6755
amiliter▁mil	-6756
am▁of▁spring	-6757
ana▁menandai	-6758
anchu▁selama	-6759
andu▁pesawat	-6760
angkat▁keras	-6761
anya▁akan▁di	-6762
an▁di▁atap▁m	-6763
an▁kemanusia	-6764
an▁pekerjaan	-6765
ap▁dan▁melar	-6766
ap▁sebagai▁p	-6767
ara▁pahlawan	-6768
ard▁business	-6769
arkan▁metode	-6770
arki▁romanov	-6771
ar▁di▁tengah	-6772
atan▁dari▁bo	-6773
atorium▁astr	-6774
at▁kaitannya	-6775
awal▁sebagai	-6776
ayaan▁minggu	-6777
besaran▁juga	-6778
ca▁nine▁news	-6779
dalam▁jumlah	-6780
ebasan▁kongo	-6781
edakan▁pasar	-6782
elamkan▁diri	-6783
elles▁dan▁ti	-6784
emuk▁clinton	-6785
ena▁williams	-6786
ence▁garrard	-6787
enico▁kepada	-6788
epot▁memakai	-6789
erang▁adalah	-6790
eran▁politik	-6791
esia▁bingung	-6792
e▁tahun▁lalu	-6793
e▁willis▁dan	-6794
gawasi▁progr	-6795
ga▁yang▁terd	-6796
iakan▁selama	-6797
id▁yang▁menj	-6798
ik▁ke▁hindia	-6799
harles	-6800
an▁resmi	-6801
▁angin▁l	-6802
▁belanda	-6803
▁charles	-6804
▁dan▁mol	-6805
▁dan▁mos	-6806
▁laporan	-6807
▁penggil	-6808
▁penutur	-6809
embirakan	-6810
ton▁pecah	-6811
t▁dan▁mol	-6812
▁imigrasi	-6813
▁mobilnya	-6814
▁musisi▁t	-6815
▁penggemb	-6816
akan▁malam	-6817
iran▁alpen	-6818
o▁petrassi	-6819
▁ada▁kisah	-6820
▁benua▁itu	-6821
▁harga▁ben	-6822
▁islam▁dan	-6823
▁kursi▁itu	-6824
▁malam▁ini	-6825
▁mobilitas	-6826
▁musuh▁itu	-6827
▁of▁rambow	-6828
▁penentuan	-6829
adang▁pasir	-6830
afton▁pecah	-6831
i▁dan▁india	-6832
t▁dan▁molib	-6833
▁artis▁atau	-6834
▁dan▁gambar	-6835
▁dan▁mos▁ma	-6836
▁dari▁benua	-6837
▁email▁berb	-6838
▁kesal▁saat	-6839
▁level▁yang	-6840
▁malam▁saat	-6841
▁nyata▁saat	-6842
▁pajak▁dari	-6843
▁saat▁kesha	-6844
▁tersingkap	-6845
▁yang▁layak	-6846
edo▁petrassi	-6847
imanjaro▁dan	-6848
impin▁komisi	-6849
incian▁samar	-6850
inding▁penop	-6851
indungi▁oleh	-6852
ini▁depan▁st	-6853
intah▁oleh▁m	-6854
iri▁hack▁for	-6855
iro▁memiliki	-6856
isinya▁dalam	-6857
isi▁istimewa	-6858
ivil▁liberti	-6859
jar▁di▁ujung	-6860
kan▁dan▁peng	-6861
kan▁landmark	-6862
kan▁untuk▁kl	-6863
keprihatinan	-6864
kita▁seperti	-6865
kota▁seperti	-6866
lah▁tampilan	-6867
lah▁waktunya	-6868
las▁menengah	-6869
la▁kemegahan	-6870
naval▁brasil	-6871
nya▁histeria	-6872
n▁hanya▁bisa	-6873
oi▁dan▁india	-6874
olisian▁kota	-6875
oner▁radikal	-6876
on▁of▁rambow	-6877
ottingham▁jo	-6878
paru▁kanan▁n	-6879
pithekoussae	-6880
posisi▁etnis	-6881
sajikan▁oleh	-6882
sama▁menulis	-6883
tama▁meminta	-6884
ta▁kelahiran	-6885
top▁di▁rumah	-6886
trasikan▁amb	-6887
tributor▁per	-6888
uck▁if▁you▁b	-6889
uhannya▁di▁w	-6890
uil▁thutmose	-6891
ulut▁periode	-6892
ul▁di▁sebuah	-6893
umpulkan▁res	-6894
umumkan▁pera	-6895
um▁institute	-6896
ungai▁danube	-6897
ur▁hidup▁dan	-6898
u▁untuk▁menc	-6899
▁70%	-6900
burkan	-6901
▁2014,	-6902
▁energ	-6903
▁ikuti	-6904
▁shenz	-6905
▁tower	-6906
abadian	-6907
aragdis	-6908
cayakan	-6909
ization	-6910
kan▁bom	-6911
oskan▁l	-6912
▁beralk	-6913
▁kuda▁j	-6914
▁lembar	-6915
▁pantat	-6916
▁prosed	-6917
▁sensor	-6918
▁shen▁k	-6919
angkutan	-6920
ang▁kuda	-6921
at▁dan▁r	-6922
kan▁bola	-6923
turn▁dan	-6924
undurkan	-6925
▁sensasi	-6926
▁shen▁ku	-6927
▁york▁ke	-6928
angkut▁ok	-6929
an▁mantan	-6930
i▁kamerun	-6931
kan▁biaya	-6932
oloskan▁l	-6933
▁air▁mata	-6934
▁beralkoh	-6935
▁berbukit	-6936
▁muda▁itu	-6937
▁prosedur	-6938
▁shenzhen	-6939
▁shen▁kuo	-6940
ikkan▁bola	-6941
ikuti▁satu	-6942
ukan▁fatal	-6943
▁dari▁york	-6944
▁energinya	-6945
▁hari▁jadi	-6946
▁kami▁kira	-6947
▁keabadian	-6948
▁mengikuti	-6949
▁pengusaha	-6950
▁pria▁muda	-6951
▁saham▁itu	-6952
▁senat▁dan	-6953
▁smaragdis	-6954
▁tema▁lain	-6955
▁tower▁men	-6956
ankan▁biaya	-6957
kan▁bom▁api	-6958
negara▁maju	-6959
▁bahwa▁bayi	-6960
▁bahwa▁biji	-6961
▁beralkohol	-6962
▁kita▁ikuti	-6963
▁lembar▁res	-6964
▁return▁dan	-6965
▁sensasi▁di	-6966
▁untuk▁unit	-6967
at▁dan▁relak	-6968
burkan▁batas	-6969
everly▁hills	-6970
kandang▁kuda	-6971
oloskan▁lobi	-6972
usukan▁fatal	-6973
wan▁mcgregor	-6974
yam▁goreng▁d	-6975
y▁bulan▁lalu	-6976
y▁dari▁semua	-6977
án▁bertindak	-6978
▁adalah▁mimp	-6979
▁adalah▁seni	-6980
▁agresif▁dan	-6981
▁air▁dari▁al	-6982
▁akan▁membay	-6983
▁akan▁membeb	-6984
▁anak▁tangga	-6985
▁andre▁price	-6986
▁angin▁musim	-6987
▁anne▁horton	-6988
▁artikel▁kor	-6989
▁asing▁opium	-6990
▁bahan▁bakar	-6991
▁bahwa▁badan	-6992
▁bahwa▁harga	-6993
▁balapan▁dan	-6994
▁berada▁di▁y	-6995
▁berhak▁yang	-6996
▁berlayar▁ke	-6997
▁bisa▁diterb	-6998
▁budha▁untuk	-6999
ments	-7000
o▁sub	-7001
pohon	-7002
s▁bal	-7003
▁(191	-7004
▁(195	-7005
▁1492	-7006
▁1886	-7007
▁1927	-7008
▁pack	-7009
gambar	-7010
odessa	-7011
sampai	-7012
sangat	-7013
▁(1918	-7014
▁(1954	-7015
▁1492;	-7016
▁1887.	-7017
▁1950-	-7018
▁1952,	-7019
▁1955,	-7020
▁1955.	-7021
▁balok	-7022
▁jason	-7023
▁kejut	-7024
▁klaim	-7025
▁lokas	-7026
▁power	-7027
emangat	-7028
menteri	-7029
owo▁sub	-7030
tus▁web	-7031
▁bogart	-7032
▁lokasi	-7033
▁risiko	-7034
▁sinema	-7035
▁tokuga	-7036
ilas▁bal	-7037
itik▁bal	-7038
udut▁ada	-7039
▁(1918),	-7040
▁(1954),	-7041
▁100.000	-7042
▁ekstern	-7043
▁kontitu	-7044
▁packham	-7045
abowo▁sub	-7046
laim▁oleh	-7047
odessa▁ob	-7048
situs▁web	-7049
tanda▁per	-7050
▁disambut	-7051
▁jason▁se	-7052
▁klaim▁ke	-7053
▁oleh▁sub	-7054
▁power▁of	-7055
▁tokugawa	-7056
an▁belanda	-7057
negara▁bal	-7058
rey▁bogart	-7059
tanda▁perp	-7060
▁dalam▁ram	-7061
▁dan▁iklan	-7062
▁eksternal	-7063
▁guilbeaul	-7064
▁kilas▁bal	-7065
▁lokasinya	-7066
▁oleh▁subd	-7067
▁suku▁kana	-7068
ampai▁batas	-7069
hrey▁bogart	-7070
pohon▁palem	-7071
▁guilbeault	-7072
▁tokugawa▁i	-7073
odessa▁oblas	-7074
tanda▁perpec	-7075
▁bersama▁pac	-7076
▁bersemangat	-7077
▁canadian▁bl	-7078
▁celah▁meneb	-7079
▁celah▁therm	-7080
▁contoh▁terb	-7081
▁dalam▁kisah	-7082
▁dalam▁pamer	-7083
▁dalam▁tabel	-7084
▁damai▁tidak	-7085
▁dan▁hal▁ini	-7086
▁dan▁jatuh▁c	-7087
▁dan▁lincoln	-7088
▁dan▁meletak	-7089
▁dan▁memaksa	-7090
▁dan▁pasific	-7091
▁dan▁persimp	-7092
▁dan▁seragam	-7093
▁dan▁spotify	-7094
▁dan▁ukraina	-7095
▁dari▁americ	-7096
▁dari▁caesar	-7097
▁dari▁energi	-7098
▁dari▁kantor	-7099
e▁to	-7100
iskr	-7101
oole	-7102
vole	-7103
▁134	-7104
▁135	-7105
▁137	-7106
▁crt	-7107
▁£10	-7108
alley	-7109
ektor	-7110
iskop	-7111
iskus	-7112
jamin	-7113
odias	-7114
opley	-7115
oroti	-7116
osped	-7117
pital	-7118
sekel	-7119
▁crtc	-7120
▁duga	-7121
▁ksat	-7122
▁taun	-7123
elanja	-7124
enberg	-7125
enerus	-7126
enetis	-7127
esinan	-7128
ide▁to	-7129
iskred	-7130
jataan	-7131
mosfer	-7132
▁1340,	-7133
▁1350-	-7134
▁crana	-7135
▁crist	-7136
▁dr▁le	-7137
▁ksatr	-7138
iskopal	-7139
menerus	-7140
mer▁mer	-7141
ospedal	-7142
ospital	-7143
▁berjam	-7144
▁dr▁lee	-7145
▁dugaan	-7146
▁harley	-7147
▁hopley	-7148
▁montre	-7149
▁palmer	-7150
▁pastor	-7151
▁valley	-7152
berg▁dan	-7153
jam▁berd	-7154
odenberg	-7155
pos▁terd	-7156
stranger	-7157
v▁montre	-7158
▁belanja	-7159
▁cranach	-7160
▁dijamin	-7161
▁genetis	-7162
▁jaminan	-7163
▁ksatria	-7164
▁senjata	-7165
▁£10.000	-7166
apat▁crtc	-7167
bodenberg	-7168
chmer▁mer	-7169
elanan▁ke	-7170
elan▁meng	-7171
jam▁berdo	-7172
on▁valley	-7173
pos▁kecil	-7174
tre▁telah	-7175
tv▁montre	-7176
▁atmosfer	-7177
▁cospedal	-7178
▁cristina	-7179
▁di▁poole	-7180
▁guide▁to	-7181
▁herodias	-7182
▁kolektor	-7183
▁terpaksa	-7184
elan▁tidak	-7185
erberg▁dan	-7186
esia▁timur	-7187
jam▁berdoa	-7188
pelan▁meng	-7189
pos▁terdep	-7190
schmer▁mer	-7191
sekelompok	-7192
s▁guide▁to	-7193
vole▁bahwa	-7194
▁episkopal	-7195
▁ksatria▁l	-7196
▁menyoroti	-7197
▁pastor▁he	-7198
▁sangat▁ta	-7199
adge	-7200
atán	-7201
osph	-7202
raba	-7203
tabr	-7204
vios	-7205
ánch	-7206
anean	-7207
awahi	-7208
board	-7209
brina	-7210
egrim	-7211
rosof	-7212
the▁t	-7213
viasi	-7214
viose	-7215
▁javi	-7216
bawahi	-7217
egrasi	-7218
integr	-7219
le▁ass	-7220
osphor	-7221
ranean	-7222
rosoft	-7223
ánchez	-7224
▁palma	-7225
▁stage	-7226
ahi▁mat	-7227
ema▁dan	-7228
ema▁ini	-7229
geronim	-7230
luviose	-7231
▁dilema	-7232
▁javier	-7233
▁megrim	-7234
▁telegr	-7235
geronimo	-7236
ogle▁ass	-7237
osphorus	-7238
tabrakan	-7239
▁achaean	-7240
▁pembeli	-7241
▁sabrina	-7242
▁sánchez	-7243
asahi▁mat	-7244
ona▁stage	-7245
▁di▁palma	-7246
▁gema▁dan	-7247
▁menggeli	-7248
▁telegraf	-7249
arisbawahi	-7250
iterranean	-7251
ro▁sánchez	-7252
▁bosphorus	-7253
▁integrasi	-7254
▁microsoft	-7255
▁skema▁ini	-7256
▁tahun▁iii	-7257
an▁perayaan	-7258
ary▁clinton	-7259
ogle▁assist	-7260
tschmer▁mer	-7261
▁dilema▁ser	-7262
▁di▁yucatán	-7263
▁javier▁mar	-7264
▁mendiskred	-7265
▁mengintegr	-7266
▁permesinan	-7267
▁yang▁dipos	-7268
arian▁bahasa	-7269
ea▁episkopal	-7270
icu▁revolusi	-7271
▁bertabrakan	-7272
▁cranach▁the	-7273
▁dan▁achaean	-7274
▁dari▁tulang	-7275
▁dengan▁kapt	-7276
▁dengar▁pend	-7277
▁de▁las▁vict	-7278
▁de▁meza▁dib	-7279
▁de▁tipo▁and	-7280
▁dia▁dan▁per	-7281
▁dia▁dan▁wal	-7282
▁didakwa▁tas	-7283
▁dih▁bbc▁wor	-7284
▁dijaga▁kuat	-7285
▁diluncurkan	-7286
▁dimundurkan	-7287
▁disebut▁vol	-7288
▁ditaklukkan	-7289
▁ditempatkan	-7290
▁di▁norwegia	-7291
▁di▁pedesaan	-7292
▁di▁sebuah▁d	-7293
▁di▁thailand	-7294
▁dua▁rekaman	-7295
▁dunia▁usaha	-7296
▁elemen▁irid	-7297
▁final▁musim	-7298
▁firaun▁saat	-7299
phy	-7300
othai	-7301
urphy	-7302
hothai	-7303
▁1918,	-7304
▁1969,	-7305
▁1992.	-7306
▁2002.	-7307
▁2009,	-7308
▁lampu	-7309
▁murphy	-7310
h▁menang	-7311
ukhothai	-7312
▁bergaya	-7313
▁di▁kaki	-7314
ambil▁alih	-7315
eth▁menang	-7316
ugh▁murphy	-7317
e▁yang▁memb	-7318
i▁dan▁tujuh	-7319
▁lampu▁lalu	-7320
▁sanksi▁itu	-7321
▁syuting▁th	-7322
an▁nicolas▁s	-7323
e▁university	-7324
ood▁services	-7325
u▁penggunaan	-7326
▁flap▁pendar	-7327
▁gaji▁yang▁l	-7328
▁georges▁dan	-7329
▁halus▁telah	-7330
▁hancur▁pada	-7331
▁hari▁selasa	-7332
▁hijau▁kekun	-7333
▁historisnya	-7334
▁historis▁di	-7335
▁hubungan▁ms	-7336
▁hugh▁murphy	-7337
▁ia▁bercerai	-7338
▁ia▁berkuasa	-7339
▁ia▁dikenali	-7340
▁ia▁ditawari	-7341
▁ia▁menguasa	-7342
▁ia▁mengungk	-7343
▁iklim▁gurun	-7344
▁iklim▁sahel	-7345
▁ilmuwan▁dan	-7346
▁indian▁tiba	-7347
▁ini▁artinya	-7348
▁invasi▁brit	-7349
▁investments	-7350
▁ironi▁halus	-7351
▁itu▁standar	-7352
▁jason▁segel	-7353
▁joe▁sternli	-7354
▁john▁di▁dom	-7355
▁juara▁dunia	-7356
▁juta▁rakyat	-7357
▁kandung▁kem	-7358
▁karena▁seri	-7359
▁katakan▁dan	-7360
▁keenampuluh	-7361
▁kekerasan▁g	-7362
▁kematian▁sm	-7363
▁kepulauan▁l	-7364
▁ketinggalan	-7365
▁ke▁arah▁kar	-7366
▁ke▁arah▁sis	-7367
▁ke▁jaringan	-7368
▁ke▁kolektor	-7369
▁klausul▁ini	-7370
▁komando▁dua	-7371
▁konteks▁ini	-7372
▁kontituensi	-7373
▁korea▁utara	-7374
▁krasnoyarsk	-7375
▁kursi▁dewan	-7376
▁lamarr▁mend	-7377
▁lautan▁akan	-7378
▁laut▁celtic	-7379
▁liburan▁ini	-7380
▁lingkup▁lit	-7381
▁lord▁halifa	-7382
▁maju▁sejauh	-7383
▁makan▁malam	-7384
▁mandi▁kimia	-7385
▁margaret▁bo	-7386
▁margaret▁do	-7387
▁mata▁uang▁t	-7388
▁maya▁adalah	-7389
▁memilikinya	-7390
▁mempelajari	-7391
▁memproduksi	-7392
▁menangani▁k	-7393
▁menarik▁taw	-7394
▁mencabutnya	-7395
▁menciptakan	-7396
▁menempatkan	-7397
▁mengerjakan	-7398
▁mengisahkan	-7399
▁avro	-7400
▁ribu	-7401
▁remaja	-7402
o▁sebesar	-7403
▁dua▁ribu	-7404
do▁sebesar	-7405
▁keadaan▁d	-7406
asi▁dalam▁k	-7407
ir▁populasi	-7408
uh▁terlibat	-7409
▁dengan▁sia	-7410
▁keadaan▁em	-7411
▁melalui▁er	-7412
▁posisi▁ram	-7413
▁yang▁ia▁ak	-7414
duh▁terlibat	-7415
ing▁istrinya	-7416
isi▁terlibat	-7417
▁avro▁energy	-7418
▁bekas▁outer	-7419
▁biro▁sensus	-7420
▁keadaan▁dar	-7421
▁kontaminasi	-7422
▁menyisihkan	-7423
▁merasa▁kuat	-7424
▁merekam▁apa	-7425
▁minggu▁sore	-7426
▁mississippi	-7427
▁national▁sa	-7428
▁nicholas▁st	-7429
▁nilai▁dahsy	-7430
▁of▁scotland	-7431
▁olahraga▁di	-7432
▁oleh▁subduk	-7433
▁orang▁yahud	-7434
▁pacuan▁kuda	-7435
▁pada▁satu▁t	-7436
▁paksa▁dapat	-7437
▁pandang▁ini	-7438
▁pantas▁bagi	-7439
▁para▁biaraw	-7440
▁para▁konsel	-7441
▁para▁sekutu	-7442
▁para▁wanita	-7443
▁pasar▁saham	-7444
▁pastor▁hein	-7445
▁patroli▁dan	-7446
▁pedang▁yang	-7447
▁pelariannya	-7448
▁pelayan▁ang	-7449
▁penggantian	-7450
▁penghiburan	-7451
▁perumahan▁g	-7452
▁pesta▁resmi	-7453
▁poster▁film	-7454
▁prinsip▁pem	-7455
▁pulih▁dan▁b	-7456
▁radio▁dan▁t	-7457
▁ragam▁hijau	-7458
▁ramesses▁ii	-7459
▁rasa▁hormat	-7460
▁rasa▁sayang	-7461
▁relawan▁dan	-7462
▁richard▁dan	-7463
▁rupertsberg	-7464
▁saat▁christ	-7465
▁sakit▁pungg	-7466
▁sangat▁kaya	-7467
▁sastra▁yang	-7468
▁saya▁memang	-7469
▁saya▁senang	-7470
▁sebagai▁ibu	-7471
▁semua▁biaya	-7472
▁semua▁opini	-7473
▁senat▁menja	-7474
▁sepatu▁berl	-7475
▁seperti▁bir	-7476
▁seperti▁rai	-7477
▁serangkaian	-7478
▁serial▁yang	-7479
▁serikat▁for	-7480
▁sesto▁san▁g	-7481
▁setiap▁peta	-7482
▁sistem▁sara	-7483
▁sparta▁meng	-7484
▁sterling▁ke	-7485
▁studio▁keti	-7486
▁sudah▁dican	-7487
▁suhu▁global	-7488
▁surat▁kabar	-7489
▁tak▁terbant	-7490
▁tanaman▁ini	-7491
▁tangan▁yang	-7492
▁tarif▁tetap	-7493
▁teknik▁asli	-7494
▁telah▁memer	-7495
▁tembaga▁pat	-7496
▁tepat▁untuk	-7497
▁terkalahkan	-7498
▁terlalu▁ses	-7499
wood	-7500
aksa▁a	-7501
lywood	-7502
▁betapa	-7503
ollywood	-7504
aksa▁autr	-7505
al▁yang▁k	-7506
▁dari▁scy	-7507
▁koloni▁m	-7508
▁petani▁s	-7509
bor▁sering	-7510
nya▁segera	-7511
▁bisnis▁di	-7512
▁cerita▁ke	-7513
▁hollywood	-7514
▁kepala▁un	-7515
▁menempati	-7516
▁persisnya	-7517
▁sering▁di	-7518
akan▁dampak	-7519
aksa▁autria	-7520
an▁yang▁dib	-7521
asan▁global	-7522
laki▁maupun	-7523
nnya▁segera	-7524
osiasi▁yang	-7525
rata▁masing	-7526
▁cerita▁ini	-7527
▁dampak▁mer	-7528
▁dan▁persen	-7529
▁dari▁scyth	-7530
▁karier▁car	-7531
▁koloni▁meg	-7532
▁negeri▁itu	-7533
▁persen▁air	-7534
▁petani▁sud	-7535
▁posisi▁ini	-7536
▁tampak▁ten	-7537
ahan▁danau▁r	-7538
al▁yang▁kend	-7539
egang▁posisi	-7540
entangan▁men	-7541
nya▁berharap	-7542
ukung▁caesar	-7543
▁agustus▁dan	-7544
▁akan▁segera	-7545
▁anggota▁res	-7546
▁asia▁segera	-7547
▁disney▁juga	-7548
▁ditampilkan	-7549
▁koloni▁lama	-7550
▁per▁agustus	-7551
▁tersisa▁dib	-7552
▁tidak▁layak	-7553
▁tiga▁kali▁l	-7554
▁top▁sara▁er	-7555
▁tribun▁yang	-7556
▁tulis▁jesse	-7557
▁unit▁khusus	-7558
▁untuk▁diman	-7559
▁untuk▁tarif	-7560
▁upaya▁berpr	-7561
▁vatikan▁dan	-7562
▁versi▁romeo	-7563
▁wajib▁pajak	-7564
▁wall▁street	-7565
▁winston▁cup	-7566
▁yang▁ada▁di	-7567
▁yang▁dianut	-7568
▁yang▁melump	-7569
▁yang▁normal	-7570
▁yang▁seolah	-7571
▁yang▁setuju	-7572
▁yuan▁shikai	-7573
adinya▁dengan	-7574
ado▁sebagai▁b	-7575
ahan▁polonium	-7576
akrokoksigeal	-7577
ak▁prasejarah	-7578
alabria▁kedua	-7579
al▁untuk▁unit	-7580
ambarkan▁oleh	-7581
ambil▁memanip	-7582
ambridgeshire	-7583
amental▁dalam	-7584
am▁memakai▁ka	-7585
anasan▁global	-7586
ancurkan▁sisa	-7587
angan▁bioskop	-7588
angat▁terbuka	-7589
angun▁stasiun	-7590
ang▁legislasi	-7591
ani▁cenderung	-7592
an▁dengan▁mem	-7593
an▁komisi▁itu	-7594
an▁meteoritik	-7595
an▁model▁ramb	-7596
an▁paksa▁bert	-7597
api▁tindak▁ke	-7598
apkan▁selamat	-7599
peset	-7600
u▁morav	-7601
▁melamb	-7602
bu▁morav	-7603
ran▁dari	-7604
▁dekat▁s	-7605
▁gelar▁e	-7606
▁gelar▁m	-7607
▁keterat	-7608
▁komunal	-7609
▁komunik	-7610
▁mcneill	-7611
▁belakang	-7612
▁bisnis▁r	-7613
▁mcneilly	-7614
▁putri▁di	-7615
ran▁dari▁l	-7616
▁apartemen	-7617
▁diumumkan	-7618
▁gelar▁itu	-7619
▁komunitas	-7620
▁kulit▁dan	-7621
▁merek▁her	-7622
▁tak▁punya	-7623
▁tenggelam	-7624
▁yang▁ia▁p	-7625
an▁dari▁per	-7626
elakanginya	-7627
esa▁dekat▁s	-7628
ry▁mcneilly	-7629
uhkan▁situs	-7630
▁alat▁komun	-7631
▁dan▁ambisi	-7632
▁didasarkan	-7633
▁gelar▁earl	-7634
▁ikan▁lidah	-7635
▁katolik▁an	-7636
▁putri▁dian	-7637
▁satu▁titik	-7638
▁titik▁awal	-7639
▁yang▁dekat	-7640
an▁dari▁amer	-7641
emuan▁bisnis	-7642
▁akan▁melamb	-7643
▁dari▁bisnis	-7644
▁dasar▁untuk	-7645
▁keteraturan	-7646
▁komunikatif	-7647
▁total▁suara	-7648
▁waktu▁lahir	-7649
an▁dari▁tahun	-7650
apnnya▁segera	-7651
ari▁ke▁gereja	-7652
ar▁sebuah▁low	-7653
asahi▁matanya	-7654
asakan▁dampak	-7655
asifik▁dan▁ma	-7656
asi▁baru▁yang	-7657
asi▁dalam▁rum	-7658
asukkan▁waktu	-7659
as▁dan▁tumbuh	-7660
atan▁dan▁seti	-7661
atan▁dari▁boe	-7662
atan▁di▁rumah	-7663
atorium▁santa	-7664
bagian▁dari▁l	-7665
bodenberg▁dib	-7666
ctorial▁under	-7667
dalam▁konteks	-7668
disertifikasi	-7669
eam▁of▁spring	-7670
egang▁kartu▁n	-7671
egel▁bahwa▁ia	-7672
ekankan▁bahwa	-7673
eli▁kebutuhan	-7674
entikkan▁bola	-7675
entukan▁hukum	-7676
en▁sir▁ernest	-7677
epatan▁dengan	-7678
epsionis▁miss	-7679
ersihkan▁laut	-7680
er▁yang▁mengh	-7681
espons▁secara	-7682
ess▁of▁lennox	-7683
etapa▁inggris	-7684
e▁association	-7685
field▁melihat	-7686
fy▁dari▁semua	-7687
guna▁daripada	-7688
hai▁dan▁guang	-7689
hn▁hanya▁bisa	-7690
ice▁yang▁memb	-7691
idik▁di▁dalam	-7692
idi▁itu▁mulai	-7693
iga▁yang▁terd	-7694
inet▁tak▁lama	-7695
inggalkan▁sis	-7696
ing▁yang▁terd	-7697
inya▁diterima	-7698
in▁di▁sekitar	-7699
▁1925	-7700
wenang	-7701
▁conte	-7702
▁opera	-7703
▁sinis	-7704
egang▁t	-7705
ementer	-7706
kan▁man	-7707
ol▁hill	-7708
vensi▁p	-7709
▁center	-7710
▁juliet	-7711
ening▁co	-7712
ian▁john	-7713
ulus▁dan	-7714
▁cina▁ad	-7715
▁dasar▁k	-7716
▁diatasi	-7717
▁dinyany	-7718
▁efektif	-7719
▁istilah	-7720
▁john▁of	-7721
api▁sinis	-7722
egang▁teg	-7723
etakkan▁m	-7724
itol▁hill	-7725
kan▁dasar	-7726
kan▁manus	-7727
kan▁mobil	-7728
on▁center	-7729
peristiwa	-7730
ukan▁mong	-7731
vensi▁pek	-7732
▁demograf	-7733
▁foto▁itu	-7734
▁la▁conte	-7735
▁suaranya	-7736
▁teks▁mes	-7737
▁utaranya	-7738
al▁dan▁pem	-7739
ening▁cour	-7740
ersial▁dan	-7741
iguier▁dan	-7742
kan▁manusk	-7743
kenalkan▁r	-7744
negara▁tet	-7745
nya▁ke▁mat	-7746
ukan▁mongl	-7747
▁antaranya	-7748
▁bbc▁bahwa	-7749
▁lulus▁dan	-7750
▁modal▁dan	-7751
▁of▁madrid	-7752
▁opera▁dan	-7753
▁rian▁john	-7754
▁teks▁meso	-7755
▁yang▁seja	-7756
apitol▁hill	-7757
egang▁teguh	-7758
es▁yang▁dip	-7759
etakkan▁mik	-7760
masing▁tiga	-7761
▁apulia▁dan	-7762
▁besar▁efek	-7763
▁dan▁juliet	-7764
▁dasar▁kank	-7765
▁john▁of▁ga	-7766
al▁dan▁pemah	-7767
ukan▁monglia	-7768
utkan▁itu▁di	-7769
vensi▁peking	-7770
wenang▁telah	-7771
▁adalah▁mojm	-7772
▁dinyanyikan	-7773
▁hingga▁juni	-7774
▁minggu▁pagi	-7775
▁sebuah▁pola	-7776
▁selama▁enam	-7777
▁viguier▁dan	-7778
▁yang▁hilang	-7779
anggapi▁sinis	-7780
ening▁courant	-7781
ention▁center	-7782
etakkan▁mikro	-7783
isahkan▁kedua	-7784
isi▁permukaan	-7785
ity▁of▁madrid	-7786
izinkan▁orang	-7787
i▁kualifikasi	-7788
i▁standar▁kec	-7789
i▁yang▁pindah	-7790
jarkan▁metode	-7791
jelas▁melebih	-7792
jukan▁tentang	-7793
kan▁menaruh▁b	-7794
kan▁retribusi	-7795
lae▁yang▁memb	-7796
laki▁rafferty	-7797
laut▁antilles	-7798
let▁yang▁akan	-7799
cbs	-7800
badan	-7801
islav	-7802
monis	-7803
sburg	-7804
▁guna	-7805
elisih	-7806
enario	-7807
erti▁k	-7808
hardic	-7809
tasiun	-7810
tasi▁t	-7811
£5.000	-7812
▁garis	-7813
▁nikel	-7814
▁schul	-7815
▁sigur	-7816
▁topik	-7817
ama▁era	-7818
atasi▁t	-7819
ellings	-7820
pektasi	-7821
portasi	-7822
▁35.000	-7823
▁era▁ke	-7824
▁schenc	-7825
▁things	-7826
0-£5.000	-7827
astislav	-7828
elamatan	-7829
erti▁ken	-7830
nama▁era	-7831
▁faktual	-7832
▁menikah	-7833
▁patahan	-7834
▁schenck	-7835
▁sigur▁r	-7836
▁turisme	-7837
ase▁bulan	-7838
ellingsha	-7839
ori▁schul	-7840
tasi▁tint	-7841
usat▁kota	-7842
▁bayi▁din	-7843
▁era▁keem	-7844
▁garis▁im	-7845
▁guna▁mem	-7846
▁habsburg	-7847
▁harmonis	-7848
▁kota▁col	-7849
▁nama▁era	-7850
▁pengerti	-7851
▁penyakit	-7852
▁satu▁era	-7853
▁skenario	-7854
000-£5.000	-7855
atasi▁tump	-7856
▁rastislav	-7857
▁sephardic	-7858
▁topik▁ini	-7859
adan▁berita	-7860
anak▁dengan	-7861
at▁bayi▁din	-7862
ellingshaus	-7863
erti▁kenapa	-7864
ik▁ke▁tahun	-7865
portasi▁air	-7866
tasi▁tintin	-7867
▁berselisih	-7868
▁ekspektasi	-7869
▁garis▁imaj	-7870
▁kori▁schul	-7871
▁kota▁colog	-7872
▁kuda▁kerja	-7873
▁pengertiak	-7874
▁washington	-7875
3.000-£5.000	-7876
anak▁berusia	-7877
anak▁pekerja	-7878
anak▁sekolah	-7879
asi▁yang▁ses	-7880
faatkan▁oleh	-7881
▁katolik▁dan	-7882
▁sebagai▁sta	-7883
adan▁berita▁d	-7884
aris▁jenderal	-7885
ellingshausen	-7886
ipat▁bayi▁din	-7887
le▁and▁select	-7888
man▁di▁sebuah	-7889
masing▁kaisar	-7890
menteri▁dalam	-7891
m▁jalur▁bawah	-7892
ne▁dan▁bremen	-7893
nya▁akan▁lagi	-7894
nya▁di▁tribun	-7895
nya▁mata▁uang	-7896
ny▁adalah▁buj	-7897
obot▁humanoid	-7898
odessa▁oblast	-7899
45,	-7900
exu	-7901
hei	-7902
rie	-7903
vri	-7904
▁71	-7905
-45,	-7906
bach	-7907
denb	-7908
ry▁v	-7909
uvri	-7910
▁70-	-7911
▁amy	-7912
▁gof	-7913
▁sky	-7914
chler	-7915
den▁g	-7916
riemu	-7917
tugas	-7918
utube	-7919
▁1530	-7920
▁amin	-7921
▁amur	-7922
▁amyn	-7923
▁asty	-7924
▁enri	-7925
▁mual	-7926
▁rock	-7927
▁skyl	-7928
▁zexu	-7929
acauan	-7930
andler	-7931
denbro	-7932
etulan	-7933
hiasan	-7934
outube	-7935
penjah	-7936
▁1530.	-7937
▁amurr	-7938
▁amynt	-7939
▁beogr	-7940
▁drast	-7941
▁flens	-7942
▁flock	-7943
▁goffr	-7944
▁ouvri	-7945
▁reach	-7946
▁shang	-7947
agi▁dua	-7948
arl▁har	-7949
el▁skyl	-7950
e▁ouvri	-7951
henbach	-7952
in▁zexu	-7953
irriemu	-7954
▁amurru	-7955
▁barrie	-7956
▁hariri	-7957
▁hitler	-7958
▁the▁go	-7959
ar▁reach	-7960
a▁the▁go	-7961
ce▁ouvri	-7962
denbrook	-7963
den▁gate	-7964
penjahat	-7965
ry▁vance	-7966
tugaskan	-7967
▁amyntas	-7968
▁atas▁os	-7969
▁beograd	-7970
▁hechler	-7971
▁membagi	-7972
▁menjual	-7973
▁oleh▁sh	-7974
▁strateg	-7975
▁youtube	-7976
denbrooke	-7977
ichenbach	-7978
irriemuir	-7979
jek▁obama	-7980
ografinya	-7981
▁chandler	-7982
▁dan▁enri	-7983
▁di▁siang	-7984
▁ke▁flens	-7985
▁lin▁zexu	-7986
▁strategy	-7987
▁the▁rock	-7988
agi▁yunani	-7989
a▁the▁good	-7990
el▁skylark	-7991
ta▁atas▁os	-7992
▁amyntas▁i	-7993
▁asty▁film	-7994
▁di▁amurru	-7995
▁kaisar▁sh	-7996
▁kebetulan	-7997
▁oleh▁shep	-7998
▁pearl▁har	-7999
-14	-8000
-16	-8001
-15.	-8002
▁830	-8003
tephen	-8004
stephen	-8005
erah▁tul	-8006
aerah▁tul	-8007
tihan▁kep	-8008
aerah▁tulc	-8009
▁rasa▁mual	-8010
daerah▁tulc	-8011
el▁skylarkm	-8012
en▁dibangun	-8013
hi▁di▁bulan	-8014
jah▁pesisir	-8015
ubungkan▁fe	-8016
▁hitungan▁s	-8017
▁oleh▁shepp	-8018
▁penyelidik	-8019
▁seperti▁go	-8020
▁star▁reach	-8021
agi▁dua▁oleh	-8022
a▁the▁good▁w	-8023
ebastugaskan	-8024
ipta▁atas▁os	-8025
ler▁yang▁ber	-8026
m▁untuk▁memb	-8027
nya▁dibangun	-8028
▁addenbrooke	-8029
▁belanda▁itu	-8030
▁berbicara▁p	-8031
▁golden▁gate	-8032
▁larry▁vance	-8033
▁mengirim▁em	-8034
▁richard▁iii	-8035
▁sastra▁dari	-8036
▁transisi▁ke	-8037
ashi▁di▁bulan	-8038
daerah▁tulcea	-8039
el▁skylarkmel	-8040
fat▁perubahan	-8041
le▁seringkali	-8042
okan▁berbagai	-8043
olar▁dan▁satu	-8044
oleh▁reputasi	-8045
olmen▁berbeda	-8046
olusi▁bergaya	-8047
ongyang▁metro	-8048
ong▁hidup▁dan	-8049
orie▁di▁barat	-8050
para▁pahlawan	-8051
partikel▁yang	-8052
paru▁kanan▁nn	-8053
prinsip▁kerja	-8054
produksi▁oleh	-8055
repot▁memakai	-8056
rihatinan▁dom	-8057
sin▁dan▁solar	-8058
s▁corporation	-8059
s▁dan▁semakin	-8060
tar▁di▁tengah	-8061
tihan▁kepanda	-8062
truksi▁dengan	-8063
uasai▁inggris	-8064
uhan▁menyelam	-8065
umen▁tersebut	-8066
untungan▁rata	-8067
usir▁populasi	-8068
us▁dan▁banyak	-8069
vard▁business	-8070
y▁association	-8071
▁adalah▁siswa	-8072
▁adalah▁tumor	-8073
▁adanya▁sengk	-8074
▁ada▁di▁kapal	-8075
▁agar▁ia▁bisa	-8076
▁akan▁diaktif	-8077
▁alasan▁besar	-8078
▁albania▁akan	-8079
▁albania▁yang	-8080
▁aldrin▁sudah	-8081
▁alfabet▁baru	-8082
▁antaranya▁da	-8083
▁antonio▁gaud	-8084
▁area▁perkota	-8085
▁armada▁kapal	-8086
▁artikel▁oleh	-8087
▁artis▁belgia	-8088
▁bagi▁barroso	-8089
▁bagus▁itu▁di	-8090
▁bala▁tentara	-8091
▁balok▁tinggi	-8092
▁banyak▁kapel	-8093
▁baru▁ini▁dip	-8094
▁begitu▁buruk	-8095
▁belasungkawa	-8096
▁berada▁di▁as	-8097
▁berharap▁mer	-8098
▁berita▁cuaca	-8099
.▁1	-8100
500	-8101
asu	-8102
chn	-8103
chq	-8104
lot	-8105
yle	-8106
▁ny	-8107
.500	-8108
a▁bu	-8109
hami	-8110
ktel	-8111
leus	-8112
urch	-8113
▁gem	-8114
chnol	-8115
eyasu	-8116
her▁k	-8117
vings	-8118
▁gchq	-8119
▁marx	-8120
▁plot	-8121
ancing	-8122
an▁bas	-8123
asilic	-8124
ilhami	-8125
i▁kita	-8126
ktel▁l	-8127
▁diram	-8128
▁di▁sw	-8129
▁gemar	-8130
▁milan	-8131
▁style	-8132
▁the▁m	-8133
anjikan	-8134
a▁buena	-8135
chnolog	-8136
urchill	-8137
uther▁k	-8138
▁16.500	-8139
▁atau▁k	-8140
▁bertop	-8141
▁glenda	-8142
▁para▁p	-8143
▁para▁w	-8144
▁pendah	-8145
an▁basah	-8146
e▁mereka	-8147
i▁paling	-8148
omosikan	-8149
▁berkomp	-8150
▁bertopi	-8151
▁diramal	-8152
▁di▁sami	-8153
▁di▁swed	-8154
▁plot▁di	-8155
▁the▁mup	-8156
andu▁marx	-8157
asilicata	-8158
a▁buena▁g	-8159
ktel▁lind	-8160
perti▁bad	-8161
sesi▁kita	-8162
uran▁atau	-8163
▁atau▁ber	-8164
▁atau▁kob	-8165
▁dan▁para	-8166
▁dari▁par	-8167
▁lagu▁hit	-8168
▁lain▁dan	-8169
▁luther▁k	-8170
▁pendahul	-8171
formasi▁di	-8172
t▁tersebut	-8173
urun▁pasir	-8174
wai▁paling	-8175
▁berat▁dan	-8176
▁berkompet	-8177
▁churchill	-8178
▁dalam▁api	-8179
▁di▁setiap	-8180
▁memancing	-8181
▁negara▁ba	-8182
▁para▁wali	-8183
▁technolog	-8184
▁yang▁bert	-8185
al▁memiliki	-8186
anak▁jepang	-8187
andingannya	-8188
atan▁antara	-8189
eli▁di▁swed	-8190
ilhami▁oleh	-8191
ktel▁lindsa	-8192
perti▁badut	-8193
▁dari▁parma	-8194
▁dengan▁itu	-8195
▁negara▁baw	-8196
▁yang▁terus	-8197
at▁berat▁dan	-8198
a▁buena▁gard	-8199
nki	-8200
kari	-8201
20▁--	-8202
iklan	-8203
▁tutu	-8204
entase	-8205
i▁hari	-8206
ujukan	-8207
uran▁r	-8208
▁melak	-8209
▁melap	-8210
▁melay	-8211
▁tutup	-8212
ang▁dua	-8213
as▁di▁m	-8214
at▁baru	-8215
fi▁band	-8216
karibia	-8217
entase▁c	-8218
ukuran▁r	-8219
▁2020▁--	-8220
▁memudah	-8221
▁rujukan	-8222
ah▁sekali	-8223
hir▁dan▁d	-8224
ulan▁baru	-8225
▁hari▁itu	-8226
▁ia▁tutup	-8227
▁ke▁sabuk	-8228
▁melakpor	-8229
▁melayani	-8230
▁nila▁set	-8231
▁pusatnya	-8232
endang▁dua	-8233
fi▁bandara	-8234
ikutnya▁di	-8235
ormat▁baru	-8236
pesona▁ini	-8237
▁baru▁juga	-8238
▁demi▁hari	-8239
▁kaisar▁su	-8240
▁luas▁di▁m	-8241
▁mengiklan	-8242
▁yang▁hari	-8243
entase▁cond	-8244
inya▁kepada	-8245
nya▁di▁satu	-8246
▁atau▁melap	-8247
▁kaisar▁suc	-8248
▁memudahkan	-8249
▁proyek▁rek	-8250
ar▁luas▁di▁m	-8251
entase▁condo	-8252
evaluasi▁apa	-8253
impulan▁baru	-8254
re▁menyesali	-8255
ukuran▁ringk	-8256
uncuran▁atau	-8257
us▁dalam▁api	-8258
▁atau▁berapa	-8259
▁dengan▁para	-8260
▁format▁baru	-8261
▁kaisar▁suci	-8262
▁kansas▁akan	-8263
▁lahan▁basah	-8264
▁luther▁king	-8265
▁mereka▁menc	-8266
▁oleh▁negara	-8267
▁pendahuluan	-8268
▁polisi▁lalu	-8269
▁rujukan▁ter	-8270
▁sebuah▁pemb	-8271
▁teman▁damai	-8272
andu▁marxisme	-8273
angkat▁verbal	-8274
anjikan▁untuk	-8275
an▁motors▁mem	-8276
ikutnya▁dimas	-8277
le▁terkaitnya	-8278
seperti▁badut	-8279
▁ada▁kenaikan	-8280
▁ada▁sekarang	-8281
▁berjudul▁sal	-8282
▁berkompetisi	-8283
▁berkontraksi	-8284
▁bernard▁tapi	-8285
▁berorientasi	-8286
▁betapa▁sudah	-8287
▁bisa▁diatasi	-8288
▁bisa▁membuka	-8289
▁business▁itu	-8290
▁cadangan▁bes	-8291
▁carlos▁salas	-8292
▁carson▁telah	-8293
▁chandler▁dan	-8294
▁comey▁hampir	-8295
▁corona▁stage	-8296
▁cukup▁langka	-8297
▁dakwaan▁penc	-8298
▁dalam▁aturan	-8299
bah	-8300
anji	-8301
apas	-8302
▁cif	-8303
▁ecb	-8304
▁tra	-8305
asien	-8306
ati▁p	-8307
gunya	-8308
indik	-8309
inter	-8310
s▁tra	-8311
▁2017	-8312
▁cifu	-8313
▁kiri	-8314
▁trop	-8315
▁trud	-8316
▁wind	-8317
anji▁t	-8318
apas▁r	-8319
asabah	-8320
e▁wind	-8321
iksaan	-8322
▁aires	-8323
▁dan▁k	-8324
ak▁baru	-8325
na▁trop	-8326
s▁traum	-8327
um▁baru	-8328
▁bidang	-8329
▁mencer	-8330
▁pasien	-8331
▁penyes	-8332
▁trudea	-8333
amaannya	-8334
atif▁ecb	-8335
ati▁dari	-8336
fum▁baru	-8337
ompati▁p	-8338
os▁aires	-8339
the▁wind	-8340
▁--▁2017	-8341
▁cifuent	-8342
▁janji▁t	-8343
▁lagunya	-8344
▁menggol	-8345
▁menyumb	-8346
▁nasabah	-8347
▁trudeau	-8348
apas▁rest	-8349
interaksi	-8350
na▁tropis	-8351
unak▁baru	-8352
▁dan▁kens	-8353
▁jumlah▁m	-8354
▁mencerit	-8355
▁penyesua	-8356
▁visi▁ide	-8357
angan▁atau	-8358
annya▁menj	-8359
anyai▁oleh	-8360
an▁lagunya	-8361
enos▁aires	-8362
ogatif▁ecb	-8363
▁cifuentes	-8364
▁dan▁pemuk	-8365
▁kiri▁tepi	-8366
▁meminta▁d	-8367
▁mengindik	-8368
▁mengingat	-8369
▁saat▁satu	-8370
apas▁restor	-8371
eteksi▁efek	-8372
uenos▁aires	-8373
▁baik▁orang	-8374
▁beberapa▁s	-8375
▁dalam▁perj	-8376
▁dan▁bagian	-8377
▁dan▁naskah	-8378
▁film▁tahun	-8379
▁jumlah▁mut	-8380
▁lunak▁baru	-8381
▁menggolong	-8382
▁menjadi▁no	-8383
▁oleh▁james	-8384
▁penyiksaan	-8385
▁visi▁ideal	-8386
ami▁kandidat	-8387
an▁mati▁dari	-8388
arangan▁atau	-8389
erogatif▁ecb	-8390
h▁pada▁tahun	-8391
ras▁udara▁di	-8392
warna▁tropis	-8393
▁ini▁membuka	-8394
▁janji▁tatan	-8395
▁kesamaannya	-8396
▁melompati▁p	-8397
▁parfum▁baru	-8398
▁pasien▁pend	-8399
ych	-8400
▁(“	-8401
ivia	-8402
▁veg	-8403
▁vok	-8404
intai	-8405
irena	-8406
▁babi	-8407
▁mele	-8408
▁rena	-8409
▁sana	-8410
ap▁vok	-8411
h▁bank	-8412
▁seych	-8413
▁veget	-8414
▁di▁sil	-8415
▁lembut	-8416
▁olivia	-8417
▁pemind	-8418
an▁ini▁t	-8419
ap▁vokal	-8420
ustralia	-8421
uth▁bank	-8422
▁dipaksa	-8423
▁meletus	-8424
▁renaiss	-8425
▁terbuat	-8426
adai▁bagi	-8427
australia	-8428
oman▁akan	-8429
outh▁bank	-8430
▁dan▁ters	-8431
▁di▁silic	-8432
▁dua▁lagi	-8433
▁yang▁pro	-8434
ikap▁vokal	-8435
lah▁olivia	-8436
toman▁akan	-8437
us▁dipaksa	-8438
▁baik▁peng	-8439
▁mencintai	-8440
▁metro▁inf	-8441
▁telah▁mel	-8442
an▁ini▁tamp	-8443
hus▁dipaksa	-8444
▁dan▁terseb	-8445
▁menerapkan	-8446
▁pemindaian	-8447
▁south▁bank	-8448
nya▁institut	-8449
unan▁dan▁hub	-8450
▁penyesuaian	-8451
▁renaissance	-8452
▁tapi▁dengan	-8453
apas▁restoran	-8454
empat▁di▁roma	-8455
rata▁di▁siang	-8456
rrhus▁dipaksa	-8457
sia▁meminta▁d	-8458
▁berinteraksi	-8459
▁dalam▁aviasi	-8460
▁dalam▁daftar	-8461
▁dalam▁enam▁d	-8462
▁dalam▁risiko	-8463
▁dalam▁urusan	-8464
▁dampak▁merug	-8465
▁dan▁belakang	-8466
▁dan▁berbukit	-8467
▁dan▁di▁kedua	-8468
▁dan▁ia▁harus	-8469
▁dan▁karyawan	-8470
▁dan▁komentar	-8471
▁dan▁memiliki	-8472
▁dan▁memperba	-8473
▁dan▁prosedur	-8474
▁dan▁sakhalin	-8475
▁dan▁struktur	-8476
▁dan▁tak▁lama	-8477
▁dari▁scythia	-8478
▁dasar▁kanker	-8479
▁dekat▁sungai	-8480
▁delta▁danube	-8481
▁dengan▁benar	-8482
▁dengan▁cepat	-8483
▁dengan▁gelar	-8484
▁dieja▁vulkan	-8485
▁diikuti▁oleh	-8486
▁dikembangkan	-8487
▁dilegalisasi	-8488
▁dilema▁serup	-8489
▁dilihat▁oleh	-8490
▁dipromosikan	-8491
▁direncanakan	-8492
▁ditarik▁dari	-8493
▁di▁atas▁rata	-8494
▁di▁kedalaman	-8495
▁di▁pinggiran	-8496
▁di▁pulau▁ini	-8497
▁di▁sudut▁ada	-8498
▁di▁zaman▁dah	-8499
idd	-8500
ror	-8501
sen	-8502
diam	-8503
eneu	-8504
oket	-8505
▁tik	-8506
ef▁ex	-8507
eneuv	-8508
istis	-8509
kan▁v	-8510
utaan	-8511
▁2010	-8512
▁363.	-8513
▁maan	-8514
▁midd	-8515
eneuve	-8516
ief▁ex	-8517
▁antar	-8518
▁bunga	-8519
▁color	-8520
▁roket	-8521
▁tiket	-8522
ali▁tan	-8523
gam▁ini	-8524
kan▁vet	-8525
ukan▁ag	-8526
▁messen	-8527
▁mistis	-8528
▁new▁fr	-8529
▁terror	-8530
▁the▁ga	-8531
ari▁saya	-8532
ief▁exec	-8533
i▁karier	-8534
l▁antara	-8535
pun▁bisa	-8536
▁del▁est	-8537
▁ini▁dib	-8538
▁negaran	-8539
▁pertamb	-8540
▁praktis	-8541
▁terbagi	-8542
▁tiket▁f	-8543
ajukan▁ag	-8544
illeneuve	-8545
o▁setelah	-8546
o▁tentang	-8547
yang▁maan	-8548
▁colorado	-8549
▁del▁este	-8550
▁kedutaan	-8551
▁mengadap	-8552
▁the▁gala	-8553
▁yang▁dic	-8554
ief▁execut	-8555
isi▁negara	-8556
itari▁saya	-8557
jadian▁dib	-8558
▁baik▁dari	-8559
▁mengadops	-8560
▁of▁terror	-8561
▁saya▁meng	-8562
▁the▁galax	-8563
▁yang▁rent	-8564
angan▁antar	-8565
ato▁setelah	-8566
emu▁tentang	-8567
n▁of▁terror	-8568
wall▁antara	-8569
▁ada▁banyak	-8570
▁dan▁mempek	-8571
▁ia▁menjadi	-8572
▁mengadopso	-8573
▁new▁france	-8574
▁piagam▁ini	-8575
▁rilis▁foto	-8576
▁the▁galaxy	-8577
▁tinggi▁itu	-8578
▁villeneuve	-8579
ea▁yang▁rent	-8580
inya▁setelah	-8581
urio▁tentang	-8582
▁aturan▁yang	-8583
▁del▁este▁ke	-8584
▁kerja▁paksa	-8585
▁namun▁telah	-8586
▁sebelum▁pem	-8587
▁tidak▁biasa	-8588
ajukan▁agenda	-8589
akhiri▁karier	-8590
egangan▁antar	-8591
ief▁executive	-8592
ign▁of▁terror	-8593
i▁dan▁penulis	-8594
lawan▁politik	-8595
▁ada▁banyak▁m	-8596
▁dari▁negaran	-8597
▁delapan▁film	-8598
▁di▁mana▁sang	-8599
pemb	-8600
sade	-8601
ujuk	-8602
▁beg	-8603
▁rez	-8604
▁ste	-8605
ujian	-8606
▁1988	-8607
▁upay	-8608
ladewa	-8609
z▁bisa	-8610
▁rezim	-8611
▁sirku	-8612
e▁dan▁h	-8613
it▁bisa	-8614
kan▁ste	-8615
or▁satu	-8616
ujuk▁ke	-8617
▁berapi	-8618
▁di▁kar	-8619
▁looper	-8620
▁pujian	-8621
▁ternak	-8622
▁winham	-8623
itz▁bisa	-8624
nya▁kota	-8625
▁bulan▁k	-8626
▁ini▁beg	-8627
▁rezim▁n	-8628
▁sirkuit	-8629
el▁winham	-8630
e▁dan▁hus	-8631
i▁meminta	-8632
litz▁bisa	-8633
nya▁belum	-8634
omor▁satu	-8635
▁bisa▁ber	-8636
▁kami▁mel	-8637
▁mengaman	-8638
▁menyebut	-8639
▁satu▁ini	-8640
▁upayanya	-8641
anya▁bulan	-8642
▁api▁mengh	-8643
▁bisa▁juga	-8644
▁bulan▁dan	-8645
▁bulan▁itu	-8646
▁dia▁salah	-8647
▁di▁balkan	-8648
▁di▁karnak	-8649
▁juga▁bisa	-8650
▁rekan▁ste	-8651
▁sirkuit▁y	-8652
e▁dan▁husum	-8653
owi▁meminta	-8654
▁dari▁bulan	-8655
▁dengan▁kep	-8656
▁dibujuk▁ke	-8657
▁rezim▁nazi	-8658
▁untuk▁mela	-8659
ower▁austria	-8660
terlitz▁bisa	-8661
▁bisa▁beranj	-8662
▁bulan▁kabis	-8663
▁mengamankan	-8664
▁pujian▁atas	-8665
▁sirkuit▁yas	-8666
ejabat▁jerman	-8667
lah▁dia▁salah	-8668
okowi▁meminta	-8669
ut▁dari▁bulan	-8670
▁andes▁tengah	-8671
▁bahwa▁mereka	-8672
▁bertahan▁dan	-8673
▁dengan▁kepon	-8674
▁dua▁mengukur	-8675
▁email▁berbah	-8676
▁endapan▁emas	-8677
▁episode▁baru	-8678
▁era▁keemasan	-8679
▁erik▁solheim	-8680
▁evakuasi▁itu	-8681
▁game▁obrolan	-8682
▁garis▁imajin	-8683
▁generator▁di	-8684
▁global▁untuk	-8685
▁hak▁historis	-8686
▁hidup▁maupun	-8687
▁hillsborough	-8688
▁ia▁bisa▁mend	-8689
▁ia▁lulus▁dan	-8690
▁ia▁mendorong	-8691
▁ia▁mengelola	-8692
▁imigran▁atau	-8693
▁ingin▁dijual	-8694
▁ini▁akan▁dir	-8695
▁ini▁begadang	-8696
▁ini▁berprest	-8697
▁ini▁biasanya	-8698
▁ini▁dalam▁se	-8699
may	-8700
cana	-8701
eten	-8702
▁bru	-8703
▁hay	-8704
apati	-8705
iruan	-8706
saing	-8707
▁bruy	-8708
▁buah	-8709
▁nuan	-8710
anduan	-8711
iki▁de	-8712
ter▁de	-8713
▁1928,	-8714
▁melan	-8715
▁sekut	-8716
▁semes	-8717
▁wilay	-8718
iki▁dee	-8719
kan▁kep	-8720
nter▁de	-8721
ur▁buah	-8722
▁nuansa	-8723
▁tapi▁n	-8724
▁wacana	-8725
at▁dan▁p	-8726
ga▁domin	-8727
saing▁di	-8728
▁di▁meja	-8729
▁lembaga	-8730
▁semesta	-8731
an▁wolmar	-8732
inya▁juga	-8733
kan▁kepal	-8734
mayoritas	-8735
uat▁wilay	-8736
▁adalah▁v	-8737
▁emisi▁al	-8738
▁hayatnya	-8739
▁kebiruan	-8740
▁kiki▁dee	-8741
▁sebuah▁c	-8742
▁sebuah▁h	-8743
▁sebuah▁n	-8744
aiga▁domin	-8745
al▁tentang	-8746
ivat▁dan▁p	-8747
minya▁juga	-8748
ondon▁lalu	-8749
▁bruyn▁dan	-8750
▁dan▁sekut	-8751
▁kecanduan	-8752
▁tapi▁nasi	-8753
▁tentang▁i	-8754
anggur▁buah	-8755
eten▁jerman	-8756
orang▁melan	-8757
▁atau▁tidak	-8758
▁batas▁luar	-8759
▁dengan▁sem	-8760
▁emisi▁alfa	-8761
▁itu▁melaju	-8762
▁juta▁warga	-8763
▁sebuah▁hot	-8764
▁sebuah▁nar	-8765
▁tapi▁nasib	-8766
▁tempat▁pem	-8767
▁tentang▁id	-8768
aiga▁dominan	-8769
engkan▁kepal	-8770
i▁kuat▁wilay	-8771
omal▁tentang	-8772
ondon▁lalu▁g	-8773
▁ia▁mendomin	-8774
▁itu▁ditutup	-8775
▁kedua▁kasus	-8776
▁ke▁rekening	-8777
▁langsungnya	-8778
▁pada▁wacana	-8779
▁sebuah▁cinc	-8780
ajurit▁dari▁b	-8781
nya▁dan▁dapat	-8782
oman▁tersebut	-8783
saing▁di▁kons	-8784
▁alam▁semesta	-8785
▁atau▁menjadi	-8786
▁berlaku▁pada	-8787
▁bukan▁barang	-8788
▁gedung▁putih	-8789
▁ini▁dan▁dari	-8790
▁itu▁diterima	-8791
▁itu▁terbakar	-8792
▁jajaran▁batu	-8793
▁jam▁kerja▁ak	-8794
▁jemu▁tentang	-8795
▁jermanis▁dan	-8796
▁jika▁pemilih	-8797
▁jimmy▁carter	-8798
▁judul▁marvel	-8799
onen	-8800
ratt	-8801
ambat	-8802
gangg	-8803
ponen	-8804
▁akut	-8805
▁daun	-8806
angkok	-8807
ayaran	-8808
embaga	-8809
ganggu	-8810
antikan	-8811
iratkan	-8812
talenta	-8813
▁daun▁p	-8814
▁pertob	-8815
asa▁satu	-8816
embagaan	-8817
ponennya	-8818
uan▁yang	-8819
unan▁itu	-8820
▁barratt	-8821
▁terbang	-8822
embayaran	-8823
▁akut▁dan	-8824
▁besar▁di	-8825
▁daun▁pin	-8826
▁hati▁dan	-8827
▁pengangg	-8828
annya▁tapi	-8829
asi▁selama	-8830
jam▁antara	-8831
▁baru▁lagu	-8832
▁harus▁dik	-8833
▁pasa▁satu	-8834
▁sangat▁pu	-8835
▁semua▁keb	-8836
▁terganggu	-8837
▁yang▁lama	-8838
apembayaran	-8839
edaunan▁itu	-8840
estasi▁yang	-8841
umbuan▁yang	-8842
▁disiratkan	-8843
▁di▁bangkok	-8844
▁kita▁perlu	-8845
▁menekankan	-8846
▁selama▁tah	-8847
▁seperti▁ob	-8848
▁warna▁hari	-8849
ambat▁ungkap	-8850
asan▁terbang	-8851
injam▁antara	-8852
nya▁di▁bawah	-8853
usi▁internet	-8854
▁baru▁lagu▁h	-8855
▁daun▁pinang	-8856
▁kelembagaan	-8857
▁komponennya	-8858
▁puluh▁orang	-8859
▁sangat▁puas	-8860
▁tower▁menug	-8861
kusi▁internet	-8862
uhkan▁hukuman	-8863
▁cumbuan▁yang	-8864
▁dedaunan▁itu	-8865
▁harus▁dikons	-8866
▁kali▁ini▁dia	-8867
▁kandungannya	-8868
▁karakter▁itu	-8869
▁kariernya▁di	-8870
▁kaum▁ottoman	-8871
▁keadaan▁mend	-8872
▁kecuali▁saya	-8873
▁kehidupannya	-8874
▁kekhawatiran	-8875
▁kelihatannya	-8876
▁kepada▁media	-8877
▁kepulauan▁gr	-8878
▁keras▁nuansa	-8879
▁keterampilan	-8880
▁ketidaksesua	-8881
▁ke▁arah▁yang	-8882
▁ke▁dalam▁kep	-8883
▁ke▁flensburg	-8884
▁ke▁puterinya	-8885
▁khusus▁obama	-8886
▁kipling▁juga	-8887
▁kita▁kembali	-8888
▁koleksi▁bila	-8889
▁kondisi▁roda	-8890
▁kontrol▁tamb	-8891
▁kota▁moravia	-8892
▁kota▁ontario	-8893
▁kriminal▁dan	-8894
▁kurang▁lebih	-8895
▁laguna▁kecil	-8896
▁lagu▁yang▁di	-8897
▁latihan▁angk	-8898
▁layar▁dengan	-8899
acu	-8900
▁ki	-8901
ampb	-8902
tion	-8903
▁juj	-8904
▁pic	-8905
acu▁g	-8906
tuasi	-8907
▁aran	-8908
▁wint	-8909
acu▁gm	-8910
atahan	-8911
ection	-8912
iki▁in	-8913
on▁pic	-8914
▁arans	-8915
▁campb	-8916
▁dalih	-8917
▁jujur	-8918
▁kiera	-8919
▁lucas	-8920
▁mahan	-8921
▁mampu	-8922
▁rekor	-8923
▁winto	-8924
eorikan	-8925
▁ia▁pun	-8926
▁kieraa	-8927
▁lembah	-8928
iki▁infr	-8929
▁330.000	-8930
▁berdamp	-8931
▁francis	-8932
▁keempat	-8933
▁mahanak	-8934
▁persnya	-8935
▁situasi	-8936
▁ujar▁sa	-8937
▁wintour	-8938
ection▁ag	-8939
on▁pictur	-8940
▁campbell	-8941
▁mahanakh	-8942
▁pengadil	-8943
▁pertahan	-8944
▁sebanyak	-8945
▁ujar▁saq	-8946
▁yang▁sah	-8947
acu▁gm▁dan	-8948
ah▁persnya	-8949
atahan▁ind	-8950
etak▁rekor	-8951
iki▁infras	-8952
kan▁oleh▁a	-8953
uruh▁mampu	-8954
▁ada▁pohon	-8955
▁aransemen	-8956
▁dan▁trump	-8957
▁francisco	-8958
▁sudah▁ada	-8959
▁tetap▁dis	-8960
▁waktu▁dan	-8961
atahan▁indo	-8962
enuhi▁dapat	-8963
hasil▁emisi	-8964
ian▁bermain	-8965
ulasi▁hanya	-8966
ulihan▁nama	-8967
▁dan▁proyek	-8968
▁jujur▁saja	-8969
▁kabut▁yang	-8970
▁mahanakhon	-8971
▁ujar▁saqib	-8972
ection▁agenc	-8973
la▁dan▁trump	-8974
otion▁pictur	-8975
▁akan▁datang	-8976
▁buruh▁mampu	-8977
▁dan▁membaca	-8978
▁dan▁prancis	-8979
▁dari▁banyak	-8980
▁dikemukakan	-8981
▁ia▁pun▁bisa	-8982
▁karya▁lucas	-8983
▁tetap▁disor	-8984
alkan▁melihat	-8985
ection▁agency	-8986
ekulasi▁hanya	-8987
in▁menjadikan	-8988
▁berdampingan	-8989
▁dalam▁dekade	-8990
▁dengan▁dalih	-8991
▁identifikasi	-8992
▁lewat▁lilles	-8993
▁lord▁halifax	-8994
▁mahasiswa▁di	-8995
▁manusia▁bisa	-8996
▁marah▁sekali	-8997
▁martin▁belum	-8998
▁mau▁berjalan	-8999
osc	-9000
▁25	-9001
▁1,5	-9002
▁eib	-9003
▁fig	-9004
▁leh	-9005
▁mot	-9006
▁ula	-9007
angku	-9008
is▁di	-9009
oresp	-9010
unjuk	-9011
▁£1,4	-9012
ipotes	-9013
i▁kota	-9014
oscone	-9015
ultasi	-9016
▁leher	-9017
▁motoc	-9018
akannya	-9019
anginya	-9020
an▁doss	-9021
▁figaro	-9022
ipotesis	-9023
orespond	-9024
▁di▁plat	-9025
▁gop▁ini	-9026
▁sinemat	-9027
akannya▁r	-9028
uan▁rumah	-9029
▁eibingen	-9030
▁motocros	-9031
▁pemangku	-9032
▁utamanya	-9033
angka▁yang	-9034
▁hipotesis	-9035
▁ia▁sangat	-9036
▁lebih▁ber	-9037
▁le▁figaro	-9038
▁mana▁asal	-9039
▁sebuah▁di	-9040
▁sinematik	-9041
annya▁tidak	-9042
hati▁selama	-9043
inya▁mereka	-9044
nya▁sekitar	-9045
nya▁seperti	-9046
▁balai▁kota	-9047
▁bersifat▁n	-9048
▁kekeringan	-9049
▁komunis▁di	-9050
▁konsultasi	-9051
▁pun▁mereka	-9052
▁sebuah▁div	-9053
▁telah▁naik	-9054
▁tuan▁rumah	-9055
anginya▁dari	-9056
lawanan▁doss	-9057
orespondensi	-9058
oscone▁north	-9059
▁adalah▁alat	-9060
▁di▁platform	-9061
▁istri▁trump	-9062
▁menulis▁ula	-9063
▁orang▁lebih	-9064
▁pada▁banyak	-9065
▁punya▁lebih	-9066
▁uskup▁agung	-9067
akannya▁rasti	-9068
alinya▁mereka	-9069
apannya▁tidak	-9070
unjuk▁sebagai	-9071
▁hebat▁di▁vil	-9072
▁lehernya▁ber	-9073
▁masih▁banyak	-9074
▁mau▁lagi▁ter	-9075
▁medis▁mereka	-9076
▁melakukannya	-9077
▁melampaui▁ex	-9078
▁memanfaatkan	-9079
▁membuat▁fire	-9080
▁memenuhi▁ben	-9081
▁memiliki▁jal	-9082
▁mencapai▁res	-9083
▁mencapai▁top	-9084
▁menerima▁jut	-9085
▁mengandalkan	-9086
▁menggali▁tan	-9087
▁mengganti▁ru	-9088
▁mengirim▁emo	-9089
▁mengutip▁sep	-9090
▁meningkatnya	-9091
▁menjadi▁pemb	-9092
▁menjaga▁pers	-9093
▁menulis▁enam	-9094
▁merasa▁ngeri	-9095
▁mereka▁cecil	-9096
▁meremehkan▁b	-9097
▁meski▁materi	-9098
▁mestre▁telah	-9099
kin	-9100
broc	-9101
sika	-9102
▁aktr	-9103
▁laur	-9104
▁noma	-9105
an▁dim	-9106
brocca	-9107
kinson	-9108
tumbuh	-9109
▁6.000	-9110
▁edgar	-9111
▁kesan	-9112
▁payah	-9113
an▁data	-9114
ebutkan	-9115
ersiade	-9116
▁aktris	-9117
▁mendok	-9118
▁pengas	-9119
▁pengel	-9120
ill▁noma	-9121
▁korsika	-9122
▁laurent	-9123
▁menangk	-9124
ampingkan	-9125
▁atkinson	-9126
▁dua▁dari	-9127
▁labrocca	-9128
▁mendalam	-9129
▁mendokum	-9130
▁namun▁ke	-9131
aran▁akhir	-9132
atu▁dengan	-9133
operasikan	-9134
uh▁distrik	-9135
▁bertumbuh	-9136
▁krisis▁su	-9137
▁menangkap	-9138
▁pengelomp	-9139
▁penulis▁g	-9140
▁setiap▁ke	-9141
in▁ping▁mei	-9142
ne▁atkinson	-9143
▁dengan▁dia	-9144
▁film▁edgar	-9145
▁finalisasi	-9146
▁kebanyakan	-9147
▁kolonisasi	-9148
▁negara▁dan	-9149
▁pengasuhan	-9150
ampingi▁mand	-9151
asar▁dan▁per	-9152
inya▁sebagai	-9153
maksud▁untuk	-9154
▁bagian▁bisa	-9155
▁dan▁distrik	-9156
▁dan▁pekerja	-9157
▁dari▁aktris	-9158
▁gurun▁pasir	-9159
▁kesan▁bahwa	-9160
▁krisis▁suez	-9161
▁menangkap▁l	-9162
▁mendokument	-9163
▁payah▁dalam	-9164
▁saran▁akhir	-9165
▁universiade	-9166
ampingi▁mandl	-9167
anne▁atkinson	-9168
astikan▁bahwa	-9169
tujuh▁distrik	-9170
▁contoh▁pulau	-9171
▁diperebutkan	-9172
▁jin▁ping▁mei	-9173
▁mirip▁dengan	-9174
▁mobil▁paling	-9175
▁musuhnya▁dan	-9176
▁musuh▁publik	-9177
▁namun▁mereka	-9178
▁nasabah▁bank	-9179
▁nato▁setelah	-9180
▁negara▁untuk	-9181
▁new▁earth▁di	-9182
▁nicolai▁berk	-9183
▁november▁dan	-9184
▁oleh▁beijing	-9185
▁oleh▁malleus	-9186
▁orang▁dengan	-9187
▁orang▁dewasa	-9188
▁pada▁awalnya	-9189
▁pada▁tokoh▁j	-9190
▁paling▁bodoh	-9191
▁para▁pelopor	-9192
▁para▁tahanan	-9193
▁pelayan▁angl	-9194
▁pelobi▁kimia	-9195
▁penangguhkan	-9196
▁pendidikan▁k	-9197
▁pengangguran	-9198
▁pengecualian	-9199
,▁-	-9200
001	-9201
osa	-9202
001-	-9203
ac▁r	-9204
osir	-9205
utos	-9206
▁emp	-9207
▁sos	-9208
001-£	-9209
aikan	-9210
eksek	-9211
osaur	-9212
▁helm	-9213
ac▁riv	-9214
an▁bum	-9215
empeng	-9216
encian	-9217
▁autos	-9218
▁cecel	-9219
▁empir	-9220
▁merit	-9221
▁sosok	-9222
001-£19	-9223
osaurus	-9224
umpuhan	-9225
▁buatan	-9226
▁hangat	-9227
▁memind	-9228
▁ringan	-9229
001-£19.	-9230
ac▁river	-9231
ampaikan	-9232
an▁orang	-9233
eksekusi	-9234
▁bahwa▁k	-9235
▁bahwa▁n	-9236
▁cecelia	-9237
▁kandang	-9238
▁lempeng	-9239
001-£19.9	-9240
ari▁bahwa	-9241
elesaikan	-9242
▁ada▁lima	-9243
▁bahwa▁nh	-9244
▁dan▁akan	-9245
▁di▁dasar	-9246
▁helm▁sep	-9247
▁mencantu	-9248
▁orang▁di	-9249
▁yang▁mer	-9250
001-£19.99	-9251
ik▁lempeng	-9252
ini▁pernah	-9253
omac▁river	-9254
▁bahwa▁kim	-9255
▁bahwa▁nhs	-9256
▁di▁kanada	-9257
▁mencantum	-9258
▁saat▁saya	-9259
001-£19.999	-9260
adari▁bahwa	-9261
asan▁buatan	-9262
istem▁merit	-9263
nya▁melawan	-9264
▁awal▁tahun	-9265
▁dieksekusi	-9266
▁dinosaurus	-9267
▁di▁dalam▁m	-9268
▁empire▁dan	-9269
▁kami▁telah	-9270
▁kelumpuhan	-9271
▁seperti▁al	-9272
▁untuk▁meny	-9273
intaan▁orang	-9274
i▁pada▁tahun	-9275
onik▁lempeng	-9276
otomac▁river	-9277
sistem▁merit	-9278
▁akses▁jalan	-9279
▁disampaikan	-9280
▁di▁dalam▁mg	-9281
▁film▁ringan	-9282
▁helm▁sepeda	-9283
▁ini▁menulis	-9284
▁memindahkan	-9285
▁orang▁tidak	-9286
▁penggembala	-9287
▁sekolah▁ini	-9288
5.001-£19.999	-9289
arth▁jennings	-9290
atkan▁itu▁dan	-9291
ellini▁pernah	-9292
ina▁mencantum	-9293
▁anak▁berusia	-9294
▁dengan▁keber	-9295
▁di▁dalam▁mgb	-9296
▁jasmine▁juga	-9297
▁negara▁islam	-9298
▁penghadangan	-9299
zi	-9300
hub	-9301
tzi	-9302
wor	-9303
yet	-9304
alek	-9305
anit	-9306
egal	-9307
n▁de	-9308
▁bia	-9309
anite	-9310
antel	-9311
apwor	-9312
▁biay	-9313
▁jemb	-9314
▁rich	-9315
o▁akan	-9316
▁1912,	-9317
▁alian	-9318
▁perih	-9319
apworth	-9320
hubungi	-9321
jahatan	-9322
a	-9323
▁	-9324
n	-9325
e	-9326
i	-9327
r	-9328
t	-9329
u	-9330
k	-9331
s	-9332
m	-9333
d	-9334
g	-9335
l	-9336
p	-9337
b	-9338
h	-9339
o	-9340
y	-9341
.	-9342
,	-9343
j	-9344
c	-9345
w	-9346
f	-9347
-	-9348
1	-9349
0	-9350
v	-9351
2	-9352
9	-9353
3	-9354
5	-9355
“	-9356
”	-9357
z	-9358
6	-9359
8	-9360
7	-9361
4	-9362
(	-9363
)	-9364
:	-9365
'	-9366
x	-9367
%	-9368
;	-9369
?	-9370
£	-9371
q	-9372
á	-9373
—	-9374
