<unk>	0
<s>	0
</s>	0
an	-0
er	-1
en	-2
ar	-3
ang	-4
di	-5
la	-6
in	-7
da	-8
un	-9
,_	-10
se	-11
ta	-12
kan	-13
men	-14
ya	-15
tu	-16
si	-17
em	-18
pa	-19
sa	-20
ba	-21
ti	-22
ka	-23
ga	-24
yang	-25
ma	-26
li	-27
ke	-28
ber	-29
per	-30
dan	-31
on	-32
bu	-33
ter	-34
ara	-35
nya	-36
lah	-37
or	-38
ing	-39
ari	-40
ha	-41
ja	-42
gan	-43
le	-44
mem	-45
be	-46
bi	-47
te	-48
ri	-49
wa	-50
pen	-51
ra	-52
tah	-53
ki	-54
tuk	-55
pada	-56
ini	-57
den	-58
lu	-59
su	-60
tan	-61
untuk	-62
gi	-63
ku	-64
me	-65
lam	-66
du	-67
mer	-68
dengan	-69
ju	-70
ia	-71
lan	-72
dari	-73
itu	-74
at	-75
ada	-76
tahun	-77
meng	-78
dalam	-79
de	-80
pi	-81
pu	-82
dak	-83
al	-84
mu	-85
ung	-86
ko	-87
re	-88
hi	-89
tidak	-90
na	-91
st	-92
pe	-93
han	-94
_1	-95
man	-96
ten	-97
telah	-98
ak	-99
mi	-100
ro	-101
ban	-102
sar	-103
ru	-104
akan	-105
orang	-106
pem	-107
tang	-108
gai	-109
po	-110
pan	-111
seba	-112
ran	-113
mere	-114
pat	-115
kem	-116
ah	-117
sela	-118
bah	-119
ole	-120
sebu	-121
adalah	-122
mereka	-123
oleh	-124
aru	-125
tem	-126
ca	-127
kon	-128
gu	-129
ne	-130
san	-131
menga	-132
bang	-133
lo	-134
sebagai	-135
is	-136
yak	-137
hu	-138
ker	-139
ge	-140
ik	-141
to	-142
tara	-143
bahwa	-144
apa	-145
il	-146
jadi	-147
besar	-148
ika	-149
kar	-150
tar	-151
lebi	-152
ting	-153
ili	-154
▁se	-155
cara	-156
lebih	-157
_2	-158
dia	-159
bagi	-160
mun	-161
as	-162
cu	-163
meny	-164
banyak	-165
_19	-166
ser	-167
sen	-168
inya	-169
tas	-170
selama	-171
sia	-172
diri	-173
ben	-174
dang	-175
0_	-176
dah	-177
lang	-178
sang	-179
gal	-180
juga	-181
ir	-182
sebuah	-183
_20	-184
kin	-185
dua	-186
gun	-187
lau	-188
bisa	-189
satu	-190
bulan	-191
takan	-192
ce	-193
mp	-194
asa	-195
saya	-196
perti	-197
menjadi	-198
tentang	-199
ena	-200
▁di	-201
▁pada	-202
hir	-203
ian	-204
pro	-205
_“	-206
co	-207
neg	-208
luar	-209
dapat	-210
lum	-211
ong	-212
wan	-213
beri	-214
mo	-215
tik	-216
akhir	-217
lai	-218
las	-219
baru	-220
namun	-221
bagian	-222
do	-223
ch	-224
para	-225
memili	-226
der	-227
peng	-228
tama	-229
tapi	-230
seperti	-231
th	-232
”_	-233
jar	-234
hari	-235
sebut	-236
je	-237
ol	-238
saat	-239
angan	-240
sangat	-241
din	-242
mar	-243
pun	-244
buat	-245
kota	-246
sama	-247
kerja	-248
negara	-249
lkan	-250
belum	-251
asi	-252
bat	-253
lis	-254
lain	-255
masa	-256
um	-257
duk	-258
tak	-259
tau	-260
hing	-261
memiliki	-262
ve	-263
hada	-264
mela	-265
ungkin	-266
lia	-267
intah	-268
ungan	-269
antara	-270
seorang	-271
tersebut	-272
_(	-273
hat	-274
jan	-275
par	-276
ris	-277
atau	-278
baik	-279
menu	-280
tasi	-281
annya	-282
pemer	-283
setelah	-284
bo	-285
hal	-286
ktu	-287
lik	-288
sus	-289
▁ia	-290
mulai	-291
hingga	-292
perang	-293
ek	-294
mbu	-295
min	-296
ton	-297
dara	-298
menye	-299
berapa	-300
so	-301
tus	-302
_201	-303
mana	-304
musi	-305
onal	-306
poli	-307
karena	-308
gunakan	-309
pemerintah	-310
no	-311
wi	-312
lin	-313
pal	-314
pri	-315
wal	-316
amer	-317
ikan	-318
peru	-319
sisi	-320
jalan	-321
tempat	-322
pertama	-323
beberapa	-324
am	-325
ger	-326
kat	-327
upa	-328
laut	-329
mengu	-330
sudah	-331
membuat	-332
vi	-333
bil	-334
ero	-335
gar	-336
ilm	-337
ken	-338
ksi	-339
ren	-340
tin	-341
kami	-342
saha	-343
tnya	-344
secara	-345
_3	-346
au	-347
uh	-348
00_	-349
bar	-350
dun	-351
mas	-352
mes	-353
mpa	-354
suk	-355
tra	-356
▁ke	-357
stri	-358
hanya	-359
kemba	-360
▁namun	-361
amerika	-362
can	-363
eri	-364
kai	-365
pre	-366
tif	-367
unan	-368
hadap	-369
menya	-370
kembali	-371
._	-372
ori	-373
uni	-374
arus	-375
masi	-376
seki	-377
tanya	-378
sekitar	-379
terhadap	-380
sis	-381
awal	-382
bawa	-383
dian	-384
gris	-385
kali	-386
semu	-387
temu	-388
tiga	-389
harus	-390
inggris	-391
el	-392
us	-393
aba	-394
for	-395
hen	-396
kit	-397
tap	-398
arah	-399
film	-400
hidu	-401
jang	-402
diper	-403
dunia	-404
jelas	-405
selatan	-406
terakhir	-407
ali	-408
gen	-409
lon	-410
sah	-411
yah	-412
baha	-413
disi	-414
jian	-415
memu	-416
nama	-417
stra	-418
sung	-419
usia	-420
▁ini	-421
kukan	-422
lihat	-423
musim	-424
kepada	-425
mungkin	-426
sebelum	-427
sendiri	-428
mengatakan	-429
ea	-430
go	-431
ji	-432
sti	-433
hasi	-434
kita	-435
tkan	-436
waktu	-437
ok	-438
ye	-439
bia	-440
gra	-441
kal	-442
lak	-443
pub	-444
tek	-445
abad	-446
anda	-447
anya	-448
ding	-449
gian	-450
lalu	-451
logi	-452
main	-453
saja	-454
wila	-455
inter	-456
tetap	-457
5_	-458
ni	-459
of	-460
car	-461
kap	-462
kok	-463
rat	-464
sep	-465
tal	-466
tri	-467
ver	-468
atas	-469
kemu	-470
kkan	-471
lagi	-472
mber	-473
mili	-474
ujar	-475
batas	-476
eropa	-477
kedua	-478
semua	-479
bentuk	-480
menang	-481
merupa	-482
sahaan	-483
kembang	-484
wilayah	-485
mendapat	-486
sebagian	-487
merupakan	-488
perusahaan	-489
ap	-490
es	-491
dis	-492
jak	-493
kur	-494
por	-495
sun	-496
tis	-497
tun	-498
anak	-499
hati	-500
rata	-501
skan	-502
diter	-503
masuk	-504
mengi	-505
salah	-506
tahan	-507
tiong	-508
mening	-509
pemili	-510
tinggi	-511
penting	-512
langsung	-513
digunakan	-514
mendapatkan	-515
0-	-516
1_	-517
4_	-518
et	-519
jo	-520
_18	-521
aga	-522
bin	-523
har	-524
kah	-525
mor	-526
mum	-527
rut	-528
sir	-529
son	-530
tai	-531
tor	-532
aman	-533
jika	-534
mbil	-535
nasi	-536
peri	-537
sist	-538
tuju	-539
bantu	-540
hidup	-541
penga	-542
presi	-543
pulau	-544
suara	-545
tentu	-546
udara	-547
utara	-548
bahasa	-549
berada	-550
kaisar	-551
undang	-552
bekerja	-553
memberi	-554
tanggal	-555
▁setelah	-556
;_	-557
fi	-558
ou	-559
,”_	-560
ala	-561
bun	-562
don	-563
dra	-564
ham	-565
ina	-566
khu	-567
sej	-568
ses	-569
the	-570
_200	-571
dung	-572
erah	-573
inve	-574
penu	-575
selu	-576
span	-577
tika	-578
bagai	-579
biasa	-580
dakan	-581
menge	-582
meski	-583
tanpa	-584
tumbu	-585
bangsa	-586
keluar	-587
khusus	-588
paling	-589
sistem	-590
presiden	-591
tiongkok	-592
pemilihan	-593
.0	-594
:_	-595
he	-596
▁“	-597
air	-598
ard	-599
cil	-600
cis	-601
dem	-602
hub	-603
jum	-604
jut	-605
mon	-606
sal	-607
tur	-608
habi	-609
hkan	-610
keku	-611
kono	-612
lama	-613
lasi	-614
rkan	-615
sasi	-616
stor	-617
tahu	-618
waki	-619
angka	-620
bawah	-621
ingin	-622
kenal	-623
jumlah	-624
memper	-625
perjan	-626
publik	-627
seluru	-628
sungai	-629
panjang	-630
tinggal	-631
akhirnya	-632
kemudian	-633
mengambil	-634
perjanjian	-635
sm	-636
2,_	-637
dar	-638
ita	-639
lar	-640
pon	-641
tam	-642
tro	-643
yol	-644
_199	-645
angi	-646
area	-647
asal	-648
bara	-649
laki	-650
meni	-651
seko	-652
tari	-653
unju	-654
benar	-655
ekono	-656
ingan	-657
kibat	-658
menca	-659
sikan	-660
strik	-661
rancis	-662
masalah	-663
melihat	-664
sekolah	-665
▁selama	-666
membantu	-667
melakukan	-668
meninggal	-669
.”	-670
_5	-671
ci	-672
ck	-673
fe	-674
op	-675
ty	-676
yu	-677
),_	-678
con	-679
emu	-680
gam	-681
jer	-682
kri	-683
kum	-684
kup	-685
mur	-686
pas	-687
sta	-688
ven	-689
war	-690
yan	-691
beba	-692
buka	-693
deka	-694
juta	-695
lesa	-696
ming	-697
rasa	-698
tran	-699
▁pen	-700
bahan	-701
empat	-702
kanan	-703
makin	-704
pasar	-705
tenga	-706
unani	-707
▁saya	-708
austra	-709
hilang	-710
kannya	-711
minggu	-712
pertan	-713
tuskan	-714
yunani	-715
ekonomi	-716
politik	-717
prancis	-718
sejarah	-719
terjadi	-720
memutuskan	-721
menggunakan	-722
%_	-723
-_	-724
gh	-725
nu	-726
ot	-727
gus	-728
hak	-729
jam	-730
jen	-731
kor	-732
ler	-733
nor	-734
pil	-735
sif	-736
sua	-737
tru	-738
beda	-739
cana	-740
daya	-741
hara	-742
isti	-743
jauh	-744
kira	-745
kuti	-746
loni	-747
mema	-748
mpak	-749
okto	-750
pera	-751
pulu	-752
roma	-753
sana	-754
sedi	-755
seti	-756
sial	-757
teri	-758
umum	-759
depan	-760
deral	-761
duduk	-762
hancu	-763
henti	-764
kecil	-765
memba	-766
rinya	-767
stasi	-768
tanah	-769
▁tapi	-770
apakah	-771
bicara	-772
diberi	-773
dingin	-774
jerman	-775
karang	-776
landia	-777
lanjut	-778
polisi	-779
sedang	-780
sumber	-781
tangan	-782
dirikan	-783
formasi	-784
oktober	-785
seluruh	-786
semakin	-787
tentara	-788
▁dengan	-789
hubungan	-790
nasional	-791
australia	-792
).	-793
)_	-794
7_	-795
fa	-796
ll	-797
we	-798
6,_	-799
aku	-800
bri	-801
cul	-802
ema	-803
her	-804
ode	-805
ruk	-806
unt	-807
wat	-808
_191	-809
agen	-810
aris	-811
atan	-812
gang	-813
guna	-814
ikat	-815
inta	-816
jawa	-817
kari	-818
kepa	-819
land	-820
lusi	-821
puan	-822
.000_	-823
barat	-824
dikan	-825
lukan	-826
masih	-827
menen	-828
tempu	-829
trump	-830
tuhan	-831
utama	-832
bangun	-833
beriku	-834
muncul	-835
partai	-836
sering	-837
tannya	-838
bersama	-839
jalanan	-840
menunju	-841
pekerja	-842
sedikit	-843
spanyol	-844
berkembang	-845
menyatakan	-846
menunjukkan	-847
_£	-848
af	-849
os	-850
pr	-851
vo	-852
”.	-853
0,_	-854
bon	-855
bum	-856
bus	-857
cha	-858
gre	-859
hor	-860
kel	-861
nah	-862
nis	-863
rim	-864
sel	-865
set	-866
spe	-867
stu	-868
aran	-869
batu	-870
caya	-871
dapa	-872
dipi	-873
hnya	-874
indu	-875
ktur	-876
lagu	-877
lima	-878
mark	-879
pela	-880
pria	-881
raja	-882
sain	-883
ster	-884
dasar	-885
harap	-886
hasil	-887
hukum	-888
iring	-889
keras	-890
letak	-891
pengu	-892
penye	-893
rusia	-894
serta	-895
surat	-896
tunya	-897
▁para	-898
dingan	-899
dukung	-900
ketika	-901
kontra	-902
masing	-903
meneri	-904
mengan	-905
pernah	-906
produk	-907
rendah	-908
wakili	-909
▁dalam	-910
▁meski	-911
bermain	-912
menurut	-913
periode	-914
berbagai	-915
kekuatan	-916
penduduk	-917
sekarang	-918
tindakan	-919
berikutnya	-920
memberikan	-921
6_	-922
8_	-923
eu	-924
ss	-925
yi	-926
bal	-927
bor	-928
bur	-929
era	-930
fer	-931
gap	-932
ide	-933
iki	-934
lih	-935
lim	-936
lit	-937
mah	-938
mai	-939
mak	-940
pra	-941
afri	-942
ampi	-943
arik	-944
buku	-945
data	-946
dila	-947
gung	-948
kasi	-949
mati	-950
menc	-951
mpin	-952
pasu	-953
seku	-954
tele	-955
▁dan	-956
bukan	-957
buran	-958
buruk	-959
harga	-960
lahan	-961
mbang	-962
penge	-963
puluh	-964
studi	-965
tanda	-966
taran	-967
tekno	-968
teman	-969
timur	-970
unggu	-971
versi	-972
afrika	-973
anggap	-974
daerah	-975
datang	-976
gambar	-977
gedung	-978
hadapi	-979
mengur	-980
menyer	-981
oritas	-982
selesa	-983
setiap	-984
temuan	-985
ungkap	-986
mediter	-987
menarik	-988
mentara	-989
tahanan	-990
tanyaan	-991
daripada	-992
keluarga	-993
menerima	-994
pertempu	-995
pertumbu	-996
termasuk	-997
ungkinan	-998
khususnya	-999
membentuk	-1000
menangkan	-1001
perubahan	-1002
teknologi	-1003
menghadapi	-1004
perjalanan	-1005
pertanyaan	-1006
sebelumnya	-1007
berlangsung	-1008
kemungkinan	-1009
pertempuran	-1010
pertumbuhan	-1011
pertandingan	-1012
19	-1013
2_	-1014
3_	-1015
7.	-1016
ds	-1017
fo	-1018
ly	-1019
ob	-1020
ts	-1021
3,_	-1022
:_“	-1023
daf	-1024
des	-1025
dii	-1026
dor	-1027
gol	-1028
hit	-1029
hon	-1030
kas	-1031
kha	-1032
len	-1033
new	-1034
ona	-1035
pai	-1036
pur	-1037
run	-1038
sla	-1039
val	-1040
via	-1041
zin	-1042
_197	-1043
agar	-1044
alam	-1045
alat	-1046
ania	-1047
apri	-1048
aruh	-1049
beru	-1050
coba	-1051
diki	-1052
hong	-1053
kata	-1054
konf	-1055
kter	-1056
ling	-1057
mong	-1058
oper	-1059
pema	-1060
piki	-1061
popu	-1062
revo	-1063
suku	-1064
teng	-1065
uang	-1066
▁itu	-1067
▁per	-1068
akses	-1069
album	-1070
april	-1071
berla	-1072
biara	-1073
domin	-1074
drama	-1075
hampi	-1076
jawab	-1077
lahir	-1078
lawan	-1079
libat	-1080
panas	-1081
perem	-1082
sanya	-1083
terus	-1084
tulis	-1085
tusan	-1086
upaya	-1087
bahkan	-1088
bangan	-1089
gangan	-1090
italia	-1091
mengha	-1092
pember	-1093
porkan	-1094
awalnya	-1095
bertemu	-1096
listrik	-1097
makanan	-1098
mbulkan	-1099
serikat	-1100
▁mereka	-1101
▁sebuah	-1102
industri	-1103
investor	-1104
kaisaran	-1105
mewakili	-1106
revolusi	-1107
terletak	-1108
▁menurut	-1109
mendukung	-1110
perempuan	-1111
mengurangi	-1112
meninggalkan	-1113
pemerintahan	-1114
0.	-1115
5.	-1116
9_	-1117
_'	-1118
_6	-1119
ad	-1120
ho	-1121
ii	-1122
nn	-1123
zi	-1124
▁w	-1125
and	-1126
ati	-1127
but	-1128
cah	-1129
del	-1130
emi	-1131
fak	-1132
fin	-1133
glo	-1134
hin	-1135
ibu	-1136
lap	-1137
lem	-1138
lle	-1139
lor	-1140
mau	-1141
may	-1142
pel	-1143
pin	-1144
shi	-1145
smi	-1146
tes	-1147
yar	-1148
yer	-1149
▁ka	-1150
_196	-1151
_198	-1152
asli	-1153
bank	-1154
begi	-1155
bela	-1156
dina	-1157
enam	-1158
euro	-1159
janu	-1160
kese	-1161
kini	-1162
kong	-1163
masy	-1164
mene	-1165
naik	-1166
pang	-1167
pelu	-1168
pesa	-1169
post	-1170
real	-1171
rich	-1172
sisa	-1173
sten	-1174
stru	-1175
tisi	-1176
▁ada	-1177
acara	-1178
belak	-1179
bunuh	-1180
gadis	-1181
ganti	-1182
gerak	-1183
hatan	-1184
iklim	-1185
ingka	-1186
kapal	-1187
karya	-1188
lapan	-1189
menja	-1190
mesir	-1191
onton	-1192
penuh	-1193
perda	-1194
siapa	-1195
taman	-1196
tangi	-1197
targe	-1198
tasan	-1199
tikel	-1200
akibat	-1201
arakat	-1202
begitu	-1203
berita	-1204
budaya	-1205
dangan	-1206
gustus	-1207
hampir	-1208
ketiga	-1209
koloni	-1210
menemu	-1211
mengin	-1212
posisi	-1213
sekali	-1214
selain	-1215
tenaga	-1216
tujuan	-1217
▁tidak	-1218
berusia	-1219
dikenal	-1220
dinasti	-1221
dirinya	-1222
disebut	-1223
januari	-1224
konflik	-1225
lainnya	-1226
melawan	-1227
meminta	-1228
menteri	-1229
menulis	-1230
militer	-1231
pasukan	-1232
pembang	-1233
percaya	-1234
rencana	-1235
saudara	-1236
selesai	-1237
sepenuh	-1238
terbuka	-1239
tradisi	-1240
▁secara	-1241
bintangi	-1242
hasilkan	-1243
ingkatan	-1244
jenderal	-1245
kibatkan	-1246
mencakup	-1247
pengguna	-1248
pertenga	-1249
republik	-1250
tidaknya	-1251
informasi	-1252
investasi	-1253
diperlukan	-1254
masyarakat	-1255
pertahanan	-1256
sepenuhnya	-1257
mediterania	-1258
memenangkan	-1259
menimbulkan	-1260
pertengahan	-1261
mengakibatkan	-1262
_-	-1263
bc	-1264
ef	-1265
ev	-1266
my	-1267
ua	-1268
▁s	-1269
_10	-1270
_15	-1271
_1_	-1272
aja	-1273
bei	-1274
bel	-1275
bis	-1276
dal	-1277
dik	-1278
eja	-1279
gab	-1280
hai	-1281
ist	-1282
jun	-1283
ksa	-1284
lus	-1285
net	-1286
ney	-1287
pau	-1288
sem	-1289
sha	-1290
tat	-1291
tel	-1292
vel	-1293
wer	-1294
▁pe	-1295
_10_	-1296
asia	-1297
avia	-1298
bada	-1299
berf	-1300
bumi	-1301
cata	-1302
ceri	-1303
clin	-1304
dern	-1305
dewa	-1306
dibu	-1307
emba	-1308
fran	-1309
gara	-1310
insi	-1311
juli	-1312
jung	-1313
kepu	-1314
kuat	-1315
legi	-1316
make	-1317
mata	-1318
mbut	-1319
mele	-1320
memi	-1321
mena	-1322
meno	-1323
mpan	-1324
olah	-1325
paru	-1326
rasi	-1327
seph	-1328
taan	-1329
tung	-1330
uncu	-1331
vasi	-1332
yaan	-1333
adaan	-1334
agama	-1335
alban	-1336
anggo	-1337
angku	-1338
artis	-1339
biaya	-1340
dakwa	-1341
danya	-1342
dekat	-1343
dewan	-1344
donia	-1345
duran	-1346
gelar	-1347
hujan	-1348
ikasi	-1349
isasi	-1350
kemer	-1351
komen	-1352
konsu	-1353
landa	-1354
lican	-1355
mobil	-1356
musik	-1357
north	-1358
nyata	-1359
paris	-1360
parte	-1361
puing	-1362
putri	-1363
rumah	-1364
sampa	-1365
sejak	-1366
sipil	-1367
sisir	-1368
situs	-1369
suatu	-1370
sutra	-1371
terpi	-1372
titik	-1373
toman	-1374
ungsi	-1375
yakin	-1376
▁dari	-1377
alasan	-1378
bedaan	-1379
butnya	-1380
dampak	-1381
dapati	-1382
ditemu	-1383
joseph	-1384
kehidu	-1385
konser	-1386
lahkan	-1387
luaran	-1388
memenu	-1389
miliar	-1390
modern	-1391
pelang	-1392
pemain	-1393
persen	-1394
sahkan	-1395
selalu	-1396
sosial	-1397
tampak	-1398
tember	-1399
▁untuk	-1400
ampilan	-1401
banding	-1402
batasan	-1403
belajar	-1404
berasal	-1405
berbeda	-1406
berubah	-1407
clinton	-1408
didikan	-1409
diikuti	-1410
kalinya	-1411
karibia	-1412
keadaan	-1413
kontrak	-1414
manusia	-1415
mencoba	-1416
mengapa	-1417
menolak	-1418
operasi	-1419
peluang	-1420
pembuat	-1421
penulis	-1422
pesawat	-1423
pesisir	-1424
seiring	-1425
tanaman	-1426
terbaik	-1427
terdiri	-1428
▁selain	-1429
bebaskan	-1430
bergerak	-1431
berhasil	-1432
berjalan	-1433
biasanya	-1434
dibangun	-1435
dominasi	-1436
gunungan	-1437
habiskan	-1438
internet	-1439
jalankan	-1440
memenuhi	-1441
menangan	-1442
mengirim	-1443
menyeber	-1444
menyerah	-1445
pemberon	-1446
produksi	-1447
tanggung	-1448
tertentu	-1449
transisi	-1450
universi	-1451
bagaimana	-1452
berbicara	-1453
berfungsi	-1454
didirikan	-1455
ditemukan	-1456
hilangkan	-1457
kehidupan	-1458
kembangan	-1459
kemerdeka	-1460
keputusan	-1461
makedonia	-1462
mayoritas	-1463
perbedaan	-1464
pertemuan	-1465
sepanjang	-1466
seseorang	-1467
sutradara	-1468
tantangan	-1469
kekaisaran	-1470
mengandung	-1471
seringkali	-1472
setidaknya	-1473
peningkatan	-1474
perdagangan	-1475
menghasilkan	-1476
perkembangan	-1477
menghilangkan	-1478
'_	-1479
-1	-1480
3.	-1481
_4	-1482
_7	-1483
_8	-1484
ai	-1485
ez	-1486
hn	-1487
it	-1488
ry	-1489
ur	-1490
va	-1491
,5_	-1492
1,_	-1493
5,_	-1494
7,_	-1495
_-_	-1496
_14	-1497
_16	-1498
_£1	-1499
aca	-1500
ana	-1501
api	-1502
blo	-1503
bre	-1504
cak	-1505
cau	-1506
cen	-1507
cor	-1508
dut	-1509
epi	-1510
eta	-1511
gah	-1512
gas	-1513
ght	-1514
gia	-1515
gor	-1516
hem	-1517
iah	-1518
iii	-1519
ima	-1520
iss	-1521
kom	-1522
les	-1523
lui	-1524
mei	-1525
nov	-1526
oli	-1527
pla	-1528
ram	-1529
sak	-1530
sud	-1531
tih	-1532
vil	-1533
yek	-1534
▁pa	-1535
_--_	-1536
acha	-1537
alih	-1538
anti	-1539
badi	-1540
bayi	-1541
beij	-1542
biji	-1543
cina	-1544
curi	-1545
diju	-1546
dipa	-1547
efek	-1548
erja	-1549
foto	-1550
geor	-1551
gera	-1552
hero	-1553
hill	-1554
iksa	-1555
ilis	-1556
iran	-1557
juni	-1558
kaan	-1559
kapi	-1560
krut	-1561
meme	-1562
mewa	-1563
musu	-1564
pasi	-1565
penc	-1566
pola	-1567
pusa	-1568
qing	-1569
radi	-1570
samu	-1571
seni	-1572
sing	-1573
sini	-1574
teks	-1575
tion	-1576
visi	-1577
wati	-1578
▁apa	-1579
▁dia	-1580
achae	-1581
aktif	-1582
antar	-1583
asaan	-1584
asing	-1585
atang	-1586
badai	-1587
badan	-1588
bagus	-1589
batan	-1590
belas	-1591
benua	-1592
berke	-1593
boleh	-1594
damai	-1595
debat	-1596
dilan	-1597
donal	-1598
ember	-1599
ganya	-1600
garan	-1601
ikian	-1602
jungi	-1603
kasus	-1604
keber	-1605
kisah	-1606
komun	-1607
ksiko	-1608
kuasa	-1609
kulit	-1610
kursi	-1611
labor	-1612
melam	-1613
meman	-1614
metro	-1615
organ	-1616
pecah	-1617
pener	-1618
perse	-1619
pikir	-1620
punya	-1621
siswa	-1622
total	-1623
tujuh	-1624
tumor	-1625
turan	-1626
vensi	-1627
wasan	-1628
wawan	-1629
zaman	-1630
▁hari	-1631
▁jika	-1632
▁kami	-1633
▁yang	-1634
angnya	-1635
bermak	-1636
bisnis	-1637
cerita	-1638
daftar	-1639
desain	-1640
diakan	-1641
donald	-1642
dorong	-1643
gereja	-1644
global	-1645
ilmiah	-1646
istiwa	-1647
jangka	-1648
jepang	-1649
jutkan	-1650
karier	-1651
kontro	-1652
lonium	-1653
maupun	-1654
merasa	-1655
negeri	-1656
permin	-1657
persis	-1658
protes	-1659
proyek	-1660
target	-1661
tengah	-1662
tumbuh	-1663
zinkan	-1664
agustus	-1665
albania	-1666
anggota	-1667
bangkan	-1668
beijing	-1669
dataran	-1670
denmark	-1671
distrik	-1672
federal	-1673
lidikan	-1674
meksiko	-1675
melalui	-1676
memilih	-1677
menanda	-1678
moravia	-1679
ottoman	-1680
pandang	-1681
pribadi	-1682
samudra	-1683
sebesar	-1684
unjungi	-1685
bangkrut	-1686
bertahan	-1687
bertahun	-1688
binatang	-1689
dasarkan	-1690
demikian	-1691
dianggap	-1692
harapkan	-1693
hentikan	-1694
istrinya	-1695
jelaskan	-1696
kenalkan	-1697
komentar	-1698
mencapai	-1699
menginga	-1700
november	-1701
partemen	-1702
partikel	-1703
pengaruh	-1704
perayaan	-1705
polonium	-1706
populasi	-1707
semuanya	-1708
terbesar	-1709
terlibat	-1710
▁mungkin	-1711
▁seperti	-1712
dibanding	-1713
diberikan	-1714
kekuasaan	-1715
membangun	-1716
memungkin	-1717
mendapati	-1718
mendorong	-1719
menemukan	-1720
mengganti	-1721
pekerjaan	-1722
pengharga	-1723
postingan	-1724
september	-1725
tertinggi	-1726
wawancara	-1727
▁sebagian	-1728
mendirikan	-1729
pendidikan	-1730
penggunaan	-1731
perbatasan	-1732
university	-1733
▁sementara	-1734
kemerdekaan	-1735
membebaskan	-1736
menjelaskan	-1737
menyediakan	-1738
pengeluaran	-1739
dibandingkan	-1740
memungkinkan	-1741
menghabiskan	-1742
menyeberangi	-1743
-2	-1744
2.	-1745
dr	-1746
ff	-1747
gy	-1748
py	-1749
sc	-1750
ue	-1751
za	-1752
án	-1753
—_	-1754
.00	-1755
8,_	-1756
9,_	-1757
_13	-1758
_17	-1759
_33	-1760
art	-1761
ath	-1762
bbc	-1763
bro	-1764
buk	-1765
cap	-1766
cot	-1767
cro	-1768
das	-1769
dek	-1770
dum	-1771
dur	-1772
eng	-1773
fik	-1774
gni	-1775
gur	-1776
imi	-1777
ins	-1778
isi	-1779
ket	-1780
kim	-1781
koh	-1782
kra	-1783
kre	-1784
kun	-1785
kus	-1786
ley	-1787
lir	-1788
lom	-1789
lot	-1790
lti	-1791
mal	-1792
mat	-1793
mpu	-1794
nas	-1795
one	-1796
opi	-1797
ore	-1798
ork	-1799
pos	-1800
pua	-1801
raf	-1802
sin	-1803
ste	-1804
sum	-1805
syu	-1806
tab	-1807
toh	-1808
top	-1809
tuh	-1810
web	-1811
wil	-1812
win	-1813
wit	-1814
yat	-1815
▁ma	-1816
▁su	-1817
_(19	-1818
_149	-1819
_188	-1820
_192	-1821
_195	-1822
_31_	-1823
aksi	-1824
alfa	-1825
berg	-1826
besi	-1827
bing	-1828
bran	-1829
bunu	-1830
cian	-1831
dana	-1832
demo	-1833
dese	-1834
dike	-1835
disa	-1836
dudu	-1837
duta	-1838
ener	-1839
ensi	-1840
erti	-1841
esia	-1842
esta	-1843
evir	-1844
fira	-1845
ford	-1846
gaji	-1847
gasi	-1848
gnif	-1849
golf	-1850
gran	-1851
guru	-1852
hadi	-1853
hami	-1854
iade	-1855
ilmu	-1856
ings	-1857
isme	-1858
jari	-1859
john	-1860
juru	-1861
kara	-1862
kaya	-1863
kebu	-1864
kece	-1865
kedu	-1866
keja	-1867
king	-1868
kole	-1869
kuda	-1870
laim	-1871
lami	-1872
lati	-1873
lind	-1874
maju	-1875
mini	-1876
muda	-1877
nati	-1878
nika	-1879
olia	-1880
pagi	-1881
paka	-1882
pati	-1883
patu	-1884
pelo	-1885
pemi	-1886
peni	-1887
ping	-1888
pons	-1889
pula	-1890
rist	-1891
rona	-1892
sara	-1893
sebe	-1894
shen	-1895
sili	-1896
stan	-1897
thai	-1898
tual	-1899
unit	-1900
wasi	-1901
york	-1902
▁dua	-1903
▁hal	-1904
_2014	-1905
alpen	-1906
angin	-1907
atori	-1908
bakar	-1909
bebas	-1910
bekas	-1911
benda	-1912
cuali	-1913
darat	-1914
dungi	-1915
ekspe	-1916
email	-1917
ferty	-1918
fiksi	-1919
ginya	-1920
grafi	-1921
grasi	-1922
great	-1923
hitch	-1924
india	-1925
islam	-1926
jaran	-1927
jikan	-1928
juara	-1929
jukan	-1930
kadar	-1931
kalah	-1932
kaman	-1933
kamer	-1934
kelah	-1935
kemun	-1936
keter	-1937
klasi	-1938
korea	-1939
kuran	-1940
laman	-1941
lapor	-1942
layak	-1943
legal	-1944
lemen	-1945
lepas	-1946
level	-1947
lihan	-1948
lompo	-1949
media	-1950
melin	-1951
memas	-1952
membu	-1953
menam	-1954
menan	-1955
menid	-1956
mping	-1957
mudah	-1958
olimp	-1959
ologi	-1960
opium	-1961
paksa	-1962
pasir	-1963
penak	-1964
peran	-1965
permu	-1966
persi	-1967
power	-1968
predi	-1969
pusat	-1970
reken	-1971
repub	-1972
resmi	-1973
ruang	-1974
saint	-1975
sakit	-1976
saran	-1977
senat	-1978
sepsi	-1979
sesan	-1980
sinya	-1981
spons	-1982
sudut	-1983
tampi	-1984
tarik	-1985
tario	-1986
tepat	-1987
terbi	-1988
terna	-1989
trans	-1990
tribu	-1991
tugas	-1992
tukan	-1993
turki	-1994
ujung	-1995
warna	-1996
0.000_	-1997
alisis	-1998
angkan	-1999
aturan	-2000
barang	-2001
bergab	-2002
bergan	-2003
bersen	-2004
bidang	-2005
dekade	-2006
derita	-2007
dibuat	-2008
dijual	-2009
dokter	-2010
estate	-2011
evirke	-2012
firaun	-2013
george	-2014
gresif	-2015
gunung	-2016
hancur	-2017
hatian	-2018
histor	-2019
kadang	-2020
kanada	-2021
karbon	-2022
kemati	-2023
kepala	-2024
kereta	-2025
kering	-2026
kritik	-2027
langka	-2028
lautan	-2029
lidiki	-2030
london	-2031
lukkan	-2032
materi	-2033
mengge	-2034
mumkan	-2035
pasang	-2036
pindah	-2037
pulkan	-2038
rektur	-2039
sampai	-2040
sangka	-2041
sastra	-2042
segera	-2043
senang	-2044
signif	-2045
tampil	-2046
tindak	-2047
tuhkan	-2048
ungkan	-2049
▁hanya	-2050
▁orang	-2051
▁sejak	-2052
▁tentu	-2053
atorium	-2054
belanda	-2055
berdiri	-2056
berlaku	-2057
bunuhan	-2058
dapatan	-2059
delapan	-2060
dilihat	-2061
dimulai	-2062
ditanda	-2063
habitat	-2064
hasilan	-2065
ilmuwan	-2066
kamerun	-2067
katanya	-2068
ketentu	-2069
khawati	-2070
kinerja	-2071
kondisi	-2072
kontrol	-2073
membaca	-2074
membawa	-2075
membuka	-2076
mencari	-2077
ontario	-2078
pakaian	-2079
richard	-2080
sebenar	-2081
syuting	-2082
tangani	-2083
tekanan	-2084
terlalu	-2085
ujarnya	-2086
▁ketika	-2087
bangsaan	-2088
batannya	-2089
belakang	-2090
berharap	-2091
berhenti	-2092
berkuasa	-2093
berpikir	-2094
desember	-2095
dipimpin	-2096
diterima	-2097
hancuran	-2098
hidupnya	-2099
historis	-2100
istimewa	-2101
karakter	-2102
lesaikan	-2103
membunuh	-2104
mengubah	-2105
menonton	-2106
mongolia	-2107
national	-2108
rafferty	-2109
rekening	-2110
sehingga	-2111
sejumlah	-2112
struktur	-2113
tenggara	-2114
tentunya	-2115
terutama	-2116
thailand	-2117
untungan	-2118
▁sebelum	-2119
▁seiring	-2120
▁seorang	-2121
bergabung	-2122
danevirke	-2123
dilakukan	-2124
ditinggal	-2125
gambarkan	-2126
hancurkan	-2127
kebutuhan	-2128
kepadanya	-2129
ketentuan	-2130
menentang	-2131
mengawasi	-2132
meningkat	-2133
olimpiade	-2134
perhatian	-2135
peristiwa	-2136
permukaan	-2137
pertanian	-2138
sedangkan	-2139
sementara	-2140
terbentuk	-2141
▁beberapa	-2142
achaemenid	-2143
bergantung	-2144
departemen	-2145
dibintangi	-2146
dilaporkan	-2147
kemunduran	-2148
mengadakan	-2149
menganggap	-2150
pembangkit	-2151
pembunuhan	-2152
penaklukan	-2153
pengadilan	-2154
permintaan	-2155
republican	-2156
sebenarnya	-2157
signifikan	-2158
sutradarai	-2159
terjadinya	-2160
berdasarkan	-2161
bertanggung	-2162
menambahkan	-2163
mengejutkan	-2164
mengizinkan	-2165
mengumumkan	-2166
mengunjungi	-2167
menyebutnya	-2168
penerbangan	-2169
penghargaan	-2170
terakhirnya	-2171
tradisional	-2172
disutradarai	-2173
mengingatkan	-2174
menyelesaikan	-2175
pemberontakan	-2176
..	-2177
.3	-2178
9.	-2179
ab	-2180
bl	-2181
ed	-2182
ex	-2183
gd	-2184
io	-2185
ln	-2186
mc	-2187
ms	-2188
ny	-2189
od	-2190
sk	-2191
sw	-2192
tn	-2193
tv	-2194
ul	-2195
wn	-2196
wo	-2197
zá	-2198
▁a	-2199
▁c	-2200
▁v	-2201
%,_	-2202
,_“	-2203
0%_	-2204
20_	-2205
_9_	-2206
_—_	-2207
ach	-2208
arl	-2209
arm	-2210
bab	-2211
bet	-2212
bru	-2213
buh	-2214
cas	-2215
cca	-2216
cer	-2217
chi	-2218
cho	-2219
chu	-2220
cia	-2221
cin	-2222
cip	-2223
cnn	-2224
dat	-2225
deo	-2226
die	-2227
dit	-2228
diu	-2229
doh	-2230
dre	-2231
duh	-2232
dul	-2233
ean	-2234
eks	-2235
eli	-2236
ess	-2237
fat	-2238
gau	-2239
gel	-2240
gle	-2241
gon	-2242
gro	-2243
guh	-2244
gum	-2245
hou	-2246
hut	-2247
ial	-2248
ine	-2249
jas	-2250
jur	-2251
keu	-2252
khi	-2253
kip	-2254
kop	-2255
lei	-2256
lez	-2257
los	-2258
lub	-2259
lur	-2260
mad	-2261
mel	-2262
mis	-2263
mos	-2264
nen	-2265
nik	-2266
non	-2267
now	-2268
nug	-2269
odi	-2270
pot	-2271
puk	-2272
que	-2273
rah	-2274
rak	-2275
ron	-2276
sam	-2277
sko	-2278
sol	-2279
sty	-2280
sub	-2281
sul	-2282
swe	-2283
taw	-2284
tea	-2285
tho	-2286
tim	-2287
tti	-2288
tua	-2289
tup	-2290
uru	-2291
usa	-2292
van	-2293
vid	-2294
wak	-2295
was	-2296
ybo	-2297
you	-2298
”,_	-2299
▁an	-2300
▁ba	-2301
▁ch	-2302
▁lo	-2303
▁mi	-2304
5.00	-2305
_11_	-2306
_177	-2307
_183	-2308
_194	-2309
_3%_	-2310
_30_	-2311
_50_	-2312
agal	-2313
ahli	-2314
ampu	-2315
anca	-2316
arti	-2317
asai	-2318
asso	-2319
baga	-2320
bane	-2321
beku	-2322
beli	-2323
bell	-2324
biar	-2325
bnya	-2326
bogd	-2327
bris	-2328
burg	-2329
cock	-2330
cone	-2331
coun	-2332
crat	-2333
dekl	-2334
dera	-2335
desa	-2336
diam	-2337
digi	-2338
dija	-2339
dika	-2340
ditu	-2341
duga	-2342
emas	-2343
enda	-2344
gali	-2345
gelo	-2346
glas	-2347
graf	-2348
gram	-2349
hang	-2350
hudi	-2351
huku	-2352
hulu	-2353
inan	-2354
inci	-2355
inda	-2356
inde	-2357
indi	-2358
iron	-2359
irsa	-2360
jata	-2361
kaki	-2362
kato	-2363
kaum	-2364
kebi	-2365
keka	-2366
keli	-2367
kode	-2368
komi	-2369
komp	-2370
kuno	-2371
lano	-2372
leng	-2373
liot	-2374
lord	-2375
luas	-2376
mara	-2377
maya	-2378
mine	-2379
mose	-2380
mpah	-2381
nico	-2382
obli	-2383
onis	-2384
oton	-2385
paui	-2386
peme	-2387
pemu	-2388
peny	-2389
peta	-2390
phen	-2391
prak	-2392
raya	-2393
repu	-2394
rute	-2395
seri	-2396
siap	-2397
slav	-2398
sode	-2399
star	-2400
stre	-2401
suhu	-2402
suka	-2403
tani	-2404
tema	-2405
thut	-2406
tian	-2407
tino	-2408
town	-2409
tren	-2410
tuan	-2411
twit	-2412
uber	-2413
unya	-2414
wali	-2415
▁con	-2416
▁kon	-2417
▁ter	-2418
▁win	-2419
▁wri	-2420
_100_	-2421
ajaan	-2422
alami	-2423
ameri	-2424
anton	-2425
arian	-2426
aruhi	-2427
atkan	-2428
bahas	-2429
balik	-2430
beban	-2431
berat	-2432
blunt	-2433
bodoh	-2434
buhan	-2435
bukti	-2436
carol	-2437
casus	-2438
celah	-2439
cepat	-2440
colum	-2441
cuaca	-2442
cukup	-2443
curie	-2444
danau	-2445
david	-2446
diaan	-2447
didat	-2448
dinya	-2449
dipro	-2450
diser	-2451
ditun	-2452
emisi	-2453
ender	-2454
etnis	-2455
fokus	-2456
garet	-2457
garis	-2458
gener	-2459
giran	-2460
gurun	-2461
halus	-2462
henry	-2463
hewan	-2464
ikkan	-2465
iklan	-2466
insip	-2467
insti	-2468
istan	-2469
jalur	-2470
kabar	-2471
kanal	-2472
kapan	-2473
kartu	-2474
kelas	-2475
keman	-2476
kesha	-2477
ketur	-2478
khaan	-2479
klaim	-2480
koman	-2481
legis	-2482
liter	-2483
malam	-2484
manya	-2485
massa	-2486
matah	-2487
melan	-2488
melon	-2489
menak	-2490
mence	-2491
menem	-2492
merah	-2493
meter	-2494
milik	-2495
minan	-2496
modal	-2497
model	-2498
motor	-2499
mpang	-2500
musuh	-2501
nenek	-2502
omong	-2503
ongan	-2504
opher	-2505
opini	-2506
orien	-2507
oscar	-2508
pakan	-2509
palem	-2510
pandu	-2511
pasca	-2512
penja	-2513
perlu	-2514
pesan	-2515
pesta	-2516
pihak	-2517
pilot	-2518
pohon	-2519
poten	-2520
premi	-2521
produ	-2522
putih	-2523
rakan	-2524
refer	-2525
riset	-2526
saham	-2527
shima	-2528
sifat	-2529
sosia	-2530
spesi	-2531
stone	-2532
swiss	-2533
tahui	-2534
tania	-2535
tarif	-2536
teori	-2537
tikan	-2538
tokoh	-2539
tubuh	-2540
tujui	-2541
valen	-2542
video	-2543
warga	-2544
yakan	-2545
▁bagi	-2546
▁raja	-2547
5.000_	-2548
_1970-	-2549
_2014.	-2550
_2017.	-2551
adaban	-2552
amanan	-2553
angkut	-2554
aranya	-2555
arawan	-2556
athena	-2557
balkan	-2558
bitkan	-2559
dalkan	-2560
dewasa	-2561
dimain	-2562
disney	-2563
ekseku	-2564
elemen	-2565
fikasi	-2566
hindia	-2567
ingkap	-2568
kajian	-2569
kapita	-2570
kemuka	-2571
kerusa	-2572
kesama	-2573
kurang	-2574
likasi	-2575
lokasi	-2576
lompok	-2577
lumpur	-2578
mantan	-2579
martin	-2580
melaju	-2581
memang	-2582
memiki	-2583
menara	-2584
mengem	-2585
mengum	-2586
menika	-2587
mennya	-2588
mental	-2589
mpatan	-2590
nugini	-2591
pantai	-2592
pantas	-2593
parade	-2594
pendaf	-2595
penden	-2596
pengem	-2597
persia	-2598
petisi	-2599
ponsel	-2600
powers	-2601
prihat	-2602
proses	-2603
rakyat	-2604
saling	-2605
sanksi	-2606
sayang	-2607
selasa	-2608
sional	-2609
stabil	-2610
sukkan	-2611
swedia	-2612
tangga	-2613
teater	-2614
terkai	-2615
tologi	-2616
winter	-2617
yahudi	-2618
▁dunia	-2619
▁empat	-2620
▁lebih	-2621
▁penye	-2622
▁salah	-2623
▁studi	-2624
▁tahun	-2625
_1492,_	-2626
_2010,_	-2627
_2015,_	-2628
alfabet	-2629
ancaman	-2630
angkasa	-2631
antonio	-2632
arankan	-2633
asisten	-2634
associa	-2635
buangan	-2636
catatan	-2637
dakwaan	-2638
deklara	-2639
didakwa	-2640
digital	-2641
dikirim	-2642
dipredi	-2643
dirilis	-2644
ditarik	-2645
ditulis	-2646
ditunju	-2647
endapan	-2648
episode	-2649
genting	-2650
hentian	-2651
herodes	-2652
hiburan	-2653
hington	-2654
hukuman	-2655
imigran	-2656
inginan	-2657
institu	-2658
jangkau	-2659
jasmine	-2660
jawaban	-2661
katolik	-2662
kemampu	-2663
kipling	-2664
kirakan	-2665
kolabor	-2666
koleksi	-2667
kristen	-2668
lakukan	-2669
langkah	-2670
meledak	-2671
melibat	-2672
membiar	-2673
memulai	-2674
menampi	-2675
menaruh	-2676
menjaga	-2677
menurun	-2678
menyesa	-2679
merebut	-2680
merekam	-2681
merilis	-2682
pemirsa	-2683
permain	-2684
pernika	-2685
perwaki	-2686
petugas	-2687
pikiran	-2688
politan	-2689
potensi	-2690
prinsip	-2691
program	-2692
radikal	-2693
rekaman	-2694
ristian	-2695
satunya	-2696
sebelah	-2697
seharus	-2698
sekadar	-2699
standar	-2700
stasiun	-2701
susunan	-2702
telepon	-2703
teratas	-2704
tribusi	-2705
twitter	-2706
yangkan	-2707
▁apakah	-2708
▁karena	-2709
▁sistem	-2710
▁wright	-2711
angkaian	-2712
berlayar	-2713
brisbane	-2714
britania	-2715
carolina	-2716
caucasus	-2717
columbus	-2718
dalamnya	-2719
debatkan	-2720
democrat	-2721
hatannya	-2722
hilangan	-2723
kalender	-2724
kandidat	-2725
keamanan	-2726
keduanya	-2727
kelompok	-2728
kerajaan	-2729
keseluru	-2730
keuangan	-2731
konsumen	-2732
lahirkan	-2733
landmark	-2734
margaret	-2735
matahari	-2736
melonjak	-2737
memegang	-2738
memimpin	-2739
mendarat	-2740
menengah	-2741
mengalir	-2742
mengarah	-2743
mengejar	-2744
mengerti	-2745
menggeli	-2746
menjabat	-2747
menunggu	-2748
obligasi	-2749
pasangan	-2750
pelajari	-2751
pemenang	-2752
pendapat	-2753
penguasa	-2754
penonton	-2755
reputasi	-2756
sebabnya	-2757
serangan	-2758
sosialis	-2759
suksesan	-2760
terbatas	-2761
terbunuh	-2762
terburuk	-2763
terpilih	-2764
terpisah	-2765
thutmose	-2766
tisipasi	-2767
unggulan	-2768
▁sebagai	-2769
bermaksud	-2770
bertindak	-2771
dengannya	-2772
diketahui	-2773
dimainkan	-2774
dipandang	-2775
ekonomian	-2776
ekspedisi	-2777
finlandia	-2778
gelombang	-2779
hitchcock	-2780
kariernya	-2781
keinginan	-2782
kejatuhan	-2783
kemanusia	-2784
kepenting	-2785
kerusakan	-2786
keturunan	-2787
melampaui	-2788
membatasi	-2789
menaikkan	-2790
menderita	-2791
menguasai	-2792
menyerang	-2793
pelabuhan	-2794
pelanggan	-2795
pemeriksa	-2796
pengaruhi	-2797
penumpang	-2798
peradaban	-2799
pinggiran	-2800
ristopher	-2801
tampaknya	-2802
tersangka	-2803
valentino	-2804
▁meskipun	-2805
▁revolusi	-2806
dijalankan	-2807
diprediksi	-2808
independen	-2809
intervensi	-2810
jabatannya	-2811
kehancuran	-2812
kehilangan	-2813
kesempatan	-2814
keuntungan	-2815
kolaborasi	-2816
melaporkan	-2817
melibatkan	-2818
memasukkan	-2819
membuatnya	-2820
memikirkan	-2821
menghadiri	-2822
mengundang	-2823
menjangkau	-2824
menyingkap	-2825
organisasi	-2826
pendapatan	-2827
pengalaman	-2828
pengawasan	-2829
perwakilan	-2830
seharusnya	-2831
washington	-2832
berpengaruh	-2833
dihancurkan	-2834
diterbitkan	-2835
kepentingan	-2836
keseluruhan	-2837
kontrasepsi	-2838
membintangi	-2839
menaklukkan	-2840
menampilkan	-2841
menjalankan	-2842
menyalahkan	-2843
menyarankan	-2844
menyelidiki	-2845
menyerahkan	-2846
pelanggaran	-2847
pembangunan	-2848
pendaftaran	-2849
pengunungan	-2850
persidangan	-2851
▁pemerintah	-2852
▁perusahaan	-2853
keberhasilan	-2854
kemampuannya	-2855
keterampilan	-2856
mengharapkan	-2857
menghentikan	-2858
mengumpulkan	-2859
metropolitan	-2860
pengembangan	-2861
penyelidikan	-2862
perekonomian	-2863
berkebangsaan	-2864
diperdebatkan	-2865
internasional	-2866
mengembangkan	-2867
menggambarkan	-2868
memperkenalkan	-2869
%.	-2870
'.	-2871
01	-2872
94	-2873
_9	-2874
ac	-2875
bs	-2876
by	-2877
fl	-2878
ft	-2879
hs	-2880
ih	-2881
im	-2882
iv	-2883
pb	-2884
rr	-2885
rt	-2886
tp	-2887
tt	-2888
vu	-2889
vw	-2890
yn	-2891
zl	-2892
zu	-2893
▁p	-2894
,7_	-2895
4,_	-2896
60.	-2897
60_	-2898
65_	-2899
8.	-2900
fj	-2901
jm	-2902
up	-2903
▁k	-2904
,_'	-2905
-5_	-2906
_..	-2907
_3_	-2908
_4_	-2909
_50	-2910
_83	-2911
_8_	-2912
_£3	-2913
_£7	-2914
aan	-2915
ale	-2916
alv	-2917
ans	-2918
apu	-2919
ato	-2920
ble	-2921
cat	-2922
com	-2923
cup	-2924
def	-2925
dil	-2926
dop	-2927
ega	-2928
eka	-2929
eko	-2930
eme	-2931
emo	-2932
eni	-2933
env	-2934
fon	-2935
gke	-2936
gow	-2937
goy	-2938
hap	-2939
inf	-2940
iri	-2941
jau	-2942
jin	-2943
jir	-2944
kir	-2945
kle	-2946
lok	-2947
lut	-2948
meg	-2949
meo	-2950
mit	-2951
myc	-2952
nil	-2953
nur	-2954
oba	-2955
oks	-2956
onj	-2957
ouf	-2958
pet	-2959
pik	-2960
pis	-2961
pus	-2962
put	-2963
rea	-2964
rem	-2965
rid	-2966
rip	-2967
roc	-2968
sab	-2969
sas	-2970
sec	-2971
sit	-2972
spr	-2973
sse	-2974
swa	-2975
ted	-2976
tha	-2977
ube	-2978
uch	-2979
und	-2980
ura	-2981
ves	-2982
vie	-2983
wel	-2984
whe	-2985
wor	-2986
xan	-2987
xit	-2988
zim	-2989
”_(	-2990
▁al	-2991
▁ar	-2992
▁de	-2993
▁nn	-2994
▁ti	-2995
▁wa	-2996
-201	-2997
1,5_	-2998
96,_	-2999
10	-3000
fc	-3001
_36	-3002
dna	-3003
kla	-3004
kod	-3005
mil	-3006
mpe	-3007
rey	-3008
spo	-3009
str	-3010
▁am	-3011
▁po	-3012
_1.3	-3013
_107	-3014
_14_	-3015
_153	-3016
_156	-3017
_182	-3018
_185	-3019
_187	-3020
_21_	-3021
_28_	-3022
_34_	-3023
_90_	-3024
_£12	-3025
agak	-3026
akal	-3027
aksa	-3028
akun	-3029
alas	-3030
alon	-3031
ansi	-3032
antu	-3033
arab	-3034
arez	-3035
aria	-3036
arki	-3037
arma	-3038
asan	-3039
asci	-3040
ator	-3041
atur	-3042
ayah	-3043
babi	-3044
baja	-3045
bass	-3046
beta	-3047
bian	-3048
bila	-3049
bios	-3050
blog	-3051
bots	-3052
brik	-3053
cape	-3054
chel	-3055
chen	-3056
coln	-3057
dali	-3058
daru	-3059
debu	-3060
deki	-3061
demy	-3062
desh	-3063
deta	-3064
dete	-3065
dibe	-3066
diha	-3067
dile	-3068
dino	-3069
dise	-3070
dite	-3071
doku	-3072
doss	-3073
drin	-3074
duke	-3075
duri	-3076
elit	-3077
enta	-3078
eral	-3079
erik	-3080
esar	-3081
etis	-3082
face	-3083
fitu	-3084
gala	-3085
game	-3086
gaya	-3087
geri	-3088
giku	-3089
hana	-3090
hemo	-3091
hili	-3092
hone	-3093
horm	-3094
iden	-3095
jeff	-3096
kala	-3097
kand	-3098
kano	-3099
if	-3100
,4_	-3101
10_	-3102
arr	-3103
nal	-3104
nan	-3105
oti	-3106
rei	-3107
slo	-3108
ssi	-3109
uis	-3110
_190	-3111
awan	-3112
book	-3113
ceko	-3114
cuma	-3115
edin	-3116
gesa	-3117
kayu	-3118
kege	-3119
kela	-3120
kema	-3121
kepo	-3122
kesa	-3123
kesu	-3124
kete	-3125
kilo	-3126
klam	-3127
klub	-3128
kome	-3129
korn	-3130
kuan	-3131
kuba	-3132
kusi	-3133
labe	-3134
laku	-3135
lans	-3136
leon	-3137
leri	-3138
lian	-3139
liao	-3140
line	-3141
lini	-3142
lola	-3143
ltic	-3144
luki	-3145
mano	-3146
maro	-3147
melo	-3148
ment	-3149
meto	-3150
mojm	-3151
mone	-3152
mpey	-3153
mpor	-3154
napo	-3155
ndar	-3156
news	-3157
obro	-3158
okra	-3159
oner	-3160
opsi	-3161
osia	-3162
ough	-3163
pacu	-3164
pana	-3165
park	-3166
paul	-3167
paus	-3168
peda	-3169
peja	-3170
plan	-3171
plat	-3172
poin	-3173
prov	-3174
puas	-3175
race	-3176
raga	-3177
rama	-3178
reco	-3179
ribu	-3180
roda	-3181
romi	-3182
sami	-3183
sand	-3184
scho	-3185
scot	-3186
sele	-3187
sesi	-3188
sias	-3189
siko	-3190
site	-3191
skot	-3192
smar	-3193
sney	-3194
stil	-3195
stis	-3196
suar	-3197
tawa	-3198
tepi	-3199
ut	-3200
bot	-3201
gca	-3202
gem	-3203
hep	-3204
hoa	-3205
hol	-3206
jim	-3207
mps	-3208
out	-3209
pho	-3210
sok	-3211
tip	-3212
vei	-3213
wol	-3214
damp	-3215
dice	-3216
erdo	-3217
kena	-3218
maje	-3219
minu	-3220
moli	-3221
raha	-3222
roso	-3223
salu	-3224
stik	-3225
ther	-3226
tiba	-3227
tify	-3228
tivi	-3229
tria	-3230
trix	-3231
tupi	-3232
ukra	-3233
vice	-3234
vidu	-3235
waja	-3236
wall	-3237
wang	-3238
ward	-3239
watt	-3240
yuan	-3241
zodi	-3242
zona	-3243
▁aku	-3244
▁ber	-3245
▁sej	-3246
▁tak	-3247
▁von	-3248
_20,_	-3249
_330_	-3250
_500_	-3251
alarm	-3252
alisi	-3253
ampil	-3254
anaya	-3255
andes	-3256
andre	-3257
angat	-3258
anggu	-3259
ansel	-3260
arium	-3261
ation	-3262
atlan	-3263
atnya	-3264
balap	-3265
bater	-3266
beral	-3267
beran	-3268
berem	-3269
berge	-3270
beria	-3271
bersa	-3272
bersi	-3273
bilan	-3274
bonds	-3275
brasi	-3276
briti	-3277
burgh	-3278
busin	-3279
chael	-3280
chris	-3281
cinta	-3282
curah	-3283
darah	-3284
delta	-3285
diaba	-3286
ditaw	-3287
ditem	-3288
doman	-3289
domes	-3290
emuan	-3291
endum	-3292
evaku	-3293
fakta	-3294
fasci	-3295
feder	-3296
final	-3297
fitur	-3298
flori	-3299
eon	-3300
gop	-3301
hel	-3302
_60-	-3303
agam	-3304
bill	-3305
form	-3306
ingi	-3307
oksi	-3308
pugh	-3309
spar	-3310
tiap	-3311
tina	-3312
▁bar	-3313
agung	-3314
bakat	-3315
bukit	-3316
diren	-3317
edisi	-3318
eliti	-3319
ganja	-3320
gelam	-3321
gelan	-3322
geron	-3323
geyer	-3324
gitar	-3325
gonzá	-3326
goyne	-3327
gravi	-3328
guber	-3329
habis	-3330
hadir	-3331
herzl	-3332
hijau	-3333
hilip	-3334
hills	-3335
hitam	-3336
horma	-3337
house	-3338
ikuti	-3339
impor	-3340
indah	-3341
inkan	-3342
inspi	-3343
inten	-3344
irkan	-3345
istri	-3346
jakan	-3347
jaman	-3348
james	-3349
jatuh	-3350
jejak	-3351
judul	-3352
jurna	-3353
kabut	-3354
kamis	-3355
kapai	-3356
kapel	-3357
karel	-3358
karna	-3359
kaval	-3360
kecan	-3361
keker	-3362
kekur	-3363
kemen	-3364
keten	-3365
kimia	-3366
kinya	-3367
klein	-3368
klima	-3369
kolon	-3370
komer	-3371
konta	-3372
ktika	-3373
ktual	-3374
kulan	-3375
label	-3376
langi	-3377
lanju	-3378
lasan	-3379
latin	-3380
layan	-3381
layar	-3382
leive	-3383
lewat	-3384
lisan	-3385
litan	-3386
lokal	-3387
lumpu	-3388
mahan	-3389
malah	-3390
mampu	-3391
marco	-3392
maret	-3393
medis	-3394
meiji	-3395
melar	-3396
menda	-3397
mener	-3398
menit	-3399
menju	-3400
meran	-3401
mercu	-3402
merek	-3403
mesta	-3404
mirip	-3405
misal	-3406
moral	-3407
morri	-3408
mpany	-3409
mpong	-3410
multi	-3411
namen	-3412
ngeri	-3413
nilai	-3414
norwe	-3415
nutri	-3416
obama	-3417
olkan	-3418
ovasi	-3419
pajak	-3420
pakar	-3421
papua	-3422
pasif	-3423
pasti	-3424
patan	-3425
patut	-3426
pelan	-3427
pemen	-3428
penya	-3429
pihan	-3430
profe	-3431
promo	-3432
prote	-3433
puisi	-3434
pulih	-3435
punta	-3436
pupuk	-3437
puter	-3438
pyong	-3439
radar	-3440
rames	-3441
rasti	-3442
recor	-3443
rekon	-3444
repot	-3445
retor	-3446
riang	-3447
rilis	-3448
rusak	-3449
rutin	-3450
sahel	-3451
saksi	-3452
samar	-3453
santa	-3454
seder	-3455
sehat	-3456
semen	-3457
sensi	-3458
sesua	-3459
smith	-3460
stria	-3461
super	-3462
tahap	-3463
tajam	-3464
tawar	-3465
teore	-3466
terlu	-3467
tersi	-3468
turun	-3469
turut	-3470
under	-3471
union	-3472
urban	-3473
usaha	-3474
utang	-3475
vatif	-3476
ville	-3477
vings	-3478
wafat	-3479
wakia	-3480
wanya	-3481
wheel	-3482
yanya	-3483
yanyi	-3484
yesus	-3485
▁akan	-3486
▁baik	-3487
▁film	-3488
▁kali	-3489
▁kaum	-3490
▁kita	-3491
▁kota	-3492
▁lagi	-3493
▁lalu	-3494
▁peng	-3495
▁saat	-3496
▁snow	-3497
5.000.	-3498
_1916_	-3499
_1960-	-3500
_1980-	-3501
_1990-	-3502
_1991_	-3503
_1997.	-3504
_2004_	-3505
_2013_	-3506
_£760_	-3507
abbots	-3508
adanya	-3509
admini	-3510
akurat	-3511
alaska	-3512
alatan	-3513
alexan	-3514
aliran	-3515
analis	-3516
anggur	-3517
angkat	-3518
apulia	-3519
armada	-3520
asmara	-3521
banjir	-3522
barkan	-3523
belgia	-3524
berdua	-3525
betapa	-3526
biayai	-3527
bilang	-3528
brasil	-3529
brexit	-3530
cabang	-3531
caesar	-3532
cakram	-3533
carlos	-3534
carson	-3535
cedera	-3536
celtic	-3537
cender	-3538
cerdas	-3539
cotton	-3540
cumber	-3541
dahulu	-3542
danube	-3543
defini	-3544
dengar	-3545
desaan	-3546
dibudi	-3547
dibuka	-3548
diduga	-3549
dileng	-3550
dinyan	-3551
dipenu	-3552
dipicu	-3553
disial	-3554
duduki	-3555
ekspan	-3556
enaean	-3557
energi	-3558
erahan	-3559
faktor	-3560
franco	-3561
gandum	-3562
ganggu	-3563
gaskan	-3564
gelang	-3565
globin	-3566
ground	-3567
gumkan	-3568
hembus	-3569
hispan	-3570
hlawan	-3571
hormat	-3572
indian	-3573
intele	-3574
invasi	-3575
istana	-3576
istira	-3577
itulah	-3578
jadian	-3579
jalani	-3580
jangan	-3581
jarang	-3582
joliot	-3583
kadesh	-3584
kanaan	-3585
kankan	-3586
kansas	-3587
kantor	-3588
keenam	-3589
keinda	-3590
khitan	-3591
kiraan	-3592
klasik	-3593
komedi	-3594
komisi	-3595
konsep	-3596
konsul	-3597
konyol	-3598
kotaan	-3599
krisis	-3600
ksimal	-3601
kursus	-3602
laguna	-3603
lamarr	-3604
lambat	-3605
langan	-3606
limbah	-3607
lintas	-3608
madrid	-3609
mailis	-3610
maksud	-3611
manaje	-3612
manchu	-3613
mankan	-3614
medali	-3615
melain	-3616
memicu	-3617
mencip	-3618
mengen	-3619
menjen	-3620
menonj	-3621
menuju	-3622
menyak	-3623
menyen	-3624
mereme	-3625
merkan	-3626
metode	-3627
minyak	-3628
muasal	-3629
naskah	-3630
ografi	-3631
osiasi	-3632
output	-3633
pabrik	-3634
pacuan	-3635
pannya	-3636
patung	-3637
pelobi	-3638
pemben	-3639
pencar	-3640
pengur	-3641
petani	-3642
phoeni	-3643
pisang	-3644
poster	-3645
puncak	-3646
rambut	-3647
reagan	-3648
reaksi	-3649
really	-3650
sahara	-3651
school	-3652
sehari	-3653
sejauh	-3654
sekutu	-3655
sepatu	-3656
setara	-3657
sistan	-3658
slatif	-3659
smartp	-3660
solusi	-3661
sparta	-3662
spring	-3663
statis	-3664
street	-3665
studio	-3666
sukses	-3667
sumpah	-3668
swasta	-3669
tambah	-3670
tapkan	-3671
tautan	-3672
teknik	-3673
tempur	-3674
terbit	-3675
terian	-3676
terper	-3677
thomas	-3678
thrace	-3679
torial	-3680
tribun	-3681
ukuran	-3682
univer	-3683
untung	-3684
vulkan	-3685
wanita	-3686
warkan	-3687
willia	-3688
yangan	-3689
yboard	-3690
zodiak	-3691
▁album	-3692
▁angka	-3693
▁badai	-3694
▁biara	-3695
▁iklim	-3696
▁kedua	-3697
▁louis	-3698
▁mulai	-3699
▁pulau	-3700
▁saham	-3701
▁siapa	-3702
▁sudah	-3703
▁surat	-3704
▁taman	-3705
▁upaya	-3706
_1770,_	-3707
_1911,_	-3708
_1914,_	-3709
_1976,_	-3710
_2003,_	-3711
_2007,_	-3712
_2011,_	-3713
_2012,_	-3714
academy	-3715
agamaan	-3716
agresif	-3717
alisasi	-3718
alterna	-3719
alvarez	-3720
anselmi	-3721
artinya	-3722
austria	-3723
ayahnya	-3724
balapan	-3725
bantuan	-3726
barroso	-3727
baterai	-3728
bebasan	-3729
belling	-3730
bencana	-3731
benteng	-3732
berhati	-3733
besaran	-3734
biasaan	-3735
bioskop	-3736
borough	-3737
cendeki	-3738
council	-3739
dalaman	-3740
dayakan	-3741
demokra	-3742
deteksi	-3743
diingin	-3744
dinding	-3745
dipilih	-3746
diskusi	-3747
ditampi	-3748
ditumbu	-3749
ditutup	-3750
dokumen	-3751
dudukan	-3752
durance	-3753
eksperi	-3754
embakan	-3755
environ	-3756
erdogan	-3757
faatkan	-3758
fascist	-3759
florida	-3760
glasgow	-3761
habisan	-3762
harapan	-3763
hasiswa	-3764
hatikan	-3765
hindari	-3766
ibukota	-3767
indukan	-3768
jajaran	-3769
jutting	-3770
kandang	-3771
kawasan	-3772
kecuali	-3773
kemuncu	-3774
ketidak	-3775
keyakin	-3776
koalisi	-3777
komando	-3778
konseku	-3779
konteks	-3780
kuburan	-3781
labeouf	-3782
lakinya	-3783
lanskap	-3784
laporan	-3785
lasinya	-3786
latihan	-3787
layanan	-3788
liburan	-3789
lincoln	-3790
lingkup	-3791
luarkan	-3792
majelis	-3793
matanya	-3794
memakai	-3795
memaksa	-3796
membagi	-3797
membeli	-3798
menemui	-3799
menenga	-3800
mengesa	-3801
menghub	-3802
menuduh	-3803
migrasi	-3804
mineral	-3805
minuman	-3806
mishima	-3807
mpaikan	-3808
musikal	-3809
nicolai	-3810
nutrisi	-3811
obrolan	-3812
pameran	-3813
panduan	-3814
pasifik	-3815
patahan	-3816
pejabat	-3817
pemilih	-3818
pengiku	-3819
penjaga	-3820
penunju	-3821
perdana	-3822
perlind	-3823
persaha	-3824
pilihan	-3825
populer	-3826
praktik	-3827
premium	-3828
pulauan	-3829
puluhan	-3830
purnama	-3831
rahasia	-3832
relawan	-3833
saluran	-3834
selamat	-3835
semenan	-3836
seniman	-3837
sepuluh	-3838
service	-3839
sesuatu	-3840
singkat	-3841
sisilia	-3842
skandal	-3843
spesies	-3844
sponsor	-3845
spotify	-3846
starlin	-3847
stephen	-3848
struksi	-3849
sungguh	-3850
talenta	-3851
tamanya	-3852
tekstil	-3853
tembaga	-3854
tempera	-3855
terikat	-3856
terkait	-3857
tersisa	-3858
tertawa	-3859
tingkat	-3860
tivitas	-3861
uangnya	-3862
ukraina	-3863
venesia	-3864
▁alasan	-3865
▁bagian	-3866
▁banyak	-3867
▁berita	-3868
▁contoh	-3869
▁disney	-3870
▁george	-3871
▁itulah	-3872
▁joseph	-3873
▁negara	-3874
▁polisi	-3875
▁sangat	-3876
▁sayang	-3877
▁seagal	-3878
▁setiap	-3879
▁tujuan	-3880
american	-3881
anggaran	-3882
angkatan	-3883
antusias	-3884
aplikasi	-3885
artileri	-3886
artistik	-3887
atlantik	-3888
augustus	-3889
bawahnya	-3890
berakhir	-3891
bergetar	-3892
bermakna	-3893
berorien	-3894
berpusat	-3895
bersifat	-3896
bertanya	-3897
burgoyne	-3898
business	-3899
catalano	-3900
depannya	-3901
desainer	-3902
diangkut	-3903
dipenuhi	-3904
direktur	-3905
disambut	-3906
diselesa	-3907
disimpan	-3908
ditandai	-3909
ditawari	-3910
ditempat	-3911
dokteran	-3912
domestik	-3913
dorongan	-3914
dukungan	-3915
ekspansi	-3916
empatkan	-3917
evakuasi	-3918
facebook	-3919
gabungan	-3920
generasi	-3921
gonzález	-3922
gubernur	-3923
harganya	-3924
hasilnya	-3925
hispania	-3926
hormatan	-3927
hormonal	-3928
individu	-3929
ingannya	-3930
intensif	-3931
irlandia	-3932
islandia	-3933
jaringan	-3934
jurnalis	-3935
karyawan	-3936
kavaleri	-3937
keberada	-3938
kejadian	-3939
kelahian	-3940
kematian	-3941
kenaikan	-3942
keprihat	-3943
kesamaan	-3944
kompromi	-3945
konvensi	-3946
kristian	-3947
lapangan	-3948
letakkan	-3949
lindungi	-3950
logistik	-3951
maskapai	-3952
memahami	-3953
memasang	-3954
membahas	-3955
menandai	-3956
mencegah	-3957
mengadop	-3958
mengukur	-3959
mengutip	-3960
menikahi	-3961
menutupi	-3962
meskipun	-3963
miliaran	-3964
misalnya	-3965
musuhnya	-3966
napoleon	-3967
neneknya	-3968
norwegia	-3969
olahraga	-3970
panglima	-3971
pecahnya	-3972
pedesaan	-3973
pemimpin	-3974
pencalon	-3975
peneliti	-3976
penipuan	-3977
penyanyi	-3978
penyebab	-3979
perairan	-3980
perilaku	-3981
perintah	-3982
perunggu	-3983
pinjaman	-3984
platform	-3985
polandia	-3986
prestasi	-3987
produser	-3988
properti	-3989
provinsi	-3990
ramesses	-3991
semangat	-3992
sembilan	-3993
seminggu	-3994
serpihan	-3995
setempat	-3996
setengah	-3997
sitektur	-3998
slowakia	-3999
tabrakan	-4000
tahankan	-4001
televisi	-4002
temannya	-4003
teoretis	-4004
terampil	-4005
terbakar	-4006
terdapat	-4007
terlihat	-4008
tifikasi	-4009
tionghoa	-4010
turnamen	-4011
ujungnya	-4012
uncurkan	-4013
undangan	-4014
ungkapan	-4015
vasionis	-4016
vatorium	-4017
waktunya	-4018
walikota	-4019
yudisial	-4020
▁amerika	-4021
▁prancis	-4022
▁snowman	-4023
▁tentara	-4024
alexander	-4025
bangsawan	-4026
banyaknya	-4027
berbentuk	-4028
berempati	-4029
berlanjut	-4030
bertempur	-4031
cenderung	-4032
diabaikan	-4033
dikatakan	-4034
dikembang	-4035
dinginkan	-4036
diproklam	-4037
disajikan	-4038
edinburgh	-4039
ekosistem	-4040
eksekutif	-4041
endurance	-4042
inspirasi	-4043
institute	-4044
kaitannya	-4045
kandungan	-4046
keagamaan	-4047
kebijakan	-4048
keindahan	-4049
kekalahan	-4050
kelahiran	-4051
kelihatan	-4052
kepercaya	-4053
kepompong	-4054
kesehatan	-4055
kesulitan	-4056
keyakinan	-4057
kurangnya	-4058
legislasi	-4059
melainkan	-4060
melintasi	-4061
memainkan	-4062
menangani	-4063
mendaftar	-4064
menduduki	-4065
mengalami	-4066
mengamati	-4067
menghapus	-4068
mengikuti	-4069
mengklaim	-4070
menjalani	-4071
menyaingi	-4072
menyambut	-4073
menyesali	-4074
morricone	-4075
mycenaean	-4076
negaranya	-4077
pemberian	-4078
pendatang	-4079
pengakuan	-4080
peralatan	-4081
perangkat	-4082
perkotaan	-4083
permainan	-4084
progresif	-4085
puterinya	-4086
pyongyang	-4087
reformasi	-4088
sederhana	-4089
sejarawan	-4090
targetnya	-4091
tentangan	-4092
terkemuka	-4093
tingginya	-4094
ungkapnya	-4095
▁akhirnya	-4096
▁analisis	-4097
▁berbagai	-4098
▁rafferty	-4099
▁winstone	-4100
abbotsford	-4101
administra	-4102
alternatif	-4103
ampilannya	-4104
antarktika	-4105
belakangan	-4106
beroperasi	-4107
berpakaian	-4108
berpotensi	-4109
bersenjata	-4110
cumberland	-4111
demokratik	-4112
diandalkan	-4113
dibutuhkan	-4114
diharapkan	-4115
diinginkan	-4116
dilengkapi	-4117
dinyatakan	-4118
dipamerkan	-4119
eksperimen	-4120
gelanggang	-4121
hemoglobin	-4122
kekurangan	-4123
kemenangan	-4124
kemunculan	-4125
kepresiden	-4126
kesuksesan	-4127
keunggulan	-4128
kontribusi	-4129
legislatif	-4130
melahirkan	-4131
melindungi	-4132
membawanya	-4133
membiarkan	-4134
mempercaya	-4135
menawarkan	-4136
mendeklara	-4137
menetapkan	-4138
menyetujui	-4139
meremehkan	-4140
pasukannya	-4141
pegunungan	-4142
pembuangan	-4143
pendudukan	-4144
penembakan	-4145
penguburan	-4146
penunjukan	-4147
pernikahan	-4148
persediaan	-4149
pertimbang	-4150
phoenician	-4151
prasejarah	-4152
referendum	-4153
sejarahnya	-4154
sekitarnya	-4155
skotlandia	-4156
smartphone	-4157
terlupakan	-4158
terperinci	-4159
urbanisasi	-4160
winterkorn	-4161
▁sayangnya	-4162
▁sepanjang	-4163
association	-4164
berpendapat	-4165
bersentuhan	-4166
christopher	-4167
demikianlah	-4168
ditampilkan	-4169
ditempatkan	-4170
ditumbuhkan	-4171
ditunjukkan	-4172
diwawancara	-4173
intelektual	-4174
kemanusiaan	-4175
kematiannya	-4176
kementerian	-4177
kepercayaan	-4178
khawatirkan	-4179
klasifikasi	-4180
klimatologi	-4181
konservatif	-4182
mempelajari	-4183
memproduksi	-4184
menciptakan	-4185
mendominasi	-4186
menempatkan	-4187
mengagumkan	-4188
mengalahkan	-4189
mengamankan	-4190
menghindari	-4191
menontonnya	-4192
menyaksikan	-4193
menyertakan	-4194
pascaperang	-4195
pembentukan	-4196
pemberontak	-4197
penghentian	-4198
pengurangan	-4199
perkelahian	-4200
profesional	-4201
sebagaimana	-4202
semenanjung	-4203
serangkaian	-4204
▁kekaisaran	-4205
▁perjanjian	-4206
berorientasi	-4207
dikembangkan	-4208
diperhatikan	-4209
diperkirakan	-4210
diselesaikan	-4211
ditinggalkan	-4212
investasikan	-4213
keprihatinan	-4214
laboratorium	-4215
mempengaruhi	-4216
mengeluarkan	-4217
menggantikan	-4218
menyampaikan	-4219
menyenangkan	-4220
perlindungan	-4221
persahabatan	-4222
transformasi	-4223
▁menggunakan	-4224
berkembangnya	-4225
dibudidayakan	-4226
diperkenalkan	-4227
international	-4228
menghubungkan	-4229
menyingkapkan	-4230
temperamennya	-4231
▁penyelidikan	-4232
diproklamirkan	-4233
ditandatangani	-4234
mempertahankan	-4235
menandatangani	-4236
menggelisahkan	-4237
mendeklarasikan	-4238
mengkhawatirkan	-4239
pemerintahannya	-4240
3.4	-4241
6%.	-4242
99.	-4243
?'_	-4244
exe	-4245
exu	-4246
exx	-4247
gby	-4248
hfc	-4249
kfc	-4250
nhs	-4251
rsc	-4252
rtc	-4253
sln	-4254
sán	-4255
zay	-4256
zuc	-4257
záh	-4258
▁im	-4259
▁tn	-4260
-13_	-4261
-15.	-4262
-20_	-4263
..._	-4264
.30-	-4265
1,4_	-4266
165_	-4267
3,7_	-4268
45,_	-4269
77,_	-4270
_1%.	-4271
_141	-4272
_163	-4273
_42_	-4274
_45_	-4275
_49_	-4276
_50;	-4277
_830	-4278
_“10	-4279
acun	-4280
agor	-4281
aids	-4282
asty	-4283
awak	-4284
bazu	-4285
bowo	-4286
brok	-4287
broo	-4288
cino	-4289
crtc	-4290
ddit	-4291
dred	-4292
ekam	-4293
eoti	-4294
epik	-4295
fans	-4296
ffre	-4297
fsln	-4298
gaud	-4299
ffy	-4300
_168	-4301
heim	-4302
helm	-4303
june	-4304
klus	-4305
kras	-4306
krea	-4307
lift	-4308
lstr	-4309
mcne	-4310
meza	-4311
naif	-4312
nash	-4313
nato	-4314
nine	-4315
nott	-4316
plot	-4317
pyla	-4318
ramb	-4319
reig	-4320
rono	-4321
rrhu	-4322
rvei	-4323
sabr	-4324
saul	-4325
shau	-4326
shep	-4327
soft	-4328
sore	-4329
ssee	-4330
syat	-4331
trem	-4332
tvie	-4333
ulut	-4334
valu	-4335
view	-4336
vine	-4337
well	-4338
wild	-4339
worl	-4340
yboy	-4341
yves	-4342
zayi	-4343
zhou	-4344
▁adi	-4345
▁amb	-4346
▁bap	-4347
▁blo	-4348
▁cap	-4349
▁cat	-4350
▁cgi	-4351
▁dur	-4352
▁eta	-4353
▁jin	-4354
▁lov	-4355
▁mag	-4356
▁sak	-4357
▁toh	-4358
▁vou	-4359
,_20_	-4360
-2016	-4361
-45,_	-4362
.000-	-4363
.165_	-4364
3.45.	-4365
5.001	-4366
6.30-	-4367
94),_	-4368
_..._	-4369
_120_	-4370
_3%,_	-4371
_40%_	-4372
_400_	-4373
_5,7_	-4374
_7,5_	-4375
_70%_	-4376
_700_	-4377
_833_	-4378
abori	-4379
actun	-4380
agora	-4381
arles	-4382
atoma	-4383
audre	-4384
bazuz	-4385
blind	-4386
blood	-4387
bouch	-4388
brand	-4389
brans	-4390
brant	-4391
break	-4392
bruyn	-4393
buram	-4394
capua	-4395
cauan	-4396
chill	-4397
cipta	-4398
cumae	-4399
_--	-4400
cbc	-4401
uax	-4402
ajai	-4403
ajat	-4404
yeru	-4405
▁sch	-4406
▁ste	-4407
-16,_	-4408
_137_	-4409
_1519	-4410
_66%.	-4411
adnan	-4412
bella	-4413
chief	-4414
decca	-4415
dicap	-4416
dieja	-4417
diess	-4418
diusu	-4419
drone	-4420
duffy	-4421
eagle	-4422
egara	-4423
emoji	-4424
ettel	-4425
exxon	-4426
febru	-4427
fisit	-4428
galax	-4429
gemar	-4430
giaan	-4431
gondo	-4432
grani	-4433
gurus	-4434
hakim	-4435
ibing	-4436
impan	-4437
infil	-4438
inoks	-4439
iridi	-4440
ironi	-4441
isles	-4442
jesse	-4443
jiner	-4444
kacau	-4445
kecer	-4446
kemih	-4447
kieli	-4448
kirri	-4449
knott	-4450
kolek	-4451
komik	-4452
kompe	-4453
kredi	-4454
ktrem	-4455
labro	-4456
latih	-4457
lenny	-4458
liott	-4459
lower	-4460
luiss	-4461
madge	-4462
magle	-4463
metti	-4464
mewah	-4465
mulut	-4466
mummy	-4467
nesty	-4468
nikah	-4469
nings	-4470
nonik	-4471
novel	-4472
noyar	-4473
olney	-4474
opley	-4475
otono	-4476
ought	-4477
paeon	-4478
pedas	-4479
pesat	-4480
plano	-4481
plaza	-4482
potre	-4483
rachi	-4484
rambo	-4485
reign	-4486
rekla	-4487
remis	-4488
rezim	-4489
rinci	-4490
ritel	-4491
ritti	-4492
roket	-4493
romeo	-4494
rossi	-4495
rrhus	-4496
sabtu	-4497
sabuk	-4498
sarat	-4499
35.	-4500
99_	-4501
_62	-4502
dho	-4503
hnn	-4504
tzi	-4505
999_	-4506
_84_	-4507
dhoy	-4508
gezi	-4509
glor	-4510
hine	-4511
hnny	-4512
kuad	-4513
lles	-4514
lora	-4515
yazi	-4516
.999_	-4517
_62%_	-4518
bashi	-4519
delhi	-4520
entes	-4521
hinga	-4522
homer	-4523
hotel	-4524
lingk	-4525
lleus	-4526
rhine	-4527
scott	-4528
sebot	-4529
secre	-4530
sekre	-4531
selec	-4532
sesak	-4533
shack	-4534
shang	-4535
shenz	-4536
sigur	-4537
sinis	-4538
sinop	-4539
sktel	-4540
skuad	-4541
sosok	-4542
strum	-4543
subsi	-4544
sulla	-4545
table	-4546
tawon	-4547
tefak	-4548
teguh	-4549
thace	-4550
thamp	-4551
thron	-4552
timis	-4553
tocro	-4554
tolle	-4555
tumpu	-4556
tutup	-4557
uglas	-4558
ulung	-4559
urati	-4560
urnal	-4561
vance	-4562
vanni	-4563
vanta	-4564
villa	-4565
wable	-4566
winds	-4567
winst	-4568
world	-4569
worth	-4570
ychel	-4571
yerba	-4572
yntas	-4573
youtu	-4574
yucat	-4575
zania	-4576
zburg	-4577
zinah	-4578
ángel	-4579
▁bala	-4580
▁besi	-4581
▁bogd	-4582
▁dewa	-4583
▁hong	-4584
▁juru	-4585
▁pagi	-4586
▁pebe	-4587
▁rona	-4588
▁suku	-4589
▁tina	-4590
▁visi	-4591
▁yuan	-4592
-2014_	-4593
-2016.	-4594
.000-£	-4595
._96,_	-4596
103,7_	-4597
1977,_	-4598
5.001-	-4599
198	-4600
cly	-4601
£19	-4602
▁ob	-4603
,_3_	-4604
33,_	-4605
_33_	-4606
_53_	-4607
cots	-4608
flen	-4609
glen	-4610
gold	-4611
klir	-4612
obla	-4613
ords	-4614
pets	-4615
▁198	-4616
▁gol	-4617
clyde	-4618
flens	-4619
frank	-4620
honor	-4621
lenno	-4622
lokas	-4623
mohon	-4624
perts	-4625
ppets	-4626
scots	-4627
slack	-4628
_(1994	-4629
_1000_	-4630
_1075.	-4631
_1399.	-4632
_1530.	-4633
_1538_	-4634
_1632_	-4635
_1777_	-4636
_1820.	-4637
_1858_	-4638
_1860.	-4639
_1887.	-4640
_1904_	-4641
_1925_	-4642
_1955.	-4643
_1960.	-4644
_1973.	-4645
_1979.	-4646
_1980_	-4647
_1981_	-4648
_1984_	-4649
_1993.	-4650
_1998.	-4651
_20%,_	-4652
_2002.	-4653
_2008.	-4654
_2012_	-4655
_2020_	-4656
_50;_“	-4657
_£125_	-4658
_£360.	-4659
anasan	-4660
andino	-4661
andrew	-4662
angkir	-4663
aparte	-4664
atikan	-4665
audrey	-4666
autria	-4667
ayakan	-4668
basili	-4669
berkom	-4670
bianto	-4671
blebum	-4672
boneka	-4673
bsburg	-4674
capkan	-4675
capnya	-4676
castel	-4677
center	-4678
chapel	-4679
chenba	-4680
chenck	-4681
cincin	-4682
cobaan	-4683
counte	-4684
crouch	-4685
daisme	-4686
darpur	-4687
deklin	-4688
detail	-4689
diesel	-4690
dikena	-4691
dilepa	-4692
dinosa	-4693
dioksi	-4694
diteor	-4695
diukur	-4696
durasi	-4697
egakan	-4698
eibing	-4699
-6_	-4700
28_	-4701
93.	-4702
cbs	-4703
328_	-4704
_16.	-4705
_16_	-4706
anyi	-4707
burn	-4708
eura	-4709
euve	-4710
litz	-4711
suez	-4712
_16.5	-4713
_393.	-4714
baiki	-4715
kiera	-4716
kubur	-4717
mahka	-4718
makna	-4719
praju	-4720
ramah	-4721
ramai	-4722
slate	-4723
stern	-4724
_(328_	-4725
_2008_	-4726
_2012.	-4727
_2016_	-4728
_£1,4_	-4729
auster	-4730
baltik	-4731
dikasi	-4732
dukasi	-4733
ekster	-4734
ellini	-4735
embaga	-4736
embala	-4737
emicro	-4738
enggan	-4739
entuan	-4740
episko	-4741
ewable	-4742
ffredo	-4743
fjords	-4744
fonnya	-4745
format	-4746
galaxy	-4747
gauden	-4748
gement	-4749
geroni	-4750
gezira	-4751
ggelam	-4752
ghtley	-4753
gordon	-4754
goreng	-4755
gregor	-4756
grosir	-4757
guling	-4758
hangat	-4759
hangus	-4760
harapn	-4761
harley	-4762
helena	-4763
heroin	-4764
hister	-4765
hitler	-4766
hitung	-4767
holden	-4768
hopley	-4769
humano	-4770
ikmati	-4771
ilhami	-4772
imbang	-4773
ingkas	-4774
inrich	-4775
julian	-4776
juliet	-4777
karnak	-4778
keajai	-4779
kecewa	-4780
kekesa	-4781
kemaju	-4782
kemega	-4783
kesale	-4784
kieraa	-4785
kigali	-4786
konfer	-4787
kopter	-4788
kramer	-4789
kuasai	-4790
ladewa	-4791
lahore	-4792
lakaan	-4793
laptop	-4794
latium	-4795
lausul	-4796
lembar	-4797
lembut	-4798
lennox	-4799
10,_	-4800
40,_	-4801
aset	-4802
bono	-4803
bush	-4804
divo	-4805
fset	-4806
illy	-4807
lled	-4808
ospi	-4809
phor	-4810
afsir	-4811
agenc	-4812
chair	-4813
greco	-4814
hospi	-4815
mpuan	-4816
nikel	-4817
pelat	-4818
sains	-4819
speku	-4820
sphor	-4821
treal	-4822
vokal	-4823
▁lagu	-4824
agency	-4825
agenda	-4826
athina	-4827
berapi	-4828
colora	-4829
divost	-4830
horton	-4831
kelema	-4832
konsel	-4833
lindsa	-4834
luther	-4835
maglev	-4836
makmur	-4837
mantel	-4838
maroko	-4839
megrim	-4840
melari	-4841
melaru	-4842
meleji	-4843
melolo	-4844
memanc	-4845
menama	-4846
mencin	-4847
mencor	-4848
menelu	-4849
mestre	-4850
mopyla	-4851
motion	-4852
mpanye	-4853
mpbell	-4854
nessee	-4855
ngurus	-4856
normal	-4857
nyaris	-4858
obsesi	-4859
offset	-4860
onalis	-4861
otonom	-4862
pasien	-4863
paulus	-4864
pegang	-4865
pelati	-4866
pemaha	-4867
pemeca	-4868
pemuki	-4869
penila	-4870
penist	-4871
penyer	-4872
petaka	-4873
petter	-4874
pinang	-4875
planta	-4876
prapem	-4877
proach	-4878
protec	-4879
rachel	-4880
rambow	-4881
ranach	-4882
rastiz	-4883
rchill	-4884
record	-4885
reddit	-4886
relati	-4887
rewall	-4888
ribuan	-4889
risiko	-4890
rocket	-4891
romano	-4892
runtuh	-4893
sarato	-4894
seagal	-4895
select	-4896
seleng	-4897
selnya	-4898
sengke	-4899
2)_	-4900
6).	-4901
fax	-4902
”).	-4903
▁we	-4904
-29_	-4905
46).	-4906
92)_	-4907
brid	-4908
fase	-4909
gill	-4910
odes	-4911
tell	-4912
west	-4913
._31_	-4914
846).	-4915
brice	-4916
emaja	-4917
gaunt	-4918
heart	-4919
inema	-4920
kawat	-4921
labri	-4922
laris	-4923
lifax	-4924
mbrid	-4925
opera	-4926
peset	-4927
setia	-4928
struk	-4929
_1927_	-4930
_2017_	-4931
dikuti	-4932
diumum	-4933
emasan	-4934
ensial	-4935
hernya	-4936
labria	-4937
loknya	-4938
looper	-4939
memacu	-4940
odessa	-4941
perawa	-4942
remaja	-4943
ronomi	-4944
sentuh	-4945
sepeda	-4946
sesuai	-4947
setial	-4948
shikai	-4949
siklus	-4950
sinema	-4951
sinyal	-4952
siskus	-4953
spedal	-4954
subduk	-4955
summer	-4956
tablet	-4957
tennis	-4958
ticino	-4959
timbal	-4960
tropis	-4961
tuensi	-4962
tvieil	-4963
uentes	-4964
ulrich	-4965
uplift	-4966
urusan	-4967
urutan	-4968
utusan	-4969
valkar	-4970
valley	-4971
varian	-4972
wacana	-4973
weller	-4974
winham	-4975
wolmar	-4976
yannis	-4977
yudhoy	-4978
zettel	-4979
zimmer	-4980
zucker	-4981
záhori	-4982
▁1987_	-4983
▁andes	-4984
▁bapti	-4985
▁barri	-4986
▁berga	-4987
▁blind	-4988
▁bloch	-4989
▁blunt	-4990
▁bouch	-4991
▁bukan	-4992
▁conto	-4993
▁feder	-4994
▁gemar	-4995
▁hasil	-4996
▁hujan	-4997
▁istri	-4998
▁jejak	-4999
3%_	-5000
ctv	-5001
hot	-5002
knu	-5003
-16_	-5004
_1%_	-5005
dler	-5006
hugh	-5007
lera	-5008
nusa	-5009
vene	-5010
warn	-5011
yani	-5012
▁nor	-5013
_53%_	-5014
bruce	-5015
chler	-5016
dream	-5017
hujam	-5018
knuck	-5019
kores	-5020
korin	-5021
luwar	-5022
mayan	-5023
norma	-5024
oller	-5025
pilih	-5026
prasa	-5027
suaka	-5028
suami	-5029
toler	-5030
_1879.	-5031
berjam	-5032
conven	-5033
corona	-5034
dekati	-5035
domini	-5036
hothai	-5037
incian	-5038
jutaan	-5039
korban	-5040
suaian	-5041
veneto	-5042
vening	-5043
▁karya	-5044
▁konti	-5045
▁lahan	-5046
▁magma	-5047
▁micro	-5048
▁mobil	-5049
▁obser	-5050
▁pandu	-5051
▁penge	-5052
▁penje	-5053
▁perda	-5054
▁polis	-5055
▁ruang	-5056
▁siswa	-5057
▁situs	-5058
▁skema	-5059
▁suami	-5060
▁sulit	-5061
▁tarif	-5062
▁tiket	-5063
▁total	-5064
▁ujung	-5065
▁vouch	-5066
▁wadah	-5067
▁warga	-5068
▁weiss	-5069
▁winto	-5070
00.000_	-5071
_(6.30-	-5072
_1.165_	-5073
_1340,_	-5074
_1519,_	-5075
_1563,_	-5076
_1566,_	-5077
_1820,_	-5078
_1832,_	-5079
_1882,_	-5080
_1896,_	-5081
_1903,_	-5082
_1912,_	-5083
_1913,_	-5084
_1917,_	-5085
_1918,_	-5086
_1926,_	-5087
_1928,_	-5088
_1952,_	-5089
_1955,_	-5090
_1962,_	-5091
_1969,_	-5092
_1996,_	-5093
_1997,_	-5094
_2000,_	-5095
_2016,_	-5096
_2020_-	-5097
_23.45.	-5098
_6.000_	-5099
_51	-5100
_55	-5101
_56	-5102
0),_	-5103
4),_	-5104
_17_	-5105
_512	-5106
buck	-5107
ciri	-5108
city	-5109
clar	-5110
feli	-5111
gemu	-5112
hack	-5113
haky	-5114
krip	-5115
kven	-5116
lary	-5117
staf	-5118
▁ama	-5119
▁pon	-5120
▁sta	-5121
54),_	-5122
_512-	-5123
_56%_	-5124
ckham	-5125
condo	-5126
consu	-5127
dikum	-5128
gemuk	-5129
inkum	-5130
kapas	-5131
kepon	-5132
krist	-5133
kumpu	-5134
llary	-5135
marat	-5136
nicho	-5137
obesi	-5138
pelar	-5139
retro	-5140
shaky	-5141
stage	-5142
taris	-5143
uskup	-5144
▁ahli	-5145
▁amaz	-5146
▁asal	-5147
▁john	-5148
_512-5	-5149
claret	-5150
contro	-5151
domeni	-5152
felipe	-5153
krimin	-5154
kumpul	-5155
lembah	-5156
lingan	-5157
uskrip	-5158
yazidi	-5159
▁pondo	-5160
_1992,_	-5161
_512-51	-5162
_550),_	-5163
_“100%_	-5164
aliansi	-5165
amyntas	-5166
angzhou	-5167
antarmu	-5168
antipas	-5169
arkinya	-5170
artikel	-5171
asalnya	-5172
badatan	-5173
bebastu	-5174
benaran	-5175
bencian	-5176
beracun	-5177
beragam	-5178
beraksi	-5179
berarti	-5180
berduri	-5181
bergaya	-5182
berguna	-5183
berhulu	-5184
berkela	-5185
berlian	-5186
bingung	-5187
blebums	-5188
blogger	-5189
bosphor	-5190
cambrid	-5191
cangkir	-5192
capakan	-5193
carangi	-5194
chamber	-5195
cintaan	-5196
cirikan	-5197
cranach	-5198
dagelan	-5199
52,_	-5200
_135	-5201
demi	-5202
mona	-5203
resm	-5204
saly	-5205
udar	-5206
▁mon	-5207
badut	-5208
demon	-5209
kejut	-5210
monye	-5211
retur	-5212
rugby	-5213
salem	-5214
saler	-5215
verly	-5216
wells	-5217
_1350-	-5218
_1950-	-5219
_352,_	-5220
bawahn	-5221
burkan	-5222
durkan	-5223
essaly	-5224
guhkan	-5225
harmon	-5226
hubung	-5227
kasasi	-5228
kirkan	-5229
kuhkan	-5230
lihkan	-5231
lisasi	-5232
molise	-5233
monako	-5234
monyet	-5235
pulasi	-5236
rehabi	-5237
return	-5238
ringan	-5239
saudar	-5240
slavik	-5241
storan	-5242
5-2016.	-5243
_2009,_	-5244
beverly	-5245
dahsyat	-5246
darurat	-5247
dekatan	-5248
dekatka	-5249
denberg	-5250
derajat	-5251
derland	-5252
diakses	-5253
dialami	-5254
diberla	-5255
diceder	-5256
diklaim	-5257
dikutip	-5258
dimilik	-5259
dinyana	-5260
dipasok	-5261
dipromo	-5262
diserah	-5263
dituduh	-5264
dominan	-5265
dominna	-5266
donesia	-5267
drastis	-5268
efektif	-5269
elliott	-5270
enovasi	-5271
ensinya	-5272
erjakan	-5273
etarium	-5274
fellini	-5275
francis	-5276
gembala	-5277
genetis	-5278
geologi	-5279
gillard	-5280
gkelkan	-5281
gondola	-5282
grafton	-5283
hadiran	-5284
halifax	-5285
hallstr	-5286
hampion	-5287
handler	-5288
hechler	-5289
herodia	-5290
hitchhi	-5291
honorar	-5292
hormati	-5293
indaian	-5294
indiana	-5295
insiden	-5296
ipulasi	-5297
irigasi	-5298
istanbu	-5299
):_	-5300
2;_	-5301
hei	-5302
erai	-5303
fior	-5304
heal	-5305
heli	-5306
nard	-5307
ogle	-5308
vard	-5309
zair	-5310
_10%_	-5311
_2001	-5312
board	-5313
bunga	-5314
cameo	-5315
cedon	-5316
celle	-5317
cerai	-5318
donor	-5319
finan	-5320
geshi	-5321
hebat	-5322
moham	-5323
penur	-5324
pithe	-5325
sejen	-5326
spany	-5327
▁pasa	-5328
▁tema	-5329
_2000-	-5330
_2001.	-5331
_2005_	-5332
fiorel	-5333
google	-5334
hammer	-5335
health	-5336
herine	-5337
invest	-5338
jandra	-5339
jazair	-5340
marina	-5341
pengam	-5342
penusu	-5343
spanyo	-5344
▁adnan	-5345
▁bunga	-5346
_1492;_	-5347
bernard	-5348
ditentu	-5349
geshire	-5350
harvard	-5351
istilah	-5352
jabatan	-5353
jaminan	-5354
jantung	-5355
jauhkan	-5356
jeffrey	-5357
johnson	-5358
juaraan	-5359
kampany	-5360
kandung	-5361
kasikan	-5362
kebakar	-5363
keempat	-5364
kelapar	-5365
kelumpu	-5366
kepasti	-5367
kolonis	-5368
komunis	-5369
konfron	-5370
konsula	-5371
kporkan	-5372
kristin	-5373
kulanya	-5374
lakunya	-5375
lebriti	-5376
ledakan	-5377
leneuve	-5378
lengkan	-5379
llesand	-5380
lukisan	-5381
luwarsa	-5382
macedon	-5383
mahanak	-5384
mampuan	-5385
manisme	-5386
megaria	-5387
melamar	-5388
melanda	-5389
melania	-5390
melekat	-5391
melompa	-5392
melumpu	-5393
memasok	-5394
memerik	-5395
memikat	-5396
memuncu	-5397
memupuk	-5398
menceng	-5399
21_	-5400
joe	-5401
-8,_	-5402
221_	-5403
ctor	-5404
joan	-5405
murp	-5406
sona	-5407
sony	-5408
tsin	-5409
ylar	-5410
butor	-5411
disem	-5412
genet	-5413
jason	-5414
kabin	-5415
kasir	-5416
khiri	-5417
mpson	-5418
murph	-5419
nasib	-5420
robin	-5421
rumor	-5422
sirku	-5423
sonan	-5424
sonne	-5425
taiga	-5426
tunas	-5427
ylark	-5428
▁sisa	-5429
_2011_	-5430
angkuh	-5431
ctoria	-5432
dilema	-5433
dinasi	-5434
eksist	-5435
entsin	-5436
mengik	-5437
murphy	-5438
nkieli	-5439
pesona	-5440
sephar	-5441
summit	-5442
▁layar	-5443
_2014,_	-5444
berdiam	-5445
bransfi	-5446
ctorias	-5447
diambil	-5448
dimasuk	-5449
diterap	-5450
harinya	-5451
kabinet	-5452
memecah	-5453
menceri	-5454
menebus	-5455
menekan	-5456
menemba	-5457
menempe	-5458
menerap	-5459
menggem	-5460
mengham	-5461
menghem	-5462
mengisi	-5463
menjaja	-5464
menjual	-5465
mentran	-5466
menyeru	-5467
menyisi	-5468
merdeka	-5469
mesinan	-5470
meyakin	-5471
mohamme	-5472
monarki	-5473
monegas	-5474
mopylae	-5475
moscone	-5476
motocro	-5477
muppets	-5478
namanya	-5479
nanking	-5480
nasihat	-5481
negaran	-5482
nostrum	-5483
oksigen	-5484
optimis	-5485
otongan	-5486
packham	-5487
pahatan	-5488
pelajar	-5489
pelayan	-5490
pelopon	-5491
pelopor	-5492
peluncu	-5493
pembeli	-5494
pemecah	-5495
pencari	-5496
pendeta	-5497
penerus	-5498
pengumu	-5499
app	-5500
akui	-5501
aver	-5502
eles	-5503
este	-5504
gdis	-5505
over	-5506
pora	-5507
ratt	-5508
▁ped	-5509
apple	-5510
avery	-5511
carlo	-5512
disor	-5513
iagam	-5514
ketun	-5515
mchat	-5516
ories	-5517
reach	-5518
repor	-5519
resep	-5520
river	-5521
sikap	-5522
sunga	-5523
tuntu	-5524
_1832_	-5525
carnya	-5526
carter	-5527
denver	-5528
dimili	-5529
dispat	-5530
ekspek	-5531
gratis	-5532
kapten	-5533
kental	-5534
kesepi	-5535
meluas	-5536
mencar	-5537
mendis	-5538
milice	-5539
milisi	-5540
pertam	-5541
prayer	-5542
tokkan	-5543
tories	-5544
tunggu	-5545
▁pedro	-5546
angeles	-5547
aragdis	-5548
barratt	-5549
diaktif	-5550
disorot	-5551
gaudens	-5552
inisasi	-5553
kamchat	-5554
ketundu	-5555
melacak	-5556
penutur	-5557
perdama	-5558
perseku	-5559
persimp	-5560
perteng	-5561
peserta	-5562
pezinah	-5563
pitheko	-5564
playboy	-5565
politis	-5566
portasi	-5567
prabowo	-5568
prajuri	-5569
praktis	-5570
premier	-5571
promosi	-5572
protein	-5573
ramalan	-5574
rambler	-5575
ratusan	-5576
records	-5577
respons	-5578
rincian	-5579
rosesan	-5580
ruperts	-5581
sabella	-5582
saingan	-5583
salahan	-5584
salerno	-5585
sasaran	-5586
scritti	-5587
sejenis	-5588
selanju	-5589
seluler	-5590
semesta	-5591
senjata	-5592
sensasi	-5593
setitik	-5594
seychel	-5595
shackle	-5596
shausen	-5597
siliasi	-5598
singkan	-5599
35_	-5600
_5_	-5601
dee	-5602
kni	-5603
kos	-5604
nih	-5605
pig	-5606
sor	-5607
▁te	-5608
,_-_	-5609
_25_	-5610
debi	-5611
dito	-5612
enni	-5613
gapi	-5614
lack	-5615
levi	-5616
nila	-5617
nisi	-5618
pila	-5619
wira	-5620
year	-5621
▁bia	-5622
▁jam	-5623
debit	-5624
diale	-5625
diisa	-5626
ennio	-5627
grada	-5628
horte	-5629
istik	-5630
kanar	-5631
kitab	-5632
llack	-5633
maham	-5634
maine	-5635
perde	-5636
pergi	-5637
piggy	-5638
relak	-5639
tegra	-5640
topik	-5641
yemen	-5642
▁jadi	-5643
_1886_	-5644
_1988_	-5645
_2015_	-5646
dahkan	-5647
dialek	-5648
diisap	-5649
divisi	-5650
duanya	-5651
eksten	-5652
interi	-5653
jernih	-5654
kosong	-5655
lerang	-5656
levitt	-5657
menger	-5658
piknik	-5659
ratkan	-5660
rmaine	-5661
sensor	-5662
serbia	-5663
single	-5664
▁grada	-5665
_1.335_	-5666
alkitab	-5667
cananya	-5668
ditolak	-5669
georges	-5670
hortefe	-5671
lamanya	-5672
mengeru	-5673
nicolas	-5674
perwira	-5675
pilatus	-5676
pollack	-5677
sirkuit	-5678
sistant	-5679
skylark	-5680
solheim	-5681
sternli	-5682
stoller	-5683
suasana	-5684
subsidi	-5685
tadinya	-5686
taranya	-5687
tawaran	-5688
tegrasi	-5689
teknisi	-5690
telekom	-5691
tematis	-5692
temberg	-5693
teologi	-5694
terdamp	-5695
terpana	-5696
terpuas	-5697
tersiar	-5698
thought	-5699
▁r	-5700
_8.	-5701
cou	-5702
hia	-5703
jua	-5704
juk	-5705
ola	-5706
pbb	-5707
pia	-5708
aust	-5709
bert	-5710
dean	-5711
egan	-5712
erat	-5713
guam	-5714
knew	-5715
kutu	-5716
lyve	-5717
mega	-5718
meja	-5719
meru	-5720
piaf	-5721
suci	-5722
▁pem	-5723
▁rhs	-5724
baian	-5725
balan	-5726
breas	-5727
konse	-5728
kutub	-5729
lanja	-5730
lyvet	-5731
psiko	-5732
style	-5733
tulan	-5734
_1882.	-5735
adatan	-5736
austro	-5737
contoh	-5738
couran	-5739
dibang	-5740
ertiak	-5741
hiasan	-5742
jualan	-5743
lankan	-5744
merugi	-5745
mister	-5746
olakan	-5747
rentan	-5748
▁hewan	-5749
akutkan	-5750
belanja	-5751
beralih	-5752
betulan	-5753
courant	-5754
dibujuk	-5755
dikomen	-5756
herbert	-5757
lembaga	-5758
masanya	-5759
mengada	-5760
thrones	-5761
tingham	-5762
tkannya	-5763
transit	-5764
tulisti	-5765
tumbang	-5766
tunggal	-5767
typeset	-5768
underse	-5769
uratnya	-5770
valuasi	-5771
versial	-5772
wheeler	-5773
wikutub	-5774
winston	-5775
youtube	-5776
yucatán	-5777
záhorie	-5778
▁adidas	-5779
▁afrika	-5780
▁aldrin	-5781
▁bahasa	-5782
▁bisnis	-5783
▁cabang	-5784
▁cotton	-5785
▁daerah	-5786
▁dinasi	-5787
▁dirama	-5788
▁dokter	-5789
▁federi	-5790
▁golden	-5791
▁jumlah	-5792
▁kadang	-5793
▁kontak	-5794
▁krisis	-5795
▁kursus	-5796
▁lamarr	-5797
▁loving	-5798
▁mengan	-5799
16_	-5800
boh	-5801
hul	-5802
ono	-5803
pic	-5804
plu	-5805
sut	-5806
wen	-5807
_184	-5808
chez	-5809
dili	-5810
feed	-5811
kiki	-5812
klik	-5813
nand	-5814
raba	-5815
rabu	-5816
sude	-5817
suki	-5818
suri	-5819
wini	-5820
yasu	-5821
cerah	-5822
curio	-5823
dijad	-5824
eyasu	-5825
liber	-5826
logam	-5827
ments	-5828
merit	-5829
parma	-5830
pengo	-5831
pictu	-5832
plato	-5833
pluvi	-5834
pokok	-5835
schul	-5836
senia	-5837
tante	-5838
tetan	-5839
_1842_	-5840
_1912_	-5841
batkan	-5842
berwen	-5843
chilia	-5844
eroboh	-5845
geraja	-5846
ieyasu	-5847
ikatif	-5848
iksaan	-5849
inilah	-5850
pemisa	-5851
philip	-5852
pluvio	-5853
sensus	-5854
terlan	-5855
tingen	-5856
tukang	-5857
_1933,_	-5858
ceroboh	-5859
darnand	-5860
diadili	-5861
dijadwa	-5862
granite	-5863
lempeng	-5864
liberti	-5865
monglia	-5866
picture	-5867
sisinya	-5868
sudeten	-5869
sánchez	-5870
terbagi	-5871
vatikan	-5872
wilayan	-5873
▁barrie	-5874
▁kebang	-5875
▁minyak	-5876
▁monson	-5877
▁norman	-5878
▁output	-5879
▁paling	-5880
▁pasang	-5881
▁pemuki	-5882
▁perban	-5883
▁philip	-5884
▁piagam	-5885
▁pisang	-5886
▁pondok	-5887
▁ponsel	-5888
▁reagan	-5889
▁reaksi	-5890
▁segera	-5891
▁selera	-5892
▁sensor	-5893
▁seolah	-5894
▁sinema	-5895
▁stalin	-5896
▁sungai	-5897
▁temuan	-5898
▁tetapi	-5899
50_	-5900
_30	-5901
bek	-5902
beu	-5903
chq	-5904
mea	-5905
mua	-5906
ner	-5907
rai	-5908
yal	-5909
yas	-5910
ywa	-5911
▁le	-5912
ahan	-5913
bili	-5914
cast	-5915
club	-5916
daun	-5917
gawa	-5918
gchq	-5919
pire	-5920
rian	-5921
siri	-5922
teli	-5923
urus	-5924
yway	-5925
bebek	-5926
beust	-5927
butan	-5928
densi	-5929
irena	-5930
isner	-5931
lasse	-5932
lubum	-5933
memin	-5934
monte	-5935
royal	-5936
sberg	-5937
sitif	-5938
tesla	-5939
tower	-5940
trude	-5941
_1600_	-5942
_2050_	-5943
_3000_	-5944
anyway	-5945
empire	-5946
glenda	-5947
identi	-5948
jataan	-5949
kebing	-5950
krimea	-5951
kugawa	-5952
lemari	-5953
markas	-5954
member	-5955
mobili	-5956
oblast	-5957
ranean	-5958
teliti	-5959
willis	-5960
▁isner	-5961
▁royal	-5962
▁sakro	-5963
▁semua	-5964
▁trude	-5965
▁waktu	-5966
15.000.	-5967
_1879,_	-5968
america	-5969
cabutan	-5970
casting	-5971
embatan	-5972
gantian	-5973
memburu	-5974
positif	-5975
punahan	-5976
savings	-5977
talking	-5978
▁kepara	-5979
▁proyek	-5980
▁tiberi	-5981
▁yunani	-5982
,_1977,_	-5983
-2014_—_	-5984
_(1994).	-5985
_10.000_	-5986
_35.000_	-5987
afsirkan	-5988
analisis	-5989
angguran	-5990
angkutan	-5991
anglican	-5992
antilles	-5993
approach	-5994
asosiasi	-5995
balannya	-5996
banyakan	-5997
barrosos	-5998
batasnya	-5999
gr	-6000
cun	-6001
eku	-6002
isu	-6003
mac	-6004
mid	-6005
uth	-6006
-3,_	-6007
cali	-6008
cari	-6009
deda	-6010
fari	-6011
good	-6012
gren	-6013
lele	-6014
midd	-6015
obat	-6016
pung	-6017
situ	-6018
umur	-6019
wari	-6020
wing	-6021
ying	-6022
_1%,_	-6023
carib	-6024
emuir	-6025
ganda	-6026
jinya	-6027
keaba	-6028
kurva	-6029
mekan	-6030
press	-6031
racun	-6032
rocco	-6033
sedur	-6034
south	-6035
tomac	-6036
▁satu	-6037
_1992.	-6038
aviasi	-6039
llying	-6040
middle	-6041
pemilu	-6042
persem	-6043
safari	-6044
setuju	-6045
seumur	-6046
tertua	-6047
tuhnya	-6048
califor	-6049
company	-6050
militan	-6051
monster	-6052
paganda	-6053
pedoman	-6054
pendara	-6055
perihal	-6056
potomac	-6057
situasi	-6058
vantage	-6059
warisan	-6060
▁ambruk	-6061
bayangan	-6062
belasung	-6063
belerang	-6064
benarkan	-6065
benturan	-6066
beranjak	-6067
berantai	-6068
berbukit	-6069
bercerai	-6070
bergeron	-6071
berinter	-6072
berperan	-6073
bersaing	-6074
bersikap	-6075
bertunas	-6076
biarawan	-6077
biografi	-6078
bolehkan	-6079
breaking	-6080
breasted	-6081
budayaan	-6082
bullying	-6083
buruknya	-6084
cadangan	-6085
californ	-6086
campbell	-6087
capannya	-6088
cassonne	-6089
cendekia	-6090
chairman	-6091
champion	-6092
consumer	-6093
cospedal	-6094
cualikan	-6095
dahuluan	-6096
daratkan	-6097
davidson	-6098
dedaunan	-6099
boi	-6100
ebu	-6101
fre	-6102
gup	-6103
pop	-6104
rup	-6105
scy	-6106
_70-	-6107
ario	-6108
cily	-6109
dead	-6110
duli	-6111
gain	-6112
gaun	-6113
grup	-6114
ilah	-6115
jara	-6116
july	-6117
ksis	-6118
mand	-6119
mery	-6120
onen	-6121
pebe	-6122
puer	-6123
snya	-6124
taat	-6125
utan	-6126
zexu	-6127
,_10_	-6128
_363.	-6129
adden	-6130
dalah	-6131
datar	-6132
erosi	-6133
freem	-6134
gania	-6135
gugup	-6136
holly	-6137
ilahi	-6138
koboi	-6139
lipop	-6140
mandl	-6141
molib	-6142
payol	-6143
scyth	-6144
simon	-6145
tahta	-6146
terba	-6147
terka	-6148
terse	-6149
troya	-6150
▁gaun	-6151
_1975.	-6152
aborig	-6153
benang	-6154
brooke	-6155
cecily	-6156
dietri	-6157
gomery	-6158
guhnya	-6159
lauren	-6160
newton	-6161
olivia	-6162
peduli	-6163
puerto	-6164
seksis	-6165
spayol	-6166
▁belum	-6167
▁simon	-6168
▁wajar	-6169
ebutkan	-6170
freeman	-6171
hollywo	-6172
journal	-6173
kenario	-6174
ksatria	-6175
laurent	-6176
lisensi	-6177
lolipop	-6178
onennya	-6179
oposisi	-6180
pengasu	-6181
pengemu	-6182
penjara	-6183
persnya	-6184
resepsi	-6185
scythia	-6186
ungutan	-6187
▁gomery	-6188
aborigin	-6189
diajukan	-6190
dibangga	-6191
dibentuk	-6192
didapati	-6193
didefini	-6194
diekseku	-6195
dietrich	-6196
dihadang	-6197
dihitung	-6198
diilhami	-6199
yg	-6200
_(“	-6201
iap	-6202
jet	-6203
ruh	-6204
_71_	-6205
aron	-6206
buen	-6207
chno	-6208
keda	-6209
kesi	-6210
ober	-6211
open	-6212
baden	-6213
beras	-6214
berba	-6215
buruh	-6216
edgar	-6217
lokan	-6218
pearl	-6219
purna	-6220
seper	-6221
tabel	-6222
tembo	-6223
wadah	-6224
walse	-6225
▁pola	-6226
_1415_	-6227
buenos	-6228
chnolo	-6229
cuaron	-6230
dbaden	-6231
diubah	-6232
iapkan	-6233
kombin	-6234
merset	-6235
sepert	-6236
tahkan	-6237
tembok	-6238
▁kesha	-6239
berikut	-6240
esktrem	-6241
garakan	-6242
kegeger	-6243
kesimpu	-6244
komunal	-6245
membasa	-6246
menikah	-6247
noyarsk	-6248
obermar	-6249
romanov	-6250
selokan	-6251
▁cuaron	-6252
berbasis	-6253
chnology	-6254
dijuluki	-6255
dikemuka	-6256
dikuasai	-6257
dilegali	-6258
dioksida	-6259
dipindah	-6260
direncan	-6261
disangka	-6262
diseleng	-6263
ditunjuk	-6264
divostok	-6265
diwakili	-6266
dominika	-6267
dwikutub	-6268
eibingen	-6269
ekspresi	-6270
embagaan	-6271
etnisnya	-6272
februari	-6273
firewall	-6274
gagement	-6275
galangan	-6276
geografi	-6277
geronimo	-6278
gilingan	-6279
goffredo	-6280
grafinya	-6281
habsburg	-6282
hadangan	-6283
halangan	-6284
harmonis	-6285
herodias	-6286
histeria	-6287
hitungan	-6288
hlawanan	-6289
hongaria	-6290
honorary	-6291
hortefeu	-6292
hospital	-6293
imigrasi	-6294
indahkan	-6295
indikasi	-6296
ingankan	-6297
inkumben	-6298
institut	-6299
db	-6300
▁e	-6301
avi	-6302
bud	-6303
dpa	-6304
gay	-6305
hud	-6306
kes	-6307
kli	-6308
log	-6309
mbo	-6310
pak	-6311
pdb	-6312
saq	-6313
._1_	-6314
adai	-6315
adan	-6316
arin	-6317
gate	-6318
haya	-6319
himp	-6320
kaca	-6321
kawa	-6322
leia	-6323
lisi	-6324
rard	-6325
sade	-6326
saqi	-6327
tuni	-6328
wald	-6329
▁esa	-6330
aviva	-6331
bedah	-6332
budha	-6333
colog	-6334
dasan	-6335
guide	-6336
ilkes	-6337
kesal	-6338
klien	-6339
lipat	-6340
lisih	-6341
maren	-6342
memer	-6343
pakta	-6344
quebe	-6345
rekor	-6346
saldo	-6347
saqib	-6348
simbo	-6349
tanan	-6350
tunip	-6351
▁esai	-6352
▁nama	-6353
buatan	-6354
dagang	-6355
hannya	-6356
himpun	-6357
hudson	-6358
motors	-6359
oswald	-6360
panans	-6361
peking	-6362
quebec	-6363
sampah	-6364
▁balai	-6365
▁perju	-6366
▁suatu	-6367
_1961,_	-6368
anginya	-6369
berawal	-6370
cologne	-6371
dilatih	-6372
garrard	-6373
kemarin	-6374
lovings	-6375
marengo	-6376
memadai	-6377
selisih	-6378
seragam	-6379
tatanan	-6380
terawal	-6381
▁memang	-6382
▁wilkes	-6383
energies	-6384
hayatnya	-6385
interior	-6386
interven	-6387
isabella	-6388
istanbul	-6389
janjikan	-6390
jembatan	-6391
jennings	-6392
karangan	-6393
karnaval	-6394
kedutaan	-6395
kepolisi	-6396
kerangka	-6397
kerdilan	-6398
kesepian	-6399
18	-6400
gm	-6401
pc	-6402
ast	-6403
hea	-6404
kak	-6405
low	-6406
spi	-6407
ute	-6408
wai	-6409
▁ak	-6410
_6%_	-6411
awai	-6412
bega	-6413
bera	-6414
bung	-6415
diba	-6416
head	-6417
kiri	-6418
kses	-6419
lyan	-6420
napc	-6421
nter	-6422
seth	-6423
sika	-6424
spie	-6425
susu	-6426
tegy	-6427
18),_	-6428
bilah	-6429
crist	-6430
dibap	-6431
haute	-6432
jekak	-6433
lezat	-6434
lunya	-6435
mbuan	-6436
pecat	-6437
siang	-6438
snapc	-6439
▁akta	-6440
▁ford	-6441
▁kese	-6442
_3300_	-6443
bungku	-6444
dirian	-6445
ekonom	-6446
huawai	-6447
lyanne	-6448
penyun	-6449
_1610,_	-6450
beramai	-6451
cumbuan	-6452
dipecat	-6453
iridium	-6454
kenseth	-6455
ketenar	-6456
korsika	-6457
memandu	-6458
peterna	-6459
salaman	-6460
sedalam	-6461
serinya	-6462
spiegel	-6463
taannya	-6464
begadang	-6465
chenbach	-6466
cristina	-6467
dibaptis	-6468
dikelola	-6469
dikitnya	-6470
keyboard	-6471
kilowatt	-6472
kisahnya	-6473
klasemen	-6474
kolektor	-6475
komandon	-6476
kompeten	-6477
konsonan	-6478
konstruk	-6479
kontamin	-6480
kontribu	-6481
korespon	-6482
korintus	-6483
kriminal	-6484
lainnyas	-6485
landasan	-6486
larisnya	-6487
lematkan	-6488
lementer	-6489
lompokan	-6490
lowongan	-6491
mahkamah	-6492
maksimal	-6493
maladewa	-6494
manisasi	-6495
marcelle	-6496
massebot	-6497
mblebums	-6498
mcgregor	-6499
?_	-6500
ao	-6501
cb	-6502
fb	-6503
pp	-6504
sh	-6505
bak	-6506
dfb	-6507
ecb	-6508
kuo	-6509
pap	-6510
ppt	-6511
rda	-6512
adik	-6513
aoun	-6514
cega	-6515
ekor	-6516
five	-6517
gema	-6518
maan	-6519
ogan	-6520
rday	-6521
berki	-6522
cahan	-6523
china	-6524
elain	-6525
husum	-6526
ilbab	-6527
jenis	-6528
juang	-6529
lampu	-6530
langa	-6531
outer	-6532
portu	-6533
samni	-6534
sissi	-6535
tarlo	-6536
tidur	-6537
urvei	-6538
_15,5_	-6539
_1900_	-6540
arogan	-6541
cadang	-6542
common	-6543
elaine	-6544
jilbab	-6545
marvel	-6546
mpingi	-6547
online	-6548
orinya	-6549
pulang	-6550
sissip	-6551
siunan	-6552
strang	-6553
ternak	-6554
tersen	-6555
▁masuk	-6556
▁warna	-6557
achaean	-6558
cegahan	-6559
commons	-6560
mohonan	-6561
pecahan	-6562
pejuang	-6563
ringkas	-6564
rujukan	-6565
samnium	-6566
badarpur	-6567
berbalik	-6568
berkibar	-6569
mcneilly	-6570
melarang	-6571
melayani	-6572
memantau	-6573
memasuki	-6574
membayar	-6575
membeban	-6576
membersi	-6577
memburuk	-6578
meminjam	-6579
memperju	-6580
memprodu	-6581
mempromo	-6582
menandin	-6583
menangis	-6584
menanguh	-6585
mencatat	-6586
mencetak	-6587
mencinta	-6588
mencoret	-6589
mendadak	-6590
mendemon	-6591
menembak	-6592
menembus	-6593
menetang	-6594
mengadap	-6595
menganut	-6596
mengasum	-6597
mengatus	-6598
mengenal	-6599
av	-6600
eb	-6601
jr	-6602
zy	-6603
fic	-6604
ier	-6605
tex	-6606
tre	-6607
wiz	-6608
',_'	-6609
akut	-6610
avro	-6611
enri	-6612
glin	-6613
hanz	-6614
iman	-6615
kamu	-6616
komu	-6617
kozy	-6618
kumu	-6619
laju	-6620
lock	-6621
onne	-6622
paya	-6623
rado	-6624
vole	-6625
flock	-6626
gerry	-6627
guier	-6628
hamil	-6629
induk	-6630
khanz	-6631
loren	-6632
lucas	-6633
mensi	-6634
nomor	-6635
piran	-6636
siade	-6637
teran	-6638
teror	-6639
terpa	-6640
texas	-6641
▁laut	-6642
_1960_	-6643
darius	-6644
floren	-6645
gender	-6646
glinda	-6647
hadiah	-6648
laksan	-6649
polusi	-6650
supaya	-6651
▁lenny	-6652
artefak	-6653
bentang	-6654
corrado	-6655
diakumu	-6656
dimensi	-6657
douglas	-6658
enrique	-6659
garonne	-6660
ketujuh	-6661
khanzir	-6662
komuter	-6663
pasific	-6664
posting	-6665
sarkozy	-6666
veteran	-6667
viguier	-6668
▁sumpah	-6669
butuhkan	-6670
dilaksan	-6671
florence	-6672
khawatir	-6673
lampiran	-6674
mengeruk	-6675
mengetuk	-6676
menggali	-6677
menghadi	-6678
mengklik	-6679
mengusir	-6680
menjajah	-6681
menjawab	-6682
menonjol	-6683
menyamai	-6684
menyanyi	-6685
menyebut	-6686
menyerap	-6687
menyerbu	-6688
menyulut	-6689
messenia	-6690
miliknya	-6691
minatnya	-6692
mohammed	-6693
montreal	-6694
mpingkan	-6695
nicholas	-6696
nonfiksi	-6697
northamp	-6698
obesitas	-6699
.“	-6700
dn	-6701
fá	-6702
ity	-6703
kru	-6704
lce	-6705
lun	-6706
▁at	-6707
_36_	-6708
baju	-6709
buah	-6710
cuti	-6711
dati	-6712
didn	-6713
earl	-6714
fáti	-6715
jins	-6716
kuli	-6717
lcea	-6718
oman	-6719
unta	-6720
berto	-6721
dalih	-6722
jujur	-6723
lunak	-6724
matra	-6725
murru	-6726
pembi	-6727
penop	-6728
sihir	-6729
amurru	-6730
bendah	-6731
bensin	-6732
cutive	-6733
fátima	-6734
gamson	-6735
jantan	-6736
keting	-6737
kuliah	-6738
laupun	-6739
matras	-6740
mendia	-6741
mologi	-6742
mounta	-6743
munity	-6744
serkat	-6745
solarl	-6746
tioman	-6747
tulcea	-6748
▁atmos	-6749
▁peper	-6750
_2002,_	-6751
bertopi	-6752
sheppar	-6753
tiganya	-6754
▁inilah	-6755
▁really	-6756
▁untung	-6757
didukung	-6758
domenico	-6759
ketingga	-6760
mendiami	-6761
mountain	-6762
okasikan	-6763
onalisme	-6764
ontokkan	-6765
operator	-6766
otoritas	-6767
pacarnya	-6768
pahlawan	-6769
papworth	-6770
pedagang	-6771
pelarian	-6772
pemangku	-6773
pembalap	-6774
pemegang	-6775
penanggu	-6776
pengania	-6777
pengepun	-6778
peniston	-6779
penyakit	-6780
penyebar	-6781
perlunya	-6782
persenta	-6783
pesannya	-6784
pluviose	-6785
politisi	-6786
poration	-6787
portugal	-6788
prapemba	-6789
prasasti	-6790
prediden	-6791
prihatin	-6792
proaktif	-6793
prosedur	-6794
puingnya	-6795
puluhnya	-6796
punggung	-6797
purnakan	-6798
pusatnya	-6799
kr	-6800
lt	-6801
▁d	-6802
arn	-6803
bir	-6804
edi	-6805
vri	-6806
-14_	-6807
_18_	-6808
alla	-6809
andu	-6810
ault	-6811
bisi	-6812
dihu	-6813
erne	-6814
fili	-6815
gumi	-6816
puku	-6817
roli	-6818
sepa	-6819
ssia	-6820
tete	-6821
that	-6822
arasi	-6823
barak	-6824
berte	-6825
calla	-6826
faksi	-6827
filip	-6828
gorye	-6829
kagum	-6830
kekun	-6831
kuali	-6832
numis	-6833
ouvri	-6834
pagar	-6835
pukul	-6836
sindi	-6837
yikan	-6838
zirah	-6839
_5000_	-6840
aktual	-6841
ambisi	-6842
beault	-6843
botani	-6844
editor	-6845
ernest	-6846
goryeo	-6847
ilegal	-6848
kagumi	-6849
narasi	-6850
ovanni	-6851
pompey	-6852
russia	-6853
sampel	-6854
thearn	-6855
ulasan	-6856
baginya	-6857
bersatu	-6858
dicetak	-6859
dihubun	-6860
faktual	-6861
numisma	-6862
patroli	-6863
pemandu	-6864
penyesa	-6865
prussia	-6866
sepadan	-6867
silikan	-6868
taminan	-6869
terekam	-6870
tetesan	-6871
_(1992)_	-6872
filipina	-6873
giovanni	-6874
ilbeault	-6875
rasional	-6876
rehabili	-6877
rentetan	-6878
resistan	-6879
resminya	-6880
resolusi	-6881
restoran	-6882
retorika	-6883
retrospe	-6884
robinson	-6885
rofonnya	-6886
rutinnya	-6887
sarankan	-6888
schulman	-6889
scotland	-6890
scotsman	-6891
seberapa	-6892
secretar	-6893
sengketa	-6894
sensitif	-6895
sentuhan	-6896
setujuan	-6897
shanghai	-6898
shenzhen	-6899
bj	-6900
km	-6901
mr	-6902
bau	-6903
doa	-6904
dol	-6905
eje	-6906
iag	-6907
mla	-6908
zer	-6909
ejek	-6910
gart	-6911
kere	-6912
mkan	-6913
pito	-6914
seja	-6915
seme	-6916
sson	-6917
tsch	-6918
gezer	-6919
kebun	-6920
mahir	-6921
maior	-6922
manan	-6923
peren	-6924
pitol	-6925
rasis	-6926
selam	-6927
xisme	-6928
yaran	-6929
berdoa	-6930
bogart	-6931
dibagi	-6932
dolmen	-6933
dugaan	-6934
kerbau	-6935
kitnya	-6936
morgan	-6937
semest	-6938
tumkan	-6939
▁menga	-6940
capitol	-6941
dibahas	-6942
fuentes	-6943
hadapan	-6944
kenakan	-6945
maiorum	-6946
sejajar	-6947
tschmer	-6948
▁survei	-6949
dispatch	-6950
konselor	-6951
lamatkan	-6952
marxisme	-6953
rindukan	-6954
sebagain	-6955
sheppard	-6956
simbolik	-6957
sindiran	-6958
sinoptik	-6959
sissippi	-6960
skenario	-6961
snapchat	-6962
spesimen	-6963
springer	-6964
stansial	-6965
stranger	-6966
strategy	-6967
subduksi	-6968
subianto	-6969
suntikan	-6970
tabungan	-6971
tahannya	-6972
talmadge	-6973
tampilan	-6974
tanzania	-6975
teknonik	-6976
telegraf	-6977
teorinya	-6978
teoritik	-6979
terbitan	-6980
terdalam	-6981
terdepan	-6982
terjawab	-6983
terkenal	-6984
terlepas	-6985
terpaksa	-6986
terpapar	-6987
tersebar	-6988
tersirat	-6989
tertarik	-6990
tetangga	-6991
thessaly	-6992
thompson	-6993
timologi	-6994
tinggian	-6995
tokugawa	-6996
totalnya	-6997
ttingham	-6998
tumpukan	-6999
ze	-7000
_2_	-7001
adu	-7002
aya	-7003
byz	-7004
gif	-7005
hio	-7006
iso	-7007
▁hi	-7008
_15_	-7009
andi	-7010
ayam	-7011
bala	-7012
eksi	-7013
jada	-7014
kair	-7015
like	-7016
ohio	-7017
pala	-7018
palu	-7019
rani	-7020
taun	-7021
urat	-7022
vari	-7023
zeit	-7024
▁him	-7025
askan	-7026
balok	-7027
diben	-7028
hanos	-7029
imasi	-7030
meyer	-7031
petra	-7032
price	-7033
sance	-7034
tapie	-7035
▁pria	-7036
_1994_	-7037
albany	-7038
errani	-7039
jadaan	-7040
ongmin	-7041
sambil	-7042
teriso	-7043
thanos	-7044
verbal	-7045
volkan	-7046
▁himne	-7047
▁malam	-7048
▁masih	-7049
berdamp	-7050
bervari	-7051
byzanti	-7052
gongmin	-7053
hepburn	-7054
issance	-7055
kairsar	-7056
kemudia	-7057
kerjaan	-7058
koneksi	-7059
kotanya	-7060
liberal	-7061
mencuri	-7062
sabrina	-7063
sandera	-7064
tersing	-7065
▁amazon	-7066
▁kajian	-7067
▁kepala	-7068
angkapan	-7069
bujangan	-7070
dibenten	-7071
ekuinoks	-7072
fiorello	-7073
jatuhnya	-7074
petrassi	-7075
takannya	-7076
tuntutan	-7077
tvieille	-7078
uaxactun	-7079
undersea	-7080
upayanya	-7081
utamanya	-7082
utaranya	-7083
visioner	-7084
vulkanik	-7085
wajahnya	-7086
walaupun	-7087
williams	-7088
yudaisme	-7089
£19.999_	-7090
▁amnesty	-7091
▁anggota	-7092
▁artikel	-7093
▁benteng	-7094
▁berbeda	-7095
▁bergaam	-7096
▁bermain	-7097
▁corrado	-7098
▁distrik	-7099
_.	-7100
dy	-7101
.,_	-7102
ani	-7103
atm	-7104
fun	-7105
gta	-7106
inn	-7107
vla	-7108
amin	-7109
eing	-7110
jeni	-7111
juan	-7112
kelu	-7113
maka	-7114
mead	-7115
moga	-7116
plor	-7117
rudy	-7118
tish	-7119
usul	-7120
▁ale	-7121
_1,5_	-7122
ajang	-7123
atkin	-7124
funda	-7125
kapur	-7126
kobal	-7127
perce	-7128
reksi	-7129
somal	-7130
_1945.	-7131
berhak	-7132
berlin	-7133
boeing	-7134
disibo	-7135
ekplor	-7136
golong	-7137
harian	-7138
jenius	-7139
kasnya	-7140
kobalt	-7141
litiga	-7142
mbangi	-7143
menhir	-7144
mpinya	-7145
passer	-7146
semoga	-7147
serial	-7148
tenang	-7149
▁batas	-7150
birakan	-7151
british	-7152
direksi	-7153
katakan	-7154
keluhan	-7155
mengunt	-7156
mildred	-7157
passera	-7158
rudyard	-7159
samping	-7160
sasktel	-7161
tosomal	-7162
atkinson	-7163
litigasi	-7164
mimpinya	-7165
tambahan	-7166
warnanya	-7167
▁diterbi	-7168
▁elliott	-7169
▁gradasi	-7170
▁katakan	-7171
▁katanya	-7172
▁kemudia	-7173
▁ketidak	-7174
▁klausul	-7175
▁ksatria	-7176
▁langkah	-7177
▁laporan	-7178
▁liberal	-7179
▁manusia	-7180
▁melalui	-7181
▁menteri	-7182
▁minuman	-7183
▁mishima	-7184
▁nicolai	-7185
▁pasukan	-7186
▁pedoman	-7187
▁penyeli	-7188
▁periode	-7189
▁petugas	-7190
▁puluhan	-7191
▁rujukan	-7192
▁sakroko	-7193
▁sejarah	-7194
▁sekemba	-7195
▁semakin	-7196
▁serikat	-7197
▁spanyol	-7198
▁starlin	-7199
_29	-7200
beo	-7201
bob	-7202
cky	-7203
ers	-7204
gih	-7205
ira	-7206
mia	-7207
sae	-7208
ums	-7209
ansa	-7210
dada	-7211
didi	-7212
emer	-7213
gaja	-7214
goal	-7215
grad	-7216
kili	-7217
mate	-7218
nasa	-7219
nazi	-7220
roti	-7221
simp	-7222
terr	-7223
tsar	-7224
waan	-7225
▁the	-7226
alers	-7227
alice	-7228
basah	-7229
gigih	-7230
infra	-7231
keira	-7232
kitan	-7233
miami	-7234
seram	-7235
tucky	-7236
ussae	-7237
_2900_	-7238
bahaya	-7239
boemer	-7240
dorset	-7241
energy	-7242
forums	-7243
hariri	-7244
kebiru	-7245
menuru	-7246
menyum	-7247
nuansa	-7248
penutu	-7249
simple	-7250
terror	-7251
beograd	-7252
berlebi	-7253
dididik	-7254
kiliman	-7255
membang	-7256
nasabah	-7257
pelucca	-7258
penanda	-7259
schenck	-7260
sengaja	-7261
tahunan	-7262
william	-7263
▁perang	-7264
_1794),_	-7265
ariannya	-7266
berdamai	-7267
colorado	-7268
dimiliki	-7269
dipajang	-7270
heinrich	-7271
jejaknya	-7272
kebiruan	-7273
kentucky	-7274
labrocca	-7275
sebanyak	-7276
sepasang	-7277
smisikan	-7278
stealers	-7279
tidaklah	-7280
▁michael	-7281
▁stephen	-7282
▁susunan	-7283
▁tanggal	-7284
▁tekanan	-7285
▁telepon	-7286
▁tradisi	-7287
▁trudeau	-7288
▁voucher	-7289
▁wilayah	-7290
▁wintour	-7291
3-2014_—_	-7292
_(1918),_	-7293
_(1954),_	-7294
_--_2017_	-7295
_100.000_	-7296
_168.000_	-7297
_330.000_	-7298
_512-511_	-7299
gb	-7300
id	-7301
_12	-7302
dic	-7303
fal	-7304
mey	-7305
mgb	-7306
rel	-7307
res	-7308
sto	-7309
arut	-7310
dial	-7311
hier	-7312
mual	-7313
prin	-7314
ragu	-7315
tamu	-7316
vier	-7317
waji	-7318
_367_	-7319
aires	-7320
antil	-7321
borne	-7322
budak	-7323
comey	-7324
denda	-7325
detik	-7326
dikon	-7327
ditan	-7328
georg	-7329
larut	-7330
makan	-7331
oroti	-7332
peter	-7333
ragam	-7334
sesto	-7335
wajib	-7336
_1200_	-7337
aldrin	-7338
eotipe	-7339
fallon	-7340
father	-7341
gloria	-7342
infill	-7343
javier	-7344
kebaha	-7345
konten	-7346
parale	-7347
prince	-7348
seolah	-7349
things	-7350
zation	-7351
▁rusia	-7352
dijamin	-7353
ditanam	-7354
eurasia	-7355
hillary	-7356
ization	-7357
menguru	-7358
osborne	-7359
paralel	-7360
tataran	-7361
▁pompey	-7362
antillas	-7363
countess	-7364
hierarki	-7365
humanoid	-7366
pengikut	-7367
somerset	-7368
▁charles	-7369
_£10.000_	-7370
_£12.000_	-7371
_£15.001-	-7372
_£3.000-£	-7373
akibatnya	-7374
antaranya	-7375
antarmuka	-7376
apartemen	-7377
aransemen	-7378
assistant	-7379
astronomi	-7380
aturannya	-7381
autosomal	-7382
bantahkan	-7383
belajaran	-7384
bendahara	-7385
berbahaya	-7386
berdagang	-7387
berdampak	-7388
berhembus	-7389
berjangka	-7390
berkontra	-7391
berkumpul	-7392
berlumpur	-7393
berpegang	-7394
bersumber	-7395
bertenaga	-7396
bertumbuh	-7397
beruntung	-7398
berwenang	-7399
rs	-7400
akp	-7401
akt	-7402
_80_	-7403
andy	-7404
beno	-7405
biro	-7406
hans	-7407
hipo	-7408
kowi	-7409
otak	-7410
rspb	-7411
rugi	-7412
semi	-7413
stus	-7414
tena	-7415
bonus	-7416
diada	-7417
diman	-7418
dolar	-7419
eroso	-7420
geser	-7421
lanya	-7422
mandi	-7423
mania	-7424
medan	-7425
mpuni	-7426
namai	-7427
paire	-7428
pinta	-7429
robot	-7430
aktris	-7431
antena	-7432
arahan	-7433
baikku	-7434
dianut	-7435
france	-7436
hipote	-7437
jokowi	-7438
merdin	-7439
musisi	-7440
nestus	-7441
peraih	-7442
presen	-7443
sakhal	-7444
▁north	-7445
▁puing	-7446
25.000.	-7447
dinamai	-7448
ditempa	-7449
geseran	-7450
kreatif	-7451
pendiri	-7452
pintado	-7453
rumania	-7454
siberia	-7455
tendang	-7456
▁gereja	-7457
canadian	-7458
diadakan	-7459
erosotan	-7460
imajiner	-7461
sakhalin	-7462
teratoma	-7463
terlatih	-7464
▁episode	-7465
▁jaminan	-7466
biarawati	-7467
bicarakan	-7468
bilalihan	-7469
billboard	-7470
bonaparte	-7471
bosphorus	-7472
bransfiel	-7473
byzantium	-7474
canangkan	-7475
cantumkan	-7476
caracalla	-7477
ceritanya	-7478
cifuentes	-7479
community	-7480
datangnya	-7481
definitif	-7482
deklarasi	-7483
deklinasi	-7484
demografi	-7485
dianimasi	-7486
dibebastu	-7487
dibedakan	-7488
dicederai	-7489
dideteksi	-7490
dihalangi	-7491
dihormati	-7492
dihubungi	-7493
diizinkan	-7494
dikasikan	-7495
dikenakan	-7496
dikontrol	-7497
dingannya	-7498
dipercaya	-7499
fis	-7500
▁ny	-7501
baca	-7502
blok	-7503
casa	-7504
tipo	-7505
▁may	-7506
civil	-7507
illes	-7508
jimmy	-7509
kasar	-7510
kepan	-7511
lanan	-7512
liran	-7513
lulus	-7514
panen	-7515
panya	-7516
poole	-7517
radio	-7518
ranah	-7519
risme	-7520
sarah	-7521
selat	-7522
solar	-7523
timbu	-7524
versa	-7525
▁oleh	-7526
_1947.	-7527
brooks	-7528
canaan	-7529
kendur	-7530
kitkan	-7531
padang	-7532
potret	-7533
radium	-7534
salmon	-7535
tetang	-7536
timbul	-7537
▁biaya	-7538
▁hakim	-7539
bisinya	-7540
dulunya	-7541
fishing	-7542
giliran	-7543
gravity	-7544
kepanda	-7545
pembawa	-7546
rachida	-7547
rupanya	-7548
terbaru	-7549
turisme	-7550
ucapnya	-7551
_16.500_	-7552
akuarium	-7553
angannya	-7554
berjudul	-7555
jermanis	-7556
miniatur	-7557
molibden	-7558
reporter	-7559
saturday	-7560
tanyakan	-7561
ternyata	-7562
tientsin	-7563
▁baiknya	-7564
ambisinya	-7565
diperiksa	-7566
diposting	-7567
disetujui	-7568
ditempati	-7569
ditendang	-7570
ditrektur	-7571
diumumkan	-7572
diusulkan	-7573
ekplorasi	-7574
ekstensif	-7575
eksternal	-7576
emosional	-7577
energinya	-7578
episkopal	-7579
executive	-7580
finansial	-7581
flensburg	-7582
francisco	-7583
garisbawa	-7584
gembalaan	-7585
generator	-7586
gerrmaine	-7587
goyangkan	-7588
gravitasi	-7589
grenville	-7590
guangzhou	-7591
harapnnya	-7592
hollywood	-7593
hortefeux	-7594
hospitals	-7595
humanisme	-7596
identitas	-7597
indonesia	-7598
inslandia	-7599
dav	-7600
fum	-7601
jik	-7602
mik	-7603
nec	-7604
ott	-7605
tom	-7606
▁ve	-7607
anne	-7608
bong	-7609
enya	-7610
geal	-7611
hrey	-7612
isra	-7613
jemu	-7614
lobi	-7615
loop	-7616
luis	-7617
mare	-7618
miss	-7619
sane	-7620
topo	-7621
anshi	-7622
davis	-7623
diyak	-7624
eroga	-7625
fatal	-7626
figar	-7627
force	-7628
gunya	-7629
jijik	-7630
kerak	-7631
kesan	-7632
negan	-7633
perto	-7634
rekan	-7635
sandi	-7636
segel	-7637
telan	-7638
wajah	-7639
yasan	-7640
▁tiga	-7641
▁vega	-7642
apakan	-7643
berpri	-7644
figaro	-7645
israel	-7646
kanker	-7647
kenapa	-7648
kerber	-7649
meraba	-7650
mistis	-7651
mphrey	-7652
nectar	-7653
parfum	-7654
rosane	-7655
stiker	-7656
tulang	-7657
▁kartu	-7658
_2013,_	-7659
cualian	-7660
ditanya	-7661
gerakan	-7662
jauhnya	-7663
ksigeal	-7664
lagunya	-7665
meletus	-7666
mengaku	-7667
persegi	-7668
preroga	-7669
pribumi	-7670
silicon	-7671
terbang	-7672
yayasan	-7673
berturut	-7674
ditanyai	-7675
diyakini	-7676
gangguan	-7677
humphrey	-7678
kecebong	-7679
mengizin	-7680
modelnya	-7681
otttoman	-7682
paeonian	-7683
services	-7684
▁diikuti	-7685
churchill	-7686
integrasi	-7687
investors	-7688
istirahat	-7689
kajiannya	-7690
kamchatka	-7691
keabadian	-7692
keajaiban	-7693
kebakaran	-7694
kebebasan	-7695
kebencian	-7696
kebetulan	-7697
kebiasaan	-7698
kecepatan	-7699
lee	-7700
ods	-7701
tok	-7702
yum	-7703
_19_	-7704
itas	-7705
kuil	-7706
runo	-7707
seng	-7708
vada	-7709
▁uni	-7710
altar	-7711
benak	-7712
bruno	-7713
buena	-7714
dimun	-7715
elder	-7716
kilas	-7717
koran	-7718
linya	-7719
menun	-7720
saraf	-7721
seben	-7722
senin	-7723
woods	-7724
▁atau	-7725
▁lord	-7726
▁luar	-7727
bertar	-7728
brands	-7729
darusa	-7730
ikatan	-7731
kabisa	-7732
lebihi	-7733
mentok	-7734
nevada	-7735
pedang	-7736
pertar	-7737
ritual	-7738
segala	-7739
tingan	-7740
▁durán	-7741
_1839,_	-7742
_1856,_	-7743
_2006,_	-7744
dibedah	-7745
evening	-7746
kabisat	-7747
kecandu	-7748
lumayan	-7749
membing	-7750
pyrrhus	-7751
▁caplan	-7752
▁posisi	-7753
▁sumber	-7754
besarnya	-7755
dikenali	-7756
keselama	-7757
melebihi	-7758
membuang	-7759
menunduk	-7760
sebentar	-7761
sterling	-7762
winstone	-7763
▁masalah	-7764
aktivitas	-7765
bersamaan	-7766
bertarung	-7767
gandarusa	-7768
karbonasi	-7769
kecintaan	-7770
kedalaman	-7771
kegegeran	-7772
kegelapan	-7773
kehabisan	-7774
kehadiran	-7775
kejahatan	-7776
kekacauan	-7777
kekerasan	-7778
kekhawati	-7779
kelaparan	-7780
kelayakan	-7781
kelemahan	-7782
kemarahan	-7783
kepalanya	-7784
keponakan	-7785
kepulauan	-7786
kepunahan	-7787
kesalahan	-7788
kesalehan	-7789
ketenaran	-7790
ketiganya	-7791
kilometer	-7792
knightley	-7793
koloninya	-7794
kombinasi	-7795
komersial	-7796
komposisi	-7797
komunitas	-7798
konografi	-7799
rh	-7800
-3_	-7801
mov	-7802
_12_	-7803
basi	-7804
coup	-7805
indo	-7806
liga	-7807
marr	-7808
mero	-7809
moda	-7810
mode	-7811
pisi	-7812
plai	-7813
plas	-7814
rico	-7815
_200_	-7816
elang	-7817
franz	-7818
gagal	-7819
keste	-7820
kumov	-7821
larry	-7822
lidah	-7823
mundo	-7824
nesus	-7825
parah	-7826
salas	-7827
tapan	-7828
tesco	-7829
tipis	-7830
traum	-7831
ulang	-7832
▁foto	-7833
_2035.	-7834
bobrok	-7835
dijaga	-7836
jarkan	-7837
legiun	-7838
luarga	-7839
maroto	-7840
meroso	-7841
nascar	-7842
panama	-7843
plaice	-7844
pujian	-7845
serena	-7846
tikkan	-7847
▁cukup	-7848
▁dinya	-7849
berbagi	-7850
bernama	-7851
disampa	-7852
efeknya	-7853
kelanju	-7854
komersi	-7855
malleus	-7856
menerus	-7857
merosot	-7858
pejalan	-7859
plastik	-7860
▁martin	-7861
abakumov	-7862
berusaha	-7863
chandler	-7864
keemasan	-7865
kesteven	-7866
melapisi	-7867
menyamar	-7868
penemuan	-7869
penjahat	-7870
situsnya	-7871
etimologi	-7872
kejuaraan	-7873
ketetapan	-7874
konsulate	-7875
kontingen	-7876
kreditkan	-7877
kristiani	-7878
liberties	-7879
lillesand	-7880
lisensian	-7881
literatur	-7882
lumbungku	-7883
mahasiswa	-7884
maksudnya	-7885
manajemen	-7886
manuskrip	-7887
megabazuz	-7888
mekanisme	-7889
melanesia	-7890
melarikan	-7891
melompati	-7892
memajukan	-7893
memancing	-7894
membasahi	-7895
membiayai	-7896
mempesona	-7897
memprotes	-7898
memuaskan	-7899
bom	-7900
hek	-7901
jid	-7902
nol	-7903
_20_	-7904
_24_	-7905
_£2_	-7906
amar	-7907
arth	-7908
bola	-7909
draf	-7910
ewan	-7911
jaro	-7912
kori	-7913
love	-7914
rena	-7915
vege	-7916
▁air	-7917
▁jan	-7918
celia	-7919
ditak	-7920
earth	-7921
heran	-7922
jahat	-7923
janda	-7924
kohol	-7925
lelap	-7926
mahal	-7927
march	-7928
marta	-7929
nitra	-7930
orasi	-7931
unjuk	-7932
agensi	-7933
amarna	-7934
bremen	-7935
garden	-7936
harbor	-7937
hektar	-7938
kredit	-7939
masjid	-7940
mutasi	-7941
onggar	-7942
parker	-7943
pundak	-7944
semasa	-7945
sesama	-7946
taktik	-7947
tintin	-7948
zayion	-7949
▁janji	-7950
baiknya	-7951
bangkok	-7952
cecelia	-7953
dangkal	-7954
diatasi	-7955
dirusak	-7956
diteman	-7957
longgar	-7958
monoton	-7959
saatnya	-7960
sinilah	-7961
▁antara	-7962
▁donald	-7963
calabria	-7964
ditemani	-7965
intahkan	-7966
mendalam	-7967
millican	-7968
oriental	-7969
perannya	-7970
salzburg	-7971
saratoga	-7972
vegetasi	-7973
▁uangnya	-7974
_2020_--_	-7975
_600.000_	-7976
bertempat	-7977
hipotesis	-7978
kekesalan	-7979
kepastian	-7980
keretakan	-7981
lokasinya	-7982
memujinya	-7983
menangkap	-7984
menantang	-7985
mencintai	-7986
mendekati	-7987
mendengar	-7988
mendesain	-7989
mendingin	-7990
menempati	-7991
mengajari	-7992
mengakses	-7993
mengatasi	-7994
mengawini	-7995
menghasut	-7996
menghemat	-7997
menghukum	-7998
mengingat	-7999
_7_	-8000
bid	-8001
dih	-8002
_...	-8003
_27_	-8004
asam	-8005
diti	-8006
flap	-8007
gers	-8008
izin	-8009
mash	-8010
meso	-8011
noma	-8012
pall	-8013
priv	-8014
soal	-8015
walt	-8016
angel	-8017
award	-8018
cagar	-8019
conte	-8020
essen	-8021
garth	-8022
jalin	-8023
jumat	-8024
kairo	-8025
kenya	-8026
keram	-8027
mesin	-8028
milan	-8029
paket	-8030
palma	-8031
rokok	-8032
tonan	-8033
witch	-8034
_1987.	-8035
_2010_	-8036
distri	-8037
gaulle	-8038
hitnya	-8039
ikanya	-8040
memuji	-8041
palmer	-8042
privat	-8043
rasial	-8044
rogers	-8045
romawi	-8046
serupa	-8047
tamana	-8048
walter	-8049
▁artis	-8050
▁keter	-8051
▁papua	-8052
_1948,_	-8053
bandara	-8054
dipaksa	-8055
jalinan	-8056
lindsay	-8057
michael	-8058
sesudah	-8059
terbuat	-8060
▁pastor	-8061
▁schlei	-8062
▁undang	-8063
antologi	-8064
kenangan	-8065
kulannya	-8066
pengubah	-8067
perjalan	-8068
tayangan	-8069
tontonan	-8070
▁pertama	-8071
▁tentang	-8072
▁tergesa	-8073
berdurasi	-8074
ggelamkan	-8075
mengelola	-8076
menghadap	-8077
mengitari	-8078
mengurusi	-8079
menikmati	-8080
menjulang	-8081
menngurus	-8082
menyelami	-8083
menyimpan	-8084
menyoroti	-8085
menyurati	-8086
menyurvei	-8087
merasakan	-8088
merayakan	-8089
merdingen	-8090
merespons	-8091
merugikan	-8092
minoritas	-8093
mobilitas	-8094
motocross	-8095
muasalnya	-8096
nashville	-8097
negosiasi	-8098
pandangan	-8099
bá	-8100
jih	-8101
usg	-8102
atap	-8103
band	-8104
ktif	-8105
berna	-8106
bujih	-8107
gerea	-8108
hubei	-8109
hunan	-8110
ideal	-8111
karan	-8112
kongo	-8113
marah	-8114
payah	-8115
rumit	-8116
ujian	-8117
▁anda	-8118
_2019_	-8119
bijian	-8120
dibawa	-8121
edward	-8122
johnny	-8123
kalian	-8124
mangan	-8125
nuklir	-8126
pantat	-8127
peniru	-8128
sesung	-8129
▁dewan	-8130
_1.365_	-8131
_1072,_	-8132
_1990,_	-8133
bawahan	-8134
defisit	-8135
filmnya	-8136
jutanya	-8137
menyala	-8138
politti	-8139
presisi	-8140
samsung	-8141
bernapas	-8142
prajurit	-8143
▁kembali	-8144
berukuran	-8145
diperoleh	-8146
menyadari	-8147
panvalkar	-8148
pedalaman	-8149
pelatihan	-8150
pemadatan	-8151
pemahaman	-8152
pemakaman	-8153
pembiakan	-8154
pembicara	-8155
pemisahan	-8156
pemulihan	-8157
pencarian	-8158
penderita	-8159
pendukung	-8160
penegakan	-8161
penentuan	-8162
pengemudi	-8163
pengganti	-8164
penggerak	-8165
penghasil	-8166
pengusaha	-8167
penilaian	-8168
penjualan	-8169
penolakan	-8170
pensiunan	-8171
penulisan	-8172
penurunan	-8173
penusukan	-8174
penutupan	-8175
penyayang	-8176
perangnya	-8177
perawatan	-8178
percobaan	-8179
perhiasan	-8180
peristira	-8181
perkiraan	-8182
perluasan	-8183
persetuju	-8184
persewaan	-8185
persisnya	-8186
perumaham	-8187
perumahan	-8188
posisinya	-8189
presenter	-8190
produknya	-8191
prokonsul	-8192
protestan	-8193
psikologi	-8194
publikasi	-8195
rangkaian	-8196
rastislav	-8197
referensi	-8198
reklamasi	-8199
relaksasi	-8200
relatives	-8201
renewable	-8202
retribusi	-8203
rttemberg	-8204
sallyanne	-8205
sebelanga	-8206
secretary	-8207
sectorial	-8208
sekalipun	-8209
sekutunya	-8210
selebriti	-8211
sephardic	-8212
sesuaikan	-8213
silikanya	-8214
sinematik	-8215
smaragdis	-8216
spekulasi	-8217
statistik	-8218
sternlieb	-8219
strasikan	-8220
sukhothai	-8221
sungainya	-8222
tambahnya	-8223
tangannya	-8224
telanjang	-8225
teleponku	-8226
tempatnya	-8227
tengahnya	-8228
tenggelam	-8229
tennessee	-8230
terangkat	-8231
terbanyak	-8232
terdaftar	-8233
terdampar	-8234
terganggu	-8235
terhembus	-8236
terhubung	-8237
terlambat	-8238
terlantar	-8239
terpencar	-8240
tersentak	-8241
terungkap	-8242
terwakili	-8243
toleransi	-8244
torialnya	-8245
transaksi	-8246
tuhkannya	-8247
tulistiwa	-8248
tunjangan	-8249
ucapannya	-8250
ungkapkan	-8251
universal	-8252
victorias	-8253
yerusalem	-8254
yudhoyono	-8255
zodiaknya	-8256
▁aljazair	-8257
▁anggaran	-8258
▁asosiasi	-8259
▁atmosfer	-8260
▁baptisan	-8261
▁belerang	-8262
▁biasanya	-8263
▁biayanya	-8264
▁biografi	-8265
▁bouchard	-8266
▁catalano	-8267
▁daripada	-8268
▁dedikasi	-8269
▁dibentuk	-8270
▁dibiayai	-8271
▁didesain	-8272
▁direktur	-8273
▁federico	-8274
▁generasi	-8275
▁hubungan	-8276
▁iklimnya	-8277
▁kampanye	-8278
▁keduanya	-8279
▁keluarga	-8280
▁konsumen	-8281
▁lagipula	-8282
▁landmark	-8283
▁lehernya	-8284
▁letakkan	-8285
▁maksimal	-8286
▁memiliki	-8287
▁mobilnya	-8288
▁napoleon	-8289
▁panglima	-8290
▁pasangan	-8291
▁pemenang	-8292
▁penduduk	-8293
▁penemuan	-8294
▁presiden	-8295
▁produksi	-8296
▁produser	-8297
▁ramesses	-8298
▁sekarang	-8299
▁serangan	-8300
▁serpihan	-8301
▁suaranya	-8302
▁tentunya	-8303
▁terdapat	-8304
▁terkubur	-8305
▁tiberius	-8306
▁tiongkok	-8307
_(6.30-10_	-8308
anggotanya	-8309
arsitektur	-8310
associated	-8311
austerlitz	-8312
australian	-8313
basilicata	-8314
bellingham	-8315
beralkohol	-8316
berdiskusi	-8317
berkelakar	-8318
berkelanan	-8319
berlebihan	-8320
bermasalah	-8321
bermigrasi	-8322
bersamanya	-8323
bersaudara	-8324
berselisih	-8325
bertepatan	-8326
bervariasi	-8327
bransfield	-8328
california	-8329
controlled	-8330
convention	-8331
diaktifkan	-8332
dibawahnya	-8333
dibebaskan	-8334
dibentengi	-8335
dibubarkan	-8336
didasarkan	-8337
dieksekusi	-8338
dihabiskan	-8339
dihasilkan	-8340
dihentikan	-8341
dikunjungi	-8342
dilahirkan	-8343
dilepaskan	-8344
dilindungi	-8345
dimasukkan	-8346
dinosaurus	-8347
dipelajari	-8348
diperintah	-8349
dipikirkan	-8350
dipisahkan	-8351
diproduksi	-8352
direnovasi	-8353
dirindukan	-8354
disarankan	-8355
disebutkan	-8356
diselidiki	-8357
diserahkan	-8358
disertakan	-8359
disiratkan	-8360
ditekankan	-8361
ditentukan	-8362
diteorikan	-8363
diterapkan	-8364
ekspektasi	-8365
engagement	-8366
exxonmobil	-8367
finalisasi	-8368
fransiskus	-8369
georgetown	-8370
gilirannya	-8371
guilbeault	-8372
helikopter	-8373
hitchhiker	-8374
humblebums	-8375
ibukotanya	-8376
ikonografi	-8377
individual	-8378
kebangsaan	-8379
kebanyakan	-8380
keberadaan	-8381
keberangka	-8382
kebudayaan	-8383
kecantikan	-8384
kecelakaan	-8385
kecerdasan	-8386
kedokteran	-8387
kehormatan	-8388
kekeringan	-8389
kekuningan	-8390
kelanjutan	-8391
kelumpuhan	-8392
kepandaian	-8393
kepolisian	-8394
kesimpulan	-8395
ketegangan	-8396
ketidaknya	-8397
ketundukan	-8398
kirriemuir	-8399
kolonisasi	-8400
komandonya	-8401
komunikasi	-8402
konferensi	-8403
konseptual	-8404
konsultasi	-8405
kontaminan	-8406
lingkungan	-8407
lingkupnya	-8408
lubumbashi	-8409
mahanakhon	-8410
mediterani	-8411
melarutkan	-8412
meledakkan	-8413
melejitkan	-8414
meletakkan	-8415
meloloskan	-8416
memastikan	-8417
memberinya	-8418
memilihnya	-8419
memisahkan	-8420
mempekerja	-8421
memperkuat	-8422
memperluas	-8423
memperoleh	-8424
mempertemu	-8425
memudahkan	-8426
memulihkan	-8427
menakutkan	-8428
menamainya	-8429
menandakan	-8430
menandingi	-8431
menanggapi	-8432
mencarinya	-8433
mencirikan	-8434
mendekatka	-8435
mendeteksi	-8436
mendokumen	-8437
menekankan	-8438
menelusuri	-8439
menempelak	-8440
menengadah	-8441
menentukan	-8442
mengadopsi	-8443
mengadopso	-8444
mengajukan	-8445
mengambang	-8446
mengampuni	-8447
mengangkut	-8448
mengenakan	-8449
menggambar	-8450
menggeliat	-8451
menggolong	-8452
mengguling	-8453
menghambat	-8454
menghimpun	-8455
mengkritik	-8456
menguatnya	-8457
menjadikan	-8458
menjauhkan	-8459
menugaskan	-8460
menurutnya	-8461
menyajikan	-8462
menyamping	-8463
menyerakan	-8464
menyerukan	-8465
menyiapkan	-8466
merebutnya	-8467
merenovasi	-8468
meresahkan	-8469
merindukan	-8470
meteoritik	-8471
meyakinkan	-8472
misterinya	-8473
molibdenum	-8474
monarkinya	-8475
monegasque	-8476
multietnis	-8477
nottingham	-8478
numismatik	-8479
operasikan	-8480
pakaiannya	-8481
panjangnya	-8482
pelarangan	-8483
peluncuran	-8484
pembatasan	-8485
pembebasan	-8486
pembenaran	-8487
pementasan	-8488
pementukan	-8489
pemindaian	-8490
pemotongan	-8491
pemrosesan	-8492
pemungutan	-8493
penampilan	-8494
pencabutan	-8495
pencalonan	-8496
pencegahan	-8497
pencerahan	-8498
pendaratan	-8499
pendekatan	-8500
pengabaian	-8501
pengajaran	-8502
pengakuran	-8503
pengasuhan	-8504
pengejaran	-8505
pengertiak	-8506
pengobatan	-8507
pengumuman	-8508
penyebaran	-8509
penyediaan	-8510
penyerahan	-8511
penyesalan	-8512
penyiksaan	-8513
percetakan	-8514
perdamaian	-8515
perdebatan	-8516
pergerakan	-8517
pergeseran	-8518
permesinan	-8519
permohonan	-8520
pernikatan	-8521
perpecahan	-8522
persaingan	-8523
persentase	-8524
pertamanya	-8525
peternakan	-8526
pettersson	-8527
politiknya	-8528
prerogatif	-8529
pribadinya	-8530
propaganda	-8531
protection	-8532
rekamannya	-8533
rencananya	-8534
resistance	-8535
romanisasi	-8536
saingannya	-8537
salinisasi	-8538
saudarinya	-8539
sedikitnya	-8540
sehubungan	-8541
sekelompok	-8542
sekretaris	-8543
semestinya	-8544
sepertinya	-8545
seychelles	-8546
shackleton	-8547
stereotipe	-8548
storyboard	-8549
strathearn	-8550
sunderland	-8551
tahunannya	-8552
tampiannya	-8553
tanamannya	-8554
tasikannya	-8555
technology	-8556
tegrasikan	-8557
terbaiknya	-8558
terbentang	-8559
terisolasi	-8560
terkaitnya	-8561
terpenting	-8562
terpuaskan	-8563
tersingkap	-8564
tinggalnya	-8565
versailles	-8566
villeneuve	-8567
wilayahnya	-8568
zuckerberg	-8569
▁alasannya	-8570
▁alejandra	-8571
▁ambruknya	-8572
▁australia	-8573
▁berbicara	-8574
▁blindleia	-8575
▁catherine	-8576
▁christian	-8577
▁contohnya	-8578
▁didirikan	-8579
▁ekspedisi	-8580
▁hitchcock	-8581
▁investasi	-8582
▁kebiasaan	-8583
▁kecapakan	-8584
▁keparahan	-8585
▁kepenting	-8586
▁kepulauan	-8587
▁mahasiswa	-8588
▁mayoritas	-8589
▁mengingat	-8590
▁microsoft	-8591
▁pemanasan	-8592
▁pemberian	-8593
▁pemilihan	-8594
▁pemukiman	-8595
▁pendirian	-8596
▁pengharga	-8597
▁peristiwa	-8598
▁perkiraan	-8599
▁pertemuan	-8600
▁perubahan	-8601
▁polisinya	-8602
▁sejarawan	-8603
▁selebriti	-8604
▁untungnya	-8605
▁valentino	-8606
_2015-2016.	-8607
addenbrooke	-8608
balatentara	-8609
belakangnya	-8610
berakhirnya	-8611
berhubungan	-8612
berkompromi	-8613
berprestasi	-8614
bersemangat	-8615
bertabrakan	-8616
carcassonne	-8617
cendekiaran	-8618
chamberlain	-8619
ciscaucasus	-8620
corporation	-8621
diakumulasi	-8622
dibanggakan	-8623
dibangunnya	-8624
dicanangkan	-8625
dicaploknya	-8626
didinginkan	-8627
digambarkan	-8628
dijadwalkan	-8629
dikemukakan	-8630
dikomentari	-8631
dikumpulkan	-8632
diluncurkan	-8633
dimenangkan	-8634
dimilikinya	-8635
dimundurkan	-8636
dinyanyikan	-8637
dipengaruhi	-8638
dipindahkan	-8639
disampaikan	-8640
distributor	-8641
ditaklukkan	-8642
ditimbulkan	-8643
dukungannya	-8644
ekspresikan	-8645
environment	-8646
fontvieille	-8647
fundamental	-8648
garisbawahi	-8649
gelandangan	-8650
hammersmith	-8651
historisnya	-8652
investments	-8653
jaringannya	-8654
kacamatanya	-8655
kampanyenya	-8656
kebahagiaan	-8657
kebingungan	-8658
kedaluwarsa	-8659
kelembagaan	-8660
keluarganya	-8661
kemajuannya	-8662
kemenangkan	-8663
kemerosotan	-8664
kesamaannya	-8665
keselamatan	-8666
keteraturan	-8667
ketigabelas	-8668
ketinggalan	-8669
kilimanjaro	-8670
komentarnya	-8671
komersilkan	-8672
komponennya	-8673
komunikatif	-8674
konfrontasi	-8675
konsekuensi	-8676
kontaminasi	-8677
kontributor	-8678
krasnoyarsk	-8679
kualifikasi	-8680
kutikulanya	-8681
langsungnya	-8682
melakporkan	-8683
melambatkan	-8684
melanjutkan	-8685
melarangnya	-8686
melumpuhkan	-8687
meluncurkan	-8688
membebankan	-8689
membelakang	-8690
membenarkan	-8691
memilikinya	-8692
memindahkan	-8693
memperbaiki	-8694
mempercayai	-8695
memunculkan	-8696
menafsirkan	-8697
menanguhkan	-8698
menarasikan	-8699
mencabutnya	-8700
mendampingi	-8701
mendaratkan	-8702
menengahnya	-8703
menerimanya	-8704
mengaburkan	-8705
mengajarkan	-8706
mengedukasi	-8707
mengerjakan	-8708
mengesalkan	-8709
menghalangi	-8710
mengimbangi	-8711
mengirimkan	-8712
mengisahkan	-8713
mengubahnya	-8714
mengucapkan	-8715
mengukuhkan	-8716
menjanjikan	-8717
menjawabnya	-8718
menonjolkan	-8719
menundukkan	-8720
menyebarkan	-8721
menyeberang	-8722
menyesakkan	-8723
menyisihkan	-8724
mereformasi	-8725
meringankan	-8726
merontokkan	-8727
mesoamerika	-8728
mikrofonnya	-8729
mississippi	-8730
northampton	-8731
paramiliter	-8732
parlementer	-8733
partisipasi	-8734
pelariannya	-8735
pelisensian	-8736
pemeriksaan	-8737
pendahuluan	-8738
pengepungan	-8739
penghasilan	-8740
penghiburan	-8741
pengikutnya	-8742
penopangnya	-8743
penyeimbang	-8744
penyerangan	-8745
penyesuaian	-8746
perencanaan	-8747
peribadatan	-8748
perilakunya	-8749
persekutuan	-8750
persembahan	-8751
pertarungan	-8752
planetarium	-8753
plantagenet	-8754
populasinya	-8755
reichenbach	-8756
renaissance	-8757
resepsionis	-8758
retorikanya	-8759
rupertsberg	-8760
sekaranglah	-8761
selanjutnya	-8762
substansial	-8763
terhentikan	-8764
terkalahkan	-8765
terlarisnya	-8766
terlindungi	-8767
terpecahnya	-8768
tetangganya	-8769
thermopylae	-8770
tindakannya	-8771
universiade	-8772
universitas	-8773
vladivostok	-8774
volkanologi	-8775
vulkanologi	-8776
▁arsitektur	-8777
▁departemen	-8778
▁dinyatakan	-8779
▁diramalkan	-8780
▁imbalannya	-8781
▁intervensi	-8782
▁kadangkala	-8783
▁katakanlah	-8784
▁kedokteran	-8785
▁kehancuran	-8786
▁kemenangan	-8787
▁kemunduran	-8788
▁kesuksesan	-8789
▁ketinggian	-8790
▁keunggulan	-8791
▁kontaminan	-8792
▁memutuskan	-8793
▁mengakhiri	-8794
▁mengandung	-8795
▁panduannya	-8796
▁pendapatan	-8797
▁pendidikan	-8798
▁penjelasan	-8799
▁penyelidik	-8800
▁peperangan	-8801
▁perhentian	-8802
▁republican	-8803
▁sebelumnya	-8804
▁sedikitnya	-8805
▁sehubungan	-8806
belasungkawa	-8807
berdampingan	-8808
berinteraksi	-8809
berkarbonasi	-8810
berkompetisi	-8811
berkontraksi	-8812
berprioritas	-8813
bertentangan	-8814
castelfranco	-8815
dialokasikan	-8816
diantisipasi	-8817
diberlakukan	-8818
dikonstruksi	-8819
dilaksanakan	-8820
dilegalisasi	-8821
dimanfaatkan	-8822
diperebutkan	-8823
diperlakukan	-8824
dipromosikan	-8825
direncanakan	-8826
diterbangkan	-8827
diwawancarai	-8828
eksistensial	-8829
federalisasi	-8830
hillsborough	-8831
identifikasi	-8832
kandungannya	-8833
kapitalisasi	-8834
kecanduannya	-8835
kehidupannya	-8836
kekhawatiran	-8837
kelihatannya	-8838
kemegahannya	-8839
kepahlawanan	-8840
kepompongnya	-8841
keponakannya	-8842
kepresidenan	-8843
keputusannya	-8844
kesehatannya	-8845
ketenarannya	-8846
khatulistiwa	-8847
kristiansand	-8848
legislasinya	-8849
manajemennya	-8850
manuskripnya	-8851
melakukannya	-8852
memanfaatkan	-8853
memanipulasi	-8854
membayangkan	-8855
membersihkan	-8856
membicarakan	-8857
memeriksanya	-8858
memproduseri	-8859
menanganinya	-8860
menangguhkan	-8861
mencantumkan	-8862
mencengkeram	-8863
menceritakan	-8864
mencintainya	-8865
mendinginkan	-8866
mendukungnya	-8867
mengadaptasi	-8868
menganalisis	-8869
mengasingkan	-8870
mengevaluasi	-8871
menghadirkan	-8872
mengiklankan	-8873
meningkatkan	-8874
meningkatnya	-8875
menjentikkan	-8876
nasionalisme	-8877
negaranegara	-8878
obermarsberg	-8879
organization	-8880
pekerjaannya	-8881
peloponnesus	-8882
pembelajaran	-8883
pemecatannya	-8884
pemukulannya	-8885
penangguhkan	-8886
pengangguran	-8887
pengangkutan	-8888
penganiayaan	-8889
pengecualian	-8890
penggilingan	-8891
penghormatan	-8892
pengkerdilan	-8893
pengungkapan	-8894
penyuntingan	-8895
permainannya	-8896
persenjataan	-8897
persiapannya	-8898
persimpangan	-8899
pertambangan	-8900
pertengkaran	-8901
pertentangan	-8902
pertimbangan	-8903
pithekoussae	-8904
rehabilitasi	-8905
rekonsiliasi	-8906
rekonstruksi	-8907
retrospektif	-8908
revolusioner	-8909
sesungguhnya	-8910
terbantahkan	-8911
terbayangkan	-8912
topografinya	-8913
transportasi	-8914
▁berkorespon	-8915
▁christopher	-8916
▁demikianlah	-8917
▁kebangkitan	-8918
▁kemungkinan	-8919
▁klasifikasi	-8920
▁kontituensi	-8921
▁mendapatkan	-8922
▁penangkapan	-8923
▁pengeluaran	-8924
▁penggantian	-8925
▁pengunungan	-8926
▁peningkatan	-8927
▁perdagangan	-8928
_2013-2014_—_	-8929
administratif	-8930
administrator	-8931
berkesempatan	-8932
berkolaborasi	-8933
berpakaiannya	-8934
berpendidikan	-8935
didefinisikan	-8936
diperbolehkan	-8937
disempurnakan	-8938
disertifikasi	-8939
disibodenberg	-8940
environmental	-8941
infrastruktur	-8942
intervensinya	-8943
karakteristik	-8944
keberadaannya	-8945
keberuntungan	-8946
konsevasionis	-8947
konstruksinya	-8948
kontroversial	-8949
mediterranean	-8950
membangkitkan	-8951
membiarkannya	-8952
membingungkan	-8953
membutakannya	-8954
memecahkannya	-8955
memerintahkan	-8956
mempekerjakan	-8957
mempercayakan	-8958
memperkirakan	-8959
mempertimbang	-8960
mempromosikan	-8961
menerapkannya	-8962
mengasumsikan	-8963
mengecualikan	-8964
menggelengkan	-8965
menggoyangkan	-8966
menghancurkan	-8967
mengungkapkan	-8968
menguntungkan	-8969
menguranginya	-8970
menjadikannya	-8971
menjengkelkan	-8972
menyelamatkan	-8973
menyelematkan	-8974
menyumbangkan	-8975
penampilannya	-8976
pencalonannya	-8977
pengelompokan	-8978
penggembalaan	-8979
perbatasannya	-8980
perjalanannya	-8981
permintaannya	-8982
pertobatannya	-8983
prapembayaran	-8984
produktivitas	-8985
teritorialnya	-8986
transcaucasus	-8987
▁kesehatannya	-8988
▁mengandalkan	-8989
▁mengingatkan	-8990
▁pemerintahan	-8991
▁penghadangan	-8992
▁pertandingan	-8993
▁sekembalinya	-8994
bellingshausen	-8995
berlangsungnya	-8996
cambridgeshire	-8997
diinvestasikan	-8998
ditransformasi	-8999
karbondioksida	-9000
keenampuluhnya	-9001
kemanusiaannya	-9002
kemerdekaannya	-9003
ketidakmampuan	-9004
konsekuensinya	-9005
konservasionis	-9006
konservatorium	-9007
membutuhkannya	-9008
memperjuangkan	-9009
mempertanyakan	-9010
menenggelamkan	-9011
mengantisipasi	-9012
menggembirakan	-9013
menggunakannya	-9014
mengizinkannya	-9015
mengoperasikan	-9016
pemeriksaannya	-9017
penerbanganlah	-9018
peristirahatan	-9019
persetujuannya	-9020
pertumbuhannya	-9021
▁observatorium	-9022
▁penghargaanya	-9023
▁perjuangannya	-9024
_£3.000-£5.000_	-9025
dibebastugaskan	-9026
diselenggarakan	-9027
ditinggalkannya	-9028
kepresidenannya	-9029
ketidaknyamanan	-9030
ketidaksetujuan	-9031
laboratoriumnya	-9032
membelakanginya	-9033
mendiskreditkan	-9034
mengekspresikan	-9035
mengesampingkan	-9036
menggarisbawahi	-9037
mengindikasikan	-9038
mengkomersilkan	-9039
mentransmisikan	-9040
pengambilalihan	-9041
▁diterbitkannya	-9042
▁kepentingannya	-9043
▁sakrokoksigeal	-9044
keberangkatannya	-9045
mempertemukannya	-9046
mempertimbangkan	-9047
menggambarkannya	-9048
menggolongkannya	-9049
menggulingkannya	-9050
mengintegrasikan	-9051
menginvestasikan	-9052
▁keterampilannya	-9053
▁perbandingannya	-9054
.36	-9055
00.	-9056
19.	-9057
191	-9058
2%_	-9059
20.	-9060
27_	-9061
3-2	-9062
30.	-9063
32_	-9064
4).	-9065
47.	-9066
49_	-9067
5-2	-9068
519	-9069
58_	-9070
63.	-9071
77_	-9072
79.	-9073
82.	-9074
87_	-9075
_66	-9076
_7,	-9077
adn	-9078
ayi	-9079
edw	-9080
hoy	-9081
ids	-9082
lls	-9083
lyw	-9084
nny	-9085
osb	-9086
zex	-9087
▁bl	-9088
,_19	-9089
.001	-9090
014_	-9091
16,_	-9092
19,_	-9093
26,_	-9094
360.	-9095
39,_	-9096
63,_	-9097
66,_	-9098
79,_	-9099
_70	-9100
cit	-9101
feb	-9102
oph	-9103
uck	-9104
yuc	-9105
yud	-9106
▁yu	-9107
62,_	-9108
72,_	-9109
_100	-9110
_139	-9111
_15,	-9112
_23.	-9113
_330	-9114
_£1,	-9115
_£15	-9116
aldr	-9117
alex	-9118
ally	-9119
atán	-9120
bler	-9121
bond	-9122
brex	-9123
broc	-9124
bruk	-9125
bums	-9126
cgre	-9127
cinc	-9128
cket	-9129
ckle	-9130
cord	-9131
crou	-9132
diiz	-9133
dron	-9134
ebus	-9135
ecah	-9136
emic	-9137
enck	-9138
epis	-9139
eraa	-9140
ergy	-9141
esel	-9142
fabe	-9143
fesi	-9144
gasq	-9145
glev	-9146
goff	-9147
gora	-9148
grim	-9149
hief	-9150
hoen	-9151
hvil	-9152
imaj	-9153
jeng	-9154
kmur	-9155
knik	-9156
kyat	-9157
lema	-9158
lenn	-9159
llar	-9160
lyde	-9161
mpel	-9162
mpur	-9163
nigh	-9164
norw	-9165
nuck	-9166
numi	-9167
oglo	-9168
onzá	-9169
ople	-9170
opti	-9171
otto	-9172
pack	-9173
play	-9174
plaz	-9175
pray	-9176
prem	-9177
ruks	-9178
sbor	-9179
sbur	-9180
snis	-9181
spon	-9182
stel	-9183
stop	-9184
telf	-9185
tess	-9186
tler	-9187
trol	-9188
tros	-9189
type	-9190
uebe	-9191
ulle	-9192
ulus	-9193
upli	-9194
urve	-9195
vaku	-9196
vity	-9197
vost	-9198
wers	-9199
5.0	-9200
6%_	-9201
6.0	-9202
8.0	-9203
zuz	-9204
▁af	-9205
▁he	-9206
emui	-9207
hear	-9208
hech	-9209
hein	-9210
hina	-9211
hote	-9212
kham	-9213
lmon	-9214
mmon	-9215
mono	-9216
nort	-9217
olhe	-9218
rina	-9219
salz	-9220
usal	-9221
wiss	-9222
yann	-9223
yars	-9224
yera	-9225
yion	-9226
zbur	-9227
zidi	-9228
zira	-9229
zále	-9230
ánch	-9231
▁bis	-9232
▁dem	-9233
▁epi	-9234
▁jum	-9235
▁kri	-9236
▁lor	-9237
▁raf	-9238
▁stu	-9239
▁unt	-9240
▁val	-9241
.000.	-9242
.365_	-9243
0-10_	-9244
100%_	-9245
_1794	-9246
_1913	-9247
_1914	-9248
_1916	-9249
_1918	-9250
_1961	-9251
_1973	-9252
_1975	-9253
_1993	-9254
_1997	-9255
_2000	-9256
_2003	-9257
_2008	-9258
_2009	-9259
_23.4	-9260
alkoh	-9261
alvar	-9262
arane	-9263
ather	-9264
atian	-9265
augus	-9266
badar	-9267
belgi	-9268
bernu	-9269
bloch	-9270
bondi	-9271
borat	-9272
brook	-9273
bstan	-9274
cauca	-9275
celti	-9276
cerda	-9277
chape	-9278
chard	-9279
chool	-9280
cisco	-9281
color	-9282
conto	-9283
cords	-9284
darpu	-9285
dekia	-9286
democ	-9287
didas	-9288
didef	-9289
dilen	-9290
dipin	-9291
disaj	-9292
ditam	-9293
dopso	-9294
doron	-9295
dulun	-9296
durán	-9297
dyard	-9298
egang	-9299
0-1	-9300
14_	-9301
30-	-9302
50-	-9303
60-	-9304
81_	-9305
94_	-9306
_£2	-9307
etn	-9308
jou	-9309
mmy	-9310
oug	-9311
zet	-9312
▁ou	-9313
_189	-9314
beou	-9315
defi	-9316
done	-9317
ffer	-9318
fire	-9319
fsir	-9320
harb	-9321
a	-9322
_	-9323
n	-9324
e	-9325
i	-9326
r	-9327
t	-9328
u	-9329
k	-9330
s	-9331
m	-9332
d	-9333
g	-9334
l	-9335
p	-9336
b	-9337
h	-9338
o	-9339
y	-9340
.	-9341
,	-9342
▁	-9343
j	-9344
c	-9345
w	-9346
f	-9347
-	-9348
1	-9349
0	-9350
v	-9351
2	-9352
9	-9353
3	-9354
5	-9355
“	-9356
”	-9357
z	-9358
6	-9359
8	-9360
7	-9361
4	-9362
(	-9363
)	-9364
:	-9365
'	-9366
x	-9367
%	-9368
;	-9369
?	-9370
£	-9371
q	-9372
á	-9373
—	-9374
