<unk>	0
<s>	0
</s>	0
▁在	-0
一個	-1
他們	-2
20	-3
19	-4
▁這	-5
但是	-6
我們	-7
的人	-8
an	-9
他的	-10
可能	-11
已經	-12
ar	-13
以及	-14
工作	-15
公司	-16
美國	-17
201	-18
er	-19
世紀	-20
可以	-21
地區	-22
▁他	-23
沒有	-24
開始	-25
因為	-26
▁但是	-27
政府	-28
自己	-29
英國	-30
電影	-31
00	-32
之後	-33
的一	-34
這些	-35
in	-36
到了	-37
很多	-38
國家	-39
認為	-40
世界	-41
之間	-42
大的	-43
發生	-44
10	-45
其他	-46
影響	-47
部分	-48
18	-49
作為	-50
歷史	-51
獲得	-52
系統	-53
這個	-54
他們的	-55
是一個	-56
一直	-57
來自	-58
包括	-59
同時	-60
大利	-61
on	-62
中國	-63
兩個	-64
其中	-65
如果	-66
成功	-67
成為	-68
投資	-69
方面	-70
最後	-71
決定	-72
的是	-73
第一	-74
進行	-75
200	-76
自己的	-77
使用	-78
年代	-79
建立	-80
戰爭	-81
接受	-82
歐洲	-83
現在	-84
的地	-85
研究	-86
通過	-87
▁我	-88
中的	-89
主要	-90
人的	-91
公元	-92
城市	-93
所有	-94
總統	-95
能夠	-96
許多	-97
這一	-98
需要	-99
en	-100
▁她	-101
不是	-102
之前	-103
了一	-104
來的	-105
區域	-106
導致	-107
提供	-108
時間	-109
班牙	-110
表示	-111
軍隊	-112
非常	-113
西班牙	-114
),	-115
as	-116
ch	-117
”,	-118
▁“	-119
一樣	-120
不同	-121
人們	-122
位於	-123
尼亞	-124
希望	-125
希臘	-126
德國	-127
新的	-128
期間	-129
法國	-130
由於	-131
當時	-132
發展	-133
發現	-134
經濟	-135
羅馬	-136
調查	-137
重要	-138
199	-139
)。	-140
15	-141
or	-142
re	-143
——	-144
▁c	-145
▁一	-146
。”	-147
共和	-148
奧斯	-149
政治	-150
是在	-151
特別	-152
第二	-153
公元前	-154
11	-155
il	-156
le	-157
一起	-158
之一	-159
事件	-160
令人	-161
保護	-162
只有	-163
問題	-164
它們	-165
年的	-166
情況	-167
技術	-168
投票	-169
方法	-170
根據	-171
獨立	-172
超過	-173
阿爾	-174
000	-175
▁19	-176
之間的	-177
了一個	-178
16	-179
:“	-180
ri	-181
▁從	-182
什麼	-183
代表	-184
出現	-185
北部	-186
因此	-187
宣布	-188
必須	-189
所以	-190
數據	-191
有人	-192
歐元	-193
水平	-194
藝術	-195
要求	-196
里斯	-197
關於	-198
音樂	-199
mar	-200
大利亞	-201
澳大利亞	-202
12	-203
ro	-204
st	-205
▁b	-206
▁但	-207
▁它	-208
▁當	-209
並不	-210
全球	-211
增長	-212
存在	-213
市場	-214
幫助	-215
形成	-216
提出	-217
擁有	-218
斯的	-219
是一	-220
最高	-221
有一	-222
朗普	-223
條約	-224
活動	-225
生活	-226
用於	-227
發布	-228
看到	-229
系列	-230
統治	-231
而且	-232
自由	-233
行的	-234
計劃	-235
進入	-236
選舉	-237
隨後	-238
顯示	-239
特朗普	-240
▁201	-241
14	-242
60	-243
at	-244
el	-245
ti	-246
”。	-247
▁另	-248
▁對	-249
▁該	-250
上的	-251
中海	-252
了他	-253
任何	-254
例如	-255
信息	-256
協議	-257
南部	-258
原因	-259
合作	-260
國際	-261
天皇	-262
學生	-263
安全	-264
帝國	-265
幾乎	-266
控制	-267
故事	-268
明顯	-269
是否	-270
期的	-271
殖民	-272
比賽	-273
為了	-274
目前	-275
目標	-276
社會	-277
管理	-278
聯邦	-279
至少	-280
行動	-281
說道	-282
通常	-283
還是	-284
關係	-285
▁他們	-286
13	-287
30	-288
50	-289
al	-290
am	-291
et	-292
▁d	-293
▁s	-294
一些	-295
不可	-296
不會	-297
主義	-298
他在	-299
以前	-300
來說	-301
來越	-302
個月	-303
價格	-304
內的	-305
共同	-306
加勒	-307
告訴	-308
土地	-309
大量	-310
大陸	-311
她的	-312
妻子	-313
孩子	-314
學家	-315
學習	-316
實際	-317
平均	-318
應該	-319
持續	-320
挑戰	-321
擔任	-322
改變	-323
整個	-324
時候	-325
最終	-326
會在	-327
有所	-328
有關	-329
朋友	-330
氣候	-331
無法	-332
現代	-333
甚至	-334
的新	-335
的話	-336
的那	-337
直接	-338
稱為	-339
組成	-340
繼續	-341
美洲	-342
自然	-343
行為	-344
解釋	-345
設計	-346
資源	-347
這種	-348
都是	-349
離開	-350
革命	-351
飛機	-352
▁根據	-353
並沒有	-354
加勒比	-355
地中海	-356
大部分	-357
意大利	-358
有可能	-359
的地方	-360
越來越	-361
av	-362
co	-363
th	-364
▁不	-365
▁那	-366
》(	-367
不斷	-368
人口	-369
人員	-370
人在	-371
伊斯	-372
似乎	-373
傳統	-374
其頓	-375
具有	-376
出演	-377
出生	-378
創作	-379
十年	-380
參與	-381
同樣	-382
名字	-383
埃及	-384
基礎	-385
增加	-386
好的	-387
學校	-388
完全	-389
宗教	-390
導演	-391
就是	-392
屬於	-393
山脈	-394
帶來	-395
建議	-396
應用	-397
手機	-398
拉斯	-399
支持	-400
教堂	-401
時代	-402
歌曲	-403
正在	-404
民族	-405
汽車	-406
法律	-407
產生	-408
相關	-409
知道	-410
程度	-411
第三	-412
航空	-413
衝突	-414
變得	-415
責任	-416
這是	-417
這樣	-418
那裡	-419
附近	-420
隨著	-421
難以	-422
領導	-423
香港	-424
馬克	-425
and	-426
▁如果	-427
▁我們	-428
▁這個	-429
公司的	-430
共和黨	-431
奧斯曼	-432
獲得了	-433
的影響	-434
第一次	-435
馬其頓	-436
,”	-437
17	-438
70	-439
ay	-440
is	-441
la	-442
uc	-443
▁p	-444
▁大	-445
▁據	-446
▁此	-447
》。	-448
並且	-449
佔據	-450
作品	-451
債券	-452
兄弟	-453
全國	-454
再次	-455
出了	-456
分析	-457
利亞	-458
加拿	-459
北京	-460
十分	-461
印度	-462
和平	-463
商業	-464
國王	-465
報告	-466
多的	-467
大學	-468
如此	-469
島嶼	-470
巴黎	-471
幾個	-472
建築	-473
性的	-474
感到	-475
成了	-476
或者	-477
戲劇	-478
扮演	-479
拒絕	-480
放棄	-481
教育	-482
斯頓	-483
日本	-484
最近	-485
會議	-486
服務	-487
格蘭	-488
權力	-489
每個	-490
環境	-491
的事	-492
的機	-493
相似	-494
破產	-495
組織	-496
結束	-497
經常	-498
維亞	-499
羅娜	-500
羅斯	-501
美元	-502
能力	-503
英鎊	-504
製造	-505
試圖	-506
警方	-507
變化	-508
負責	-509
貿易	-510
賬戶	-511
起了	-512
起來	-513
選擇	-514
邊境	-515
那些	-516
部長	-517
部隊	-518
降低	-519
雷斯	-520
非洲	-521
預測	-522
ber	-523
▁18	-524
▁由於	-525
▁這些	-526
▁這次	-527
克里斯	-528
和其他	-529
國家的	-530
成為了	-531
有一個	-532
的原因	-533
該地區	-534
適用於	-535
,000	-536
加勒比海	-537
西班牙語	-538
28	-539
3%	-540
33	-541
ad	-542
bc	-543
lo	-544
ma	-545
nn	-546
ru	-547
▁m	-548
▁希	-549
▁後	-550
》,	-551
一世	-552
一位	-553
一次	-554
不得	-555
丹麥	-556
人類	-557
他和	-558
代理	-559
以來	-560
件事	-561
但在	-562
住在	-563
俄國	-564
保持	-565
修道	-566
候選	-567
倫敦	-568
值得	-569
健康	-570
元素	-571
先生	-572
克斯	-573
入了	-574
公園	-575
公眾	-576
冠軍	-577
出版	-578
分別	-579
利用	-580
力量	-581
動物	-582
勝利	-583
協會	-584
危機	-585
參加	-586
反對	-587
取得	-588
同盟	-589
員會	-590
唐納	-591
喜歡	-592
回到	-593
地產	-594
地面	-595
城鎮	-596
基督	-597
基金	-598
墨西	-599
多數	-600
天的	-601
女兒	-602
女士	-603
媒體	-604
家庭	-605
專輯	-606
就會	-607
展示	-608
工具	-609
工業	-610
年輕	-611
強調	-612
征服	-613
從未	-614
德里	-615
想法	-616
意義	-617
戰役	-618
才能	-619
承擔	-620
指揮	-621
接下	-622
描述	-623
摩拉	-624
文化	-625
文明	-626
明了	-627
時的	-628
智能	-629
最大	-630
東西	-631
板塊	-632
根本	-633
植物	-634
權利	-635
民主	-636
沙漠	-637
河流	-638
海岸	-639
清朝	-640
減少	-641
準備	-642
演出	-643
照片	-644
爾的	-645
猶太	-646
理論	-647
發言	-648
發電	-649
的大	-650
的小	-651
的成	-652
的最	-653
皇家	-654
移民	-655
稱呼	-656
立法	-657
簽訂	-658
給了	-659
維爾	-660
缺少	-661
聯盟	-662
腫瘤	-663
蒙古	-664
處於	-665
表明	-666
表達	-667
裡的	-668
觀眾	-669
討論	-670
訓練	-671
語言	-672
警察	-673
議院	-674
費用	-675
運動	-676
過去	-677
還有	-678
那個	-679
那麼	-680
部的	-681
除了	-682
雖然	-683
電視	-684
ano	-685
ras	-686
ter	-687
▁另外	-688
▁同時	-689
▁為了	-690
▁現在	-691
▁當然	-692
▁目前	-693
▁美國	-694
▁隨著	-695
一方面	-696
一直在	-697
不同的	-698
伊斯蘭	-699
俄羅斯	-700
修道院	-701
候選人	-702
共和國	-703
墨西哥	-704
巴尼亞	-705
情況下	-706
我們的	-707
房地產	-708
斯山脈	-709
方面的	-710
時期的	-711
為什麼	-712
發現了	-713
的一個	-714
的主要	-715
的區域	-716
的最後	-717
的目標	-718
的經濟	-719
藝術家	-720
這件事	-721
重要的	-722
需要的	-723
2014	-724
摩拉維亞	-725
的一部分	-726
阿爾巴尼亞	-727
%,	-728
,“	-729
..	-730
31	-731
35	-732
45	-733
80	-734
90	-735
92	-736
di	-737
es	-738
gy	-739
ia	-740
im	-741
iv	-742
os	-743
ra	-744
▁g	-745
▁《	-746
▁亞	-747
▁卡	-748
▁有	-749
▁阿	-750
一步	-751
七月	-752
三世	-753
三島	-754
上了	-755
上升	-756
上漲	-757
下的	-758
不再	-759
不能	-760
不要	-761
並在	-762
中心	-763
中有	-764
中期	-765
丹內	-766
主教	-767
之中	-768
之處	-769
也被	-770
也許	-771
了兩	-772
交通	-773
人士	-774
人都	-775
仍然	-776
他說	-777
以外	-778
以為	-779
企業	-780
作家	-781
作用	-782
來源	-783
保證	-784
個人	-785
們的	-786
僅僅	-787
儘管	-788
允許	-789
克林	-790
兒童	-791
內容	-792
兩年	-793
公爵	-794
公開	-795
冬季	-796
到達	-797
前往	-798
區的	-799
十四	-800
十月	-801
半島	-802
卡羅	-803
印第	-804
去年	-805
及其	-806
受到	-807
合法	-808
名為	-809
員工	-810
唱片	-811
喀麥	-812
單曲	-813
回了	-814
國民	-815
土耳	-816
在一	-817
地位	-818
地方	-819
地球	-820
地點	-821
城邦	-822
報導	-823
壓力	-824
夏天	-825
夏季	-826
大使	-827
大概	-828
大略	-829
大眾	-830
大約	-831
天氣	-832
契美	-833
女孩	-834
如何	-835
威爾	-836
它的	-837
定了	-838
容易	-839
實驗	-840
將軍	-841
尋找	-842
對手	-843
對象	-844
少數	-845
就像	-846
尼德	-847
州的	-848
年建	-849
廣告	-850
式的	-851
很大	-852
後的	-853
從中	-854
怎麼	-855
息地	-856
成的	-857
批評	-858
承認	-859
抵抗	-860
拉夫	-861
拉的	-862
拉費	-863
拉里	-864
指控	-865
收益	-866
敵人	-867
數個	-868
文學	-869
斯堡	-870
斯托	-871
斯特	-872
方的	-873
日期	-874
星期	-875
時任	-876
更加	-877
曾經	-878
未能	-879
本書	-880
樂隊	-881
標記	-882
機構	-883
正如	-884
歲的	-885
比如	-886
法老	-887
法蘭	-888
泰國	-889
海洋	-890
消息	-891
消費	-892
烈的	-893
爾夫	-894
理查	-895
瑟夫	-896
生命	-897
產品	-898
用戶	-899
男性	-900
當地	-901
當我	-902
百萬	-903
的兩	-904
的角	-905
的說	-906
的高	-907
破壞	-908
私人	-909
積極	-910
穿過	-911
競爭	-912
約翰	-913
緩解	-914
績效	-915
缺乏	-916
聯繫	-917
自治	-918
舉辦	-919
芬蘭	-920
荷蘭	-921
萊恩	-922
處理	-923
補充	-924
製作	-925
西格	-926
西西	-927
見的	-928
覺得	-929
記錄	-930
證明	-931
警告	-932
變為	-933
贏得	-934
身體	-935
軍事	-936
較低	-937
農曆	-938
迪斯	-939
迫害	-940
追溯	-941
逐漸	-942
這次	-943
造成	-944
運河	-945
過程	-946
還在	-947
邊界	-948
都會	-949
銀行	-950
長的	-951
開放	-952
關注	-953
需求	-954
面對	-955
項目	-956
顏色	-957
飛行	-958
首次	-959
鴉片	-960
197	-961
500	-962
ard	-963
bbc	-964
cnn	-965
ill	-966
ing	-967
lin	-968
ran	-969
the	-970
▁de	-971
▁他在	-972
▁她的	-973
▁法國	-974
▁英國	-975
▁超過	-976
▁這是	-977
▁這項	-978
世界大	-979
並不是	-980
也可以	-981
事件的	-982
他們對	-983
代表了	-984
但如果	-985
億美元	-986
克林頓	-987
十年代	-988
印第安	-989
可能會	-990
同時還	-991
唐納德	-992
喀麥隆	-993
土耳其	-994
在那裡	-995
地區的	-996
大略省	-997
委員會	-998
導致了	-999
就已經	-1000
工作的	-1001
布里斯	-1002
年輕的	-1003
很多人	-1004
得到了	-1005
成功的	-1006
投資人	-1007
拉費蒂	-1008
提供了	-1009
政府的	-1010
是什麼	-1011
是因為	-1012
棲息地	-1013
歐洲人	-1014
殖民地	-1015
民主黨	-1016
溫斯頓	-1017
特別是	-1018
獨立的	-1019
理論上	-1020
發言人	-1021
的人口	-1022
的問題	-1023
的投票	-1024
的方法	-1025
的機率	-1026
的發展	-1027
的統治	-1028
看起來	-1029
第一個	-1030
第二次	-1031
維爾克	-1032
蘇格蘭	-1033
這一點	-1034
進一步	-1035
進行了	-1036
銀行的	-1037
阿爾卑	-1038
1492	-1039
2017	-1040
rich	-1041
▁200	-1042
▁car	-1043
▁他們的	-1044
令人難以	-1045
契美尼德	-1046
安大略省	-1047
智能手機	-1048
▁另一方面	-1049
丹內維爾克	-1050
21	-1051
25	-1052
32	-1053
36	-1054
84	-1055
87	-1056
ac	-1057
ca	-1058
ds	-1059
em	-1060
ep	-1061
ff	-1062
ge	-1063
kh	-1064
ki	-1065
me	-1066
ne	-1067
ni	-1068
no	-1069
oh	-1070
ok	-1071
ou	-1072
po	-1073
sl	-1074
ul	-1075
zá	-1076
án	-1077
ün	-1078
▁f	-1079
▁k	-1080
▁t	-1081
▁w	-1082
▁到	-1083
▁博	-1084
▁多	-1085
▁布	-1086
▁截	-1087
▁拉	-1088
▁最	-1089
▁每	-1090
▁沙	-1091
▁然	-1092
▁自	-1093
▁與	-1094
▁高	-1095
一名	-1096
一場	-1097
一天	-1098
一定	-1099
一種	-1100
一致	-1101
三個	-1102
三次	-1103
下一	-1104
下了	-1105
不僅	-1106
不在	-1107
不太	-1108
中華	-1109
主持	-1110
主題	-1111
之下	-1112
之外	-1113
九月	-1114
也會	-1115
也有	-1116
乾旱	-1117
了其	-1118
了多	-1119
了解	-1120
事會	-1121
互聯	-1122
亞新	-1123
亞歷	-1124
亨利	-1125
人和	-1126
人是	-1127
今年	-1128
仍在	-1129
以至	-1130
伐克	-1131
伯爵	-1132
但這	-1133
位的	-1134
住民	-1135
佛羅	-1136
你們	-1137
佳的	-1138
來到	-1139
來看	-1140
依然	-1141
依賴	-1142
侵略	-1143
保羅	-1144
信仰	-1145
倫蒂	-1146
做的	-1147
像是	-1148
優勢	-1149
克爾	-1150
內亞	-1151
內戰	-1152
兩位	-1153
公共	-1154
公投	-1155
六大	-1156
六月	-1157
其後	-1158
具體	-1159
冰島	-1160
凱撒	-1161
凱爾	-1162
凱莎	-1163
分子	-1164
分類	-1165
利普	-1166
削減	-1167
前的	-1168
劇場	-1169
加索	-1170
助手	-1171
助於	-1172
努力	-1173
區柯	-1174
南海	-1175
原本	-1176
去了	-1177
友誼	-1178
反應	-1179
叛亂	-1180
古典	-1181
古巴	-1182
另一	-1183
只是	-1184
各種	-1185
合同	-1186
合理	-1187
合的	-1188
同意	-1189
含量	-1190
吸引	-1191
命令	-1192
和水	-1193
哥倫	-1194
喬治	-1195
嚴重	-1196
四個	-1197
回歸	-1198
國防	-1199
圖特	-1200
團隊	-1201
土著	-1202
在兩	-1203
在周	-1204
在戰	-1205
在於	-1206
在此	-1207
在聖	-1208
在華	-1209
地利	-1210
地表	-1211
士尼	-1212
多是	-1213
夢想	-1214
大幅	-1215
大廈	-1216
大選	-1217
奧巴	-1218
奧爾	-1219
女人	-1220
女性	-1221
好地	-1222
姆斯	-1223
威尼	-1224
嫌疑	-1225
嬰兒	-1226
子郵	-1227
字母	-1228
學者	-1229
學院	-1230
安東	-1231
定居	-1232
客戶	-1233
宣傳	-1234
實施	-1235
實現	-1236
實行	-1237
寫道	-1238
封信	-1239
將其	-1240
將在	-1241
專家	-1242
對待	-1243
對於	-1244
小型	-1245
小說	-1246
就已	-1247
就能	-1248
居住	-1249
居里	-1250
展覽	-1251
工資	-1252
已被	-1253
巴布	-1254
巴拿	-1255
巴爾	-1256
巴西	-1257
巴達	-1258
市民	-1259
帕爾	-1260
帶著	-1261
帶領	-1262
常的	-1263
年被	-1264
康復	-1265
建造	-1266
引發	-1267
徵收	-1268
快速	-1269
恐怖	-1270
想像	-1271
意見	-1272
態度	-1273
慶典	-1274
成立	-1275
我的	-1276
戰場	-1277
托弗	-1278
托車	-1279
找到	-1280
投降	-1281
拉丁	-1282
拉伯	-1283
拉博	-1284
指南	-1285
授予	-1286
排放	-1287
採訪	-1288
接著	-1289
推進	-1290
措施	-1291
摩斯	-1292
擊敗	-1293
擔憂	-1294
支付	-1295
支出	-1296
改革	-1297
攻擊	-1298
政權	-1299
政策	-1300
數字	-1301
數量	-1302
文字	-1303
斯州	-1304
新生	-1305
方式	-1306
日的	-1307
早在	-1308
明白	-1309
是從	-1310
會見	-1311
月份	-1312
有著	-1313
朗特	-1314
未來	-1315
本來	-1316
本地	-1317
本週	-1318
東非	-1319
某種	-1320
柴油	-1321
格達	-1322
條件	-1323
業務	-1324
業生	-1325
業用	-1326
標準	-1327
標賽	-1328
模糊	-1329
歐盟	-1330
死於	-1331
殺死	-1332
每升	-1333
氣體	-1334
污染	-1335
沈括	-1336
治療	-1337
法庭	-1338
法院	-1339
海上	-1340
海拔	-1341
清楚	-1342
溫特	-1343
滅了	-1344
滿足	-1345
激增	-1346
火山	-1347
無論	-1348
爆發	-1349
父親	-1350
特利	-1351
特徵	-1352
特的	-1353
特點	-1354
獎金	-1355
王朝	-1356
理解	-1357
瑞典	-1358
瑞士	-1359
瑪爾	-1360
瑪雅	-1361
生產	-1362
產業	-1363
當中	-1364
當作	-1365
當天	-1366
當的	-1367
疑問	-1368
發表	-1369
發起	-1370
的水	-1371
的熱	-1372
的空	-1373
的精	-1374
的總	-1375
的起	-1376
的進	-1377
的選	-1378
的電	-1379
的頭	-1380
皇帝	-1381
皈依	-1382
盛頓	-1383
直到	-1384
相信	-1385
真的	-1386
確信	-1387
祖母	-1388
禁止	-1389
科學	-1390
科技	-1391
程中	-1392
種子	-1393
穀物	-1394
穩定	-1395
突然	-1396
競選	-1397
答案	-1398
節日	-1399
節目	-1400
米爾	-1401
糟糕	-1402
紀念	-1403
約在	-1404
給予	-1405
綠色	-1406
網站	-1407
網絡	-1408
總督	-1409
置信	-1410
能源	-1411
興趣	-1412
舉行	-1413
般的	-1414
花費	-1415
茉莉	-1416
處罰	-1417
蛋白	-1418
街上	-1419
表現	-1420
被解	-1421
被評	-1422
裡有	-1423
西斯	-1424
西部	-1425
視頻	-1426
觀的	-1427
解放	-1428
解決	-1429
言論	-1430
記者	-1431
設備	-1432
課程	-1433
諸如	-1434
諾斯	-1435
議會	-1436
讓他	-1437
貝爾	-1438
財政	-1439
資格	-1440
贊助	-1441
赫爾	-1442
趨勢	-1443
路易	-1444
路途	-1445
轉型	-1446
轉移	-1447
返回	-1448
這位	-1449
這裡	-1450
進了	-1451
遊戲	-1452
遊行	-1453
運用	-1454
避孕	-1455
邊的	-1456
那種	-1457
部門	-1458
釋放	-1459
重新	-1460
鐵路	-1461
開展	-1462
關鍵	-1463
阻止	-1464
限制	-1465
雅典	-1466
雷達	-1467
震驚	-1468
面是	-1469
面的	-1470
面臨	-1471
預計	-1472
領先	-1473
領土	-1474
領域	-1475
顆粒	-1476
風格	-1477
餘額	-1478
首先	-1479
首都	-1480
馬丁	-1481
鬥爭	-1482
黃金	-1483
黨派	-1484
鼓勵	-1485
100	-1486
195	-1487
ate	-1488
bar	-1489
gan	-1490
ger	-1491
red	-1492
ros	-1493
tin	-1494
▁15	-1495
▁20	-1496
▁an	-1497
▁一些	-1498
▁中國	-1499
▁人們	-1500
▁他還	-1501
▁儘管	-1502
▁其中	-1503
▁德國	-1504
▁截至	-1505
▁泰國	-1506
▁許多	-1507
▁這一	-1508
▁通過	-1509
▁關於	-1510
▁隨後	-1511
不知道	-1512
並不能	-1513
主義者	-1514
了一種	-1515
了他的	-1516
互聯網	-1517
亞新幾	-1518
以至於	-1519
保證了	-1520
倫蒂諾	-1521
全世界	-1522
兩個人	-1523
六大國	-1524
出演了	-1525
出現了	-1526
分類法	-1527
加拿大	-1528
北卡羅	-1529
區柯克	-1530
南美洲	-1531
原住民	-1532
參議院	-1533
另一個	-1534
可稱為	-1535
可能是	-1536
可追溯	-1537
回到了	-1538
在內的	-1539
在工作	-1540
在英國	-1541
城鎮化	-1542
大學的	-1543
大量的	-1544
天主教	-1545
奧地利	-1546
奧巴馬	-1547
奧斯卡	-1548
子郵件	-1549
安東尼	-1550
將會在	-1551
對美國	-1552
導致的	-1553
巨大的	-1554
已經在	-1555
巴拿馬	-1556
希臘的	-1557
建立了	-1558
形成了	-1559
很大的	-1560
很明顯	-1561
我們在	-1562
戰爭中	-1563
投資者	-1564
接受了	-1565
提出了	-1566
摩托車	-1567
斯拉夫	-1568
明顯的	-1569
更多的	-1570
最大的	-1571
會獲得	-1572
會見了	-1573
有助於	-1574
東南部	-1575
格達汗	-1576
業用地	-1577
比賽中	-1578
法蘭西	-1579
洛伐克	-1580
消費者	-1581
發生在	-1582
的一次	-1583
的一集	-1584
的人才	-1585
的地標	-1586
的工作	-1587
的成功	-1588
的所有	-1589
的支持	-1590
的新聞	-1591
的時候	-1592
的社會	-1593
的行動	-1594
的選民	-1595
的那樣	-1596
研究所	-1597
科學家	-1598
程度上	-1599
約瑟夫	-1600
而不是	-1601
芬蘭語	-1602
菲利普	-1603
薩斯州	-1604
行為的	-1605
被指控	-1606
被稱為	-1607
被認為	-1608
補充道	-1609
西格爾	-1610
解釋說	-1611
說明了	-1612
迪士尼	-1613
運動會	-1614
還可以	-1615
銅時代	-1616
錦標賽	-1617
阿拉伯	-1618
附近的	-1619
1992	-1620
1997	-1621
2013	-1622
2015	-1623
2016	-1624
ucas	-1625
▁克里斯	-1626
▁公元前	-1627
▁在過去	-1628
世界大戰	-1629
了自己的	-1630
他的妻子	-1631
他的電影	-1632
令人擔憂	-1633
其中包括	-1634
到了美國	-1635
加拿大的	-1636
唱片公司	-1637
圖特摩斯	-1638
在地中海	-1639
埃及法老	-1640
工業革命	-1641
布里斯班	-1642
平均水平	-1643
建立起了	-1644
我們必須	-1645
所需要的	-1646
接下來的	-1647
歐元每升	-1648
特朗普的	-1649
瓦倫蒂諾	-1650
的房地產	-1651
績效工資	-1652
自然資源	-1653
路途時間	-1654
農業用地	-1655
這是一個	-1656
rasti	-1657
▁2010	-1658
▁澳大利亞	-1659
了一個新的	-1660
亞新幾內亞	-1661
奧斯曼帝國	-1662
阿契美尼德	-1663
martin	-1664
令人難以置信	-1665
阿爾卑斯山脈	-1666
阿爾巴尼亞的	-1667
巴布亞新幾內亞	-1668
%。	-1669
,《	-1670
27	-1671
34	-1672
39	-1673
40	-1674
56	-1675
62	-1676
65	-1677
66	-1678
76	-1679
79	-1680
82	-1681
96	-1682
99	-1683
ba	-1684
be	-1685
bo	-1686
ct	-1687
dn	-1688
ei	-1689
ez	-1690
fy	-1691
gu	-1692
ho	-1693
ic	-1694
ie	-1695
if	-1696
je	-1697
ju	-1698
ol	-1699
29	-1700
pa	-1701
pu	-1702
si	-1703
sp	-1704
te	-1705
ts	-1706
tt	-1707
tu	-1708
us	-1709
wi	-1710
zi	-1711
£3	-1712
”(	-1713
▁"	-1714
▁j	-1715
▁y	-1716
▁z	-1717
▁”	-1718
▁你	-1719
▁其	-1720
▁和	-1721
▁如	-1722
▁就	-1723
▁於	-1724
▁畢	-1725
▁白	-1726
▁相	-1727
▁確	-1728
▁科	-1729
▁聯	-1730
▁蘇	-1731
▁裡	-1732
▁賴	-1733
▁鑑	-1734
▁除	-1735
▁雪	-1736
。"	-1737
一分	-1738
一帶	-1739
一座	-1740
一般	-1741
丁堡	-1742
三角	-1743
上並	-1744
上午	-1745
上很	-1746
上限	-1747
下來	-1748
下面	-1749
不久	-1750
不合	-1751
不大	-1752
不好	-1753
不想	-1754
丘吉	-1755
丟了	-1756
中入	-1757
中吸	-1758
中央	-1759
中斷	-1760
中移	-1761
主導	-1762
主席	-1763
主張	-1764
主演	-1765
乃至	-1766
之於	-1767
乘客	-1768
也是	-1769
了不	-1770
了八	-1771
了十	-1772
了大	-1773
了它	-1774
了對	-1775
了數	-1776
了該	-1777
事實	-1778
事情	-1779
二十	-1780
互相	-1781
五十	-1782
五年	-1783
亞洲	-1784
交了	-1785
交易	-1786
人數	-1787
人機	-1788
人民	-1789
今天	-1790
仍舊	-1791
他也	-1792
他了	-1793
他將	-1794
他就	-1795
他手	-1796
他會	-1797
他被	-1798
任的	-1799
gh	-1800
▁維	-1801
不經	-1802
世的	-1803
乘坐	-1804
休息	-1805
伯戈	-1806
伯蘭	-1807
似的	-1808
但他	-1809
佈於	-1810
位置	-1811
佔有	-1812
佔領	-1813
作出	-1814
作曲	-1815
你更	-1816
你的	-1817
使他	-1818
使其	-1819
使得	-1820
使該	-1821
來分	-1822
來納	-1823
來臨	-1824
保守	-1825
保留	-1826
保障	-1827
信號	-1828
修建	-1829
假期	-1830
假設	-1831
做了	-1832
停留	-1833
停運	-1834
傳播	-1835
債務	-1836
傷害	-1837
優先	-1838
優步	-1839
優秀	-1840
儲蓄	-1841
充分	-1842
充滿	-1843
克蘭	-1844
克頓	-1845
內爾	-1846
全部	-1847
兩人	-1848
兩次	-1849
兩者	-1850
公主	-1851
公國	-1852
公寓	-1853
公民	-1854
出來	-1855
出於	-1856
分鐘	-1857
分離	-1858
初選	-1859
別人	-1860
利時	-1861
利益	-1862
制受	-1863
制度	-1864
前線	-1865
前進	-1866
割讓	-1867
劇本	-1868
力的	-1869
加低	-1870
加入	-1871
加利	-1872
加工	-1873
助理	-1874
動力	-1875
勢力	-1876
勳爵	-1877
匈牙	-1878
化學	-1879
化的	-1880
北朝	-1881
匹克	-1882
十個	-1883
千年	-1884
協助	-1885
協定	-1886
南亞	-1887
南極	-1888
南非	-1889
博客	-1890
卜林	-1891
卡塔	-1892
卡拉	-1893
卡森	-1894
卡洛	-1895
即使	-1896
即將	-1897
去除	-1898
反法	-1899
北海	-1900
參賽	-1901
取代	-1902
取消	-1903
受歡	-1904
叛軍	-1905
古斯	-1906
古老	-1907
只能	-1908
可疑	-1909
台劇	-1910
史前	-1911
史密	-1912
史達	-1913
合了	-1914
合國	-1915
同年	-1916
向南	-1917
向著	-1918
否則	-1919
告知	-1920
告終	-1921
告誡	-1922
周圍	-1923
味著	-1924
呼聲	-1925
和不	-1926
和她	-1927
和烏	-1928
和紡	-1929
品牌	-1930
品種	-1931
哈拉	-1932
哪兒	-1933
哭泣	-1934
問了	-1935
善良	-1936
單元	-1937
嘗試	-1938
噁心	-1939
嚴格	-1940
四名	-1941
四月	-1942
因而	-1943
困擾	-1944
圍內	-1945
圍繞	-1946
圖片	-1947
團體	-1948
在同	-1949
地峽	-1950
均收	-1951
埃爾	-1952
執行	-1953
基於	-1954
報紙	-1955
場合	-1956
塊釙	-1957
塔斯	-1958
塔爾	-1959
塞爾	-1960
塞特	-1961
塞西	-1962
塵暴	-1963
士兵	-1964
多個	-1965
多元	-1966
多安	-1967
多年	-1968
多於	-1969
多樣	-1970
多次	-1971
大樓	-1972
大火	-1973
大麻	-1974
天文	-1975
太平	-1976
太空	-1977
太陽	-1978
夫在	-1979
失望	-1980
奇蹟	-1981
契丹	-1982
奧林	-1983
奧運	-1984
奪回	-1985
女巫	-1986
她寫	-1987
她是	-1988
她為	-1989
她說	-1990
好評	-1991
妙的	-1992
妥協	-1993
妥善	-1994
威廉	-1995
娛樂	-1996
子高	-1997
存活	-1998
季節	-1999
它為	-2000
守護	-2001
安娜	-2002
安德	-2003
安石	-2004
安第	-2005
安迪	-2006
完工	-2007
官員	-2008
官方	-2009
客串	-2010
室內	-2011
家的	-2012
密爾	-2013
審查	-2014
寫作	-2015
將會	-2016
將能	-2017
將要	-2018
專業	-2019
尋求	-2020
對尼	-2021
對情	-2022
對方	-2023
對的	-2024
導方	-2025
小時	-2026
少的	-2027
尤其	-2028
就在	-2029
就被	-2030
尼基	-2031
局勢	-2032
局的	-2033
局面	-2034
展現	-2035
岡薩	-2036
島和	-2037
崔絲	-2038
嶄露	-2039
工人	-2040
巨額	-2041
差不	-2042
差異	-2043
巴羅	-2044
市長	-2045
布魯	-2046
希羅	-2047
帕克	-2048
干預	-2049
平台	-2050
平壤	-2051
平手	-2052
年人	-2053
年以	-2054
年內	-2055
年到	-2056
年在	-2057
年度	-2058
年後	-2059
年推	-2060
年春	-2061
年是	-2062
年級	-2063
年號	-2064
年間	-2065
幸運	-2066
幾十	-2067
廢墟	-2068
廣播	-2069
延續	-2070
建於	-2071
建設	-2072
引用	-2073
形式	-2074
形象	-2075
影片	-2076
很少	-2077
很快	-2078
很有	-2079
後者	-2080
得以	-2081
從而	-2082
復興	-2083
微小	-2084
德於	-2085
徹底	-2086
心態	-2087
必要	-2088
志願	-2089
忽視	-2090
思考	-2091
思議	-2092
性別	-2093
想要	-2094
意圖	-2095
愚蠢	-2096
愛爾	-2097
感覺	-2098
慶祝	-2099
成員	-2100
成就	-2101
我會	-2102
我都	-2103
或在	-2104
戰敗	-2105
戰鬥	-2106
戴維	-2107
所謂	-2108
所需	-2109
手術	-2110
打開	-2111
打鬥	-2112
批發	-2113
投入	-2114
抗議	-2115
拉多	-2116
拉尼	-2117
拉德	-2118
拉諾	-2119
拉迪	-2120
拿破	-2121
指出	-2122
挪威	-2123
掌權	-2124
排除	-2125
採取	-2126
探索	-2127
探討	-2128
接收	-2129
接觸	-2130
推動	-2131
推特	-2132
提及	-2133
提高	-2134
揭示	-2135
揭露	-2136
損失	-2137
摧毀	-2138
摩納	-2139
撒海	-2140
撤退	-2141
擊者	-2142
擔心	-2143
據此	-2144
擬定	-2145
擴展	-2146
擺脫	-2147
放在	-2148
政黨	-2149
效忠	-2150
教皇	-2151
數次	-2152
文以	-2153
文章	-2154
料的	-2155
斯帕	-2156
新聞	-2157
斷層	-2158
方言	-2159
旅行	-2160
族裔	-2161
日出	-2162
日子	-2163
日常	-2164
日耳	-2165
早了	-2166
早期	-2167
明治	-2168
易見	-2169
是上	-2170
是其	-2171
是由	-2172
是誰	-2173
是這	-2174
時刻	-2175
時期	-2176
普敦	-2177
普林	-2178
普爾	-2179
暫停	-2180
更多	-2181
更為	-2182
曾在	-2183
最有	-2184
會被	-2185
月的	-2186
月至	-2187
有三	-2188
有些	-2189
有意	-2190
有的	-2191
木舟	-2192
本中	-2193
本的	-2194
朱婷	-2195
李維	-2196
東部	-2197
林斯	-2198
林肯	-2199
格麗	-2200
梅爾	-2201
條款	-2202
棕櫚	-2203
極度	-2204
概念	-2205
標誌	-2206
模型	-2207
檢查	-2208
檢測	-2209
欺詐	-2210
歌手	-2211
歡樂	-2212
正確	-2213
此次	-2214
武器	-2215
武裝	-2216
死亡	-2217
死後	-2218
殊榮	-2219
殺了	-2220
每人	-2221
每年	-2222
比例	-2223
比在	-2224
比的	-2225
民國	-2226
氣象	-2227
水池	-2228
永不	-2229
沃爾	-2230
河的	-2231
法令	-2232
波的	-2233
波蘭	-2234
注意	-2235
注重	-2236
洋的	-2237
洛克	-2238
洲的	-2239
流行	-2240
海和	-2241
海報	-2242
海外	-2243
海峽	-2244
海的	-2245
深的	-2246
深遠	-2247
添加	-2248
港口	-2249
準確	-2250
溫度	-2251
滅亡	-2252
滿意	-2253
滿族	-2254
演員	-2255
演唱	-2256
澳洲	-2257
激素	-2258
激進	-2259
火箭	-2260
火車	-2261
災難	-2262
為二	-2263
為期	-2264
為止	-2265
為野	-2266
熱的	-2267
燈塔	-2268
爭論	-2269
爭議	-2270
爵位	-2271
爾斯	-2272
片場	-2273
版的	-2274
牧師	-2275
特靈	-2276
狀態	-2277
狀況	-2278
猜測	-2279
獎項	-2280
獨自	-2281
獲勝	-2282
獲獎	-2283
率比	-2284
瑙河	-2285
環節	-2286
瓦雷	-2287
生態	-2288
生者	-2289
生肖	-2290
男人	-2291
疼痛	-2292
病人	-2293
瘋狂	-2294
發揮	-2295
發明	-2296
發育	-2297
發送	-2298
白人	-2299
百分	-2300
的學	-2301
的宣	-2302
的後	-2303
的托	-2304
的期	-2305
的神	-2306
的立	-2307
的細	-2308
的結	-2309
的賽	-2310
的這	-2311
的醫	-2312
監管	-2313
直至	-2314
相同	-2315
相對	-2316
真實	-2317
真正	-2318
知識	-2319
石製	-2320
破裂	-2321
確實	-2322
礁湖	-2323
礦物	-2324
社交	-2325
祈禱	-2326
福德	-2327
福特	-2328
科幻	-2329
科恩	-2330
秘密	-2331
程序	-2332
種族	-2333
稱他	-2334
穩步	-2335
空氣	-2336
穿戴	-2337
立石	-2338
立足	-2339
童工	-2340
符合	-2341
簡直	-2342
約克	-2343
約後	-2344
約里	-2345
紐約	-2346
索爾	-2347
給西	-2348
統計	-2349
經歷	-2350
經過	-2351
經驗	-2352
網上	-2353
緊鄰	-2354
線的	-2355
編輯	-2356
總是	-2357
繼承	-2358
缺席	-2359
美裔	-2360
群體	-2361
習慣	-2362
考慮	-2363
而我	-2364
而有	-2365
而被	-2366
而言	-2367
聊天	-2368
聯軍	-2369
職位	-2370
聽證	-2371
肥料	-2372
肺的	-2373
能使	-2374
能在	-2375
脆弱	-2376
至八	-2377
致命	-2378
與其	-2379
舊金	-2380
船員	-2381
船的	-2382
船隻	-2383
艾達	-2384
茵河	-2385
莫伊	-2386
萊德	-2387
萬人	-2388
著陸	-2389
葡萄	-2390
葬禮	-2391
蒂娜	-2392
蒂安	-2393
蒂芬	-2394
蓋耶	-2395
薩拉	-2396
薩米	-2397
藉由	-2398
虔誠	-2399
血紅	-2400
衣服	-2401
被遺	-2402
補助	-2403
要么	-2404
見過	-2405
規劃	-2406
視為	-2407
觀察	-2408
角色	-2409
計算	-2410
訥河	-2411
評估	-2412
評論	-2413
詳細	-2414
認識	-2415
語中	-2416
誰能	-2417
請願	-2418
諾瑪	-2419
謀殺	-2420
謙遜	-2421
講述	-2422
證據	-2423
變的	-2424
變遷	-2425
讓人	-2426
貝貝	-2427
財務	-2428
貴族	-2429
資本	-2430
資金	-2431
賞識	-2432
賠償	-2433
質量	-2434
賺取	-2435
購買	-2436
走向	-2437
超級	-2438
超越	-2439
身份	-2440
車型	-2441
軍官	-2442
較為	-2443
轉而	-2444
轉變	-2445
轟炸	-2446
辦公	-2447
農民	-2448
近期	-2449
近海	-2450
迦南	-2451
追求	-2452
透露	-2453
這也	-2454
這兩	-2455
這片	-2456
這部	-2457
通知	-2458
通道	-2459
週二	-2460
週六	-2461
進到	-2462
進去	-2463
進場	-2464
運輸	-2465
道德	-2466
達爾	-2467
達菲	-2468
遠了	-2469
遠離	-2470
選出	-2471
選項	-2472
遺憾	-2473
遺跡	-2474
邁錫	-2475
還會	-2476
還未	-2477
還沒	-2478
還能	-2479
邊緣	-2480
那兒	-2481
那里	-2482
郡的	-2483
部件	-2484
部落	-2485
都有	-2486
醜聞	-2487
醫生	-2488
醫療	-2489
里希	-2490
里達	-2491
重現	-2492
量的	-2493
釙樣	-2494
針對	-2495
錄製	-2496
錯誤	-2497
鏈接	-2498
開支	-2499
關心	-2500
關閉	-2501
防衛	-2502
阿伯	-2503
阿普	-2504
隨時	-2505
險的	-2506
雅那	-2507
集了	-2508
集團	-2509
集的	-2510
離婚	-2511
雷暴	-2512
電站	-2513
霸占	-2514
靈感	-2515
預報	-2516
預算	-2517
頭角	-2518
頭銜	-2519
願意	-2520
顧客	-2521
顯然	-2522
顯而	-2523
食品	-2524
食物	-2525
飽受	-2526
養分	-2527
首席	-2528
馬爾	-2529
騎兵	-2530
驚訝	-2531
體的	-2532
高於	-2533
鬥志	-2534
鬧劇	-2535
鱈魚	-2536
黨內	-2537
龐培	-2538
$15	-2539
107	-2540
190	-2541
194	-2542
30-	-2543
330	-2544
760	-2545
ace	-2546
avi	-2547
aya	-2548
con	-2549
dar	-2550
dna	-2551
dün	-2552
ena	-2553
eph	-2554
est	-2555
gel	-2556
iam	-2557
ilm	-2558
ina	-2559
ine	-2560
ive	-2561
joh	-2562
kor	-2563
lai	-2564
lar	-2565
lez	-2566
mer	-2567
mon	-2568
nor	-2569
org	-2570
ple	-2571
rum	-2572
sim	-2573
son	-2574
tel	-2575
uck	-2576
zay	-2577
£12	-2578
▁17	-2579
▁av	-2580
▁di	-2581
▁ni	-2582
▁re	-2583
▁st	-2584
▁一位	-2585
▁一項	-2586
▁三島	-2587
▁不過	-2588
▁他也	-2589
▁他的	-2590
▁位於	-2591
▁作為	-2592
▁全球	-2593
▁兩年	-2594
▁喬治	-2595
▁因此	-2596
▁國際	-2597
▁在中	-2598
▁在其	-2599
▁它與	-2600
▁對於	-2601
▁後來	-2602
▁後者	-2603
▁我的	-2604
▁所以	-2605
▁據說	-2606
▁時任	-2607
▁最後	-2608
▁有人	-2609
▁正如	-2610
▁此外	-2611
▁沈括	-2612
▁沒有	-2613
▁然而	-2614
▁特別	-2615
▁畢竟	-2616
▁當時	-2617
▁研究	-2618
▁第一	-2619
▁第三	-2620
▁第二	-2621
▁聯邦	-2622
▁與此	-2623
▁警察	-2624
▁賴特	-2625
▁迪斯	-2626
▁這裡	-2627
▁通常	-2628
▁鑑於	-2629
▁阿爾	-2630
▁除了	-2631
▁雖然	-2632
▁雪人	-2633
▁電影	-2634
一個人	-2635
一定會	-2636
一樣的	-2637
一系列	-2638
一面是	-2639
三十年	-2640
上個月	-2641
下來的	-2642
不存在	-2643
不得不	-2644
不應該	-2645
世界上	-2646
世紀中	-2647
世紀末	-2648
中入讀	-2649
中寫道	-2650
中心的	-2651
中扮演	-2652
中發現	-2653
主持人	-2654
主義的	-2655
主要由	-2656
也不會	-2657
也就是	-2658
也開始	-2659
了一場	-2660
了使用	-2661
了戰爭	-2662
了所有	-2663
了整個	-2664
五十萬	-2665
亞歷山	-2666
他已經	-2667
他自己	-2668
代表著	-2669
以來最	-2670
伯戈因	-2671
但是在	-2672
但這一	-2673
低海拔	-2674
作曲家	-2675
你知道	-2676
使用了	-2677
來源於	-2678
保持著	-2679
信仰的	-2680
偉大的	-2681
傳統是	-2682
價格為	-2683
億歐元	-2684
億英鎊	-2685
兄弟們	-2686
克萊恩	-2687
其他人	-2688
再一次	-2689
凱爾特	-2690
出來的	-2691
出現在	-2692
出生於	-2693
出生的	-2694
利用了	-2695
到整個	-2696
制受洗	-2697
創作了	-2698
劇作家	-2699
力發電	-2700
匈牙利	-2701
北京的	-2702
北朝鮮	-2703
北部的	-2704
十年內	-2705
十月初	-2706
卡洛斯	-2707
受到了	-2708
受歡迎	-2709
叛亂的	-2710
古拉斯	-2711
可持續	-2712
可疑的	-2713
可能性	-2714
史達林	-2715
吉他手	-2716
吉卜林	-2717
同樣的	-2718
吸引力	-2719
和一個	-2720
和中國	-2721
和國民	-2722
和平的	-2723
和歷史	-2724
和獎金	-2725
和紡織	-2726
問題的	-2727
圍繞著	-2728
在一個	-2729
在七月	-2730
在之後	-2731
在位的	-2732
在兩個	-2733
在沙漠	-2734
在美國	-2735
地區和	-2736
均收入	-2737
坎伯蘭	-2738
型基金	-2739
城市中	-2740
基督教	-2741
報導說	-2742
多數人	-2743
大多數	-2744
大都會	-2745
奠定了	-2746
奧古斯	-2747
奧運會	-2748
好幾個	-2749
威尼斯	-2750
嫌疑人	-2751
字母表	-2752
它們的	-2753
安石的	-2754
完成了	-2755
完成的	-2756
實際上	-2757
實驗室	-2758
對人類	-2759
對他們	-2760
對情侶	-2761
對我們	-2762
導方針	-2763
導演的	-2764
小塊釙	-2765
就是在	-2766
岩島嶼	-2767
巴爾幹	-2768
巴羅佐	-2769
布朗特	-2770
希羅底	-2771
帕爾馬	-2772
常見的	-2773
幫助下	-2774
平行的	-2775
年之間	-2776
年代初	-2777
年十月	-2778
年夏天	-2779
年夏季	-2780
年成立	-2781
年春天	-2782
年級的	-2783
幸的是	-2784
很容易	-2785
德國和	-2786
必不可	-2787
怎麼樣	-2788
恰當的	-2789
意味著	-2790
愛丁堡	-2791
愛爾蘭	-2792
我們會	-2793
我已經	-2794
我覺得	-2795
或者說	-2796
戰後的	-2797
所以我	-2798
所學校	-2799
打入了	-2800
打平手	-2801
找到了	-2802
投資在	-2803
拉博夫	-2804
拉斯加	-2805
拉斯哥	-2806
拿破崙	-2807
指揮權	-2808
挑戰的	-2809
接下來	-2810
摩納哥	-2811
撒哈拉	-2812
撒海爾	-2813
教人們	-2814
文明均	-2815
斯巴達	-2816
日之前	-2817
日耳曼	-2818
是一名	-2819
是一種	-2820
是可以	-2821
是政府	-2822
是清朝	-2823
是由於	-2824
更好地	-2825
最好的	-2826
最新的	-2827
最近的	-2828
最高的	-2829
會導致	-2830
月期間	-2831
有一位	-2832
有很多	-2833
未來的	-2834
格麗特	-2835
業生涯	-2836
權力的	-2837
歷史的	-2838
比利時	-2839
民族在	-2840
河流均	-2841
法國在	-2842
活動中	-2843
激烈的	-2844
為他們	-2845
為基礎	-2846
為歐洲	-2847
猶太人	-2848
猶太教	-2849
獨木舟	-2850
理事會	-2851
理查德	-2852
瓦雷茨	-2853
生活的	-2854
用名字	-2855
男子高	-2856
留下了	-2857
登上了	-2858
發布了	-2859
發布的	-2860
發生了	-2861
發生率	-2862
發電機	-2863
百萬冊	-2864
的一派	-2865
的一面	-2866
的人數	-2867
的人物	-2868
的保護	-2869
的信息	-2870
的元素	-2871
的內容	-2872
的另一	-2873
的名字	-2874
的城市	-2875
的心態	-2876
的志願	-2877
的情況	-2878
的想法	-2879
的成就	-2880
的技術	-2881
的投資	-2882
的文化	-2883
的日子	-2884
的是在	-2885
的時間	-2886
的最高	-2887
的條件	-2888
的機會	-2889
的歷史	-2890
的殊榮	-2891
的消息	-2892
的特別	-2893
的疑問	-2894
的研究	-2895
的破壞	-2896
的祖母	-2897
的私人	-2898
的立場	-2899
的系統	-2900
的藝術	-2901
的要求	-2902
的許多	-2903
的費用	-2904
的趨勢	-2905
的電影	-2906
目擊者	-2907
研究的	-2908
種子長	-2909
第一位	-2910
第三方	-2911
第二個	-2912
等我們	-2913
管不好	-2914
簽訂了	-2915
糟糕的	-2916
系統在	-2917
紀念碑	-2918
約里奧	-2919
罕見的	-2920
羅馬人	-2921
美國人	-2922
美西斯	-2923
而受到	-2924
聽證會	-2925
腓尼基	-2926
至十四	-2927
至少能	-2928
舉辦的	-2929
舊金山	-2930
舞台劇	-2931
色雷斯	-2932
英格蘭	-2933
萬歐元	-2934
被告知	-2935
被征服	-2936
被當作	-2937
被調查	-2938
西北部	-2939
西方的	-2940
西西里	-2941
要求把	-2942
訪問了	-2943
設計師	-2944
試圖讓	-2945
該城市	-2946
該電影	-2947
詹姆斯	-2948
警告說	-2949
讓羅娜	-2950
赫爾茨	-2951
這兩個	-2952
通常是	-2953
進入了	-2954
進行的	-2955
邁克爾	-2956
邁錫尼	-2957
還需要	-2958
那些在	-2959
部部長	-2960
重大的	-2961
開始的	-2962
開普敦	-2963
關於該	-2964
降到了	-2965
限制在	-2966
項目中	-2967
領導人	-2968
顯示了	-2969
飛行員	-2970
首歌曲	-2971
馬德里	-2972
高加索	-2973
高爾夫	-2974
,199	-2975
11%,	-2976
1820	-2977
1879	-2978
1914	-2979
1916	-2980
1918	-2981
1991	-2982
2004	-2983
2008	-2984
2012	-2985
andy	-2986
atal	-2987
berg	-2988
book	-2989
cano	-2990
cone	-2991
face	-2992
jeff	-2993
korn	-2994
logy	-2995
onzá	-2996
orri	-2997
poti	-2998
reco	-2999
▁107	-3000
▁196	-3001
▁and	-3002
▁mar	-3003
▁sal	-3004
▁the	-3005
▁win	-3006
▁但是在	-3007
▁俄羅斯	-3008
▁兩年後	-3009
▁共和黨	-3010
▁唐納德	-3011
▁在他們	-3012
▁希拉里	-3013
▁我認為	-3014
▁棲息地	-3015
▁沙塵暴	-3016
▁理論上	-3017
▁目前的	-3018
▁聯合國	-3019
▁迪斯尼	-3020
▁馬其頓	-3021
一分為二	-3022
一起工作	-3023
不可思議	-3024
不是所有	-3025
世界冠軍	-3026
中國將在	-3027
中華民國	-3028
主要來自	-3029
也適用於	-3030
了一系列	-3031
今天上午	-3032
代理人的	-3033
代表了最	-3034
以及其他	-3035
伊斯蘭教	-3036
但是他的	-3037
佛羅里達	-3038
作為一個	-3039
作為主要	-3040
六十年代	-3041
共同出演	-3042
共和國的	-3043
其他國家	-3044
出自己的	-3045
北部區域	-3046
可以緩解	-3047
命令不得	-3048
和印第安	-3049
和城鎮化	-3050
哥倫佈於	-3051
哪兒來的	-3052
因為他們	-3053
因為這些	-3054
國家公園	-3055
土著群體	-3056
在公元前	-3057
在此之前	-3058
在華盛頓	-3059
地面控制	-3060
埃爾多安	-3061
堪薩斯州	-3062
塞特郡的	-3063
大概降低	-3064
大部分的	-3065
天氣預報	-3066
奧林匹克	-3067
宣布破產	-3068
對的靈感	-3069
岡薩雷斯	-3070
嶄露頭角	-3071
工作時間	-3072
工作環境	-3073
巴黎協定	-3074
希區柯克	-3075
帶有一個	-3076
年代中期	-3077
年以來的	-3078
幾乎沒有	-3079
強制受洗	-3080
很可能是	-3081
成為總統	-3082
成的植物	-3083
戰爭期間	-3084
戰爭爆發	-3085
拉丁美裔	-3086
拉的嬰兒	-3087
指導方針	-3088
接受教育	-3089
政權轉移	-3090
斯帕尼亞	-3091
斯洛伐克	-3092
明治天皇	-3093
是世界上	-3094
最有可能	-3095
有很大的	-3096
板塊斷層	-3097
格拉斯哥	-3098
歲的兒童	-3099
歷史學家	-3100
氣體質量	-3101
沒有這些	-3102
海的鱈魚	-3103
溫特科恩	-3104
激素避孕	-3105
王安石的	-3106
瑪格麗特	-3107
生態系統	-3108
發現大陸	-3109
發生變化	-3110
的一集中	-3111
的可能性	-3112
的幫助下	-3113
的水資源	-3114
的統治者	-3115
的高爾夫	-3116
相似之處	-3117
社交媒體	-3118
社會主義	-3119
穿過邊境	-3120
米爾一世	-3121
約克公爵	-3122
約公元前	-3123
給西雅那	-3124
統治地位	-3125
羅馬帝國	-3126
職業生涯	-3127
至公元前	-3128
舊殖民地	-3129
蘇格蘭人	-3130
血紅蛋白	-3131
該電影由	-3132
警方表示	-3133
變得更加	-3134
賬戶餘額	-3135
越來越多	-3136
迦南人的	-3137
這部電影	-3138
進場系統	-3139
阿拉斯加	-3140
阿普利亞	-3141
青銅時代	-3142
顯而易見	-3143
飽受批評	-3144
5,000	-3145
colai	-3146
erber	-3147
georg	-3148
leive	-3149
rosos	-3150
▁1770	-3151
▁1832	-3152
▁1976	-3153
▁2011	-3154
▁2012	-3155
▁2015	-3156
▁film	-3157
▁博格達汗	-3158
▁它是一個	-3159
▁從公元前	-3160
▁研究人員	-3161
▁聯邦政府	-3162
▁與此同時	-3163
一些不同的	-3164
一直在尋找	-3165
伯戈因將軍	-3166
低海拔地區	-3167
候選人資格	-3168
全球最大的	-3169
北卡羅來納	-3170
和澳大利亞	-3171
和瓦倫蒂諾	-3172
在地中海的	-3173
天皇在位的	-3174
安第斯山脈	-3175
宗教信仰的	-3176
就是為什麼	-3177
巴拿馬地峽	-3178
年級的全國	-3179
必不可少的	-3180
應用到整個	-3181
撒哈拉沙漠	-3182
收益型基金	-3183
教人們如何	-3184
更令人擔憂	-3185
澳大利亞人	-3186
生命的最後	-3187
發生的機率	-3188
的地標燈塔	-3189
皈依猶太教	-3190
自己的政治	-3191
越來越多的	-3192
開放的心態	-3193
非洲撒海爾	-3194
高加索地區	-3195
caucas	-3196
dündar	-3197
lez▁an	-3198
potify	-3199
rastiz	-3200
▁carlo	-3201
▁克里斯托弗	-3202
不可思議的一	-3203
品種可以緩解	-3204
圖特摩斯三世	-3205
就會大概降低	-3206
現代西班牙語	-3207
男子高中入讀	-3208
男性激素避孕	-3209
自然資源保護	-3210
莫伊米爾一世	-3211
atalano	-3212
richard	-3213
terkorn	-3214
北朝鮮的高爾夫	-3215
奧林匹克運動會	-3216
氣體質量分類法	-3217
種子長成的植物	-3218
第一次世界大戰	-3219
給西雅那銀行的	-3220
績效工資和獎金	-3221
至十四歲的兒童	-3222
barrosos	-3223
canology	-3224
caucasus	-3225
facebook	-3226
orricone	-3227
▁nicolai	-3228
地面控制進場系統	-3229
安大略省的房地產	-3230
為歐洲低海拔地區	-3231
lez▁anaya	-3232
年級的全國平均水平	-3233
發生的機率就會大概降低	-3234
onzález▁anaya	-3235
阿爾卑斯山脈為歐洲低海拔地區	-3236
▁揭露	-3237
▁撤退	-3238
▁梅爾	-3239
▁蒂娜	-3240
▁誰能	-3241
▁週二	-3242
▁雷暴	-3243
上海和	-3244
上船的	-3245
不比在	-3246
不相同	-3247
不道德	-3248
不遠了	-3249
並賠償	-3250
中獨自	-3251
中詳細	-3252
中賺取	-3253
中都有	-3254
也推動	-3255
了演唱	-3256
亞聯軍	-3257
人曾在	-3258
人缺席	-3259
人見過	-3260
他激進	-3261
他霸占	-3262
他願意	-3263
付更多	-3264
但蓋耶	-3265
位資本	-3266
佩達爾	-3267
來祈禱	-3268
來計算	-3269
個港口	-3270
個男人	-3271
倫比的	-3272
像海外	-3273
克萊德	-3274
兵軍官	-3275
其關閉	-3276
別林斯	-3277
利選項	-3278
副武裝	-3279
力證據	-3280
募集的	-3281
北走向	-3282
又有意	-3283
取更多	-3284
受爭議	-3285
受疼痛	-3286
口葡萄	-3287
右肺的	-3288
名獲勝	-3289
名這片	-3290
和政黨	-3291
和林肯	-3292
和武器	-3293
和火箭	-3294
和穿戴	-3295
和索爾	-3296
和近海	-3297
和這片	-3298
員效忠	-3299
吉拉德	-3300
品批發	-3301
嗆肺的	-3302
在歡樂	-3303
在波蘭	-3304
在生者	-3305
在紐約	-3306
在網上	-3307
在達菲	-3308
在遠離	-3309
地打開	-3310
地旅行	-3311
地講述	-3312
基普林	-3313
塔拉諾	-3314
塔比的	-3315
士李維	-3316
大洲的	-3317
奧聯軍	-3318
女演員	-3319
字版的	-3320
它標誌	-3321
就關閉	-3322
年滅亡	-3323
年為止	-3324
幻時刻	-3325
底是誰	-3326
度考慮	-3327
彼拉多	-3328
很驚訝	-3329
從挪威	-3330
愚蠢內	-3331
感覺到	-3332
感覺是	-3333
成員大	-3334
成就展	-3335
成就獎	-3336
我排除	-3337
我擺脫	-3338
我會選	-3339
我都要	-3340
或在酒	-3341
戰鬥中	-3342
戴維斯	-3343
所接收	-3344
所謂的	-3345
所需的	-3346
手術和	-3347
才會被	-3348
打鬥和	-3349
把日出	-3350
拉尼西	-3351
拉迪亞	-3352
採集的	-3353
接收到	-3354
推特簡	-3355
推特賬	-3356
提及將	-3357
揭露後	-3358
摧毀的	-3359
擬定為	-3360
教皇方	-3361
數次挑	-3362
文以北	-3363
料的藥	-3364
斯死後	-3365
斯海峽	-3366
斯蒂芬	-3367
新聞說	-3368
族裔的	-3369
是其陳	-3370
是衣服	-3371
是近期	-3372
是這家	-3373
普林格	-3374
普爾市	-3375
暫停於	-3376
更注重	-3377
更為優	-3378
曾發揮	-3379
最深遠	-3380
最關心	-3381
會牧師	-3382
會被生	-3383
月的升	-3384
月的繁	-3385
月至二	-3386
有三棵	-3387
有抗議	-3388
有旅行	-3389
有貴族	-3390
未發育	-3391
未透露	-3392
本中演	-3393
本錄製	-3394
材料的	-3395
核武器	-3396
梅爾丁	-3397
條款退	-3398
棕櫚樹	-3399
▁幸運	-3400
▁幾十	-3401
人想要	-3402
六年間	-3403
和復興	-3404
地思考	-3405
幸運兔	-3406
幾十億	-3407
廣播和	-3408
廣播電	-3409
廳建於	-3410
很快就	-3411
很有趣	-3412
微小的	-3413
必要的	-3414
性別暴	-3415
性別歧	-3416
愚蠢至	-3417
有必要	-3418
棕櫚葉	-3419
槍殺了	-3420
標誌著	-3421
模型中	-3422
檢測不	-3423
權能在	-3424
歌手兼	-3425
正確組	-3426
此概念	-3427
段時刻	-3428
永不停	-3429
沃爾卡	-3430
河的俄	-3431
法令確	-3432
波檢測	-3433
波蘭及	-3434
注意到	-3435
洛克堅	-3436
流行緊	-3437
浮線的	-3438
海峽要	-3439
淺礁湖	-3440
添加免	-3441
湊車型	-3442
準確地	-3443
準確結	-3444
演員和	-3445
澳洲網	-3446
火車走	-3447
為期一	-3448
為每人	-3449
為童工	-3450
為野獸	-3451
煤電站	-3452
爾普爾	-3453
爾里希	-3454
片場後	-3455
版的聖	-3456
牧師拜	-3457
特德於	-3458
獨自一	-3459
環礁湖	-3460
生肖是	-3461
男人應	-3462
略高於	-3463
當針對	-3464
疏遠了	-3465
病病人	-3466
登離婚	-3467
發揮了	-3468
發育長	-3469
發送表	-3470
百分點	-3471
的宣言	-3472
的宣誓	-3473
的延續	-3474
的微小	-3475
的托利	-3476
的托爾	-3477
的期待	-3478
的歡樂	-3479
的注意	-3480
的滅亡	-3481
的爭論	-3482
的狀態	-3483
的瘋狂	-3484
的知識	-3485
的神壇	-3486
的神經	-3487
的科幻	-3488
的秘密	-3489
的細微	-3490
的細節	-3491
的結果	-3492
的結構	-3493
的經歷	-3494
的職位	-3495
的葬禮	-3496
的補助	-3497
的諾瑪	-3498
的證據	-3499
一局的	-3500
七年後	-3501
三年內	-3502
代年號	-3503
尬局面	-3504
局的特	-3505
展現了	-3506
展現的	-3507
崔絲一	-3508
崔絲已	-3509
工人提	-3510
差不多	-3511
差異大	-3512
帕克所	-3513
干預是	-3514
年在位	-3515
年是引	-3516
成年人	-3517
拉島和	-3518
斯市長	-3519
此局面	-3520
法就被	-3521
物平台	-3522
的賽車	-3523
的賽道	-3524
的身份	-3525
的追求	-3526
的這座	-3527
的遺跡	-3528
的黨內	-3529
真正共	-3530
真正有	-3531
確實很	-3532
祀遺跡	-3533
福德高	-3534
程序上	-3535
突變的	-3536
立石為	-3537
立足前	-3538
立足點	-3539
符拉迪	-3540
簡直是	-3541
系變的	-3542
紐約市	-3543
索爾海	-3544
經驗的	-3545
緊鄰色	-3546
總體的	-3547
繼承者	-3548
繼承順	-3549
羅拉多	-3550
羅河的	-3551
羅訥河	-3552
群島和	-3553
習慣法	-3554
習慣稱	-3555
老年人	-3556
而我寧	-3557
而被控	-3558
而食物	-3559
聊天軟	-3560
職變遷	-3561
肥料價	-3562
與其城	-3563
與謀殺	-3564
船員共	-3565
色體的	-3566
茲福德	-3567
萊茵河	-3568
著陸襟	-3569
葡萄牙	-3570
葬禮罪	-3571
蓄謙遜	-3572
薩拉託	-3573
薩米人	-3574
藉由完	-3575
虔誠所	-3576
行進到	-3577
術錯誤	-3578
衡量的	-3579
被徹底	-3580
被忽視	-3581
被投入	-3582
被遺忘	-3583
要么撤	-3584
要評估	-3585
要選出	-3586
規劃區	-3587
規劃署	-3588
視為有	-3589
解約後	-3590
言稱他	-3591
訥河谷	-3592
該獎項	-3593
誰能挑	-3594
請願書	-3595
謀殺罪	-3596
謙遜的	-3597
財務的	-3598
財務長	-3599
哥將會	-3600
塞密爾	-3601
她客串	-3602
官方自	-3603
審查主	-3604
寫作興	-3605
將會受	-3606
將能與	-3607
專業而	-3608
尋求與	-3609
小時後	-3610
為野生	-3611
的損失	-3612
超級英	-3613
超越它	-3614
軍軍官	-3615
較為少	-3616
轉而專	-3617
轉變和	-3618
轟炸了	-3619
轟炸機	-3620
辦公室	-3621
通知中	-3622
週六中	-3623
過農民	-3624
道德淪	-3625
那里為	-3626
部影片	-3627
部疼痛	-3628
部落和	-3629
部落在	-3630
都有其	-3631
都穿戴	-3632
醜聞被	-3633
醫療總	-3634
里或在	-3635
重現了	-3636
重現的	-3637
釙樣本	-3638
鏈接和	-3639
開支的	-3640
阿伯茨	-3641
阿特靈	-3642
隨時在	-3643
險的飆	-3644
雞永不	-3645
離婚後	-3646
雷戴維	-3647
預算赤	-3648
飲集團	-3649
馬死亡	-3650
騎兵在	-3651
鬥志昂	-3652
鬧劇和	-3653
鬧劇就	-3654
$150	-3655
,190	-3656
1903	-3657
1947	-3658
1948	-3659
avid	-3660
hina	-3661
iams	-3662
javi	-3663
ktel	-3664
k▁av	-3665
norm	-3666
nuck	-3667
pley	-3668
rump	-3669
t▁di	-3670
uena	-3671
vest	-3672
vine	-3673
zayi	-3674
£125	-3675
▁rei	-3676
▁str	-3677
▁sty	-3678
▁三島生	-3679
▁不擬定	-3680
▁他曾在	-3681
▁他的妹	-3682
▁傳統是	-3683
▁全球變	-3684
▁北京的	-3685
▁十月初	-3686
▁喬治為	-3687
▁國際可	-3688
▁在其範	-3689
▁在那兒	-3690
▁多瑙河	-3691
▁巴羅佐	-3692
▁後者在	-3693
▁或者說	-3694
▁投資在	-3695
▁日耳曼	-3696
▁曾發揮	-3697
▁有人曾	-3698
▁沒有人	-3699
但她說	-3700
在大火	-3701
天文台	-3702
太陽和	-3703
太陽眼	-3704
奇蹟和	-3705
契丹遼	-3706
奪回席	-3707
女巫之	-3708
她寫歌	-3709
她寫的	-3710
好評的	-3711
妥協協	-3712
妥善的	-3713
子安德	-3714
安娜亞	-3715
安德魯	-3716
容她為	-3717
小威廉	-3718
尼奪回	-3719
巧妙的	-3720
很失望	-3721
從太空	-3722
未完工	-3723
由官方	-3724
的女巫	-3725
的守護	-3726
與完工	-3727
莫夫在	-3728
著大麻	-3729
被妥善	-3730
▁然而對	-3731
▁第一小	-3732
▁第一版	-3733
▁第二季	-3734
▁第二年	-3735
▁舊金山	-3736
▁解約後	-3737
▁警察傻	-3738
▁賴特是	-3739
▁赫爾茨	-3740
▁這裡於	-3741
▁週二是	-3742
▁鑑於希	-3743
▁阿爾及	-3744
▁阿特靈	-3745
▁阿馬爾	-3746
▁馬德里	-3747
一個人呆	-3748
一定會懷	-3749
一發布的	-3750
一種更為	-3751
一致好評	-3752
一起探討	-3753
一部影片	-3754
一面是對	-3755
七大洲的	-3756
三年內貸	-3757
三百萬冊	-3758
三首歌曲	-3759
上進行的	-3760
不再願意	-3761
不在片場	-3762
不存在此	-3763
不應該就	-3764
不斷擴展	-3765
不比在尼	-3766
並未透露	-3767
並發布了	-3768
中扮演精	-3769
主持人克	-3770
之平行的	-3771
之後存活	-3772
也不會倒	-3773
也利用了	-3774
也在之後	-3775
也推動了	-3776
也留下了	-3777
了一場在	-3778
了使用單	-3779
了使用家	-3780
了所有七	-3781
了整個西	-3782
了腓尼基	-3783
了色雷斯	-3784
了西西里	-3785
了重大的	-3786
二十年內	-3787
五個港口	-3788
五百萬冊	-3789
些所謂的	-3790
人均收入	-3791
人想要阻	-3792
人數很少	-3793
人理事會	-3794
他已經拍	-3795
他的法令	-3796
他的真實	-3797
他自己近	-3798
代表著富	-3799
▁執行	-3800
了嚴格	-3801
和多元	-3802
嘗試在	-3803
嘗試著	-3804
嚴格的	-3805
四月在	-3806
四月襲	-3807
因而替	-3808
困擾著	-3809
在同一	-3810
執行官	-3811
基於政	-3812
塔爾梅	-3813
塞西亞	-3814
多於圍	-3815
多次的	-3816
大樓為	-3817
太平洋	-3818
是基於	-3819
源單元	-3820
的圖片	-3821
的多元	-3822
薩圖片	-3823
項團體	-3824
▁城市中	-3825
▁後者讓	-3826
什大樓為	-3827
代表著島	-3828
代表透露	-3829
令人驚訝	-3830
以奪回席	-3831
任職變遷	-3832
份關於該	-3833
休息環節	-3834
但最新的	-3835
但權力的	-3836
佈為野生	-3837
位置近海	-3838
作他激進	-3839
作曲家吉	-3840
作為食物	-3841
使用了原	-3842
使這兩個	-3843
來源於伯	-3844
來衡量的	-3845
來計算的	-3846
保持穩步	-3847
個系統在	-3848
傷阿伯茨	-3849
像海外資	-3850
億英鎊和	-3851
克萊恩沉	-3852
兒子安德	-3853
內地旅行	-3854
全克萊德	-3855
全副武裝	-3856
公共場合	-3857
公司損失	-3858
六年間失	-3859
六月至八	-3860
共同採取	-3861
其他人則	-3862
其他團體	-3863
兼匈牙利	-3864
冰島語中	-3865
出生於多	-3866
別林斯高	-3867
到底是誰	-3868
券會被生	-3869
前克萊恩	-3870
創作了六	-3871
劇打入了	-3872
加亞聯軍	-3873
勒斯蒂芬	-3874
動地講述	-3875
動物很少	-3876
動物還能	-3877
匈妥協協	-3878
匈牙利施	-3879
北愛爾蘭	-3880
十七年後	-3881
半島的後	-3882
南部緊鄰	-3883
卡塔拉諾	-3884
卡塔東部	-3885
卡洛斯四	-3886
印度洋的	-3887
去希羅底	-3888
去除空氣	-3889
又有意思	-3890
受好評的	-3891
受疼痛折	-3892
口葡萄酒	-3893
可持續到	-3894
可持續數	-3895
可疑的漏	-3896
可疑的現	-3897
史以來最	-3898
史達林接	-3899
▁同年	-3900
他同年	-3901
他周圍	-3902
傾向著	-3903
北海是	-3904
即將離	-3905
參賽者	-3906
反法西	-3907
取代了	-3908
叛軍的	-3909
史前手	-3910
向南走	-3911
否則會	-3912
告誡其	-3913
呼聲傳	-3914
和不來	-3915
在史密	-3916
她和她	-3917
就只能	-3918
底去除	-3919
從向著	-3920
從周圍	-3921
整合了	-3922
日參賽	-3923
適合了	-3924
避和不	-3925
都很有	-3926
中底去除	-3927
主要由古	-3928
作整合了	-3929
傾向著稱	-3930
北海是指	-3931
即使非常	-3932
反法同盟	-3933
古老歷史	-3934
史前手工	-3935
史密斯的	-3936
同上船的	-3937
同盟叛軍	-3938
向南推進	-3939
向飛行員	-3940
否則到了	-3941
含蓄謙遜	-3942
告誡不要	-3943
告誡其教	-3944
呼聲傳遍	-3945
和一系列	-3946
和不來梅	-3947
和中國等	-3948
和國民警	-3949
和多元高	-3950
和女演員	-3951
和林肯執	-3952
和法國在	-3953
和烏克蘭	-3954
和程序上	-3955
和腓尼基	-3956
品批發商	-3957
品牌首席	-3958
哈雷戴維	-3959
員效忠於	-3960
嗆肺的霧	-3961
嚴格的劍	-3962
四名學生	-3963
四月在蒙	-3964
回到火車	-3965
因糟糕的	-3966
圍內造成	-3967
圍限制在	-3968
在之後塑	-3969
在大火中	-3970
在好幾個	-3971
在最近的	-3972
在歡樂的	-3973
在沙漠裡	-3974
在等我們	-3975
在紐約州	-3976
在聖塞西	-3977
在通知中	-3978
在達菲的	-3979
地點符合	-3980
址都很有	-3981
均收入是	-3982
基於政績	-3983
基普林的	-3984
基督教的	-3985
塔斯一世	-3986
塞地區和	-3987
塞密爾於	-3988
增長率比	-3989
壇留下了	-3990
壞的情況	-3991
士不得不	-3992
士兵出現	-3993
士李維被	-3994
多數人毀	-3995
多於圍著	-3996
多於答案	-3997
多而食物	-3998
大多數席	-3999
▁南非	-4000
下加利	-4001
丶南非	-4002
但即使	-4003
來勢力	-4004
力協助	-4005
加工品	-4006
助理科	-4007
勞動力	-4008
化學浴	-4009
南亞祖	-4010
南亞種	-4011
博客撰	-4012
卡拉布	-4013
卡森已	-4014
的助理	-4015
穿南極	-4016
而十個	-4017
驅動力	-4018
下加利福	-4019
丶南非丶	-4020
了數千年	-4021
但即使是	-4022
來勢力間	-4023
克斯勳爵	-4024
再次流行	-4025
助理科瑞	-4026
化學浴徹	-4027
化的第一	-4028
化的語言	-4029
南亞祖先	-4030
南亞種植	-4031
南極大陸	-4032
博客撰稿	-4033
卡拉布里	-4034
卡拉皇帝	-4035
卡森已幾	-4036
在兩千年	-4037
大都會俱	-4038
天皇死後	-4039
太平洋的	-4040
太陽和滿	-4041
失望的人	-4042
女巫之槌	-4043
她在一個	-4044
她客串了	-4045
她寫的歌	-4046
她是反對	-4047
存活下來	-4048
季節性的	-4049
學者爭論	-4050
學院的學	-4051
它們的糞	-4052
它們符合	-4053
它為地區	-4054
它重現了	-4055
完成了撤	-4056
官方自傳	-4057
宣布獲勝	-4058
室內製作	-4059
實驗室是	-4060
寫作興致	-4061
將會受限	-4062
將能降低	-4063
將要來臨	-4064
專業人士	-4065
對他們註	-4066
對情侶了	-4067
對我們耍	-4068
小塊釙使	-4069
少數族裔	-4070
尤其是在	-4071
就檢測不	-4072
尷尬局面	-4073
局的特工	-4074
展現了強	-4075
展現的怠	-4076
岩島嶼則	-4077
崔絲已返	-4078
州的百分	-4079
巨額銀行	-4080
差不多是	-4081
差異大於	-4082
市長決定	-4083
希羅底的	-4084
帕克所說	-4085
帖中都有	-4086
師和紡織	-4087
帶來讓人	-4088
常的呼聲	-4089
年一樣的	-4090
年代初期	-4091
年代就在	-4092
年度調查	-4093
年後加入	-4094
年間領導	-4095
幾十億的	-4096
幾首歌曲	-4097
庫莫夫在	-4098
延續了多	-4099
中充分	-4100
優秀的	-4101
儲蓄和	-4102
克頓的	-4103
公國在	-4104
出於天	-4105
分鐘左	-4106
分離的	-4107
初選中	-4108
前線作	-4109
前進的	-4110
割讓給	-4111
力的呼	-4112
加利修	-4113
向前進	-4114
地制度	-4115
寫劇本	-4116
拉公國	-4117
最有名	-4118
的充分	-4119
的前線	-4120
認出來	-4121
重力的	-4122
釙分離	-4123
中充分讚	-4124
了分離的	-4125
他們兩人	-4126
他們兩者	-4127
伊斯內爾	-4128
債券全部	-4129
優步以及	-4130
優步公司	-4131
儲蓄賬戶	-4132
充滿希望	-4133
充滿意義	-4134
克斯兩次	-4135
克頓的黑	-4136
公主出現	-4137
公國在當	-4138
出於天真	-4139
出於管理	-4140
分鐘左右	-4141
初選中瑞	-4142
制度之前	-4143
前線作戰	-4144
力的呼籲	-4145
加低斯的	-4146
加利修正	-4147
反應出來	-4148
展覽公寓	-4149
建立生者	-4150
建設中的	-4151
建設看到	-4152
建議環節	-4153
引用他的	-4154
引用學者	-4155
形容她為	-4156
影響深遠	-4157
影響還未	-4158
很容易進	-4159
很快就破	-4160
很有趣的	-4161
後的意圖	-4162
後者同意	-4163
從未接觸	-4164
從而使得	-4165
御所需的	-4166
德國和納	-4167
德國官員	-4168
德國農民	-4169
徹底從中	-4170
心的機會	-4171
思主義的	-4172
性別暴力	-4173
性別歧視	-4174
性在兩個	-4175
恰當的儀	-4176
愚蠢至極	-4177
愛丁堡晚	-4178
感受到了	-4179
感覺是家	-4180
慰是可以	-4181
憶在生者	-4182
應用程序	-4183
成員大衛	-4184
成更注重	-4185
我排除在	-4186
我會感到	-4187
我覺得她	-4188
我都要坐	-4189
或在酒吧	-4190
或者說本	-4191
或至少能	-4192
戰役得以	-4193
戰役的學	-4194
戰後的柏	-4195
戰後的煩	-4196
所有的醫	-4197
手術才能	-4198
才能進去	-4199
▁假期	-4200
並保留	-4201
了使該	-4202
佔有下	-4203
你更煩	-4204
你的弱	-4205
使他對	-4206
使其更	-4207
使其與	-4208
來分配	-4209
來分隔	-4210
信號燈	-4211
修建所	-4212
做了省	-4213
停留時	-4214
到你的	-4215
地假設	-4216
情使他	-4217
會傷害	-4218
比你更	-4219
海保留	-4220
病傳播	-4221
的保障	-4222
的傷害	-4223
算佔領	-4224
警信號	-4225
黨保守	-4226
並保留了	-4227
也使其與	-4228
佔領古巴	-4229
作出通過	-4230
你更煩躁	-4231
你的弱項	-4232
使其更有	-4233
來分配的	-4234
來分隔兩	-4235
修建所耗	-4236
停留了八	-4237
在停留時	-4238
報警信號	-4239
導致債務	-4240
市場佔有	-4241
性情使他	-4242
打算佔領	-4243
打鬥和打	-4244
投入使用	-4245
拉博夫裸	-4246
拉美西斯	-4247
拉迪亞德	-4248
授權能在	-4249
排字版的	-4250
採取了多	-4251
接下來她	-4252
接到你的	-4253
推特簡訊	-4254
推特賬號	-4255
揚了使該	-4256
揭示了他	-4257
摧毀的市	-4258
擁有滿意	-4259
擔的人數	-4260
支付巨額	-4261
效的條件	-4262
教皇保羅	-4263
教皇方濟	-4264
數個小時	-4265
數次要求	-4266
文明均因	-4267
文明均在	-4268
料的藥丸	-4269
斯佩達爾	-4270
斯巴達在	-4271
方向前進	-4272
於活動中	-4273
於西方的	-4274
於馬德里	-4275
施普林格	-4276
日出生於	-4277
日期只能	-4278
早期發明	-4279
明會牧師	-4280
是一名漫	-4281
是一名臥	-4282
是其陳腐	-4283
是其領土	-4284
是否認識	-4285
是政府中	-4286
是政府最	-4287
時期出現	-4288
景使他對	-4289
更為優異	-4290
最有影響	-4291
最高溫度	-4292
會傷害小	-4293
會導致射	-4294
月的升起	-4295
月的繁殖	-4296
有一位敲	-4297
有些人在	-4298
有些國家	-4299
ugh	-4300
▁維加	-4301
▁維勒	-4302
上任的	-4303
乘坐纜	-4304
交了上	-4305
人乘坐	-4306
人休息	-4307
他將之	-4308
他會上	-4309
到他了	-4310
劣童工	-4311
擬人機	-4312
無人機	-4313
給他了	-4314
誕不經	-4315
類似的	-4316
pugh	-4317
▁維勒訥	-4318
世的女兒	-4319
乘坐纜車	-4320
交了上訴	-4321
人休息和	-4322
人數有所	-4323
人民共同	-4324
他也成了	-4325
他就承認	-4326
他就明白	-4327
他被給予	-4328
任的總統	-4329
但他拒絕	-4330
劣童工形	-4331
嫁給他了	-4332
擬人機器	-4333
新上任的	-4334
有利選項	-4335
有意在兩	-4336
有的作品	-4337
朝代年號	-4338
期的所謂	-4339
未出生的	-4340
未完工的	-4341
未發育的	-4342
末標誌著	-4343
本地勢力	-4344
染色體的	-4345
柔的一面	-4346
業的諾瑪	-4347
槍殺了蘇	-4348
歇的歡樂	-4349
歌曲是由	-4350
歐盟官員	-4351
正是這家	-4352
此概念叫	-4353
此次干預	-4354
歲的朱婷	-4355
歷史的書	-4356
歸而被控	-4357
死亡人口	-4358
每人平均	-4359
比你更有	-4360
比例一致	-4361
沒有見過	-4362
河流均有	-4363
法國在馬	-4364
法國據此	-4365
法就被推	-4366
法部部長	-4367
波的抗議	-4368
波蘭及波	-4369
洛克堅定	-4370
派系變的	-4371
流行緊密	-4372
浪的機會	-4373
海報能夠	-4374
海峽要道	-4375
深對人類	-4376
深的交通	-4377
深的平壤	-4378
準確結婚	-4379
滴從周圍	-4380
滿族統治	-4381
潘沃爾卡	-4382
澳洲網球	-4383
激烈的思	-4384
濟拉島和	-4385
災難性的	-4386
為中心的	-4387
為基礎的	-4388
為她寫歌	-4389
為拉博夫	-4390
烏爾里希	-4391
無法計算	-4392
煤電站也	-4393
營中獨自	-4394
爭取更多	-4395
爵位具有	-4396
片圍繞著	-4397
版本中演	-4398
牧師拜訪	-4399
中移除	-4400
主導的	-4401
之於人	-4402
之於常	-4403
了不少	-4404
了不管	-4405
了大公	-4406
了對心	-4407
事情上	-4408
互相調	-4409
五年婚	-4410
壞了它	-4411
是事實	-4412
會主席	-4413
本主演	-4414
解了它	-4415
轉了對	-4416
▁他主張	-4417
丑之於人	-4418
之於常人	-4419
也是全球	-4420
了不少便	-4421
了不管他	-4422
了十五年	-4423
了十年的	-4424
了大公牆	-4425
了對心理	-4426
二十世紀	-4427
互相調笑	-4428
五年婚約	-4429
你主導的	-4430
全是事實	-4431
參與了該	-4432
善會主席	-4433
將其主張	-4434
扭轉了對	-4435
擁有互相	-4436
物的期待	-4437
特拉公國	-4438
獨立寫作	-4439
獨自一人	-4440
獲獎建築	-4441
獲獎影片	-4442
現在是上	-4443
理和近海	-4444
甚至比在	-4445
生活的社	-4446
生肖是猴	-4447
用同樣的	-4448
用第三方	-4449
由法令確	-4450
當作提高	-4451
當年是引	-4452
當罕見的	-4453
疾病傳播	-4454
病人來說	-4455
瘤是一種	-4456
發生打鬥	-4457
發生率為	-4458
發育長期	-4459
白人男性	-4460
百五十萬	-4461
的人得以	-4462
的人數眾	-4463
的人而言	-4464
的人轉而	-4465
的內容更	-4466
的吉他手	-4467
的女巫琳	-4468
的安德魯	-4469
的帕爾馬	-4470
的志願者	-4471
的志願軍	-4472
的情況為	-4473
的托利黨	-4474
的技術來	-4475
的指揮權	-4476
的新公寓	-4477
的新形式	-4478
的梅爾丁	-4479
的正確組	-4480
的疑問也	-4481
的知識產	-4482
的破壞極	-4483
的祖母是	-4484
的第三方	-4485
的第二個	-4486
的系統和	-4487
的紀念碑	-4488
的結構和	-4489
的繼承者	-4490
的聊天軟	-4491
的著陸襟	-4492
的證據是	-4493
的賽車手	-4494
的轉變和	-4495
的飛行員	-4496
皇亞歷山	-4497
監管船隻	-4498
目前為止	-4499
上很勉	-4500
下面將	-4501
不久前	-4502
不合格	-4503
不合適	-4504
不大切	-4505
不想給	-4506
不想被	-4507
丘吉爾	-4508
丟了六	-4509
中吸收	-4510
中吸煙	-4511
了下來	-4512
對丘吉	-4513
撈上限	-4514
群中央	-4515
上很勉強	-4516
下了中央	-4517
下面將小	-4518
不久前剛	-4519
不合適的	-4520
不大切合	-4521
不想被賣	-4522
丘吉爾頒	-4523
丟了六分	-4524
中吸收並	-4525
其不合格	-4526
剩了下來	-4527
因此丟了	-4528
捕撈上限	-4529
新傳統是	-4530
法律中移	-4531
生中吸煙	-4532
目的是在	-4533
相信是上	-4534
相對較低	-4535
真正共處	-4536
短的時間	-4537
石材料的	-4538
石群中央	-4539
研究的實	-4540
砲兵軍官	-4541
破解了它	-4542
硬的一面	-4543
確實很可	-4544
磁浮線的	-4545
礦物資源	-4546
社發生了	-4547
祀遺跡由	-4548
福特公司	-4549
福的追求	-4550
科幻電影	-4551
科羅拉多	-4552
種罕見的	-4553
積極防衛	-4554
突變的數	-4555
立石為南	-4556
符拉迪沃	-4557
第一位在	-4558
第一位女	-4559
等城市中	-4560
節勞動力	-4561
簡直是太	-4562
系統添加	-4563
紀念碑和	-4564
組織優先	-4565
經過一些	-4566
經過近期	-4567
網上信息	-4568
緊鄰色雷	-4569
線的局勢	-4570
練工人提	-4571
總統想要	-4572
總體的鐵	-4573
缺席的人	-4574
羅娜發明	-4575
羅馬人把	-4576
美國公民	-4577
美國醫療	-4578
美拉尼西	-4579
美洲史前	-4580
美西斯在	-4581
而我寧願	-4582
而有給予	-4583
聯邦開支	-4584
聲波檢測	-4585
聽證會的	-4586
肥料價值	-4587
育的守護	-4588
背部疼痛	-4589
能使植物	-4590
能夠遠離	-4591
能接收到	-4592
自己即將	-4593
致命的一	-4594
與其城堡	-4595
與崔絲一	-4596
與西方的	-4597
與謀殺案	-4598
船的記錄	-4599
e▁z	-4600
twi	-4601
tzi	-4602
▁如峽	-4603
▁白色	-4604
▁相比	-4605
▁確保	-4606
▁確定	-4607
▁科朵	-4608
▁科隆	-4609
▁蘇伊	-4610
▁除此	-4611
一座大	-4612
一般因	-4613
三角洲	-4614
上並毀	-4615
濱一帶	-4616
站上並	-4617
anzi	-4618
an▁z	-4619
if▁y	-4620
twit	-4621
ötzi	-4622
▁yer	-4623
▁你必須	-4624
▁其警察	-4625
▁其重要	-4626
▁如峽灣	-4627
▁確保了	-4628
▁科朵拉	-4629
▁蘇伊士	-4630
一座大金	-4631
一般因矽	-4632
最高一座	-4633
東三角洲	-4634
海濱一帶	-4635
英國船隻	-4636
英格蘭和	-4637
荒誕不經	-4638
菩薩圖片	-4639
薩拉託加	-4640
薩米方言	-4641
藉由完成	-4642
藉由建立	-4643
虔誠所感	-4644
行中移除	-4645
行進到把	-4646
衛軍軍官	-4647
表示遺憾	-4648
被割讓給	-4649
被征服的	-4650
被當作籌	-4651
被遺忘了	-4652
西西里島	-4653
西部邊緣	-4654
要么成為	-4655
視為兩個	-4656
視為有生	-4657
觀的交易	-4658
角度考慮	-4659
角色擺脫	-4660
記本錄製	-4661
訪問了堪	-4662
設計師比	-4663
該系統在	-4664
詳細檢查	-4665
語版的聖	-4666
語的元素	-4667
調查四名	-4668
請願書的	-4669
論發生了	-4670
謀殺罪和	-4671
變為廢墟	-4672
谷最高的	-4673
貌的破壞	-4674
貝貝一起	-4675
財政監管	-4676
貿易港口	-4677
資金全部	-4678
資金投資	-4679
賓主持人	-4680
購物平台	-4681
贊助醜聞	-4682
超級英雄	-4683
軍隊摧毀	-4684
較為少見	-4685
輪到他了	-4686
轉而專心	-4687
轉變都是	-4688
辦公室景	-4689
近完成了	-4690
迴避和不	-4691
這也導致	-4692
這個假期	-4693
這個假設	-4694
這個顯然	-4695
這兩本書	-4696
通過平台	-4697
通過觀察	-4698
週六中午	-4699
bea	-4700
dpa	-4701
eit	-4702
gui	-4703
how	-4704
pap	-4705
pun	-4706
rsp	-4707
tur	-4708
ñez	-4709
▁衣服	-4710
2900	-4711
ba▁b	-4712
ctar	-4713
emic	-4714
erts	-4715
guil	-4716
igui	-4717
juan	-4718
jutt	-4719
lect	-4720
nott	-4721
onte	-4722
orie	-4723
papw	-4724
punt	-4725
rspb	-4726
spie	-4727
tsch	-4728
tube	-4729
turn	-4730
áñez	-4731
▁cif	-4732
他將允許	-4733
過去二十	-4734
道德淪喪	-4735
遜導演的	-4736
選出歷史	-4737
選活動中	-4738
還有布魯	-4739
還未結束	-4740
還沒決定	-4741
還能作為	-4742
還需要做	-4743
還需要對	-4744
邊緣形成	-4745
那年夏天	-4746
部件有所	-4747
部部長傑	-4748
都打平手	-4749
都有其含	-4750
里或在櫃	-4751
里的補助	-4752
重新掌權	-4753
重新錄製	-4754
重要養分	-4755
釙樣本的	-4756
鏈接和附	-4757
長出來的	-4758
開始的前	-4759
開普敦的	-4760
間站上並	-4761
闊的遺跡	-4762
關於該話	-4763
關進入了	-4764
阿特靈被	-4765
降低溫度	-4766
限的保護	-4767
除指揮權	-4768
隨時在您	-4769
險的飆升	-4770
集團已經	-4771
離婚後卻	-4772
雷暴報告	-4773
電影是由	-4774
電影海報	-4775
電源單元	-4776
非常滿意	-4777
靠的信息	-4778
預算赤字	-4779
預算超過	-4780
預言稱他	-4781
頭銜的人	-4782
風力發電	-4783
風格似的	-4784
餐飲集團	-4785
騎兵部隊	-4786
高爾夫球	-4787
髮通常是	-4788
鬆的歷史	-4789
鬥志昂揚	-4790
鬧劇和沈	-4791
黨保守派	-4792
龐培取得	-4793
,1904	-4794
,1994	-4795
,1996	-4796
30-10	-4797
beaul	-4798
david	-4799
56%	-4800
999	-4801
,999	-4802
1165	-4803
1340	-4804
1365	-4805
1882	-4806
1962	-4807
40%,	-4808
bach	-4809
城市每年	-4810
die▁z	-4811
eph▁b	-4812
estre	-4813
ettel	-4814
f▁the	-4815
gel▁p	-4816
horie	-4817
illic	-4818
immer	-4819
knuck	-4820
nan▁z	-4821
north	-4822
perts	-4823
punta	-4824
steph	-4825
strum	-4826
s▁sal	-4827
vigui	-4828
w▁mar	-4829
▁1075	-4830
▁1566	-4831
▁1856	-4832
▁1882	-4833
▁1896	-4834
▁1969	-4835
▁aviv	-4836
▁cifu	-4837
▁clar	-4838
▁di▁d	-4839
▁if▁y	-4840
▁maro	-4841
▁pugh	-4842
▁show	-4843
▁winh	-4844
▁三島生前	-4845
▁中國戰敗	-4846
▁他主張嚴	-4847
▁他也表示	-4848
▁他也討論	-4849
▁他的夢想	-4850
▁他警告說	-4851
▁他還指出	-4852
▁但在史密	-4853
▁但有旅行	-4854
▁位於歐洲	-4855
▁你必須受	-4856
▁假期期間	-4857
▁全球變暖	-4858
▁共和黨在	-4859
▁其他國家	-4860
▁卡塔拉諾	-4861
▁哈雷戴維	-4862
▁喬治為他	-4863
▁國際可再	-4864
▁在亞歷山	-4865
▁在其家庭	-4866
▁在十月初	-4867
▁執行機構	-4868
▁多族裔的	-4869
▁大多數人	-4870
▁大部分的	-4871
▁對羅馬人	-4872
▁希拉里向	-4873
▁希拉里的	-4874
▁後者在監	-4875
▁德國報紙	-4876
▁我的下一	-4877
▁投資在溢	-4878
▁接下來她	-4879
▁曾發揮出	-4880
▁有人預測	-4881
▁棲息地被	-4882
▁正如指出	-4883
▁歷史學家	-4884
▁沒有遊行	-4885
▁沙塵暴是	-4886
▁法國工人	-4887
▁潘沃爾卡	-4888
▁為了娛樂	-4889
▁然而對科	-4890
▁特別是在	-4891
▁特朗普的	-4892
▁瓦倫蒂諾	-4893
▁由於顧客	-4894
▁當時那里	-4895
▁目前的等	-4896
▁維勒訥沃	-4897
▁羅娜發明	-4898
▁聯合國回	-4899
人還可以	-4900
河附近的	-4901
特阿拉伯	-4902
球錦標賽	-4903
的阿拉伯	-4904
紅銅時代	-4905
還可以去	-4906
2015-	-4907
lucas	-4908
▁公元前五	-4909
▁在過去的	-4910
▁工業革命	-4911
▁紅銅時代	-4912
▁英國乃至	-4913
▁警方表示	-4914
▁赫爾茨心	-4915
▁農業用地	-4916
▁這個比例	-4917
▁這裡提供	-4918
▁通常由於	-4919
▁阿特靈結	-4920
▁除了他們	-4921
▁除了直接	-4922
▁除此之外	-4923
▁雖然直至	-4924
▁電影記錄	-4925
▁顯而易見	-4926
一位有貴族	-4927
一個百分點	-4928
一定會懷念	-4929
一樣的學生	-4930
一次降到了	-4931
一直保持著	-4932
一直圍繞著	-4933
一直在穩步	-4934
一部影片是	-4935
一面是成為	-4936
七百五十萬	-4937
三個平行的	-4938
三年內貸款	-4939
上並毀滅了	-4940
上很勉強的	-4941
上很重要的	-4942
上第一位女	-4943
上進行的旅	-4944
下所需要的	-4945
下的獨木舟	-4946
下面將小球	-4947
不全是事實	-4948
不大適合了	-4949
不太受歡迎	-4950
不存在爭議	-4951
不應該就任	-4952
不比在尼羅	-4953
丑之於人性	-4954
世界大戰戰	-4955
世界廣播電	-4956
世的劇作家	-4957
丘吉爾頒布	-4958
並在重力的	-4959
並數次要求	-4960
並未透露多	-4961
並賠償實行	-4962
中反應出來	-4963
中國不得不	-4964
中底去除角	-4965
中扮演精神	-4966
中發現的最	-4967
中詳細探討	-4968
主要由移民	-4969
之前的疑問	-4970
之平行的博	-4971
之間的交易	-4972
之間的防衛	-4973
乘坐纜車穿	-4974
也不會倒退	-4975
也利用了她	-4976
也在之後和	-4977
也正是這家	-4978
也開始哭泣	-4979
乾旱地區和	-4980
了一所學校	-4981
了一系列長	-4982
了不少便宜	-4983
了他未來的	-4984
了使用家用	-4985
了對心理學	-4986
了所有七個	-4987
了整個領域	-4988
了自己的政	-4989
了迦南人的	-4990
事情就已經	-4991
互相調笑和	-4992
五人理事會	-4993
五個港口向	-4994
亞加亞聯軍	-4995
人們習慣稱	-4996
人有意在兩	-4997
人民共同的	-4998
人民共和國	-4999
▁約瑟夫	-5000
▁而不是	-5001
他補充道	-5002
克薩斯州	-5003
士補充道	-5004
她被指控	-5005
於芬蘭語	-5006
是芬蘭語	-5007
現被稱為	-5008
羅解釋說	-5009
菲利普五	-5010
菲利普召	-5011
行為的限	-5012
被認為能	-5013
說明了這	-5014
迪士尼寫	-5015
迪士尼的	-5016
運動會將	-5017
還被指控	-5018
▁當西格爾	-5019
▁而不是把	-5020
人物的期待	-5021
人見過這些	-5022
人還可以享	-5023
人類經驗的	-5024
他不想被賣	-5025
他們才會被	-5026
他們最關心	-5027
他們至少能	-5028
他周圍人的	-5029
他在那里為	-5030
他宣布破產	-5031
他將之描述	-5032
他採取了多	-5033
他會上大學	-5034
他的妻子愛	-5035
他被給予了	-5036
付更多責任	-5037
代表了公民	-5038
代表了日常	-5039
以奪回席位	-5040
任的總統尤	-5041
但他並不是	-5042
但如果形式	-5043
但蓋耶已經	-5044
位於北部的	-5045
位資本支出	-5046
住在帕爾馬	-5047
佔有下埃及	-5048
佛羅里達州	-5049
作曲家吉姆	-5050
使用了原創	-5051
使這兩個敵	-5052
來分隔兩地	-5053
來到片場後	-5054
來源於伯納	-5055
來源於去年	-5056
例如萊茵河	-5057
便還能作為	-5058
保全克萊德	-5059
保持著關鍵	-5060
保障消費者	-5061
個男人告訴	-5062
候選人薩拉	-5063
做了省警察	-5064
健康醫療總	-5065
傑濟拉島和	-5066
優秀的助手	-5067
充滿意義的	-5068
先生在七月	-5069
克圖特摩斯	-5070
克斯兩次被	-5071
克萊恩沉默	-5072
克頓的黑暗	-5073
內代理人的	-5074
兩位劇作家	-5075
公司就只能	-5076
公國在當今	-5077
公眾為他們	-5078
六年間失業	-5079
其他事情上	-5080
其他人則讚	-5081
其作為主要	-5082
其北部區域	-5083
其展覽公寓	-5084
其後出現在	-5085
其關閉原因	-5086
凱拉的嬰兒	-5087
凱撒的宣言	-5088
凱爾特海和	-5089
出現了破裂	-5090
出生的月份	-5091
利卡塔東部	-5092
利塞地區和	-5093
利用了河流	-5094
到了好幾個	-5095
到目前為止	-5096
券會被生成	-5097
刺傷阿伯茨	-5098
前往契丹遼	-5099
▁消費者	-5100
億的選民	-5101
好的人才	-5102
工的工作	-5103
掉的時候	-5104
晨的行動	-5105
某程度上	-5106
法蘭西的	-5107
的社會住	-5108
的選民有	-5109
茨的成功	-5110
記的選民	-5111
重的社會	-5112
頓的支持	-5113
事件發生在	-5114
俄國的所有	-5115
億的選民投	-5116
克斯洛伐克	-5117
前進的德國	-5118
剩下了中央	-5119
創作了六部	-5120
創作了歌曲	-5121
加低斯的圖	-5122
勒牧師拜訪	-5123
勝餐飲集團	-5124
勞工的工作	-5125
匈牙利施壓	-5126
化的第一階	-5127
北京的立法	-5128
北部區域亦	-5129
十年內成為	-5130
南部緊鄰的	-5131
博客中寫道	-5132
卡唱片公司	-5133
卡拉布里亞	-5134
卡鬆的歷史	-5135
印度西北部	-5136
危機顯示了	-5137
即約公元前	-5138
去了葡萄牙	-5139
去希羅底那	-5140
參與不道德	-5141
又再次流行	-5142
及其船員共	-5143
及新傳統是	-5144
反應說明了	-5145
反法西斯的	-5146
受疼痛折磨	-5147
受社會主義	-5148
叛亂的收益	-5149
叛亂的發生	-5150
叛軍的軍事	-5151
古老歷史資	-5152
只有在美國	-5153
可歸而被控	-5154
可疑的漏洞	-5155
可疑的現金	-5156
可靠的信息	-5157
史以來最低	-5158
史密斯的科	-5159
史達林接替	-5160
右肺的腫瘤	-5161
司法部部長	-5162
合作完成的	-5163
合法葬禮罪	-5164
合理地假設	-5165
吉卜林很大	-5166
吉拉德女士	-5167
同樣的鬥志	-5168
同盟叛軍於	-5169
名獲勝之前	-5170
名這片土地	-5171
向埃及法老	-5172
向獨立寫作	-5173
否則會非常	-5174
告誡不要採	-5175
告誡其教徒	-5176
呼聲傳遍了	-5177
和五百萬冊	-5178
和他的妻子	-5179
和卡森已幾	-5180
和女演員葛	-5181
和平的友誼	-5182
和歷史組成	-5183
和烏克蘭的	-5184
和監管船隻	-5185
和福特公司	-5186
和穿戴別人	-5187
和貝貝一起	-5188
哥將會有一	-5189
商學院的學	-5190
問題的法國	-5191
問題的激增	-5192
善會主席喬	-5193
嘉砲兵軍官	-5194
嘉賓主持人	-5195
四名學生髮	-5196
四月在蒙特	-5197
回舊殖民地	-5198
因為這兩個	-5199
動摩托車	-5200
博格達汗	-5201
場比賽中	-5202
塔會見了	-5203
季斯拉夫	-5204
形成了凍	-5205
形成了月	-5206
我們在主	-5207
投資者們	-5208
摩托車越	-5209
摩托車頭	-5210
斯拉夫人	-5211
新法蘭西	-5212
明顯的分	-5213
是投資者	-5214
是明顯的	-5215
更多的捐	-5216
會見了希	-5217
次戰爭中	-5218
邊最大的	-5219
▁新法蘭西	-5220
了使用單一	-5221
作整合了過	-5222
公園東南部	-5223
可能有助於	-5224
同時會獲得	-5225
因而登上了	-5226
困擾的日子	-5227
國際比賽中	-5228
在一個工作	-5229
在他的電影	-5230
在公元前約	-5231
在公共場合	-5232
在前線作戰	-5233
在大火中被	-5234
在最近的訪	-5235
在東三角洲	-5236
在格拉斯哥	-5237
在波蘭放棄	-5238
在約公元前	-5239
在聖塞西莉	-5240
地保持穩步	-5241
地剩了下來	-5242
地形成了凍	-5243
地思考未來	-5244
地理和近海	-5245
地表的細微	-5246
址都很有名	-5247
坎伯蘭公爵	-5248
城市每年有	-5249
基於政績的	-5250
塔比的個人	-5251
壇留下了光	-5252
外來勢力間	-5253
多於圍著我	-5254
大眾的注意	-5255
大約是清朝	-5256
大部分的班	-5257
大都會俱樂	-5258
大都會城市	-5259
天氣預報中	-5260
奧匈妥協協	-5261
奧古斯塔斯	-5262
奧爾尼奪回	-5263
奧聯軍感到	-5264
奧運會是在	-5265
女士和這片	-5266
女士補充道	-5267
她和她與其	-5268
她是反對欺	-5269
她被指控兩	-5270
妥善的健康	-5271
妻子也開始	-5272
威爾斯市長	-5273
子之於常人	-5274
存活下來時	-5275
學校受到了	-5276
學生被告知	-5277
它們的相似	-5278
它重現了冷	-5279
安塞密爾於	-5280
安慰是可以	-5281
安東尼霸占	-5282
官在達菲的	-5283
定它們符合	-5284
宣佈為野生	-5285
室內製作動	-5286
實際完成的	-5287
實驗的結果	-5288
寫作興致勢	-5289
將其主張的	-5290
將能與巴西	-5291
專家警告說	-5292
尋求與猶太	-5293
對丘吉爾的	-5294
對人類社會	-5295
對他們來說	-5296
對他們註冊	-5297
對埃爾多安	-5298
對尼古拉斯	-5299
地連	-5300
奧茲	-5301
引力	-5302
沙爾	-5303
科屬	-5304
紅細	-5305
若有	-5306
莎拉	-5307
衛冕	-5308
輸三	-5309
了衛冕	-5310
人奧茲	-5311
但若有	-5312
心引力	-5313
手莎拉	-5314
沙漠荒	-5315
紅細胞	-5316
輸三局	-5317
▁奧巴馬	-5318
▁布沙爾	-5319
▁我喜歡	-5320
但若有云	-5321
冰人奧茲	-5322
及希臘的	-5323
地心引力	-5324
天主教教	-5325
奧地利下	-5326
奧巴馬對	-5327
奧斯卡終	-5328
安東尼奧	-5329
對美國有	-5330
對美國的	-5331
對美國第	-5332
已經在維	-5333
希臘的沿	-5334
希臘的集	-5335
從未有人	-5336
撞導致的	-5337
植物科屬	-5338
沙漠荒島	-5339
的電影刻	-5340
選手莎拉	-5341
電子郵件	-5342
震驚地連	-5343
非常注重	-5344
▁奧巴馬嘲	-5345
▁我喜歡把	-5346
了衛冕冠軍	-5347
伊冰人奧茲	-5348
但若有云層	-5349
但這將會在	-5350
古希臘的集	-5351
培育的守護	-5352
天主教教義	-5353
天主教聯盟	-5354
奧地利下部	-5355
奧地利皇帝	-5356
奧巴馬對在	-5357
奧斯卡終身	-5358
女士已經在	-5359
子選手莎拉	-5360
安東尼宣布	-5361
將會在六月	-5362
對尼羅河的	-5363
對情侶可以	-5364
對派系變的	-5365
對美國有害	-5366
就像大多數	-5367
就是拿破崙	-5368
就檢測不到	-5369
尼特拉公國	-5370
屬部件有所	-5371
山任職變遷	-5372
岡法律中移	-5373
岩島嶼則如	-5374
工作奠定了	-5375
工作時間中	-5376
工業革命都	-5377
巨大的增長	-5378
已經在學校	-5379
已經在維多	-5380
已經疏遠了	-5381
巴庫莫夫在	-5382
巴拿馬總督	-5383
巴爾幹同盟	-5384
巴達爾普爾	-5385
布什大樓為	-5386
布朗特擔任	-5387
希望即將離	-5388
希臘字母表	-5389
希臘的沿海	-5390
師和紡織業	-5391
帶來了一場	-5392
常染色體的	-5393
年在三十年	-5394
年度調查還	-5395
年後加入北	-5396
年春天告終	-5397
年的專業而	-5398
幸的是再次	-5399
▁五	-5400
▁樞	-5401
▁漢	-5402
中把	-5403
伊雷	-5404
僅有	-5405
光燈	-5406
卡捷	-5407
在房	-5408
將它	-5409
後都	-5410
月上	-5411
格和	-5412
歸咎	-5413
然後	-5414
的警	-5415
範疇	-5416
羅密	-5417
羅曼	-5418
過時	-5419
金門	-5420
閒逛	-5421
麗葉	-5422
53%	-5423
▁五月	-5424
▁審查	-5425
▁樞密	-5426
▁漢斯	-5427
以自由	-5428
伊雷娜	-5429
光燈下	-5430
卡捷琳	-5431
在將它	-5432
在房間	-5433
它們是	-5434
月上映	-5435
格和姬	-5436
歸咎於	-5437
然後是	-5438
的警官	-5439
羅密歐	-5440
羅曼諾	-5441
茱麗葉	-5442
這一天	-5443
▁樞密院	-5444
中把責任	-5445
以自由州	-5446
信伊雷娜	-5447
協議之後	-5448
卡捷琳娜	-5449
在將它從	-5450
在房間裡	-5451
她是不是	-5452
後都可以	-5453
格和姬絲	-5454
猜測僅僅	-5455
羅密歐與	-5456
羅曼諾夫	-5457
聚光燈下	-5458
街上閒逛	-5459
過時兩年	-5460
金門公園	-5461
▁喬治極度	-5462
▁審查處理	-5463
▁樞密院議	-5464
僅有的一個	-5465
問她是不是	-5466
在街上閒逛	-5467
城市的警官	-5468
它們是非洲	-5469
幸運兔奧斯	-5470
幻時刻至少	-5471
幾乎沒有借	-5472
府代理人的	-5473
座青銅時代	-5474
廣受好評的	-5475
廣闊的遺跡	-5476
建立生者與	-5477
建議讓羅娜	-5478
強制受洗有	-5479
形成了東非	-5480
影響最深遠	-5481
很令人驚訝	-5482
很可能是指	-5483
很快得到了	-5484
很有趣的求	-5485
從中世紀中	-5486
從向著他的	-5487
從哪兒來的	-5488
從挪威南部	-5489
從未接觸過	-5490
從未有人用	-5491
御所需的技	-5492
復興時期的	-5493
徵收的最高	-5494
德克薩斯州	-5495
德發現大陸	-5496
快速地打開	-5497
怎麼樣才能	-5498
性別歧視者	-5499
伊夫	-5500
像和	-5501
共享	-5502
國籍	-5503
德加	-5504
德川	-5505
放下	-5506
星際	-5507
漫威	-5508
相反	-5509
組建	-5510
證實	-5511
躍奇	-5512
遨遊	-5513
部內	-5514
霍爾	-5515
s▁p	-5516
▁放下	-5517
像和文	-5518
利亞在	-5519
在三個	-5520
埃德加	-5521
導演加	-5522
德川家	-5523
越經常	-5524
躍奇緣	-5525
那麼有	-5526
▁埃德加	-5527
▁放下麥	-5528
代導演加	-5529
像在三個	-5530
利亞在該	-5531
圖像和文	-5532
安全部內	-5533
害人曾在	-5534
就越經常	-5535
德川家康	-5536
數據證實	-5537
星際遨遊	-5538
比河的俄	-5539
漫威系列	-5540
維亞國籍	-5541
那麼有獎	-5542
魚躍奇緣	-5543
ris▁p	-5544
▁放下麥克	-5545
代導演加斯	-5546
像在三個朝	-5547
利亞在該強	-5548
在美國軍隊	-5549
德川家康的	-5550
惡劣童工形	-5551
意味著他們	-5552
意味著需要	-5553
意圖是什麼	-5554
慶祝他們的	-5555
應可持續到	-5556
成年人中有	-5557
我們在積極	-5558
我們會繼續	-5559
我們的日常	-5560
我已經完全	-5561
我排除在外	-5562
我沒有見過	-5563
我都要坐牢	-5564
或唱片公司	-5565
或是明顯的	-5566
或組織優先	-5567
或者說本應	-5568
或至少能減	-5569
戰役的學術	-5570
戰線的局勢	-5571
戰鬥中表現	-5572
所以我就像	-5573
扭轉了對抗	-5574
批發方面的	-5575
承擔更多的	-5576
技術提出了	-5577
把日出標記	-5578
把路途時間	-5579
投資人極度	-5580
投資者們成	-5581
投資者投資	-5582
拉博夫裸體	-5583
拉的嬰兒的	-5584
拉美西斯二	-5585
拉迪亞德吉	-5586
拿出自己的	-5587
拿破崙確信	-5588
排除其他人	-5589
接下來的多	-5590
接受了治療	-5591
接著建立了	-5592
接觸的主要	-5593
推特簡訊上	-5594
提供財務的	-5595
揭示了他對	-5596
揭示了他的	-5597
揭露後的那	-5598
摩托車越野	-5599
不慌	-5600
也少	-5601
天線	-5602
年納	-5603
斯轉	-5604
晚將	-5605
用輪	-5606
的反	-5607
的玫	-5608
角的	-5609
谷的	-5610
鋼琴	-5611
限額	-5612
不慌不	-5613
主角的	-5614
也少了	-5615
今晚將	-5616
來稱呼	-5617
們的姨	-5618
台鋼琴	-5619
因此在	-5620
年納斯	-5621
斯轉身	-5622
會在度	-5623
極天線	-5624
的玫瑰	-5625
盜用輪	-5626
矽谷的	-5627
illa	-5628
不慌不忙	-5629
們的姨媽	-5630
偶極天線	-5631
公眾的反	-5632
四台鋼琴	-5633
年納斯卡	-5634
教堂通常	-5635
最後還是	-5636
最高限額	-5637
會在度過	-5638
每個島嶼	-5639
為主角的	-5640
特別是議	-5641
獎的殊榮	-5642
瑟斯轉身	-5643
矽谷的還	-5644
villa	-5645
▁最高限額	-5646
▁這個世界	-5647
▁週二是動	-5648
不慌不忙地	-5649
也少了很多	-5650
今晚將使用	-5651
公司的選擇	-5652
勝利的玫瑰	-5653
和公眾的反	-5654
因此在各種	-5655
她們的姨媽	-5656
摩納哥提供	-5657
摩納哥條約	-5658
撒及希臘的	-5659
擁有滿意的	-5660
擔任財務長	-5661
擬人機器人	-5662
擬定為羅馬	-5663
收到了美國	-5664
改用第三方	-5665
放的人得以	-5666
政府科學家	-5667
政府開支的	-5668
政權轉移能	-5669
教堂通常在	-5670
教皇方濟各	-5671
斯巴達在伯	-5672
斯拉夫人於	-5673
斯洛伐克西	-5674
於西方的蠅	-5675
早前克萊恩	-5676
早至公元前	-5677
明會牧師海	-5678
明顯的抵抗	-5679
是一名漫畫	-5680
是一名臥底	-5681
是一項團體	-5682
是不合適的	-5683
是因為缺少	-5684
是投資者喜	-5685
是政府最不	-5686
是由於印度	-5687
是芬蘭語和	-5688
是購物平台	-5689
時不在片場	-5690
時丟了六分	-5691
晨的行動中	-5692
更多的工作	-5693
更多的捐獻	-5694
更好地保護	-5695
曼谷最高的	-5696
曾因糟糕的	-5697
曾經發生在	-5698
最壞的情況	-5699
55	-5700
一心	-5701
上煽	-5702
分裂	-5703
寡婦	-5704
峰後	-5705
年格	-5706
得票	-5707
是按	-5708
枝主	-5709
業巔	-5710
片於	-5711
的花	-5712
義與	-5713
華的	-5714
蕩者	-5715
通姦	-5716
一心一	-5717
上煽動	-5718
人通姦	-5719
奢華的	-5720
屬名為	-5721
是按照	-5722
棕枝主	-5723
正義與	-5724
的花花	-5725
職業巔	-5726
該片於	-5727
議會演	-5728
遊蕩者	-5729
▁該法律	-5730
一心一意	-5731
合議會演	-5732
土耳其總	-5733
宣布得票	-5734
寡婦安娜	-5735
年格拉夫	-5736
政府分裂	-5737
是一個嵌	-5738
當屬名為	-5739
的花花公	-5740
而且它們	-5741
與人通姦	-5742
▁1955	-5743
▁該法律規	-5744
上煽動性的	-5745
並宣布得票	-5746
到達職業巔	-5747
合議會演講	-5748
土耳其總理	-5749
奢華的花費	-5750
導致的法律	-5751
年格拉夫頓	-5752
是一個嵌入	-5753
是按照中國	-5754
曝與人通姦	-5755
最新的事件	-5756
最有可能在	-5757
最有可能從	-5758
最有影響力	-5759
最近的一次	-5760
最高一座高	-5761
會導致射擊	-5762
會獲得成功	-5763
會見了希特	-5764
會見了技術	-5765
會議中心的	-5766
有一段時刻	-5767
有了分離的	-5768
有人轟炸了	-5769
有相似之處	-5770
有著重大的	-5771
有關被征服	-5772
有限的保護	-5773
未來的目標	-5774
板塊斷層上	-5775
某種程度上	-5776
柴油價格為	-5777
根相信是上	-5778
格來分配的	-5779
格和姬絲汀	-5780
梅飽受批評	-5781
條約的延續	-5782
棕枝主日的	-5783
業生成就展	-5784
業的諾瑪城	-5785
極其不合格	-5786
槍殺了蘇台	-5787
樂命令不得	-5788
模糊的細節	-5789
權力的遊戲	-5790
欺詐的新聞	-5791
歐洲人探索	-5792
正義與發展	-5793
此局面有所	-5794
此概念叫做	-5795
歲的參賽者	-5796
歷史的南部	-5797
母語版的聖	-5798
每個奇蹟和	-5799
伽巴	-5800
共通	-5801
她兩	-5802
學說	-5803
招聘	-5804
漢日	-5805
無寸	-5806
片人	-5807
總的	-5808
繆爾	-5809
諾克	-5810
謹慎	-5811
重大	-5812
閣的	-5813
833	-5814
ado	-5815
丁漢日	-5816
人們小	-5817
伽巴佐	-5818
內閣的	-5819
公爵被	-5820
共通的	-5821
夠謹慎	-5822
她兩歲	-5823
工作日	-5824
席法院	-5825
手無寸	-5826
白來說	-5827
的地點	-5828
的多樣	-5829
總的銷	-5830
製片人	-5831
論諾克	-5832
這次與	-5833
里繆爾	-5834
tado	-5835
一個招聘	-5836
丁漢日報	-5837
不夠謹慎	-5838
人們小心	-5839
伽巴佐斯	-5840
出席法院	-5841
坦白來說	-5842
基里繆爾	-5843
將手無寸	-5844
對內閣的	-5845
工作日表	-5846
森公爵被	-5847
歐的地點	-5848
爾的學說	-5849
環境變化	-5850
的多樣性	-5851
總的銷量	-5852
這次與以	-5853
重大回歸	-5854
人們小心翼	-5855
出席法院的	-5856
南歐的地點	-5857
在對內閣的	-5858
她兩歲大的	-5859
它們共通的	-5860
將手無寸鐵	-5861
托爾的學說	-5862
拉森公爵被	-5863
時不夠謹慎	-5864
毛髮通常是	-5865
氣中吸收並	-5866
沒明顯的分	-5867
沙皇亞歷山	-5868
河流均來自	-5869
河流均有源	-5870
法克斯勳爵	-5871
法國在馬倫	-5872
法國據此為	-5873
法蘭西的伊	-5874
波蘭及波羅	-5875
洛士不得不	-5876
派傾向著稱	-5877
海岸附近的	-5878
準確地表達	-5879
溫柔的一面	-5880
演員和員工	-5881
漿一般因矽	-5882
激烈的地區	-5883
激烈的思想	-5884
為他的電影	-5885
為對的靈感	-5886
然後是星期	-5887
煤電站也將	-5888
熟練工人提	-5889
熱的吉他手	-5890
父親的葬禮	-5891
爾斯被認為	-5892
爾變得更加	-5893
片和印第安	-5894
特別規劃區	-5895
特阿拉伯國	-5896
特點是衣服	-5897
犯了重大的	-5898
獨立審查主	-5899
▁金	-5900
了四	-5901
但要	-5902
停止	-5903
價的	-5904
典型	-5905
多約	-5906
學位	-5907
小金	-5908
會和	-5909
款機	-5910
用品	-5911
還聲	-5912
▁金正	-5913
了四座	-5914
些歷史	-5915
但要學	-5916
取款機	-5917
士學位	-5918
多約夫	-5919
小金人	-5920
帕爾雷	-5921
油價的	-5922
老會和	-5923
人的典型	-5924
他回到了	-5925
元老會和	-5926
動取款機	-5927
學習用品	-5928
完全停止	-5929
座小金人	-5930
生活水平	-5931
碩士學位	-5932
還聲稱他	-5933
難以實現	-5934
▁第一版只	-5935
▁那些歷史	-5936
▁金正日的	-5937
七座小金人	-5938
了四座市場	-5939
但要學文學	-5940
加勒比海域	-5941
動取款機取	-5942
和生活水平	-5943
多約夫承擔	-5944
工業革命比	-5945
已完全停止	-5946
提高油價的	-5947
獨立的民族	-5948
現在是上演	-5949
瑞典的托爾	-5950
瑞典的研究	-5951
環境規劃署	-5952
環境變化上	-5953
生動地講述	-5954
生活的實際	-5955
生活的社區	-5956
用名字稱呼	-5957
用恰當的儀	-5958
用的聊天軟	-5959
由一座大金	-5960
由官方建立	-5961
由於被指控	-5962
由法令確定	-5963
由滿族統治	-5964
當地舊金山	-5965
當增長率比	-5966
瘤是一種在	-5967
登的梅爾丁	-5968
發揮了關鍵	-5969
發生變化了	-5970
發起一系列	-5971
發電機停運	-5972
白人男性身	-5973
的一次進行	-5974
的中華民國	-5975
的人數眾多	-5976
的人物一樣	-5977
的人物形象	-5978
的休息環節	-5979
的偶極天線	-5980
的充分準備	-5981
的另一主題	-5982
的圖片之間	-5983
的地標建築	-5984
的城市發展	-5985
的多元目標	-5986
的女巫琳達	-5987
的建議環節	-5988
的微小變化	-5989
的德國和納	-5990
的志願者就	-5991
的情況為其	-5992
的想法仍舊	-5993
的應用程序	-5994
的所有內容	-5995
的所有指控	-5996
的摩托車頭	-5997
的方向前進	-5998
的是在快速	-5999
▁萊	-6000
▁迪	-6001
扎於	-6002
打著	-6003
日和	-6004
畫掙	-6005
的觀	-6006
著火	-6007
霍默	-6008
▁萊尼	-6009
▁迪希	-6010
午的觀	-6011
恐怖的	-6012
戲劇性	-6013
扎於母	-6014
打著光	-6015
是霍默	-6016
有人就	-6017
材的那	-6018
死於艾	-6019
氣候與	-6020
法庭受	-6021
發生瞭	-6022
的組織	-6023
還有人	-6024
都屬於	-6025
▁迪希邦	-6026
下午的觀	-6027
並死於艾	-6028
恐怖的風	-6029
扎於母子	-6030
打著光棍	-6031
法庭受審	-6032
的組織中	-6033
突然著火	-6034
認為古典	-6035
還有人有	-6036
鋼材的那	-6037
院發生瞭	-6038
▁cran	-6039
▁在有人就	-6040
▁萊尼一直	-6041
▁迪希邦登	-6042
下午的觀賞	-6043
並死於艾滋	-6044
便工作環境	-6045
具有戲劇性	-6046
區的氣候與	-6047
恐怖的風琴	-6048
根鋼材的那	-6049
的最高法庭	-6050
的有利選項	-6051
的死亡人口	-6052
的比例一致	-6053
的流行緊密	-6054
的發育長期	-6055
的破壞極大	-6056
的神壇地位	-6057
的科幻故事	-6058
的職位也被	-6059
的花花公子	-6060
的著陸襟翼	-6061
的行動告訴	-6062
的要求作出	-6063
的警方表示	-6064
的轉變和新	-6065
的還有布魯	-6066
的阿拉伯起	-6067
的黨內初選	-6068
盛頓的私人	-6069
目擊者告訴	-6070
目標是霍默	-6071
看作他激進	-6072
真正有地位	-6073
知道戴維斯	-6074
矽谷的還要	-6075
研究的平均	-6076
碰撞導致的	-6077
碳的技術來	-6078
確實很可怕	-6079
礦物資源尤	-6080
祀遺跡由一	-6081
科斯佩達爾	-6082
科羅拉多州	-6083
秘密訪問了	-6084
種族主義者	-6085
稿風格似的	-6086
突變的數目	-6087
節都有其含	-6088
範圍限制在	-6089
簡直是太仁	-6090
糟糕的狀況	-6091
系統添加到	-6092
系統的成功	-6093
約十七年後	-6094
約瑟夫一世	-6095
紅細胞中的	-6096
組建自己的	-6097
絕大多數席	-6098
絲共同出演	-6099
來遲	-6100
兩首	-6101
厲的	-6102
嚴冬	-6103
往田	-6104
橫向	-6105
洛而	-6106
界限	-6107
精度	-6108
跑道	-6109
辨率	-6110
運中	-6111
領了	-6112
▁嚴冬	-6113
公司向	-6114
分辨率	-6115
占領了	-6116
嚴厲的	-6117
她為患	-6118
姍來遲	-6119
往田納	-6120
是一件	-6121
洛而毀	-6122
的年度	-6123
空運中	-6124
高精度	-6125
中的責任	-6126
兩首單曲	-6127
占領了盧	-6128
她為患有	-6129
姍姍來遲	-6130
往田納西	-6131
朋友之一	-6132
林空運中	-6133
構被徹底	-6134
標分辨率	-6135
橫向的小	-6136
歷史數據	-6137
死是一件	-6138
洛而毀滅	-6139
的斯拉夫	-6140
進入跑道	-6141
▁嚴冬來臨	-6142
▁它的年度	-6143
▁該公司向	-6144
之間的界限	-6145
占領了盧本	-6146
嚴厲的政策	-6147
坐標分辨率	-6148
好朋友之一	-6149
搬往田納西	-6150
有一位敲輪	-6151
海洛而毀滅	-6152
結構被徹底	-6153
總統想要傳	-6154
總統的要求	-6155
總體的鐵儲	-6156
繼續向南走	-6157
罪行中移除	-6158
羅娜的費用	-6159
羅馬舉辦的	-6160
美伽巴佐斯	-6161
美國人說道	-6162
美國的許多	-6163
美拉尼西亞	-6164
美總的銷量	-6165
美西斯在後	-6166
群島和位於	-6167
者所需要的	-6168
而十個中有	-6169
而受到影響	-6170
而我們必須	-6171
而死是一件	-6172
聖羅馬帝國	-6173
肯瑟斯轉身	-6174
背後的意圖	-6175
胱的組織中	-6176
能接收到一	-6177
自己的決定	-6178
自己的統計	-6179
自己高爾夫	-6180
自由的保障	-6181
至八世紀末	-6182
致命的一擊	-6183
與其城堡要	-6184
與完工進入	-6185
與希羅底的	-6186
與西方的往	-6187
與謀殺案案	-6188
舉辦了演唱	-6189
般的手術和	-6190
茲福德地區	-6191
菲利普召集	-6192
菲利普隨後	-6193
萬歐元可以	-6194
葉卡捷琳娜	-6195
著大麻作為	-6196
著海峽要道	-6197
薩米人方言	-6198
蘇格蘭人報	-6199
94	-6200
▁戴	-6201
兵追	-6202
喬瓦	-6203
外國	-6204
她感	-6205
布說	-6206
德爾	-6207
械加	-6208
溶於	-6209
發的	-6210
開羅	-6211
▁在已	-6212
▁戴高	-6213
兵追殺	-6214
出發的	-6215
喬瓦尼	-6216
奇布說	-6217
徐禁止	-6218
政府仍	-6219
曼德爾	-6220
機械加	-6221
溶於水	-6222
的來自	-6223
要求返	-6224
讓她感	-6225
1794	-6226
oham	-6227
允許外國	-6228
則徐禁止	-6229
和曼德爾	-6230
民兵追殺	-6231
聖喬瓦尼	-6232
薩奇布說	-6233
要求返場	-6234
開羅人口	-6235
(1794	-6236
moham	-6237
▁在已開展	-6238
一個讓她感	-6239
大陸出發的	-6240
帶領的來自	-6241
政府仍將要	-6242
林則徐禁止	-6243
機械加工業	-6244
溶於水產生	-6245
虔誠所感染	-6246
血紅蛋白所	-6247
行為的了解	-6248
行為的代理	-6249
行為的限度	-6250
被妥善利用	-6251
被害人曾在	-6252
被當作孩子	-6253
被稱為立石	-6254
被視為兩個	-6255
被認為具有	-6256
被調查很多	-6257
製作實驗室	-6258
製片人最後	-6259
西格爾提出	-6260
西西里島及	-6261
親含蓄謙遜	-6262
角度考慮而	-6263
記憶在生者	-6264
記者都穿戴	-6265
訪問了堪察	-6266
設備和紡織	-6267
設計師比爾	-6268
設計的這座	-6269
評選活動中	-6270
試圖讓飛機	-6271
該城市的最	-6272
該州的百分	-6273
該電影由尼	-6274
該電影由萊	-6275
認識的許多	-6276
說明了這三	-6277
說法就被推	-6278
課程的內容	-6279
談了自己的	-6280
談論發生了	-6281
請願書的作	-6282
論諾克斯的	-6283
諷以及其他	-6284
講述自己的	-6285
護加拿大的	-6286
變得更加刻	-6287
讓人感覺到	-6288
負擔的人數	-6289
資金投資和	-6290
賬戶添加免	-6291
賬戶餘額為	-6292
賬戶餘額的	-6293
贊助醜聞的	-6294
起謀殺罪和	-6295
超級錦標賽	-6296
路途時間包	-6297
迪斯導演的	-6298
迫害的經歷	-6299
26	-6300
58	-6301
▁還	-6302
之人	-6303
例也	-6304
創造	-6305
多將	-6306
威勒	-6307
子輕	-6308
定義	-6309
就該	-6310
德勒	-6311
日益	-6312
時由	-6313
格局	-6314
梅里	-6315
號也	-6316
隨即	-6317
和威勒	-6318
和烏夏	-6319
國民保	-6320
多將延	-6321
子輕輕	-6322
局就該	-6323
戈梅里	-6324
戰時由	-6325
故之人	-6326
敗告終	-6327
日益壯	-6328
月的一	-6329
格局從	-6330
沒有涵	-6331
的定義	-6332
的活動	-6333
皇家馬	-6334
經常被	-6335
能回到	-6336
號也起	-6337
錢德勒	-6338
1858	-6339
1926	-6340
▁還要求	-6341
▁高海拔	-6342
一戰時由	-6343
中沒有涵	-6344
也被隨即	-6345
例也製造	-6346
公司的緊	-6347
創造音樂	-6348
和烏夏克	-6349
國民保健	-6350
多將延長	-6351
失敗告終	-6352
如錢德勒	-6353
子輕輕地	-6354
已故之人	-6355
思考一些	-6356
敵的活動	-6357
月的一份	-6358
的格局從	-6359
皇家馬匹	-6360
總能回到	-6361
號也起自	-6362
還在調查	-6363
一戰時由靜	-6364
並總能回到	-6365
中國日益壯	-6366
中沒有涵蓋	-6367
以失敗告終	-6368
保護局就該	-6369
匹敵的活動	-6370
和烏夏克吞	-6371
國民保健署	-6372
子輕輕地敲	-6373
戈梅里表示	-6374
核還在調查	-6375
經常被標記	-6376
聯社發生了	-6377
諡號也起自	-6378
追求和平的	-6379
這也導致了	-6380
這些挑戰的	-6381
這些西班牙	-6382
這些領導人	-6383
這位比利時	-6384
這部電影處	-6385
通儲蓄賬戶	-6386
通常是那種	-6387
通常會導致	-6388
連接到你的	-6389
進口葡萄酒	-6390
進行的準備	-6391
過時兩年了	-6392
道德淪喪而	-6393
遜河附近的	-6394
選他的妻子	-6395
選擇要么撤	-6396
選舉日之前	-6397
選舉的瘋狂	-6398
邀才能進去	-6399
型車	-6400
完其	-6401
稍微	-6402
羅奔	-6403
在世界	-6404
寫完其	-6405
年慶典	-6406
羅奔尼	-6407
只是稍微	-6408
在世界各	-6409
型車被評	-6410
它的管理	-6411
週年慶典	-6412
需要評估	-6413
交通信號燈	-6414
代只是稍微	-6415
十週年慶典	-6416
在世界各地	-6417
型車被評為	-6418
通過了嚴格	-6419
還可以去當	-6420
還有人有自	-6421
還沒寫完其	-6422
邊的太平洋	-6423
那些在選舉	-6424
那些等我們	-6425
部落和主要	-6426
部落在歐洲	-6427
都全副武裝	-6428
都屬於歐盟	-6429
都很容易進	-6430
都被遺忘了	-6431
里展現了強	-6432
重要的差異	-6433
野心的機會	-6434
開展研究所	-6435
開鏈接和附	-6436
關於該話題	-6437
阿普利亞和	-6438
阿爾瓦雷茨	-6439
阿特靈被人	-6440
降到了大約	-6441
隕石材料的	-6442
隨後找到了	-6443
雞永不滿足	-6444
雷斯特德於	-6445
雷暴報告的	-6446
電影是由亞	-6447
音樂舞台劇	-6448
項目中表示	-6449
預測的那樣	-6450
願景使他對	-6451
顯示了在一	-6452
風險的飆升	-6453
食品提供了	-6454
飲料的藥丸	-6455
餘額中賺取	-6456
首席執行官	-6457
騎兵在發起	-6458
默塞特郡的	-6459
黨保守派把	-6460
黨派領導人	-6461
黨衛軍軍官	-6462
$15000	-6463
.30-10	-6464
19,999	-6465
asktel	-6466
athina	-6467
ch▁the	-6468
hopley	-6469
intado	-6470
javier	-6471
kerber	-6472
khanzi	-6473
k▁aver	-6474
millic	-6475
n▁di▁d	-6476
of▁the	-6477
outube	-6478
papwor	-6479
po▁and	-6480
simple	-6481
ti▁str	-6482
t▁dies	-6483
w▁marr	-6484
y▁film	-6485
zettel	-6486
£3,000	-6487
£5,000	-6488
▁aviva	-6489
▁báñez	-6490
▁conte	-6491
▁knott	-6492
▁marot	-6493
▁reich	-6494
▁salam	-6495
▁一月的一份	-6496
▁他不久前剛	-6497
▁他也討論了	-6498
▁他形容她為	-6499
▁斯	-6500
人家	-6501
全面	-6502
和電	-6503
妹在	-6504
婦女	-6505
它才	-6506
對機	-6507
律賓	-6508
特從	-6509
皮毛	-6510
總工	-6511
美利	-6512
芭蕉	-6513
造船	-6514
進攻	-6515
陶冶	-6516
香蕉	-6517
▁地面	-6518
▁斯大	-6519
▁美利	-6520
▁香蕉	-6521
分析家	-6522
南德於	-6523
和電子	-6524
她開始	-6525
它才浮	-6526
對機器	-6527
戶人家	-6528
是值得	-6529
有雅典	-6530
瓦特從	-6531
石製墓	-6532
管理的	-6533
粉芭蕉	-6534
總工會	-6535
菲律賓	-6536
裝要求	-6537
農曆春	-6538
這一絕	-6539
陶冶情	-6540
▁斯大林	-6541
▁美利肯	-6542
▁香蕉和	-6543
也會增加	-6544
他出演了	-6545
以及能夠	-6546
做是值得	-6547
勳爵帶領	-6548
包括婦女	-6549
十戶人家	-6550
她開始在	-6551
它才浮出	-6552
實際情況	-6553
對機器金	-6554
提供皮毛	-6555
新的一集	-6556
月這一絕	-6557
的經濟已	-6558
石製墓塚	-6559
管理的商	-6560
著裝要求	-6561
處有雅典	-6562
農曆春節	-6563
造船產業	-6564
進攻之後	-6565
陶冶情操	-6566
▁地面戰爭	-6567
他出演了亨	-6568
以及菲律賓	-6569
做是值得的	-6570
全面的人口	-6571
分析家認為	-6572
力量總工會	-6573
加工和電子	-6574
四十戶人家	-6575
它才浮出水	-6576
實際情況視	-6577
猶太人當中	-6578
瓦特從根本	-6579
管理的商人	-6580
著裝要求過	-6581
該處有雅典	-6582
達爾南德於	-6583
韓的經濟已	-6584
魯多將延長	-6585
▁他獨自一人	-6586
▁他的妹妹在	-6587
▁他被認為能	-6588
▁但北愛爾蘭	-6589
▁但是在新生	-6590
▁你必須受得	-6591
▁俄羅斯帝國	-6592
▁同時第一次	-6593
▁哈雷戴維森	-6594
▁嚴冬來臨時	-6595
▁在他們之間	-6596
▁在佛羅里達	-6597
▁在你主導的	-6598
▁在六十年代	-6599
也叫	-6600
他牢	-6601
來中	-6602
僱後	-6603
可泰	-6604
塔河	-6605
掌握	-6606
歸家	-6607
潤可	-6608
貴的	-6609
跡象	-6610
迫使	-6611
也叫麥	-6612
人協會	-6613
他牢牢	-6614
利潤可	-6615
掌握了	-6616
斯塔河	-6617
昂貴的	-6618
父親被	-6619
素可泰	-6620
規處罰	-6621
人父親被	-6622
勝利迫使	-6623
數據分析	-6624
文中發現	-6625
明顯跡象	-6626
瓦雷茨最	-6627
紀人協會	-6628
與素可泰	-6629
被解僱後	-6630
天之後存活	-6631
少自己即將	-6632
德里東南部	-6633
文中發現的	-6634
昂貴的標準	-6635
瓦雷茨最為	-6636
經紀人協會	-6637
軍人父親被	-6638
非常規處罰	-6639
▁在其家庭在	-6640
▁在已開展了	-6641
▁在美國公民	-6642
▁在過去的五	-6643
▁在過去的兩	-6644
▁大多數人會	-6645
▁奧巴馬嘲笑	-6646
▁奧斯曼帝國	-6647
▁她還被指控	-6648
▁它帶有一個	-6649
▁它是一個供	-6650
▁安第斯山脈	-6651
▁對羅曼諾夫	-6652
▁工業革命令	-6653
▁布沙爾令人	-6654
▁布洛克堅定	-6655
▁希拉里向來	-6656
▁希斯帕尼亞	-6657
▁年度調查還	-6658
▁後者在監督	-6659
▁我們很失望	-6660
▁我喜歡把玩	-6661
▁我的下一站	-6662
▁我認為這是	-6663
▁投資在溢價	-6664
▁接著建立了	-6665
▁撤退的消息	-6666
▁據帕克所說	-6667
▁放下麥克風	-6668
▁斯大林開始	-6669
▁新法蘭西尚	-6670
▁日耳曼路易	-6671
▁有人曾預計	-6672
▁沒有人知道	-6673
▁沙塵暴通常	-6674
▁消費者可以	-6675
▁澳大利亞的	-6676
▁研究人員付	-6677
▁研究人員說	-6678
▁第二季目前	-6679
▁聯合國回顧	-6680
▁聯邦政府主	-6681
▁聯邦政府和	-6682
▁自二十世紀	-6683
▁至八世紀末	-6684
▁菲利普隨後	-6685
▁蘇伊士運河	-6686
▁賴特是新生	-6687
▁追求和平的	-6688
▁這也推動了	-6689
▁週二是動員	-6690
▁還要求大眾	-6691
▁阿特靈結過	-6692
▁電影記錄了	-6693
▁馬德里自治	-6694
一一位有貴族	-6695
一位歐盟官員	-6696
一個日期只能	-6697
一個研究的實	-6698
一定會懷念他	-6699
38	-6700
▁深	-6701
三星	-6702
了境	-6703
內部	-6704
加羅	-6705
古怪	-6706
墨則	-6707
改良	-6708
暴亂	-6709
村野	-6710
氧化	-6711
洗清	-6712
深入	-6713
茲堡	-6714
薩爾	-6715
薪資	-6716
費制	-6717
還不	-6718
鎮裡	-6719
fsl	-6720
▁深圳	-6721
三星的	-6722
並開始	-6723
中洗清	-6724
也明白	-6725
二氧化	-6726
內部起	-6727
加羅報	-6728
又古怪	-6729
和天皇	-6730
品放在	-6731
小鎮裡	-6732
戰場英	-6733
把現代	-6734
收費制	-6735
是薩爾	-6736
本地居	-6737
村野餐	-6738
極佳的	-6739
此劇場	-6740
決定退	-6741
確定了	-6742
茲堡大	-6743
莫墨則	-6744
逐了境	-6745
fsln	-6746
▁gay	-6747
▁深圳市	-6748
三星的挫	-6749
中洗清了	-6750
二氧化碳	-6751
他願意達	-6752
內部起伏	-6753
包括改良	-6754
又古怪的	-6755
可能英國	-6756
和天皇以	-6757
和本地居	-6758
和莫墨則	-6759
地方成為	-6760
我也明白	-6761
戰場英年	-6762
是在凱爾	-6763
有著政治	-6764
村野餐區	-6765
款收費制	-6766
武裝暴亂	-6767
決定退黨	-6768
物品放在	-6769
當地政府	-6770
確定了月	-6771
費加羅報	-6772
軍隊深入	-6773
還不清楚	-6774
驅逐了境	-6775
默是薩爾	-6776
sberg	-6777
▁1538	-6778
▁深圳市交	-6779
三星的挫折	-6780
並開始進行	-6781
他願意達成	-6782
付款收費制	-6783
具有極佳的	-6784
和本地居民	-6785
審中洗清了	-6786
年驅逐了境	-6787
必須把現代	-6788
戰場英年早	-6789
料是在凱爾	-6790
昭和天皇以	-6791
有著政治層	-6792
此劇場現在	-6793
當地政府是	-6794
的物品放在	-6795
確定了月相	-6796
芙和莫墨則	-6797
茲堡大主教	-6798
解二氧化碳	-6799
▁已	-6800
合爾	-6801
生內	-6802
署兵	-6803
近人	-6804
gor	-6805
拉合爾	-6806
接近人	-6807
署兵力	-6808
而上漲	-6809
餘生內	-6810
agor	-6811
▁已有人	-6812
▁特別要	-6813
上接近人	-6814
大幅超過	-6815
署兵力對	-6816
agora	-6817
並在餘生內	-6818
回到拉合爾	-6819
增加而上漲	-6820
署兵力對抗	-6821
還不清楚在	-6822
鄉村野餐區	-6823
雷默是薩爾	-6824
靈上接近人	-6825
ay▁gay	-6826
▁回到拉合爾	-6827
▁已有人提出	-6828
▁特別要強調	-6829
一定會有抗議	-6830
一戰時由靜態	-6831
一直代表著富	-6832
一直保持著樂	-6833
一直飽受批評	-6834
一起探討軍事	-6835
三個平行的小	-6836
上一部影片是	-6837
上個月報導說	-6838
上可靠的信息	-6839
上很重要的六	-6840
上慶祝他們的	-6841
下一波的抗議	-6842
下來的伊斯蘭	-6843
下用的聊天軟	-6844
下面將小球彈	-6845
下面帶有一個	-6846
不僅會傷害小	-6847
不大切合實際	-6848
不存在此特徵	-6849
不慌不忙地穿	-6850
不應該被忽視	-6851
不比在尼羅河	-6852
丑之於人性就	-6853
世界大戰戰末	-6854
世界廣播電台	-6855
並且在好幾個	-6856
並發布了關於	-6857
並連接到你的	-6858
中國將在本週	-6859
中底去除角質	-6860
中期青銅時代	-6861
中的勝利迫使	-6862
中通常會導致	-6863
丹麥語的元素	-6864
主義者接受了	-6865
乃伊冰人奧茲	-6866
之前的疑問的	-6867
之平行的博斯	-6868
之後迴避和不	-6869
乘坐纜車穿越	-6870
也不會倒退回	-6871
也使其與很多	-6872
也在之後和馬	-6873
也被隨即被解	-6874
也許荒誕不經	-6875
亂合法葬禮罪	-6876
了一系列故事	-6877
了一系列長遠	-6878
了人類經驗的	-6879
了使用單一貨	-6880
了使用家用筆	-6881
了十年的改革	-6882
了所有七個選	-6883
了自己的健康	-6884
事件的發生率	-6885
互相調笑和表	-6886
些所謂的真實	-6887
亞加亞聯軍的	-6888
人們對機器金	-6889
人們小心翼翼	-6890
人們認為古典	-6891
人從未接觸過	-6892
人數有所增加	-6893
人有意在兩到	-6894
人的典型形象	-6895
人的南亞祖先	-6896
人還可以享用	-6897
今晚將使用高	-6898
仍舊有很大的	-6899
88	-6900
▁更	-6901
一詞	-6902
九篇	-6903
以邪	-6904
但僅	-6905
倫薩	-6906
兇獵	-6907
分處	-6908
區也	-6909
在民	-6910
報上	-6911
娶了	-6912
小和	-6913
年拍	-6914
愛河	-6915
打動	-6916
把該	-6917
時至	-6918
海產	-6919
界的	-6920
的版	-6921
美深	-6922
鐳學	-6923
長度	-6924
隨者	-6925
ino	-6926
vol	-6927
▁時至	-6928
▁更高	-6929
一詞的	-6930
以邪惡	-6931
倫薩葛	-6932
兇獵殺	-6933
入愛河	-6934
公報上	-6935
區也隨	-6936
十九篇	-6937
在民用	-6938
年拍攝	-6939
投降時	-6940
採訪為	-6941
格及其	-6942
深打動	-6943
界的寵	-6944
的長度	-6945
秋分處	-6946
身體欠	-6947
追隨者	-6948
通過無	-6949
▁伊斯蘭	-6950
▁時至此	-6951
▁更高的	-6952
三十九篇	-6953
代理機構	-6954
以及海產	-6955
以邪惡薩	-6956
伯格及其	-6957
但僅存在	-6958
區也隨之	-6959
區的美深	-6960
在公報上	-6961
墜入愛河	-6962
奠定了融	-6963
小和最大	-6964
把該半島	-6965
採訪為藉	-6966
時兇獵殺	-6967
更微小的	-6968
界的寵兒	-6969
的版本的	-6970
航空領域	-6971
身體欠佳	-6972
追隨者則	-6973
▁1988	-6974
▁時至此刻	-6975
▁智能手機	-6976
一詞的來源	-6977
了三十九篇	-6978
以及秋分處	-6979
但僅存在了	-6980
佛羅倫薩葛	-6981
債券全部售	-6982
克伯格及其	-6983
北京在民用	-6984
回到了鐳學	-6985
娶了年輕的	-6986
小和最大傾	-6987
年拍攝電影	-6988
採訪為藉口	-6989
更微小的塵	-6990
月份的長度	-6991
湖區的美深	-6992
箱代理機構	-6993
航空領域中	-6994
通過無衝突	-6995
魚以及海產	-6996
▁在她寫的歌	-6997
▁這奠定了融	-6998
一詞的來源備	-6999
並於	-7000
冬至	-7001
利山	-7002
動態	-7003
同情	-7004
在夏	-7005
大大	-7006
法迪	-7007
佛利山	-7008
動態圖	-7009
同情心	-7010
向安迪	-7011
和冬至	-7012
和能力	-7013
在夏至	-7014
塞法迪	-7015
掌權後	-7016
東非坦	-7017
上東非坦	-7018
佛利山莊	-7019
大大限制	-7020
學生冬季	-7021
巧和能力	-7022
成員組成	-7023
政府希望	-7024
新的土著	-7025
有同情心	-7026
的掌權後	-7027
離我擺脫	-7028
上東非坦桑	-7029
佛利山莊酒	-7030
內的塞法迪	-7031
必須向安迪	-7032
成員組成的	-7033
技巧和能力	-7034
抱有同情心	-7035
黨的掌權後	-7036
並且墜入愛河	-7037
他不想被賣掉	-7038
他們兩者似乎	-7039
他們才會被激	-7040
他同年在那裡	-7041
他宣布破產後	-7042
他已經拍了八	-7043
他採取了多種	-7044
他收到了美國	-7045
他極其不合格	-7046
他的命令不得	-7047
他的妻子愛麗	-7048
他的追隨者則	-7049
他的電影主題	-7050
他被給予了些	-7051
代表了最激進	-7052
以天皇在位的	-7053
以自由州還是	-7054
以邪惡薩諾斯	-7055
件改用第三方	-7056
任總統的要求	-7057
伊斯蘭教傳播	-7058
伯爵瑪格麗特	-7059
但他拒絕相信	-7060
但以失敗告終	-7061
但僅存在了很	-7062
但在冰島語中	-7063
但在離婚後卻	-7064
但如果你知道	-7065
但是人數很少	-7066
但是基普林的	-7067
但權力的和平	-7068
但總體的鐵儲	-7069
佈了一個新的	-7070
位於太平洋的	-7071
住在帕爾馬的	-7072
佔了不少便宜	-7073
佔絕大多數席	-7074
佔領古巴之後	-7075
佛利山莊酒店	-7076
佛商學院的學	-7077
佛羅里達州已	-7078
作整合了過往	-7079
作為主要的水	-7080
作為食物以外	-7081
使用了大量的	-7082
使該公司損失	-7083
來一直在穩步	-7084
來保障消費者	-7085
來稱呼意大利	-7086
促公眾為他們	-7087
俄國的所有製	-7088
信那些等我們	-7089
個是購物平台	-7090
個男人告訴他	-7091
個隕石材料的	-7092
們的相似之處	-7093
做一些不同的	-7094
做的目的是在	-7095
停留了八個月	-7096
健康醫療總局	-7097
債券全部售出	-7098
價格大幅超過	-7099
加強	-7100
十世	-7101
各有	-7102
城的	-7103
夫婦	-7104
失常	-7105
奈文	-7106
巴哈	-7107
數位	-7108
更確	-7109
牧場	-7110
的錢	-7111
皮和	-7112
礙的	-7113
被處	-7114
見到	-7115
這從	-7116
高地	-7117
▁和我	-7118
▁就職	-7119
世的人	-7120
中網絡	-7121
他加強	-7122
北地區	-7123
同時也	-7124
和牧場	-7125
在海上	-7126
在脆弱	-7127
失常了	-7128
奈文書	-7129
徵意義	-7130
您的錢	-7131
愛夫婦	-7132
或更確	-7133
數位不	-7134
於今年	-7135
是否具	-7136
月被處	-7137
樹皮和	-7138
版照片	-7139
第三張	-7140
色城的	-7141
辛巴哈	-7142
這從他	-7143
障礙的	-7144
1979	-7145
世的人註	-7146
中網絡往	-7147
他加強了	-7148
他是一個	-7149
到您的錢	-7150
印版照片	-7151
各有不同	-7152
在海上迫	-7153
地和牧場	-7154
基色城的	-7155
常見的國	-7156
或更確切	-7157
放棄收益	-7158
數位不稱	-7159
於今年較	-7160
最近的行	-7161
月被處死	-7162
樹樹皮和	-7163
深愛夫婦	-7164
第三張錄	-7165
萊辛巴哈	-7166
西北地區	-7167
見到她的	-7168
說明了國	-7169
論是否具	-7170
象徵意義	-7171
路易十世	-7172
都失常了	-7173
▁就職之前	-7174
不想給你們	-7175
不論是否具	-7176
世的人註銷	-7177
中網絡往往	-7178
主要由古代	-7179
事都失常了	-7180
他最近的行	-7181
同時也包括	-7182
在海上迫降	-7183
學習障礙的	-7184
常見的國土	-7185
影印版照片	-7186
拿到您的錢	-7187
放棄收益會	-7188
數位不稱職	-7189
於今年較早	-7190
極西北地區	-7191
榔樹樹皮和	-7192
理論上而言	-7193
的研究學習	-7194
第三張錄音	-7195
耕地和牧場	-7196
試圖在脆弱	-7197
這從他很多	-7198
不想給你們施	-7199
十座	-7200
她賣	-7201
猶豫	-7202
和相關	-7203
在猶豫	-7204
她賣得	-7205
已經發	-7206
排十座	-7207
和相關說	-7208
在猶豫要	-7209
是她賣得	-7210
級已經發	-7211
和相關說客	-7212
均收入是抱	-7213
階級已經發	-7214
人士在猶豫要	-7215
他加強了埃及	-7216
他最近的行踪	-7217
來自基色城的	-7218
元素指導方針	-7219
兄弟們並沒有	-7220
充滿希望的新	-7221
克圖特摩斯聖	-7222
克萊恩沉默寡	-7223
克雷默是薩爾	-7224
內部起伏突然	-7225
內高加索地區	-7226
全球性別暴力	-7227
全球農業用地	-7228
兩個德國農民	-7229
公國在當今的	-7230
六十年代以來	-7231
共同採取根本	-7232
共和國是清朝	-7233
共和國的建立	-7234
共和黨候選人	-7235
其他地方成為	-7236
其他更為優異	-7237
其北部區域在	-7238
兼匈牙利國王	-7239
冊中沒有涵蓋	-7240
再一次獲得了	-7241
凱拉的嬰兒是	-7242
出了一個新的	-7243
分解二氧化碳	-7244
利亞在該強力	-7245
利對尼古拉斯	-7246
到了一個招聘	-7247
到了格拉斯哥	-7248
到進口葡萄酒	-7249
創作了六部歌	-7250
加低斯的圖尼	-7251
加拿大的邊界	-7252
勒牧師拜訪了	-7253
動取款機取出	-7254
募政府開支的	-7255
包括土著群體	-7256
化的第一階段	-7257
北京的立法者	-7258
北卡羅來納州	-7259
區也隨之出現	-7260
半島的後古典	-7261
南海與崔絲一	-7262
南美洲的想法	-7263
南邊的太平洋	-7264
占領了盧本巴	-7265
卡拉皇帝提出	-7266
印度和中國等	-7267
即便工作環境	-7268
即巴拿馬地峽	-7269
去除空氣中的	-7270
參與了該項目	-7271
受疼痛折磨的	-7272
受邀才能進去	-7273
古希臘的集市	-7274
古老文明均因	-7275
只剩下了中央	-7276
可以在華盛頓	-7277
可疑的漏洞和	-7278
可疑的現金流	-7279
可能也適用於	-7280
可能導致債務	-7281
可能英國航空	-7282
可親含蓄謙遜	-7283
可追溯的神經	-7284
史達林同時還	-7285
司法部部長譴	-7286
吉拉德女士說	-7287
同時也包括薩	-7288
同時允許外國	-7289
同時它們的糞	-7290
同樣也適用於	-7291
名這片土地的	-7292
向丘吉爾頒布	-7293
向自己的政治	-7294
否則會非常炎	-7295
告誡不要採用	-7296
和不來梅分別	-7297
和城鎮化擴展	-7298
和女演員葛洛	-7299
偶大	-7300
備釙	-7301
傳送	-7302
含糊	-7303
和人	-7304
在朝	-7305
廷上	-7306
操縱	-7307
河系	-7308
淤泥	-7309
現場	-7310
疏通	-7311
的汴	-7312
稱提	-7313
積物	-7314
被派	-7315
諾的	-7316
讓步	-7317
遼國	-7318
那幢	-7319
都獨	-7320
麗亞	-7321
中說道	-7322
人口和	-7323
促進了	-7324
備釙源	-7325
傳送給	-7326
區以前	-7327
和人道	-7328
外的汴	-7329
布偶大	-7330
河系漫	-7331
淤泥沉	-7332
淤積物	-7333
疏通了	-7334
發送語	-7335
的那條	-7336
祗都獨	-7337
稱提庇	-7338
聖羅斯	-7339
萊諾的	-7340
被派往	-7341
▁在現場	-7342
了淤積物	-7343
備釙源和	-7344
區以前木	-7345
十分含糊	-7346
同時操縱	-7347
因為如此	-7348
在人口和	-7349
在朝廷上	-7350
外的汴河	-7351
方的那條	-7352
氣候變化	-7353
氣傳送給	-7354
河系漫遊	-7355
淤泥沉積	-7356
發送語音	-7357
神祗都獨	-7358
稱提庇留	-7359
繼承順位	-7360
薩萊諾的	-7361
談中說道	-7362
那幢大樓	-7363
上方的那條	-7364
他們對遼國	-7365
位神祗都獨	-7366
修建所耗成	-7367
區以前木偶	-7368
和人道主義	-7369
國在人口和	-7370
布偶大電影	-7371
成功疏通了	-7372
控制促進了	-7373
正因為如此	-7374
氧氣傳送給	-7375
沈括被派往	-7376
發送語音指	-7377
緩氣候變化	-7378
製備釙源和	-7379
都十分含糊	-7380
銀河系漫遊	-7381
▁在現場發現	-7382
▁據稱提庇留	-7383
上方的那條窄	-7384
修建所耗成本	-7385
們的繼承順位	-7386
力發電的條件	-7387
和批發方面的	-7388
和曼德爾一起	-7389
和法國在這個	-7390
和瓦倫蒂諾在	-7391
和福特公司於	-7392
和程序上存在	-7393
品牌首席代表	-7394
哥將會有一項	-7395
唱片公司正在	-7396
單位資本支出	-7397
因此丟了工作	-7398
因為他們缺乏	-7399
63	-7400
利安	-7401
原型	-7402
平淡	-7403
機場	-7404
永世	-7405
申克	-7406
疑地	-7407
傳統中	-7408
利安在	-7409
場災難	-7410
平淡無	-7411
是希臘	-7412
更大的	-7413
永世不	-7414
為原型	-7415
無疑地	-7416
申克有	-7417
葬地點	-7418
1563	-7419
arel	-7420
▁我們不	-7421
埋葬地點	-7422
平淡無奇	-7423
更偉大的	-7424
更大的執	-7425
朱利安在	-7426
永世不朽	-7427
無疑地回	-7428
秘傳統中	-7429
計劃能夠	-7430
認為機場	-7431
karel	-7432
居里研究所	-7433
戰爭為原型	-7434
文明是希臘	-7435
是一場災難	-7436
更大的執法	-7437
無疑地回答	-7438
申克有興趣	-7439
神秘傳統中	-7440
而永世不朽	-7441
計劃能夠省	-7442
▁我們不認為	-7443
伊戰爭為原型	-7444
因為我們在主	-7445
因為身體欠佳	-7446
因為這些東西	-7447
因為這些節日	-7448
因為這兩個區	-7449
因為離我擺脫	-7450
國家公園建立	-7451
國家所需要的	-7452
國民保健署正	-7453
圍內造成影響	-7454
圖像和文本中	-7455
土耳其的工作	-7456
在世界各地的	-7457
在停留時多次	-7458
在兩千年前的	-7459
在公園東南部	-7460
在周一發布的	-7461
在地中海地區	-7462
在大火中被焚	-7463
在生命的最後	-7464
在聖塞西莉亞	-7465
在英國登上了	-7466
在講述自己的	-7467
在通知中表明	-7468
地在地中海的	-7469
均由滿族統治	-7470
埃及法老因此	-7471
埋葬地點以及	-7472
城市海濱一帶	-7473
培育的守護者	-7474
基於政績的考	-7475
場地剩了下來	-7476
塔比的個人財	-7477
塔爾羅解釋說	-7478
塢已經疏遠了	-7479
壇留下了光輝	-7480
士李維被釋放	-7481
外高加索地區	-7482
多數的第三方	-7483
多是出於天真	-7484
多而食物只有	-7485
大大限制了其	-7486
大的高爾夫球	-7487
大部分的班圖	-7488
大都會俱樂部	-7489
大量皇家馬匹	-7490
天氣預報節目	-7491
天的菩薩圖片	-7492
奈文書可追溯	-7493
契美尼德軍隊	-7494
女孩或更確切	-7495
她和她與其它	-7496
她是反對欺凌	-7497
她的未出生的	-7498
如瑞典的托爾	-7499
仍是	-7500
在耶	-7501
安提	-7502
審訊	-7503
年前	-7504
或煙	-7505
未有	-7506
殊閏	-7507
的較	-7508
自近	-7509
記載	-7510
詩歌	-7511
貝瑞	-7512
路撒	-7513
ust	-7514
▁貝瑞	-7515
了支持	-7516
份仍是	-7517
城邦制	-7518
安提帕	-7519
或煙霧	-7520
所未有	-7521
會投票	-7522
殊閏月	-7523
比賽越	-7524
的較舊	-7525
詩歌只	-7526
路撒冷	-7527
達州的	-7528
eust	-7529
一些國家	-7530
個人最高	-7531
全國對於	-7532
前所未有	-7533
它為數個	-7534
安提帕斯	-7535
年份仍是	-7536
年前就已	-7537
或煙霧遮	-7538
接受審訊	-7539
會投票給	-7540
比賽越多	-7541
特殊閏月	-7542
當時在耶	-7543
華達州的	-7544
首詩歌只	-7545
▁全國對於	-7546
▁前所未有	-7547
▁確定最終	-7548
▁貝瑞進了	-7549
他們並沒有	-7550
內華達州的	-7551
城邦制逐漸	-7552
它為數個社	-7553
年前就已傳	-7554
律安提帕斯	-7555
律當時在耶	-7556
或煙霧遮擋	-7557
的比賽越多	-7558
的較舊區域	-7559
表示了支持	-7560
▁beust	-7561
▁內華達州的	-7562
▁每首詩歌只	-7563
▁確定最終外	-7564
人們會投票給	-7565
他們並沒有擴	-7566
個人最高水平	-7567
入了特殊閏月	-7568
在公報上發表	-7569
妻子也開始了	-7570
姍姍來遲還是	-7571
威尼斯募集的	-7572
威尼斯的人口	-7573
威爾斯市長大	-7574
媒體對美國的	-7575
子輕輕地敲擊	-7576
子郵件這件事	-7577
孩子未發育的	-7578
學生還沒決定	-7579
學者爭論的話	-7580
它才浮出水面	-7581
它未來的目標	-7582
它為地區帶來	-7583
它重現了冷戰	-7584
官的職位也被	-7585
官美伽巴佐斯	-7586
室內製作動畫	-7587
家可歸而被控	-7588
家搬往田納西	-7589
實現更偉大的	-7590
實際上可能會	-7591
實際情況視而	-7592
封信幾乎沒有	-7593
將氧氣傳送給	-7594
將能與巴西狂	-7595
將能降低這些	-7596
對丘吉爾的過	-7597
對他們註冊的	-7598
對匈牙利施壓	-7599
亥俄	-7600
傑西	-7601
城戰	-7602
失效	-7603
奇爾	-7604
川普	-7605
撰寫	-7606
文藝	-7607
斯時	-7608
會更	-7609
福利	-7610
維持	-7611
背後	-7612
詩文	-7613
開闊	-7614
隸制	-7615
▁文藝	-7616
亥俄河	-7617
人傑西	-7618
令人髮	-7619
你會更	-7620
土地侵	-7621
在銀行	-7622
地尋求	-7623
奴隸制	-7624
居住在	-7625
年撰寫	-7626
攻城戰	-7627
的福利	-7628
的背後	-7629
維持長	-7630
且令人髮	-7631
人傑西卡	-7632
加低斯時	-7633
勞地尋求	-7634
原住民留	-7635
名為奇爾	-7636
土地侵蝕	-7637
在一系列	-7638
在銀行死	-7639
就已失效	-7640
川普這種	-7641
年撰寫的	-7642
提供了飲	-7643
提供開闊	-7644
有可能有	-7645
此為基礎	-7646
的攻城戰	-7647
的背後也	-7648
通過詩文	-7649
都居住在	-7650
▁我們不能	-7651
▁有可能有	-7652
且令人髮指	-7653
並通過詩文	-7654
以此為基礎	-7655
你會更清楚	-7656
克里斯托弗	-7657
內提供開闊	-7658
在一系列下	-7659
奴隸制州的	-7660
始人傑西卡	-7661
廢墟進行了	-7662
徒勞地尋求	-7663
捕加低斯時	-7664
提供了飲用	-7665
有土地侵蝕	-7666
無法維持長	-7667
的背後也總	-7668
▁我們不能讓	-7669
▁有可能有正	-7670
並以此為基礎	-7671
你會更清楚地	-7672
創始人傑西卡	-7673
協議就已失效	-7674
員工在銀行死	-7675
在一系列下配	-7676
對廢墟進行了	-7677
對我們耍的一	-7678
對此局面有所	-7679
對象包括婦女	-7680
小和最大傾斜	-7681
就像超級英雄	-7682
就是為什麼當	-7683
就會選出歷史	-7684
就能隨時在您	-7685
就被視為有生	-7686
就越經常看到	-7687
尼亞戰爭期間	-7688
展示了淤積物	-7689
岩島嶼則如聖	-7690
崔絲已返回了	-7691
工業革命都早	-7692
巴爾幹的目標	-7693
巴西丶南非丶	-7694
巴黎協定中的	-7695
市場的新公寓	-7696
布雷斯特德於	-7697
希望元老會和	-7698
希臘一分為二	-7699
丶那	-7700
了編	-7701
便歸	-7702
向其	-7703
幾位	-7704
手稿	-7705
海床	-7706
為七	-7707
王才	-7708
發給	-7709
高麗	-7710
▁部隊	-7711
丶那兩	-7712
也向其	-7713
了編劇	-7714
僅為七	-7715
在海床	-7716
巴爾干	-7717
愍王才	-7718
把手稿	-7719
新投資	-7720
時間快	-7721
▁部隊在	-7722
丶那兩名	-7723
也向其致	-7724
便歸德國	-7725
僅為七天	-7726
其後的是	-7727
巴爾干人	-7728
幾位人士	-7729
恭愍王才	-7730
把時間快	-7731
文章顯示	-7732
正把手稿	-7733
看到瘋狂	-7734
進一步轉	-7735
開始高麗	-7736
roger	-7737
▁把時間快	-7738
也向其致敬	-7739
了編劇的角	-7740
便歸德國管	-7741
其後的是英	-7742
奧斯曼人在	-7743
妙的挑戰的	-7744
巴爾干人從	-7745
數僅為七天	-7746
被進一步轉	-7747
rogers	-7748
▁深圳市交警	-7749
▁部隊在古巴	-7750
一次看到瘋狂	-7751
了一個在海床	-7752
了編劇的角色	-7753
便歸德國管轄	-7754
保證了新投資	-7755
其後的是英傑	-7756
報紙文章顯示	-7757
天數僅為七天	-7758
巴爾干人從軍	-7759
師和紡織業工	-7760
幫助已故之人	-7761
干預是必要的	-7762
平均最高溫度	-7763
平淡無奇的一	-7764
年前就已傳至	-7765
年夏天大部分	-7766
年夏季奧運會	-7767
年撰寫的第一	-7768
年的專業而友	-7769
年通過了嚴格	-7770
年選舉日之前	-7771
幾乎每個島嶼	-7772
幾乎沒有借用	-7773
幾位人士進行	-7774
座青銅時代的	-7775
庭審中洗清了	-7776
廣工作奠定了	-7777
建立一種更為	-7778
建立生者與死	-7779
建立起了商業	-7780
建設中的城市	-7781
建設看到日本	-7782
強制受洗有悖	-7783
影子之於常人	-7784
征服了色雷斯	-7785
很可能是其中	-7786
很快就破滅了	-7787
很有趣的求婚	-7788
後問她是不是	-7789
後都可以重新	-7790
從挪威南部的	-7791
從而使得地面	-7792
御所需的技能	-7793
徵收的最高罰	-7794
心靈上接近人	-7795
性在兩個事實	-7796
恭愍王才最終	-7797
想願景使他對	-7798
意見表示遺憾	-7799
出有	-7800
刷與	-7801
創意	-7802
所知	-7803
次造	-7804
海路	-7805
產列	-7806
發佈	-7807
祭壇	-7808
莉婭	-7809
被歐	-7810
製看	-7811
讚美	-7812
遊業	-7813
配置	-7814
食了	-7815
▁讚美	-7816
了英國	-7817
出有旅	-7818
創意總	-7819
印刷與	-7820
奇莉婭	-7821
幾次造	-7822
才被歐	-7823
時配置	-7824
木製看	-7825
產列為	-7826
蠶食了	-7827
▁讚美詩	-7828
了木製看	-7829
了英國冬	-7830
創意總監	-7831
南喀麥隆	-7832
大陸所知	-7833
奇莉婭灣	-7834
好幾次造	-7835
尋找海路	-7836
年才被歐	-7837
提出公投	-7838
改變戰場	-7839
發佈單曲	-7840
英國國防	-7841
輸出有旅	-7842
遺產列為	-7843
rassi	-7844
reddi	-7845
中英國國防	-7846
了木製看台	-7847
亞大陸所知	-7848
估了英國冬	-7849
南喀麥隆與	-7850
印刷與出版	-7851
好幾次造山	-7852
建立的區域	-7853
時配置的空	-7854
有一個祭壇	-7855
蠶食了這些	-7856
贊助了一個	-7857
reddit	-7858
▁讚美詩獲得	-7859
中英國國防部	-7860
他們最後還是	-7861
他牢牢掌握了	-7862
低估了英國冬	-7863
創意總監之一	-7864
南喀麥隆與法	-7865
噬了木製看台	-7866
尋找海路前往	-7867
對派系變的更	-7868
感到失望的人	-7869
感受到了權利	-7870
成為世界冠軍	-7871
成為了迪士尼	-7872
或擁有滿意的	-7873
或至少能減輕	-7874
戰場英年早逝	-7875
戰爭將要來臨	-7876
戰爭爆發之前	-7877
戰爭開始的前	-7878
房出席法院的	-7879
所告誡其教徒	-7880
所接收的投票	-7881
才能提出公投	-7882
打鬥和打人的	-7883
把我排除在外	-7884
拉博夫裸體出	-7885
拉的嬰兒的三	-7886
拉迪斯導演的	-7887
拜登的梅爾丁	-7888
挑戰轉而專心	-7889
捕魚以及海產	-7890
排放中的責任	-7891
接下來的選舉	-7892
接到了好幾個	-7893
接受嚴格的劍	-7894
推動武裝暴亂	-7895
提供財務的捐	-7896
揭示了他的成	-7897
摩托車越野賽	-7898
撒哈拉沙漠的	-7899
▁湯	-7900
入空	-7901
將近	-7902
廣州	-7903
會擊	-7904
氣流	-7905
流離	-7906
而演	-7907
肥胖	-7908
被帶	-7909
連鎖	-7910
頭小	-7911
額外	-7912
風的	-7913
▁很大	-7914
▁流離	-7915
▁湯普	-7916
一些大	-7917
一個字	-7918
保護區	-7919
入氣流	-7920
入空中	-7921
女性和	-7922
如肥胖	-7923
才能擯	-7924
把政府	-7925
料可能	-7926
新成立	-7927
會擊中	-7928
的總數	-7929
繼而演	-7930
藏家的	-7931
達將近	-7932
都至少	-7933
頭小利	-7934
▁流離失	-7935
▁湯普遜	-7936
一些大致	-7937
一個字源	-7938
互聯網被	-7939
入氣流中	-7940
塑料可能	-7941
已達將近	-7942
彈入空中	-7943
形成連鎖	-7944
才能擯除	-7945
收藏家的	-7946
的立場是	-7947
的總數和	-7948
視女性和	-7949
顆粒被帶	-7950
風的穩定	-7951
▁流離失所	-7952
▁湯普遜的	-7953
上海和廣州	-7954
互聯網被一	-7955
些顆粒被帶	-7956
動物保護區	-7957
塑料可能比	-7958
它們會擊中	-7959
才能擯除分	-7960
的立場是甚	-7961
究一個字源	-7962
給收藏家的	-7963
繼而演變為	-7964
蔑視女性和	-7965
風的穩定吹	-7966
▁很大程度上	-7967
▁流離失所的	-7968
互聯網被一群	-7969
他蔑視女性和	-7970
售給收藏家的	-7971
塑料可能比魚	-7972
將其彈入空中	-7973
形成連鎖反應	-7974
才能擯除分歧	-7975
投資人把政府	-7976
探究一個字源	-7977
提供一些大致	-7978
擬定為羅馬法	-7979
支付巨額賠償	-7980
支持這個假設	-7981
改善會主席喬	-7982
放在化學浴徹	-7983
政權轉移團隊	-7984
政策部部長傑	-7985
效並宣布得票	-7986
教人們如何應	-7987
數位不稱職的	-7988
數據的幫助下	-7989
數量甚至比在	-7990
文字又有意思	-7991
文學獎的殊榮	-7992
料是在凱爾奈	-7993
斯托聖喬瓦尼	-7994
新上任的英國	-7995
新的土著居住	-7996
方面來衡量的	-7997
方面的投資在	-7998
於神秘傳統中	-7999
化至	-8000
印尼	-8001
卻偏	-8002
如露	-8003
的床	-8004
重型	-8005
備卻偏	-8006
化至最	-8007
印尼民	-8008
宛如露	-8009
廳的床	-8010
是一座	-8011
重型火	-8012
來是一座	-8013
備卻偏低	-8014
印尼民眾	-8015
和舞台劇	-8016
客廳的床	-8017
惡化至最	-8018
重型火砲	-8019
來是一座雕	-8020
宛如露天的	-8021
客廳的床墊	-8022
氣象天文台	-8023
norman	-8024
來是一座雕塑	-8025
印尼民眾因此	-8026
宛如露天的下	-8027
客廳的床墊裡	-8028
廣告和舞台劇	-8029
施普林格一直	-8030
日下午的觀賞	-8031
日本政府希望	-8032
明治天皇以前	-8033
是一個嵌入石	-8034
是一名漫畫家	-8035
是一對情侶了	-8036
是否認識作家	-8037
是因為有很多	-8038
是基於有可能	-8039
是從哪兒來的	-8040
是投資者喜愛	-8041
是撒哈拉沙漠	-8042
時的工作時間	-8043
晨的行動中製	-8044
普通儲蓄賬戶	-8045
暗諷以及其他	-8046
更令人擔憂丶	-8047
更令人擔憂的	-8048
更多的捐獻者	-8049
更大的執法和	-8050
更微小的塵埃	-8051
最好的情況下	-8052
最常見的國土	-8053
最高法庭受審	-8054
會山任職變遷	-8055
會快速地打開	-8056
會見了希特勒	-8057
會議員效忠於	-8058
有一位敲輪員	-8059
有一種罕見的	-8060
有三棵棕櫚樹	-8061
有些國家甚至	-8062
有史以來最低	-8063
有很多不同的	-8064
有很大的需求	-8065
未被妥善利用	-8066
本主演的電影	-8067
本先生在七月	-8068
東戰線的局勢	-8069
東部緊鄰色雷	-8070
某些顆粒被帶	-8071
查爾斯被認為	-8072
核還在調查據	-8073
植物科屬依然	-8074
業務不斷擴展	-8075
業生成就展發	-8076
業的諾瑪城際	-8077
榔樹樹皮和葉	-8078
樂隊成員大衛	-8079
機的應用程序	-8080
正把手稿發給	-8081
母語版的聖經	-8082
每人平均大約	-8083
比你更有資格	-8084
比她們的姨媽	-8085
比賽中打平手	-8086
民主黨的爭論	-8087
民兵追殺抵抗	-8088
污染和城鎮化	-8089
汽車突然著火	-8090
沒明顯的分隔	-8091
沒有這些工具	-8092
沖上東非坦桑	-8093
河流均有源頭	-8094
法國代表透露	-8095
法國在馬倫哥	-8096
法官在達菲的	-8097
法蘭西的伊莎	-8098
注意到這一點	-8099
▁農	-8100
中止	-8101
供應	-8102
具木	-8103
周邊	-8104
和木	-8105
堡壘	-8106
大獲	-8107
方形	-8108
棒的	-8109
漬化	-8110
潮期	-8111
的理	-8112
行走	-8113
裁判	-8114
西洋	-8115
賓遜	-8116
頭個	-8117
風是	-8118
iri	-8119
nin	-8120
ven	-8121
▁農村	-8122
了堡壘	-8123
供應而	-8124
值得慶	-8125
具木工	-8126
前中止	-8127
周邊地	-8128
和木匠	-8129
在討論	-8130
地行走	-8131
大西洋	-8132
季風是	-8133
很棒的	-8134
故事的	-8135
羅賓遜	-8136
者大獲	-8137
辦公桌	-8138
這樣一	-8139
fran	-8140
kven	-8141
▁在頭個	-8142
▁季風是	-8143
下地行走	-8144
值得慶賀	-8145
宗教裁判	-8146
家具木工	-8147
投降成為	-8148
新限制在	-8149
方形石製	-8150
步者大獲	-8151
王朝的理	-8152
的熱潮期	-8153
自由大選	-8154
辦公桌上	-8155
這樣一份	-8156
ariri	-8157
frank	-8158
ninen	-8159
▁農村革命	-8160
仍然在討論	-8161
修建了堡壘	-8162
前中止迫害	-8163
問題也可以	-8164
因為周邊地	-8165
很棒的團隊	-8166
後下地行走	-8167
漫步者大獲	-8168
穿過大西洋	-8169
總統的最後	-8170
缺少供應而	-8171
羅賓遜稱為	-8172
辦公桌上嗎	-8173
這樣一份文	-8174
量他將允許	-8175
hariri	-8176
ninene	-8177
▁在頭個世紀	-8178
▁農村革命的	-8179
也修建了堡壘	-8180
克斯洛伐克時	-8181
全國投降成為	-8182
及缺少供應而	-8183
增加新限制在	-8184
實行自由大選	-8185
帆穿過大西洋	-8186
提供了飲用水	-8187
故事的另一個	-8188
方形石製水池	-8189
期後下地行走	-8190
海上風力發電	-8191
淤泥沉積調查	-8192
深的交通系統	-8193
減緩氣候變化	-8194
溫斯頓進入了	-8195
滴從周圍的空	-8196
澳大利亞人蒙	-8197
澳板塊斷層上	-8198
澳洲網球公開	-8199
在近	-8200
塔基	-8201
帝拯	-8202
盛傳	-8203
粘稠	-8204
而是	-8205
處冷	-8206
遷移	-8207
露天	-8208
馬斯	-8209
俗在近	-8210
北遷移	-8211
帝拯救	-8212
托馬斯	-8213
政治辭	-8214
會以外	-8215
深處冷	-8216
的國家	-8217
肯塔基	-8218
間盛傳	-8219
峰會以外	-8220
往北遷移	-8221
政治辭令	-8222
深處冷卻	-8223
的國家中	-8224
的約瑟夫	-8225
習俗在近	-8226
而是稱呼	-8227
較為粘稠	-8228
露天劇場	-8229
在天皇死後	-8230
城峰會以外	-8231
媒體間盛傳	-8232
的國家中撤	-8233
第二次放棄	-8234
而是稱呼姓	-8235
而較為粘稠	-8236
與政治辭令	-8237
人在往北遷移	-8238
在媒體間盛傳	-8239
帝拯救了他的	-8240
常染色體的基	-8241
是在深處冷卻	-8242
景城峰會以外	-8243
濕地形成了凍	-8244
炸雞永不滿足	-8245
為中心的數個	-8246
為什麼我會選	-8247
為基礎的全球	-8248
為最有可能從	-8249
為賬戶添加免	-8250
烏爾里希仍在	-8251
然後是星期幾	-8252
熟練工人提升	-8253
熱的歌曲是由	-8254
燃煤電站也將	-8255
營中獨自探索	-8256
爾卡鬆的歷史	-8257
爾德發現大陸	-8258
爾變得更加善	-8259
片圍繞著地球	-8260
版本中演對手	-8261
特利茨的成功	-8262
特朗普的勝利	-8263
特朗普的扮演	-8264
狀況惡化至最	-8265
狂熱的吉他手	-8266
獨立審查主任	-8267
王安石的賞識	-8268
球錦標賽上的	-8269
瓦雷茨最為知	-8270
生活了數千年	-8271
生活在公元前	-8272
產品當作提高	-8273
產業輸出有旅	-8274
產階級已經發	-8275
用來分隔兩地	-8276
用同樣的方式	-8277
用恰當的儀式	-8278
用非常規處罰	-8279
由於他們兩人	-8280
當做了省警察	-8281
當地薩萊諾的	-8282
當總統的最後	-8283
當賬戶餘額為	-8284
當針對克林頓	-8285
疑問多於答案	-8286
疾病傳播和水	-8287
發展的房地產	-8288
白人男性身分	-8289
百勝餐飲集團	-8290
的主要驅動力	-8291
的內容更多是	-8292
的國家中撤出	-8293
的地標建築南	-8294
的地標燈塔和	-8295
的工業革命比	-8296
的帕爾馬早了	-8297
的微小變化會	-8298
的德國和納粹	-8299
下滑	-8300
了長	-8301
入密	-8302
全美	-8303
分化	-8304
到訪	-8305
前英	-8306
多達	-8307
契諾	-8308
座水	-8309
是區	-8310
曾選	-8311
橋的	-8312
灌溉	-8313
用柳	-8314
的徑	-8315
的碑	-8316
輔音	-8317
醫學	-8318
隊的	-8319
靈巧	-8320
高達	-8321
ben	-8322
▁全美	-8323
▁輔音	-8324
上用柳	-8325
了長久	-8326
分化現	-8327
前英屬	-8328
劇下滑	-8329
劍橋的	-8330
匯入密	-8331
名靈巧	-8332
契諾河	-8333
山的徑	-8334
我們也	-8335
灌溉水	-8336
稱是區	-8337
艦隊的	-8338
菲一起	-8339
集手機	-8340
雜起來	-8341
beno	-8342
▁全美的	-8343
▁輔音漸	-8344
上用柳枝	-8345
不斷變化	-8346
了長久的	-8347
以前曾選	-8348
在同一場	-8349
地點的碑	-8350
墨菲一起	-8351
契諾河和	-8352
山的徑流	-8353
幾集手機	-8354
座水電站	-8355
很多競爭	-8356
急劇下滑	-8357
我們也都	-8358
產生多達	-8359
自稱是區	-8360
艦隊的堵	-8361
複雜起來	-8362
雖然現在	-8363
benoî	-8364
▁南非幾乎	-8365
▁衣服上的	-8366
▁輔音漸變	-8367
▁這項條約	-8368
不斷變化的	-8369
了一名靈巧	-8370
伊斯蘭醫學	-8371
共和黨全國	-8372
分化現像是	-8373
加深對人類	-8374
匯入密西西	-8375
協議提及將	-8376
可產生多達	-8377
在同一場地	-8378
契諾河和寶	-8379
幾集手機就	-8380
提供了高達	-8381
斯山的徑流	-8382
是可以合法	-8383
灌溉水和水	-8384
群自稱是區	-8385
艦隊的堵塞	-8386
25,000	-8387
benoît	-8388
▁我們要評估	-8389
▁衣服上的血	-8390
▁這項條約將	-8391
一直急劇下滑	-8392
上用柳枝取代	-8393
了長久的征服	-8394
分化現像是多	-8395
到訪加勒比海	-8396
墨菲一起創作	-8397
大群自稱是區	-8398
契諾河和寶河	-8399
億噸	-8400
千萬	-8401
單的	-8402
地處	-8403
左岸	-8404
拉特	-8405
是堅	-8406
溫和	-8407
現為	-8408
用珍	-8409
約一	-8410
一千萬	-8411
單的承	-8412
地處溫	-8413
巴拉特	-8414
擔心會	-8415
有溫和	-8416
用珍珠	-8417
至約一	-8418
行為是	-8419
享有溫和	-8420
單的承諾	-8421
地處溫帶	-8422
太陽眼鏡	-8423
性和武器	-8424
捕行為是	-8425
是堅不可	-8426
用珍珠港	-8427
至一千萬	-8428
▁1991	-8429
上升至約一	-8430
但這一想法	-8431
動性和武器	-8432
擔心會承擔	-8433
是堅不可摧	-8434
訂單的承諾	-8435
逮捕行為是	-8436
上了太陽眼鏡	-8437
享有溫和的地	-8438
但這一想法遭	-8439
北部地處溫帶	-8440
我們也都認為	-8441
是可以合法出	-8442
是堅不可摧的	-8443
機動性和武器	-8444
現為斯洛伐克	-8445
用珍珠港事件	-8446
百萬至一千萬	-8447
的共和黨全國	-8448
的志願者就有	-8449
的採訪為藉口	-8450
的摩托車頭盔	-8451
的擬人機器人	-8452
的放棄收益會	-8453
的文化和歷史	-8454
的是新的一集	-8455
的正確組合的	-8456
的死亡人口最	-8457
的破壞極大地	-8458
的立場是甚麽	-8459
的背後也總有	-8460
的行動告訴了	-8461
的記者都穿戴	-8462
的諡號也起自	-8463
的電影刻畫掙	-8464
的餘額中賺取	-8465
皮洛士不得不	-8466
省內代理人的	-8467
看幾集手機就	-8468
看的比賽越多	-8469
知道戴維斯盃	-8470
確定了月相的	-8471
碼技術提出了	-8472
示是一名臥底	-8473
社黨的掌權後	-8474
祭祀遺跡由一	-8475
种子選手莎拉	-8476
科羅拉多州丹	-8477
程度相對較低	-8478
穿過邊境之後	-8479
穿過邊境進入	-8480
符拉迪沃斯托	-8481
第一次偉大的	-8482
第三張錄音室	-8483
第二次放棄了	-8484
管不好核武器	-8485
管不好自己的	-8486
管理王安石的	-8487
節日各有不同	-8488
節都有其含義	-8489
簡直是太仁慈	-8490
系統投入使用	-8491
系統添加到那	-8492
系統的成功研	-8493
約克公爵三世	-8494
絕妙的挑戰的	-8495
統計數據分析	-8496
經常一個人呆	-8497
經常被標記為	-8498
經過一些奇蹟	-8499
▁密	-8500
匹種	-8501
復一	-8502
扭屁	-8503
搏鬥	-8504
淡水	-8505
灣和	-8506
烈性	-8507
精類	-8508
考察	-8509
蘇姆	-8510
蜂蜜	-8511
規則	-8512
較深	-8513
通往	-8514
進的	-8515
▁密碼	-8516
一匹種	-8517
即擁有	-8518
同時代	-8519
對扭屁	-8520
復一日	-8521
改進的	-8522
次選舉	-8523
淡水湖	-8524
烈性水	-8525
精類飲	-8526
胡蘇姆	-8527
與考察	-8528
船員在	-8529
萊灣和	-8530
蜂蜜酒	-8531
誤以為	-8532
諾斯艾	-8533
通往弗	-8534
tima	-8535
上的描述	-8536
同時代最	-8537
名船員在	-8538
和胡蘇姆	-8539
宜諾斯艾	-8540
對扭屁股	-8541
改進的餘	-8542
施萊灣和	-8543
日復一日	-8544
次選舉中	-8545
烈性水果	-8546
無論規則	-8547
現在變得	-8548
精類飲品	-8549
蜂蜜酒和	-8550
這些搏鬥	-8551
通常較深	-8552
通往弗倫	-8553
面對海外	-8554
átima	-8555
▁de▁b	-8556
▁其警察隊	-8557
▁密碼方面	-8558
▁無論規則	-8559
六大國沒有	-8560
其中一匹種	-8561
受到的影響	-8562
名船員在船	-8563
和同時代最	-8564
在這些搏鬥	-8565
好面對海外	-8566
宜諾斯艾利	-8567
改進的餘地	-8568
有人誤以為	-8569
比現在變得	-8570
烈性水果酒	-8571
與考察工作	-8572
酒精類飲品	-8573
霾日復一日	-8574
fátima	-8575
▁六大國沒有	-8576
▁其警察隊伍	-8577
▁此次選舉中	-8578
》(1992	-8579
上的描述一樣	-8580
代表了最保守	-8581
做好面對海外	-8582
名船員在船上	-8583
報告中充分讚	-8584
小塊釙使羅娜	-8585
布宜諾斯艾利	-8586
會有人誤以為	-8587
當時通往弗倫	-8588
的人對扭屁股	-8589
罰參與不道德	-8590
羅大眾的注意	-8591
羅馬出於管理	-8592
美國科幻電影	-8593
美洲土著群體	-8594
美洲的熱潮期	-8595
美西斯在後勤	-8596
義扭轉了對抗	-8597
者和公眾的反	-8598
者已經在維多	-8599
▁胡	-8600
交錯	-8601
其極	-8602
普魯	-8603
枯竭	-8604
由礁	-8605
的尾	-8606
而行	-8607
舌爾	-8608
阿穆	-8609
飢荒	-8610
高登	-8611
ild	-8612
▁胡安	-8613
中國西	-8614
們更加	-8615
內戰參	-8616
其極端	-8617
務會議	-8618
原因是	-8619
可能這	-8620
塞舌爾	-8621
寶的尾	-8622
由礁石	-8623
處阿穆	-8624
蜒而行	-8625
非白人	-8626
mild	-8627
▁可能這	-8628
們更加沮	-8629
內戰參戰	-8630
商務會議	-8631
塞舌爾和	-8632
寶寶的尾	-8633
有關太空	-8634
發生飢荒	-8635
的非白人	-8636
處阿穆魯	-8637
蜿蜒而行	-8638
轉型都是	-8639
養分枯竭	-8640
人均收入及	-8641
但是其極端	-8642
們更加沮喪	-8643
內戰參戰者	-8644
化轉型都是	-8645
區發生飢荒	-8646
塞舌爾和刁	-8647
從寶寶的尾	-8648
成為中國西	-8649
普魯斯海峽	-8650
桑蜿蜒而行	-8651
模糊了他的	-8652
由礁石保護	-8653
身處阿穆魯	-8654
之成為中國西	-8655
傳統的非白人	-8656
分以及秋分處	-8657
勒桑蜿蜒而行	-8658
化轉型都是史	-8659
參加商務會議	-8660
塞舌爾和刁曼	-8661
擁有互相交錯	-8662
方法作為一個	-8663
是內戰參戰者	-8664
是必不可少的	-8665
模糊了他的眼	-8666
由礁石保護起	-8667
節目有關太空	-8668
而十個中有九	-8669
而我寧願別人	-8670
而有力的呼籲	-8671
而當增長率比	-8672
而黨派領導人	-8673
聲波檢測變得	-8674
能使植物健康	-8675
能力將會受限	-8676
能合理地假設	-8677
能夠陶冶情操	-8678
腦的發育長期	-8679
膀胱的組織中	-8680
自凱爾特海和	-8681
自己高爾夫打	-8682
自然遺產列為	-8683
自由開始高麗	-8684
致命的一擊和	-8685
與天主教聯盟	-8686
與我們的日常	-8687
花費數個小時	-8688
英格蘭和威爾	-8689
茉莉公主出現	-8690
茲福德地區有	-8691
草稿風格似的	-8692
莫利塞地區和	-8693
萬歐元可以供	-8694
著於西方的蠅	-8695
葵格和姬絲汀	-8696
蒂岡法律中移	-8697
薩米人方言的	-8698
處有關被征服	-8699
se	-8700
一體	-8701
佩特	-8702
信簽	-8703
力馬	-8704
問我	-8705
在五	-8706
山峰	-8707
巨碑	-8708
恐懼	-8709
是電	-8710
牌二	-8711
秒鐘	-8712
議程	-8713
道和	-8714
顫動	-8715
sea	-8716
▁jr	-8717
▁這張	-8718
乞力馬	-8719
佩特森	-8720
六秒鐘	-8721
告牌二	-8722
巨碑的	-8723
年發生	-8724
我確實	-8725
是電話	-8726
水道和	-8727
為一體	-8728
電信簽	-8729
1954	-8730
▁這張卡	-8731
乞力馬扎	-8732
兩個山峰	-8733
公告牌二	-8734
共同議程	-8735
合法移民	-8736
感到恐懼	-8737
止是電話	-8738
水道和污	-8739
確信其中	-8740
融為一體	-8741
行的問我	-8742
開始顫動	-8743
1954)	-8744
不止是電話	-8745
不行的問我	-8746
乞力馬扎羅	-8747
他確信其中	-8748
佩特森能夠	-8749
保羅修道院	-8750
兩人之間的	-8751
公告牌二百	-8752
巨碑的具體	-8753
德國電信簽	-8754
我確實看到	-8755
乞力馬扎羅山	-8756
公告牌二百強	-8757
六秒鐘的藝術	-8758
到不行的問我	-8759
動摩托車商業	-8760
有的共同議程	-8761
水道和污水池	-8762
矽谷的還要多	-8763
經濟融為一體	-8764
聖保羅修道院	-8765
血紅蛋白水平	-8766
行為的代理商	-8767
被當作孩子來	-8768
被稱為聖羅斯	-8769
被調查很多年	-8770
被進一步轉運	-8771
裁定它們符合	-8772
裔猶太人當中	-8773
製作出自己的	-8774
西嘉砲兵軍官	-8775
西格爾提出在	-8776
西部邊緣已經	-8777
要拿出自己的	-8778
要求其他國家	-8779
要求把他們的	-8780
見了他未來的	-8781
見到她的朋友	-8782
觀察太陽和滿	-8783
觀的交易通道	-8784
觀眾要求返場	-8785
角度考慮而排	-8786
計劃能夠省出	-8787
計劃藉由建立	-8788
訪問了堪察加	-8789
設了一所學校	-8790
許多橫向的小	-8791
該區以前木偶	-8792
該地區是由於	-8793
該城市的經濟	-8794
該實驗的結果	-8795
認識的許多人	-8796
說明了這三項	-8797
說法就被推翻	-8798
請願書的作者	-8799
kü	-8800
中則	-8801
例子	-8802
出預	-8803
升幅	-8804
卡普	-8805
安保	-8806
年去	-8807
忙抓	-8808
最廣	-8809
殿有	-8810
混沌	-8811
源的	-8812
演化	-8813
葺了	-8814
貨物	-8815
造力	-8816
eli	-8817
küh	-8818
▁那時	-8819
修葺了	-8820
匆忙抓	-8821
卡普亞	-8822
布商業	-8823
年去世	-8824
後殿有	-8825
是最廣	-8826
構造力	-8827
演化而	-8828
的熱曲	-8829
的蒂娜	-8830
的貨物	-8831
的那些	-8832
起源的	-8833
超出預	-8834
kühn	-8835
的	-8836
,	-8837
▁	-8838
。	-8839
在	-8840
了	-8841
一	-8842
是	-8843
他	-8844
人	-8845
1	-8846
有	-8847
年	-8848
0	-8849
和	-8850
為	-8851
國	-8852
這	-8853
中	-8854
個	-8855
大	-8856
a	-8857
們	-8858
不	-8859
斯	-8860
地	-8861
於	-8862
e	-8863
r	-8864
來	-8865
n	-8866
時	-8867
會	-8868
以	-8869
2	-8870
(	-8871
)	-8872
後	-8873
i	-8874
能	-8875
爾	-8876
上	-8877
到	-8878
之	-8879
發	-8880
9	-8881
多	-8882
對	-8883
o	-8884
作	-8885
·	-8886
其	-8887
被	-8888
但	-8889
可	-8890
我	-8891
成	-8892
法	-8893
生	-8894
出	-8895
用	-8896
部	-8897
公	-8898
最	-8899
t	-8900
s	-8901
特	-8902
要	-8903
自	-8904
前	-8905
、	-8906
利	-8907
行	-8908
月	-8909
3	-8910
家	-8911
說	-8912
c	-8913
”	-8914
分	-8915
區	-8916
l	-8917
世	-8918
拉	-8919
“	-8920
過	-8921
並	-8922
而	-8923
方	-8924
經	-8925
西	-8926
克	-8927
得	-8928
5	-8929
同	-8930
工	-8931
也	-8932
亞	-8933
現	-8934
當	-8935
美	-8936
因	-8937
她	-8938
學	-8939
就	-8940
所	-8941
開	-8942
海	-8943
德	-8944
代	-8945
加	-8946
很	-8947
及	-8948
如	-8949
間	-8950
下	-8951
戰	-8952
m	-8953
些	-8954
次	-8955
那	-8956
8	-8957
事	-8958
位	-8959
羅	-8960
d	-8961
內	-8962
從	-8963
政	-8964
與	-8965
進	-8966
都	-8967
主	-8968
民	-8969
統	-8970
6	-8971
它	-8972
者	-8973
著	-8974
天	-8975
已	-8976
影	-8977
新	-8978
期	-8979
表	-8980
該	-8981
尼	-8982
日	-8983
面	-8984
馬	-8985
第	-8986
還	-8987
兩	-8988
電	-8989
7	-8990
動	-8991
機	-8992
立	-8993
里	-8994
關	-8995
高	-8996
4	-8997
《	-8998
》	-8999
子	-9000
道	-9001
布	-9002
建	-9003
格	-9004
比	-9005
由	-9006
安	-9007
數	-9008
本	-9009
此	-9010
理	-9011
約	-9012
h	-9013
元	-9014
力	-9015
場	-9016
定	-9017
市	-9018
希	-9019
至	-9020
b	-9021
將	-9022
接	-9023
使	-9024
全	-9025
英	-9026
起	-9027
選	-9028
十	-9029
通	-9030
達	-9031
長	-9032
受	-9033
巴	-9034
常	-9035
平	-9036
明	-9037
種	-9038
南	-9039
據	-9040
議	-9041
軍	-9042
g	-9043
任	-9044
名	-9045
投	-9046
樣	-9047
演	-9048
u	-9049
意	-9050
教	-9051
業	-9052
洲	-9053
變	-9054
資	-9055
奧	-9056
導	-9057
然	-9058
總	-9059
保	-9060
卡	-9061
合	-9062
提	-9063
歐	-9064
沒	-9065
紀	-9066
蘭	-9067
三	-9068
司	-9069
治	-9070
直	-9071
信	-9072
北	-9073
員	-9074
外	-9075
小	-9076
少	-9077
普	-9078
更	-9079
產	-9080
相	-9081
阿	-9082
度	-9083
手	-9084
水	-9085
示	-9086
系	-9087
裡	-9088
解	-9089
重	-9090
入	-9091
城	-9092
展	-9093
文	-9094
目	-9095
認	-9096
隊	-9097
件	-9098
好	-9099
實	-9100
性	-9101
界	-9102
非	-9103
去	-9104
史	-9105
回	-9106
女	-9107
化	-9108
始	-9109
把	-9110
無	-9111
爭	-9112
物	-9113
術	-9114
p	-9115
共	-9116
向	-9117
告	-9118
報	-9119
島	-9120
正	-9121
看	-9122
稱	-9123
處	-9124
量	-9125
y	-9126
基	-9127
府	-9128
情	-9129
果	-9130
根	-9131
歷	-9132
河	-9133
科	-9134
讓	-9135
k	-9136
山	-9137
己	-9138
幾	-9139
心	-9140
片	-9141
獲	-9142
計	-9143
許	-9144
論	-9145
賽	-9146
頓	-9147
—	-9148
助	-9149
只	-9150
士	-9151
想	-9152
持	-9153
未	-9154
標	-9155
氣	-9156
活	-9157
聯	-9158
近	-9159
體	-9160
二	-9161
令	-9162
制	-9163
劇	-9164
放	-9165
權	-9166
決	-9167
程	-9168
言	-9169
金	-9170
顯	-9171
黨	-9172
;	-9173
別	-9174
品	-9175
應	-9176
查	-9177
致	-9178
運	-9179
需	-9180
領	-9181
f	-9182
且	-9183
夫	-9184
或	-9185
指	-9186
樂	-9187
每	-9188
維	-9189
薩	-9190
費	-9191
隨	-9192
響	-9193
項	-9194
首	-9195
:	-9196
低	-9197
候	-9198
包	-9199
協	-9200
圖	-9201
土	-9202
括	-9203
源	-9204
皇	-9205
管	-9206
給	-9207
見	-9208
調	-9209
越	-9210
雷	-9211
麼	-9212
.	-9213
v	-9214
原	-9215
古	-9216
命	-9217
四	-9218
增	-9219
東	-9220
林	-9221
求	-9222
球	-9223
納	-9224
製	-9225
語	-9226
院	-9227
離	-9228
點	-9229
%	-9230
供	-9231
倫	-9232
口	-9233
問	-9234
帶	-9235
息	-9236
擔	-9237
收	-9238
望	-9239
條	-9240
極	-9241
票	-9242
超	-9243
預	-9244
-	-9245
伊	-9246
伯	-9247
傳	-9248
像	-9249
兒	-9250
六	-9251
具	-9252
功	-9253
域	-9254
夠	-9255
太	-9256
字	-9257
州	-9258
形	-9259
獨	-9260
班	-9261
眾	-9262
研	-9263
破	-9264
確	-9265
舉	-9266
設	-9267
諾	-9268
警	-9269
造	-9270
際	-9271
勒	-9272
參	-9273
取	-9274
型	-9275
塞	-9276
宣	-9277
控	-9278
易	-9279
牙	-9280
究	-9281
續	-9282
義	-9283
萬	-9284
視	-9285
記	-9286
車	-9287
迪	-9288
邊	-9289
頭	-9290
題	-9291
z	-9292
乎	-9293
務	-9294
印	-9295
另	-9296
均	-9297
寫	-9298
局	-9299
托	-9300
技	-9301
朝	-9302
死	-9303
溫	-9304
空	-9305
節	-9306
組	-9307
結	-9308
色	-9309
角	-9310
除	-9311
音	-9312
五	-9313
似	-9314
你	-9315
例	-9316
威	-9317
季	-9318
完	-9319
客	-9320
引	-9321
打	-9322
拿	-9323
支	-9324
族	-9325
曼	-9326
曾	-9327
濟	-9328
知	-9329
社	-9330
蒂	-9331
證	-9332
護	-9333
週	-9334
住	-9335
做	-9336
僅	-9337
先	-9338
再	-9339
則	-9340
友	-9341
反	-9342
埃	-9343
塔	-9344
密	-9345
強	-9346
必	-9347
戶	-9348
摩	-9349
擊	-9350
改	-9351
早	-9352
曲	-9353
服	-9354
朗	-9355
歌	-9356
殺	-9357
流	-9358
王	-9359
瑪	-9360
聖	-9361
萊	-9362
話	-9363
責	-9364
邦	-9365
集	-9366
?	-9367
何	-9368
備	-9369
吉	-9370
哥	-9371
境	-9372
存	-9373
往	-9374
愛	-9375
感	-9376
才	-9377
況	-9378
洛	-9379
派	-9380
澳	-9381
率	-9382
盟	-9383
臘	-9384
華	-9385
觀	-9386
評	-9387
路	-9388
轉	-9389
遠	-9390
降	-9391
風	-9392
麥	-9393
w	-9394
丁	-9395
交	-9396
什	-9397
份	-9398
佔	-9399
價	-9400
典	-9401
列	-9402
創	-9403
勢	-9404
單	-9405
堡	-9406
娜	-9407
孩	-9408
官	-9409
帝	-9410
廣	-9411
推	-9412
故	-9413
效	-9414
波	-9415
消	-9416
深	-9417
滿	-9418
激	-9419
石	-9420
老	-9421
藝	-9422
難	-9423
飛	-9424
j	-9425
七	-9426
丹	-9427
仍	-9428
俄	-9429
修	-9430
劃	-9431
博	-9432
台	-9433
各	-9434
否	-9435
商	-9436
失	-9437
奇	-9438
居	-9439
屬	-9440
席	-9441
承	-9442
斷	-9443
止	-9444
清	-9445
火	-9446
爵	-9447
白	-9448
突	-9449
米	-9450
終	-9451
絕	-9452
網	-9453
貝	-9454
遊	-9455
限	-9456
革	-9457
億	-9458
優	-9459
凱	-9460
升	-9461
即	-9462
姆	-9463
專	-9464
座	-9465
式	-9466
張	-9467
態	-9468
戲	-9469
找	-9470
擁	-9471
施	-9472
案	-9473
步	-9474
沙	-9475
測	-9476
準	-9477
版	-9478
獎	-9479
瑞	-9480
環	-9481
瓦	-9482
百	-9483
移	-9484
穿	-9485
等	-9486
繼	-9487
缺	-9488
習	-9489
船	-9490
訴	-9491
負	-9492
身	-9493
較	-9494
適	-9495
釋	-9496
防	-9497
雅	-9498
須	-9499
類	-9500
鬥	-9501
充	-9502
初	-9503
呼	-9504
哈	-9505
夏	-9506
害	-9507
容	-9508
察	-9509
帕	-9510
幫	-9511
律	-9512
挑	-9513
整	-9514
暴	-9515
書	-9516
歡	-9517
歲	-9518
殖	-9519
減	-9520
港	-9521
男	-9522
略	-9523
疑	-9524
省	-9525
站	-9526
緊	-9527
群	-9528
育	-9529
舊	-9530
花	-9531
試	-9532
象	-9533
輕	-9534
農	-9535
追	-9536
銀	-9537
陸	-9538
露	-9539
願	-9540
魚	-9541
依	-9542
係	-9543
值	-9544
停	-9545
兵	-9546
勝	-9547
周	-9548
喜	-9549
圍	-9550
底	-9551
庭	-9552
康	-9553
弗	-9554
快	-9555
恩	-9556
房	-9557
抗	-9558
排	-9559
撒	-9560
料	-9561
校	-9562
梅	-9563
毀	-9564
母	-9565
注	-9566
甚	-9567
登	-9568
益	-9569
督	-9570
礦	-9571
精	-9572
素	-9573
線	-9574
織	-9575
聲	-9576
職	-9577
菲	-9578
蒙	-9579
蘇	-9580
訪	-9581
足	-9582
遺	-9583
鎮	-9584
鐵	-9585
附	-9586
額	-9587
香	-9588
"	-9589
á	-9590
京	-9591
今	-9592
債	-9593
冬	-9594
半	-9595
卻	-9596
又	-9597
含	-9598
吸	-9599
喬	-9600
嚴	-9601
園	-9602
塊	-9603
妻	-9604
婚	-9605
宗	-9606
室	-9607
層	-9608
岸	-9609
弟	-9610
復	-9611
徵	-9612
戴	-9613
敦	-9614
朋	-9615
木	-9616
植	-9617
構	-9618
模	-9619
款	-9620
汽	-9621
洋	-9622
熱	-9623
留	-9624
真	-9625
積	-9626
簽	-9627
索	-9628
興	-9629
艾	-9630
茨	-9631
落	-9632
號	-9633
衝	-9634
補	-9635
規	-9636
親	-9637
討	-9638
識	-9639
質	-9640
跟	-9641
述	-9642
退	-9643
遜	-9644
邁	-9645
酒	-9646
醫	-9647
食	-9648
餘	-9649
麗	-9650
互	-9651
付	-9652
便	-9653
傷	-9654
券	-9655
唱	-9656
團	-9657
堂	-9658
墨	-9659
契	-9660
尋	-9661
巨	-9662
征	-9663
思	-9664
批	-9665
採	-9666
揮	-9667
撤	-9668
攻	-9669
束	-9670
某	-9671
棄	-9672
森	-9673
歸	-9674
泰	-9675
滅	-9676
礎	-9677
神	-9678
福	-9679
競	-9680
級	-9681
績	-9682
置	-9683
考	-9684
聞	-9685
肯	-9686
脈	-9687
航	-9688
衛	-9689
覺	-9690
訂	-9691
賬	-9692
赫	-9693
走	-9694
輯	-9695
辦	-9696
迫	-9697
逐	-9698
野	-9699
錄	-9700
靈	-9701
驗	-9702
魯	-9703
黎	-9704
£	-9705
久	-9706
乾	-9707
亂	-9708
予	-9709
亡	-9710
佛	-9711
健	-9712
傑	-9713
兄	-9714
刻	-9715
千	-9716
危	-9717
善	-9718
坐	-9719
壓	-9720
壞	-9721
守	-9722
審	-9723
嶼	-9724
師	-9725
幅	-9726
念	-9727
恐	-9728
惡	-9729
慶	-9730
扮	-9731
拒	-9732
描	-9733
擇	-9734
敗	-9735
敵	-9736
旅	-9737
星	-9738
智	-9739
析	-9740
概	-9741
油	-9742
烈	-9743
照	-9744
猶	-9745
畫	-9746
瘤	-9747
療	-9748
監	-9749
私	-9750
童	-9751
築	-9752
細	-9753
絲	-9754
練	-9755
耳	-9756
般	-9757
芬	-9758
莉	-9759
莎	-9760
莫	-9761
藉	-9762
訓	-9763
谷	-9764
財	-9765
貿	-9766
賴	-9767
贏	-9768
返	-9769
途	-9770
釙	-9771
鎊	-9772
門	-9773
隆	-9774
雨	-9775
靠	-9776
驚	-9777
黃	-9778
默	-9779
丶	-9780
乘	-9781
九	-9782
休	-9783
估	-9784
佈	-9785
佳	-9786
侵	-9787
假	-9788
光	-9789
冊	-9790
冠	-9791
冰	-9792
剛	-9793
匹	-9794
占	-9795
叛	-9796
哪	-9797
唐	-9798
嗎	-9799
器	-9800
執	-9801
壇	-9802
奈	-9803
媒	-9804
尤	-9805
峽	-9806
差	-9807
幸	-9808
庫	-9809
廢	-9810
役	-9811
待	-9812
徒	-9813
微	-9814
抱	-9815
抵	-9816
拍	-9817
授	-9818
探	-9819
揭	-9820
擴	-9821
春	-9822
晚	-9823
景	-9824
板	-9825
染	-9826
檢	-9827
武	-9828
沃	-9829
湖	-9830
漠	-9831
漢	-9832
漫	-9833
漲	-9834
漸	-9835
狂	-9836
瑟	-9837
病	-9838
皮	-9839
盛	-9840
眼	-9841
碑	-9842
碳	-9843
穩	-9844
章	-9845
笑	-9846
算	-9847
簡	-9848
紅	-9849
緩	-9850
罪	-9851
罰	-9852
署	-9853
耶	-9854
腫	-9855
臨	-9856
葉	-9857
血	-9858
街	-9859
裂	-9860
裔	-9861
裝	-9862
誰	-9863
講	-9864
趣	-9865
跡	-9866
連	-9867
遭	-9868
避	-9869
郵	-9870
錢	-9871
雖	-9872
霍	-9873
順	-9874
龍	-9875
ü	-9876
乏	-9877
亨	-9878
企	-9879
佐	-9880
佩	-9881
偶	-9882
儘	-9883
儲	-9884
允	-9885
八	-9886
冷	-9887
切	-9888
勞	-9889
勵	-9890
午	-9891
卑	-9892
味	-9893
售	-9894
喀	-9895
困	-9896
坦	-9897
培	-9898
堅	-9899
夢	-9900
妥	-9901
委	-9902
寶	-9903
封	-9904
岡	-9905
岩	-9906
巧	-9907
幻	-9908
志	-9909
怎	-9910
您	-9911
戈	-9912
截	-9913
拔	-9914
拜	-9915
捕	-9916
搬	-9917
播	-9918
暗	-9919
曆	-9920
替	-9921
末	-9922
柯	-9923
棒	-9924
棲	-9925
榮	-9926
段	-9927
永	-9928
污	-9929
沈	-9930
沉	-9931
沿	-9932
溯	-9933
炸	-9934
烏	-9935
煩	-9936
燈	-9937
爆	-9938
牌	-9939
牢	-9940
犯	-9941
狀	-9942
畢	-9943
異	-9944
短	-9945
祖	-9946
禁	-9947
秘	-9948
穀	-9949
符	-9950
答	-9951
糊	-9952
綠	-9953
緣	-9954
繫	-9955
翰	-9956
翼	-9957
肺	-9958
脫	-9959
良	-9960
茲	-9961
荷	-9962
葛	-9963
葬	-9964
蓋	-9965
裁	-9966
觸	-9967
詞	-9968
課	-9969
談	-9970
請	-9971
諸	-9972
讀	-9973
賓	-9974
賞	-9975
購	-9976
踪	-9977
輸	-9978
速	-9979
遇	-9980
遷	-9981
配	-9982
針	-9983
銅	-9984
銷	-9985
錯	-9986
鍵	-9987
鐘	-9988
阻	-9989
障	-9990
青	-9991
顏	-9992
飲	-9993
髮	-9994
鮮	-9995
鴉	-9996
$	-9997
乃	-9998
享	-9999
仰	-10000
伐	-10001
侶	-10002
免	-10003
刺	-10004
削	-10005
割	-10006
努	-10007
勳	-10008
匈	-10009
吞	-10010
嘉	-10011
坎	-10012
埋	-10013
堪	-10014
塑	-10015
塵	-10016
壤	-10017
央	-10018
妙	-10019
妹	-10020
婦	-10021
媽	-10022
嫌	-10023
嬰	-10024
孕	-10025
宜	-10026
富	-10027
峰	-10028
巫	-10029
幣	-10030
干	-10031
幹	-10032
序	-10033
廈	-10034
延	-10035
弱	-10036
彈	-10037
彩	-10038
徑	-10039
徹	-10040
怖	-10041
怪	-10042
恰	-10043
憂	-10044
扎	-10045
捷	-10046
掉	-10047
掌	-10048
措	-10049
揚	-10050
損	-10051
摧	-10052
擬	-10053
擾	-10054
旁	-10055
旱	-10056
昂	-10057
暫	-10058
朱	-10059
李	-10060
材	-10061
柴	-10062
核	-10063
桑	-10064
棕	-10065
楚	-10066
樓	-10067
樹	-10068
欺	-10069
殊	-10070
汗	-10071
池	-10072
洗	-10073
浮	-10074
涯	-10075
混	-10076
湯	-10077
灣	-10078
災	-10079
父	-10080
牛	-10081
牧	-10082
獻	-10083
瘋	-10084
皈	-10085
碼	-10086
礁	-10087
祭	-10088
禮	-10089
秀	-10090
稅	-10091
稿	-10092
竟	-10093
策	-10094
範	-10095
粒	-10096
糕	-10097
糟	-10098
紙	-10099
絡	-10100
編	-10101
罕	-10102
聽	-10103
股	-10104
肥	-10105
背	-10106
腦	-10107
茉	-10108
草	-10109
荒	-10110
蓄	-10111
藥	-10112
蛋	-10113
複	-10114
覽	-10115
訥	-10116
詩	-10117
詹	-10118
誤	-10119
誼	-10120
讚	-10121
豬	-10122
貌	-10123
貨	-10124
貴	-10125
買	-10126
貸	-10127
賣	-10128
贊	-10129
趨	-10130
輪	-10131
轟	-10132
辭	-10133
迷	-10134
送	-10135
遍	-10136
郡	-10137
鄰	-10138
銜	-10139
錦	-10140
鏈	-10141
鏡	-10142
閒	-10143
陽	-10144
階	-10145
隔	-10146
險	-10147
隻	-10148
雲	-10149
震	-10150
頻	-10151
顆	-10152
顧	-10153
養	-10154
館	-10155
騎	-10156
鬆	-10157
鬧	-10158
鮑	-10159
麻	-10160
黑	-10161
鼓	-10162
龐	-10163
/	-10164
ä	-10165
丘	-10166
丟	-10167
串	-10168
么	-10169
亦	-10170
亮	-10171
促	-10172
借	-10173
偉	-10174
偏	-10175
傻	-10176
傾	-10177
償	-10178
兼	-10179
凳	-10180
刑	-10181
判	-10182
剩	-10183
副	-10184
劍	-10185
募	-10186
匯	-10187
卜	-10188
厭	-10189
叫	-10190
右	-10191
君	-10192
吹	-10193
哭	-10194
喪	-10195
嘗	-10196
噁	-10197
固	-10198
墓	-10199
墜	-10200
墟	-10201
夜	-10202
奏	-10203
奠	-10204
奢	-10205
奪	-10206
姍	-10207
娛	-10208
婷	-10209
嫁	-10210
寒	-10211
寓	-10212
寡	-10213
寧	-10214
射	-10215
尚	-10216
尾	-10217
屆	-10218
崔	-10219
崗	-10220
崙	-10221
嶄	-10222
川	-10223
左	-10224
帆	-10225
帖	-10226
床	-10227
廉	-10228
廠	-10229
廳	-10230
廷	-10231
彼	-10232
忘	-10233
忙	-10234
忠	-10235
忽	-10236
怒	-10237
怕	-10238
急	-10239
惑	-10240
愚	-10241
慢	-10242
慣	-10243
慮	-10244
憾	-10245
懷	-10246
扭	-10247
折	-10248
按	-10249
挪	-10250
捐	-10251
搖	-10252
撰	-10253
擋	-10254
操	-10255
擺	-10256
救	-10257
敲	-10258
暖	-10259
村	-10260
杯	-10261
枝	-10262
架	-10263
柏	-10264
榜	-10265
橋	-10266
橫	-10267
櫚	-10268
歧	-10269
殿	-10270
毛	-10271
氧	-10272
沖	-10273
泣	-10274
泥	-10275
涉	-10276
液	-10277
涵	-10278
淡	-10279
淤	-10280
添	-10281
滴	-10282
潛	-10283
煙	-10284
煤	-10285
營	-10286
牆	-10287
猜	-10288
獸	-10289
玩	-10290
珠	-10291
琳	-10292
琴	-10293
瑙	-10294
疏	-10295
疼	-10296
痛	-10297
盔	-10298
盧	-10299
矽	-10300
砲	-10301
硬	-10302
碰	-10303
礙	-10304
祈	-10305
祝	-10306
禱	-10307
秋	-10308
穆	-10309
窄	-10310
箭	-10311
篇	-10312
粉	-10313
紐	-10314
紛	-10315
紡	-10316
縱	-10317
繁	-10318
繞	-10319
翻	-10320
聊	-10321
聘	-10322
肖	-10323
胡	-10324
脆	-10325
腓	-10326
臉	-10327
舞	-10328
舟	-10329
艦	-10330
芳	-10331
茵	-10332
萄	-10333
葡	-10334
蕉	-10335
虔	-10336
蜂	-10337
融	-10338
蠢	-10339
衡	-10340
衣	-10341
衰	-10342
裸	-10343
覆	-10344
訊	-10345
託	-10346
訝	-10347
註	-10348
詐	-10349
詢	-10350
詳	-10351
誌	-10352
誓	-10353
誠	-10354
誡	-10355
諷	-10356
謀	-10357
謂	-10358
謙	-10359
譽	-10360
賀	-10361
賠	-10362
賺	-10363
赤	-10364
赦	-10365
跑	-10366
蹟	-10367
躍	-10368
軟	-10369
輔	-10370
迎	-10371
迦	-10372
迴	-10373
逃	-10374
透	-10375
逛	-10376
逝	-10377
遼	-10378
鄉	-10379
酸	-10380
醜	-10381
鋼	-10382
錫	-10383
鑑	-10384
閉	-10385
閣	-10386
闊	-10387
陶	-10388
陷	-10389
雀	-10390
雪	-10391
霧	-10392
霸	-10393
鞋	-10394
韓	-10395
飽	-10396
餐	-10397
駁	-10398
駛	-10399
驅	-10400
魁	-10401
鱈	-10402
鷹	-10403
麽	-10404
齊	-10405
'	-10406
q	-10407
é	-10408
î	-10409
ñ	-10410
ó	-10411
ö	-10412
α	-10413
‘	-10414
’	-10415
•	-10416
丈	-10417
丑	-10418
丸	-10419
乞	-10420
云	-10421
亥	-10422
仁	-10423
仔	-10424
仙	-10425
伍	-10426
伏	-10427
伸	-10428
伽	-10429
併	-10430
侄	-10431
侈	-10432
俗	-10433
俯	-10434
俱	-10435
倉	-10436
倍	-10437
倒	-10438
倖	-10439
偷	-10440
傲	-10441
僱	-10442
儀	-10443
兇	-10444
兔	-10445
冕	-10446
冶	-10447
准	-10448
凌	-10449
凍	-10450
凜	-10451
凡	-10452
刁	-10453
刊	-10454
刷	-10455
剔	-10456
劣	-10457
勃	-10458
勉	-10459
勤	-10460
勿	-10461
匆	-10462
匠	-10463
卸	-10464
厩	-10465
厲	-10466
叢	-10467
召	-10468
吧	-10469
吼	-10470
呂	-10471
呆	-10472
呢	-10473
咎	-10474
哨	-10475
唯	-10476
啟	-10477
啤	-10478
嗆	-10479
嘲	-10480
嘿	-10481
噪	-10482
噬	-10483
噴	-10484
噸	-10485
圓	-10486
圳	-10487
圾	-10488
址	-10489
垃	-10490
堆	-10491
堵	-10492
塚	-10493
塢	-10494
墊	-10495
墮	-10496
墳	-10497
墾	-10498
壘	-10499
壯	-10500
奉	-10501
奎	-10502
奔	-10503
套	-10504
奴	-10505
妮	-10506
姓	-10507
姦	-10508
姨	-10509
姬	-10510
娶	-10511
婭	-10512
孚	-10513
孤	-10514
宇	-10515
宙	-10516
宛	-10517
寂	-10518
寞	-10519
寬	-10520
寵	-10521
寸	-10522
尊	-10523
尖	-10524
尬	-10525
尷	-10526
尺	-10527
屁	-10528
屋	-10529
屍	-10530
屏	-10531
峙	-10532
崇	-10533
嵌	-10534
巔	-10535
巡	-10536
巾	-10537
帳	-10538
帽	-10539
幢	-10540
庇	-10541
店	-10542
庸	-10543
廊	-10544
彌	-10545
徐	-10546
徙	-10547
御	-10548
怠	-10549
怨	-10550
恢	-10551
恭	-10552
悔	-10553
悖	-10554
患	-10555
悶	-10556
惠	-10557
惱	-10558
愍	-10559
慈	-10560
慌	-10561
慎	-10562
慰	-10563
慾	-10564
憑	-10565
憤	-10566
憲	-10567
憶	-10568
懂	-10569
懣	-10570
懲	-10571
懸	-10572
懼	-10573
懾	-10574
戚	-10575
戮	-10576
扣	-10577
抓	-10578
抖	-10579
抹	-10580
拂	-10581
拆	-10582
招	-10583
拯	-10584
拱	-10585
拼	-10586
挫	-10587
挺	-10588
挽	-10589
掀	-10590
掃	-10591
掘	-10592
掙	-10593
掛	-10594
換	-10595
握	-10596
搏	-10597
撈	-10598
撞	-10599
擯	-10600
攔	-10601
攝	-10602
敖	-10603
散	-10604
敬	-10605
斗	-10606
斜	-10607
斥	-10608
旦	-10609
映	-10610
昨	-10611
昭	-10612
晉	-10613
晨	-10614
晰	-10615
曉	-10616
曝	-10617
朵	-10618
朽	-10619
杉	-10620
杭	-10621
杰	-10622
枯	-10623
柔	-10624
柳	-10625
柵	-10626
框	-10627
桌	-10628
梯	-10629
械	-10630
梵	-10631
棉	-10632
棍	-10633
棵	-10634
榔	-10635
槌	-10636
槍	-10637
樑	-10638
樞	-10639
橄	-10640
檯	-10641
檳	-10642
櫃	-10643
欄	-10644
欖	-10645
欠	-10646
欣	-10647
欽	-10648
歇	-10649
殲	-10650
殼	-10651
毅	-10652
毒	-10653
毫	-10654
氟	-10655
氫	-10656
氾	-10657
汀	-10658
汴	-10659
沌	-10660
沮	-10661
泉	-10662
洞	-10663
津	-10664
洪	-10665
洶	-10666
浪	-10667
浴	-10668
涸	-10669
淚	-10670
淪	-10671
淺	-10672
渴	-10673
湊	-10674
湧	-10675
溉	-10676
溢	-10677
溶	-10678
滋	-10679
滑	-10680
滯	-10681
漂	-10682
漏	-10683
漬	-10684
漿	-10685
潘	-10686
潤	-10687
潮	-10688
濕	-10689
濫	-10690
濱	-10691
灌	-10692
灰	-10693
炎	-10694
焚	-10695
煽	-10696
熟	-10697
熬	-10698
燃	-10699
燒	-10700
燙	-10701
燥	-10702
爛	-10703
牠	-10704
牽	-10705
猴	-10706
獵	-10707
玫	-10708
珍	-10709
瑰	-10710
璧	-10711
瓶	-10712
田	-10713
甲	-10714
申	-10715
畸	-10716
疇	-10717
疫	-10718
疾	-10719
症	-10720
痕	-10721
痴	-10722
瘓	-10723
癌	-10724
癱	-10725
盃	-10726
盈	-10727
盜	-10728
盤	-10729
盪	-10730
盲	-10731
盾	-10732
睛	-10733
睡	-10734
瞭	-10735
瞰	-10736
矛	-10737
硫	-10738
碎	-10739
碩	-10740
磁	-10741
磨	-10742
磯	-10743
祀	-10744
祗	-10745
祥	-10746
禍	-10747
禦	-10748
种	-10749
秒	-10750
租	-10751
稍	-10752
稠	-10753
穌	-10754
竭	-10755
端	-10756
筆	-10757
筋	-10758
箋	-10759
箱	-10760
籌	-10761
籍	-10762
籲	-10763
粘	-10764
粹	-10765
糖	-10766
糞	-10767
糧	-10768
糾	-10769
累	-10770
絨	-10771
緒	-10772
緬	-10773
縮	-10774
繆	-10775
繭	-10776
繽	-10777
纜	-10778
耍	-10779
耕	-10780
耗	-10781
联	-10782
聚	-10783
肩	-10784
胃	-10785
胎	-10786
胖	-10787
胞	-10788
胱	-10789
脅	-10790
脖	-10791
腐	-10792
腳	-10793
膀	-10794
臣	-10795
臥	-10796
舌	-10797
舒	-10798
艘	-10799
艱	-10800
芋	-10801
芙	-10802
芝	-10803
芭	-10804
芽	-10805
苗	-10806
若	-10807
范	-10808
茱	-10809
莊	-10810
菩	-10811
董	-10812
葵	-10813
葺	-10814
蓮	-10815
蔑	-10816
蕩	-10817
蕾	-10818
薄	-10819
薪	-10820
藍	-10821
藏	-10822
藹	-10823
蘊	-10824
蘋	-10825
蛹	-10826
蜍	-10827
蜒	-10828
蜜	-10829
蜿	-10830
蝕	-10831
蟾	-10832
蠅	-10833
蠶	-10834
袁	-10835
袖	-10836
裕	-10837
裙	-10838
褲	-10839
襟	-10840
襲	-10841
訟	-10842
誕	-10843
誘	-10844
諡	-10845
諧	-10846
諮	-10847
謠	-10848
謨	-10849
謹	-10850
譴	-10851
豆	-10852
豐	-10853
豪	-10854
豫	-10855
貢	-10856
貶	-10857
貼	-10858
賃	-10859
趕	-10860
跨	-10861
跳	-10862
蹩	-10863
躁	-10864
軒	-10865
載	-10866
輝	-10867
轄	-10868
辛	-10869
辨	-10870
逗	-10871
逮	-10872
遏	-10873
違	-10874
遞	-10875
遣	-10876
遨	-10877
遮	-10878
遲	-10879
遵	-10880
邀	-10881
邏	-10882
邪	-10883
酵	-10884
醉	-10885
醒	-10886
釁	-10887
采	-10888
鈷	-10889
鉛	-10890
鉬	-10891
銥	-10892
鋅	-10893
錘	-10894
錳	-10895
鍍	-10896
鎖	-10897
鎳	-10898
鐳	-10899
鑽	-10900
鑿	-10901
閃	-10902
閏	-10903
閔	-10904
閱	-10905
阱	-10906
陪	-10907
陳	-10908
隕	-10909
隸	-10910
雄	-10911
雕	-10912
雜	-10913
雞	-10914
零	-10915
霾	-10916
靜	-10917
鞭	-10918
韋	-10919
頁	-10920
頂	-10921
頃	-10922
頒	-10923
顫	-10924
飆	-10925
飢	-10926
