<unk>	0
<s>	0
</s>	0
▁在	-0
一個	-1
他們	-2
20	-3
19	-4
▁這	-5
但是	-6
我們	-7
的人	-8
an	-9
他的	-10
可能	-11
已經	-12
ar	-13
以及	-14
工作	-15
公司	-16
美國	-17
201	-18
er	-19
世紀	-20
可以	-21
地區	-22
▁他	-23
沒有	-24
開始	-25
因為	-26
▁但是	-27
政府	-28
自己	-29
英國	-30
電影	-31
00	-32
之後	-33
的一	-34
這些	-35
in	-36
到了	-37
很多	-38
國家	-39
認為	-40
世界	-41
之間	-42
大的	-43
發生	-44
10	-45
其他	-46
影響	-47
部分	-48
18	-49
作為	-50
歷史	-51
獲得	-52
系統	-53
這個	-54
他們的	-55
是一個	-56
一直	-57
來自	-58
包括	-59
同時	-60
大利	-61
on	-62
中國	-63
兩個	-64
其中	-65
如果	-66
成功	-67
成為	-68
投資	-69
方面	-70
最後	-71
決定	-72
的是	-73
第一	-74
進行	-75
200	-76
自己的	-77
使用	-78
年代	-79
建立	-80
戰爭	-81
接受	-82
歐洲	-83
現在	-84
的地	-85
研究	-86
通過	-87
▁我	-88
中的	-89
主要	-90
人的	-91
公元	-92
城市	-93
所有	-94
總統	-95
能夠	-96
許多	-97
這一	-98
需要	-99
en	-100
▁她	-101
不是	-102
之前	-103
了一	-104
來的	-105
區域	-106
導致	-107
提供	-108
時間	-109
班牙	-110
表示	-111
軍隊	-112
非常	-113
西班牙	-114
),	-115
as	-116
ch	-117
”,	-118
▁“	-119
一樣	-120
不同	-121
人們	-122
位於	-123
尼亞	-124
希望	-125
希臘	-126
德國	-127
新的	-128
期間	-129
法國	-130
由於	-131
當時	-132
發展	-133
發現	-134
經濟	-135
羅馬	-136
調查	-137
重要	-138
199	-139
)。	-140
15	-141
or	-142
re	-143
——	-144
▁c	-145
▁一	-146
。”	-147
共和	-148
奧斯	-149
政治	-150
是在	-151
特別	-152
第二	-153
公元前	-154
11	-155
il	-156
le	-157
一起	-158
之一	-159
事件	-160
令人	-161
保護	-162
只有	-163
問題	-164
它們	-165
年的	-166
情況	-167
技術	-168
投票	-169
方法	-170
根據	-171
獨立	-172
超過	-173
阿爾	-174
000	-175
▁19	-176
之間的	-177
了一個	-178
16	-179
:“	-180
ri	-181
▁從	-182
什麼	-183
代表	-184
出現	-185
北部	-186
因此	-187
宣布	-188
必須	-189
所以	-190
數據	-191
有人	-192
歐元	-193
水平	-194
藝術	-195
要求	-196
里斯	-197
關於	-198
音樂	-199
mar	-200
大利亞	-201
澳大利亞	-202
12	-203
ro	-204
st	-205
▁b	-206
▁但	-207
▁它	-208
▁當	-209
並不	-210
全球	-211
增長	-212
存在	-213
市場	-214
幫助	-215
形成	-216
提出	-217
擁有	-218
斯的	-219
是一	-220
最高	-221
有一	-222
朗普	-223
條約	-224
活動	-225
生活	-226
用於	-227
發布	-228
看到	-229
系列	-230
統治	-231
而且	-232
自由	-233
行的	-234
計劃	-235
進入	-236
選舉	-237
隨後	-238
顯示	-239
特朗普	-240
▁201	-241
14	-242
60	-243
at	-244
el	-245
ti	-246
”。	-247
▁另	-248
▁對	-249
▁該	-250
上的	-251
中海	-252
了他	-253
任何	-254
例如	-255
信息	-256
協議	-257
南部	-258
原因	-259
合作	-260
國際	-261
天皇	-262
學生	-263
安全	-264
帝國	-265
幾乎	-266
控制	-267
故事	-268
明顯	-269
是否	-270
期的	-271
殖民	-272
比賽	-273
為了	-274
目前	-275
目標	-276
社會	-277
管理	-278
聯邦	-279
至少	-280
行動	-281
說道	-282
通常	-283
還是	-284
關係	-285
▁他們	-286
13	-287
30	-288
50	-289
al	-290
am	-291
et	-292
▁d	-293
▁s	-294
一些	-295
不可	-296
不會	-297
主義	-298
他在	-299
以前	-300
來說	-301
來越	-302
個月	-303
價格	-304
內的	-305
共同	-306
加勒	-307
告訴	-308
土地	-309
大量	-310
大陸	-311
她的	-312
妻子	-313
孩子	-314
學家	-315
學習	-316
實際	-317
平均	-318
應該	-319
持續	-320
挑戰	-321
擔任	-322
改變	-323
整個	-324
時候	-325
最終	-326
會在	-327
有所	-328
有關	-329
朋友	-330
氣候	-331
無法	-332
現代	-333
甚至	-334
的新	-335
的話	-336
的那	-337
直接	-338
稱為	-339
組成	-340
繼續	-341
美洲	-342
自然	-343
行為	-344
解釋	-345
設計	-346
資源	-347
這種	-348
都是	-349
離開	-350
革命	-351
飛機	-352
▁根據	-353
並沒有	-354
加勒比	-355
地中海	-356
大部分	-357
意大利	-358
有可能	-359
的地方	-360
越來越	-361
av	-362
co	-363
th	-364
▁不	-365
▁那	-366
》(	-367
不斷	-368
人口	-369
人員	-370
人在	-371
伊斯	-372
似乎	-373
傳統	-374
其頓	-375
具有	-376
出演	-377
出生	-378
創作	-379
十年	-380
參與	-381
同樣	-382
名字	-383
埃及	-384
基礎	-385
增加	-386
好的	-387
學校	-388
完全	-389
宗教	-390
導演	-391
就是	-392
屬於	-393
山脈	-394
帶來	-395
建議	-396
應用	-397
手機	-398
拉斯	-399
支持	-400
教堂	-401
時代	-402
歌曲	-403
正在	-404
民族	-405
汽車	-406
法律	-407
產生	-408
相關	-409
知道	-410
程度	-411
第三	-412
航空	-413
衝突	-414
變得	-415
責任	-416
這是	-417
這樣	-418
那裡	-419
附近	-420
隨著	-421
難以	-422
領導	-423
香港	-424
馬克	-425
and	-426
▁如果	-427
▁我們	-428
▁這個	-429
公司的	-430
共和黨	-431
奧斯曼	-432
獲得了	-433
的影響	-434
第一次	-435
馬其頓	-436
,”	-437
17	-438
70	-439
ay	-440
is	-441
la	-442
uc	-443
▁p	-444
▁大	-445
▁據	-446
▁此	-447
》。	-448
並且	-449
佔據	-450
作品	-451
債券	-452
兄弟	-453
全國	-454
再次	-455
出了	-456
分析	-457
利亞	-458
加拿	-459
北京	-460
十分	-461
印度	-462
和平	-463
商業	-464
國王	-465
報告	-466
多的	-467
大學	-468
如此	-469
島嶼	-470
巴黎	-471
幾個	-472
建築	-473
性的	-474
感到	-475
成了	-476
或者	-477
戲劇	-478
扮演	-479
拒絕	-480
放棄	-481
教育	-482
斯頓	-483
日本	-484
最近	-485
會議	-486
服務	-487
格蘭	-488
權力	-489
每個	-490
環境	-491
的事	-492
的機	-493
相似	-494
破產	-495
組織	-496
結束	-497
經常	-498
維亞	-499
羅娜	-500
羅斯	-501
美元	-502
能力	-503
英鎊	-504
製造	-505
試圖	-506
警方	-507
變化	-508
負責	-509
貿易	-510
賬戶	-511
起了	-512
起來	-513
選擇	-514
邊境	-515
那些	-516
部長	-517
部隊	-518
降低	-519
雷斯	-520
非洲	-521
預測	-522
ber	-523
▁18	-524
▁由於	-525
▁這些	-526
▁這次	-527
克里斯	-528
和其他	-529
國家的	-530
成為了	-531
有一個	-532
的原因	-533
該地區	-534
適用於	-535
,000	-536
加勒比海	-537
西班牙語	-538
28	-539
3%	-540
33	-541
ad	-542
bc	-543
lo	-544
ma	-545
nn	-546
ru	-547
▁m	-548
▁希	-549
▁後	-550
》,	-551
一世	-552
一位	-553
一次	-554
不得	-555
丹麥	-556
人類	-557
他和	-558
代理	-559
以來	-560
件事	-561
但在	-562
住在	-563
俄國	-564
保持	-565
修道	-566
候選	-567
倫敦	-568
值得	-569
健康	-570
元素	-571
先生	-572
克斯	-573
入了	-574
公園	-575
公眾	-576
冠軍	-577
出版	-578
分別	-579
利用	-580
力量	-581
動物	-582
勝利	-583
協會	-584
危機	-585
參加	-586
反對	-587
取得	-588
同盟	-589
員會	-590
唐納	-591
喜歡	-592
回到	-593
地產	-594
地面	-595
城鎮	-596
基督	-597
基金	-598
墨西	-599
多數	-600
天的	-601
女兒	-602
女士	-603
媒體	-604
家庭	-605
專輯	-606
就會	-607
展示	-608
工具	-609
工業	-610
年輕	-611
強調	-612
征服	-613
從未	-614
德里	-615
想法	-616
意義	-617
戰役	-618
才能	-619
承擔	-620
指揮	-621
接下	-622
描述	-623
摩拉	-624
文化	-625
文明	-626
明了	-627
時的	-628
智能	-629
最大	-630
東西	-631
板塊	-632
根本	-633
植物	-634
權利	-635
民主	-636
沙漠	-637
河流	-638
海岸	-639
清朝	-640
減少	-641
準備	-642
演出	-643
照片	-644
爾的	-645
猶太	-646
理論	-647
發言	-648
發電	-649
的大	-650
的小	-651
的成	-652
的最	-653
皇家	-654
移民	-655
稱呼	-656
立法	-657
簽訂	-658
給了	-659
維爾	-660
缺少	-661
聯盟	-662
腫瘤	-663
蒙古	-664
處於	-665
表明	-666
表達	-667
裡的	-668
觀眾	-669
討論	-670
訓練	-671
語言	-672
警察	-673
議院	-674
費用	-675
運動	-676
過去	-677
還有	-678
那個	-679
那麼	-680
部的	-681
除了	-682
雖然	-683
電視	-684
ano	-685
ras	-686
ter	-687
▁另外	-688
▁同時	-689
▁為了	-690
▁現在	-691
▁當然	-692
▁目前	-693
▁美國	-694
▁隨著	-695
一方面	-696
一直在	-697
不同的	-698
伊斯蘭	-699
俄羅斯	-700
修道院	-701
候選人	-702
共和國	-703
墨西哥	-704
巴尼亞	-705
情況下	-706
我們的	-707
房地產	-708
斯山脈	-709
方面的	-710
時期的	-711
為什麼	-712
發現了	-713
的一個	-714
的主要	-715
的區域	-716
的最後	-717
的目標	-718
的經濟	-719
藝術家	-720
這件事	-721
重要的	-722
需要的	-723
2014	-724
摩拉維亞	-725
的一部分	-726
阿爾巴尼亞	-727
%,	-728
,“	-729
..	-730
31	-731
35	-732
45	-733
80	-734
90	-735
92	-736
di	-737
es	-738
gy	-739
ia	-740
im	-741
iv	-742
os	-743
ra	-744
▁g	-745
▁《	-746
▁亞	-747
▁卡	-748
▁有	-749
▁阿	-750
一步	-751
七月	-752
三世	-753
三島	-754
上了	-755
上升	-756
上漲	-757
下的	-758
不再	-759
不能	-760
不要	-761
並在	-762
中心	-763
中有	-764
中期	-765
丹內	-766
主教	-767
之中	-768
之處	-769
也被	-770
也許	-771
了兩	-772
交通	-773
人士	-774
人都	-775
仍然	-776
他說	-777
以外	-778
以為	-779
企業	-780
作家	-781
作用	-782
來源	-783
保證	-784
個人	-785
們的	-786
僅僅	-787
儘管	-788
允許	-789
克林	-790
兒童	-791
內容	-792
兩年	-793
公爵	-794
公開	-795
冬季	-796
到達	-797
前往	-798
區的	-799
十四	-800
十月	-801
半島	-802
卡羅	-803
印第	-804
去年	-805
及其	-806
受到	-807
合法	-808
名為	-809
員工	-810
唱片	-811
喀麥	-812
單曲	-813
回了	-814
國民	-815
土耳	-816
在一	-817
地位	-818
地方	-819
地球	-820
地點	-821
城邦	-822
報導	-823
壓力	-824
夏天	-825
夏季	-826
大使	-827
大概	-828
大略	-829
大眾	-830
大約	-831
天氣	-832
契美	-833
女孩	-834
如何	-835
威爾	-836
它的	-837
定了	-838
容易	-839
實驗	-840
將軍	-841
尋找	-842
對手	-843
對象	-844
少數	-845
就像	-846
尼德	-847
州的	-848
年建	-849
廣告	-850
式的	-851
很大	-852
後的	-853
從中	-854
怎麼	-855
息地	-856
成的	-857
批評	-858
承認	-859
抵抗	-860
拉夫	-861
拉的	-862
拉費	-863
拉里	-864
指控	-865
收益	-866
敵人	-867
數個	-868
文學	-869
斯堡	-870
斯托	-871
斯特	-872
方的	-873
日期	-874
星期	-875
時任	-876
更加	-877
曾經	-878
未能	-879
本書	-880
樂隊	-881
標記	-882
機構	-883
正如	-884
歲的	-885
比如	-886
法老	-887
法蘭	-888
泰國	-889
海洋	-890
消息	-891
消費	-892
烈的	-893
爾夫	-894
理查	-895
瑟夫	-896
生命	-897
產品	-898
用戶	-899
男性	-900
當地	-901
當我	-902
百萬	-903
的兩	-904
的角	-905
的說	-906
的高	-907
破壞	-908
私人	-909
積極	-910
穿過	-911
競爭	-912
約翰	-913
緩解	-914
績效	-915
缺乏	-916
聯繫	-917
自治	-918
舉辦	-919
芬蘭	-920
荷蘭	-921
萊恩	-922
處理	-923
補充	-924
製作	-925
西格	-926
西西	-927
見的	-928
覺得	-929
記錄	-930
證明	-931
警告	-932
變為	-933
贏得	-934
身體	-935
軍事	-936
較低	-937
農曆	-938
迪斯	-939
迫害	-940
追溯	-941
逐漸	-942
這次	-943
造成	-944
運河	-945
過程	-946
還在	-947
邊界	-948
都會	-949
銀行	-950
長的	-951
開放	-952
關注	-953
需求	-954
面對	-955
項目	-956
顏色	-957
飛行	-958
首次	-959
鴉片	-960
197	-961
500	-962
ard	-963
bbc	-964
cnn	-965
ill	-966
ing	-967
lin	-968
ran	-969
the	-970
▁de	-971
▁他在	-972
▁她的	-973
▁法國	-974
▁英國	-975
▁超過	-976
▁這是	-977
▁這項	-978
世界大	-979
並不是	-980
也可以	-981
事件的	-982
他們對	-983
代表了	-984
但如果	-985
億美元	-986
克林頓	-987
十年代	-988
印第安	-989
可能會	-990
同時還	-991
唐納德	-992
喀麥隆	-993
土耳其	-994
在那裡	-995
地區的	-996
大略省	-997
委員會	-998
導致了	-999
就已經	-1000
工作的	-1001
布里斯	-1002
年輕的	-1003
很多人	-1004
得到了	-1005
成功的	-1006
投資人	-1007
拉費蒂	-1008
提供了	-1009
政府的	-1010
是什麼	-1011
是因為	-1012
棲息地	-1013
歐洲人	-1014
殖民地	-1015
民主黨	-1016
溫斯頓	-1017
特別是	-1018
獨立的	-1019
理論上	-1020
發言人	-1021
的人口	-1022
的問題	-1023
的投票	-1024
的方法	-1025
的機率	-1026
的發展	-1027
的統治	-1028
看起來	-1029
第一個	-1030
第二次	-1031
維爾克	-1032
蘇格蘭	-1033
這一點	-1034
進一步	-1035
進行了	-1036
銀行的	-1037
阿爾卑	-1038
1492	-1039
2017	-1040
rich	-1041
▁200	-1042
▁car	-1043
▁他們的	-1044
令人難以	-1045
契美尼德	-1046
安大略省	-1047
智能手機	-1048
▁另一方面	-1049
丹內維爾克	-1050
21	-1051
25	-1052
32	-1053
36	-1054
84	-1055
87	-1056
ac	-1057
ca	-1058
ds	-1059
em	-1060
ep	-1061
ff	-1062
ge	-1063
kh	-1064
ki	-1065
me	-1066
ne	-1067
ni	-1068
no	-1069
oh	-1070
ok	-1071
ou	-1072
po	-1073
sl	-1074
ul	-1075
zá	-1076
án	-1077
ün	-1078
▁f	-1079
▁k	-1080
▁t	-1081
▁w	-1082
▁到	-1083
▁博	-1084
▁多	-1085
▁布	-1086
▁截	-1087
▁拉	-1088
▁最	-1089
▁每	-1090
▁沙	-1091
▁然	-1092
▁自	-1093
▁與	-1094
▁高	-1095
一名	-1096
一場	-1097
一天	-1098
一定	-1099
一種	-1100
一致	-1101
三個	-1102
三次	-1103
下一	-1104
下了	-1105
不僅	-1106
不在	-1107
不太	-1108
中華	-1109
主持	-1110
主題	-1111
之下	-1112
之外	-1113
九月	-1114
也會	-1115
也有	-1116
乾旱	-1117
了其	-1118
了多	-1119
了解	-1120
事會	-1121
互聯	-1122
亞新	-1123
亞歷	-1124
亨利	-1125
人和	-1126
人是	-1127
今年	-1128
仍在	-1129
以至	-1130
伐克	-1131
伯爵	-1132
但這	-1133
位的	-1134
住民	-1135
佛羅	-1136
你們	-1137
佳的	-1138
來到	-1139
來看	-1140
依然	-1141
依賴	-1142
侵略	-1143
保羅	-1144
信仰	-1145
倫蒂	-1146
做的	-1147
像是	-1148
優勢	-1149
克爾	-1150
內亞	-1151
內戰	-1152
兩位	-1153
公共	-1154
公投	-1155
六大	-1156
六月	-1157
其後	-1158
具體	-1159
冰島	-1160
凱撒	-1161
凱爾	-1162
凱莎	-1163
分子	-1164
分類	-1165
利普	-1166
削減	-1167
前的	-1168
劇場	-1169
加索	-1170
助手	-1171
助於	-1172
努力	-1173
區柯	-1174
南海	-1175
原本	-1176
去了	-1177
友誼	-1178
反應	-1179
叛亂	-1180
古典	-1181
古巴	-1182
另一	-1183
只是	-1184
各種	-1185
合同	-1186
合理	-1187
合的	-1188
同意	-1189
含量	-1190
吸引	-1191
命令	-1192
和水	-1193
哥倫	-1194
喬治	-1195
嚴重	-1196
四個	-1197
回歸	-1198
國防	-1199
圖特	-1200
團隊	-1201
土著	-1202
在兩	-1203
在周	-1204
在戰	-1205
在於	-1206
在此	-1207
在聖	-1208
在華	-1209
地利	-1210
地表	-1211
士尼	-1212
多是	-1213
夢想	-1214
大幅	-1215
大廈	-1216
大選	-1217
奧巴	-1218
奧爾	-1219
女人	-1220
女性	-1221
好地	-1222
姆斯	-1223
威尼	-1224
嫌疑	-1225
嬰兒	-1226
子郵	-1227
字母	-1228
學者	-1229
學院	-1230
安東	-1231
定居	-1232
客戶	-1233
宣傳	-1234
實施	-1235
實現	-1236
實行	-1237
寫道	-1238
封信	-1239
將其	-1240
將在	-1241
專家	-1242
對待	-1243
對於	-1244
小型	-1245
小說	-1246
就已	-1247
就能	-1248
居住	-1249
居里	-1250
展覽	-1251
工資	-1252
已被	-1253
巴布	-1254
巴拿	-1255
巴爾	-1256
巴西	-1257
巴達	-1258
市民	-1259
帕爾	-1260
帶著	-1261
帶領	-1262
常的	-1263
年被	-1264
康復	-1265
建造	-1266
引發	-1267
徵收	-1268
快速	-1269
恐怖	-1270
想像	-1271
意見	-1272
態度	-1273
慶典	-1274
成立	-1275
我的	-1276
戰場	-1277
托弗	-1278
托車	-1279
找到	-1280
投降	-1281
拉丁	-1282
拉伯	-1283
拉博	-1284
指南	-1285
授予	-1286
排放	-1287
採訪	-1288
接著	-1289
推進	-1290
措施	-1291
摩斯	-1292
擊敗	-1293
擔憂	-1294
支付	-1295
支出	-1296
改革	-1297
攻擊	-1298
政權	-1299
政策	-1300
數字	-1301
數量	-1302
文字	-1303
斯州	-1304
新生	-1305
方式	-1306
日的	-1307
早在	-1308
明白	-1309
是從	-1310
會見	-1311
月份	-1312
有著	-1313
朗特	-1314
未來	-1315
本來	-1316
本地	-1317
本週	-1318
東非	-1319
某種	-1320
柴油	-1321
格達	-1322
條件	-1323
業務	-1324
業生	-1325
業用	-1326
標準	-1327
標賽	-1328
模糊	-1329
歐盟	-1330
死於	-1331
殺死	-1332
每升	-1333
氣體	-1334
污染	-1335
沈括	-1336
治療	-1337
法庭	-1338
法院	-1339
海上	-1340
海拔	-1341
清楚	-1342
溫特	-1343
滅了	-1344
滿足	-1345
激增	-1346
火山	-1347
無論	-1348
爆發	-1349
父親	-1350
特利	-1351
特徵	-1352
特的	-1353
特點	-1354
獎金	-1355
王朝	-1356
理解	-1357
瑞典	-1358
瑞士	-1359
瑪爾	-1360
瑪雅	-1361
生產	-1362
產業	-1363
當中	-1364
當作	-1365
當天	-1366
當的	-1367
疑問	-1368
發表	-1369
發起	-1370
的水	-1371
的熱	-1372
的空	-1373
的精	-1374
的總	-1375
的起	-1376
的進	-1377
的選	-1378
的電	-1379
的頭	-1380
皇帝	-1381
皈依	-1382
盛頓	-1383
直到	-1384
相信	-1385
真的	-1386
確信	-1387
祖母	-1388
禁止	-1389
科學	-1390
科技	-1391
程中	-1392
種子	-1393
穀物	-1394
穩定	-1395
突然	-1396
競選	-1397
答案	-1398
節日	-1399
節目	-1400
米爾	-1401
糟糕	-1402
紀念	-1403
約在	-1404
給予	-1405
綠色	-1406
網站	-1407
網絡	-1408
總督	-1409
置信	-1410
能源	-1411
興趣	-1412
舉行	-1413
般的	-1414
花費	-1415
茉莉	-1416
處罰	-1417
蛋白	-1418
街上	-1419
表現	-1420
被解	-1421
被評	-1422
裡有	-1423
西斯	-1424
西部	-1425
視頻	-1426
觀的	-1427
解放	-1428
解決	-1429
言論	-1430
記者	-1431
設備	-1432
課程	-1433
諸如	-1434
諾斯	-1435
議會	-1436
讓他	-1437
貝爾	-1438
財政	-1439
資格	-1440
贊助	-1441
赫爾	-1442
趨勢	-1443
路易	-1444
路途	-1445
轉型	-1446
轉移	-1447
返回	-1448
這位	-1449
這裡	-1450
進了	-1451
遊戲	-1452
遊行	-1453
運用	-1454
避孕	-1455
邊的	-1456
那種	-1457
部門	-1458
釋放	-1459
重新	-1460
鐵路	-1461
開展	-1462
關鍵	-1463
阻止	-1464
限制	-1465
雅典	-1466
雷達	-1467
震驚	-1468
面是	-1469
面的	-1470
面臨	-1471
預計	-1472
領先	-1473
領土	-1474
領域	-1475
顆粒	-1476
風格	-1477
餘額	-1478
首先	-1479
首都	-1480
馬丁	-1481
鬥爭	-1482
黃金	-1483
黨派	-1484
鼓勵	-1485
100	-1486
195	-1487
ate	-1488
bar	-1489
gan	-1490
ger	-1491
red	-1492
ros	-1493
tin	-1494
▁15	-1495
▁20	-1496
▁an	-1497
▁一些	-1498
▁中國	-1499
▁人們	-1500
▁他還	-1501
▁儘管	-1502
▁其中	-1503
▁德國	-1504
▁截至	-1505
▁泰國	-1506
▁許多	-1507
▁這一	-1508
▁通過	-1509
▁關於	-1510
▁隨後	-1511
不知道	-1512
並不能	-1513
主義者	-1514
了一種	-1515
了他的	-1516
互聯網	-1517
亞新幾	-1518
以至於	-1519
保證了	-1520
倫蒂諾	-1521
全世界	-1522
兩個人	-1523
六大國	-1524
出演了	-1525
出現了	-1526
分類法	-1527
加拿大	-1528
北卡羅	-1529
區柯克	-1530
南美洲	-1531
原住民	-1532
參議院	-1533
另一個	-1534
可稱為	-1535
可能是	-1536
可追溯	-1537
回到了	-1538
在內的	-1539
在工作	-1540
在英國	-1541
城鎮化	-1542
大學的	-1543
大量的	-1544
天主教	-1545
奧地利	-1546
奧巴馬	-1547
奧斯卡	-1548
子郵件	-1549
安東尼	-1550
將會在	-1551
對美國	-1552
導致的	-1553
巨大的	-1554
已經在	-1555
巴拿馬	-1556
希臘的	-1557
建立了	-1558
形成了	-1559
很大的	-1560
很明顯	-1561
我們在	-1562
戰爭中	-1563
投資者	-1564
接受了	-1565
提出了	-1566
摩托車	-1567
斯拉夫	-1568
明顯的	-1569
更多的	-1570
最大的	-1571
會獲得	-1572
會見了	-1573
有助於	-1574
東南部	-1575
格達汗	-1576
業用地	-1577
比賽中	-1578
法蘭西	-1579
洛伐克	-1580
消費者	-1581
發生在	-1582
的一次	-1583
的一集	-1584
的人才	-1585
的地標	-1586
的工作	-1587
的成功	-1588
的所有	-1589
的支持	-1590
的新聞	-1591
的時候	-1592
的社會	-1593
的行動	-1594
的選民	-1595
的那樣	-1596
研究所	-1597
科學家	-1598
程度上	-1599
約瑟夫	-1600
而不是	-1601
芬蘭語	-1602
菲利普	-1603
薩斯州	-1604
行為的	-1605
被指控	-1606
被稱為	-1607
被認為	-1608
補充道	-1609
西格爾	-1610
解釋說	-1611
說明了	-1612
迪士尼	-1613
運動會	-1614
還可以	-1615
銅時代	-1616
錦標賽	-1617
阿拉伯	-1618
附近的	-1619
1992	-1620
1997	-1621
2013	-1622
2015	-1623
2016	-1624
ucas	-1625
▁克里斯	-1626
▁公元前	-1627
▁在過去	-1628
世界大戰	-1629
了自己的	-1630
他的妻子	-1631
他的電影	-1632
令人擔憂	-1633
其中包括	-1634
到了美國	-1635
加拿大的	-1636
唱片公司	-1637
圖特摩斯	-1638
在地中海	-1639
埃及法老	-1640
工業革命	-1641
布里斯班	-1642
平均水平	-1643
建立起了	-1644
我們必須	-1645
所需要的	-1646
接下來的	-1647
歐元每升	-1648
特朗普的	-1649
瓦倫蒂諾	-1650
的房地產	-1651
績效工資	-1652
自然資源	-1653
路途時間	-1654
農業用地	-1655
這是一個	-1656
rasti	-1657
▁2010	-1658
▁澳大利亞	-1659
了一個新的	-1660
亞新幾內亞	-1661
奧斯曼帝國	-1662
阿契美尼德	-1663
martin	-1664
令人難以置信	-1665
阿爾卑斯山脈	-1666
阿爾巴尼亞的	-1667
巴布亞新幾內亞	-1668
%。	-1669
,《	-1670
27	-1671
29	-1672
34	-1673
39	-1674
40	-1675
56	-1676
62	-1677
65	-1678
66	-1679
76	-1680
79	-1681
82	-1682
96	-1683
99	-1684
ba	-1685
be	-1686
bo	-1687
ct	-1688
dn	-1689
ei	-1690
ez	-1691
fy	-1692
gu	-1693
ho	-1694
ic	-1695
ie	-1696
if	-1697
je	-1698
ju	-1699
ol	-1700
pa	-1701
pu	-1702
si	-1703
sp	-1704
te	-1705
ts	-1706
tt	-1707
tu	-1708
us	-1709
wi	-1710
zi	-1711
£3	-1712
”(	-1713
▁"	-1714
▁j	-1715
▁y	-1716
▁z	-1717
▁”	-1718
▁你	-1719
▁其	-1720
▁和	-1721
▁如	-1722
▁就	-1723
▁於	-1724
▁畢	-1725
▁白	-1726
▁相	-1727
▁確	-1728
▁科	-1729
▁聯	-1730
▁蘇	-1731
▁裡	-1732
▁賴	-1733
▁鑑	-1734
▁除	-1735
▁雪	-1736
。"	-1737
一分	-1738
一帶	-1739
一座	-1740
一般	-1741
丁堡	-1742
三角	-1743
上並	-1744
上午	-1745
上很	-1746
上限	-1747
下來	-1748
下面	-1749
不久	-1750
不合	-1751
不大	-1752
不好	-1753
不想	-1754
丘吉	-1755
丟了	-1756
中入	-1757
中吸	-1758
中央	-1759
中斷	-1760
中移	-1761
主導	-1762
主席	-1763
主張	-1764
主演	-1765
乃至	-1766
之於	-1767
乘客	-1768
也是	-1769
了不	-1770
了八	-1771
了十	-1772
了大	-1773
了它	-1774
了對	-1775
了數	-1776
了該	-1777
事實	-1778
事情	-1779
二十	-1780
互相	-1781
五十	-1782
五年	-1783
亞洲	-1784
交了	-1785
交易	-1786
人數	-1787
人機	-1788
人民	-1789
今天	-1790
仍舊	-1791
他也	-1792
他了	-1793
他將	-1794
他就	-1795
他手	-1796
他會	-1797
他被	-1798
任的	-1799
gh	-1800
▁維	-1801
不經	-1802
世的	-1803
乘坐	-1804
休息	-1805
伯戈	-1806
伯蘭	-1807
似的	-1808
但他	-1809
佈於	-1810
位置	-1811
佔有	-1812
佔領	-1813
作出	-1814
作曲	-1815
你更	-1816
你的	-1817
使他	-1818
使其	-1819
使得	-1820
使該	-1821
來分	-1822
來納	-1823
來臨	-1824
保守	-1825
保留	-1826
保障	-1827
信號	-1828
修建	-1829
假期	-1830
假設	-1831
做了	-1832
停留	-1833
停運	-1834
傳播	-1835
債務	-1836
傷害	-1837
優先	-1838
優步	-1839
優秀	-1840
儲蓄	-1841
充分	-1842
充滿	-1843
克蘭	-1844
克頓	-1845
內爾	-1846
全部	-1847
兩人	-1848
兩次	-1849
兩者	-1850
公主	-1851
公國	-1852
公寓	-1853
公民	-1854
出來	-1855
出於	-1856
分鐘	-1857
分離	-1858
初選	-1859
別人	-1860
利時	-1861
利益	-1862
制受	-1863
制度	-1864
前線	-1865
前進	-1866
割讓	-1867
劇本	-1868
力的	-1869
加低	-1870
加入	-1871
加利	-1872
加工	-1873
助理	-1874
動力	-1875
勢力	-1876
勳爵	-1877
匈牙	-1878
化學	-1879
化的	-1880
北朝	-1881
匹克	-1882
十個	-1883
千年	-1884
協助	-1885
協定	-1886
南亞	-1887
南極	-1888
南非	-1889
博客	-1890
卜林	-1891
卡塔	-1892
卡拉	-1893
卡森	-1894
卡洛	-1895
即使	-1896
即將	-1897
去除	-1898
反法	-1899
北海	-1900
參賽	-1901
取代	-1902
取消	-1903
受歡	-1904
叛軍	-1905
古斯	-1906
古老	-1907
只能	-1908
可疑	-1909
台劇	-1910
史前	-1911
史密	-1912
史達	-1913
合了	-1914
合國	-1915
同年	-1916
向南	-1917
向著	-1918
否則	-1919
告知	-1920
告終	-1921
告誡	-1922
周圍	-1923
味著	-1924
呼聲	-1925
和不	-1926
和她	-1927
和烏	-1928
和紡	-1929
品牌	-1930
品種	-1931
哈拉	-1932
哪兒	-1933
哭泣	-1934
問了	-1935
善良	-1936
單元	-1937
嘗試	-1938
噁心	-1939
嚴格	-1940
四名	-1941
四月	-1942
因而	-1943
困擾	-1944
圍內	-1945
圍繞	-1946
圖片	-1947
團體	-1948
在同	-1949
地峽	-1950
均收	-1951
埃爾	-1952
執行	-1953
基於	-1954
報紙	-1955
場合	-1956
塊釙	-1957
塔斯	-1958
塔爾	-1959
塞爾	-1960
塞特	-1961
塞西	-1962
塵暴	-1963
士兵	-1964
多個	-1965
多元	-1966
多安	-1967
多年	-1968
多於	-1969
多樣	-1970
多次	-1971
大樓	-1972
大火	-1973
大麻	-1974
天文	-1975
太平	-1976
太空	-1977
太陽	-1978
夫在	-1979
失望	-1980
奇蹟	-1981
契丹	-1982
奧林	-1983
奧運	-1984
奪回	-1985
女巫	-1986
她寫	-1987
她是	-1988
她為	-1989
她說	-1990
好評	-1991
妙的	-1992
妥協	-1993
妥善	-1994
威廉	-1995
娛樂	-1996
子高	-1997
存活	-1998
季節	-1999
它為	-2000
守護	-2001
安娜	-2002
安德	-2003
安石	-2004
安第	-2005
安迪	-2006
完工	-2007
官員	-2008
官方	-2009
客串	-2010
室內	-2011
家的	-2012
密爾	-2013
審查	-2014
寫作	-2015
將會	-2016
將能	-2017
將要	-2018
專業	-2019
尋求	-2020
對尼	-2021
對情	-2022
對方	-2023
對的	-2024
導方	-2025
小時	-2026
少的	-2027
尤其	-2028
就在	-2029
就被	-2030
尼基	-2031
局勢	-2032
局的	-2033
局面	-2034
展現	-2035
岡薩	-2036
島和	-2037
崔絲	-2038
嶄露	-2039
工人	-2040
巨額	-2041
差不	-2042
差異	-2043
巴羅	-2044
市長	-2045
布魯	-2046
希羅	-2047
帕克	-2048
干預	-2049
平台	-2050
平壤	-2051
平手	-2052
年人	-2053
年以	-2054
年內	-2055
年到	-2056
年在	-2057
年度	-2058
年後	-2059
年推	-2060
年春	-2061
年是	-2062
年級	-2063
年號	-2064
年間	-2065
幸運	-2066
幾十	-2067
廢墟	-2068
廣播	-2069
延續	-2070
建於	-2071
建設	-2072
引用	-2073
形式	-2074
形象	-2075
影片	-2076
很少	-2077
很快	-2078
很有	-2079
後者	-2080
得以	-2081
從而	-2082
復興	-2083
微小	-2084
德於	-2085
徹底	-2086
心態	-2087
必要	-2088
志願	-2089
忽視	-2090
思考	-2091
思議	-2092
性別	-2093
想要	-2094
意圖	-2095
愚蠢	-2096
愛爾	-2097
感覺	-2098
慶祝	-2099
成員	-2100
成就	-2101
我會	-2102
我都	-2103
或在	-2104
戰敗	-2105
戰鬥	-2106
戴維	-2107
所謂	-2108
所需	-2109
手術	-2110
打開	-2111
打鬥	-2112
批發	-2113
投入	-2114
抗議	-2115
拉多	-2116
拉尼	-2117
拉德	-2118
拉諾	-2119
拉迪	-2120
拿破	-2121
指出	-2122
挪威	-2123
掌權	-2124
排除	-2125
採取	-2126
探索	-2127
探討	-2128
接收	-2129
接觸	-2130
推動	-2131
推特	-2132
提及	-2133
提高	-2134
揭示	-2135
揭露	-2136
損失	-2137
摧毀	-2138
摩納	-2139
撒海	-2140
撤退	-2141
擊者	-2142
擔心	-2143
據此	-2144
擬定	-2145
擴展	-2146
擺脫	-2147
放在	-2148
政黨	-2149
效忠	-2150
教皇	-2151
數次	-2152
文以	-2153
文章	-2154
料的	-2155
斯帕	-2156
新聞	-2157
斷層	-2158
方言	-2159
旅行	-2160
族裔	-2161
日出	-2162
日子	-2163
日常	-2164
日耳	-2165
早了	-2166
早期	-2167
明治	-2168
易見	-2169
是上	-2170
是其	-2171
是由	-2172
是誰	-2173
是這	-2174
時刻	-2175
時期	-2176
普敦	-2177
普林	-2178
普爾	-2179
暫停	-2180
更多	-2181
更為	-2182
曾在	-2183
最有	-2184
會被	-2185
月的	-2186
月至	-2187
有三	-2188
有些	-2189
有意	-2190
有的	-2191
木舟	-2192
本中	-2193
本的	-2194
朱婷	-2195
李維	-2196
東部	-2197
林斯	-2198
林肯	-2199
格麗	-2200
梅爾	-2201
條款	-2202
棕櫚	-2203
極度	-2204
概念	-2205
標誌	-2206
模型	-2207
檢查	-2208
檢測	-2209
欺詐	-2210
歌手	-2211
歡樂	-2212
正確	-2213
此次	-2214
武器	-2215
武裝	-2216
死亡	-2217
死後	-2218
殊榮	-2219
殺了	-2220
每人	-2221
每年	-2222
比例	-2223
比在	-2224
比的	-2225
民國	-2226
氣象	-2227
水池	-2228
永不	-2229
沃爾	-2230
河的	-2231
法令	-2232
波的	-2233
波蘭	-2234
注意	-2235
注重	-2236
洋的	-2237
洛克	-2238
洲的	-2239
流行	-2240
海和	-2241
海報	-2242
海外	-2243
海峽	-2244
海的	-2245
深的	-2246
深遠	-2247
添加	-2248
港口	-2249
準確	-2250
溫度	-2251
滅亡	-2252
滿意	-2253
滿族	-2254
演員	-2255
演唱	-2256
澳洲	-2257
激素	-2258
激進	-2259
火箭	-2260
火車	-2261
災難	-2262
為二	-2263
為期	-2264
為止	-2265
為野	-2266
熱的	-2267
燈塔	-2268
爭論	-2269
爭議	-2270
爵位	-2271
爾斯	-2272
片場	-2273
版的	-2274
牧師	-2275
特靈	-2276
狀態	-2277
狀況	-2278
猜測	-2279
獎項	-2280
獨自	-2281
獲勝	-2282
獲獎	-2283
率比	-2284
瑙河	-2285
環節	-2286
瓦雷	-2287
生態	-2288
生者	-2289
生肖	-2290
男人	-2291
疼痛	-2292
病人	-2293
瘋狂	-2294
發揮	-2295
發明	-2296
發育	-2297
發送	-2298
白人	-2299
百分	-2300
的學	-2301
的宣	-2302
的後	-2303
的托	-2304
的期	-2305
的神	-2306
的立	-2307
的細	-2308
的結	-2309
的賽	-2310
的這	-2311
的醫	-2312
監管	-2313
直至	-2314
相同	-2315
相對	-2316
真實	-2317
真正	-2318
知識	-2319
石製	-2320
破裂	-2321
確實	-2322
礁湖	-2323
礦物	-2324
社交	-2325
祈禱	-2326
福德	-2327
福特	-2328
科幻	-2329
科恩	-2330
秘密	-2331
程序	-2332
種族	-2333
稱他	-2334
穩步	-2335
空氣	-2336
穿戴	-2337
立石	-2338
立足	-2339
童工	-2340
符合	-2341
簡直	-2342
約克	-2343
約後	-2344
約里	-2345
紐約	-2346
索爾	-2347
給西	-2348
統計	-2349
經歷	-2350
經過	-2351
經驗	-2352
網上	-2353
緊鄰	-2354
線的	-2355
編輯	-2356
總是	-2357
繼承	-2358
缺席	-2359
美裔	-2360
群體	-2361
習慣	-2362
考慮	-2363
而我	-2364
而有	-2365
而被	-2366
而言	-2367
聊天	-2368
聯軍	-2369
職位	-2370
聽證	-2371
肥料	-2372
肺的	-2373
能使	-2374
能在	-2375
脆弱	-2376
至八	-2377
致命	-2378
與其	-2379
舊金	-2380
船員	-2381
船的	-2382
船隻	-2383
艾達	-2384
茵河	-2385
莫伊	-2386
萊德	-2387
萬人	-2388
著陸	-2389
葡萄	-2390
葬禮	-2391
蒂娜	-2392
蒂安	-2393
蒂芬	-2394
蓋耶	-2395
薩拉	-2396
薩米	-2397
藉由	-2398
虔誠	-2399
血紅	-2400
衣服	-2401
被遺	-2402
補助	-2403
要么	-2404
見過	-2405
規劃	-2406
視為	-2407
觀察	-2408
角色	-2409
計算	-2410
訥河	-2411
評估	-2412
評論	-2413
詳細	-2414
認識	-2415
語中	-2416
誰能	-2417
請願	-2418
諾瑪	-2419
謀殺	-2420
謙遜	-2421
講述	-2422
證據	-2423
變的	-2424
變遷	-2425
讓人	-2426
貝貝	-2427
財務	-2428
貴族	-2429
資本	-2430
資金	-2431
賞識	-2432
賠償	-2433
質量	-2434
賺取	-2435
購買	-2436
走向	-2437
超級	-2438
超越	-2439
身份	-2440
車型	-2441
軍官	-2442
較為	-2443
轉而	-2444
轉變	-2445
轟炸	-2446
辦公	-2447
農民	-2448
近期	-2449
近海	-2450
迦南	-2451
追求	-2452
透露	-2453
這也	-2454
這兩	-2455
這片	-2456
這部	-2457
通知	-2458
通道	-2459
週二	-2460
週六	-2461
進到	-2462
進去	-2463
進場	-2464
運輸	-2465
道德	-2466
達爾	-2467
達菲	-2468
遠了	-2469
遠離	-2470
選出	-2471
選項	-2472
遺憾	-2473
遺跡	-2474
邁錫	-2475
還會	-2476
還未	-2477
還沒	-2478
還能	-2479
邊緣	-2480
那兒	-2481
那里	-2482
郡的	-2483
部件	-2484
部落	-2485
都有	-2486
醜聞	-2487
醫生	-2488
醫療	-2489
里希	-2490
里達	-2491
重現	-2492
量的	-2493
釙樣	-2494
針對	-2495
錄製	-2496
錯誤	-2497
鏈接	-2498
開支	-2499
關心	-2500
關閉	-2501
防衛	-2502
阿伯	-2503
阿普	-2504
隨時	-2505
險的	-2506
雅那	-2507
集了	-2508
集團	-2509
集的	-2510
離婚	-2511
雷暴	-2512
電站	-2513
霸占	-2514
靈感	-2515
預報	-2516
預算	-2517
頭角	-2518
頭銜	-2519
願意	-2520
顧客	-2521
顯然	-2522
顯而	-2523
食品	-2524
食物	-2525
飽受	-2526
養分	-2527
首席	-2528
馬爾	-2529
騎兵	-2530
驚訝	-2531
體的	-2532
高於	-2533
鬥志	-2534
鬧劇	-2535
鱈魚	-2536
黨內	-2537
龐培	-2538
$15	-2539
107	-2540
190	-2541
194	-2542
30-	-2543
330	-2544
760	-2545
ace	-2546
avi	-2547
aya	-2548
con	-2549
dar	-2550
dna	-2551
dün	-2552
ena	-2553
eph	-2554
est	-2555
gel	-2556
iam	-2557
ilm	-2558
ina	-2559
ine	-2560
ive	-2561
joh	-2562
kor	-2563
lai	-2564
lar	-2565
lez	-2566
mer	-2567
mon	-2568
nor	-2569
org	-2570
ple	-2571
rum	-2572
sim	-2573
son	-2574
tel	-2575
uck	-2576
zay	-2577
£12	-2578
▁17	-2579
▁av	-2580
▁di	-2581
▁ni	-2582
▁re	-2583
▁st	-2584
▁一位	-2585
▁一項	-2586
▁三島	-2587
▁不過	-2588
▁他也	-2589
▁他的	-2590
▁位於	-2591
▁作為	-2592
▁全球	-2593
▁兩年	-2594
▁喬治	-2595
▁因此	-2596
▁國際	-2597
▁在中	-2598
▁在其	-2599
▁它與	-2600
▁對於	-2601
▁後來	-2602
▁後者	-2603
▁我的	-2604
▁所以	-2605
▁據說	-2606
▁時任	-2607
▁最後	-2608
▁有人	-2609
▁正如	-2610
▁此外	-2611
▁沈括	-2612
▁沒有	-2613
▁然而	-2614
▁特別	-2615
▁畢竟	-2616
▁當時	-2617
▁研究	-2618
▁第一	-2619
▁第三	-2620
▁第二	-2621
▁聯邦	-2622
▁與此	-2623
▁警察	-2624
▁賴特	-2625
▁迪斯	-2626
▁這裡	-2627
▁通常	-2628
▁鑑於	-2629
▁阿爾	-2630
▁除了	-2631
▁雖然	-2632
▁雪人	-2633
▁電影	-2634
一個人	-2635
一定會	-2636
一樣的	-2637
一系列	-2638
一面是	-2639
三十年	-2640
上個月	-2641
下來的	-2642
不存在	-2643
不得不	-2644
不應該	-2645
世界上	-2646
世紀中	-2647
世紀末	-2648
中入讀	-2649
中寫道	-2650
中心的	-2651
中扮演	-2652
中發現	-2653
主持人	-2654
主義的	-2655
主要由	-2656
也不會	-2657
也就是	-2658
也開始	-2659
了一場	-2660
了使用	-2661
了戰爭	-2662
了所有	-2663
了整個	-2664
五十萬	-2665
亞歷山	-2666
他已經	-2667
他自己	-2668
代表著	-2669
以來最	-2670
伯戈因	-2671
但是在	-2672
但這一	-2673
低海拔	-2674
作曲家	-2675
你知道	-2676
使用了	-2677
來源於	-2678
保持著	-2679
信仰的	-2680
偉大的	-2681
傳統是	-2682
價格為	-2683
億歐元	-2684
億英鎊	-2685
兄弟們	-2686
克萊恩	-2687
其他人	-2688
再一次	-2689
凱爾特	-2690
出來的	-2691
出現在	-2692
出生於	-2693
出生的	-2694
利用了	-2695
到整個	-2696
制受洗	-2697
創作了	-2698
劇作家	-2699
力發電	-2700
匈牙利	-2701
北京的	-2702
北朝鮮	-2703
北部的	-2704
十年內	-2705
十月初	-2706
卡洛斯	-2707
受到了	-2708
受歡迎	-2709
叛亂的	-2710
古拉斯	-2711
可持續	-2712
可疑的	-2713
可能性	-2714
史達林	-2715
吉他手	-2716
吉卜林	-2717
同樣的	-2718
吸引力	-2719
和一個	-2720
和中國	-2721
和國民	-2722
和平的	-2723
和歷史	-2724
和獎金	-2725
和紡織	-2726
問題的	-2727
圍繞著	-2728
在一個	-2729
在七月	-2730
在之後	-2731
在位的	-2732
在兩個	-2733
在沙漠	-2734
在美國	-2735
地區和	-2736
均收入	-2737
坎伯蘭	-2738
型基金	-2739
城市中	-2740
基督教	-2741
報導說	-2742
多數人	-2743
大多數	-2744
大都會	-2745
奠定了	-2746
奧古斯	-2747
奧運會	-2748
好幾個	-2749
威尼斯	-2750
嫌疑人	-2751
字母表	-2752
它們的	-2753
安石的	-2754
完成了	-2755
完成的	-2756
實際上	-2757
實驗室	-2758
對人類	-2759
對他們	-2760
對情侶	-2761
對我們	-2762
導方針	-2763
導演的	-2764
小塊釙	-2765
就是在	-2766
岩島嶼	-2767
巴爾幹	-2768
巴羅佐	-2769
布朗特	-2770
希羅底	-2771
帕爾馬	-2772
常見的	-2773
幫助下	-2774
平行的	-2775
年之間	-2776
年代初	-2777
年十月	-2778
年夏天	-2779
年夏季	-2780
年成立	-2781
年春天	-2782
年級的	-2783
幸的是	-2784
很容易	-2785
德國和	-2786
必不可	-2787
怎麼樣	-2788
恰當的	-2789
意味著	-2790
愛丁堡	-2791
愛爾蘭	-2792
我們會	-2793
我已經	-2794
我覺得	-2795
或者說	-2796
戰後的	-2797
所以我	-2798
所學校	-2799
打入了	-2800
打平手	-2801
找到了	-2802
投資在	-2803
拉博夫	-2804
拉斯加	-2805
拉斯哥	-2806
拿破崙	-2807
指揮權	-2808
挑戰的	-2809
接下來	-2810
摩納哥	-2811
撒哈拉	-2812
撒海爾	-2813
教人們	-2814
文明均	-2815
斯巴達	-2816
日之前	-2817
日耳曼	-2818
是一名	-2819
是一種	-2820
是可以	-2821
是政府	-2822
是清朝	-2823
是由於	-2824
更好地	-2825
最好的	-2826
最新的	-2827
最近的	-2828
最高的	-2829
會導致	-2830
月期間	-2831
有一位	-2832
有很多	-2833
未來的	-2834
格麗特	-2835
業生涯	-2836
權力的	-2837
歷史的	-2838
比利時	-2839
民族在	-2840
河流均	-2841
法國在	-2842
活動中	-2843
激烈的	-2844
為他們	-2845
為基礎	-2846
為歐洲	-2847
猶太人	-2848
猶太教	-2849
獨木舟	-2850
理事會	-2851
理查德	-2852
瓦雷茨	-2853
生活的	-2854
用名字	-2855
男子高	-2856
留下了	-2857
登上了	-2858
發布了	-2859
發布的	-2860
發生了	-2861
發生率	-2862
發電機	-2863
百萬冊	-2864
的一派	-2865
的一面	-2866
的人數	-2867
的人物	-2868
的保護	-2869
的信息	-2870
的元素	-2871
的內容	-2872
的另一	-2873
的名字	-2874
的城市	-2875
的心態	-2876
的志願	-2877
的情況	-2878
的想法	-2879
的成就	-2880
的技術	-2881
的投資	-2882
的文化	-2883
的日子	-2884
的是在	-2885
的時間	-2886
的最高	-2887
的條件	-2888
的機會	-2889
的歷史	-2890
的殊榮	-2891
的消息	-2892
的特別	-2893
的疑問	-2894
的研究	-2895
的破壞	-2896
的祖母	-2897
的私人	-2898
的立場	-2899
的系統	-2900
的藝術	-2901
的要求	-2902
的許多	-2903
的費用	-2904
的趨勢	-2905
的電影	-2906
目擊者	-2907
研究的	-2908
種子長	-2909
第一位	-2910
第三方	-2911
第二個	-2912
等我們	-2913
管不好	-2914
簽訂了	-2915
糟糕的	-2916
系統在	-2917
紀念碑	-2918
約里奧	-2919
罕見的	-2920
羅馬人	-2921
美國人	-2922
美西斯	-2923
而受到	-2924
聽證會	-2925
腓尼基	-2926
至十四	-2927
至少能	-2928
舉辦的	-2929
舊金山	-2930
舞台劇	-2931
色雷斯	-2932
英格蘭	-2933
萬歐元	-2934
被告知	-2935
被征服	-2936
被當作	-2937
被調查	-2938
西北部	-2939
西方的	-2940
西西里	-2941
要求把	-2942
訪問了	-2943
設計師	-2944
試圖讓	-2945
該城市	-2946
該電影	-2947
詹姆斯	-2948
警告說	-2949
讓羅娜	-2950
赫爾茨	-2951
這兩個	-2952
通常是	-2953
進入了	-2954
進行的	-2955
邁克爾	-2956
邁錫尼	-2957
還需要	-2958
那些在	-2959
部部長	-2960
重大的	-2961
開始的	-2962
開普敦	-2963
關於該	-2964
降到了	-2965
限制在	-2966
項目中	-2967
領導人	-2968
顯示了	-2969
飛行員	-2970
首歌曲	-2971
馬德里	-2972
高加索	-2973
高爾夫	-2974
,199	-2975
11%,	-2976
1820	-2977
1879	-2978
1914	-2979
1916	-2980
1918	-2981
1991	-2982
2004	-2983
2008	-2984
2012	-2985
andy	-2986
atal	-2987
berg	-2988
book	-2989
cano	-2990
cone	-2991
face	-2992
jeff	-2993
korn	-2994
logy	-2995
onzá	-2996
orri	-2997
poti	-2998
reco	-2999
▁107	-3000
▁196	-3001
▁and	-3002
▁mar	-3003
▁sal	-3004
▁the	-3005
▁win	-3006
▁但是在	-3007
▁俄羅斯	-3008
▁兩年後	-3009
▁共和黨	-3010
▁唐納德	-3011
▁在他們	-3012
▁希拉里	-3013
▁我認為	-3014
▁棲息地	-3015
▁沙塵暴	-3016
▁理論上	-3017
▁目前的	-3018
▁聯合國	-3019
▁迪斯尼	-3020
▁馬其頓	-3021
一分為二	-3022
一起工作	-3023
不可思議	-3024
不是所有	-3025
世界冠軍	-3026
中國將在	-3027
中華民國	-3028
主要來自	-3029
也適用於	-3030
了一系列	-3031
今天上午	-3032
代理人的	-3033
代表了最	-3034
以及其他	-3035
伊斯蘭教	-3036
但是他的	-3037
佛羅里達	-3038
作為一個	-3039
作為主要	-3040
六十年代	-3041
共同出演	-3042
共和國的	-3043
其他國家	-3044
出自己的	-3045
北部區域	-3046
可以緩解	-3047
命令不得	-3048
和印第安	-3049
和城鎮化	-3050
哥倫佈於	-3051
哪兒來的	-3052
因為他們	-3053
因為這些	-3054
國家公園	-3055
土著群體	-3056
在公元前	-3057
在此之前	-3058
在華盛頓	-3059
地面控制	-3060
埃爾多安	-3061
堪薩斯州	-3062
塞特郡的	-3063
大概降低	-3064
大部分的	-3065
天氣預報	-3066
奧林匹克	-3067
宣布破產	-3068
對的靈感	-3069
岡薩雷斯	-3070
嶄露頭角	-3071
工作時間	-3072
工作環境	-3073
巴黎協定	-3074
希區柯克	-3075
帶有一個	-3076
年代中期	-3077
年以來的	-3078
幾乎沒有	-3079
強制受洗	-3080
很可能是	-3081
成為總統	-3082
成的植物	-3083
戰爭期間	-3084
戰爭爆發	-3085
拉丁美裔	-3086
拉的嬰兒	-3087
指導方針	-3088
接受教育	-3089
政權轉移	-3090
斯帕尼亞	-3091
斯洛伐克	-3092
明治天皇	-3093
是世界上	-3094
最有可能	-3095
有很大的	-3096
板塊斷層	-3097
格拉斯哥	-3098
歲的兒童	-3099
歷史學家	-3100
氣體質量	-3101
沒有這些	-3102
海的鱈魚	-3103
溫特科恩	-3104
激素避孕	-3105
王安石的	-3106
瑪格麗特	-3107
生態系統	-3108
發現大陸	-3109
發生變化	-3110
的一集中	-3111
的可能性	-3112
的幫助下	-3113
的水資源	-3114
的統治者	-3115
的高爾夫	-3116
相似之處	-3117
社交媒體	-3118
社會主義	-3119
穿過邊境	-3120
米爾一世	-3121
約克公爵	-3122
約公元前	-3123
給西雅那	-3124
統治地位	-3125
羅馬帝國	-3126
職業生涯	-3127
至公元前	-3128
舊殖民地	-3129
蘇格蘭人	-3130
血紅蛋白	-3131
該電影由	-3132
警方表示	-3133
變得更加	-3134
賬戶餘額	-3135
越來越多	-3136
迦南人的	-3137
這部電影	-3138
進場系統	-3139
阿拉斯加	-3140
阿普利亞	-3141
青銅時代	-3142
顯而易見	-3143
飽受批評	-3144
5,000	-3145
colai	-3146
erber	-3147
georg	-3148
leive	-3149
rosos	-3150
▁1770	-3151
▁1832	-3152
▁1976	-3153
▁2011	-3154
▁2012	-3155
▁2015	-3156
▁film	-3157
▁博格達汗	-3158
▁它是一個	-3159
▁從公元前	-3160
▁研究人員	-3161
▁聯邦政府	-3162
▁與此同時	-3163
一些不同的	-3164
一直在尋找	-3165
伯戈因將軍	-3166
低海拔地區	-3167
候選人資格	-3168
全球最大的	-3169
北卡羅來納	-3170
和澳大利亞	-3171
和瓦倫蒂諾	-3172
在地中海的	-3173
天皇在位的	-3174
安第斯山脈	-3175
宗教信仰的	-3176
就是為什麼	-3177
巴拿馬地峽	-3178
年級的全國	-3179
必不可少的	-3180
應用到整個	-3181
撒哈拉沙漠	-3182
收益型基金	-3183
教人們如何	-3184
更令人擔憂	-3185
澳大利亞人	-3186
生命的最後	-3187
發生的機率	-3188
的地標燈塔	-3189
皈依猶太教	-3190
自己的政治	-3191
越來越多的	-3192
開放的心態	-3193
非洲撒海爾	-3194
高加索地區	-3195
caucas	-3196
dündar	-3197
potify	-3198
rastiz	-3199
▁anaya	-3200
▁carlo	-3201
▁克里斯托弗	-3202
不可思議的一	-3203
品種可以緩解	-3204
圖特摩斯三世	-3205
就會大概降低	-3206
現代西班牙語	-3207
男子高中入讀	-3208
男性激素避孕	-3209
自然資源保護	-3210
莫伊米爾一世	-3211
atalano	-3212
onzález	-3213
richard	-3214
terkorn	-3215
北朝鮮的高爾夫	-3216
奧林匹克運動會	-3217
氣體質量分類法	-3218
種子長成的植物	-3219
第一次世界大戰	-3220
給西雅那銀行的	-3221
績效工資和獎金	-3222
至十四歲的兒童	-3223
barrosos	-3224
canology	-3225
caucasus	-3226
facebook	-3227
orricone	-3228
▁nicolai	-3229
地面控制進場系統	-3230
安大略省的房地產	-3231
為歐洲低海拔地區	-3232
年級的全國平均水平	-3233
發生的機率就會大概降低	-3234
阿爾卑斯山脈為歐洲低海拔地區	-3235
▁揭露	-3236
▁撤退	-3237
▁梅爾	-3238
▁蒂娜	-3239
▁誰能	-3240
▁週二	-3241
▁雷暴	-3242
上海和	-3243
上船的	-3244
不比在	-3245
不相同	-3246
不道德	-3247
不遠了	-3248
並賠償	-3249
中獨自	-3250
中詳細	-3251
中賺取	-3252
中都有	-3253
也推動	-3254
了演唱	-3255
亞聯軍	-3256
人曾在	-3257
人缺席	-3258
人見過	-3259
他激進	-3260
他霸占	-3261
他願意	-3262
付更多	-3263
但蓋耶	-3264
位資本	-3265
佩達爾	-3266
來祈禱	-3267
來計算	-3268
個港口	-3269
個男人	-3270
倫比的	-3271
像海外	-3272
克萊德	-3273
兵軍官	-3274
其關閉	-3275
別林斯	-3276
利選項	-3277
副武裝	-3278
力證據	-3279
募集的	-3280
北走向	-3281
又有意	-3282
取更多	-3283
受爭議	-3284
受疼痛	-3285
口葡萄	-3286
右肺的	-3287
吉拉德	-3288
名獲勝	-3289
名這片	-3290
和政黨	-3291
和林肯	-3292
和武器	-3293
和火箭	-3294
和穿戴	-3295
和索爾	-3296
和近海	-3297
和這片	-3298
員效忠	-3299
人想要	-3300
品批發	-3301
嗆肺的	-3302
在歡樂	-3303
在波蘭	-3304
在生者	-3305
在紐約	-3306
在網上	-3307
在達菲	-3308
在遠離	-3309
地思考	-3310
地打開	-3311
地旅行	-3312
地講述	-3313
基普林	-3314
塔拉諾	-3315
塔比的	-3316
士李維	-3317
大洲的	-3318
奧聯軍	-3319
女演員	-3320
字版的	-3321
它標誌	-3322
就關閉	-3323
年滅亡	-3324
年為止	-3325
幻時刻	-3326
底是誰	-3327
度考慮	-3328
彼拉多	-3329
很驚訝	-3330
從挪威	-3331
性別暴	-3332
性別歧	-3333
愚蠢內	-3334
愚蠢至	-3335
感覺到	-3336
感覺是	-3337
成員大	-3338
成就展	-3339
成就獎	-3340
我排除	-3341
我擺脫	-3342
我會選	-3343
我都要	-3344
或在酒	-3345
戰鬥中	-3346
戴維斯	-3347
所接收	-3348
所謂的	-3349
所需的	-3350
手術和	-3351
才會被	-3352
打鬥和	-3353
把日出	-3354
拉尼西	-3355
拉迪亞	-3356
採集的	-3357
接收到	-3358
推特簡	-3359
推特賬	-3360
提及將	-3361
揭露後	-3362
摧毀的	-3363
擬定為	-3364
教皇方	-3365
數次挑	-3366
文以北	-3367
料的藥	-3368
斯死後	-3369
斯海峽	-3370
斯蒂芬	-3371
新聞說	-3372
族裔的	-3373
是其陳	-3374
是衣服	-3375
是近期	-3376
是這家	-3377
普林格	-3378
普爾市	-3379
暫停於	-3380
更注重	-3381
更為優	-3382
曾發揮	-3383
最深遠	-3384
最關心	-3385
會牧師	-3386
會被生	-3387
月的升	-3388
月的繁	-3389
月至二	-3390
有三棵	-3391
有抗議	-3392
有旅行	-3393
有貴族	-3394
未發育	-3395
未透露	-3396
本中演	-3397
本錄製	-3398
材料的	-3399
▁幸運	-3400
▁幾十	-3401
代年號	-3402
六年間	-3403
和復興	-3404
年是引	-3405
幸運兔	-3406
幾十億	-3407
廣播和	-3408
廣播電	-3409
廳建於	-3410
很快就	-3411
很有趣	-3412
微小的	-3413
必要的	-3414
有必要	-3415
核武器	-3416
梅爾丁	-3417
條款退	-3418
棕櫚樹	-3419
棕櫚葉	-3420
槍殺了	-3421
標誌著	-3422
模型中	-3423
檢測不	-3424
權能在	-3425
歌手兼	-3426
正確組	-3427
此概念	-3428
段時刻	-3429
永不停	-3430
沃爾卡	-3431
河的俄	-3432
法令確	-3433
波檢測	-3434
波蘭及	-3435
注意到	-3436
洛克堅	-3437
流行緊	-3438
浮線的	-3439
海峽要	-3440
淺礁湖	-3441
添加免	-3442
湊車型	-3443
準確地	-3444
準確結	-3445
演員和	-3446
澳洲網	-3447
火車走	-3448
為期一	-3449
為每人	-3450
為童工	-3451
為野獸	-3452
煤電站	-3453
爾普爾	-3454
爾里希	-3455
片場後	-3456
版的聖	-3457
牧師拜	-3458
特德於	-3459
獨自一	-3460
環礁湖	-3461
生肖是	-3462
男人應	-3463
略高於	-3464
當針對	-3465
疏遠了	-3466
病病人	-3467
登離婚	-3468
發揮了	-3469
發育長	-3470
發送表	-3471
百分點	-3472
的宣言	-3473
的宣誓	-3474
的延續	-3475
的微小	-3476
的托利	-3477
的托爾	-3478
的期待	-3479
的歡樂	-3480
的注意	-3481
的滅亡	-3482
的爭論	-3483
的狀態	-3484
的瘋狂	-3485
的知識	-3486
的神壇	-3487
的神經	-3488
的科幻	-3489
的秘密	-3490
的細微	-3491
的細節	-3492
的結果	-3493
的結構	-3494
的經歷	-3495
的職位	-3496
的葬禮	-3497
的補助	-3498
的諾瑪	-3499
一局的	-3500
七年後	-3501
三年內	-3502
尋求與	-3503
小時後	-3504
尬局面	-3505
局的特	-3506
展現了	-3507
展現的	-3508
崔絲一	-3509
崔絲已	-3510
工人提	-3511
差不多	-3512
差異大	-3513
帕克所	-3514
干預是	-3515
年在位	-3516
成年人	-3517
拉島和	-3518
斯市長	-3519
此局面	-3520
法就被	-3521
物平台	-3522
的證據	-3523
的賽車	-3524
的賽道	-3525
的身份	-3526
的追求	-3527
的這座	-3528
的遺跡	-3529
的黨內	-3530
真正共	-3531
真正有	-3532
確實很	-3533
祀遺跡	-3534
福德高	-3535
程序上	-3536
突變的	-3537
立石為	-3538
立足前	-3539
立足點	-3540
符拉迪	-3541
簡直是	-3542
系變的	-3543
紐約市	-3544
索爾海	-3545
經驗的	-3546
緊鄰色	-3547
總體的	-3548
繼承者	-3549
繼承順	-3550
羅拉多	-3551
羅河的	-3552
羅訥河	-3553
群島和	-3554
習慣法	-3555
習慣稱	-3556
老年人	-3557
而我寧	-3558
而被控	-3559
而食物	-3560
聊天軟	-3561
職變遷	-3562
肥料價	-3563
與其城	-3564
與謀殺	-3565
船員共	-3566
色體的	-3567
茲福德	-3568
萊茵河	-3569
著陸襟	-3570
葡萄牙	-3571
葬禮罪	-3572
蓄謙遜	-3573
薩拉託	-3574
薩米人	-3575
藉由完	-3576
虔誠所	-3577
行進到	-3578
術錯誤	-3579
衡量的	-3580
被徹底	-3581
被忽視	-3582
被投入	-3583
被遺忘	-3584
要么撤	-3585
要評估	-3586
要選出	-3587
規劃區	-3588
規劃署	-3589
視為有	-3590
解約後	-3591
言稱他	-3592
訥河谷	-3593
該獎項	-3594
誰能挑	-3595
請願書	-3596
謀殺罪	-3597
謙遜的	-3598
財務的	-3599
哥將會	-3600
塞密爾	-3601
她客串	-3602
子安德	-3603
安娜亞	-3604
安德魯	-3605
官方自	-3606
審查主	-3607
寫作興	-3608
將會受	-3609
將能與	-3610
專業而	-3611
未完工	-3612
為野生	-3613
由官方	-3614
的守護	-3615
的損失	-3616
與完工	-3617
財務長	-3618
超級英	-3619
超越它	-3620
軍軍官	-3621
較為少	-3622
轉而專	-3623
轉變和	-3624
轟炸了	-3625
轟炸機	-3626
辦公室	-3627
通知中	-3628
週六中	-3629
過農民	-3630
道德淪	-3631
那里為	-3632
部影片	-3633
部疼痛	-3634
部落和	-3635
部落在	-3636
都有其	-3637
都穿戴	-3638
醜聞被	-3639
醫療總	-3640
里或在	-3641
重現了	-3642
重現的	-3643
釙樣本	-3644
鏈接和	-3645
開支的	-3646
阿伯茨	-3647
阿特靈	-3648
隨時在	-3649
險的飆	-3650
雞永不	-3651
離婚後	-3652
雷戴維	-3653
預算赤	-3654
飲集團	-3655
馬死亡	-3656
騎兵在	-3657
鬥志昂	-3658
鬧劇和	-3659
鬧劇就	-3660
$150	-3661
,190	-3662
1903	-3663
1947	-3664
1948	-3665
avid	-3666
hina	-3667
iams	-3668
javi	-3669
ktel	-3670
norm	-3671
nuck	-3672
pley	-3673
rump	-3674
uena	-3675
vest	-3676
vine	-3677
zayi	-3678
£125	-3679
▁rei	-3680
▁str	-3681
▁sty	-3682
▁三島生	-3683
▁不擬定	-3684
▁他曾在	-3685
▁他的妹	-3686
▁傳統是	-3687
▁全球變	-3688
▁北京的	-3689
▁十月初	-3690
▁喬治為	-3691
▁國際可	-3692
▁在其範	-3693
▁在那兒	-3694
▁多瑙河	-3695
▁巴羅佐	-3696
▁後者在	-3697
▁或者說	-3698
▁投資在	-3699
但她說	-3700
在大火	-3701
多元高	-3702
多於圍	-3703
多次的	-3704
大樓為	-3705
天文台	-3706
太陽和	-3707
太陽眼	-3708
奇蹟和	-3709
契丹遼	-3710
奪回席	-3711
女巫之	-3712
她寫歌	-3713
她寫的	-3714
好評的	-3715
妥協協	-3716
妥善的	-3717
容她為	-3718
小威廉	-3719
尼奪回	-3720
巧妙的	-3721
幢大樓	-3722
很失望	-3723
從太空	-3724
的女巫	-3725
莫夫在	-3726
著大麻	-3727
被妥善	-3728
▁日耳曼	-3729
▁曾發揮	-3730
▁有人曾	-3731
▁沒有人	-3732
▁然而對	-3733
▁第一小	-3734
▁第一版	-3735
▁第二季	-3736
▁第二年	-3737
▁舊金山	-3738
▁解約後	-3739
▁警察傻	-3740
▁賴特是	-3741
▁赫爾茨	-3742
▁這裡於	-3743
▁週二是	-3744
▁鑑於希	-3745
▁阿爾及	-3746
▁阿特靈	-3747
▁阿馬爾	-3748
▁馬德里	-3749
一個人呆	-3750
一定會懷	-3751
一發布的	-3752
一種更為	-3753
一致好評	-3754
一起探討	-3755
一部影片	-3756
一面是對	-3757
七大洲的	-3758
三年內貸	-3759
三百萬冊	-3760
三首歌曲	-3761
上進行的	-3762
不再願意	-3763
不在片場	-3764
不存在此	-3765
不應該就	-3766
不斷擴展	-3767
不比在尼	-3768
並未透露	-3769
並發布了	-3770
中扮演精	-3771
主持人克	-3772
之平行的	-3773
之後存活	-3774
也不會倒	-3775
也利用了	-3776
也在之後	-3777
也推動了	-3778
也留下了	-3779
了一場在	-3780
了使用單	-3781
了使用家	-3782
了所有七	-3783
了整個西	-3784
了腓尼基	-3785
了色雷斯	-3786
了西西里	-3787
了重大的	-3788
二十年內	-3789
五個港口	-3790
五百萬冊	-3791
些所謂的	-3792
人均收入	-3793
人想要阻	-3794
人數很少	-3795
人理事會	-3796
什大樓為	-3797
他已經拍	-3798
他的法令	-3799
▁執行	-3800
了嚴格	-3801
呼聲傳	-3802
和不來	-3803
嘗試在	-3804
嘗試著	-3805
嚴格的	-3806
四月在	-3807
四月襲	-3808
因而替	-3809
困擾著	-3810
在同一	-3811
執行官	-3812
基於政	-3813
塔爾梅	-3814
塞西亞	-3815
太平洋	-3816
她和她	-3817
是基於	-3818
源單元	-3819
的圖片	-3820
的多元	-3821
薩圖片	-3822
避和不	-3823
項團體	-3824
▁城市中	-3825
▁後者讓	-3826
他的真實	-3827
他自己近	-3828
代表著富	-3829
代表著島	-3830
代表透露	-3831
令人驚訝	-3832
以奪回席	-3833
任職變遷	-3834
份關於該	-3835
休息環節	-3836
但最新的	-3837
但權力的	-3838
佈為野生	-3839
位置近海	-3840
作他激進	-3841
作曲家吉	-3842
作為食物	-3843
使用了原	-3844
使這兩個	-3845
來源於伯	-3846
來衡量的	-3847
來計算的	-3848
保持穩步	-3849
個系統在	-3850
傷阿伯茨	-3851
像海外資	-3852
億英鎊和	-3853
克萊恩沉	-3854
兒子安德	-3855
內地旅行	-3856
全克萊德	-3857
全副武裝	-3858
公共場合	-3859
公司損失	-3860
六年間失	-3861
六月至八	-3862
共同採取	-3863
其他人則	-3864
其他團體	-3865
兼匈牙利	-3866
冰島語中	-3867
出生於多	-3868
別林斯高	-3869
到底是誰	-3870
券會被生	-3871
前克萊恩	-3872
創作了六	-3873
劇打入了	-3874
加亞聯軍	-3875
勒斯蒂芬	-3876
動地講述	-3877
動物很少	-3878
動物還能	-3879
匈妥協協	-3880
匈牙利施	-3881
北愛爾蘭	-3882
十七年後	-3883
半島的後	-3884
南部緊鄰	-3885
卡塔拉諾	-3886
卡塔東部	-3887
卡洛斯四	-3888
印度洋的	-3889
去希羅底	-3890
去除空氣	-3891
又有意思	-3892
受好評的	-3893
受疼痛折	-3894
口葡萄酒	-3895
可持續到	-3896
可持續數	-3897
可疑的漏	-3898
可疑的現	-3899
▁南非	-3900
▁同年	-3901
丶南非	-3902
他同年	-3903
他周圍	-3904
但即使	-3905
傾向著	-3906
北海是	-3907
博客撰	-3908
卡拉布	-3909
卡森已	-3910
即將離	-3911
參賽者	-3912
反法西	-3913
取代了	-3914
叛軍的	-3915
史前手	-3916
向南走	-3917
否則會	-3918
告誡其	-3919
在史密	-3920
就只能	-3921
底去除	-3922
從向著	-3923
從周圍	-3924
整合了	-3925
日參賽	-3926
適合了	-3927
都很有	-3928
中底去除	-3929
丶南非丶	-3930
主要由古	-3931
但即使是	-3932
作整合了	-3933
傾向著稱	-3934
北海是指	-3935
博客撰稿	-3936
卡拉布里	-3937
卡拉皇帝	-3938
卡森已幾	-3939
即使非常	-3940
反法同盟	-3941
古老歷史	-3942
史以來最	-3943
史前手工	-3944
史密斯的	-3945
史達林接	-3946
同上船的	-3947
同盟叛軍	-3948
向南推進	-3949
向飛行員	-3950
否則到了	-3951
含蓄謙遜	-3952
告誡不要	-3953
告誡其教	-3954
呼聲傳遍	-3955
和一系列	-3956
和中國等	-3957
和國民警	-3958
和女演員	-3959
和林肯執	-3960
和法國在	-3961
和烏克蘭	-3962
和程序上	-3963
和腓尼基	-3964
品批發商	-3965
品牌首席	-3966
哈雷戴維	-3967
員效忠於	-3968
嗆肺的霧	-3969
嚴格的劍	-3970
四名學生	-3971
四月在蒙	-3972
回到火車	-3973
因糟糕的	-3974
圍內造成	-3975
圍限制在	-3976
在之後塑	-3977
在大火中	-3978
在好幾個	-3979
在最近的	-3980
在歡樂的	-3981
在沙漠裡	-3982
在等我們	-3983
在紐約州	-3984
在聖塞西	-3985
在通知中	-3986
在達菲的	-3987
地點符合	-3988
址都很有	-3989
均收入是	-3990
基於政績	-3991
基普林的	-3992
基督教的	-3993
塔斯一世	-3994
塞地區和	-3995
塞密爾於	-3996
增長率比	-3997
壇留下了	-3998
壞的情況	-3999
下加利	-4000
來勢力	-4001
前線作	-4002
前進的	-4003
割讓給	-4004
力協助	-4005
力的呼	-4006
加利修	-4007
加工品	-4008
助理科	-4009
勞動力	-4010
化學浴	-4011
南亞祖	-4012
南亞種	-4013
向前進	-4014
寫劇本	-4015
的助理	-4016
穿南極	-4017
而十個	-4018
重力的	-4019
驅動力	-4020
下加利福	-4021
了數千年	-4022
來勢力間	-4023
克斯勳爵	-4024
再次流行	-4025
前線主導	-4026
前線作戰	-4027
力的呼籲	-4028
加低斯的	-4029
加利修正	-4030
助理科瑞	-4031
化學浴徹	-4032
化的第一	-4033
化的語言	-4034
南亞祖先	-4035
南亞種植	-4036
南極大陸	-4037
在兩千年	-4038
士不得不	-4039
士兵出現	-4040
士李維被	-4041
多數人毀	-4042
多於圍著	-4043
多於答案	-4044
多而食物	-4045
大多數席	-4046
大都會俱	-4047
天皇死後	-4048
太平洋的	-4049
太陽和滿	-4050
失望的人	-4051
女巫之槌	-4052
她在一個	-4053
她客串了	-4054
她寫的歌	-4055
她是反對	-4056
存活下來	-4057
季節性的	-4058
學者爭論	-4059
學院的學	-4060
它們的糞	-4061
它們符合	-4062
它為地區	-4063
它重現了	-4064
完成了撤	-4065
官方自傳	-4066
宣布獲勝	-4067
室內製作	-4068
實驗室是	-4069
寫作興致	-4070
將會受限	-4071
將能降低	-4072
將要來臨	-4073
專業人士	-4074
對他們註	-4075
對情侶了	-4076
對我們耍	-4077
小塊釙使	-4078
少數族裔	-4079
尤其是在	-4080
就檢測不	-4081
尷尬局面	-4082
局的特工	-4083
展現了強	-4084
展現的怠	-4085
岩島嶼則	-4086
崔絲已返	-4087
州的百分	-4088
巨額銀行	-4089
差不多是	-4090
差異大於	-4091
市長決定	-4092
希羅底的	-4093
帕克所說	-4094
帖中都有	-4095
師和紡織	-4096
帶來讓人	-4097
常的呼聲	-4098
年一樣的	-4099
中充分	-4100
做了省	-4101
停留時	-4102
優秀的	-4103
儲蓄和	-4104
克頓的	-4105
公國在	-4106
出於天	-4107
分鐘左	-4108
分離的	-4109
初選中	-4110
地制度	-4111
拉公國	-4112
最有名	-4113
會傷害	-4114
病傳播	-4115
的傷害	-4116
的充分	-4117
認出來	-4118
釙分離	-4119
中充分讚	-4120
了分離的	-4121
他們兩人	-4122
他們兩者	-4123
伊斯內爾	-4124
停留了八	-4125
債券全部	-4126
優步以及	-4127
優步公司	-4128
儲蓄賬戶	-4129
充滿希望	-4130
充滿意義	-4131
克斯兩次	-4132
克頓的黑	-4133
公主出現	-4134
公國在當	-4135
出於天真	-4136
出於管理	-4137
分鐘左右	-4138
初選中瑞	-4139
制度之前	-4140
反應出來	-4141
在停留時	-4142
導致債務	-4143
展覽公寓	-4144
年代初期	-4145
年代就在	-4146
年度調查	-4147
年後加入	-4148
年間領導	-4149
幾十億的	-4150
幾首歌曲	-4151
庫莫夫在	-4152
延續了多	-4153
建立生者	-4154
建設中的	-4155
建設看到	-4156
建議環節	-4157
引用他的	-4158
引用學者	-4159
形容她為	-4160
影響深遠	-4161
影響還未	-4162
很容易進	-4163
很快就破	-4164
很有趣的	-4165
後的意圖	-4166
後者同意	-4167
從未接觸	-4168
從而使得	-4169
御所需的	-4170
德國和納	-4171
德國官員	-4172
德國農民	-4173
徹底從中	-4174
心的機會	-4175
思主義的	-4176
性別暴力	-4177
性別歧視	-4178
性在兩個	-4179
恰當的儀	-4180
愚蠢至極	-4181
愛丁堡晚	-4182
感受到了	-4183
感覺是家	-4184
慰是可以	-4185
憶在生者	-4186
應用程序	-4187
成員大衛	-4188
成更注重	-4189
我排除在	-4190
我會感到	-4191
我覺得她	-4192
我都要坐	-4193
或在酒吧	-4194
或者說本	-4195
或至少能	-4196
戰役得以	-4197
戰役的學	-4198
戰後的柏	-4199
▁假期	-4200
並保留	-4201
了使該	-4202
佔有下	-4203
你更煩	-4204
你的弱	-4205
使他對	-4206
使其更	-4207
使其與	-4208
來分配	-4209
來分隔	-4210
信號燈	-4211
修建所	-4212
到你的	-4213
地假設	-4214
情使他	-4215
比你更	-4216
海保留	-4217
的保障	-4218
算佔領	-4219
警信號	-4220
黨保守	-4221
並保留了	-4222
也使其與	-4223
但他拒絕	-4224
佔領古巴	-4225
作出通過	-4226
你更煩躁	-4227
你的弱項	-4228
使其更有	-4229
來分配的	-4230
來分隔兩	-4231
修建所耗	-4232
報警信號	-4233
市場佔有	-4234
性情使他	-4235
戰後的煩	-4236
所有的醫	-4237
手術才能	-4238
才能進去	-4239
打算佔領	-4240
打鬥和打	-4241
投入使用	-4242
拉博夫裸	-4243
拉美西斯	-4244
拉迪亞德	-4245
授權能在	-4246
排字版的	-4247
採取了多	-4248
接下來她	-4249
接到你的	-4250
推特簡訊	-4251
推特賬號	-4252
揚了使該	-4253
揭示了他	-4254
摧毀的市	-4255
擁有滿意	-4256
擔的人數	-4257
支付巨額	-4258
效的條件	-4259
教皇保羅	-4260
教皇方濟	-4261
數個小時	-4262
數次要求	-4263
文明均因	-4264
文明均在	-4265
料的藥丸	-4266
斯佩達爾	-4267
斯巴達在	-4268
方向前進	-4269
於活動中	-4270
於西方的	-4271
於馬德里	-4272
施普林格	-4273
日出生於	-4274
日期只能	-4275
早期發明	-4276
明會牧師	-4277
是一名漫	-4278
是一名臥	-4279
是其陳腐	-4280
是其領土	-4281
是否認識	-4282
是政府中	-4283
是政府最	-4284
時期出現	-4285
景使他對	-4286
更為優異	-4287
最有影響	-4288
最高溫度	-4289
會導致射	-4290
月的升起	-4291
月的繁殖	-4292
有一位敲	-4293
有些人在	-4294
有些國家	-4295
有利選項	-4296
有意在兩	-4297
有的作品	-4298
朝代年號	-4299
ugh	-4300
▁維加	-4301
▁維勒	-4302
上任的	-4303
乘坐纜	-4304
事情上	-4305
互相調	-4306
五年婚	-4307
交了上	-4308
人乘坐	-4309
人休息	-4310
他將之	-4311
他會上	-4312
到他了	-4313
劣童工	-4314
擬人機	-4315
無人機	-4316
給他了	-4317
誕不經	-4318
類似的	-4319
pugh	-4320
▁維勒訥	-4321
世的女兒	-4322
乘坐纜車	-4323
了十五年	-4324
二十世紀	-4325
互相調笑	-4326
五年婚約	-4327
交了上訴	-4328
人休息和	-4329
人數有所	-4330
人民共同	-4331
他也成了	-4332
他就承認	-4333
他就明白	-4334
他被給予	-4335
任的總統	-4336
劣童工形	-4337
嫁給他了	-4338
擁有互相	-4339
擬人機器	-4340
新上任的	-4341
期的所謂	-4342
未出生的	-4343
未完工的	-4344
未發育的	-4345
末標誌著	-4346
本地勢力	-4347
染色體的	-4348
柔的一面	-4349
業的諾瑪	-4350
概念藝術	-4351
槍殺了蘇	-4352
歇的歡樂	-4353
歌曲是由	-4354
歐盟官員	-4355
正是這家	-4356
此概念叫	-4357
此次干預	-4358
歲的朱婷	-4359
歷史的書	-4360
歸而被控	-4361
死亡人口	-4362
每人平均	-4363
比你更有	-4364
比例一致	-4365
沒有見過	-4366
河流均有	-4367
法國在馬	-4368
法國據此	-4369
法就被推	-4370
法部部長	-4371
波的抗議	-4372
波蘭及波	-4373
洛克堅定	-4374
派系變的	-4375
流行緊密	-4376
浪的機會	-4377
海報能夠	-4378
海峽要道	-4379
深對人類	-4380
深的交通	-4381
深的平壤	-4382
準確結婚	-4383
滴從周圍	-4384
滿族統治	-4385
潘沃爾卡	-4386
澳洲網球	-4387
激烈的思	-4388
濟拉島和	-4389
災難性的	-4390
為中心的	-4391
為基礎的	-4392
為她寫歌	-4393
為拉博夫	-4394
烏爾里希	-4395
無法計算	-4396
煤電站也	-4397
營中獨自	-4398
爭取更多	-4399
丟了六	-4400
中吸收	-4401
中吸煙	-4402
中移除	-4403
主導的	-4404
之於人	-4405
之於常	-4406
了不少	-4407
了不管	-4408
了大公	-4409
了對心	-4410
壞了它	-4411
是事實	-4412
會主席	-4413
本主演	-4414
群中央	-4415
解了它	-4416
轉了對	-4417
▁他主張	-4418
下了中央	-4419
丑之於人	-4420
丟了六分	-4421
中吸收並	-4422
之於常人	-4423
也是全球	-4424
了不少便	-4425
了不管他	-4426
了十年的	-4427
了大公牆	-4428
了對心理	-4429
你主導的	-4430
全是事實	-4431
參與了該	-4432
善會主席	-4433
將其主張	-4434
扭轉了對	-4435
會傷害小	-4436
法律中移	-4437
爵位具有	-4438
片圍繞著	-4439
版本中演	-4440
牧師拜訪	-4441
物的期待	-4442
特拉公國	-4443
獨立寫作	-4444
獨自一人	-4445
獲獎建築	-4446
獲獎影片	-4447
現在是上	-4448
理和近海	-4449
甚至比在	-4450
生中吸煙	-4451
生活的社	-4452
生肖是猴	-4453
用同樣的	-4454
用第三方	-4455
由法令確	-4456
當作提高	-4457
當年是引	-4458
當罕見的	-4459
疾病傳播	-4460
病人來說	-4461
瘤是一種	-4462
發生打鬥	-4463
發生率為	-4464
發育長期	-4465
白人男性	-4466
百五十萬	-4467
的人得以	-4468
的人數眾	-4469
的人而言	-4470
的人轉而	-4471
的內容更	-4472
的吉他手	-4473
的女巫琳	-4474
的安德魯	-4475
的帕爾馬	-4476
的志願者	-4477
的志願軍	-4478
的情況為	-4479
的托利黨	-4480
的技術來	-4481
的指揮權	-4482
的新公寓	-4483
的新形式	-4484
的梅爾丁	-4485
的正確組	-4486
的疑問也	-4487
的知識產	-4488
的破壞極	-4489
的祖母是	-4490
的第三方	-4491
的第二個	-4492
的系統和	-4493
的紀念碑	-4494
的結構和	-4495
的繼承者	-4496
的聊天軟	-4497
的著陸襟	-4498
的證據是	-4499
一般因	-4500
三角洲	-4501
上並毀	-4502
上很勉	-4503
下面將	-4504
不久前	-4505
不合格	-4506
不合適	-4507
不大切	-4508
不想給	-4509
不想被	-4510
丘吉爾	-4511
了下來	-4512
對丘吉	-4513
撈上限	-4514
站上並	-4515
一般因矽	-4516
上很勉強	-4517
下面將小	-4518
不久前剛	-4519
不合適的	-4520
不大切合	-4521
不想被賣	-4522
丘吉爾頒	-4523
其不合格	-4524
剩了下來	-4525
因此丟了	-4526
捕撈上限	-4527
新傳統是	-4528
東三角洲	-4529
的賽車手	-4530
的轉變和	-4531
的飛行員	-4532
皇亞歷山	-4533
監管船隻	-4534
目前為止	-4535
目的是在	-4536
相信是上	-4537
相對較低	-4538
真正共處	-4539
短的時間	-4540
石材料的	-4541
研究的實	-4542
砲兵軍官	-4543
破解了它	-4544
硬的一面	-4545
確實很可	-4546
磁浮線的	-4547
礦物資源	-4548
社發生了	-4549
祀遺跡由	-4550
福特公司	-4551
福的追求	-4552
科幻電影	-4553
科羅拉多	-4554
種罕見的	-4555
積極防衛	-4556
突變的數	-4557
立石為南	-4558
符拉迪沃	-4559
第一位在	-4560
第一位女	-4561
等城市中	-4562
節勞動力	-4563
簡直是太	-4564
系統添加	-4565
紀念碑和	-4566
組織優先	-4567
經過一些	-4568
經過近期	-4569
網上信息	-4570
緊鄰色雷	-4571
線的局勢	-4572
練工人提	-4573
總統想要	-4574
總體的鐵	-4575
缺席的人	-4576
羅娜發明	-4577
羅馬人把	-4578
美國公民	-4579
美國醫療	-4580
美拉尼西	-4581
美洲史前	-4582
美西斯在	-4583
而我寧願	-4584
而有給予	-4585
聯邦開支	-4586
聲波檢測	-4587
聽證會的	-4588
肥料價值	-4589
育的守護	-4590
背部疼痛	-4591
能使植物	-4592
能夠遠離	-4593
能接收到	-4594
自己即將	-4595
致命的一	-4596
與其城堡	-4597
與崔絲一	-4598
與西方的	-4599
tur	-4600
twi	-4601
tzi	-4602
▁如峽	-4603
▁白色	-4604
▁相比	-4605
▁確保	-4606
▁確定	-4607
▁科朵	-4608
▁科隆	-4609
▁蘇伊	-4610
▁衣服	-4611
▁除此	-4612
一座大	-4613
濱一帶	-4614
anzi	-4615
erts	-4616
jutt	-4617
nott	-4618
onte	-4619
tsch	-4620
tube	-4621
turn	-4622
twit	-4623
ötzi	-4624
▁yer	-4625
▁你必須	-4626
▁其警察	-4627
▁其重要	-4628
▁如峽灣	-4629
▁確保了	-4630
▁科朵拉	-4631
▁蘇伊士	-4632
一座大金	-4633
最高一座	-4634
海濱一帶	-4635
與謀殺案	-4636
船的記錄	-4637
英國船隻	-4638
英格蘭和	-4639
荒誕不經	-4640
菩薩圖片	-4641
薩拉託加	-4642
薩米方言	-4643
藉由完成	-4644
藉由建立	-4645
虔誠所感	-4646
行中移除	-4647
行進到把	-4648
衛軍軍官	-4649
表示遺憾	-4650
被割讓給	-4651
被征服的	-4652
被當作籌	-4653
被遺忘了	-4654
西西里島	-4655
西部邊緣	-4656
要么成為	-4657
視為兩個	-4658
視為有生	-4659
觀的交易	-4660
角度考慮	-4661
角色擺脫	-4662
記本錄製	-4663
訪問了堪	-4664
設計師比	-4665
該系統在	-4666
詳細檢查	-4667
語版的聖	-4668
語的元素	-4669
調查四名	-4670
請願書的	-4671
論發生了	-4672
謀殺罪和	-4673
變為廢墟	-4674
谷最高的	-4675
貌的破壞	-4676
貝貝一起	-4677
財政監管	-4678
貿易港口	-4679
資金全部	-4680
資金投資	-4681
賓主持人	-4682
購物平台	-4683
贊助醜聞	-4684
超級英雄	-4685
軍隊摧毀	-4686
較為少見	-4687
輪到他了	-4688
轉而專心	-4689
轉變都是	-4690
辦公室景	-4691
近完成了	-4692
迴避和不	-4693
這也導致	-4694
這個假期	-4695
這個假設	-4696
這個顯然	-4697
這兩本書	-4698
通過平台	-4699
56%	-4700
999	-4701
bea	-4702
dpa	-4703
eit	-4704
gui	-4705
how	-4706
pap	-4707
pun	-4708
rsp	-4709
ñez	-4710
,999	-4711
1165	-4712
1365	-4713
1882	-4714
1962	-4715
40%,	-4716
bach	-4717
ctar	-4718
emic	-4719
guil	-4720
igui	-4721
juan	-4722
lect	-4723
orie	-4724
papw	-4725
punt	-4726
rspb	-4727
spie	-4728
áñez	-4729
▁cif	-4730
他將允許	-4731
城市每年	-4732
通過觀察	-4733
週六中午	-4734
過去二十	-4735
道德淪喪	-4736
遜導演的	-4737
選出歷史	-4738
選活動中	-4739
還有布魯	-4740
還未結束	-4741
還沒決定	-4742
還能作為	-4743
還需要做	-4744
還需要對	-4745
邊緣形成	-4746
那幢大樓	-4747
那年夏天	-4748
部件有所	-4749
部部長傑	-4750
都打平手	-4751
都有其含	-4752
醫療總局	-4753
里或在櫃	-4754
里的補助	-4755
重新掌權	-4756
重新錄製	-4757
重要養分	-4758
釙樣本的	-4759
鏈接和附	-4760
長出來的	-4761
開始的前	-4762
開普敦的	-4763
間站上並	-4764
闊的遺跡	-4765
關於該話	-4766
關進入了	-4767
阿特靈被	-4768
降低溫度	-4769
限的保護	-4770
除指揮權	-4771
隨時在您	-4772
險的飆升	-4773
集團已經	-4774
離婚後卻	-4775
雷暴報告	-4776
電影是由	-4777
電影海報	-4778
電源單元	-4779
非常滿意	-4780
靠的信息	-4781
預算赤字	-4782
預算超過	-4783
預言稱他	-4784
頭銜的人	-4785
風力發電	-4786
風格似的	-4787
餐飲集團	-4788
騎兵部隊	-4789
高爾夫球	-4790
髮通常是	-4791
鬆的歷史	-4792
鬥志昂揚	-4793
鬧劇和沈	-4794
黨保守派	-4795
龐培取得	-4796
,1904	-4797
,1994	-4798
,1996	-4799
1340	-4800
2900	-4801
30-10	-4802
david	-4803
estre	-4804
ettel	-4805
horie	-4806
illic	-4807
immer	-4808
knuck	-4809
north	-4810
oseph	-4811
perts	-4812
punta	-4813
steph	-4814
strum	-4815
vigui	-4816
ángel	-4817
▁1075	-4818
▁1566	-4819
▁1856	-4820
▁1882	-4821
▁1896	-4822
▁1969	-4823
▁aver	-4824
▁aviv	-4825
▁cifu	-4826
▁clar	-4827
▁maro	-4828
▁pugh	-4829
▁show	-4830
▁winh	-4831
▁三島生前	-4832
▁中國戰敗	-4833
▁他主張嚴	-4834
▁他也表示	-4835
▁他也討論	-4836
▁他的夢想	-4837
▁他警告說	-4838
▁他還指出	-4839
▁但在史密	-4840
▁但有旅行	-4841
▁位於歐洲	-4842
▁你必須受	-4843
▁假期期間	-4844
▁全球變暖	-4845
▁共和黨在	-4846
▁其他國家	-4847
▁卡塔拉諾	-4848
▁哈雷戴維	-4849
▁喬治為他	-4850
▁國際可再	-4851
▁在中世紀	-4852
▁在亞歷山	-4853
▁在其家庭	-4854
▁在十月初	-4855
▁執行機構	-4856
▁多族裔的	-4857
▁大多數人	-4858
▁大部分的	-4859
▁對羅馬人	-4860
▁工業革命	-4861
▁希拉里向	-4862
▁希拉里的	-4863
▁後者在監	-4864
▁德國報紙	-4865
▁我的下一	-4866
▁投資在溢	-4867
▁接下來她	-4868
▁曾發揮出	-4869
▁有人預測	-4870
▁棲息地被	-4871
▁正如指出	-4872
▁歷史學家	-4873
▁沒有遊行	-4874
▁沙塵暴是	-4875
▁法國工人	-4876
▁潘沃爾卡	-4877
▁為了娛樂	-4878
▁然而對科	-4879
▁特別是在	-4880
▁特朗普的	-4881
▁瓦倫蒂諾	-4882
▁由於顧客	-4883
▁當時那里	-4884
▁目前的等	-4885
▁維勒訥沃	-4886
▁羅娜發明	-4887
▁聯合國回	-4888
▁英國乃至	-4889
▁警方表示	-4890
▁赫爾茨心	-4891
▁農業用地	-4892
▁這個比例	-4893
▁這裡提供	-4894
▁通常由於	-4895
▁阿特靈結	-4896
▁除了他們	-4897
▁除了直接	-4898
▁除此之外	-4899
人還可以	-4900
他補充道	-4901
士補充道	-4902
她被指控	-4903
河附近的	-4904
特阿拉伯	-4905
現被稱為	-4906
球錦標賽	-4907
的阿拉伯	-4908
紅銅時代	-4909
羅解釋說	-4910
行為的限	-4911
被認為能	-4912
說明了這	-4913
迪士尼寫	-4914
迪士尼的	-4915
運動會將	-4916
還可以去	-4917
還被指控	-4918
2015-	-4919
lucas	-4920
▁公元前五	-4921
▁在過去的	-4922
▁當西格爾	-4923
▁紅銅時代	-4924
▁雖然直至	-4925
▁電影記錄	-4926
▁顯而易見	-4927
一位有貴族	-4928
一個百分點	-4929
一定會懷念	-4930
一樣的學生	-4931
一次降到了	-4932
一直保持著	-4933
一直圍繞著	-4934
一直在穩步	-4935
一部影片是	-4936
一面是成為	-4937
七百五十萬	-4938
三個平行的	-4939
三年內貸款	-4940
上並毀滅了	-4941
上很勉強的	-4942
上很重要的	-4943
上第一位女	-4944
上進行的旅	-4945
下所需要的	-4946
下的獨木舟	-4947
下面將小球	-4948
不全是事實	-4949
不大適合了	-4950
不太受歡迎	-4951
不存在爭議	-4952
不應該就任	-4953
不比在尼羅	-4954
丑之於人性	-4955
世界大戰戰	-4956
世界廣播電	-4957
世的劇作家	-4958
丘吉爾頒布	-4959
並在重力的	-4960
並數次要求	-4961
並未透露多	-4962
並賠償實行	-4963
中反應出來	-4964
中國不得不	-4965
中底去除角	-4966
中扮演精神	-4967
中發現的最	-4968
中詳細探討	-4969
主要由移民	-4970
之前的疑問	-4971
之平行的博	-4972
之間的交易	-4973
之間的防衛	-4974
乘坐纜車穿	-4975
也不會倒退	-4976
也利用了她	-4977
也在之後和	-4978
也正是這家	-4979
也開始哭泣	-4980
乾旱地區和	-4981
了一所學校	-4982
了一系列長	-4983
了不少便宜	-4984
了他未來的	-4985
了使用家用	-4986
了對心理學	-4987
了所有七個	-4988
了整個領域	-4989
了自己的政	-4990
了迦南人的	-4991
事情就已經	-4992
互相調笑和	-4993
五人理事會	-4994
五個港口向	-4995
亞加亞聯軍	-4996
人們習慣稱	-4997
人有意在兩	-4998
人民共同的	-4999
▁約瑟夫	-5000
▁而不是	-5001
億的選民	-5002
克薩斯州	-5003
好的人才	-5004
工的工作	-5005
掉的時候	-5006
於芬蘭語	-5007
是芬蘭語	-5008
晨的行動	-5009
某程度上	-5010
的社會住	-5011
的選民有	-5012
茨的成功	-5013
菲利普五	-5014
菲利普召	-5015
記的選民	-5016
重的社會	-5017
頓的支持	-5018
▁而不是把	-5019
人民共和國	-5020
人物的期待	-5021
人見過這些	-5022
人還可以享	-5023
人類經驗的	-5024
他不想被賣	-5025
他們才會被	-5026
他們最關心	-5027
他們至少能	-5028
他周圍人的	-5029
他在那里為	-5030
他宣布破產	-5031
他將之描述	-5032
他採取了多	-5033
他會上大學	-5034
他的妻子愛	-5035
他被給予了	-5036
付更多責任	-5037
代表了公民	-5038
代表了日常	-5039
以奪回席位	-5040
任的總統尤	-5041
但他並不是	-5042
但如果形式	-5043
但蓋耶已經	-5044
位於北部的	-5045
位資本支出	-5046
住在帕爾馬	-5047
佔有下埃及	-5048
佛羅里達州	-5049
作曲家吉姆	-5050
使用了原創	-5051
使這兩個敵	-5052
來分隔兩地	-5053
來到片場後	-5054
來源於伯納	-5055
來源於去年	-5056
例如萊茵河	-5057
便還能作為	-5058
俄國的所有	-5059
保全克萊德	-5060
保持著關鍵	-5061
保障消費者	-5062
個男人告訴	-5063
候選人薩拉	-5064
做了省警察	-5065
傑濟拉島和	-5066
億的選民投	-5067
優秀的助手	-5068
充滿意義的	-5069
先生在七月	-5070
克圖特摩斯	-5071
克斯兩次被	-5072
克萊恩沉默	-5073
克頓的黑暗	-5074
內代理人的	-5075
兩位劇作家	-5076
公司就只能	-5077
公國在當今	-5078
公眾為他們	-5079
六年間失業	-5080
其他事情上	-5081
其他人則讚	-5082
其作為主要	-5083
其北部區域	-5084
其展覽公寓	-5085
其後出現在	-5086
其關閉原因	-5087
凱拉的嬰兒	-5088
凱撒的宣言	-5089
凱爾特海和	-5090
出現了破裂	-5091
出生的月份	-5092
利卡塔東部	-5093
利塞地區和	-5094
利用了河流	-5095
到了好幾個	-5096
到目前為止	-5097
券會被生成	-5098
刺傷阿伯茨	-5099
▁消費者	-5100
博格達汗	-5101
場比賽中	-5102
塔會見了	-5103
新法蘭西	-5104
明顯的分	-5105
是明顯的	-5106
更多的捐	-5107
會見了希	-5108
法蘭西的	-5109
邊最大的	-5110
▁新法蘭西	-5111
了使用單一	-5112
事件發生在	-5113
作整合了過	-5114
克斯洛伐克	-5115
公園東南部	-5116
前往契丹遼	-5117
前進的德國	-5118
剩下了中央	-5119
創作了六部	-5120
創作了歌曲	-5121
加低斯的圖	-5122
勒牧師拜訪	-5123
勝餐飲集團	-5124
匈牙利施壓	-5125
化的第一階	-5126
北京的立法	-5127
北部區域亦	-5128
十年內成為	-5129
南部緊鄰的	-5130
博客中寫道	-5131
卡唱片公司	-5132
卡拉布里亞	-5133
卡鬆的歷史	-5134
印度西北部	-5135
危機顯示了	-5136
即約公元前	-5137
去了葡萄牙	-5138
去希羅底那	-5139
參與不道德	-5140
又再次流行	-5141
及其船員共	-5142
及新傳統是	-5143
反應說明了	-5144
反法西斯的	-5145
受疼痛折磨	-5146
受社會主義	-5147
叛亂的收益	-5148
叛亂的發生	-5149
叛軍的軍事	-5150
古老歷史資	-5151
只有在美國	-5152
可歸而被控	-5153
可疑的漏洞	-5154
可疑的現金	-5155
可能有助於	-5156
可靠的信息	-5157
史以來最低	-5158
史密斯的科	-5159
史達林接替	-5160
右肺的腫瘤	-5161
司法部部長	-5162
合作完成的	-5163
合法葬禮罪	-5164
合理地假設	-5165
吉卜林很大	-5166
吉拉德女士	-5167
同時會獲得	-5168
同樣的鬥志	-5169
同盟叛軍於	-5170
名獲勝之前	-5171
名這片土地	-5172
向埃及法老	-5173
向獨立寫作	-5174
否則會非常	-5175
告誡不要採	-5176
告誡其教徒	-5177
呼聲傳遍了	-5178
和五百萬冊	-5179
和他的妻子	-5180
和卡森已幾	-5181
和女演員葛	-5182
和平的友誼	-5183
和歷史組成	-5184
和烏克蘭的	-5185
和監管船隻	-5186
和福特公司	-5187
和穿戴別人	-5188
和貝貝一起	-5189
哥將會有一	-5190
商學院的學	-5191
問題的法國	-5192
問題的激增	-5193
善會主席喬	-5194
嘉砲兵軍官	-5195
嘉賓主持人	-5196
四名學生髮	-5197
四月在蒙特	-5198
回舊殖民地	-5199
上就	-5200
人家	-5201
入空	-5202
吉龍	-5203
在房	-5204
對芳	-5205
底下	-5206
會擊	-5207
有鮑	-5208
氣流	-5209
流離	-5210
深入	-5211
準媽	-5212
耶區	-5213
與輔	-5214
被帶	-5215
連鎖	-5216
達訂	-5217
遵守	-5218
里米	-5219
開墾	-5220
閒逛	-5221
間裡	-5222
▁流離	-5223
一些大	-5224
一個字	-5225
上就毫	-5226
下達訂	-5227
以自由	-5228
克里米	-5229
入氣流	-5230
入空中	-5231
和遵守	-5232
對芳特	-5233
成妥協	-5234
戶人家	-5235
新成立	-5236
會擊中	-5237
有鮑勃	-5238
準媽媽	-5239
產生多	-5240
維耶區	-5241
與輔導	-5242
藏家的	-5243
造音樂	-5244
間還是	-5245
▁大熱的	-5246
▁流離失	-5247
▁白吉龍	-5248
一些大致	-5249
一個字源	-5250
上就毫無	-5251
下下達訂	-5252
以及能夠	-5253
以自由州	-5254
克里米亞	-5255
入氣流中	-5256
創造音樂	-5257
動摩托車	-5258
十戶人家	-5259
可產生多	-5260
土地開墾	-5261
在房間裡	-5262
季斯拉夫	-5263
彈入空中	-5264
形成連鎖	-5265
恐怖底下	-5266
投資者們	-5267
摩托車越	-5268
摩托車頭	-5269
收藏家的	-5270
斯拉夫人	-5271
新成立的	-5272
有鮑勃在	-5273
的準媽媽	-5274
節目有關	-5275
街上閒逛	-5276
軍隊深入	-5277
迪猶太人	-5278
達成妥協	-5279
間還是不	-5280
電子郵件	-5281
顆粒被帶	-5282
andre	-5283
▁流離失所	-5284
一些大致上	-5285
下下達訂單	-5286
些顆粒被帶	-5287
以及能夠溶	-5288
來自塞西亞	-5289
包括對芳特	-5290
可產生多達	-5291
和遵守了多	-5292
單上就毫無	-5293
四十戶人家	-5294
因為這兩個	-5295
因而登上了	-5296
困擾的日子	-5297
國際比賽中	-5298
在一個工作	-5299
交錯	-5300
在民	-5301
將是	-5302
展會	-5303
強烈	-5304
普魯	-5305
殺戮	-5306
特蕾	-5307
財產	-5308
在民用	-5309
對殺戮	-5310
強烈慾	-5311
斯普魯	-5312
特蕾莎	-5313
產品的	-5314
個人財產	-5315
奠定了融	-5316
將是北京	-5317
對殺戮的	-5318
小型自治	-5319
幫助客戶	-5320
強烈慾望	-5321
此次展會	-5322
為國家的	-5323
觸產品的	-5324
▁蘇格蘭人	-5325
交錯的文化	-5326
個小型自治	-5327
列為國家的	-5328
可觸產品的	-5329
在他的電影	-5330
在克里米亞	-5331
在公元前約	-5332
在公共場合	-5333
在前線作戰	-5334
在大火中被	-5335
在最近的訪	-5336
在東三角洲	-5337
在格拉斯哥	-5338
在民用航空	-5339
在波蘭放棄	-5340
在約公元前	-5341
在聖塞西莉	-5342
在街上閒逛	-5343
地保持穩步	-5344
地剩了下來	-5345
地思考未來	-5346
地理和近海	-5347
地表的細微	-5348
址都很有名	-5349
坎伯蘭公爵	-5350
城市每年有	-5351
基於政績的	-5352
壇留下了光	-5353
外來勢力間	-5354
多於圍著我	-5355
大眾的注意	-5356
大約是清朝	-5357
大部分的班	-5358
大都會俱樂	-5359
大都會城市	-5360
天氣預報中	-5361
奧匈妥協協	-5362
奧古斯塔斯	-5363
奧爾尼奪回	-5364
奧聯軍感到	-5365
奧運會是在	-5366
女士和這片	-5367
女士補充道	-5368
她和她與其	-5369
她是反對欺	-5370
她被指控兩	-5371
妥善的健康	-5372
妻子也開始	-5373
威爾斯市長	-5374
子之於常人	-5375
存活下來時	-5376
學校受到了	-5377
學生被告知	-5378
它們會擊中	-5379
它們的相似	-5380
它重現了冷	-5381
安塞密爾於	-5382
安慰是可以	-5383
安東尼霸占	-5384
官在達菲的	-5385
定它們符合	-5386
宣佈為野生	-5387
室內製作動	-5388
實際完成的	-5389
實驗的結果	-5390
寫作興致勢	-5391
將其主張的	-5392
將能與巴西	-5393
專家警告說	-5394
尋求與猶太	-5395
對丘吉爾的	-5396
對人類社會	-5397
對他們來說	-5398
對他們註冊	-5399
不止	-5400
了很	-5401
共通	-5402
員票	-5403
寂寞	-5404
搏鬥	-5405
明確	-5406
梅塞	-5407
片人	-5408
當然	-5409
盤上	-5410
規則	-5411
諾的	-5412
通往	-5413
長度	-5414
不止是	-5415
你們施	-5416
促進了	-5417
克爾頓	-5418
共通的	-5419
國王阿	-5420
寂寞的	-5421
所當然	-5422
搏鬥中	-5423
文學碩	-5424
的長度	-5425
的黨派	-5426
盤上方	-5427
碼方面	-5428
華盛頓	-5429
萊諾的	-5430
製片人	-5431
議員票	-5432
通往弗	-5433
上的管理	-5434
不止是電	-5435
並不明確	-5436
似乎希望	-5437
你們施加	-5438
克爾頓爵	-5439
國王阿閔	-5440
存在了很	-5441
寂寞的豬	-5442
密碼方面	-5443
所當然地	-5444
承擔責任	-5445
文學碩士	-5446
梅塞將軍	-5447
派的黨派	-5448
無論規則	-5449
發展特徵	-5450
知識分子	-5451
薩萊諾的	-5452
處罰條款	-5453
被的保護	-5454
通往弗倫	-5455
鍵盤上方	-5456
▁密碼方面	-5457
▁梅爾里斯	-5458
▁無論規則	-5459
上了太陽眼	-5460
不止是電話	-5461
似乎希望元	-5462
你們施加哪	-5463
僅存在了很	-5464
克爾頓爵士	-5465
夫承擔責任	-5466
奇蹟和每個	-5467
它們共通的	-5468
對埃爾多安	-5469
對尼古拉斯	-5470
對尼羅河的	-5471
對情侶可以	-5472
對派系變的	-5473
就像大多數	-5474
就是拿破崙	-5475
就檢測不到	-5476
尼特拉公國	-5477
展現的怠慢	-5478
屬部件有所	-5479
山任職變遷	-5480
岡法律中移	-5481
岩島嶼則如	-5482
工作奠定了	-5483
工作時間中	-5484
工業革命都	-5485
工的工作和	-5486
已經疏遠了	-5487
巴庫莫夫在	-5488
巴爾幹同盟	-5489
巴達爾普爾	-5490
布什大樓為	-5491
布朗特擔任	-5492
希望即將離	-5493
希臘字母表	-5494
師和紡織業	-5495
帶來了一場	-5496
常染色體的	-5497
年在三十年	-5498
年度調查還	-5499
了被	-5500
台階	-5501
各樣	-5502
在橄	-5503
戰意	-5504
擊和	-5505
新結	-5506
羅曼	-5507
高昂	-5508
▁可以	-5509
了被沖	-5510
台階上	-5511
各樣的	-5512
在橄欖	-5513
擊和適	-5514
新結論	-5515
法老王	-5516
獲得植	-5517
羅曼諾	-5518
舊區域	-5519
aret	-5520
▁可以說	-5521
了被沖上	-5522
戰意高昂	-5523
掉法老王	-5524
羅曼諾夫	-5525
舊區域也	-5526
garet	-5527
▁喬治極度	-5528
出了新結論	-5529
各樣的觀眾	-5530
妙的挑戰的	-5531
年後加入北	-5532
年春天告終	-5533
年的專業而	-5534
幸的是再次	-5535
幸運兔奧斯	-5536
幾乎沒有借	-5537
府代理人的	-5538
座青銅時代	-5539
廣受好評的	-5540
廣闊的遺跡	-5541
建立生者與	-5542
建議讓羅娜	-5543
強制受洗後	-5544
強制受洗有	-5545
形成了一種	-5546
影響最深遠	-5547
很令人驚訝	-5548
很可能是指	-5549
很快得到了	-5550
很有趣的求	-5551
從中世紀中	-5552
從向著他的	-5553
從哪兒來的	-5554
從挪威南部	-5555
從未接觸過	-5556
御所需的技	-5557
復興時期的	-5558
徵收的最高	-5559
德克薩斯州	-5560
德發現大陸	-5561
快速地打開	-5562
怎麼樣才能	-5563
性別歧視者	-5564
惡劣童工形	-5565
意味著他們	-5566
意味著需要	-5567
意圖是什麼	-5568
慶祝他們的	-5569
應可持續到	-5570
成年人中有	-5571
我們會繼續	-5572
我們的日常	-5573
我已經完全	-5574
我排除在外	-5575
我都要坐牢	-5576
或唱片公司	-5577
或是明顯的	-5578
或組織優先	-5579
或者說本應	-5580
或至少能減	-5581
戰役的學術	-5582
戰線的局勢	-5583
戰鬥中表現	-5584
所以我就像	-5585
扭轉了對抗	-5586
批發方面的	-5587
承擔更多的	-5588
技術提出了	-5589
把兒子安德	-5590
把日出標記	-5591
把路途時間	-5592
投資人極度	-5593
投資者們成	-5594
投資者投資	-5595
拉博夫裸體	-5596
拉的嬰兒的	-5597
拉美西斯二	-5598
拉迪亞德吉	-5599
▁漢	-5600
人開	-5601
們搬	-5602
到在	-5603
前戴	-5604
國籍	-5605
城的	-5606
將它	-5607
後是	-5608
曾選	-5609
深圳	-5610
牧場	-5611
的警	-5612
筋暴	-5613
艾賓	-5614
見到	-5615
辛巴	-5616
isp	-5617
▁深圳	-5618
▁漢斯	-5619
人開玩	-5620
即擁有	-5621
和牧場	-5622
在將它	-5623
女們搬	-5624
拍到在	-5625
於今年	-5626
曾選用	-5627
然後是	-5628
的警官	-5629
筋暴起	-5630
色城的	-5631
艾賓根	-5632
萊辛巴	-5633
訪前戴	-5634
hisp	-5635
▁深圳市	-5636
人開玩笑	-5637
修女們搬	-5638
在將它從	-5639
地和牧場	-5640
基色城的	-5641
於今年較	-5642
維亞國籍	-5643
萊辛巴哈	-5644
被拍到在	-5645
見到她的	-5646
采訪前戴	-5647
青筋暴起	-5648
▁深圳市交	-5649
主要由古代	-5650
人開玩笑說	-5651
以前曾選用	-5652
回了艾賓根	-5653
城市的警官	-5654
拿出自己的	-5655
拿破崙確信	-5656
掉法老王理	-5657
排除其他人	-5658
接下來的多	-5659
接受了治療	-5660
接觸的主要	-5661
控制促進了	-5662
推特簡訊上	-5663
揭示了他對	-5664
揭示了他的	-5665
揭露後的那	-5666
搏鬥中通常	-5667
摩托車越野	-5668
摩納哥提供	-5669
摩納哥條約	-5670
擁有滿意的	-5671
擊和適當的	-5672
擔任財務長	-5673
擬人機器人	-5674
擬定為羅馬	-5675
收到了美國	-5676
改用第三方	-5677
放的人得以	-5678
政府科學家	-5679
政府開支的	-5680
政權轉移能	-5681
教皇方濟各	-5682
文學碩士學	-5683
斯巴達在伯	-5684
斯拉夫人於	-5685
斯洛伐克西	-5686
於今年較早	-5687
於西方的蠅	-5688
早前克萊恩	-5689
早至公元前	-5690
明會牧師海	-5691
明顯的抵抗	-5692
是一名漫畫	-5693
是一名臥底	-5694
是一項團體	-5695
是不合適的	-5696
是政府最不	-5697
是由於印度	-5698
是芬蘭語和	-5699
▁法	-5700
▁湯	-5701
一體	-5702
不忙	-5703
出能	-5704
反信	-5705
宇宙	-5706
峙時	-5707
工會	-5708
敦促	-5709
機場	-5710
波拿	-5711
疏通	-5712
發的	-5713
秒鐘	-5714
積物	-5715
規定	-5716
諮詢	-5717
限額	-5718
001	-5719
▁湯普	-5720
不忙地	-5721
並敦促	-5722
保護區	-5723
傳統中	-5724
六秒鐘	-5725
出發的	-5726
出能跨	-5727
反信託	-5728
年開始	-5729
您就能	-5730
才能擯	-5731
波拿巴	-5732
淤積物	-5733
為一體	-5734
疏通了	-5735
的活動	-5736
的規定	-5737
總工會	-5738
葬地點	-5739
鐵元素	-5740
,001	-5741
▁對峙時	-5742
▁湯普遜	-5743
不忙地穿	-5744
之後不久	-5745
了淤積物	-5746
兩個宇宙	-5747
出能跨海	-5748
包括一名	-5749
反信託庭	-5750
埋葬地點	-5751
才能擯除	-5752
敵的活動	-5753
數次挑釁	-5754
最高限額	-5755
沒有諮詢	-5756
牌的目標	-5757
猜測僅僅	-5758
秘傳統中	-5759
融為一體	-5760
認為機場	-5761
還在調查	-5762
▁最高限額	-5763
▁湯普遜的	-5764
力量總工會	-5765
動物保護區	-5766
包括一名國	-5767
匹敵的活動	-5768
反信託庭審	-5769
大陸出發的	-5770
年開始據此	-5771
慌不忙地穿	-5772
成功疏通了	-5773
才能擯除分	-5774
新的鐵元素	-5775
是購物平台	-5776
時不在片場	-5777
時丟了六分	-5778
晨的行動中	-5779
更多的工作	-5780
更多的捐獻	-5781
更好地保護	-5782
曼谷最高的	-5783
曾因糟糕的	-5784
曾經發生在	-5785
最壞的情況	-5786
最新的事件	-5787
最有可能在	-5788
最有可能從	-5789
最有影響力	-5790
最近的一次	-5791
最高一座高	-5792
會導致射擊	-5793
會獲得成功	-5794
會見了希特	-5795
會見了技術	-5796
會認為機場	-5797
會議中心的	-5798
月份的長度	-5799
佩特	-5800
少年	-5801
州離	-5802
損傷	-5803
斯轉	-5804
最廣	-5805
的觸	-5806
露天	-5807
▁他於	-5808
佩特森	-5809
名人的	-5810
少年大	-5811
州離岸	-5812
感狀態	-5813
斯轉身	-5814
是最廣	-5815
當天的	-5816
的觸控	-5817
都屬於	-5818
illa	-5819
受到損傷	-5820
少年大腦	-5821
情感狀態	-5822
是最廣為	-5823
瑟斯轉身	-5824
窄的觸控	-5825
者的歷史	-5826
選舉已經	-5827
露天劇場	-5828
villa	-5829
他情感狀態	-5830
佩特森能夠	-5831
公司的選擇	-5832
名人的名字	-5833
少年大腦的	-5834
尼亞州離岸	-5835
教皇保羅六	-5836
有一段時刻	-5837
有了分離的	-5838
有人轟炸了	-5839
有相似之處	-5840
有著重大的	-5841
有關被征服	-5842
有限的保護	-5843
未來的目標	-5844
板塊斷層上	-5845
某種程度上	-5846
柴油價格為	-5847
根相信是上	-5848
格來分配的	-5849
梅飽受批評	-5850
條約的延續	-5851
業生成就展	-5852
業的諾瑪城	-5853
極其不合格	-5854
概念藝術並	-5855
槍殺了蘇台	-5856
樂命令不得	-5857
模糊的細節	-5858
權力的遊戲	-5859
歐洲人探索	-5860
此局面有所	-5861
此概念叫做	-5862
歲的參賽者	-5863
歷史的南部	-5864
母語版的聖	-5865
毛髮通常是	-5866
氣中吸收並	-5867
沒明顯的分	-5868
沙皇亞歷山	-5869
河流均來自	-5870
河流均有源	-5871
法克斯勳爵	-5872
法國在馬倫	-5873
法國據此為	-5874
法蘭西的伊	-5875
波蘭及波羅	-5876
洛士不得不	-5877
派傾向著稱	-5878
海岸附近的	-5879
準確地表達	-5880
溫柔的一面	-5881
演員和員工	-5882
漿一般因矽	-5883
激烈的地區	-5884
激烈的思想	-5885
為他的電影	-5886
為對的靈感	-5887
然後是星期	-5888
煤電站也將	-5889
熟練工人提	-5890
熱的吉他手	-5891
父親的葬禮	-5892
爾斯被認為	-5893
爾變得更加	-5894
片和印第安	-5895
特別規劃區	-5896
特阿拉伯國	-5897
特點是衣服	-5898
犯了重大的	-5899
3.	-5900
▁樞	-5901
世凱	-5902
位神	-5903
加強	-5904
只把	-5905
和波	-5906
噴氣	-5907
地敲	-5908
子輕	-5909
年開	-5910
德勒	-5911
擊起	-5912
放異	-5913
灣和	-5914
用錘	-5915
華的	-5916
落架	-5917
詩歌	-5918
都獨	-5919
霍默	-5920
3.7	-5921
▁審查	-5922
▁樞密	-5923
並用錘	-5924
人口和	-5925
他加強	-5926
位神祗	-5927
危險的	-5928
只把其	-5929
噴氣機	-5930
大放異	-5931
奢華的	-5932
子輕輕	-5933
帕爾雷	-5934
德勒和	-5935
扮演者	-5936
是霍默	-5937
會原本	-5938
灣和濕	-5939
袁世凱	-5940
詩歌只	-5941
▁樞密院	-5942
他加強了	-5943
危險的軍	-5944
和波斯的	-5945
在人口和	-5946
地敲擊起	-5947
大放異彩	-5948
它為數個	-5949
官的職位	-5950
德勒和威	-5951
會原本定	-5952
灣和濕地	-5953
的袁世凱	-5954
都獨特的	-5955
面的人口	-5956
首詩歌只	-5957
103.7	-5958
▁審查處理	-5959
▁樞密院議	-5960
▁每位神祗	-5961
不要只把其	-5962
他就承認了	-5963
全面的人口	-5964
和波斯的精	-5965
國在人口和	-5966
奢華的花費	-5967
它為數個社	-5968
就是在這裡	-5969
德勒和威勒	-5970
會原本定在	-5971
民官的職位	-5972
獨立審查主	-5973
獨立的民族	-5974
王安石的淤	-5975
現在是上演	-5976
理埃爾多安	-5977
理所當然地	-5978
瑞典的托爾	-5979
瑞典的研究	-5980
環境規劃署	-5981
甚至比在矽	-5982
生動地講述	-5983
生活的實際	-5984
生活的社區	-5985
用名字稱呼	-5986
用恰當的儀	-5987
用的聊天軟	-5988
由一座大金	-5989
由官方建立	-5990
由於被指控	-5991
由法令確定	-5992
由滿族統治	-5993
當地舊金山	-5994
當增長率比	-5995
瘤是一種在	-5996
登的梅爾丁	-5997
發揮了關鍵	-5998
發生變化了	-5999
之人	-6000
外國	-6001
契諾	-6002
如錢	-6003
掛了	-6004
箋和	-6005
艱難	-6006
過時	-6007
長哈	-6008
型形象	-6009
契諾河	-6010
已有人	-6011
故之人	-6012
方箋和	-6013
艱難的	-6014
都掛了	-6015
長哈利	-6016
集手機	-6017
fran	-6018
▁已有人	-6019
允許外國	-6020
典型形象	-6021
契諾河和	-6022
她是不是	-6023
已故之人	-6024
幾集手機	-6025
方箋和疫	-6026
過時兩年	-6027
frank	-6028
▁衣服上的	-6029
和林肯執政	-6030
問她是不是	-6031
問題也可以	-6032
契諾河和寶	-6033
幾集手機就	-6034
方箋和疫苗	-6035
是可以合法	-6036
發起一系列	-6037
發電機停運	-6038
白人男性身	-6039
的一次進行	-6040
的人數眾多	-6041
的人物一樣	-6042
的人物形象	-6043
的休息環節	-6044
的修女們搬	-6045
的充分準備	-6046
的前線主導	-6047
的另一主題	-6048
的圖片之間	-6049
的地標建築	-6050
的城市發展	-6051
的多元目標	-6052
的大台階上	-6053
的女巫琳達	-6054
的建議環節	-6055
的微小變化	-6056
的德國和納	-6057
的志願者就	-6058
的情況為其	-6059
的想法仍舊	-6060
的應用程序	-6061
的所有內容	-6062
的所有指控	-6063
的摩托車頭	-6064
的方向前進	-6065
的是在快速	-6066
的最高法庭	-6067
的有利選項	-6068
的死亡人口	-6069
的比例一致	-6070
的破壞極大	-6071
的祖母是德	-6072
的神壇地位	-6073
的科幻故事	-6074
的著陸襟翼	-6075
的處罰條款	-6076
的行動告訴	-6077
的要求作出	-6078
的警方表示	-6079
的轉變和新	-6080
的還有布魯	-6081
的阿拉伯起	-6082
的黨內初選	-6083
目擊者告訴	-6084
目標是霍默	-6085
看作他激進	-6086
真正有地位	-6087
知識分子會	-6088
知道戴維斯	-6089
研究的平均	-6090
碳的技術來	-6091
確實很可怕	-6092
礦物資源尤	-6093
祀遺跡由一	-6094
神秘傳統中	-6095
科斯佩達爾	-6096
科羅拉多州	-6097
秘密訪問了	-6098
種族主義者	-6099
入石	-6100
劇情	-6101
姍來	-6102
山峰	-6103
岩的	-6104
律賓	-6105
得多	-6106
所欽	-6107
者們	-6108
行性	-6109
講話	-6110
關島	-6111
陶冶	-6112
需時	-6113
保護年	-6114
入石灰	-6115
分講話	-6116
劇情片	-6117
可行性	-6118
她所欽	-6119
姍來遲	-6120
岩的墳	-6121
年發生	-6122
比賽越	-6123
河需時	-6124
由航空	-6125
石製墓	-6126
菲律賓	-6127
諾斯為	-6128
陶冶情	-6129
兩個山峰	-6130
大量皇家	-6131
她所欽佩	-6132
姍姍來遲	-6133
安全得多	-6134
岩的墳墓	-6135
嵌入石灰	-6136
比賽越多	-6137
河需時約	-6138
石製墓塚	-6139
薩諾斯為	-6140
部劇情片	-6141
關島以及	-6142
陶冶情操	-6143
修道院教堂	-6144
可行性研究	-6145
大量皇家馬	-6146
她所欽佩的	-6147
惡薩諾斯為	-6148
應該由航空	-6149
描述了戰爭	-6150
河流保護年	-6151
河需時約四	-6152
的比賽越多	-6153
稿風格似的	-6154
突變的數目	-6155
節都有其含	-6156
範圍限制在	-6157
簡直是太仁	-6158
糟糕的狀況	-6159
系統添加到	-6160
系統的成功	-6161
約十七年後	-6162
約瑟夫一世	-6163
紐約市健康	-6164
絕大多數席	-6165
絲共同出演	-6166
維耶區進行	-6167
總統想要傳	-6168
總統的要求	-6169
總體的鐵儲	-6170
繼續向南走	-6171
罪行中移除	-6172
羅娜的費用	-6173
羅馬舉辦的	-6174
美國人說道	-6175
美國的許多	-6176
美拉尼西亞	-6177
美洲史前圖	-6178
美西斯在後	-6179
群島和位於	-6180
者所需要的	-6181
而十個中有	-6182
而受到影響	-6183
而我們必須	-6184
耕地和牧場	-6185
聖羅馬帝國	-6186
肯瑟斯轉身	-6187
背後的意圖	-6188
能接收到一	-6189
自己的統計	-6190
自己高爾夫	-6191
自由的保障	-6192
至八世紀末	-6193
與其城堡要	-6194
與完工進入	-6195
與希羅底的	-6196
與西方的往	-6197
與謀殺案案	-6198
與輔導員會	-6199
一閃	-6200
不順	-6201
並由	-6202
其實	-6203
十世	-6204
威懾	-6205
強尼	-6206
懂了	-6207
扎於	-6208
柏拉	-6209
無以	-6210
畫掙	-6211
的碑	-6212
處有	-6213
造並	-6214
遭遇	-6215
錯了	-6216
鮮活	-6217
▁柏拉	-6218
一閃而	-6219
並由其	-6220
人懂了	-6221
他錯了	-6222
但其實	-6223
保鮮活	-6224
刻畫掙	-6225
扎於母	-6226
會遭遇	-6227
氣候與	-6228
決定退	-6229
的碑文	-6230
該處有	-6231
造並修	-6232
▁柏拉圖	-6233
一閃而過	-6234
些人懂了	-6235
威懾對方	-6236
扎於母子	-6237
是他錯了	-6238
永保鮮活	-6239
決定退黨	-6240
警察正在	-6241
路易十世	-6242
造並修葺	-6243
關於強尼	-6244
並由其主持	-6245
但其實業務	-6246
區的氣候與	-6247
和國民警衛	-6248
因為該處有	-6249
在英國特別	-6250
地點的碑文	-6251
市場會遭遇	-6252
消費者服務	-6253
無以倫比的	-6254
當是他錯了	-6255
的研究學習	-6256
的警察正在	-6257
舉辦了演唱	-6258
般的手術和	-6259
茲福德地區	-6260
菲利普召集	-6261
菲利普隨後	-6262
菲律賓割讓	-6263
萬歐元可以	-6264
著大麻作為	-6265
著海峽要道	-6266
薩米人方言	-6267
蘇格蘭人報	-6268
虔誠所感染	-6269
血紅蛋白所	-6270
行為的了解	-6271
行為的代理	-6272
行為的限度	-6273
街上華盛頓	-6274
被妥善利用	-6275
被徹底改變	-6276
被當作孩子	-6277
被稱為立石	-6278
被視為兩個	-6279
被認為具有	-6280
被調查很多	-6281
製作實驗室	-6282
製片人最後	-6283
西格爾提出	-6284
西西里島及	-6285
親含蓄謙遜	-6286
角度考慮而	-6287
記憶在生者	-6288
記者都穿戴	-6289
訪問了堪察	-6290
設備和紡織	-6291
設計師比爾	-6292
設計的這座	-6293
評選活動中	-6294
試圖讓飛機	-6295
該城市的最	-6296
該電影由尼	-6297
該電影由萊	-6298
認識的許多	-6299
24	-6300
亥俄	-6301
噪音	-6302
地聽	-6303
年雨	-6304
庸國	-6305
您的	-6306
打成	-6307
斯時	-6308
時至	-6309
會更	-6310
生內	-6311
的戈	-6312
福利	-6313
致敬	-6314
講到	-6315
隊的	-6316
高登	-6317
▁時至	-6318
並成功	-6319
亥俄河	-6320
你會更	-6321
使用費	-6322
其致敬	-6323
到您的	-6324
地聽到	-6325
年雨月	-6326
形石製	-6327
打成平	-6328
的戈梅	-6329
的福利	-6330
艦隊的	-6331
負責將	-6332
賞識的	-6333
附庸國	-6334
餘生內	-6335
▁時至此	-6336
一個噪音	-6337
並成功挺	-6338
其中講到	-6339
到您的錢	-6340
加低斯時	-6341
取使用費	-6342
向其致敬	-6343
地聽到下	-6344
完全反對	-6345
恰當的神	-6346
打成平局	-6347
方形石製	-6348
民的福利	-6349
的戈梅里	-6350
的附庸國	-6351
積極思考	-6352
艦隊的堵	-6353
負責將氧	-6354
賞識的司	-6355
▁時至此刻	-6356
並在餘生內	-6357
並成功挺進	-6358
也向其致敬	-6359
他們對穀物	-6360
你會更清楚	-6361
居民的福利	-6362
廢墟進行了	-6363
恰當的神學	-6364
拿到您的錢	-6365
捕加低斯時	-6366
收取使用費	-6367
與完全反對	-6368
艦隊的堵塞	-6369
說明了這三	-6370
說法就被推	-6371
課程的內容	-6372
談了自己的	-6373
談論發生了	-6374
請願書的作	-6375
諷以及其他	-6376
講述自己的	-6377
警方發言人	-6378
護加拿大的	-6379
變得更加刻	-6380
讓人感覺到	-6381
負擔的人數	-6382
負責將氧氣	-6383
資金投資和	-6384
賞識的司令	-6385
賬戶添加免	-6386
賬戶餘額為	-6387
賬戶餘額的	-6388
起謀殺罪和	-6389
超級錦標賽	-6390
路途時間包	-6391
較舊區域也	-6392
迪斯導演的	-6393
迫害的經歷	-6394
追求和平的	-6395
這也導致了	-6396
這些挑戰的	-6397
這些領導人	-6398
這位比利時	-6399
伊雷	-6400
入侵	-6401
其侄	-6402
層或	-6403
恢復	-6404
次以	-6405
的反	-6406
號也	-6407
階級	-6408
tad	-6409
云層或	-6410
伊雷娜	-6411
入侵了	-6412
其侄子	-6413
員能夠	-6414
回追溯	-6415
它們在	-6416
次以色	-6417
法西斯	-6418
產階級	-6419
絲說道	-6420
號也起	-6421
要求返	-6422
tado	-6423
中產階級	-6424
云層或煙	-6425
信伊雷娜	-6426
公眾的反	-6427
對它們在	-6428
幫助恢復	-6429
新的一集	-6430
有著政治	-6431
次以色列	-6432
每個島嶼	-6433
的經濟已	-6434
號也起自	-6435
要求返場	-6436
讓其侄子	-6437
駁回追溯	-6438
麗絲說道	-6439
並讓其侄子	-6440
云層或煙霧	-6441
受到的影響	-6442
和公眾的反	-6443
國家的實際	-6444
將會在美國	-6445
愛丁堡晚報	-6446
控制員能夠	-6447
有著政治層	-6448
法西斯分子	-6449
猶太人當中	-6450
致信伊雷娜	-6451
蘭駁回追溯	-6452
諡號也起自	-6453
路易入侵了	-6454
這部電影處	-6455
通儲蓄賬戶	-6456
通常是那種	-6457
通過觀察高	-6458
連接到你的	-6459
進口葡萄酒	-6460
進行的準備	-6461
過時兩年了	-6462
道德淪喪而	-6463
遜河附近的	-6464
選他的妻子	-6465
選擇要么撤	-6466
選舉已經變	-6467
選舉日之前	-6468
選舉的瘋狂	-6469
邀才能進去	-6470
邊的太平洋	-6471
那些在選舉	-6472
那些等我們	-6473
部落和主要	-6474
部落在歐洲	-6475
部部長傑夫	-6476
都全副武裝	-6477
都屬於歐盟	-6478
都很容易進	-6479
都被遺忘了	-6480
里展現了強	-6481
重要的差異	-6482
野心的機會	-6483
量他將允許	-6484
金牌的目標	-6485
鎮一閃而過	-6486
開展研究所	-6487
開鏈接和附	-6488
關於該話題	-6489
阿拉伯人的	-6490
阿拉斯加僅	-6491
阿普利亞來	-6492
阿普利亞和	-6493
阿爾瓦雷茨	-6494
阿特靈被人	-6495
降到了大約	-6496
隕石材料的	-6497
隨後找到了	-6498
雞永不滿足	-6499
▁數	-6500
▁斯	-6501
以此	-6502
共享	-6503
及時	-6504
尚未	-6505
從事	-6506
放下	-6507
會為	-6508
沿用	-6509
稱提	-6510
莉嫁	-6511
部內	-6512
▁放下	-6513
▁斯大	-6514
並以此	-6515
中那個	-6516
人沿用	-6517
公司也	-6518
區以前	-6519
及時事	-6520
極佳的	-6521
稱提庇	-6522
聖羅斯	-6523
部內組	-6524
▁放下麥	-6525
▁數十年	-6526
▁斯大林	-6527
區以前木	-6528
因為如此	-6529
奧古斯都	-6530
尚未穩定	-6531
年代仍在	-6532
政府會為	-6533
文章顯示	-6534
最後還是	-6535
注重在兩	-6536
看到瘋狂	-6537
稱提庇留	-6538
莉嫁給了	-6539
部內組建	-6540
▁放下麥克	-6541
▁政府會為	-6542
▁數十年來	-6543
一直在從事	-6544
中那個處於	-6545
公司也不斷	-6546
具有極佳的	-6547
區以前木偶	-6548
及時事工作	-6549
尚未穩定的	-6550
希臘人沿用	-6551
正因為如此	-6552
注重在兩國	-6553
看到瘋狂又	-6554
被奧古斯都	-6555
雷斯特德於	-6556
雷暴報告的	-6557
電影是由亞	-6558
非常艱難的	-6559
音樂舞台劇	-6560
項目中表示	-6561
預測的那樣	-6562
願景使他對	-6563
顯示了在一	-6564
風險的飆升	-6565
食品提供了	-6566
飲料的藥丸	-6567
餘額中賺取	-6568
首席執行官	-6569
騎兵在發起	-6570
默塞特郡的	-6571
黨保守派把	-6572
黨派領導人	-6573
黨衛軍軍官	-6574
$15000	-6575
.30-10	-6576
15,001	-6577
19,999	-6578
andrew	-6579
asktel	-6580
athina	-6581
hispan	-6582
hopley	-6583
intado	-6584
javier	-6585
kerber	-6586
khanzi	-6587
millic	-6588
norman	-6589
outube	-6590
papwor	-6591
simple	-6592
zettel	-6593
£3,000	-6594
£5,000	-6595
▁aviva	-6596
▁buena	-6597
▁báñez	-6598
▁conte	-6599
光燈	-6600
判所	-6601
墨則	-6602
大也	-6603
大群	-6604
奧茲	-6605
按照	-6606
是區	-6607
是堅	-6608
機關	-6609
洗清	-6610
碳酸	-6611
與茱	-6612
若有	-6613
莎拉	-6614
薩謨	-6615
薪資	-6616
閣下	-6617
一大群	-6618
中洗清	-6619
人奧茲	-6620
但若有	-6621
光燈下	-6622
後部隊	-6623
手莎拉	-6624
是按照	-6625
歐與茱	-6626
淚模糊	-6627
稱是區	-6628
莫墨則	-6629
薩謨奈	-6630
裁判所	-6631
arel	-6632
▁gay	-6633
▁在電影	-6634
一大群自	-6635
中洗清了	-6636
作品創作	-6637
冰人奧茲	-6638
和莫墨則	-6639
團隊在同	-6640
大也一樣	-6641
威爾閣下	-6642
密歐與茱	-6643
後部隊還	-6644
政府機關	-6645
是堅不可	-6646
產生碳酸	-6647
眼淚模糊	-6648
聚光燈下	-6649
選手莎拉	-6650
karel	-6651
伊冰人奧茲	-6652
但這一想法	-6653
包括薩謨奈	-6654
子選手莎拉	-6655
宗教裁判所	-6656
密歐與茱麗	-6657
於聚光燈下	-6658
是堅不可摧	-6659
是按照中國	-6660
林威爾閣下	-6661
水產生碳酸	-6662
的眼淚模糊	-6663
芙和莫墨則	-6664
▁knott	-6665
▁marot	-6666
▁reich	-6667
▁salam	-6668
▁他不久前剛	-6669
▁他也討論了	-6670
▁他形容她為	-6671
▁他獨自一人	-6672
▁他被認為能	-6673
▁但北愛爾蘭	-6674
▁但是在新生	-6675
▁你必須受得	-6676
▁俄羅斯帝國	-6677
▁共和黨經濟	-6678
▁同時第一次	-6679
▁哈雷戴維森	-6680
▁在他們之間	-6681
▁在佛羅里達	-6682
▁在你主導的	-6683
▁在六十年代	-6684
▁在其家庭在	-6685
▁在美國公民	-6686
▁在過去的五	-6687
▁在過去的兩	-6688
▁奧斯曼帝國	-6689
▁她還被指控	-6690
▁它帶有一個	-6691
▁它是一個供	-6692
▁安第斯山脈	-6693
▁對羅曼諾夫	-6694
▁工業革命令	-6695
▁布洛克堅定	-6696
▁希斯帕尼亞	-6697
▁年度調查還	-6698
▁後者在監督	-6699
事後	-6700
售出	-6701
山上	-6702
德爾	-6703
把它	-6704
改良	-6705
氧化	-6706
界限	-6707
相格	-6708
維持	-6709
跑道	-6710
並把它	-6711
二氧化	-6712
和能力	-6713
在山上	-6714
增加而	-6715
居住在	-6716
戰役之	-6717
曼德爾	-6718
維持長	-6719
運動場	-6720
革命後	-6721
首相格	-6722
▁我事後	-6723
二氧化碳	-6724
他霸占此	-6725
克林頓和	-6726
包括改良	-6727
和曼德爾	-6728
它並把它	-6729
巧和能力	-6730
戰役之時	-6731
產品都是	-6732
街上有一	-6733
身份加入	-6734
進入跑道	-6735
都居住在	-6736
量增加而	-6737
之間的界限	-6738
俄國革命後	-6739
克林頓和盟	-6740
原本在山上	-6741
大學運動場	-6742
技巧和能力	-6743
救它並把它	-6744
無法維持長	-6745
爾街上有一	-6746
用產品都是	-6747
用量增加而	-6748
英國首相格	-6749
解二氧化碳	-6750
▁我們很失望	-6751
▁我們要評估	-6752
▁我的下一站	-6753
▁我認為這是	-6754
▁投資在溢價	-6755
▁撤退的消息	-6756
▁據帕克所說	-6757
▁放下麥克風	-6758
▁斯大林開始	-6759
▁有些人懂了	-6760
▁有人曾預計	-6761
▁梅爾里斯說	-6762
▁沒有人知道	-6763
▁沙塵暴通常	-6764
▁消費者可以	-6765
▁澳大利亞的	-6766
▁理所當然地	-6767
▁研究人員付	-6768
▁研究人員說	-6769
▁科隆和不來	-6770
▁第二季目前	-6771
▁聯合國回顧	-6772
▁聯邦政府主	-6773
▁聯邦政府和	-6774
▁自二十世紀	-6775
▁至八世紀末	-6776
▁菲利普隨後	-6777
▁蘇伊士運河	-6778
▁衣服上的血	-6779
▁許多科學家	-6780
▁賴特是新生	-6781
▁追求和平的	-6782
▁這也推動了	-6783
▁這奠定了融	-6784
▁雖然直至較	-6785
▁電影記錄了	-6786
▁馬德里自治	-6787
一一位有貴族	-6788
一位歐盟官員	-6789
一個日期只能	-6790
一個研究的實	-6791
一定會懷念他	-6792
一定會有抗議	-6793
一直代表著富	-6794
一直保持著樂	-6795
一直飽受批評	-6796
一起探討軍事	-6797
三個平行的小	-6798
上一部影片是	-6799
▁或	-6800
▁戴	-6801
付款	-6802
喬瓦	-6803
多將	-6804
慶賀	-6805
斯碼	-6806
日表	-6807
珠港	-6808
目點	-6809
絕對	-6810
總的	-6811
費制	-6812
過度	-6813
▁在這	-6814
▁或許	-6815
▁戴高	-6816
事的角	-6817
付款收	-6818
喬瓦尼	-6819
多將延	-6820
斯碼頭	-6821
植物園	-6822
珍珠港	-6823
盲目點	-6824
總的銷	-6825
落地面	-6826
過度崇	-6827
都已經	-6828
集了在	-6829
▁在這條	-6830
▁或許這	-6831
事的角逐	-6832
值得慶賀	-6833
在邁錫尼	-6834
多將延長	-6835
工作日表	-6836
息的地方	-6837
我們絕對	-6838
收集了在	-6839
斯碼頭賽	-6840
柴油價格	-6841
用珍珠港	-6842
米爾德里	-6843
總的銷量	-6844
聖喬瓦尼	-6845
落地面後	-6846
表達遺憾	-6847
說明了國	-6848
警告歐洲	-6849
過度崇拜	-6850
預付款收	-6851
和柴油價格	-6852
和米爾德里	-6853
她表達遺憾	-6854
安息的地方	-6855
或者盲目點	-6856
斯碼頭賽道	-6857
美總的銷量	-6858
裡有植物園	-6859
警告歐洲說	-6860
這些都已經	-6861
降落地面後	-6862
領事的角逐	-6863
魯多將延長	-6864
▁在這條信息	-6865
▁或許這並不	-6866
上了太陽眼鏡	-6867
上個月報導說	-6868
上很重要的六	-6869
上慶祝他們的	-6870
上的管理解決	-6871
下一波的抗議	-6872
下來的伊斯蘭	-6873
下用的聊天軟	-6874
下面將小球彈	-6875
下面帶有一個	-6876
不僅會傷害小	-6877
不大切合實際	-6878
不存在此特徵	-6879
不應該被忽視	-6880
不比在尼羅河	-6881
不知道為什麼	-6882
丑之於人性就	-6883
世界大戰戰末	-6884
世界廣播電台	-6885
並且在好幾個	-6886
並且被拍到在	-6887
並以此為基礎	-6888
並未透露多少	-6889
並用錘子輕輕	-6890
並連接到你的	-6891
中國將在本週	-6892
中底去除角質	-6893
中期青銅時代	-6894
中洗清了達菲	-6895
中產階級已經	-6896
丹麥語的元素	-6897
主義者接受了	-6898
乃伊冰人奧茲	-6899
丶那	-6900
兩名	-6901
到此	-6902
半學	-6903
就越	-6904
想和	-6905
或更	-6906
把玩	-6907
於圖	-6908
納什	-6909
這週	-6910
陶醉	-6911
點點	-6912
▁國王	-6913
一點點	-6914
和廣告	-6915
工半學	-6916
引正在	-6917
或更確	-6918
於圖案	-6919
的年度	-6920
肯尼亞	-6921
英國喜	-6922
這週早	-6923
部舉行	-6924
飛機沉	-6925
▁國王在	-6926
▁我想和	-6927
丶那兩名	-6928
人們認為	-6929
他們陶醉	-6930
到此結束	-6931
半工半學	-6932
和廣告來	-6933
和肯尼亞	-6934
喜歡把玩	-6935
就越經常	-6936
州的納什	-6937
或更確切	-6938
指引正在	-6939
於圖案和	-6940
的經濟就	-6941
英國喜劇	-6942
讓飛機沉	-6943
這週早些	-6944
johnn	-6945
▁國王在逃	-6946
▁它的年度	-6947
了整個西伯	-6948
便讓飛機沉	-6949
只有一點點	-6950
和廣告來盈	-6951
和肯尼亞山	-6952
西州的納什	-6953
johnny	-6954
▁國王在逃跑	-6955
▁我喜歡把玩	-6956
▁我想和他們	-6957
丶那兩名女孩	-6958
之中永保鮮活	-6959
之前的疑問的	-6960
之後迴避和不	-6961
乘坐纜車穿越	-6962
也不會倒退回	-6963
也使其與很多	-6964
也利用了她與	-6965
也包括薩謨奈	-6966
也在之後和馬	-6967
也許荒誕不經	-6968
亂合法葬禮罪	-6969
了一系列故事	-6970
了一系列長遠	-6971
了人類經驗的	-6972
了使用單一貨	-6973
了使用家用筆	-6974
了八部劇情片	-6975
了十年的改革	-6976
了所有七個選	-6977
了自己的健康	-6978
了被沖上東非	-6979
事件的發生率	-6980
互相調笑和表	-6981
些所謂的真實	-6982
亞加亞聯軍的	-6983
人們認為古典	-6984
人從未接觸過	-6985
人數有所增加	-6986
人曾在四月襲	-6987
人有意在兩到	-6988
人的南亞祖先	-6989
人還可以享用	-6990
仍舊有很大的	-6991
他一直在從事	-6992
他不想被賣掉	-6993
他們兩者似乎	-6994
他們才會被激	-6995
他加強了埃及	-6996
他同年在那裡	-6997
他宣布破產後	-6998
他採取了多種	-6999
▁把	-7000
中把	-7001
乘風	-7002
他跟	-7003
住到	-7004
埃德	-7005
川普	-7006
引誘	-7007
憑藉	-7008
時機	-7009
歸咎	-7010
章曾	-7011
脫口	-7012
車的	-7013
輕易	-7014
途經	-7015
運中	-7016
門票	-7017
閣的	-7018
飢荒	-7019
▁埃德	-7020
▁憑藉	-7021
▁脫口	-7022
乘風破	-7023
亞音樂	-7024
內閣的	-7025
具藝術	-7026
向途經	-7027
好時機	-7028
憲章曾	-7029
應媒體	-7030
歸咎於	-7031
空運中	-7032
賽車的	-7033
輕易地	-7034
▁埃德加	-7035
▁憲章曾	-7036
▁把時間	-7037
▁脫口秀	-7038
一直住到	-7039
中把責任	-7040
他跟德國	-7041
以向途經	-7042
具藝術性	-7043
回應媒體	-7044
對內閣的	-7045
川普這種	-7046
引誘前往	-7047
戰術錯誤	-7048
林空運中	-7049
發生飢荒	-7050
的好時機	-7051
輕易地稱	-7052
▁在第二次	-7053
▁把時間快	-7054
亞音樂學校	-7055
他跟德國電	-7056
區發生飢荒	-7057
在對內閣的	-7058
引誘前往比	-7059
我們乘風破	-7060
賽車的門票	-7061
輕易地稱之	-7062
▁在第二次美	-7063
▁憲章曾允許	-7064
亞音樂學校見	-7065
他收到了美國	-7066
他極其不合格	-7067
他的命令不得	-7068
他的電影主題	-7069
他被給予了些	-7070
他跟德國電信	-7071
代表了最保守	-7072
代表了最激進	-7073
以及能夠溶於	-7074
以向途經城鎮	-7075
以天皇在位的	-7076
以自由州還是	-7077
件改用第三方	-7078
任的總統尤多	-7079
任總統的要求	-7080
伊斯蘭教傳播	-7081
伯爵瑪格麗特	-7082
似乎希望元老	-7083
但他拒絕相信	-7084
但在冰島語中	-7085
但在離婚後卻	-7086
但大部分的班	-7087
但如果你知道	-7088
但希臘人沿用	-7089
但是人數很少	-7090
但是基普林的	-7091
但權力的和平	-7092
但總體的鐵儲	-7093
但這一想法遭	-7094
佈了一個新的	-7095
位於太平洋的	-7096
住在帕爾馬的	-7097
佔了不少便宜	-7098
佔絕大多數席	-7099
三公	-7100
下滑	-7101
否決	-7102
和對	-7103
存儲	-7104
它才	-7105
展開	-7106
希邦	-7107
急劇	-7108
查局	-7109
界的	-7110
的觀	-7111
結構	-7112
芽生	-7113
行讓	-7114
阿明	-7115
非同	-7116
add	-7117
一個讓	-7118
位於印	-7119
區的選	-7120
午的觀	-7121
否決了	-7122
和對外	-7123
和烏夏	-7124
存儲在	-7125
它才浮	-7126
展開較	-7127
希邦登	-7128
敗告終	-7129
是值得	-7130
普查局	-7131
沒有涵	-7132
界的寵	-7133
發芽生	-7134
的希臘	-7135
非同尋	-7136
2000	-7137
▁高海拔	-7138
一個讓她	-7139
一直急劇	-7140
上發芽生	-7141
下午的觀	-7142
中沒有涵	-7143
位於印澳	-7144
做是值得	-7145
區的選票	-7146
和烏夏克	-7147
在周三公	-7148
失敗告終	-7149
它才浮出	-7150
導致全球	-7151
展開較量	-7152
巧妙的口	-7153
希邦登堡	-7154
放棄收益	-7155
是一個混	-7156
正如他和	-7157
界的寵兒	-7158
的行動時	-7159
經濟結構	-7160
貴族成員	-7161
這一行讓	-7162
adden	-7163
▁從這一點	-7164
一個讓她感	-7165
下午的觀賞	-7166
世紀的希臘	-7167
中沒有涵蓋	-7168
人口普查局	-7169
以失敗告終	-7170
做是值得的	-7171
出了非同尋	-7172
可以存儲在	-7173
名貴族成員	-7174
否決了建立	-7175
和對外貿易	-7176
和烏夏克吞	-7177
它才浮出水	-7178
居里研究所	-7179
層是一個混	-7180
巧妙的口頭	-7181
已導致全球	-7182
放棄收益會	-7183
軟在周三公	-7184
迪希邦登堡	-7185
addenb	-7186
▁迪希邦登堡	-7187
一直急劇下滑	-7188
上發芽生長的	-7189
下午的觀賞而	-7190
但以失敗告終	-7191
佔領古巴之後	-7192
佛商學院的學	-7193
佛羅里達州已	-7194
作整合了過往	-7195
作為主要的水	-7196
作為食物以外	-7197
你們施加哪怕	-7198
使澳大利亞人	-7199
不朽	-7200
了五	-7201
現為	-7202
薩科	-7203
▁jr	-7204
世不朽	-7205
了五座	-7206
投票給	-7207
時繼續	-7208
薩科齊	-7209
合法移民	-7210
暫時繼續	-7211
會投票給	-7212
永世不朽	-7213
了五座傳統	-7214
她暫時繼續	-7215
房地產市場	-7216
而永世不朽	-7217
薩科齊表示	-7218
人們會投票給	-7219
使用了大量的	-7220
使該公司損失	-7221
來一直在穩步	-7222
來保障消費者	-7223
來自基色城的	-7224
便讓飛機沉入	-7225
俄國的所有製	-7226
保全克萊德造	-7227
信那些等我們	-7228
修道院教堂的	-7229
個小型自治城	-7230
個是購物平台	-7231
個男人告訴他	-7232
個隕石材料的	-7233
們的相似之處	-7234
做一些不同的	-7235
做的目的是在	-7236
停留了八個月	-7237
債券全部售出	-7238
兄弟們並沒有	-7239
克圖特摩斯聖	-7240
克萊恩沉默寡	-7241
內高加索地區	-7242
全球性別暴力	-7243
兩個德國農民	-7244
兩次宣布破產	-7245
公國在當今的	-7246
公開回應媒體	-7247
六十年代以來	-7248
六秒鐘的藝術	-7249
共同採取根本	-7250
共和國是清朝	-7251
其他更為優異	-7252
其北部區域在	-7253
其後出現在漫	-7254
兼匈牙利國王	-7255
冊中沒有涵蓋	-7256
再一次獲得了	-7257
冬季運動會將	-7258
凱拉的嬰兒是	-7259
出了一個新的	-7260
出能跨海的大	-7261
分解二氧化碳	-7262
列為國家的首	-7263
利對尼古拉斯	-7264
到了格拉斯哥	-7265
到進口葡萄酒	-7266
前的大台階上	-7267
創作了六部歌	-7268
創造音樂幾乎	-7269
力發電的條件	-7270
加低斯的圖尼	-7271
加拿大的邊界	-7272
勒牧師拜訪了	-7273
勞工的工作和	-7274
募政府開支的	-7275
包括一名國務	-7276
包括土著群體	-7277
化的第一階段	-7278
北京的立法者	-7279
北卡羅來納州	-7280
半島一分為二	-7281
半島的後古典	-7282
南海與崔絲一	-7283
南美洲的想法	-7284
南邊的太平洋	-7285
博格達汗統治	-7286
卡拉皇帝提出	-7287
印度和中國等	-7288
即巴拿馬地峽	-7289
去除空氣中的	-7290
參與了該項目	-7291
受疼痛折磨的	-7292
受邀才能進去	-7293
古老文明均因	-7294
古老歷史資料	-7295
只剩下了中央	-7296
可以在華盛頓	-7297
可疑的漏洞和	-7298
可疑的現金流	-7299
üh	-7300
▁庫	-7301
▁胡	-7302
中東	-7303
乾預	-7304
光束	-7305
原都	-7306
好搖	-7307
弗裡	-7308
搖頭	-7309
村野	-7310
治的	-7311
漢日	-7312
背後	-7313
薄時	-7314
藹可	-7315
迪恩	-7316
開闊	-7317
高激	-7318
鮑爾	-7319
küh	-7320
▁庫恩	-7321
▁胡安	-7322
丁漢日	-7323
了支持	-7324
原都被	-7325
只好搖	-7326
向安迪	-7327
和乾預	-7328
和藹可	-7329
好面對	-7330
對事件	-7331
政治辭	-7332
村野餐	-7333
杰弗裡	-7334
治的信	-7335
的背後	-7336
行為是	-7337
鮑爾說	-7338
kühn	-7339
丁漢日報	-7340
人的中東	-7341
使用高激	-7342
做好面對	-7343
光束進行	-7344
它和藹可	-7345
對事件處	-7346
性和武器	-7347
捕行為是	-7348
提供開闊	-7349
政府希望	-7350
政治辭令	-7351
更偉大的	-7352
村野餐區	-7353
治的信心	-7354
由杰弗裡	-7355
的背後也	-7356
也不會發生	-7357
內提供開闊	-7358
動性和武器	-7359
原都被海洋	-7360
只好搖搖頭	-7361
和乾預導致	-7362
將使用高激	-7363
對事件處之	-7364
必須向安迪	-7365
治的信心是	-7366
的背後也總	-7367
與政治辭令	-7368
諾丁漢日報	-7369
轉而專心在	-7370
逮捕行為是	-7371
還需要對付	-7372
鄉村野餐區	-7373
重現的資源	-7374
不幸的是再次	-7375
做好面對海外	-7376
光束進行處罰	-7377
動性和武器的	-7378
原都被海洋或	-7379
可能也適用於	-7380
可能導致債務	-7381
可行性研究估	-7382
可追溯的神經	-7383
史達林同時還	-7384
司法部部長譴	-7385
吉拉德女士說	-7386
同上船的佛羅	-7387
同時允許外國	-7388
同時它們的糞	-7389
同樣也適用於	-7390
同樣宣布獲勝	-7391
名人的名字最	-7392
名警方發言人	-7393
名這片土地的	-7394
向丘吉爾頒布	-7395
向自己的政治	-7396
否則會非常炎	-7397
告誡不要採用	-7398
和一個巨大的	-7399
一詞	-7400
人替	-7401
今晚	-7402
仍是	-7403
來以	-7404
安提	-7405
帖子	-7406
年份	-7407
戶使	-7408
民意	-7409
的突	-7410
總部	-7411
霍頓	-7412
▁帖子	-7413
一詞的	-7414
來以鷹	-7415
到一起	-7416
安提帕	-7417
帳戶使	-7418
戰民意	-7419
投降時	-7420
的突破	-7421
能緩解	-7422
▁帖子上	-7423
一些國家	-7424
厭戰民意	-7425
安提帕斯	-7426
少數人替	-7427
年份仍是	-7428
我們今晚	-7429
拉到一起	-7430
最後同樣	-7431
的突破了	-7432
破裂以及	-7433
能緩解情	-7434
organ	-7435
▁帖子上寫	-7436
一詞的來源	-7437
共和黨總部	-7438
多次的合作	-7439
帳戶使政府	-7440
幸福的追求	-7441
律安提帕斯	-7442
的破裂以及	-7443
的突破了新	-7444
能緩解情緒	-7445
被拉到一起	-7446
▁帖子上寫著	-7447
一詞的來源備	-7448
下被拉到一起	-7449
但是最後同樣	-7450
厭戰民意之下	-7451
和城鎮化擴展	-7452
和女演員葛洛	-7453
和幸福的追求	-7454
和廣告來盈利	-7455
和批發方面的	-7456
和曼德爾一起	-7457
和法國在這個	-7458
和波斯的精英	-7459
和福特公司於	-7460
和程序上存在	-7461
和米爾德里德	-7462
和遵守了多少	-7463
品牌首席代表	-7464
哥將會有一項	-7465
唱片公司正在	-7466
因此丟了工作	-7467
因為他們缺乏	-7468
因為這些東西	-7469
因為這些節日	-7470
因為這兩個區	-7471
因用量增加而	-7472
國家公園建立	-7473
國家所需要的	-7474
國的要求作出	-7475
圍內造成影響	-7476
團隊在同一場	-7477
土地開墾項目	-7478
土耳其的工作	-7479
在停留時多次	-7480
在兩千年前的	-7481
在公園東南部	-7482
在北卡羅來納	-7483
在周一發布的	-7484
在地中海地區	-7485
在大火中被焚	-7486
在戰後部隊還	-7487
在最近的訪談	-7488
在生命的最後	-7489
在英國特別活	-7490
在英國登上了	-7491
在講述自己的	-7492
在通知中表明	-7493
在邁錫尼文明	-7494
地在地中海的	-7495
地敲擊起落架	-7496
均由滿族統治	-7497
均被奧古斯都	-7498
坎伯蘭公爵娶	-7499
三星	-7500
化合	-7501
和清	-7502
地連	-7503
年最	-7504
暴亂	-7505
格德	-7506
沙爾	-7507
粘稠	-7508
紅細	-7509
著火	-7510
葵格	-7511
處冷	-7512
躍奇	-7513
軒然	-7514
輸三	-7515
離引	-7516
風是	-7517
三星的	-7518
化合物	-7519
和清醒	-7520
季風是	-7521
家電影	-7522
未能在	-7523
深處冷	-7524
發生瞭	-7525
的話題	-7526
紅細胞	-7527
與法國	-7528
葵格和	-7529
規處罰	-7530
調離引	-7531
起軒然	-7532
躍奇緣	-7533
輸三局	-7534
這樣一	-7535
▁季風是	-7536
▁布沙爾	-7537
三星的挫	-7538
地方成為	-7539
實施他的	-7540
從未有人	-7541
武裝暴亂	-7542
深處冷卻	-7543
的調離引	-7544
碳化合物	-7545
突然著火	-7546
葵格和姬	-7547
行為表示	-7548
起軒然大	-7549
較為粘稠	-7550
這樣一份	-7551
院發生瞭	-7552
震驚地連	-7553
首家電影	-7554
魚躍奇緣	-7555
▁首家電影	-7556
三星的挫折	-7557
他們未能在	-7558
另一個助手	-7559
和清醒的頭	-7560
年最成功的	-7561
從未有人用	-7562
格德和索爾	-7563
氟碳化合物	-7564
的行為表示	-7565
第一位在暗	-7566
紅細胞中的	-7567
總統的最後	-7568
而較為粘稠	-7569
與法國經濟	-7570
葵格和姬絲	-7571
變遷和復興	-7572
起軒然大波	-7573
這樣一份文	-7574
非常規處罰	-7575
▁布沙爾令人	-7576
三星的挫折中	-7577
其他地方成為	-7578
動物還能提供	-7579
和清醒的頭腦	-7580
埃及法老因此	-7581
埋葬地點以及	-7582
城市海濱一帶	-7583
基於政績的考	-7584
報告中充分讚	-7585
報紙文章顯示	-7586
場地剩了下來	-7587
塔爾羅解釋說	-7588
塢已經疏遠了	-7589
壇留下了光輝	-7590
士李維被釋放	-7591
多數的第三方	-7592
多是出於天真	-7593
多次的合作中	-7594
大的高爾夫球	-7595
大量皇家馬匹	-7596
天氣預報節目	-7597
天的菩薩圖片	-7598
她和她與其它	-7599
價的	-7600
克拉	-7601
入密	-7602
城戰	-7603
婭灣	-7604
小木	-7605
燒毀	-7606
皮特	-7607
議案	-7608
豫要	-7609
dit	-7610
rey	-7611
▁小木	-7612
了重要	-7613
些歷史	-7614
克拉納	-7615
加工業	-7616
匯入密	-7617
情況宛	-7618
攻城戰	-7619
比能在	-7620
油價的	-7621
活動這	-7622
清朝時	-7623
猶豫要	-7624
皮特庫	-7625
莉婭灣	-7626
都認為	-7627
▁對議案	-7628
▁小木屋	-7629
也都認為	-7630
克拉納赫	-7631
在清朝時	-7632
在猶豫要	-7633
奇莉婭灣	-7634
完全燒毀	-7635
必須保持	-7636
情況宛如	-7637
械加工業	-7638
沒有協議	-7639
的攻城戰	-7640
皮特庫賽	-7641
蒂文以北	-7642
▁小木屋被	-7643
▁確定最終	-7644
▁那些歷史	-7645
也都認為那	-7646
了重要角色	-7647
你必須保持	-7648
匯入密西西	-7649
宗教活動這	-7650
工業革命比	-7651
情況宛如露	-7652
提高油價的	-7653
機械加工業	-7654
比能在飛機	-7655
沒有協議時	-7656
reddit	-7657
▁andin	-7658
▁確定最終外	-7659
也都認為那會	-7660
人士在猶豫要	-7661
來提高油價的	-7662
克斯蒂文以北	-7663
匯入密西西比	-7664
她寫的歌成功	-7665
她把兒子安德	-7666
她是反對欺凌	-7667
她的未出生的	-7668
如瑞典的托爾	-7669
妻子也開始了	-7670
姍姍來遲還是	-7671
威尼斯募集的	-7672
威尼斯的人口	-7673
威爾斯市長大	-7674
媽法蘭西的伊	-7675
孩子未發育的	-7676
學生還沒決定	-7677
它才浮出水面	-7678
它未來的目標	-7679
它為地區帶來	-7680
它重現了冷戰	-7681
安全局的特工	-7682
安全部內組建	-7683
室內製作動畫	-7684
家可歸而被控	-7685
密歐與茱麗葉	-7686
實施他的計劃	-7687
實現更偉大的	-7688
實際上可能會	-7689
將能與巴西狂	-7690
將能降低這些	-7691
對事件處之泰	-7692
對他們註冊的	-7693
對匈牙利施壓	-7694
對廢墟進行了	-7695
對我們耍的一	-7696
對此局面有所	-7697
對殺戮的某種	-7698
小塊釙使羅娜	-7699
▁特	-7700
不見	-7701
也讓	-7702
他獲	-7703
呼吸	-7704
大大	-7705
她脖	-7706
常見	-7707
彌補	-7708
抖動	-7709
撰寫	-7710
極天	-7711
正朝	-7712
的理	-7713
約的	-7714
紅帽	-7715
線鏈	-7716
翼翼	-7717
與以	-7718
跟女	-7719
項全	-7720
一項全	-7721
上運輸	-7722
他獲派	-7723
但也讓	-7724
偶極天	-7725
印度群	-7726
呼吸裡	-7727
她脖子	-7728
年撰寫	-7729
心翼翼	-7730
條線鏈	-7731
正朝著	-7732
當時她	-7733
的理想	-7734
的話則	-7735
紅帽子	-7736
而不見	-7737
與以往	-7738
達州的	-7739
1984	-7740
上運輸的	-7741
不斷抖動	-7742
他獲派遣	-7743
偶極天線	-7744
印度群島	-7745
呼吸裡都	-7746
大大限制	-7747
她脖子前	-7748
小心翼翼	-7749
常見程度	-7750
年撰寫的	-7751
擋的話則	-7752
約的國家	-7753
紅帽子的	-7754
華達州的	-7755
蒙古的大	-7756
視而不見	-7757
跟女朋友	-7758
這一點嗎	-7759
那條線鏈	-7760
需要彌補	-7761
一項全面的	-7762
上運輸的貨	-7763
但也讓公共	-7764
內華達州的	-7765
十分受歡迎	-7766
呼吸裡都充	-7767
外蒙古的大	-7768
她脖子前伸	-7769
小心翼翼的	-7770
我們正朝著	-7771
手不斷抖動	-7772
擋的話則行	-7773
次初選中瑞	-7774
王朝的理想	-7775
當時她只有	-7776
痕需要彌補	-7777
的偶極天線	-7778
約的國家中	-7779
紅帽子的守	-7780
與以往有所	-7781
西印度群島	-7782
▁內華達州的	-7783
上運輸的貨物	-7784
中的那條線鏈	-7785
前外蒙古的大	-7786
叛亂的收益指	-7787
呼吸裡都充斥	-7788
大大限制了其	-7789
小塊釙回到了	-7790
就像大多數南	-7791
就像超級英雄	-7792
就是在這裡偷	-7793
就是為什麼當	-7794
就會選出歷史	-7795
就致信伊雷娜	-7796
就被視為有生	-7797
尼亞戰爭期間	-7798
展示了淤積物	-7799
不禮	-7800
以確	-7801
呼其	-7802
多雨	-7803
會顯	-7804
殊閏	-7805
皇室	-7806
通用	-7807
魚和	-7808
不禮貌	-7809
了敵人	-7810
以確保	-7811
多雨的	-7812
大革命	-7813
政府仍	-7814
是皇室	-7815
會顯得	-7816
望每年	-7817
殊閏月	-7818
的計劃	-7819
直呼其	-7820
魚和明	-7821
oham	-7822
利亞北部	-7823
有望每年	-7824
特殊閏月	-7825
通用公司	-7826
魚和明太	-7827
moham	-7828
三島的計劃	-7829
利亞北部地	-7830
名字會顯得	-7831
多雨的季節	-7832
大革命之後	-7833
對方是皇室	-7834
擊敗了敵人	-7835
政府仍將要	-7836
該地區澳洲	-7837
非常不禮貌	-7838
魚和明太魚	-7839
倫三島的計劃	-7840
入了特殊閏月	-7841
利亞北部地處	-7842
利擊敗了敵人	-7843
層是一個混沌	-7844
山和肯尼亞山	-7845
岩島嶼則如聖	-7846
岩漿一般因矽	-7847
島嶼位於印澳	-7848
崔絲已返回了	-7849
州的百分之一	-7850
工業界的寵兒	-7851
工業革命都早	-7852
巧妙的口頭修	-7853
巴拿馬地峽北	-7854
巴爾幹的目標	-7855
巴西丶南非丶	-7856
巴黎協定中的	-7857
市場的新公寓	-7858
市房地產市場	-7859
布雷斯特德於	-7860
希區柯克因為	-7861
希臘一分為二	-7862
帝國的附庸國	-7863
師和紡織業工	-7864
帶領的托利黨	-7865
幫助已故之人	-7866
幫助恢復公眾	-7867
干預是必要的	-7868
平均最高溫度	-7869
年代仍在使用	-7870
年俄國革命後	-7871
年夏天大部分	-7872
年夏季奧運會	-7873
年建造並修葺	-7874
年撰寫的第一	-7875
年的專業而友	-7876
年選舉日之前	-7877
幸運兔奧斯瓦	-7878
幾乎每個島嶼	-7879
幾乎沒有借用	-7880
幾乎沒有被評	-7881
座青銅時代的	-7882
廣工作奠定了	-7883
建立一種更為	-7884
建立生者與死	-7885
建立起了商業	-7886
建設中的城市	-7887
建設看到日本	-7888
強制受洗後都	-7889
強制受洗有悖	-7890
形成連鎖反應	-7891
影子之於常人	-7892
征服了色雷斯	-7893
很可能是其中	-7894
很多未完工的	-7895
很快就破滅了	-7896
很有趣的求婚	-7897
從挪威南部的	-7898
從而使得地面	-7899
▁讚	-7900
中某	-7901
區別	-7902
屬南	-7903
扭屁	-7904
持卡	-7905
時尚	-7906
淡水	-7907
的利	-7908
的威	-7909
禍首	-7910
考察	-7911
與他	-7912
舌爾	-7913
議程	-7914
辭職	-7915
齊平	-7916
▁我看	-7917
▁讚美	-7918
人到達	-7919
兩個尖	-7920
喜歡五	-7921
塞舌爾	-7922
對扭屁	-7923
淡水湖	-7924
的利率	-7925
的威脅	-7926
的持卡	-7927
與他一	-7928
與考察	-7929
英屬南	-7930
選擇在	-7931
魁禍首	-7932
tima	-7933
▁我看過	-7934
▁讚美詩	-7935
中某部分	-7936
人到達了	-7937
任何區別	-7938
兩個尖塔	-7939
共同議程	-7940
前英屬南	-7941
卡的持卡	-7942
員工辭職	-7943
喜歡五彩	-7944
塞舌爾和	-7945
對扭屁股	-7946
市場齊平	-7947
所有的精	-7948
湊車型漫	-7949
現在變得	-7950
當我看到	-7951
的利率也	-7952
罪魁禍首	-7953
美國公司	-7954
與他一道	-7955
átima	-7956
▁這並沒有	-7957
公司的顧客	-7958
喜歡五彩繽	-7959
塞舌爾和刁	-7960
應該選擇在	-7961
所有的精力	-7962
是罪魁禍首	-7963
比現在變得	-7964
淡水湖通常	-7965
湊車型漫步	-7966
爾的加拿大	-7967
與考察工作	-7968
著兩個尖塔	-7969
fátima	-7970
▁讚美詩獲得	-7971
公司的顧客要	-7972
喜歡五彩繽紛	-7973
塞舌爾和刁曼	-7974
對於堪薩斯州	-7975
從而在之後塑	-7976
御所需的技能	-7977
微軟在周三公	-7978
徵收的最高罰	-7979
性在兩個事實	-7980
性情使他無法	-7981
情況視而不見	-7982
惡薩諾斯為主	-7983
意見表示遺憾	-7984
感到失望的人	-7985
感受到了權利	-7986
成為世界冠軍	-7987
成為了迪士尼	-7988
我們絕對無法	-7989
我認識的許多	-7990
或擁有滿意的	-7991
或更確切的說	-7992
或至少能減輕	-7993
戰爭將要來臨	-7994
戰爭爆發之前	-7995
戰爭開始的前	-7996
所以當我看到	-7997
所接收的投票	-7998
打鬥和打人的	-7999
但卻	-8000
各有	-8001
吼聲	-8002
曲線	-8003
諾克	-8004
通信	-8005
▁在已	-8006
人和解	-8007
在脆弱	-8008
大廈的	-8009
孩子具	-8010
實小說	-8011
徵意義	-8012
政府是	-8013
論諾克	-8014
人和解並	-8015
但卻沒有	-8016
各有不同	-8017
吼聲是從	-8018
學習曲線	-8019
實小說是	-8020
希望用戶	-8021
樓大廈的	-8022
般的債務	-8023
象徵意義	-8024
▁在已開展	-8025
人和解並為	-8026
孩子具有一	-8027
山般的債務	-8028
當地政府是	-8029
紀實小說是	-8030
試圖在脆弱	-8031
論諾克斯的	-8032
高樓大廈的	-8033
▁在已開展了	-8034
人和解並為此	-8035
如山般的債務	-8036
把我排除在外	-8037
把日出標記在	-8038
拉博夫裸體出	-8039
拉的嬰兒的三	-8040
拉迪亞德吉湖	-8041
拉迪斯導演的	-8042
拜登的梅爾丁	-8043
指引正在著陸	-8044
掉法老王理智	-8045
接下來的選舉	-8046
接到了好幾個	-8047
接受嚴格的劍	-8048
接受采訪前戴	-8049
推動武裝暴亂	-8050
提契諾河和寶	-8051
揭示了他的成	-8052
摩托車越野賽	-8053
撒哈拉沙漠的	-8054
擬定為羅馬法	-8055
支付巨額賠償	-8056
支持這個假設	-8057
收集了在實驗	-8058
改善會主席喬	-8059
放在化學浴徹	-8060
教人們如何應	-8061
數據的幫助下	-8062
數次挑釁性的	-8063
文化發展特徵	-8064
文字又有意思	-8065
文學碩士學位	-8066
斯巴達在伯羅	-8067
斯托聖喬瓦尼	-8068
新紀實小說是	-8069
方面來衡量的	-8070
方面的投資在	-8071
於神秘傳統中	-8072
於西方的蠅頭	-8073
施普林格一直	-8074
日的官方自傳	-8075
明治天皇以前	-8076
明治天皇開始	-8077
是一個永不停	-8078
是一名漫畫家	-8079
是一對情侶了	-8080
是另一個助手	-8081
是可以合法出	-8082
是否具藝術性	-8083
是否認識作家	-8084
是因為有很多	-8085
是在深處冷卻	-8086
是基於有可能	-8087
是堅不可摧的	-8088
是撒哈拉沙漠	-8089
是最廣為接受	-8090
時的工作時間	-8091
晨的行動中製	-8092
普通儲蓄賬戶	-8093
暗諷以及其他	-8094
更令人擔憂丶	-8095
更多的捐獻者	-8096
最好的情況下	-8097
最後還是決定	-8098
最糟糕的狀況	-8099
伽巴	-8100
利山	-8101
安托	-8102
左岸	-8103
想在	-8104
操縱	-8105
河系	-8106
流士	-8107
為七	-8108
笑他	-8109
納亞	-8110
維和	-8111
縱觀	-8112
職的	-8113
讓步	-8114
轉運	-8115
週後	-8116
里繆	-8117
▁縱觀	-8118
伽巴佐	-8119
佛利山	-8120
債券獎	-8121
僅為七	-8122
公爵被	-8123
嘲笑他	-8124
基里繆	-8125
想在黑	-8126
操縱數	-8127
比安托	-8128
河系漫	-8129
發送語	-8130
稱職的	-8131
管理的	-8132
該課程	-8133
跟這個	-8134
這一天	-8135
阿納亞	-8136
▁大流士	-8137
不稱職的	-8138
他的維和	-8139
伽巴佐斯	-8140
佛利山莊	-8141
債券獎與	-8142
僅為七天	-8143
公爵被曝	-8144
含在工作	-8145
地區以外	-8146
地方總督	-8147
基里繆爾	-8148
專家調查	-8149
對該課程	-8150
情況相似	-8151
操縱數位	-8152
河系漫遊	-8153
發送語音	-8154
的兩週後	-8155
管理的商	-8156
網絡討論	-8157
蘇比安托	-8158
▁縱觀歷史	-8159
佛利山莊酒	-8160
俄國想在黑	-8161
公爵被曝與	-8162
北地區以外	-8163
含在工作時	-8164
奧斯曼人在	-8165
對該課程的	-8166
建立起了利	-8167
數僅為七天	-8168
獎債券獎與	-8169
發送語音指	-8170
的網絡討論	-8171
管理的商人	-8172
美伽巴佐斯	-8173
翻他的維和	-8174
製造了一個	-8175
跟這個世界	-8176
進一步轉運	-8177
銀河系漫遊	-8178
▁大流士十分	-8179
不稱職的中國	-8180
也製造了一個	-8181
佛利山莊酒店	-8182
公爵被曝與人	-8183
同時操縱數位	-8184
含在工作時長	-8185
和俄國想在黑	-8186
地方總督宣布	-8187
天數僅為七天	-8188
奧巴馬嘲笑他	-8189
官美伽巴佐斯	-8190
對該課程的設	-8191
建立起了利潤	-8192
投票的兩週後	-8193
會山任職變遷	-8194
會快速地打開	-8195
會見了希特勒	-8196
會議員效忠於	-8197
月秘密訪問了	-8198
有三棵棕櫚樹	-8199
來追	-8200
吸納	-8201
夫婦	-8202
川家	-8203
復一	-8204
恰郡	-8205
拜占	-8206
緊張	-8207
首腦	-8208
700	-8209
主要是	-8210
來追踪	-8211
合議會	-8212
吸納了	-8213
在私人	-8214
川家康	-8215
復一日	-8216
愛夫婦	-8217
拜占廷	-8218
爾恰郡	-8219
▁ant	-8220
但主要是	-8221
合議會演	-8222
圖爾恰郡	-8223
川家康的	-8224
政府首腦	-8225
日復一日	-8226
日期以及	-8227
深愛夫婦	-8228
緊張關係	-8229
而且這些	-8230
合議會演講	-8231
吸納了許多	-8232
在私人公司	-8233
川家康的直	-8234
社交媒體來	-8235
霾日復一日	-8236
▁antil	-8237
但主要是為了	-8238
作為政府首腦	-8239
來追踪無人機	-8240
在私人公司內	-8241
川家康的直系	-8242
日期以及生肖	-8243
有些國家甚至	-8244
有助於他們的	-8245
有史以來最低	-8246
有很多不同的	-8247
有很大的需求	-8248
有望每年獲得	-8249
朋友間還是不	-8250
未被妥善利用	-8251
本主演的電影	-8252
本先生在七月	-8253
東部緊鄰色雷	-8254
某些顆粒被帶	-8255
查爾斯被認為	-8256
根據工作日表	-8257
梅塞將軍也被	-8258
業務不斷擴展	-8259
業的諾瑪城際	-8260
樂隊成員大衛	-8261
機的應用程序	-8262
權力派的黨派	-8263
次初選中瑞啟	-8264
歐洲人發現了	-8265
殖民地拜占廷	-8266
每人平均大約	-8267
比你更有資格	-8268
比賽中打平手	-8269
民主黨的爭論	-8270
汽車突然著火	-8271
沒一個讓她感	-8272
沒明顯的分隔	-8273
沒有任何區別	-8274
沒有見過有人	-8275
沒有這些工具	-8276
沙克爾頓爵士	-8277
河流均有源頭	-8278
油和柴油價格	-8279
法國代表透露	-8280
法國在馬倫哥	-8281
注重在兩國平	-8282
流行緊密相關	-8283
海上風力發電	-8284
深的交通系統	-8285
溫斯頓進入了	-8286
滴從周圍的空	-8287
演出的好時機	-8288
澳大利亞人蒙	-8289
澳洲網球公開	-8290
炸雞永不滿足	-8291
為中心的數個	-8292
為基礎的全球	-8293
為最有可能從	-8294
為賬戶添加免	-8295
烏爾里希仍在	-8296
無法計算實際	-8297
然後是星期幾	-8298
熟練工人提升	-8299
不一	-8300
他寫	-8301
個里	-8302
加林	-8303
吉祥	-8304
埋在	-8305
年前	-8306
很棒	-8307
擴建	-8308
曾是	-8309
本會	-8310
格局	-8311
由靜	-8312
略了	-8313
簡短	-8314
而足	-8315
英尺	-8316
該效	-8317
謹慎	-8318
道格	-8319
隨即	-8320
ust	-8321
▁埋在	-8322
他寫過	-8323
個里面	-8324
口曾是	-8325
國民保	-8326
在三個	-8327
在銀行	-8328
夠謹慎	-8329
很棒的	-8330
時由靜	-8331
格局從	-8332
泰加林	-8333
省略了	-8334
處於宗	-8335
道格拉	-8336
eust	-8337
ulti	-8338
不一而足	-8339
不夠謹慎	-8340
他寫過不	-8341
以及國防	-8342
像在三個	-8343
吉祥顏色	-8344
哪個里面	-8345
國民保健	-8346
在銀行死	-8347
年前就已	-8348
戰時由靜	-8349
擴建這一	-8350
格局從一	-8351
胃口曾是	-8352
處於宗主	-8353
隨即被解	-8354
multi	-8355
他寫過不少	-8356
像在三個朝	-8357
吉祥顏色是	-8358
國民保健署	-8359
在哪個里面	-8360
年前就已傳	-8361
很棒的團隊	-8362
得到了合法	-8363
戰時由靜態	-8364
擴建這一項	-8365
時不夠謹慎	-8366
本會看起來	-8367
泰加林具有	-8368
的格局從一	-8369
的胃口曾是	-8370
聯社發生了	-8371
處於宗主國	-8372
道格拉斯的	-8373
防報警信號	-8374
電影省略了	-8375
▁beust	-8376
以及國防方面	-8377
即使非常簡短	-8378
員工在銀行死	-8379
國民保健署正	-8380
奧巴馬的特別	-8381
好像在三個朝	-8382
年前就已傳至	-8383
得到了合法化	-8384
戰時由靜態防	-8385
消防報警信號	-8386
燃煤電站也將	-8387
營中獨自探索	-8388
爾卡鬆的歷史	-8389
爾德發現大陸	-8390
爾的早期發明	-8391
爾街上有一席	-8392
爾變得更加善	-8393
片圍繞著地球	-8394
版本中演對手	-8395
特利茨的成功	-8396
特朗普的勝利	-8397
狂熱的吉他手	-8398
獨立審查主任	-8399
下配	-8400
也與	-8401
倫薩	-8402
入愛	-8403
匹種	-8404
堡壘	-8405
愛侶	-8406
殿有	-8407
一匹種	-8408
也與在	-8409
了堡壘	-8410
倫薩葛	-8411
入愛河	-8412
布商業	-8413
後殿有	-8414
經常被	-8415
具體計劃	-8416
墜入愛河	-8417
布商業崗	-8418
的小教堂	-8419
研究報導	-8420
系列下配	-8421
▁在後殿有	-8422
修建了堡壘	-8423
倫薩葛拉德	-8424
其中一匹種	-8425
具體計劃而	-8426
向的小教堂	-8427
布商業崗哨	-8428
平均水平高	-8429
研究報導稱	-8430
經常被標記	-8431
▁在七大洲的	-8432
並且墜入愛河	-8433
倫薩葛拉德相	-8434
吉卜林也與在	-8435
在一系列下配	-8436
地點符合瑪雅	-8437
布商業崗哨的	-8438
橫向的小教堂	-8439
王安石的淤泥	-8440
王安石的賞識	-8441
理論上您就能	-8442
甚至比在矽谷	-8443
生活了數千年	-8444
生活在公元前	-8445
產品當作提高	-8446
用來分隔兩地	-8447
用同樣的方式	-8448
用恰當的儀式	-8449
用珍珠港事件	-8450
由於他們兩人	-8451
畢業生成就展	-8452
當地薩萊諾的	-8453
當總統的最後	-8454
當賬戶餘額為	-8455
當針對克林頓	-8456
疑問多於答案	-8457
疾病傳播和水	-8458
發展的房地產	-8459
白人男性身分	-8460
百勝餐飲集團	-8461
的主要驅動力	-8462
的人均收入是	-8463
的人對扭屁股	-8464
的內容更多是	-8465
的利率也同樣	-8466
的地標建築南	-8467
的地標燈塔和	-8468
的威脅困擾著	-8469
的工業革命比	-8470
的帕爾馬早了	-8471
的微小變化會	-8472
的德國和納粹	-8473
的志願者就有	-8474
的戈梅里表示	-8475
的摩托車頭盔	-8476
的擬人機器人	-8477
的放棄收益會	-8478
的是新的一集	-8479
的正確組合的	-8480
的死亡人口最	-8481
的目標這件事	-8482
的破壞極大地	-8483
的網絡討論後	-8484
的背後也總有	-8485
的行動告訴了	-8486
的記者都穿戴	-8487
的諡號也起自	-8488
的電影刻畫掙	-8489
的餘額中賺取	-8490
皮洛士不得不	-8491
皮特庫賽以及	-8492
省內代理人的	-8493
看到瘋狂又古	-8494
看幾集手機就	-8495
看的比賽越多	-8496
知道戴維斯盃	-8497
碼技術提出了	-8498
示是一名臥底	-8499
了美	-8500
仔褲	-8501
以下	-8502
修補	-8503
名人	-8504
因素	-8505
對抗	-8506
快的	-8507
怪奇	-8508
捕魚	-8509
揭發	-8510
旁袖	-8511
歲高	-8512
漬化	-8513
粉絲	-8514
被當	-8515
鐳學	-8516
不快的	-8517
了新的	-8518
了美孚	-8519
他希望	-8520
冬季白	-8521
力對抗	-8522
因素是	-8523
娜同樣	-8524
怪奇物	-8525
旁袖手	-8526
牛仔褲	-8527
生產已	-8528
產業和	-8529
被揭發	-8530
chez	-8531
miam	-8532
uber	-8533
▁她的黃	-8534
他希望能	-8535
來自捕魚	-8536
兵力對抗	-8537
冬季白天	-8538
布魯克斯	-8539
很多名人	-8540
怪奇物語	-8541
旁袖手旁	-8542
更微小的	-8543
琳娜同樣	-8544
的生產已	-8545
穿牛仔褲	-8546
粉絲甚至	-8547
記者被當	-8548
項因素是	-8549
miami	-8550
▁她的黃道	-8551
不快的言論	-8552
了美孚公司	-8553
化學產業和	-8554
捷琳娜同樣	-8555
旁袖手旁觀	-8556
更微小的塵	-8557
省記者被當	-8558
統治時期的	-8559
署兵力對抗	-8560
進行了修補	-8561
鐳學研究所	-8562
開放了新的	-8563
zayion	-8564
ánchez	-8565
一直行進到把	-8566
他希望能到達	-8567
他情感狀態不	-8568
使用者的歷史	-8569
來自捕魚以及	-8570
克省記者被當	-8571
卡捷琳娜同樣	-8572
後進行了修補	-8573
更微小的塵埃	-8574
模型的生產已	-8575
社交媒體來跟	-8576
祭祀遺跡由一	-8577
禦的前線主導	-8578
种子選手莎拉	-8579
科羅拉多州丹	-8580
程度相對較低	-8581
種罕見的情況	-8582
稱提庇留離開	-8583
稿風格似的影	-8584
穿過邊境之後	-8585
穿過邊境進入	-8586
突然發生變化	-8587
窄的觸控顯示	-8588
立於聚光燈下	-8589
符拉迪沃斯托	-8590
第一次偉大的	-8591
管不好核武器	-8592
管不好自己的	-8593
節日各有不同	-8594
節目有關太空	-8595
節都有其含義	-8596
簡直是太仁慈	-8597
系統中某部分	-8598
系統投入使用	-8599
也少	-8600
埃森	-8601
夠多	-8602
失去	-8603
將該	-8604
把該	-8605
而是	-8606
藉記	-8607
鋼琴	-8608
隊伍	-8609
雅茲	-8610
▁就職	-8611
也少了	-8612
內展示	-8613
台鋼琴	-8614
夠多了	-8615
將該案	-8616
自己看	-8617
藉記卡	-8618
要失去	-8619
雅茲迪	-8620
四台鋼琴	-8621
將該案打	-8622
就要失去	-8623
而是稱呼	-8624
自己看了	-8625
隊伍包括	-8626
▁在藉記卡	-8627
▁對於離開	-8628
▁就職之前	-8629
一個雅茲迪	-8630
也少了很多	-8631
內展示許多	-8632
奧地利皇帝	-8633
已經夠多了	-8634
的原因把該	-8635
而是稱呼姓	-8636
通過了嚴格	-8637
年通過了嚴格	-8638
最後將該案打	-8639
系統添加到那	-8640
系統的成功研	-8641
約克公爵三世	-8642
約夫承擔責任	-8643
約的國家中撤	-8644
紅帽子的守衛	-8645
絕妙的挑戰的	-8646
經常一個人呆	-8647
經常被標記為	-8648
經過一些奇蹟	-8649
總督瑪格麗特	-8650
總統的袁世凱	-8651
罰參與不道德	-8652
羅大眾的注意	-8653
羅馬出於管理	-8654
美國科幻電影	-8655
美洲土著群體	-8656
美西斯在後勤	-8657
義扭轉了對抗	-8658
習慣法建立了	-8659
者們安全得多	-8660
者和公眾的反	-8661
而十個中有九	-8662
而我寧願別人	-8663
而有力的呼籲	-8664
而當增長率比	-8665
而黨派領導人	-8666
聯邦贊助醜聞	-8667
聯邦開支也會	-8668
聲波檢測變得	-8669
能使植物健康	-8670
能力將會受限	-8671
能合理地假設	-8672
能夠陶冶情操	-8673
能緩解情緒的	-8674
自凱爾特海和	-8675
自己高爾夫打	-8676
與之平行的博	-8677
與他一道推進	-8678
與可觸產品的	-8679
與我們的日常	-8680
與西方的往來	-8681
與輔導員會面	-8682
艘該地區澳洲	-8683
花費數個小時	-8684
英國喜劇電影	-8685
英格蘭和威爾	-8686
茉莉公主出現	-8687
茲福德地區有	-8688
莫利塞地區和	-8689
萬歐元可以供	-8690
蒂岡法律中移	-8691
薩米人方言的	-8692
處方箋和疫苗	-8693
處於半工半學	-8694
處有關被征服	-8695
血紅蛋白水平	-8696
行為的代理商	-8697
被當作孩子來	-8698
被稱為聖羅斯	-8699
動一	-8700
去世	-8701
性水	-8702
排十	-8703
檢討	-8704
率頭	-8705
玫瑰	-8706
現場	-8707
覆蓋	-8708
轟動	-8709
避免	-8710
邁科	-8711
里訂	-8712
50;	-8713
▁這將	-8714
之成為	-8715
互動一	-8716
但目前	-8717
它覆蓋	-8718
年去世	-8719
性水果	-8720
我都遇	-8721
排十座	-8722
朝擔任	-8723
的玫瑰	-8724
第一批	-8725
要檢討	-8726
里訂立	-8727
▁在其中	-8728
▁在現場	-8729
並不總是	-8730
互動一事	-8731
使之成為	-8732
可以打開	-8733
地區以及	-8734
引發轟動	-8735
性水果酒	-8736
性的言論	-8737
我都遇上	-8738
放在辦公	-8739
朝擔任使	-8740
歌曲出版	-8741
氣象氣候	-8742
英國大使	-8743
邁科內爾	-8744
里訂立了	-8745
▁為了避免	-8746
▁這將增加	-8747
上引發轟動	-8748
並不總是奏	-8749
但即使是酸	-8750
動性的言論	-8751
勝利的玫瑰	-8752
可以打開當	-8753
品放在辦公	-8754
我都遇上麻	-8755
朝擔任使節	-8756
本週要檢討	-8757
氣象氣候學	-8758
消息中寫道	-8759
烈性水果酒	-8760
的兩小時後	-8761
第一批希臘	-8762
英國大使館	-8763
▁在現場發現	-8764
▁這將增加新	-8765
並不總是奏效	-8766
互動一事提出	-8767
但即使是酸雨	-8768
但目前他們的	-8769
使之成為中國	-8770
候選人資格無	-8771
則消息中寫道	-8772
可以打開當週	-8773
品放在辦公桌	-8774
得出了新結論	-8775
我都遇上麻煩	-8776
歌曲出版協議	-8777
決定退黨之後	-8778
煽動性的言論	-8779
的兩小時後才	-8780
英國大使館的	-8781
被調查很多年	-8782
被迫害的經歷	-8783
被進一步轉運	-8784
裁定它們符合	-8785
裂痕需要彌補	-8786
裔猶太人當中	-8787
製作出自己的	-8788
西北地區以外	-8789
西嘉砲兵軍官	-8790
西格爾提出在	-8791
西西莉嫁給了	-8792
西部邊緣已經	-8793
要拿出自己的	-8794
要求其他國家	-8795
要求把他們的	-8796
見了他未來的	-8797
見到她的朋友	-8798
觀察太陽和滿	-8799
一心	-8800
家具	-8801
峰後	-8802
情願	-8803
擔負	-8804
枝主	-8805
業巔	-8806
祭品	-8807
花花	-8808
角的	-8809
一心一	-8810
不情願	-8811
和祭品	-8812
國際空	-8813
地點偏	-8814
家具木	-8815
度顯示	-8816
棕枝主	-8817
的花花	-8818
職業巔	-8819
diet	-8820
一心一意	-8821
不情願走	-8822
和祭品供	-8823
在棕枝主	-8824
地點偏遠	-8825
它標誌了	-8826
家具木工	-8827
序進行了	-8828
度顯示器	-8829
影響美國	-8830
擔負起了	-8831
獎的殊榮	-8832
的花花公	-8833
與天主教	-8834
角的故事	-8835
的	-8836
,	-8837
▁	-8838
。	-8839
在	-8840
了	-8841
一	-8842
是	-8843
他	-8844
人	-8845
1	-8846
有	-8847
年	-8848
0	-8849
和	-8850
為	-8851
國	-8852
這	-8853
中	-8854
個	-8855
大	-8856
a	-8857
們	-8858
不	-8859
斯	-8860
地	-8861
於	-8862
e	-8863
r	-8864
來	-8865
n	-8866
時	-8867
會	-8868
以	-8869
2	-8870
(	-8871
)	-8872
後	-8873
i	-8874
能	-8875
爾	-8876
上	-8877
到	-8878
之	-8879
發	-8880
9	-8881
多	-8882
對	-8883
o	-8884
作	-8885
·	-8886
其	-8887
被	-8888
但	-8889
可	-8890
我	-8891
成	-8892
法	-8893
生	-8894
出	-8895
用	-8896
部	-8897
公	-8898
最	-8899
t	-8900
s	-8901
特	-8902
要	-8903
自	-8904
前	-8905
、	-8906
利	-8907
行	-8908
月	-8909
3	-8910
家	-8911
說	-8912
c	-8913
”	-8914
分	-8915
區	-8916
l	-8917
世	-8918
拉	-8919
“	-8920
過	-8921
並	-8922
而	-8923
方	-8924
經	-8925
西	-8926
克	-8927
得	-8928
5	-8929
同	-8930
工	-8931
也	-8932
亞	-8933
現	-8934
當	-8935
美	-8936
因	-8937
她	-8938
學	-8939
就	-8940
所	-8941
開	-8942
海	-8943
德	-8944
代	-8945
加	-8946
很	-8947
及	-8948
如	-8949
間	-8950
下	-8951
戰	-8952
m	-8953
些	-8954
次	-8955
那	-8956
8	-8957
事	-8958
位	-8959
羅	-8960
d	-8961
內	-8962
從	-8963
政	-8964
與	-8965
進	-8966
都	-8967
主	-8968
民	-8969
統	-8970
6	-8971
它	-8972
者	-8973
著	-8974
天	-8975
已	-8976
影	-8977
新	-8978
期	-8979
表	-8980
該	-8981
尼	-8982
日	-8983
面	-8984
馬	-8985
第	-8986
還	-8987
兩	-8988
電	-8989
7	-8990
動	-8991
機	-8992
立	-8993
里	-8994
關	-8995
高	-8996
4	-8997
《	-8998
》	-8999
子	-9000
道	-9001
布	-9002
建	-9003
格	-9004
比	-9005
由	-9006
安	-9007
數	-9008
本	-9009
此	-9010
理	-9011
約	-9012
h	-9013
元	-9014
力	-9015
場	-9016
定	-9017
市	-9018
希	-9019
至	-9020
b	-9021
將	-9022
接	-9023
使	-9024
全	-9025
英	-9026
起	-9027
選	-9028
十	-9029
通	-9030
達	-9031
長	-9032
受	-9033
巴	-9034
常	-9035
平	-9036
明	-9037
種	-9038
南	-9039
據	-9040
議	-9041
軍	-9042
g	-9043
任	-9044
名	-9045
投	-9046
樣	-9047
演	-9048
u	-9049
意	-9050
教	-9051
業	-9052
洲	-9053
變	-9054
資	-9055
奧	-9056
導	-9057
然	-9058
總	-9059
保	-9060
卡	-9061
合	-9062
提	-9063
歐	-9064
沒	-9065
紀	-9066
蘭	-9067
三	-9068
司	-9069
治	-9070
直	-9071
信	-9072
北	-9073
員	-9074
外	-9075
小	-9076
少	-9077
普	-9078
更	-9079
產	-9080
相	-9081
阿	-9082
度	-9083
手	-9084
水	-9085
示	-9086
系	-9087
裡	-9088
解	-9089
重	-9090
入	-9091
城	-9092
展	-9093
文	-9094
目	-9095
認	-9096
隊	-9097
件	-9098
好	-9099
實	-9100
性	-9101
界	-9102
非	-9103
去	-9104
史	-9105
回	-9106
女	-9107
化	-9108
始	-9109
把	-9110
無	-9111
爭	-9112
物	-9113
術	-9114
p	-9115
共	-9116
向	-9117
告	-9118
報	-9119
島	-9120
正	-9121
看	-9122
稱	-9123
處	-9124
量	-9125
y	-9126
基	-9127
府	-9128
情	-9129
果	-9130
根	-9131
歷	-9132
河	-9133
科	-9134
讓	-9135
k	-9136
山	-9137
己	-9138
幾	-9139
心	-9140
片	-9141
獲	-9142
計	-9143
許	-9144
論	-9145
賽	-9146
頓	-9147
—	-9148
助	-9149
只	-9150
士	-9151
想	-9152
持	-9153
未	-9154
標	-9155
氣	-9156
活	-9157
聯	-9158
近	-9159
體	-9160
二	-9161
令	-9162
制	-9163
劇	-9164
放	-9165
權	-9166
決	-9167
程	-9168
言	-9169
金	-9170
顯	-9171
黨	-9172
;	-9173
別	-9174
品	-9175
應	-9176
查	-9177
致	-9178
運	-9179
需	-9180
領	-9181
f	-9182
且	-9183
夫	-9184
或	-9185
指	-9186
樂	-9187
每	-9188
維	-9189
薩	-9190
費	-9191
隨	-9192
響	-9193
項	-9194
首	-9195
:	-9196
低	-9197
候	-9198
包	-9199
協	-9200
圖	-9201
土	-9202
括	-9203
源	-9204
皇	-9205
管	-9206
給	-9207
見	-9208
調	-9209
越	-9210
雷	-9211
麼	-9212
.	-9213
v	-9214
原	-9215
古	-9216
命	-9217
四	-9218
增	-9219
東	-9220
林	-9221
求	-9222
球	-9223
納	-9224
製	-9225
語	-9226
院	-9227
離	-9228
點	-9229
%	-9230
供	-9231
倫	-9232
口	-9233
問	-9234
帶	-9235
息	-9236
擔	-9237
收	-9238
望	-9239
條	-9240
極	-9241
票	-9242
超	-9243
預	-9244
-	-9245
伊	-9246
伯	-9247
傳	-9248
像	-9249
兒	-9250
六	-9251
具	-9252
功	-9253
域	-9254
夠	-9255
太	-9256
字	-9257
州	-9258
形	-9259
獨	-9260
班	-9261
眾	-9262
研	-9263
破	-9264
確	-9265
舉	-9266
設	-9267
諾	-9268
警	-9269
造	-9270
際	-9271
勒	-9272
參	-9273
取	-9274
型	-9275
塞	-9276
宣	-9277
控	-9278
易	-9279
牙	-9280
究	-9281
續	-9282
義	-9283
萬	-9284
視	-9285
記	-9286
車	-9287
迪	-9288
邊	-9289
頭	-9290
題	-9291
z	-9292
乎	-9293
務	-9294
印	-9295
另	-9296
均	-9297
寫	-9298
局	-9299
托	-9300
技	-9301
朝	-9302
死	-9303
溫	-9304
空	-9305
節	-9306
組	-9307
結	-9308
色	-9309
角	-9310
除	-9311
音	-9312
五	-9313
似	-9314
你	-9315
例	-9316
威	-9317
季	-9318
完	-9319
客	-9320
引	-9321
打	-9322
拿	-9323
支	-9324
族	-9325
曼	-9326
曾	-9327
濟	-9328
知	-9329
社	-9330
蒂	-9331
證	-9332
護	-9333
週	-9334
住	-9335
做	-9336
僅	-9337
先	-9338
再	-9339
則	-9340
友	-9341
反	-9342
埃	-9343
塔	-9344
密	-9345
強	-9346
必	-9347
戶	-9348
摩	-9349
擊	-9350
改	-9351
早	-9352
曲	-9353
服	-9354
朗	-9355
歌	-9356
殺	-9357
流	-9358
王	-9359
瑪	-9360
聖	-9361
萊	-9362
話	-9363
責	-9364
邦	-9365
集	-9366
?	-9367
何	-9368
備	-9369
吉	-9370
哥	-9371
境	-9372
存	-9373
往	-9374
愛	-9375
感	-9376
才	-9377
況	-9378
洛	-9379
派	-9380
澳	-9381
率	-9382
盟	-9383
臘	-9384
華	-9385
觀	-9386
評	-9387
路	-9388
轉	-9389
遠	-9390
降	-9391
風	-9392
麥	-9393
w	-9394
丁	-9395
交	-9396
什	-9397
份	-9398
佔	-9399
價	-9400
典	-9401
列	-9402
創	-9403
勢	-9404
單	-9405
堡	-9406
娜	-9407
孩	-9408
官	-9409
帝	-9410
廣	-9411
推	-9412
故	-9413
效	-9414
波	-9415
消	-9416
深	-9417
滿	-9418
激	-9419
石	-9420
老	-9421
藝	-9422
難	-9423
飛	-9424
j	-9425
七	-9426
丹	-9427
仍	-9428
俄	-9429
修	-9430
劃	-9431
博	-9432
台	-9433
各	-9434
否	-9435
商	-9436
失	-9437
奇	-9438
居	-9439
屬	-9440
席	-9441
承	-9442
斷	-9443
止	-9444
清	-9445
火	-9446
爵	-9447
白	-9448
突	-9449
米	-9450
終	-9451
絕	-9452
網	-9453
貝	-9454
遊	-9455
限	-9456
革	-9457
億	-9458
優	-9459
凱	-9460
升	-9461
即	-9462
姆	-9463
專	-9464
座	-9465
式	-9466
張	-9467
態	-9468
戲	-9469
找	-9470
擁	-9471
施	-9472
案	-9473
步	-9474
沙	-9475
測	-9476
準	-9477
版	-9478
獎	-9479
瑞	-9480
環	-9481
瓦	-9482
百	-9483
移	-9484
穿	-9485
等	-9486
繼	-9487
缺	-9488
習	-9489
船	-9490
訴	-9491
負	-9492
身	-9493
較	-9494
適	-9495
釋	-9496
防	-9497
雅	-9498
須	-9499
類	-9500
鬥	-9501
充	-9502
初	-9503
呼	-9504
哈	-9505
夏	-9506
害	-9507
容	-9508
察	-9509
帕	-9510
幫	-9511
律	-9512
挑	-9513
整	-9514
暴	-9515
書	-9516
歡	-9517
歲	-9518
殖	-9519
減	-9520
港	-9521
男	-9522
略	-9523
疑	-9524
省	-9525
站	-9526
緊	-9527
群	-9528
育	-9529
舊	-9530
花	-9531
試	-9532
象	-9533
輕	-9534
農	-9535
追	-9536
銀	-9537
陸	-9538
露	-9539
願	-9540
魚	-9541
依	-9542
係	-9543
值	-9544
停	-9545
兵	-9546
勝	-9547
周	-9548
喜	-9549
圍	-9550
底	-9551
庭	-9552
康	-9553
弗	-9554
快	-9555
恩	-9556
房	-9557
抗	-9558
排	-9559
撒	-9560
料	-9561
校	-9562
梅	-9563
毀	-9564
母	-9565
注	-9566
甚	-9567
登	-9568
益	-9569
督	-9570
礦	-9571
精	-9572
素	-9573
線	-9574
織	-9575
聲	-9576
職	-9577
菲	-9578
蒙	-9579
蘇	-9580
訪	-9581
足	-9582
遺	-9583
鎮	-9584
鐵	-9585
附	-9586
額	-9587
香	-9588
"	-9589
á	-9590
京	-9591
今	-9592
債	-9593
冬	-9594
半	-9595
卻	-9596
又	-9597
含	-9598
吸	-9599
喬	-9600
嚴	-9601
園	-9602
塊	-9603
妻	-9604
婚	-9605
宗	-9606
室	-9607
層	-9608
岸	-9609
弟	-9610
復	-9611
徵	-9612
戴	-9613
敦	-9614
朋	-9615
木	-9616
植	-9617
構	-9618
模	-9619
款	-9620
汽	-9621
洋	-9622
熱	-9623
留	-9624
真	-9625
積	-9626
簽	-9627
索	-9628
興	-9629
艾	-9630
茨	-9631
落	-9632
號	-9633
衝	-9634
補	-9635
規	-9636
親	-9637
討	-9638
識	-9639
質	-9640
跟	-9641
述	-9642
退	-9643
遜	-9644
邁	-9645
酒	-9646
醫	-9647
食	-9648
餘	-9649
麗	-9650
互	-9651
付	-9652
便	-9653
傷	-9654
券	-9655
唱	-9656
團	-9657
堂	-9658
墨	-9659
契	-9660
尋	-9661
巨	-9662
征	-9663
思	-9664
批	-9665
採	-9666
揮	-9667
撤	-9668
攻	-9669
束	-9670
某	-9671
棄	-9672
森	-9673
歸	-9674
泰	-9675
滅	-9676
礎	-9677
神	-9678
福	-9679
競	-9680
級	-9681
績	-9682
置	-9683
考	-9684
聞	-9685
肯	-9686
脈	-9687
航	-9688
衛	-9689
覺	-9690
訂	-9691
賬	-9692
赫	-9693
走	-9694
輯	-9695
辦	-9696
迫	-9697
逐	-9698
野	-9699
錄	-9700
靈	-9701
驗	-9702
魯	-9703
黎	-9704
£	-9705
久	-9706
乾	-9707
亂	-9708
予	-9709
亡	-9710
佛	-9711
健	-9712
傑	-9713
兄	-9714
刻	-9715
千	-9716
危	-9717
善	-9718
坐	-9719
壓	-9720
壞	-9721
守	-9722
審	-9723
嶼	-9724
師	-9725
幅	-9726
念	-9727
恐	-9728
惡	-9729
慶	-9730
扮	-9731
拒	-9732
描	-9733
擇	-9734
敗	-9735
敵	-9736
旅	-9737
星	-9738
智	-9739
析	-9740
概	-9741
油	-9742
烈	-9743
照	-9744
猶	-9745
畫	-9746
瘤	-9747
療	-9748
監	-9749
私	-9750
童	-9751
築	-9752
細	-9753
絲	-9754
練	-9755
耳	-9756
般	-9757
芬	-9758
莉	-9759
莎	-9760
莫	-9761
藉	-9762
訓	-9763
谷	-9764
財	-9765
貿	-9766
賴	-9767
贏	-9768
返	-9769
途	-9770
釙	-9771
鎊	-9772
門	-9773
隆	-9774
雨	-9775
靠	-9776
驚	-9777
黃	-9778
默	-9779
丶	-9780
乘	-9781
九	-9782
休	-9783
估	-9784
佈	-9785
佳	-9786
侵	-9787
假	-9788
光	-9789
冊	-9790
冠	-9791
冰	-9792
剛	-9793
匹	-9794
占	-9795
叛	-9796
哪	-9797
唐	-9798
嗎	-9799
器	-9800
執	-9801
壇	-9802
奈	-9803
媒	-9804
尤	-9805
峽	-9806
差	-9807
幸	-9808
庫	-9809
廢	-9810
役	-9811
待	-9812
徒	-9813
微	-9814
抱	-9815
抵	-9816
拍	-9817
授	-9818
探	-9819
揭	-9820
擴	-9821
春	-9822
晚	-9823
景	-9824
板	-9825
染	-9826
檢	-9827
武	-9828
沃	-9829
湖	-9830
漠	-9831
漢	-9832
漫	-9833
漲	-9834
漸	-9835
狂	-9836
瑟	-9837
病	-9838
皮	-9839
盛	-9840
眼	-9841
碑	-9842
碳	-9843
穩	-9844
章	-9845
笑	-9846
算	-9847
簡	-9848
紅	-9849
緩	-9850
罪	-9851
罰	-9852
署	-9853
耶	-9854
腫	-9855
臨	-9856
葉	-9857
血	-9858
街	-9859
裂	-9860
裔	-9861
裝	-9862
誰	-9863
講	-9864
趣	-9865
跡	-9866
連	-9867
遭	-9868
避	-9869
郵	-9870
錢	-9871
雖	-9872
霍	-9873
順	-9874
龍	-9875
ü	-9876
乏	-9877
亨	-9878
企	-9879
佐	-9880
佩	-9881
偶	-9882
儘	-9883
儲	-9884
允	-9885
八	-9886
冷	-9887
切	-9888
勞	-9889
勵	-9890
午	-9891
卑	-9892
味	-9893
售	-9894
喀	-9895
困	-9896
坦	-9897
培	-9898
堅	-9899
夢	-9900
妥	-9901
委	-9902
寶	-9903
封	-9904
岡	-9905
岩	-9906
巧	-9907
幻	-9908
志	-9909
怎	-9910
您	-9911
戈	-9912
截	-9913
拔	-9914
拜	-9915
捕	-9916
搬	-9917
播	-9918
暗	-9919
曆	-9920
替	-9921
末	-9922
柯	-9923
棒	-9924
棲	-9925
榮	-9926
段	-9927
永	-9928
污	-9929
沈	-9930
沉	-9931
沿	-9932
溯	-9933
炸	-9934
烏	-9935
煩	-9936
燈	-9937
爆	-9938
牌	-9939
牢	-9940
犯	-9941
狀	-9942
畢	-9943
異	-9944
短	-9945
祖	-9946
禁	-9947
秘	-9948
穀	-9949
符	-9950
答	-9951
糊	-9952
綠	-9953
緣	-9954
繫	-9955
翰	-9956
翼	-9957
肺	-9958
脫	-9959
良	-9960
茲	-9961
荷	-9962
葛	-9963
葬	-9964
蓋	-9965
裁	-9966
觸	-9967
詞	-9968
課	-9969
談	-9970
請	-9971
諸	-9972
讀	-9973
賓	-9974
賞	-9975
購	-9976
踪	-9977
輸	-9978
速	-9979
遇	-9980
遷	-9981
配	-9982
針	-9983
銅	-9984
銷	-9985
錯	-9986
鍵	-9987
鐘	-9988
阻	-9989
障	-9990
青	-9991
顏	-9992
飲	-9993
髮	-9994
鮮	-9995
鴉	-9996
$	-9997
乃	-9998
享	-9999
仰	-10000
伐	-10001
侶	-10002
免	-10003
刺	-10004
削	-10005
割	-10006
努	-10007
勳	-10008
匈	-10009
吞	-10010
嘉	-10011
坎	-10012
埋	-10013
堪	-10014
塑	-10015
塵	-10016
壤	-10017
央	-10018
妙	-10019
妹	-10020
婦	-10021
媽	-10022
嫌	-10023
嬰	-10024
孕	-10025
宜	-10026
富	-10027
峰	-10028
巫	-10029
幣	-10030
干	-10031
幹	-10032
序	-10033
廈	-10034
延	-10035
弱	-10036
彈	-10037
彩	-10038
徑	-10039
徹	-10040
怖	-10041
怪	-10042
恰	-10043
憂	-10044
扎	-10045
捷	-10046
掉	-10047
掌	-10048
措	-10049
揚	-10050
損	-10051
摧	-10052
擬	-10053
擾	-10054
旁	-10055
旱	-10056
昂	-10057
暫	-10058
朱	-10059
李	-10060
材	-10061
柴	-10062
核	-10063
桑	-10064
棕	-10065
楚	-10066
樓	-10067
樹	-10068
欺	-10069
殊	-10070
汗	-10071
池	-10072
洗	-10073
浮	-10074
涯	-10075
混	-10076
湯	-10077
灣	-10078
災	-10079
父	-10080
牛	-10081
牧	-10082
獻	-10083
瘋	-10084
皈	-10085
碼	-10086
礁	-10087
祭	-10088
禮	-10089
秀	-10090
稅	-10091
稿	-10092
竟	-10093
策	-10094
範	-10095
粒	-10096
糕	-10097
糟	-10098
紙	-10099
絡	-10100
編	-10101
罕	-10102
聽	-10103
股	-10104
肥	-10105
背	-10106
腦	-10107
茉	-10108
草	-10109
荒	-10110
蓄	-10111
藥	-10112
蛋	-10113
複	-10114
覽	-10115
訥	-10116
詩	-10117
詹	-10118
誤	-10119
誼	-10120
讚	-10121
豬	-10122
貌	-10123
貨	-10124
貴	-10125
買	-10126
貸	-10127
賣	-10128
贊	-10129
趨	-10130
輪	-10131
轟	-10132
辭	-10133
迷	-10134
送	-10135
遍	-10136
郡	-10137
鄰	-10138
銜	-10139
錦	-10140
鏈	-10141
鏡	-10142
閒	-10143
陽	-10144
階	-10145
隔	-10146
險	-10147
隻	-10148
雲	-10149
震	-10150
頻	-10151
顆	-10152
顧	-10153
養	-10154
館	-10155
騎	-10156
鬆	-10157
鬧	-10158
鮑	-10159
麻	-10160
黑	-10161
鼓	-10162
龐	-10163
/	-10164
ä	-10165
丘	-10166
丟	-10167
串	-10168
么	-10169
亦	-10170
亮	-10171
促	-10172
借	-10173
偉	-10174
偏	-10175
傻	-10176
傾	-10177
償	-10178
兼	-10179
凳	-10180
刑	-10181
判	-10182
剩	-10183
副	-10184
劍	-10185
募	-10186
匯	-10187
卜	-10188
厭	-10189
叫	-10190
右	-10191
君	-10192
吹	-10193
哭	-10194
喪	-10195
嘗	-10196
噁	-10197
固	-10198
墓	-10199
墜	-10200
墟	-10201
夜	-10202
奏	-10203
奠	-10204
奢	-10205
奪	-10206
姍	-10207
娛	-10208
婷	-10209
嫁	-10210
寒	-10211
寓	-10212
寡	-10213
寧	-10214
射	-10215
尚	-10216
尾	-10217
屆	-10218
崔	-10219
崗	-10220
崙	-10221
嶄	-10222
川	-10223
左	-10224
帆	-10225
帖	-10226
床	-10227
廉	-10228
廠	-10229
廳	-10230
廷	-10231
彼	-10232
忘	-10233
忙	-10234
忠	-10235
忽	-10236
怒	-10237
怕	-10238
急	-10239
惑	-10240
愚	-10241
慢	-10242
慣	-10243
慮	-10244
憾	-10245
懷	-10246
扭	-10247
折	-10248
按	-10249
挪	-10250
捐	-10251
搖	-10252
撰	-10253
擋	-10254
操	-10255
擺	-10256
救	-10257
敲	-10258
暖	-10259
村	-10260
杯	-10261
枝	-10262
架	-10263
柏	-10264
榜	-10265
橋	-10266
橫	-10267
櫚	-10268
歧	-10269
殿	-10270
毛	-10271
氧	-10272
沖	-10273
泣	-10274
泥	-10275
涉	-10276
液	-10277
涵	-10278
淡	-10279
淤	-10280
添	-10281
滴	-10282
潛	-10283
煙	-10284
煤	-10285
營	-10286
牆	-10287
猜	-10288
獸	-10289
玩	-10290
珠	-10291
琳	-10292
琴	-10293
瑙	-10294
疏	-10295
疼	-10296
痛	-10297
盔	-10298
盧	-10299
矽	-10300
砲	-10301
硬	-10302
碰	-10303
礙	-10304
祈	-10305
祝	-10306
禱	-10307
秋	-10308
穆	-10309
窄	-10310
箭	-10311
篇	-10312
粉	-10313
紐	-10314
紛	-10315
紡	-10316
縱	-10317
繁	-10318
繞	-10319
翻	-10320
聊	-10321
聘	-10322
肖	-10323
胡	-10324
脆	-10325
腓	-10326
臉	-10327
舞	-10328
舟	-10329
艦	-10330
芳	-10331
茵	-10332
萄	-10333
葡	-10334
蕉	-10335
虔	-10336
蜂	-10337
融	-10338
蠢	-10339
衡	-10340
衣	-10341
衰	-10342
裸	-10343
覆	-10344
訊	-10345
託	-10346
訝	-10347
註	-10348
詐	-10349
詢	-10350
詳	-10351
誌	-10352
誓	-10353
誠	-10354
誡	-10355
諷	-10356
謀	-10357
謂	-10358
謙	-10359
譽	-10360
賀	-10361
賠	-10362
賺	-10363
赤	-10364
赦	-10365
跑	-10366
蹟	-10367
躍	-10368
軟	-10369
輔	-10370
迎	-10371
迦	-10372
迴	-10373
逃	-10374
透	-10375
逛	-10376
逝	-10377
遼	-10378
鄉	-10379
酸	-10380
醜	-10381
鋼	-10382
錫	-10383
鑑	-10384
閉	-10385
閣	-10386
闊	-10387
陶	-10388
陷	-10389
雀	-10390
雪	-10391
霧	-10392
霸	-10393
鞋	-10394
韓	-10395
飽	-10396
餐	-10397
駁	-10398
駛	-10399
驅	-10400
魁	-10401
鱈	-10402
鷹	-10403
麽	-10404
齊	-10405
'	-10406
q	-10407
é	-10408
î	-10409
ñ	-10410
ó	-10411
ö	-10412
α	-10413
‘	-10414
’	-10415
•	-10416
丈	-10417
丑	-10418
丸	-10419
乞	-10420
云	-10421
亥	-10422
仁	-10423
仔	-10424
仙	-10425
伍	-10426
伏	-10427
伸	-10428
伽	-10429
併	-10430
侄	-10431
侈	-10432
俗	-10433
俯	-10434
俱	-10435
倉	-10436
倍	-10437
倒	-10438
倖	-10439
偷	-10440
傲	-10441
僱	-10442
儀	-10443
兇	-10444
兔	-10445
冕	-10446
冶	-10447
准	-10448
凌	-10449
凍	-10450
凜	-10451
凡	-10452
刁	-10453
刊	-10454
刷	-10455
剔	-10456
劣	-10457
勃	-10458
勉	-10459
勤	-10460
勿	-10461
匆	-10462
匠	-10463
卸	-10464
厩	-10465
厲	-10466
叢	-10467
召	-10468
吧	-10469
吼	-10470
呂	-10471
呆	-10472
呢	-10473
咎	-10474
哨	-10475
唯	-10476
啟	-10477
啤	-10478
嗆	-10479
嘲	-10480
嘿	-10481
噪	-10482
噬	-10483
噴	-10484
噸	-10485
圓	-10486
圳	-10487
圾	-10488
址	-10489
垃	-10490
堆	-10491
堵	-10492
塚	-10493
塢	-10494
墊	-10495
墮	-10496
墳	-10497
墾	-10498
壘	-10499
壯	-10500
奉	-10501
奎	-10502
奔	-10503
套	-10504
奴	-10505
妮	-10506
姓	-10507
姦	-10508
姨	-10509
姬	-10510
娶	-10511
婭	-10512
孚	-10513
孤	-10514
宇	-10515
宙	-10516
宛	-10517
寂	-10518
寞	-10519
寬	-10520
寵	-10521
寸	-10522
尊	-10523
尖	-10524
尬	-10525
尷	-10526
尺	-10527
屁	-10528
屋	-10529
屍	-10530
屏	-10531
峙	-10532
崇	-10533
嵌	-10534
巔	-10535
巡	-10536
巾	-10537
帳	-10538
帽	-10539
幢	-10540
庇	-10541
店	-10542
庸	-10543
廊	-10544
彌	-10545
徐	-10546
徙	-10547
御	-10548
怠	-10549
怨	-10550
恢	-10551
恭	-10552
悔	-10553
悖	-10554
患	-10555
悶	-10556
惠	-10557
惱	-10558
愍	-10559
慈	-10560
慌	-10561
慎	-10562
慰	-10563
慾	-10564
憑	-10565
憤	-10566
憲	-10567
憶	-10568
懂	-10569
懣	-10570
懲	-10571
懸	-10572
懼	-10573
懾	-10574
戚	-10575
戮	-10576
扣	-10577
抓	-10578
抖	-10579
抹	-10580
拂	-10581
拆	-10582
招	-10583
拯	-10584
拱	-10585
拼	-10586
挫	-10587
挺	-10588
挽	-10589
掀	-10590
掃	-10591
掘	-10592
掙	-10593
掛	-10594
換	-10595
握	-10596
搏	-10597
撈	-10598
撞	-10599
擯	-10600
攔	-10601
攝	-10602
敖	-10603
散	-10604
敬	-10605
斗	-10606
斜	-10607
斥	-10608
旦	-10609
映	-10610
昨	-10611
昭	-10612
晉	-10613
晨	-10614
晰	-10615
曉	-10616
曝	-10617
朵	-10618
朽	-10619
杉	-10620
杭	-10621
杰	-10622
枯	-10623
柔	-10624
柳	-10625
柵	-10626
框	-10627
桌	-10628
梯	-10629
械	-10630
梵	-10631
棉	-10632
棍	-10633
棵	-10634
榔	-10635
槌	-10636
槍	-10637
樑	-10638
樞	-10639
橄	-10640
檯	-10641
檳	-10642
櫃	-10643
欄	-10644
欖	-10645
欠	-10646
欣	-10647
欽	-10648
歇	-10649
殲	-10650
殼	-10651
毅	-10652
毒	-10653
毫	-10654
氟	-10655
氫	-10656
氾	-10657
汀	-10658
汴	-10659
沌	-10660
沮	-10661
泉	-10662
洞	-10663
津	-10664
洪	-10665
洶	-10666
浪	-10667
浴	-10668
涸	-10669
淚	-10670
淪	-10671
淺	-10672
渴	-10673
湊	-10674
湧	-10675
溉	-10676
溢	-10677
溶	-10678
滋	-10679
滑	-10680
滯	-10681
漂	-10682
漏	-10683
漬	-10684
漿	-10685
潘	-10686
潤	-10687
潮	-10688
濕	-10689
濫	-10690
濱	-10691
灌	-10692
灰	-10693
炎	-10694
焚	-10695
煽	-10696
熟	-10697
熬	-10698
燃	-10699
燒	-10700
燙	-10701
燥	-10702
爛	-10703
牠	-10704
牽	-10705
猴	-10706
獵	-10707
玫	-10708
珍	-10709
瑰	-10710
璧	-10711
瓶	-10712
田	-10713
甲	-10714
申	-10715
畸	-10716
疇	-10717
疫	-10718
疾	-10719
症	-10720
痕	-10721
痴	-10722
瘓	-10723
癌	-10724
癱	-10725
盃	-10726
盈	-10727
盜	-10728
盤	-10729
盪	-10730
盲	-10731
盾	-10732
睛	-10733
睡	-10734
瞭	-10735
瞰	-10736
矛	-10737
硫	-10738
碎	-10739
碩	-10740
磁	-10741
磨	-10742
磯	-10743
祀	-10744
祗	-10745
祥	-10746
禍	-10747
禦	-10748
种	-10749
秒	-10750
租	-10751
稍	-10752
稠	-10753
穌	-10754
竭	-10755
端	-10756
筆	-10757
筋	-10758
箋	-10759
箱	-10760
籌	-10761
籍	-10762
籲	-10763
粘	-10764
粹	-10765
糖	-10766
糞	-10767
糧	-10768
糾	-10769
累	-10770
絨	-10771
緒	-10772
緬	-10773
縮	-10774
繆	-10775
繭	-10776
繽	-10777
纜	-10778
耍	-10779
耕	-10780
耗	-10781
联	-10782
聚	-10783
肩	-10784
胃	-10785
胎	-10786
胖	-10787
胞	-10788
胱	-10789
脅	-10790
脖	-10791
腐	-10792
腳	-10793
膀	-10794
臣	-10795
臥	-10796
舌	-10797
舒	-10798
艘	-10799
艱	-10800
芋	-10801
芙	-10802
芝	-10803
芭	-10804
芽	-10805
苗	-10806
若	-10807
范	-10808
茱	-10809
莊	-10810
菩	-10811
董	-10812
葵	-10813
葺	-10814
蓮	-10815
蔑	-10816
蕩	-10817
蕾	-10818
薄	-10819
薪	-10820
藍	-10821
藏	-10822
藹	-10823
蘊	-10824
蘋	-10825
蛹	-10826
蜍	-10827
蜒	-10828
蜜	-10829
蜿	-10830
蝕	-10831
蟾	-10832
蠅	-10833
蠶	-10834
袁	-10835
袖	-10836
裕	-10837
裙	-10838
褲	-10839
襟	-10840
襲	-10841
訟	-10842
誕	-10843
誘	-10844
諡	-10845
諧	-10846
諮	-10847
謠	-10848
謨	-10849
謹	-10850
譴	-10851
豆	-10852
豐	-10853
豪	-10854
豫	-10855
貢	-10856
貶	-10857
貼	-10858
賃	-10859
趕	-10860
跨	-10861
跳	-10862
蹩	-10863
躁	-10864
軒	-10865
載	-10866
輝	-10867
轄	-10868
辛	-10869
辨	-10870
逗	-10871
逮	-10872
遏	-10873
違	-10874
遞	-10875
遣	-10876
遨	-10877
遮	-10878
遲	-10879
遵	-10880
邀	-10881
邏	-10882
邪	-10883
酵	-10884
醉	-10885
醒	-10886
釁	-10887
采	-10888
鈷	-10889
鉛	-10890
鉬	-10891
銥	-10892
鋅	-10893
錘	-10894
錳	-10895
鍍	-10896
鎖	-10897
鎳	-10898
鐳	-10899
鑽	-10900
鑿	-10901
閃	-10902
閏	-10903
閔	-10904
閱	-10905
阱	-10906
陪	-10907
陳	-10908
隕	-10909
隸	-10910
雄	-10911
雕	-10912
雜	-10913
雞	-10914
零	-10915
霾	-10916
靜	-10917
鞭	-10918
韋	-10919
頁	-10920
頂	-10921
頃	-10922
頒	-10923
顫	-10924
飆	-10925
飢	-10926
