<unk>	0
<s>	0
</s>	0
▁在	-0
一個	-1
他們	-2
20	-3
19	-4
▁這	-5
但是	-6
我們	-7
的人	-8
an	-9
他的	-10
可能	-11
已經	-12
ar	-13
以及	-14
工作	-15
公司	-16
美國	-17
201	-18
er	-19
世紀	-20
可以	-21
地區	-22
▁他	-23
沒有	-24
開始	-25
因為	-26
▁但是	-27
政府	-28
自己	-29
英國	-30
電影	-31
00	-32
之後	-33
的一	-34
這些	-35
in	-36
到了	-37
很多	-38
國家	-39
認為	-40
世界	-41
之間	-42
大的	-43
發生	-44
10	-45
其他	-46
影響	-47
部分	-48
18	-49
作為	-50
歷史	-51
獲得	-52
系統	-53
這個	-54
他們的	-55
是一個	-56
一直	-57
來自	-58
包括	-59
同時	-60
大利	-61
on	-62
中國	-63
兩個	-64
其中	-65
如果	-66
成功	-67
成為	-68
投資	-69
方面	-70
最後	-71
決定	-72
的是	-73
第一	-74
進行	-75
200	-76
自己的	-77
使用	-78
年代	-79
建立	-80
戰爭	-81
接受	-82
歐洲	-83
現在	-84
的地	-85
研究	-86
通過	-87
▁我	-88
中的	-89
主要	-90
人的	-91
公元	-92
城市	-93
所有	-94
總統	-95
能夠	-96
許多	-97
這一	-98
需要	-99
en	-100
▁她	-101
不是	-102
之前	-103
了一	-104
來的	-105
區域	-106
導致	-107
提供	-108
時間	-109
班牙	-110
表示	-111
軍隊	-112
非常	-113
西班牙	-114
),	-115
as	-116
ch	-117
”,	-118
▁“	-119
一樣	-120
不同	-121
人們	-122
位於	-123
尼亞	-124
希望	-125
希臘	-126
德國	-127
新的	-128
期間	-129
法國	-130
由於	-131
當時	-132
發展	-133
發現	-134
經濟	-135
羅馬	-136
調查	-137
重要	-138
199	-139
)。	-140
15	-141
or	-142
re	-143
——	-144
▁一	-145
。”	-146
共和	-147
奧斯	-148
政治	-149
是在	-150
特別	-151
第二	-152
公元前	-153
11	-154
il	-155
le	-156
一起	-157
之一	-158
事件	-159
令人	-160
保護	-161
只有	-162
問題	-163
它們	-164
年的	-165
情況	-166
技術	-167
投票	-168
方法	-169
根據	-170
獨立	-171
超過	-172
阿爾	-173
000	-174
▁19	-175
之間的	-176
了一個	-177
16	-178
:“	-179
ri	-180
▁從	-181
什麼	-182
代表	-183
出現	-184
北部	-185
因此	-186
宣布	-187
必須	-188
所以	-189
數據	-190
有人	-191
歐元	-192
水平	-193
藝術	-194
要求	-195
里斯	-196
關於	-197
音樂	-198
mar	-199
大利亞	-200
澳大利亞	-201
12	-202
ro	-203
st	-204
▁但	-205
▁它	-206
▁當	-207
並不	-208
全球	-209
增長	-210
存在	-211
市場	-212
幫助	-213
形成	-214
提出	-215
擁有	-216
斯的	-217
是一	-218
最高	-219
有一	-220
朗普	-221
條約	-222
活動	-223
生活	-224
用於	-225
發布	-226
看到	-227
系列	-228
統治	-229
而且	-230
自由	-231
行的	-232
計劃	-233
進入	-234
選舉	-235
隨後	-236
顯示	-237
特朗普	-238
▁201	-239
14	-240
60	-241
at	-242
el	-243
ti	-244
”。	-245
▁另	-246
▁對	-247
▁該	-248
上的	-249
中海	-250
了他	-251
任何	-252
例如	-253
信息	-254
協議	-255
南部	-256
原因	-257
合作	-258
國際	-259
天皇	-260
學生	-261
安全	-262
帝國	-263
幾乎	-264
控制	-265
故事	-266
明顯	-267
是否	-268
期的	-269
殖民	-270
比賽	-271
為了	-272
目前	-273
目標	-274
社會	-275
管理	-276
聯邦	-277
至少	-278
行動	-279
說道	-280
通常	-281
還是	-282
關係	-283
▁他們	-284
13	-285
30	-286
50	-287
al	-288
am	-289
et	-290
一些	-291
不可	-292
不會	-293
主義	-294
他在	-295
以前	-296
來說	-297
來越	-298
個月	-299
價格	-300
內的	-301
共同	-302
加勒	-303
告訴	-304
土地	-305
大量	-306
大陸	-307
她的	-308
妻子	-309
孩子	-310
學家	-311
學習	-312
實際	-313
平均	-314
應該	-315
持續	-316
挑戰	-317
擔任	-318
改變	-319
整個	-320
時候	-321
最終	-322
會在	-323
有所	-324
有關	-325
朋友	-326
氣候	-327
無法	-328
現代	-329
甚至	-330
的新	-331
的話	-332
的那	-333
直接	-334
稱為	-335
組成	-336
繼續	-337
美洲	-338
自然	-339
行為	-340
解釋	-341
設計	-342
資源	-343
這種	-344
都是	-345
離開	-346
革命	-347
飛機	-348
▁根據	-349
並沒有	-350
加勒比	-351
地中海	-352
大部分	-353
意大利	-354
有可能	-355
的地方	-356
越來越	-357
av	-358
co	-359
th	-360
▁不	-361
▁那	-362
》(	-363
不斷	-364
人口	-365
人員	-366
人在	-367
伊斯	-368
似乎	-369
傳統	-370
其頓	-371
具有	-372
出演	-373
出生	-374
創作	-375
十年	-376
參與	-377
同樣	-378
名字	-379
埃及	-380
基礎	-381
增加	-382
好的	-383
學校	-384
完全	-385
宗教	-386
導演	-387
就是	-388
屬於	-389
山脈	-390
帶來	-391
建議	-392
應用	-393
手機	-394
拉斯	-395
支持	-396
教堂	-397
時代	-398
歌曲	-399
正在	-400
民族	-401
汽車	-402
法律	-403
產生	-404
相關	-405
知道	-406
程度	-407
第三	-408
航空	-409
衝突	-410
變得	-411
責任	-412
這是	-413
這樣	-414
那裡	-415
附近	-416
隨著	-417
難以	-418
領導	-419
香港	-420
馬克	-421
and	-422
▁如果	-423
▁我們	-424
▁這個	-425
公司的	-426
共和黨	-427
奧斯曼	-428
獲得了	-429
的影響	-430
第一次	-431
馬其頓	-432
,”	-433
17	-434
70	-435
ay	-436
di	-437
is	-438
la	-439
uc	-440
▁大	-441
▁據	-442
▁此	-443
》。	-444
並且	-445
佔據	-446
作品	-447
債券	-448
兄弟	-449
全國	-450
再次	-451
出了	-452
分析	-453
利亞	-454
加拿	-455
北京	-456
十分	-457
印度	-458
和平	-459
商業	-460
國王	-461
報告	-462
多的	-463
大學	-464
如此	-465
島嶼	-466
巴黎	-467
幾個	-468
建築	-469
性的	-470
感到	-471
成了	-472
或者	-473
戲劇	-474
扮演	-475
拒絕	-476
放棄	-477
教育	-478
斯頓	-479
日本	-480
最近	-481
會議	-482
服務	-483
格蘭	-484
權力	-485
每個	-486
環境	-487
的事	-488
的機	-489
相似	-490
破產	-491
組織	-492
結束	-493
經常	-494
維亞	-495
羅娜	-496
羅斯	-497
美元	-498
能力	-499
英鎊	-500
製造	-501
試圖	-502
警方	-503
變化	-504
負責	-505
貿易	-506
賬戶	-507
起了	-508
起來	-509
選擇	-510
邊境	-511
那些	-512
部長	-513
部隊	-514
降低	-515
雷斯	-516
非洲	-517
預測	-518
ber	-519
▁18	-520
▁由於	-521
▁這些	-522
▁這次	-523
克里斯	-524
和其他	-525
國家的	-526
成為了	-527
有一個	-528
的原因	-529
該地區	-530
適用於	-531
,000	-532
加勒比海	-533
西班牙語	-534
28	-535
3%	-536
33	-537
ad	-538
bc	-539
lo	-540
ma	-541
nn	-542
ru	-543
▁希	-544
▁後	-545
》,	-546
一世	-547
一位	-548
一次	-549
不得	-550
丹麥	-551
人類	-552
他和	-553
代理	-554
以來	-555
件事	-556
但在	-557
住在	-558
俄國	-559
保持	-560
修道	-561
候選	-562
倫敦	-563
值得	-564
健康	-565
元素	-566
先生	-567
克斯	-568
入了	-569
公園	-570
公眾	-571
冠軍	-572
出版	-573
分別	-574
利用	-575
力量	-576
動物	-577
勝利	-578
協會	-579
危機	-580
參加	-581
反對	-582
取得	-583
同盟	-584
員會	-585
唐納	-586
喜歡	-587
回到	-588
地產	-589
地面	-590
城鎮	-591
基督	-592
基金	-593
墨西	-594
多數	-595
天的	-596
女兒	-597
女士	-598
媒體	-599
家庭	-600
專輯	-601
就會	-602
展示	-603
工具	-604
工業	-605
年輕	-606
強調	-607
征服	-608
從未	-609
德里	-610
想法	-611
意義	-612
戰役	-613
才能	-614
承擔	-615
指揮	-616
接下	-617
描述	-618
摩拉	-619
文化	-620
文明	-621
明了	-622
時的	-623
智能	-624
最大	-625
東西	-626
板塊	-627
根本	-628
植物	-629
權利	-630
民主	-631
沙漠	-632
河流	-633
海岸	-634
清朝	-635
減少	-636
的	-637
,	-638
▁	-639
。	-640
在	-641
了	-642
一	-643
是	-644
他	-645
人	-646
1	-647
有	-648
年	-649
0	-650
和	-651
為	-652
國	-653
這	-654
中	-655
個	-656
大	-657
a	-658
們	-659
不	-660
斯	-661
地	-662
於	-663
e	-664
r	-665
來	-666
n	-667
時	-668
會	-669
以	-670
2	-671
(	-672
)	-673
後	-674
i	-675
能	-676
爾	-677
上	-678
到	-679
之	-680
發	-681
9	-682
多	-683
對	-684
o	-685
作	-686
·	-687
其	-688
被	-689
但	-690
可	-691
我	-692
成	-693
法	-694
生	-695
出	-696
_	-697
用	-698
部	-699
公	-700
最	-701
t	-702
s	-703
特	-704
要	-705
自	-706
前	-707
、	-708
利	-709
行	-710
月	-711
3	-712
家	-713
說	-714
c	-715
”	-716
分	-717
區	-718
l	-719
世	-720
拉	-721
“	-722
過	-723
並	-724
而	-725
方	-726
經	-727
西	-728
克	-729
得	-730
5	-731
同	-732
工	-733
也	-734
亞	-735
現	-736
當	-737
美	-738
因	-739
她	-740
學	-741
就	-742
所	-743
開	-744
海	-745
德	-746
代	-747
加	-748
很	-749
及	-750
如	-751
間	-752
下	-753
戰	-754
m	-755
些	-756
次	-757
那	-758
8	-759
事	-760
位	-761
羅	-762
d	-763
內	-764
從	-765
政	-766
與	-767
進	-768
都	-769
主	-770
民	-771
統	-772
6	-773
它	-774
者	-775
著	-776
天	-777
已	-778
影	-779
新	-780
期	-781
表	-782
該	-783
尼	-784
日	-785
面	-786
馬	-787
第	-788
還	-789
兩	-790
電	-791
7	-792
動	-793
機	-794
立	-795
里	-796
關	-797
高	-798
4	-799
《	-800
》	-801
子	-802
道	-803
布	-804
建	-805
格	-806
比	-807
由	-808
安	-809
數	-810
本	-811
此	-812
理	-813
約	-814
h	-815
元	-816
力	-817
場	-818
定	-819
市	-820
希	-821
至	-822
b	-823
將	-824
接	-825
使	-826
全	-827
英	-828
起	-829
選	-830
十	-831
通	-832
達	-833
長	-834
受	-835
巴	-836
常	-837
平	-838
明	-839
種	-840
南	-841
據	-842
議	-843
軍	-844
g	-845
任	-846
名	-847
投	-848
樣	-849
演	-850
u	-851
意	-852
教	-853
業	-854
洲	-855
變	-856
資	-857
奧	-858
導	-859
然	-860
總	-861
保	-862
卡	-863
合	-864
提	-865
歐	-866
沒	-867
紀	-868
蘭	-869
三	-870
司	-871
治	-872
直	-873
信	-874
北	-875
員	-876
外	-877
小	-878
少	-879
普	-880
更	-881
產	-882
相	-883
阿	-884
度	-885
手	-886
水	-887
示	-888
系	-889
裡	-890
解	-891
重	-892
入	-893
城	-894
展	-895
文	-896
目	-897
認	-898
隊	-899
件	-900
好	-901
實	-902
性	-903
界	-904
非	-905
去	-906
史	-907
回	-908
女	-909
化	-910
始	-911
把	-912
無	-913
爭	-914
物	-915
術	-916
p	-917
共	-918
向	-919
告	-920
報	-921
島	-922
正	-923
看	-924
稱	-925
處	-926
量	-927
y	-928
基	-929
府	-930
情	-931
果	-932
根	-933
歷	-934
河	-935
科	-936
讓	-937
k	-938
山	-939
己	-940
幾	-941
心	-942
片	-943
獲	-944
計	-945
許	-946
論	-947
賽	-948
頓	-949
—	-950
助	-951
只	-952
士	-953
想	-954
持	-955
未	-956
標	-957
氣	-958
活	-959
聯	-960
近	-961
體	-962
二	-963
令	-964
制	-965
劇	-966
放	-967
權	-968
決	-969
程	-970
言	-971
金	-972
顯	-973
黨	-974
;	-975
別	-976
品	-977
應	-978
查	-979
致	-980
運	-981
需	-982
領	-983
f	-984
且	-985
夫	-986
或	-987
指	-988
樂	-989
每	-990
維	-991
薩	-992
費	-993
隨	-994
響	-995
項	-996
首	-997
:	-998
低	-999
候	-1000
包	-1001
協	-1002
圖	-1003
土	-1004
括	-1005
源	-1006
皇	-1007
管	-1008
給	-1009
見	-1010
調	-1011
越	-1012
雷	-1013
麼	-1014
.	-1015
v	-1016
原	-1017
古	-1018
命	-1019
四	-1020
增	-1021
東	-1022
林	-1023
求	-1024
球	-1025
納	-1026
製	-1027
語	-1028
院	-1029
離	-1030
點	-1031
%	-1032
供	-1033
倫	-1034
口	-1035
問	-1036
帶	-1037
息	-1038
擔	-1039
收	-1040
望	-1041
條	-1042
極	-1043
票	-1044
超	-1045
預	-1046
-	-1047
伊	-1048
伯	-1049
傳	-1050
像	-1051
兒	-1052
六	-1053
具	-1054
功	-1055
域	-1056
夠	-1057
太	-1058
字	-1059
州	-1060
形	-1061
獨	-1062
班	-1063
眾	-1064
研	-1065
破	-1066
確	-1067
舉	-1068
設	-1069
諾	-1070
警	-1071
造	-1072
際	-1073
勒	-1074
參	-1075
取	-1076
型	-1077
塞	-1078
宣	-1079
控	-1080
易	-1081
牙	-1082
究	-1083
續	-1084
義	-1085
萬	-1086
視	-1087
記	-1088
車	-1089
迪	-1090
邊	-1091
頭	-1092
題	-1093
z	-1094
乎	-1095
務	-1096
印	-1097
另	-1098
均	-1099
寫	-1100
局	-1101
托	-1102
技	-1103
朝	-1104
死	-1105
溫	-1106
空	-1107
節	-1108
組	-1109
結	-1110
色	-1111
角	-1112
除	-1113
音	-1114
五	-1115
似	-1116
你	-1117
例	-1118
威	-1119
季	-1120
完	-1121
客	-1122
引	-1123
打	-1124
拿	-1125
支	-1126
族	-1127
曼	-1128
曾	-1129
濟	-1130
知	-1131
社	-1132
蒂	-1133
證	-1134
護	-1135
週	-1136
住	-1137
做	-1138
僅	-1139
先	-1140
再	-1141
則	-1142
友	-1143
反	-1144
埃	-1145
塔	-1146
密	-1147
強	-1148
必	-1149
戶	-1150
摩	-1151
擊	-1152
改	-1153
早	-1154
曲	-1155
服	-1156
朗	-1157
歌	-1158
殺	-1159
流	-1160
王	-1161
瑪	-1162
聖	-1163
萊	-1164
話	-1165
責	-1166
邦	-1167
集	-1168
?	-1169
何	-1170
備	-1171
吉	-1172
哥	-1173
境	-1174
存	-1175
往	-1176
愛	-1177
感	-1178
才	-1179
況	-1180
洛	-1181
派	-1182
澳	-1183
率	-1184
盟	-1185
臘	-1186
華	-1187
觀	-1188
評	-1189
路	-1190
轉	-1191
遠	-1192
降	-1193
風	-1194
麥	-1195
w	-1196
丁	-1197
交	-1198
什	-1199
份	-1200
佔	-1201
價	-1202
典	-1203
列	-1204
創	-1205
勢	-1206
單	-1207
堡	-1208
娜	-1209
孩	-1210
官	-1211
帝	-1212
廣	-1213
推	-1214
故	-1215
效	-1216
波	-1217
消	-1218
深	-1219
滿	-1220
激	-1221
石	-1222
老	-1223
藝	-1224
難	-1225
飛	-1226
j	-1227
七	-1228
丹	-1229
仍	-1230
俄	-1231
修	-1232
劃	-1233
博	-1234
台	-1235
各	-1236
否	-1237
商	-1238
失	-1239
奇	-1240
居	-1241
屬	-1242
席	-1243
承	-1244
斷	-1245
止	-1246
清	-1247
火	-1248
爵	-1249
白	-1250
突	-1251
米	-1252
終	-1253
絕	-1254
網	-1255
貝	-1256
遊	-1257
限	-1258
革	-1259
億	-1260
優	-1261
凱	-1262
升	-1263
即	-1264
姆	-1265
專	-1266
座	-1267
式	-1268
張	-1269
態	-1270
戲	-1271
找	-1272
擁	-1273
施	-1274
案	-1275
步	-1276
沙	-1277
測	-1278
準	-1279
版	-1280
獎	-1281
瑞	-1282
環	-1283
瓦	-1284
百	-1285
移	-1286
穿	-1287
等	-1288
繼	-1289
缺	-1290
習	-1291
船	-1292
訴	-1293
負	-1294
身	-1295
較	-1296
適	-1297
釋	-1298
防	-1299
雅	-1300
須	-1301
類	-1302
鬥	-1303
充	-1304
初	-1305
呼	-1306
哈	-1307
夏	-1308
害	-1309
容	-1310
察	-1311
帕	-1312
幫	-1313
律	-1314
挑	-1315
整	-1316
暴	-1317
書	-1318
歡	-1319
歲	-1320
殖	-1321
減	-1322
港	-1323
男	-1324
略	-1325
疑	-1326
省	-1327
站	-1328
緊	-1329
群	-1330
育	-1331
舊	-1332
花	-1333
試	-1334
象	-1335
輕	-1336
農	-1337
追	-1338
銀	-1339
陸	-1340
露	-1341
願	-1342
魚	-1343
依	-1344
係	-1345
值	-1346
停	-1347
兵	-1348
勝	-1349
周	-1350
喜	-1351
圍	-1352
底	-1353
庭	-1354
康	-1355
弗	-1356
快	-1357
恩	-1358
房	-1359
抗	-1360
排	-1361
撒	-1362
料	-1363
校	-1364
梅	-1365
毀	-1366
母	-1367
注	-1368
甚	-1369
登	-1370
益	-1371
督	-1372
礦	-1373
精	-1374
素	-1375
線	-1376
織	-1377
聲	-1378
職	-1379
菲	-1380
蒙	-1381
蘇	-1382
訪	-1383
足	-1384
遺	-1385
鎮	-1386
鐵	-1387
附	-1388
額	-1389
香	-1390
"	-1391
á	-1392
京	-1393
今	-1394
債	-1395
冬	-1396
半	-1397
卻	-1398
又	-1399
含	-1400
吸	-1401
喬	-1402
嚴	-1403
園	-1404
塊	-1405
妻	-1406
婚	-1407
宗	-1408
室	-1409
層	-1410
岸	-1411
弟	-1412
復	-1413
徵	-1414
戴	-1415
敦	-1416
朋	-1417
木	-1418
植	-1419
構	-1420
模	-1421
款	-1422
汽	-1423
洋	-1424
熱	-1425
留	-1426
真	-1427
積	-1428
簽	-1429
索	-1430
興	-1431
艾	-1432
茨	-1433
落	-1434
號	-1435
衝	-1436
補	-1437
規	-1438
親	-1439
討	-1440
識	-1441
質	-1442
跟	-1443
述	-1444
退	-1445
遜	-1446
邁	-1447
酒	-1448
醫	-1449
食	-1450
餘	-1451
麗	-1452
互	-1453
付	-1454
便	-1455
傷	-1456
券	-1457
唱	-1458
團	-1459
堂	-1460
墨	-1461
契	-1462
尋	-1463
巨	-1464
征	-1465
思	-1466
批	-1467
採	-1468
揮	-1469
撤	-1470
攻	-1471
束	-1472
某	-1473
棄	-1474
森	-1475
歸	-1476
泰	-1477
滅	-1478
礎	-1479
神	-1480
福	-1481
競	-1482
級	-1483
績	-1484
置	-1485
考	-1486
聞	-1487
肯	-1488
脈	-1489
航	-1490
衛	-1491
覺	-1492
訂	-1493
賬	-1494
赫	-1495
走	-1496
輯	-1497
辦	-1498
迫	-1499
逐	-1500
野	-1501
錄	-1502
靈	-1503
驗	-1504
魯	-1505
黎	-1506
£	-1507
久	-1508
乾	-1509
亂	-1510
予	-1511
亡	-1512
佛	-1513
健	-1514
傑	-1515
兄	-1516
刻	-1517
千	-1518
危	-1519
善	-1520
坐	-1521
壓	-1522
壞	-1523
守	-1524
審	-1525
嶼	-1526
師	-1527
幅	-1528
念	-1529
恐	-1530
惡	-1531
慶	-1532
扮	-1533
拒	-1534
描	-1535
擇	-1536
敗	-1537
敵	-1538
旅	-1539
星	-1540
智	-1541
析	-1542
概	-1543
油	-1544
烈	-1545
照	-1546
猶	-1547
畫	-1548
瘤	-1549
療	-1550
監	-1551
私	-1552
童	-1553
築	-1554
細	-1555
絲	-1556
練	-1557
耳	-1558
般	-1559
芬	-1560
莉	-1561
莎	-1562
莫	-1563
藉	-1564
訓	-1565
谷	-1566
財	-1567
貿	-1568
賴	-1569
贏	-1570
返	-1571
途	-1572
釙	-1573
鎊	-1574
門	-1575
隆	-1576
雨	-1577
靠	-1578
驚	-1579
黃	-1580
默	-1581
丶	-1582
乘	-1583
九	-1584
休	-1585
估	-1586
佈	-1587
佳	-1588
侵	-1589
假	-1590
光	-1591
冊	-1592
冠	-1593
冰	-1594
剛	-1595
匹	-1596
占	-1597
叛	-1598
哪	-1599
唐	-1600
嗎	-1601
器	-1602
執	-1603
壇	-1604
奈	-1605
媒	-1606
尤	-1607
峽	-1608
差	-1609
幸	-1610
庫	-1611
廢	-1612
役	-1613
待	-1614
徒	-1615
微	-1616
抱	-1617
抵	-1618
拍	-1619
授	-1620
探	-1621
揭	-1622
擴	-1623
春	-1624
晚	-1625
景	-1626
板	-1627
染	-1628
檢	-1629
武	-1630
沃	-1631
湖	-1632
漠	-1633
漢	-1634
漫	-1635
漲	-1636
漸	-1637
狂	-1638
瑟	-1639
病	-1640
皮	-1641
盛	-1642
眼	-1643
碑	-1644
碳	-1645
穩	-1646
章	-1647
笑	-1648
算	-1649
簡	-1650
紅	-1651
緩	-1652
罪	-1653
罰	-1654
署	-1655
耶	-1656
腫	-1657
臨	-1658
葉	-1659
血	-1660
街	-1661
裂	-1662
裔	-1663
裝	-1664
誰	-1665
講	-1666
趣	-1667
跡	-1668
連	-1669
遭	-1670
避	-1671
郵	-1672
錢	-1673
雖	-1674
霍	-1675
順	-1676
龍	-1677
ü	-1678
乏	-1679
亨	-1680
企	-1681
佐	-1682
佩	-1683
偶	-1684
儘	-1685
儲	-1686
允	-1687
八	-1688
冷	-1689
切	-1690
勞	-1691
勵	-1692
午	-1693
卑	-1694
味	-1695
售	-1696
喀	-1697
困	-1698
坦	-1699
培	-1700
堅	-1701
夢	-1702
妥	-1703
委	-1704
寶	-1705
封	-1706
岡	-1707
岩	-1708
巧	-1709
幻	-1710
志	-1711
怎	-1712
您	-1713
戈	-1714
截	-1715
拔	-1716
拜	-1717
捕	-1718
搬	-1719
播	-1720
暗	-1721
曆	-1722
替	-1723
末	-1724
柯	-1725
棒	-1726
棲	-1727
榮	-1728
段	-1729
永	-1730
污	-1731
沈	-1732
沉	-1733
沿	-1734
溯	-1735
炸	-1736
烏	-1737
煩	-1738
燈	-1739
爆	-1740
牌	-1741
牢	-1742
犯	-1743
狀	-1744
畢	-1745
異	-1746
短	-1747
祖	-1748
禁	-1749
秘	-1750
穀	-1751
符	-1752
答	-1753
糊	-1754
綠	-1755
緣	-1756
繫	-1757
翰	-1758
翼	-1759
肺	-1760
脫	-1761
良	-1762
茲	-1763
荷	-1764
葛	-1765
葬	-1766
蓋	-1767
裁	-1768
觸	-1769
詞	-1770
課	-1771
談	-1772
請	-1773
諸	-1774
讀	-1775
賓	-1776
賞	-1777
購	-1778
踪	-1779
輸	-1780
速	-1781
遇	-1782
遷	-1783
配	-1784
針	-1785
銅	-1786
銷	-1787
錯	-1788
鍵	-1789
鐘	-1790
阻	-1791
障	-1792
青	-1793
顏	-1794
飲	-1795
髮	-1796
鮮	-1797
鴉	-1798
$	-1799
乃	-1800
享	-1801
仰	-1802
伐	-1803
侶	-1804
免	-1805
刺	-1806
削	-1807
割	-1808
努	-1809
勳	-1810
匈	-1811
吞	-1812
嘉	-1813
坎	-1814
埋	-1815
堪	-1816
塑	-1817
塵	-1818
壤	-1819
央	-1820
妙	-1821
妹	-1822
婦	-1823
媽	-1824
嫌	-1825
嬰	-1826
孕	-1827
宜	-1828
富	-1829
峰	-1830
巫	-1831
幣	-1832
干	-1833
幹	-1834
序	-1835
廈	-1836
延	-1837
弱	-1838
彈	-1839
彩	-1840
徑	-1841
徹	-1842
怖	-1843
怪	-1844
恰	-1845
憂	-1846
扎	-1847
捷	-1848
掉	-1849
掌	-1850
措	-1851
揚	-1852
損	-1853
摧	-1854
擬	-1855
擾	-1856
旁	-1857
旱	-1858
昂	-1859
暫	-1860
朱	-1861
李	-1862
材	-1863
柴	-1864
核	-1865
桑	-1866
棕	-1867
楚	-1868
樓	-1869
樹	-1870
欺	-1871
殊	-1872
汗	-1873
池	-1874
洗	-1875
浮	-1876
涯	-1877
混	-1878
湯	-1879
灣	-1880
災	-1881
父	-1882
牛	-1883
牧	-1884
獻	-1885
瘋	-1886
皈	-1887
碼	-1888
礁	-1889
祭	-1890
禮	-1891
秀	-1892
稅	-1893
稿	-1894
竟	-1895
策	-1896
範	-1897
粒	-1898
糕	-1899
糟	-1900
紙	-1901
絡	-1902
編	-1903
罕	-1904
聽	-1905
股	-1906
肥	-1907
背	-1908
腦	-1909
茉	-1910
草	-1911
荒	-1912
蓄	-1913
藥	-1914
蛋	-1915
複	-1916
覽	-1917
訥	-1918
詩	-1919
詹	-1920
誤	-1921
誼	-1922
讚	-1923
豬	-1924
貌	-1925
貨	-1926
貴	-1927
買	-1928
貸	-1929
賣	-1930
贊	-1931
趨	-1932
輪	-1933
轟	-1934
辭	-1935
迷	-1936
送	-1937
遍	-1938
郡	-1939
鄰	-1940
銜	-1941
錦	-1942
鏈	-1943
鏡	-1944
閒	-1945
陽	-1946
階	-1947
隔	-1948
險	-1949
隻	-1950
雲	-1951
震	-1952
頻	-1953
顆	-1954
顧	-1955
養	-1956
館	-1957
騎	-1958
鬆	-1959
鬧	-1960
鮑	-1961
麻	-1962
黑	-1963
鼓	-1964
龐	-1965
/	-1966
ä	-1967
丘	-1968
丟	-1969
串	-1970
么	-1971
亦	-1972
亮	-1973
促	-1974
借	-1975
偉	-1976
偏	-1977
傻	-1978
傾	-1979
償	-1980
兼	-1981
凳	-1982
刑	-1983
判	-1984
剩	-1985
副	-1986
劍	-1987
募	-1988
匯	-1989
卜	-1990
厭	-1991
叫	-1992
右	-1993
君	-1994
吹	-1995
哭	-1996
喪	-1997
嘗	-1998
噁	-1999
固	-2000
墓	-2001
墜	-2002
墟	-2003
夜	-2004
奏	-2005
奠	-2006
奢	-2007
奪	-2008
姍	-2009
娛	-2010
婷	-2011
嫁	-2012
寒	-2013
寓	-2014
寡	-2015
寧	-2016
射	-2017
尚	-2018
尾	-2019
屆	-2020
崔	-2021
崗	-2022
崙	-2023
嶄	-2024
川	-2025
左	-2026
帆	-2027
帖	-2028
床	-2029
廉	-2030
廠	-2031
廳	-2032
廷	-2033
彼	-2034
忘	-2035
忙	-2036
忠	-2037
忽	-2038
怒	-2039
怕	-2040
急	-2041
惑	-2042
愚	-2043
慢	-2044
慣	-2045
慮	-2046
憾	-2047
懷	-2048
扭	-2049
折	-2050
按	-2051
挪	-2052
捐	-2053
搖	-2054
撰	-2055
擋	-2056
操	-2057
擺	-2058
救	-2059
敲	-2060
暖	-2061
村	-2062
杯	-2063
枝	-2064
架	-2065
柏	-2066
榜	-2067
橋	-2068
橫	-2069
櫚	-2070
歧	-2071
殿	-2072
毛	-2073
氧	-2074
沖	-2075
泣	-2076
泥	-2077
涉	-2078
液	-2079
涵	-2080
淡	-2081
淤	-2082
添	-2083
滴	-2084
潛	-2085
煙	-2086
煤	-2087
營	-2088
牆	-2089
猜	-2090
獸	-2091
玩	-2092
珠	-2093
琳	-2094
琴	-2095
瑙	-2096
疏	-2097
疼	-2098
痛	-2099
盔	-2100
盧	-2101
矽	-2102
砲	-2103
硬	-2104
碰	-2105
礙	-2106
祈	-2107
祝	-2108
禱	-2109
秋	-2110
穆	-2111
窄	-2112
箭	-2113
篇	-2114
粉	-2115
紐	-2116
紛	-2117
紡	-2118
縱	-2119
繁	-2120
繞	-2121
翻	-2122
聊	-2123
聘	-2124
肖	-2125
胡	-2126
脆	-2127
腓	-2128
臉	-2129
舞	-2130
舟	-2131
艦	-2132
芳	-2133
茵	-2134
萄	-2135
葡	-2136
蕉	-2137
虔	-2138
蜂	-2139
融	-2140
蠢	-2141
衡	-2142
衣	-2143
衰	-2144
裸	-2145
覆	-2146
訊	-2147
託	-2148
訝	-2149
註	-2150
詐	-2151
詢	-2152
詳	-2153
誌	-2154
誓	-2155
誠	-2156
誡	-2157
諷	-2158
謀	-2159
謂	-2160
謙	-2161
譽	-2162
賀	-2163
賠	-2164
賺	-2165
赤	-2166
赦	-2167
跑	-2168
蹟	-2169
躍	-2170
軟	-2171
輔	-2172
迎	-2173
迦	-2174
迴	-2175
逃	-2176
透	-2177
逛	-2178
逝	-2179
遼	-2180
鄉	-2181
酸	-2182
醜	-2183
鋼	-2184
錫	-2185
鑑	-2186
閉	-2187
閣	-2188
闊	-2189
陶	-2190
陷	-2191
雀	-2192
雪	-2193
霧	-2194
霸	-2195
鞋	-2196
韓	-2197
飽	-2198
餐	-2199
駁	-2200
駛	-2201
驅	-2202
魁	-2203
鱈	-2204
鷹	-2205
麽	-2206
齊	-2207
'	-2208
q	-2209
é	-2210
î	-2211
ñ	-2212
ó	-2213
ö	-2214
α	-2215
‘	-2216
’	-2217
•	-2218
丈	-2219
丑	-2220
丸	-2221
乞	-2222
云	-2223
亥	-2224
仁	-2225
仔	-2226
仙	-2227
伍	-2228
伏	-2229
伸	-2230
伽	-2231
併	-2232
侄	-2233
侈	-2234
俗	-2235
俯	-2236
俱	-2237
倉	-2238
倍	-2239
倒	-2240
倖	-2241
偷	-2242
傲	-2243
僱	-2244
儀	-2245
兇	-2246
兔	-2247
冕	-2248
冶	-2249
准	-2250
凌	-2251
凍	-2252
凜	-2253
凡	-2254
刁	-2255
刊	-2256
刷	-2257
剔	-2258
劣	-2259
勃	-2260
勉	-2261
勤	-2262
勿	-2263
匆	-2264
匠	-2265
卸	-2266
厩	-2267
厲	-2268
叢	-2269
召	-2270
吧	-2271
吼	-2272
呂	-2273
呆	-2274
呢	-2275
咎	-2276
哨	-2277
唯	-2278
啟	-2279
啤	-2280
嗆	-2281
嘲	-2282
嘿	-2283
噪	-2284
噬	-2285
噴	-2286
噸	-2287
圓	-2288
圳	-2289
圾	-2290
址	-2291
垃	-2292
堆	-2293
堵	-2294
塚	-2295
塢	-2296
墊	-2297
墮	-2298
墳	-2299
墾	-2300
壘	-2301
壯	-2302
奉	-2303
奎	-2304
奔	-2305
套	-2306
奴	-2307
妮	-2308
姓	-2309
姦	-2310
姨	-2311
姬	-2312
娶	-2313
婭	-2314
孚	-2315
孤	-2316
宇	-2317
宙	-2318
宛	-2319
寂	-2320
寞	-2321
寬	-2322
寵	-2323
寸	-2324
尊	-2325
尖	-2326
尬	-2327
尷	-2328
尺	-2329
屁	-2330
屋	-2331
屍	-2332
屏	-2333
峙	-2334
崇	-2335
嵌	-2336
巔	-2337
巡	-2338
巾	-2339
帳	-2340
帽	-2341
幢	-2342
庇	-2343
店	-2344
庸	-2345
廊	-2346
彌	-2347
徐	-2348
徙	-2349
御	-2350
怠	-2351
怨	-2352
恢	-2353
恭	-2354
悔	-2355
悖	-2356
患	-2357
悶	-2358
惠	-2359
惱	-2360
愍	-2361
慈	-2362
慌	-2363
慎	-2364
慰	-2365
慾	-2366
憑	-2367
憤	-2368
憲	-2369
憶	-2370
懂	-2371
懣	-2372
懲	-2373
懸	-2374
懼	-2375
懾	-2376
戚	-2377
戮	-2378
扣	-2379
抓	-2380
抖	-2381
抹	-2382
拂	-2383
拆	-2384
招	-2385
拯	-2386
拱	-2387
拼	-2388
挫	-2389
挺	-2390
挽	-2391
掀	-2392
掃	-2393
掘	-2394
掙	-2395
掛	-2396
換	-2397
握	-2398
搏	-2399
撈	-2400
撞	-2401
擯	-2402
攔	-2403
攝	-2404
敖	-2405
散	-2406
敬	-2407
斗	-2408
斜	-2409
斥	-2410
旦	-2411
映	-2412
昨	-2413
昭	-2414
晉	-2415
晨	-2416
晰	-2417
曉	-2418
曝	-2419
朵	-2420
朽	-2421
杉	-2422
杭	-2423
杰	-2424
枯	-2425
柔	-2426
柳	-2427
柵	-2428
框	-2429
桌	-2430
梯	-2431
械	-2432
梵	-2433
棉	-2434
棍	-2435
棵	-2436
榔	-2437
槌	-2438
槍	-2439
樑	-2440
樞	-2441
橄	-2442
檯	-2443
檳	-2444
櫃	-2445
欄	-2446
欖	-2447
欠	-2448
欣	-2449
欽	-2450
歇	-2451
殲	-2452
殼	-2453
毅	-2454
毒	-2455
毫	-2456
氟	-2457
氫	-2458
氾	-2459
汀	-2460
汴	-2461
沌	-2462
沮	-2463
泉	-2464
洞	-2465
津	-2466
洪	-2467
洶	-2468
浪	-2469
浴	-2470
涸	-2471
淚	-2472
淪	-2473
淺	-2474
渴	-2475
湊	-2476
湧	-2477
溉	-2478
溢	-2479
溶	-2480
滋	-2481
滑	-2482
滯	-2483
漂	-2484
漏	-2485
漬	-2486
漿	-2487
潘	-2488
潤	-2489
潮	-2490
濕	-2491
濫	-2492
濱	-2493
灌	-2494
灰	-2495
炎	-2496
焚	-2497
煽	-2498
熟	-2499
熬	-2500
燃	-2501
燒	-2502
燙	-2503
燥	-2504
爛	-2505
牠	-2506
牽	-2507
猴	-2508
獵	-2509
玫	-2510
珍	-2511
瑰	-2512
璧	-2513
瓶	-2514
田	-2515
甲	-2516
申	-2517
畸	-2518
疇	-2519
疫	-2520
疾	-2521
症	-2522
痕	-2523
痴	-2524
瘓	-2525
癌	-2526
癱	-2527
盃	-2528
盈	-2529
盜	-2530
盤	-2531
盪	-2532
盲	-2533
盾	-2534
睛	-2535
睡	-2536
瞭	-2537
瞰	-2538
矛	-2539
硫	-2540
碎	-2541
碩	-2542
磁	-2543
磨	-2544
磯	-2545
祀	-2546
祗	-2547
祥	-2548
禍	-2549
禦	-2550
种	-2551
秒	-2552
租	-2553
稍	-2554
稠	-2555
穌	-2556
竭	-2557
端	-2558
筆	-2559
筋	-2560
箋	-2561
箱	-2562
籌	-2563
籍	-2564
籲	-2565
粘	-2566
粹	-2567
糖	-2568
糞	-2569
糧	-2570
糾	-2571
累	-2572
絨	-2573
緒	-2574
緬	-2575
縮	-2576
繆	-2577
繭	-2578
繽	-2579
纜	-2580
耍	-2581
耕	-2582
耗	-2583
联	-2584
聚	-2585
肩	-2586
胃	-2587
胎	-2588
胖	-2589
胞	-2590
胱	-2591
脅	-2592
脖	-2593
腐	-2594
腳	-2595
膀	-2596
臣	-2597
臥	-2598
舌	-2599
舒	-2600
艘	-2601
艱	-2602
芋	-2603
芙	-2604
芝	-2605
芭	-2606
芽	-2607
苗	-2608
若	-2609
范	-2610
茱	-2611
莊	-2612
菩	-2613
董	-2614
葵	-2615
葺	-2616
蓮	-2617
蔑	-2618
蕩	-2619
蕾	-2620
薄	-2621
薪	-2622
藍	-2623
藏	-2624
藹	-2625
蘊	-2626
蘋	-2627
蛹	-2628
蜍	-2629
蜒	-2630
蜜	-2631
蜿	-2632
蝕	-2633
蟾	-2634
蠅	-2635
蠶	-2636
袁	-2637
袖	-2638
裕	-2639
裙	-2640
褲	-2641
襟	-2642
襲	-2643
訟	-2644
誕	-2645
誘	-2646
諡	-2647
諧	-2648
諮	-2649
謠	-2650
謨	-2651
謹	-2652
譴	-2653
豆	-2654
豐	-2655
豪	-2656
豫	-2657
貢	-2658
貶	-2659
貼	-2660
賃	-2661
趕	-2662
跨	-2663
跳	-2664
蹩	-2665
躁	-2666
軒	-2667
載	-2668
輝	-2669
轄	-2670
辛	-2671
辨	-2672
逗	-2673
逮	-2674
遏	-2675
違	-2676
遞	-2677
遣	-2678
遨	-2679
遮	-2680
遲	-2681
遵	-2682
邀	-2683
邏	-2684
邪	-2685
酵	-2686
醉	-2687
醒	-2688
釁	-2689
采	-2690
鈷	-2691
鉛	-2692
鉬	-2693
銥	-2694
鋅	-2695
錘	-2696
錳	-2697
鍍	-2698
鎖	-2699
鎳	-2700
鐳	-2701
鑽	-2702
鑿	-2703
閃	-2704
閏	-2705
閔	-2706
閱	-2707
阱	-2708
陪	-2709
陳	-2710
隕	-2711
隸	-2712
雄	-2713
雕	-2714
雜	-2715
雞	-2716
零	-2717
霾	-2718
靜	-2719
鞭	-2720
韋	-2721
頁	-2722
頂	-2723
頃	-2724
頒	-2725
顫	-2726
飆	-2727
飢	-2728
