<unk>	0
<s>	0
</s>	0
▁在	-0
一個	-1
他們	-2
20	-3
19	-4
▁這	-5
但是	-6
我們	-7
的人	-8
an	-9
他的	-10
可能	-11
已經	-12
ar	-13
以及	-14
工作	-15
公司	-16
美國	-17
201	-18
er	-19
世紀	-20
可以	-21
地區	-22
▁他	-23
沒有	-24
開始	-25
因為	-26
▁但是	-27
政府	-28
自己	-29
英國	-30
電影	-31
00	-32
之後	-33
的一	-34
這些	-35
in	-36
到了	-37
很多	-38
國家	-39
認為	-40
世界	-41
之間	-42
大的	-43
發生	-44
10	-45
其他	-46
影響	-47
部分	-48
18	-49
作為	-50
歷史	-51
獲得	-52
系統	-53
這個	-54
他們的	-55
是一個	-56
一直	-57
來自	-58
包括	-59
同時	-60
大利	-61
on	-62
中國	-63
兩個	-64
其中	-65
如果	-66
成功	-67
成為	-68
投資	-69
方面	-70
最後	-71
決定	-72
的是	-73
第一	-74
進行	-75
200	-76
自己的	-77
使用	-78
年代	-79
建立	-80
戰爭	-81
接受	-82
歐洲	-83
現在	-84
的地	-85
研究	-86
通過	-87
▁我	-88
中的	-89
主要	-90
人的	-91
公元	-92
城市	-93
所有	-94
總統	-95
能夠	-96
許多	-97
這一	-98
需要	-99
en	-100
▁她	-101
不是	-102
之前	-103
了一	-104
來的	-105
區域	-106
導致	-107
提供	-108
時間	-109
班牙	-110
表示	-111
軍隊	-112
非常	-113
西班牙	-114
),	-115
as	-116
ch	-117
”,	-118
▁“	-119
一樣	-120
不同	-121
人們	-122
位於	-123
尼亞	-124
希望	-125
希臘	-126
德國	-127
新的	-128
期間	-129
法國	-130
由於	-131
當時	-132
發展	-133
發現	-134
經濟	-135
羅馬	-136
調查	-137
重要	-138
199	-139
)。	-140
15	-141
or	-142
re	-143
——	-144
▁一	-145
。”	-146
共和	-147
奧斯	-148
政治	-149
是在	-150
特別	-151
第二	-152
公元前	-153
11	-154
il	-155
le	-156
一起	-157
之一	-158
事件	-159
令人	-160
保護	-161
只有	-162
問題	-163
它們	-164
年的	-165
情況	-166
技術	-167
投票	-168
方法	-169
根據	-170
獨立	-171
超過	-172
阿爾	-173
000	-174
▁19	-175
之間的	-176
了一個	-177
16	-178
:“	-179
ri	-180
▁從	-181
什麼	-182
代表	-183
出現	-184
北部	-185
因此	-186
宣布	-187
必須	-188
所以	-189
數據	-190
有人	-191
歐元	-192
水平	-193
藝術	-194
要求	-195
里斯	-196
關於	-197
音樂	-198
mar	-199
大利亞	-200
澳大利亞	-201
12	-202
ro	-203
st	-204
▁但	-205
▁它	-206
▁當	-207
並不	-208
全球	-209
增長	-210
存在	-211
市場	-212
幫助	-213
形成	-214
提出	-215
擁有	-216
斯的	-217
是一	-218
最高	-219
有一	-220
朗普	-221
條約	-222
活動	-223
生活	-224
用於	-225
發布	-226
看到	-227
系列	-228
統治	-229
而且	-230
自由	-231
行的	-232
計劃	-233
進入	-234
選舉	-235
隨後	-236
顯示	-237
特朗普	-238
▁201	-239
14	-240
60	-241
at	-242
el	-243
ti	-244
”。	-245
▁另	-246
▁對	-247
▁該	-248
上的	-249
中海	-250
了他	-251
任何	-252
例如	-253
信息	-254
協議	-255
南部	-256
原因	-257
合作	-258
國際	-259
天皇	-260
學生	-261
安全	-262
帝國	-263
幾乎	-264
控制	-265
故事	-266
明顯	-267
是否	-268
期的	-269
殖民	-270
比賽	-271
為了	-272
目前	-273
目標	-274
社會	-275
管理	-276
聯邦	-277
至少	-278
行動	-279
說道	-280
通常	-281
還是	-282
關係	-283
▁他們	-284
13	-285
30	-286
50	-287
al	-288
am	-289
et	-290
一些	-291
不可	-292
不會	-293
主義	-294
他在	-295
以前	-296
來說	-297
來越	-298
個月	-299
價格	-300
內的	-301
共同	-302
加勒	-303
告訴	-304
土地	-305
大量	-306
大陸	-307
她的	-308
妻子	-309
孩子	-310
學家	-311
學習	-312
實際	-313
平均	-314
應該	-315
持續	-316
挑戰	-317
擔任	-318
改變	-319
整個	-320
時候	-321
最終	-322
會在	-323
有所	-324
有關	-325
朋友	-326
氣候	-327
無法	-328
現代	-329
甚至	-330
的新	-331
的話	-332
的那	-333
直接	-334
稱為	-335
組成	-336
繼續	-337
美洲	-338
自然	-339
行為	-340
解釋	-341
設計	-342
資源	-343
這種	-344
都是	-345
離開	-346
革命	-347
飛機	-348
▁根據	-349
並沒有	-350
加勒比	-351
地中海	-352
大部分	-353
意大利	-354
有可能	-355
的地方	-356
越來越	-357
av	-358
co	-359
th	-360
▁不	-361
▁那	-362
》(	-363
不斷	-364
人口	-365
人員	-366
人在	-367
伊斯	-368
似乎	-369
傳統	-370
其頓	-371
具有	-372
出演	-373
出生	-374
創作	-375
十年	-376
參與	-377
同樣	-378
名字	-379
埃及	-380
基礎	-381
增加	-382
好的	-383
學校	-384
完全	-385
宗教	-386
導演	-387
就是	-388
屬於	-389
山脈	-390
帶來	-391
建議	-392
應用	-393
手機	-394
拉斯	-395
支持	-396
教堂	-397
時代	-398
歌曲	-399
正在	-400
民族	-401
汽車	-402
法律	-403
產生	-404
相關	-405
知道	-406
程度	-407
第三	-408
航空	-409
衝突	-410
變得	-411
責任	-412
這是	-413
這樣	-414
那裡	-415
附近	-416
隨著	-417
難以	-418
領導	-419
香港	-420
馬克	-421
and	-422
▁如果	-423
▁我們	-424
▁這個	-425
公司的	-426
共和黨	-427
奧斯曼	-428
獲得了	-429
的影響	-430
第一次	-431
馬其頓	-432
,”	-433
17	-434
70	-435
ay	-436
di	-437
is	-438
la	-439
uc	-440
▁大	-441
▁據	-442
▁此	-443
》。	-444
並且	-445
佔據	-446
作品	-447
債券	-448
兄弟	-449
全國	-450
再次	-451
出了	-452
分析	-453
利亞	-454
加拿	-455
北京	-456
十分	-457
印度	-458
和平	-459
商業	-460
國王	-461
報告	-462
多的	-463
大學	-464
如此	-465
島嶼	-466
巴黎	-467
幾個	-468
建築	-469
性的	-470
感到	-471
成了	-472
或者	-473
戲劇	-474
扮演	-475
拒絕	-476
放棄	-477
教育	-478
斯頓	-479
日本	-480
最近	-481
會議	-482
服務	-483
格蘭	-484
權力	-485
每個	-486
環境	-487
的事	-488
的機	-489
相似	-490
破產	-491
組織	-492
結束	-493
經常	-494
維亞	-495
羅娜	-496
羅斯	-497
美元	-498
能力	-499
英鎊	-500
製造	-501
試圖	-502
警方	-503
變化	-504
負責	-505
貿易	-506
賬戶	-507
起了	-508
起來	-509
選擇	-510
邊境	-511
那些	-512
部長	-513
部隊	-514
降低	-515
雷斯	-516
非洲	-517
預測	-518
ber	-519
▁18	-520
▁由於	-521
▁這些	-522
▁這次	-523
克里斯	-524
和其他	-525
國家的	-526
成為了	-527
有一個	-528
的原因	-529
該地區	-530
適用於	-531
,000	-532
加勒比海	-533
西班牙語	-534
28	-535
3%	-536
33	-537
ad	-538
bc	-539
lo	-540
ma	-541
nn	-542
ru	-543
▁希	-544
▁後	-545
》,	-546
一世	-547
一位	-548
一次	-549
不得	-550
丹麥	-551
人類	-552
他和	-553
代理	-554
以來	-555
件事	-556
但在	-557
住在	-558
俄國	-559
保持	-560
修道	-561
候選	-562
倫敦	-563
值得	-564
健康	-565
元素	-566
先生	-567
克斯	-568
入了	-569
公園	-570
公眾	-571
冠軍	-572
出版	-573
分別	-574
利用	-575
力量	-576
動物	-577
勝利	-578
協會	-579
危機	-580
參加	-581
反對	-582
取得	-583
同盟	-584
員會	-585
唐納	-586
喜歡	-587
回到	-588
地產	-589
地面	-590
城鎮	-591
基督	-592
基金	-593
墨西	-594
多數	-595
天的	-596
女兒	-597
女士	-598
媒體	-599
家庭	-600
專輯	-601
就會	-602
展示	-603
工具	-604
工業	-605
年輕	-606
強調	-607
征服	-608
從未	-609
德里	-610
想法	-611
意義	-612
戰役	-613
才能	-614
承擔	-615
指揮	-616
接下	-617
描述	-618
摩拉	-619
文化	-620
文明	-621
明了	-622
時的	-623
智能	-624
最大	-625
東西	-626
板塊	-627
根本	-628
植物	-629
權利	-630
民主	-631
沙漠	-632
河流	-633
海岸	-634
清朝	-635
減少	-636
準備	-637
演出	-638
照片	-639
爾的	-640
猶太	-641
理論	-642
發言	-643
發電	-644
的大	-645
的小	-646
的成	-647
的最	-648
皇家	-649
移民	-650
稱呼	-651
立法	-652
簽訂	-653
給了	-654
維爾	-655
缺少	-656
聯盟	-657
腫瘤	-658
蒙古	-659
處於	-660
表明	-661
表達	-662
裡的	-663
觀眾	-664
討論	-665
訓練	-666
語言	-667
警察	-668
議院	-669
費用	-670
運動	-671
過去	-672
還有	-673
那個	-674
那麼	-675
部的	-676
除了	-677
雖然	-678
電視	-679
ano	-680
ras	-681
ter	-682
▁另外	-683
▁同時	-684
▁為了	-685
▁現在	-686
▁當然	-687
▁目前	-688
▁美國	-689
▁隨著	-690
一方面	-691
一直在	-692
不同的	-693
伊斯蘭	-694
俄羅斯	-695
修道院	-696
候選人	-697
共和國	-698
墨西哥	-699
巴尼亞	-700
情況下	-701
我們的	-702
房地產	-703
斯山脈	-704
方面的	-705
時期的	-706
為什麼	-707
發現了	-708
的一個	-709
的主要	-710
的區域	-711
的最後	-712
的目標	-713
的經濟	-714
藝術家	-715
這件事	-716
重要的	-717
需要的	-718
2014	-719
摩拉維亞	-720
的一部分	-721
阿爾巴尼亞	-722
%,	-723
,“	-724
..	-725
31	-726
35	-727
45	-728
80	-729
90	-730
92	-731
de	-732
do	-733
es	-734
gy	-735
ia	-736
im	-737
iv	-738
me	-739
pa	-740
ra	-741
sp	-742
▁《	-743
▁亞	-744
▁卡	-745
▁有	-746
▁阿	-747
一步	-748
七月	-749
三世	-750
三島	-751
上了	-752
上升	-753
上漲	-754
下的	-755
不再	-756
不能	-757
不要	-758
並在	-759
中心	-760
中有	-761
中期	-762
丹內	-763
主教	-764
之中	-765
之處	-766
也被	-767
也許	-768
了兩	-769
交通	-770
人士	-771
人都	-772
仍然	-773
他說	-774
以外	-775
以為	-776
企業	-777
作家	-778
作用	-779
來源	-780
保證	-781
個人	-782
們的	-783
僅僅	-784
儘管	-785
允許	-786
克林	-787
兒童	-788
內容	-789
兩年	-790
公爵	-791
公開	-792
冬季	-793
到達	-794
前往	-795
區的	-796
十四	-797
十月	-798
半島	-799
卡羅	-800
印第	-801
去年	-802
及其	-803
受到	-804
合法	-805
名為	-806
員工	-807
唱片	-808
喀麥	-809
單曲	-810
回了	-811
國民	-812
土耳	-813
在一	-814
地位	-815
地方	-816
地球	-817
地點	-818
城邦	-819
報導	-820
壓力	-821
夏天	-822
夏季	-823
大使	-824
大概	-825
大略	-826
大眾	-827
大約	-828
天氣	-829
契美	-830
女孩	-831
如何	-832
威爾	-833
它的	-834
定了	-835
容易	-836
實驗	-837
將軍	-838
尋找	-839
對手	-840
對象	-841
少數	-842
就像	-843
尼德	-844
州的	-845
年建	-846
廣告	-847
式的	-848
很大	-849
後的	-850
從中	-851
怎麼	-852
息地	-853
成的	-854
批評	-855
承認	-856
抵抗	-857
拉夫	-858
拉的	-859
拉費	-860
拉里	-861
指控	-862
收益	-863
敵人	-864
數個	-865
文學	-866
斯堡	-867
斯托	-868
斯特	-869
方的	-870
日期	-871
星期	-872
時任	-873
更加	-874
曾經	-875
未能	-876
本書	-877
樂隊	-878
標記	-879
機構	-880
正如	-881
歲的	-882
比如	-883
法老	-884
法蘭	-885
泰國	-886
海洋	-887
消息	-888
消費	-889
烈的	-890
爾夫	-891
理查	-892
瑟夫	-893
生命	-894
產品	-895
用戶	-896
男性	-897
當地	-898
當我	-899
百萬	-900
的兩	-901
的角	-902
的說	-903
的高	-904
破壞	-905
私人	-906
積極	-907
穿過	-908
競爭	-909
約翰	-910
緩解	-911
績效	-912
缺乏	-913
聯繫	-914
自治	-915
舉辦	-916
芬蘭	-917
荷蘭	-918
萊恩	-919
處理	-920
補充	-921
製作	-922
西格	-923
西西	-924
見的	-925
覺得	-926
記錄	-927
證明	-928
警告	-929
變為	-930
贏得	-931
身體	-932
軍事	-933
較低	-934
農曆	-935
迪斯	-936
迫害	-937
追溯	-938
逐漸	-939
這次	-940
造成	-941
運河	-942
過程	-943
還在	-944
邊界	-945
都會	-946
銀行	-947
長的	-948
開放	-949
關注	-950
需求	-951
面對	-952
項目	-953
顏色	-954
飛行	-955
首次	-956
鴉片	-957
197	-958
500	-959
ard	-960
bbc	-961
car	-962
cnn	-963
ill	-964
ing	-965
lin	-966
ran	-967
the	-968
▁他在	-969
▁她的	-970
▁法國	-971
▁英國	-972
▁超過	-973
▁這是	-974
▁這項	-975
世界大	-976
並不是	-977
也可以	-978
事件的	-979
他們對	-980
代表了	-981
但如果	-982
億美元	-983
克林頓	-984
十年代	-985
印第安	-986
可能會	-987
同時還	-988
唐納德	-989
喀麥隆	-990
土耳其	-991
在那裡	-992
地區的	-993
大略省	-994
委員會	-995
導致了	-996
就已經	-997
工作的	-998
布里斯	-999
年輕的	-1000
很多人	-1001
得到了	-1002
成功的	-1003
投資人	-1004
拉費蒂	-1005
提供了	-1006
政府的	-1007
是什麼	-1008
是因為	-1009
棲息地	-1010
歐洲人	-1011
殖民地	-1012
民主黨	-1013
溫斯頓	-1014
特別是	-1015
獨立的	-1016
理論上	-1017
發言人	-1018
的人口	-1019
的問題	-1020
的投票	-1021
的方法	-1022
的機率	-1023
的發展	-1024
的統治	-1025
看起來	-1026
第一個	-1027
第二次	-1028
維爾克	-1029
蘇格蘭	-1030
這一點	-1031
進一步	-1032
進行了	-1033
銀行的	-1034
阿爾卑	-1035
1492	-1036
2017	-1037
rich	-1038
▁200	-1039
▁他們的	-1040
令人難以	-1041
契美尼德	-1042
安大略省	-1043
智能手機	-1044
▁另一方面	-1045
丹內維爾克	-1046
21	-1047
25	-1048
32	-1049
36	-1050
84	-1051
87	-1052
be	-1053
bo	-1054
ca	-1055
ce	-1056
ds	-1057
em	-1058
ep	-1059
ff	-1060
ge	-1061
jo	-1062
kh	-1063
ki	-1064
ne	-1065
ni	-1066
no	-1067
ok	-1068
ou	-1069
pu	-1070
sl	-1071
ul	-1072
zá	-1073
án	-1074
ün	-1075
▁到	-1076
▁博	-1077
▁多	-1078
▁布	-1079
▁截	-1080
▁拉	-1081
▁最	-1082
▁每	-1083
▁沙	-1084
▁然	-1085
▁自	-1086
▁與	-1087
▁高	-1088
一名	-1089
一場	-1090
一天	-1091
一定	-1092
一種	-1093
一致	-1094
三個	-1095
三次	-1096
下一	-1097
下了	-1098
不僅	-1099
不在	-1100
不太	-1101
中華	-1102
主持	-1103
主題	-1104
之下	-1105
之外	-1106
九月	-1107
也會	-1108
也有	-1109
乾旱	-1110
了其	-1111
了多	-1112
了解	-1113
事會	-1114
互聯	-1115
亞新	-1116
亞歷	-1117
亨利	-1118
人和	-1119
人是	-1120
今年	-1121
仍在	-1122
以至	-1123
伐克	-1124
伯爵	-1125
但這	-1126
位的	-1127
住民	-1128
佛羅	-1129
你們	-1130
佳的	-1131
來到	-1132
來看	-1133
依然	-1134
依賴	-1135
侵略	-1136
保羅	-1137
信仰	-1138
倫蒂	-1139
做的	-1140
像是	-1141
優勢	-1142
克爾	-1143
內亞	-1144
內戰	-1145
兩位	-1146
公共	-1147
公投	-1148
六大	-1149
六月	-1150
其後	-1151
具體	-1152
冰島	-1153
凱撒	-1154
凱爾	-1155
凱莎	-1156
分子	-1157
分類	-1158
利普	-1159
削減	-1160
前的	-1161
劇場	-1162
加索	-1163
助手	-1164
助於	-1165
努力	-1166
區柯	-1167
南海	-1168
原本	-1169
去了	-1170
友誼	-1171
反應	-1172
叛亂	-1173
古典	-1174
古巴	-1175
另一	-1176
只是	-1177
各種	-1178
合同	-1179
合理	-1180
合的	-1181
同意	-1182
含量	-1183
吸引	-1184
命令	-1185
和水	-1186
哥倫	-1187
喬治	-1188
嚴重	-1189
四個	-1190
回歸	-1191
國防	-1192
圖特	-1193
團隊	-1194
土著	-1195
在兩	-1196
在周	-1197
在戰	-1198
在於	-1199
在此	-1200
在聖	-1201
在華	-1202
地利	-1203
地表	-1204
士尼	-1205
多是	-1206
夢想	-1207
大幅	-1208
大廈	-1209
大選	-1210
奧巴	-1211
奧爾	-1212
女人	-1213
女性	-1214
好地	-1215
姆斯	-1216
威尼	-1217
嫌疑	-1218
嬰兒	-1219
子郵	-1220
字母	-1221
學者	-1222
學院	-1223
安東	-1224
定居	-1225
客戶	-1226
宣傳	-1227
實施	-1228
實現	-1229
實行	-1230
寫道	-1231
封信	-1232
將其	-1233
將在	-1234
專家	-1235
對待	-1236
對於	-1237
小型	-1238
小說	-1239
就已	-1240
就能	-1241
居住	-1242
居里	-1243
展覽	-1244
工資	-1245
已被	-1246
巴布	-1247
巴拿	-1248
巴爾	-1249
巴西	-1250
巴達	-1251
市民	-1252
帕爾	-1253
帶著	-1254
帶領	-1255
常的	-1256
年被	-1257
康復	-1258
建造	-1259
引發	-1260
徵收	-1261
快速	-1262
恐怖	-1263
想像	-1264
意見	-1265
態度	-1266
慶典	-1267
成立	-1268
我的	-1269
戰場	-1270
托弗	-1271
托車	-1272
找到	-1273
投降	-1274
拉丁	-1275
拉伯	-1276
拉博	-1277
指南	-1278
授予	-1279
排放	-1280
採訪	-1281
接著	-1282
推進	-1283
措施	-1284
摩斯	-1285
擊敗	-1286
擔憂	-1287
支付	-1288
支出	-1289
改革	-1290
攻擊	-1291
政權	-1292
政策	-1293
數字	-1294
數量	-1295
文字	-1296
斯州	-1297
新生	-1298
方式	-1299
日的	-1300
早在	-1301
明白	-1302
是從	-1303
會見	-1304
月份	-1305
有著	-1306
朗特	-1307
未來	-1308
本來	-1309
本地	-1310
本週	-1311
東非	-1312
某種	-1313
柴油	-1314
格達	-1315
條件	-1316
業務	-1317
業生	-1318
業用	-1319
標準	-1320
標賽	-1321
模糊	-1322
歐盟	-1323
死於	-1324
殺死	-1325
每升	-1326
氣體	-1327
污染	-1328
沈括	-1329
治療	-1330
法庭	-1331
法院	-1332
海上	-1333
海拔	-1334
清楚	-1335
溫特	-1336
滅了	-1337
滿足	-1338
激增	-1339
火山	-1340
無論	-1341
爆發	-1342
父親	-1343
特利	-1344
特徵	-1345
特的	-1346
特點	-1347
獎金	-1348
王朝	-1349
理解	-1350
瑞典	-1351
瑞士	-1352
瑪爾	-1353
瑪雅	-1354
生產	-1355
產業	-1356
當中	-1357
當作	-1358
當天	-1359
當的	-1360
疑問	-1361
發表	-1362
發起	-1363
的水	-1364
的熱	-1365
的空	-1366
的精	-1367
的總	-1368
的起	-1369
的進	-1370
的選	-1371
的電	-1372
的頭	-1373
皇帝	-1374
皈依	-1375
盛頓	-1376
直到	-1377
相信	-1378
真的	-1379
確信	-1380
祖母	-1381
禁止	-1382
科學	-1383
科技	-1384
程中	-1385
種子	-1386
穀物	-1387
穩定	-1388
突然	-1389
競選	-1390
答案	-1391
節日	-1392
節目	-1393
米爾	-1394
糟糕	-1395
紀念	-1396
約在	-1397
給予	-1398
綠色	-1399
網站	-1400
網絡	-1401
總督	-1402
置信	-1403
能源	-1404
興趣	-1405
舉行	-1406
般的	-1407
花費	-1408
茉莉	-1409
處罰	-1410
蛋白	-1411
街上	-1412
表現	-1413
被解	-1414
被評	-1415
裡有	-1416
西斯	-1417
西部	-1418
視頻	-1419
觀的	-1420
解放	-1421
解決	-1422
言論	-1423
記者	-1424
設備	-1425
課程	-1426
諸如	-1427
諾斯	-1428
議會	-1429
讓他	-1430
貝爾	-1431
財政	-1432
資格	-1433
贊助	-1434
赫爾	-1435
趨勢	-1436
路易	-1437
路途	-1438
轉型	-1439
轉移	-1440
返回	-1441
這位	-1442
這裡	-1443
進了	-1444
遊戲	-1445
遊行	-1446
運用	-1447
避孕	-1448
邊的	-1449
那種	-1450
部門	-1451
釋放	-1452
重新	-1453
鐵路	-1454
開展	-1455
關鍵	-1456
阻止	-1457
限制	-1458
雅典	-1459
雷達	-1460
震驚	-1461
面是	-1462
面的	-1463
面臨	-1464
預計	-1465
領先	-1466
領土	-1467
領域	-1468
顆粒	-1469
風格	-1470
餘額	-1471
首先	-1472
首都	-1473
馬丁	-1474
鬥爭	-1475
黃金	-1476
黨派	-1477
鼓勵	-1478
100	-1479
195	-1480
ate	-1481
bar	-1482
con	-1483
gan	-1484
ger	-1485
mor	-1486
ros	-1487
sal	-1488
tar	-1489
tin	-1490
win	-1491
▁15	-1492
▁20	-1493
▁一些	-1494
▁中國	-1495
▁人們	-1496
▁他還	-1497
▁儘管	-1498
▁其中	-1499
▁德國	-1500
▁截至	-1501
▁泰國	-1502
▁許多	-1503
▁這一	-1504
▁通過	-1505
▁關於	-1506
▁隨後	-1507
不知道	-1508
並不能	-1509
主義者	-1510
了一種	-1511
了他的	-1512
互聯網	-1513
亞新幾	-1514
以至於	-1515
保證了	-1516
倫蒂諾	-1517
全世界	-1518
兩個人	-1519
六大國	-1520
出演了	-1521
出現了	-1522
分類法	-1523
加拿大	-1524
北卡羅	-1525
區柯克	-1526
南美洲	-1527
原住民	-1528
參議院	-1529
另一個	-1530
可稱為	-1531
可能是	-1532
可追溯	-1533
回到了	-1534
在內的	-1535
在工作	-1536
在英國	-1537
城鎮化	-1538
大學的	-1539
大量的	-1540
天主教	-1541
奧地利	-1542
奧巴馬	-1543
奧斯卡	-1544
子郵件	-1545
安東尼	-1546
將會在	-1547
對美國	-1548
導致的	-1549
巨大的	-1550
已經在	-1551
巴拿馬	-1552
希臘的	-1553
建立了	-1554
形成了	-1555
很大的	-1556
很明顯	-1557
我們在	-1558
戰爭中	-1559
投資者	-1560
接受了	-1561
提出了	-1562
摩托車	-1563
斯拉夫	-1564
明顯的	-1565
更多的	-1566
最大的	-1567
會獲得	-1568
會見了	-1569
有助於	-1570
東南部	-1571
格達汗	-1572
業用地	-1573
比賽中	-1574
法蘭西	-1575
洛伐克	-1576
消費者	-1577
發生在	-1578
的一次	-1579
的一集	-1580
的人才	-1581
的地標	-1582
的工作	-1583
的成功	-1584
的所有	-1585
的支持	-1586
的新聞	-1587
的時候	-1588
的社會	-1589
的行動	-1590
的選民	-1591
的那樣	-1592
研究所	-1593
科學家	-1594
程度上	-1595
約瑟夫	-1596
而不是	-1597
芬蘭語	-1598
菲利普	-1599
薩斯州	-1600
行為的	-1601
被指控	-1602
被稱為	-1603
被認為	-1604
補充道	-1605
西格爾	-1606
解釋說	-1607
說明了	-1608
迪士尼	-1609
運動會	-1610
還可以	-1611
銅時代	-1612
錦標賽	-1613
阿拉伯	-1614
附近的	-1615
1992	-1616
1997	-1617
2013	-1618
2015	-1619
2016	-1620
ucas	-1621
▁克里斯	-1622
▁公元前	-1623
▁在過去	-1624
世界大戰	-1625
了自己的	-1626
他的妻子	-1627
他的電影	-1628
令人擔憂	-1629
其中包括	-1630
到了美國	-1631
加拿大的	-1632
唱片公司	-1633
圖特摩斯	-1634
在地中海	-1635
埃及法老	-1636
工業革命	-1637
布里斯班	-1638
平均水平	-1639
建立起了	-1640
我們必須	-1641
所需要的	-1642
接下來的	-1643
歐元每升	-1644
特朗普的	-1645
瓦倫蒂諾	-1646
的房地產	-1647
績效工資	-1648
自然資源	-1649
路途時間	-1650
農業用地	-1651
這是一個	-1652
rasti	-1653
▁2010	-1654
▁澳大利亞	-1655
了一個新的	-1656
亞新幾內亞	-1657
奧斯曼帝國	-1658
阿契美尼德	-1659
martin	-1660
令人難以置信	-1661
阿爾卑斯山脈	-1662
阿爾巴尼亞的	-1663
巴布亞新幾內亞	-1664
%。	-1665
,《	-1666
._	-1667
27	-1668
29	-1669
34	-1670
39	-1671
40	-1672
56	-1673
62	-1674
65	-1675
66	-1676
76	-1677
79	-1678
82	-1679
96	-1680
99	-1681
ba	-1682
cu	-1683
dn	-1684
ei	-1685
ez	-1686
fa	-1687
fu	-1688
fy	-1689
hn	-1690
ho	-1691
ic	-1692
ie	-1693
je	-1694
ju	-1695
ol	-1696
os	-1697
se	-1698
si	-1699
gu	-1700
te	-1701
ts	-1702
tt	-1703
tu	-1704
us	-1705
wi	-1706
zi	-1707
£3	-1708
”(	-1709
▁"	-1710
▁c	-1711
▁”	-1712
▁你	-1713
▁其	-1714
▁和	-1715
▁如	-1716
▁就	-1717
▁於	-1718
▁畢	-1719
▁白	-1720
▁相	-1721
▁確	-1722
▁科	-1723
▁聯	-1724
▁蘇	-1725
▁裡	-1726
▁賴	-1727
▁鑑	-1728
▁除	-1729
▁雪	-1730
。"	-1731
一分	-1732
一帶	-1733
一座	-1734
一般	-1735
丁堡	-1736
三角	-1737
上並	-1738
上午	-1739
上很	-1740
上限	-1741
下來	-1742
下面	-1743
不久	-1744
不合	-1745
不大	-1746
不好	-1747
不想	-1748
丘吉	-1749
丟了	-1750
中入	-1751
中吸	-1752
中央	-1753
中斷	-1754
中移	-1755
主導	-1756
主席	-1757
主張	-1758
主演	-1759
乃至	-1760
之於	-1761
乘客	-1762
也是	-1763
了不	-1764
了八	-1765
了十	-1766
了大	-1767
了它	-1768
了對	-1769
了數	-1770
了該	-1771
事實	-1772
事情	-1773
二十	-1774
互相	-1775
五十	-1776
五年	-1777
亞洲	-1778
交了	-1779
交易	-1780
人數	-1781
人機	-1782
人民	-1783
今天	-1784
仍舊	-1785
他也	-1786
他了	-1787
他將	-1788
他就	-1789
他手	-1790
他會	-1791
他被	-1792
任的	-1793
休息	-1794
伯戈	-1795
伯蘭	-1796
似的	-1797
佈於	-1798
位置	-1799
gh	-1800
▁b	-1801
▁維	-1802
不經	-1803
世的	-1804
乘坐	-1805
但他	-1806
佔有	-1807
佔領	-1808
作出	-1809
作曲	-1810
你更	-1811
你的	-1812
使他	-1813
使其	-1814
使得	-1815
使該	-1816
來分	-1817
來納	-1818
來臨	-1819
保守	-1820
保留	-1821
保障	-1822
信號	-1823
修建	-1824
假期	-1825
假設	-1826
做了	-1827
停留	-1828
停運	-1829
傳播	-1830
債務	-1831
傷害	-1832
優先	-1833
優步	-1834
優秀	-1835
儲蓄	-1836
充分	-1837
充滿	-1838
克蘭	-1839
克頓	-1840
內爾	-1841
全部	-1842
兩人	-1843
兩次	-1844
兩者	-1845
公主	-1846
公國	-1847
公寓	-1848
公民	-1849
出來	-1850
出於	-1851
分鐘	-1852
分離	-1853
初選	-1854
別人	-1855
利時	-1856
利益	-1857
制受	-1858
制度	-1859
前線	-1860
前進	-1861
割讓	-1862
劇本	-1863
力的	-1864
加低	-1865
加入	-1866
加利	-1867
加工	-1868
助理	-1869
動力	-1870
勢力	-1871
勳爵	-1872
匈牙	-1873
化學	-1874
化的	-1875
北朝	-1876
匹克	-1877
十個	-1878
千年	-1879
協助	-1880
協定	-1881
南亞	-1882
南極	-1883
南非	-1884
博客	-1885
卜林	-1886
卡塔	-1887
卡拉	-1888
卡森	-1889
卡洛	-1890
即使	-1891
即將	-1892
去除	-1893
反法	-1894
取代	-1895
取消	-1896
受歡	-1897
叛軍	-1898
古斯	-1899
北海	-1900
參賽	-1901
古老	-1902
只能	-1903
可疑	-1904
台劇	-1905
史前	-1906
史密	-1907
史達	-1908
合了	-1909
合國	-1910
同年	-1911
向南	-1912
向著	-1913
否則	-1914
告知	-1915
告終	-1916
告誡	-1917
周圍	-1918
味著	-1919
呼聲	-1920
和不	-1921
和她	-1922
和烏	-1923
和紡	-1924
品牌	-1925
品種	-1926
哈拉	-1927
哪兒	-1928
哭泣	-1929
問了	-1930
善良	-1931
單元	-1932
嘗試	-1933
噁心	-1934
嚴格	-1935
四名	-1936
四月	-1937
因而	-1938
困擾	-1939
圍內	-1940
圍繞	-1941
圖片	-1942
團體	-1943
在同	-1944
地峽	-1945
均收	-1946
埃爾	-1947
執行	-1948
基於	-1949
報紙	-1950
場合	-1951
塊釙	-1952
塔斯	-1953
塔爾	-1954
塞爾	-1955
塞特	-1956
塞西	-1957
塵暴	-1958
士兵	-1959
多個	-1960
多元	-1961
多安	-1962
多年	-1963
多於	-1964
多樣	-1965
多次	-1966
大樓	-1967
大火	-1968
大麻	-1969
天文	-1970
太平	-1971
太空	-1972
太陽	-1973
夫在	-1974
失望	-1975
奇蹟	-1976
契丹	-1977
奧林	-1978
奧運	-1979
奪回	-1980
女巫	-1981
她寫	-1982
她是	-1983
她為	-1984
她說	-1985
好評	-1986
妙的	-1987
妥協	-1988
妥善	-1989
威廉	-1990
娛樂	-1991
子高	-1992
存活	-1993
季節	-1994
它為	-1995
守護	-1996
安娜	-1997
安德	-1998
安石	-1999
安第	-2000
安迪	-2001
完工	-2002
官員	-2003
官方	-2004
客串	-2005
室內	-2006
家的	-2007
密爾	-2008
審查	-2009
寫作	-2010
將會	-2011
將能	-2012
將要	-2013
專業	-2014
尋求	-2015
對尼	-2016
對情	-2017
對方	-2018
對的	-2019
導方	-2020
小時	-2021
少的	-2022
尤其	-2023
就在	-2024
就被	-2025
尼基	-2026
局勢	-2027
局的	-2028
局面	-2029
展現	-2030
岡薩	-2031
島和	-2032
崔絲	-2033
嶄露	-2034
工人	-2035
巨額	-2036
差不	-2037
差異	-2038
巴羅	-2039
市長	-2040
布魯	-2041
希羅	-2042
帕克	-2043
干預	-2044
平台	-2045
平壤	-2046
平手	-2047
年人	-2048
年以	-2049
年內	-2050
年到	-2051
年在	-2052
年度	-2053
年後	-2054
年推	-2055
年春	-2056
年是	-2057
年級	-2058
年號	-2059
年間	-2060
幸運	-2061
幾十	-2062
廢墟	-2063
廣播	-2064
延續	-2065
建於	-2066
建設	-2067
引用	-2068
形式	-2069
形象	-2070
影片	-2071
很少	-2072
很快	-2073
很有	-2074
後者	-2075
得以	-2076
從而	-2077
復興	-2078
微小	-2079
德於	-2080
徹底	-2081
心態	-2082
必要	-2083
志願	-2084
忽視	-2085
思考	-2086
思議	-2087
性別	-2088
想要	-2089
意圖	-2090
愚蠢	-2091
愛爾	-2092
感覺	-2093
慶祝	-2094
成員	-2095
成就	-2096
我會	-2097
我都	-2098
或在	-2099
戰敗	-2100
戰鬥	-2101
戴維	-2102
所謂	-2103
所需	-2104
手術	-2105
打開	-2106
打鬥	-2107
批發	-2108
投入	-2109
抗議	-2110
拉多	-2111
拉尼	-2112
拉德	-2113
拉諾	-2114
拉迪	-2115
拿破	-2116
指出	-2117
挪威	-2118
掌權	-2119
排除	-2120
採取	-2121
探索	-2122
探討	-2123
接收	-2124
接觸	-2125
推動	-2126
推特	-2127
提及	-2128
提高	-2129
揭示	-2130
揭露	-2131
損失	-2132
摧毀	-2133
摩納	-2134
撒海	-2135
撤退	-2136
擊者	-2137
擔心	-2138
據此	-2139
擬定	-2140
擴展	-2141
擺脫	-2142
放在	-2143
政黨	-2144
效忠	-2145
教皇	-2146
數次	-2147
文以	-2148
文章	-2149
料的	-2150
斯帕	-2151
新聞	-2152
斷層	-2153
方言	-2154
旅行	-2155
族裔	-2156
日出	-2157
日子	-2158
日常	-2159
日耳	-2160
早了	-2161
早期	-2162
明治	-2163
易見	-2164
是上	-2165
是其	-2166
是由	-2167
是誰	-2168
是這	-2169
時刻	-2170
時期	-2171
普敦	-2172
普林	-2173
普爾	-2174
暫停	-2175
更多	-2176
更為	-2177
曾在	-2178
最有	-2179
會被	-2180
月的	-2181
月至	-2182
有三	-2183
有些	-2184
有意	-2185
有的	-2186
木舟	-2187
本中	-2188
本的	-2189
朱婷	-2190
李維	-2191
東部	-2192
林斯	-2193
林肯	-2194
格麗	-2195
梅爾	-2196
條款	-2197
棕櫚	-2198
極度	-2199
概念	-2200
標誌	-2201
模型	-2202
檢查	-2203
檢測	-2204
欺詐	-2205
歌手	-2206
歡樂	-2207
正確	-2208
此次	-2209
武器	-2210
武裝	-2211
死亡	-2212
死後	-2213
殊榮	-2214
殺了	-2215
每人	-2216
每年	-2217
比例	-2218
比在	-2219
比的	-2220
民國	-2221
氣象	-2222
水池	-2223
永不	-2224
沃爾	-2225
河的	-2226
法令	-2227
波的	-2228
波蘭	-2229
注意	-2230
注重	-2231
洋的	-2232
洛克	-2233
洲的	-2234
流行	-2235
海和	-2236
海報	-2237
海外	-2238
海峽	-2239
海的	-2240
深的	-2241
深遠	-2242
添加	-2243
港口	-2244
準確	-2245
溫度	-2246
滅亡	-2247
滿意	-2248
滿族	-2249
演員	-2250
演唱	-2251
澳洲	-2252
激素	-2253
激進	-2254
火箭	-2255
火車	-2256
災難	-2257
為二	-2258
為期	-2259
為止	-2260
為野	-2261
熱的	-2262
燈塔	-2263
爭論	-2264
爭議	-2265
爵位	-2266
爾斯	-2267
片場	-2268
版的	-2269
牧師	-2270
特靈	-2271
狀態	-2272
狀況	-2273
猜測	-2274
獎項	-2275
獨自	-2276
獲勝	-2277
獲獎	-2278
率比	-2279
瑙河	-2280
環節	-2281
瓦雷	-2282
生態	-2283
生者	-2284
生肖	-2285
男人	-2286
疼痛	-2287
病人	-2288
瘋狂	-2289
發揮	-2290
發明	-2291
發育	-2292
發送	-2293
白人	-2294
百分	-2295
的學	-2296
的宣	-2297
的後	-2298
的托	-2299
的期	-2300
的神	-2301
的立	-2302
的細	-2303
的結	-2304
的賽	-2305
的這	-2306
的醫	-2307
監管	-2308
直至	-2309
相同	-2310
相對	-2311
真實	-2312
真正	-2313
知識	-2314
石製	-2315
破裂	-2316
確實	-2317
礁湖	-2318
礦物	-2319
社交	-2320
祈禱	-2321
福德	-2322
福特	-2323
科幻	-2324
科恩	-2325
秘密	-2326
程序	-2327
種族	-2328
稱他	-2329
穩步	-2330
空氣	-2331
穿戴	-2332
立石	-2333
立足	-2334
童工	-2335
符合	-2336
簡直	-2337
約克	-2338
約後	-2339
約里	-2340
紐約	-2341
索爾	-2342
給西	-2343
統計	-2344
經歷	-2345
經過	-2346
經驗	-2347
網上	-2348
緊鄰	-2349
線的	-2350
編輯	-2351
總是	-2352
繼承	-2353
缺席	-2354
美裔	-2355
群體	-2356
習慣	-2357
考慮	-2358
而我	-2359
而有	-2360
而被	-2361
而言	-2362
聊天	-2363
聯軍	-2364
職位	-2365
聽證	-2366
肥料	-2367
肺的	-2368
能使	-2369
能在	-2370
脆弱	-2371
至八	-2372
致命	-2373
與其	-2374
舊金	-2375
船員	-2376
船的	-2377
船隻	-2378
艾達	-2379
茵河	-2380
莫伊	-2381
萊德	-2382
萬人	-2383
著陸	-2384
葡萄	-2385
葬禮	-2386
蒂娜	-2387
蒂安	-2388
蒂芬	-2389
蓋耶	-2390
薩拉	-2391
薩米	-2392
藉由	-2393
虔誠	-2394
血紅	-2395
衣服	-2396
被遺	-2397
補助	-2398
要么	-2399
見過	-2400
規劃	-2401
視為	-2402
觀察	-2403
角色	-2404
計算	-2405
訥河	-2406
評估	-2407
評論	-2408
詳細	-2409
認識	-2410
語中	-2411
誰能	-2412
請願	-2413
諾瑪	-2414
謀殺	-2415
謙遜	-2416
講述	-2417
證據	-2418
變的	-2419
變遷	-2420
讓人	-2421
貝貝	-2422
財務	-2423
貴族	-2424
資本	-2425
資金	-2426
賞識	-2427
賠償	-2428
質量	-2429
賺取	-2430
購買	-2431
走向	-2432
超級	-2433
超越	-2434
身份	-2435
車型	-2436
軍官	-2437
較為	-2438
轉而	-2439
轉變	-2440
轟炸	-2441
辦公	-2442
農民	-2443
近期	-2444
近海	-2445
迦南	-2446
追求	-2447
透露	-2448
這也	-2449
這兩	-2450
這片	-2451
這部	-2452
通知	-2453
通道	-2454
週二	-2455
週六	-2456
進到	-2457
進去	-2458
進場	-2459
運輸	-2460
道德	-2461
達爾	-2462
達菲	-2463
遠了	-2464
遠離	-2465
選出	-2466
選項	-2467
遺憾	-2468
遺跡	-2469
邁錫	-2470
還會	-2471
還未	-2472
還沒	-2473
還能	-2474
邊緣	-2475
那兒	-2476
那里	-2477
郡的	-2478
部件	-2479
部落	-2480
都有	-2481
醜聞	-2482
醫生	-2483
醫療	-2484
里希	-2485
里達	-2486
重現	-2487
量的	-2488
釙樣	-2489
針對	-2490
錄製	-2491
錯誤	-2492
鏈接	-2493
開支	-2494
關心	-2495
關閉	-2496
防衛	-2497
阿伯	-2498
阿普	-2499
隨時	-2500
險的	-2501
雅那	-2502
集了	-2503
集團	-2504
集的	-2505
離婚	-2506
雷暴	-2507
電站	-2508
霸占	-2509
靈感	-2510
預報	-2511
預算	-2512
頭角	-2513
頭銜	-2514
願意	-2515
顧客	-2516
顯然	-2517
顯而	-2518
食品	-2519
食物	-2520
飽受	-2521
養分	-2522
首席	-2523
馬爾	-2524
騎兵	-2525
驚訝	-2526
體的	-2527
高於	-2528
鬥志	-2529
鬧劇	-2530
鱈魚	-2531
黨內	-2532
龐培	-2533
$15	-2534
107	-2535
190	-2536
194	-2537
30-	-2538
330	-2539
760	-2540
ant	-2541
avi	-2542
aya	-2543
bru	-2544
cat	-2545
dar	-2546
dna	-2547
dün	-2548
ena	-2549
eph	-2550
fil	-2551
gel	-2552
gon	-2553
ham	-2554
iam	-2555
ina	-2556
ine	-2557
ive	-2558
kor	-2559
lai	-2560
lar	-2561
lez	-2562
mer	-2563
mon	-2564
nor	-2565
org	-2566
oti	-2567
ple	-2568
red	-2569
rum	-2570
sim	-2571
son	-2572
tel	-2573
uck	-2574
you	-2575
zay	-2576
£12	-2577
▁17	-2578
▁一位	-2579
▁一項	-2580
▁三島	-2581
▁不過	-2582
▁他也	-2583
▁他的	-2584
▁位於	-2585
▁作為	-2586
▁全球	-2587
▁兩年	-2588
▁喬治	-2589
▁因此	-2590
▁國際	-2591
▁在中	-2592
▁在其	-2593
▁它與	-2594
▁對於	-2595
▁後來	-2596
▁後者	-2597
▁我的	-2598
▁所以	-2599
▁據說	-2600
▁時任	-2601
▁最後	-2602
▁有人	-2603
▁正如	-2604
▁此外	-2605
▁沈括	-2606
▁沒有	-2607
▁然而	-2608
▁特別	-2609
▁畢竟	-2610
▁當時	-2611
▁研究	-2612
▁第一	-2613
▁第三	-2614
▁第二	-2615
▁聯邦	-2616
▁與此	-2617
▁警察	-2618
▁賴特	-2619
▁迪斯	-2620
▁這裡	-2621
▁通常	-2622
▁鑑於	-2623
▁阿爾	-2624
▁除了	-2625
▁雖然	-2626
▁雪人	-2627
▁電影	-2628
一個人	-2629
一定會	-2630
一樣的	-2631
一系列	-2632
一面是	-2633
三十年	-2634
上個月	-2635
下來的	-2636
不存在	-2637
不得不	-2638
不應該	-2639
世界上	-2640
世紀中	-2641
世紀末	-2642
中入讀	-2643
中寫道	-2644
中心的	-2645
中扮演	-2646
中發現	-2647
主持人	-2648
主義的	-2649
主要由	-2650
也不會	-2651
也就是	-2652
也開始	-2653
了一場	-2654
了使用	-2655
了戰爭	-2656
了所有	-2657
了整個	-2658
五十萬	-2659
亞歷山	-2660
他已經	-2661
他自己	-2662
代表著	-2663
以來最	-2664
伯戈因	-2665
但是在	-2666
但這一	-2667
低海拔	-2668
作曲家	-2669
你知道	-2670
使用了	-2671
來源於	-2672
保持著	-2673
信仰的	-2674
偉大的	-2675
傳統是	-2676
價格為	-2677
億歐元	-2678
億英鎊	-2679
兄弟們	-2680
克萊恩	-2681
其他人	-2682
再一次	-2683
凱爾特	-2684
出來的	-2685
出現在	-2686
出生於	-2687
出生的	-2688
利用了	-2689
到整個	-2690
制受洗	-2691
創作了	-2692
劇作家	-2693
力發電	-2694
匈牙利	-2695
北京的	-2696
北朝鮮	-2697
北部的	-2698
十年內	-2699
十月初	-2700
卡洛斯	-2701
受到了	-2702
受歡迎	-2703
叛亂的	-2704
古拉斯	-2705
可持續	-2706
可疑的	-2707
可能性	-2708
史達林	-2709
吉他手	-2710
吉卜林	-2711
同樣的	-2712
吸引力	-2713
和一個	-2714
和中國	-2715
和國民	-2716
和平的	-2717
和歷史	-2718
和獎金	-2719
和紡織	-2720
問題的	-2721
圍繞著	-2722
在一個	-2723
在七月	-2724
在之後	-2725
在位的	-2726
在兩個	-2727
在沙漠	-2728
在美國	-2729
地區和	-2730
均收入	-2731
坎伯蘭	-2732
型基金	-2733
城市中	-2734
基督教	-2735
報導說	-2736
多數人	-2737
大多數	-2738
大都會	-2739
奠定了	-2740
奧古斯	-2741
奧運會	-2742
好幾個	-2743
威尼斯	-2744
嫌疑人	-2745
字母表	-2746
它們的	-2747
安石的	-2748
完成了	-2749
完成的	-2750
實際上	-2751
實驗室	-2752
對人類	-2753
對他們	-2754
對情侶	-2755
對我們	-2756
導方針	-2757
導演的	-2758
小塊釙	-2759
就是在	-2760
岩島嶼	-2761
巴爾幹	-2762
巴羅佐	-2763
布朗特	-2764
希羅底	-2765
帕爾馬	-2766
常見的	-2767
幫助下	-2768
平行的	-2769
年之間	-2770
年代初	-2771
年十月	-2772
年夏天	-2773
年夏季	-2774
年成立	-2775
年春天	-2776
年級的	-2777
幸的是	-2778
很容易	-2779
德國和	-2780
必不可	-2781
怎麼樣	-2782
恰當的	-2783
意味著	-2784
愛丁堡	-2785
愛爾蘭	-2786
我們會	-2787
我已經	-2788
我覺得	-2789
或者說	-2790
戰後的	-2791
所以我	-2792
所學校	-2793
打入了	-2794
打平手	-2795
找到了	-2796
投資在	-2797
拉博夫	-2798
拉斯加	-2799
拉斯哥	-2800
拿破崙	-2801
指揮權	-2802
挑戰的	-2803
接下來	-2804
摩納哥	-2805
撒哈拉	-2806
撒海爾	-2807
教人們	-2808
文明均	-2809
斯巴達	-2810
日之前	-2811
日耳曼	-2812
是一名	-2813
是一種	-2814
是可以	-2815
是政府	-2816
是清朝	-2817
是由於	-2818
更好地	-2819
最好的	-2820
最新的	-2821
最近的	-2822
最高的	-2823
會導致	-2824
月期間	-2825
有一位	-2826
有很多	-2827
未來的	-2828
格麗特	-2829
業生涯	-2830
權力的	-2831
歷史的	-2832
比利時	-2833
民族在	-2834
河流均	-2835
法國在	-2836
活動中	-2837
激烈的	-2838
為他們	-2839
為基礎	-2840
為歐洲	-2841
猶太人	-2842
猶太教	-2843
獨木舟	-2844
理事會	-2845
理查德	-2846
瓦雷茨	-2847
生活的	-2848
用名字	-2849
男子高	-2850
留下了	-2851
登上了	-2852
發布了	-2853
發布的	-2854
發生了	-2855
發生率	-2856
發電機	-2857
百萬冊	-2858
的一派	-2859
的一面	-2860
的人數	-2861
的人物	-2862
的保護	-2863
的信息	-2864
的元素	-2865
的內容	-2866
的另一	-2867
的名字	-2868
的城市	-2869
的心態	-2870
的志願	-2871
的情況	-2872
的想法	-2873
的成就	-2874
的技術	-2875
的投資	-2876
的文化	-2877
的日子	-2878
的是在	-2879
的時間	-2880
的最高	-2881
的條件	-2882
的機會	-2883
的歷史	-2884
的殊榮	-2885
的消息	-2886
的特別	-2887
的疑問	-2888
的研究	-2889
的破壞	-2890
的祖母	-2891
的私人	-2892
的立場	-2893
的系統	-2894
的藝術	-2895
的要求	-2896
的許多	-2897
的費用	-2898
的趨勢	-2899
的電影	-2900
目擊者	-2901
研究的	-2902
種子長	-2903
第一位	-2904
第三方	-2905
第二個	-2906
等我們	-2907
管不好	-2908
簽訂了	-2909
糟糕的	-2910
系統在	-2911
紀念碑	-2912
約里奧	-2913
罕見的	-2914
羅馬人	-2915
美國人	-2916
美西斯	-2917
而受到	-2918
聽證會	-2919
腓尼基	-2920
至十四	-2921
至少能	-2922
舉辦的	-2923
舊金山	-2924
舞台劇	-2925
色雷斯	-2926
英格蘭	-2927
萬歐元	-2928
被告知	-2929
被征服	-2930
被當作	-2931
被調查	-2932
西北部	-2933
西方的	-2934
西西里	-2935
要求把	-2936
訪問了	-2937
設計師	-2938
試圖讓	-2939
該城市	-2940
該電影	-2941
詹姆斯	-2942
警告說	-2943
讓羅娜	-2944
赫爾茨	-2945
這兩個	-2946
通常是	-2947
進入了	-2948
進行的	-2949
邁克爾	-2950
邁錫尼	-2951
還需要	-2952
那些在	-2953
部部長	-2954
重大的	-2955
開始的	-2956
開普敦	-2957
關於該	-2958
降到了	-2959
限制在	-2960
項目中	-2961
領導人	-2962
顯示了	-2963
飛行員	-2964
首歌曲	-2965
馬德里	-2966
高加索	-2967
高爾夫	-2968
,199	-2969
11%,	-2970
1820	-2971
1879	-2972
1914	-2973
1916	-2974
1918	-2975
1991	-2976
2004	-2977
2008	-2978
2012	-2979
andy	-2980
berg	-2981
book	-2982
cano	-2983
cone	-2984
face	-2985
ffre	-2986
film	-2987
king	-2988
korn	-2989
logy	-2990
nico	-2991
pugh	-2992
reco	-2993
▁107	-2994
▁196	-2995
▁但是在	-2996
▁俄羅斯	-2997
▁兩年後	-2998
▁共和黨	-2999
▁唐納德	-3000
▁在他們	-3001
▁希拉里	-3002
▁我認為	-3003
▁棲息地	-3004
▁沙塵暴	-3005
▁理論上	-3006
▁目前的	-3007
▁聯合國	-3008
▁迪斯尼	-3009
▁馬其頓	-3010
一分為二	-3011
一起工作	-3012
不可思議	-3013
不是所有	-3014
世界冠軍	-3015
中國將在	-3016
中華民國	-3017
主要來自	-3018
也適用於	-3019
了一系列	-3020
今天上午	-3021
代理人的	-3022
代表了最	-3023
以及其他	-3024
伊斯蘭教	-3025
但是他的	-3026
佛羅里達	-3027
作為一個	-3028
作為主要	-3029
六十年代	-3030
共同出演	-3031
共和國的	-3032
其他國家	-3033
出自己的	-3034
北部區域	-3035
可以緩解	-3036
命令不得	-3037
和印第安	-3038
和城鎮化	-3039
哥倫佈於	-3040
哪兒來的	-3041
因為他們	-3042
因為這些	-3043
國家公園	-3044
土著群體	-3045
在公元前	-3046
在此之前	-3047
在華盛頓	-3048
地面控制	-3049
埃爾多安	-3050
堪薩斯州	-3051
塞特郡的	-3052
大概降低	-3053
大部分的	-3054
天氣預報	-3055
奧林匹克	-3056
宣布破產	-3057
對的靈感	-3058
岡薩雷斯	-3059
嶄露頭角	-3060
工作時間	-3061
工作環境	-3062
巴黎協定	-3063
希區柯克	-3064
帶有一個	-3065
年代中期	-3066
年以來的	-3067
幾乎沒有	-3068
強制受洗	-3069
很可能是	-3070
成為總統	-3071
成的植物	-3072
戰爭期間	-3073
戰爭爆發	-3074
拉丁美裔	-3075
拉的嬰兒	-3076
指導方針	-3077
接受教育	-3078
政權轉移	-3079
斯帕尼亞	-3080
斯洛伐克	-3081
明治天皇	-3082
是世界上	-3083
最有可能	-3084
有很大的	-3085
板塊斷層	-3086
格拉斯哥	-3087
歲的兒童	-3088
歷史學家	-3089
氣體質量	-3090
沒有這些	-3091
海的鱈魚	-3092
溫特科恩	-3093
激素避孕	-3094
王安石的	-3095
瑪格麗特	-3096
生態系統	-3097
發現大陸	-3098
發生變化	-3099
的一集中	-3100
的可能性	-3101
的幫助下	-3102
的水資源	-3103
的統治者	-3104
的高爾夫	-3105
相似之處	-3106
社交媒體	-3107
社會主義	-3108
穿過邊境	-3109
米爾一世	-3110
約克公爵	-3111
約公元前	-3112
給西雅那	-3113
統治地位	-3114
羅馬帝國	-3115
職業生涯	-3116
至公元前	-3117
舊殖民地	-3118
蘇格蘭人	-3119
血紅蛋白	-3120
該電影由	-3121
警方表示	-3122
變得更加	-3123
賬戶餘額	-3124
越來越多	-3125
迦南人的	-3126
這部電影	-3127
進場系統	-3128
阿拉斯加	-3129
阿普利亞	-3130
青銅時代	-3131
顯而易見	-3132
飽受批評	-3133
5,000	-3134
alano	-3135
anaya	-3136
carlo	-3137
erber	-3138
georg	-3139
gonzá	-3140
leive	-3141
morri	-3142
otify	-3143
rosos	-3144
▁1770	-3145
▁1832	-3146
▁1976	-3147
▁2011	-3148
▁2012	-3149
▁2015	-3150
▁博格達汗	-3151
▁它是一個	-3152
▁從公元前	-3153
▁研究人員	-3154
▁聯邦政府	-3155
▁與此同時	-3156
一些不同的	-3157
一直在尋找	-3158
伯戈因將軍	-3159
低海拔地區	-3160
候選人資格	-3161
全球最大的	-3162
北卡羅來納	-3163
和澳大利亞	-3164
和瓦倫蒂諾	-3165
在地中海的	-3166
天皇在位的	-3167
安第斯山脈	-3168
宗教信仰的	-3169
就是為什麼	-3170
巴拿馬地峽	-3171
年級的全國	-3172
必不可少的	-3173
應用到整個	-3174
撒哈拉沙漠	-3175
收益型基金	-3176
教人們如何	-3177
更令人擔憂	-3178
澳大利亞人	-3179
生命的最後	-3180
發生的機率	-3181
的地標燈塔	-3182
皈依猶太教	-3183
自己的政治	-3184
越來越多的	-3185
開放的心態	-3186
非洲撒海爾	-3187
高加索地區	-3188
caucas	-3189
dündar	-3190
rastiz	-3191
winter	-3192
▁克里斯托弗	-3193
不可思議的一	-3194
品種可以緩解	-3195
圖特摩斯三世	-3196
就會大概降低	-3197
現代西班牙語	-3198
男子高中入讀	-3199
男性激素避孕	-3200
自然資源保護	-3201
莫伊米爾一世	-3202
nicolai	-3203
richard	-3204
spotify	-3205
北朝鮮的高爾夫	-3206
奧林匹克運動會	-3207
氣體質量分類法	-3208
種子長成的植物	-3209
第一次世界大戰	-3210
給西雅那銀行的	-3211
績效工資和獎金	-3212
至十四歲的兒童	-3213
barrosos	-3214
canology	-3215
catalano	-3216
caucasus	-3217
facebook	-3218
gonzález	-3219
地面控制進場系統	-3220
安大略省的房地產	-3221
為歐洲低海拔地區	-3222
morricone	-3223
年級的全國平均水平	-3224
winterkorn	-3225
發生的機率就會大概降低	-3226
阿爾卑斯山脈為歐洲低海拔地區	-3227
▁揭露	-3228
▁撤退	-3229
▁梅爾	-3230
▁蒂娜	-3231
▁誰能	-3232
▁週二	-3233
▁雷暴	-3234
上海和	-3235
上船的	-3236
不比在	-3237
不相同	-3238
不道德	-3239
不遠了	-3240
並賠償	-3241
中獨自	-3242
中詳細	-3243
中賺取	-3244
中都有	-3245
也推動	-3246
了演唱	-3247
亞聯軍	-3248
人曾在	-3249
人缺席	-3250
人見過	-3251
他激進	-3252
他霸占	-3253
他願意	-3254
付更多	-3255
但蓋耶	-3256
位資本	-3257
佩達爾	-3258
來祈禱	-3259
來計算	-3260
個港口	-3261
個男人	-3262
倫比的	-3263
像海外	-3264
克萊德	-3265
兵軍官	-3266
其關閉	-3267
別林斯	-3268
利選項	-3269
副武裝	-3270
力證據	-3271
募集的	-3272
北走向	-3273
又有意	-3274
取更多	-3275
受爭議	-3276
受疼痛	-3277
口葡萄	-3278
右肺的	-3279
吉拉德	-3280
名獲勝	-3281
名這片	-3282
和政黨	-3283
和林肯	-3284
和武器	-3285
和火箭	-3286
和穿戴	-3287
和索爾	-3288
和近海	-3289
和這片	-3290
品批發	-3291
員效忠	-3292
嗆肺的	-3293
在歡樂	-3294
在波蘭	-3295
在生者	-3296
在紐約	-3297
在網上	-3298
在達菲	-3299
人想要	-3300
和復興	-3301
在遠離	-3302
地思考	-3303
地打開	-3304
地旅行	-3305
地講述	-3306
基普林	-3307
塔拉諾	-3308
塔比的	-3309
士李維	-3310
大洲的	-3311
奧聯軍	-3312
女演員	-3313
字版的	-3314
它標誌	-3315
就關閉	-3316
年滅亡	-3317
年為止	-3318
幻時刻	-3319
底是誰	-3320
度考慮	-3321
彼拉多	-3322
很驚訝	-3323
從挪威	-3324
微小的	-3325
必要的	-3326
性別暴	-3327
性別歧	-3328
愚蠢內	-3329
愚蠢至	-3330
感覺到	-3331
感覺是	-3332
成員大	-3333
成就展	-3334
成就獎	-3335
我排除	-3336
我擺脫	-3337
我會選	-3338
我都要	-3339
或在酒	-3340
戰鬥中	-3341
戴維斯	-3342
所接收	-3343
所謂的	-3344
所需的	-3345
手術和	-3346
才會被	-3347
打鬥和	-3348
把日出	-3349
拉尼西	-3350
拉迪亞	-3351
採集的	-3352
接收到	-3353
推特簡	-3354
推特賬	-3355
提及將	-3356
揭露後	-3357
摧毀的	-3358
擬定為	-3359
教皇方	-3360
數次挑	-3361
文以北	-3362
料的藥	-3363
斯死後	-3364
斯海峽	-3365
斯蒂芬	-3366
新聞說	-3367
族裔的	-3368
是其陳	-3369
是衣服	-3370
是近期	-3371
是這家	-3372
普林格	-3373
普爾市	-3374
暫停於	-3375
更注重	-3376
更為優	-3377
曾發揮	-3378
最深遠	-3379
最關心	-3380
會牧師	-3381
會被生	-3382
月的升	-3383
月的繁	-3384
月至二	-3385
有三棵	-3386
有必要	-3387
有抗議	-3388
有旅行	-3389
有貴族	-3390
未發育	-3391
未透露	-3392
本中演	-3393
本錄製	-3394
材料的	-3395
核武器	-3396
梅爾丁	-3397
條款退	-3398
棕櫚樹	-3399
▁幸運	-3400
▁幾十	-3401
七年後	-3402
三年內	-3403
代年號	-3404
六年間	-3405
差不多	-3406
差異大	-3407
帕克所	-3408
干預是	-3409
年在位	-3410
年是引	-3411
幸運兔	-3412
幾十億	-3413
廣播和	-3414
廣播電	-3415
廳建於	-3416
很快就	-3417
很有趣	-3418
成年人	-3419
斯市長	-3420
棕櫚葉	-3421
槍殺了	-3422
標誌著	-3423
模型中	-3424
檢測不	-3425
權能在	-3426
歌手兼	-3427
正確組	-3428
此概念	-3429
段時刻	-3430
永不停	-3431
沃爾卡	-3432
河的俄	-3433
法令確	-3434
波檢測	-3435
波蘭及	-3436
注意到	-3437
洛克堅	-3438
流行緊	-3439
浮線的	-3440
海峽要	-3441
淺礁湖	-3442
添加免	-3443
湊車型	-3444
準確地	-3445
準確結	-3446
演員和	-3447
澳洲網	-3448
火車走	-3449
為期一	-3450
為每人	-3451
為童工	-3452
為野獸	-3453
煤電站	-3454
爾普爾	-3455
爾里希	-3456
片場後	-3457
版的聖	-3458
牧師拜	-3459
物平台	-3460
特德於	-3461
獨自一	-3462
環礁湖	-3463
生肖是	-3464
男人應	-3465
略高於	-3466
當針對	-3467
疏遠了	-3468
病病人	-3469
登離婚	-3470
發揮了	-3471
發育長	-3472
發送表	-3473
百分點	-3474
的宣言	-3475
的宣誓	-3476
的延續	-3477
的微小	-3478
的托利	-3479
的托爾	-3480
的期待	-3481
的歡樂	-3482
的注意	-3483
的滅亡	-3484
的爭論	-3485
的狀態	-3486
的瘋狂	-3487
的知識	-3488
的神壇	-3489
的神經	-3490
的科幻	-3491
的秘密	-3492
的細微	-3493
的細節	-3494
的結果	-3495
的結構	-3496
的經歷	-3497
的職位	-3498
的葬禮	-3499
一局的	-3500
哥將會	-3501
將會受	-3502
將能與	-3503
專業而	-3504
尋求與	-3505
小時後	-3506
尬局面	-3507
局的特	-3508
展現了	-3509
展現的	-3510
崔絲一	-3511
崔絲已	-3512
工人提	-3513
拉島和	-3514
此局面	-3515
法就被	-3516
為野生	-3517
的聊天	-3518
的補助	-3519
的諾瑪	-3520
的證據	-3521
的賽車	-3522
的賽道	-3523
的身份	-3524
的追求	-3525
的這座	-3526
的遺跡	-3527
的黨內	-3528
真正共	-3529
真正有	-3530
確實很	-3531
祀遺跡	-3532
福德高	-3533
程序上	-3534
突變的	-3535
立石為	-3536
立足前	-3537
立足點	-3538
符拉迪	-3539
簡直是	-3540
系變的	-3541
紐約市	-3542
索爾海	-3543
經驗的	-3544
緊鄰色	-3545
總體的	-3546
繼承者	-3547
繼承順	-3548
羅拉多	-3549
羅河的	-3550
羅訥河	-3551
群島和	-3552
習慣法	-3553
習慣稱	-3554
老年人	-3555
而我寧	-3556
而被控	-3557
而食物	-3558
職變遷	-3559
肥料價	-3560
與其城	-3561
與謀殺	-3562
船員共	-3563
色體的	-3564
茲福德	-3565
萊茵河	-3566
著陸襟	-3567
葡萄牙	-3568
葬禮罪	-3569
蓄謙遜	-3570
薩拉託	-3571
薩米人	-3572
藉由完	-3573
虔誠所	-3574
行進到	-3575
術錯誤	-3576
衡量的	-3577
被徹底	-3578
被忽視	-3579
被投入	-3580
被遺忘	-3581
要么撤	-3582
要評估	-3583
要選出	-3584
規劃區	-3585
規劃署	-3586
視為有	-3587
解約後	-3588
言稱他	-3589
訥河谷	-3590
該獎項	-3591
誰能挑	-3592
請願書	-3593
謀殺罪	-3594
謙遜的	-3595
財務的	-3596
財務長	-3597
超級英	-3598
超越它	-3599
塞密爾	-3600
她客串	-3601
好評的	-3602
妥協協	-3603
妥善的	-3604
子安德	-3605
安娜亞	-3606
安德魯	-3607
官方自	-3608
審查主	-3609
寫作興	-3610
小威廉	-3611
巧妙的	-3612
未完工	-3613
由官方	-3614
的季節	-3615
的守護	-3616
的損失	-3617
與完工	-3618
被妥善	-3619
軍軍官	-3620
較為少	-3621
轉而專	-3622
轉變和	-3623
轟炸了	-3624
轟炸機	-3625
辦公室	-3626
通知中	-3627
週六中	-3628
過農民	-3629
道德淪	-3630
那里為	-3631
部影片	-3632
部疼痛	-3633
部落和	-3634
部落在	-3635
都有其	-3636
都穿戴	-3637
醜聞被	-3638
醫療總	-3639
里或在	-3640
重現了	-3641
重現的	-3642
釙樣本	-3643
鏈接和	-3644
開支的	-3645
阿伯茨	-3646
阿特靈	-3647
隨時在	-3648
險的飆	-3649
雞永不	-3650
離婚後	-3651
雷戴維	-3652
預算赤	-3653
飲集團	-3654
馬死亡	-3655
騎兵在	-3656
鬥志昂	-3657
鬧劇和	-3658
鬧劇就	-3659
$150	-3660
,190	-3661
1903	-3662
1947	-3663
1948	-3664
avid	-3665
buck	-3666
hina	-3667
iams	-3668
javi	-3669
ktel	-3670
norm	-3671
nuck	-3672
pley	-3673
rump	-3674
uena	-3675
vine	-3676
zayi	-3677
£125	-3678
▁三島生	-3679
▁不擬定	-3680
▁他曾在	-3681
▁他的妹	-3682
▁傳統是	-3683
▁全球變	-3684
▁北京的	-3685
▁十月初	-3686
▁喬治為	-3687
▁國際可	-3688
▁在其範	-3689
▁在那兒	-3690
▁多瑙河	-3691
▁巴羅佐	-3692
▁後者在	-3693
▁或者說	-3694
▁投資在	-3695
▁日耳曼	-3696
▁曾發揮	-3697
▁有人曾	-3698
▁沒有人	-3699
但她說	-3700
和多元	-3701
在大火	-3702
塔爾梅	-3703
塞西亞	-3704
多於圍	-3705
多次的	-3706
大樓為	-3707
天文台	-3708
太陽和	-3709
太陽眼	-3710
奇蹟和	-3711
契丹遼	-3712
奪回席	-3713
女巫之	-3714
她寫歌	-3715
她寫的	-3716
容她為	-3717
尼奪回	-3718
幢大樓	-3719
很失望	-3720
從太空	-3721
的多元	-3722
的女巫	-3723
莫夫在	-3724
著大麻	-3725
▁然而對	-3726
▁第一小	-3727
▁第一版	-3728
▁第二季	-3729
▁第二年	-3730
▁舊金山	-3731
▁解約後	-3732
▁警察傻	-3733
▁賴特是	-3734
▁赫爾茨	-3735
▁這裡於	-3736
▁週二是	-3737
▁鑑於希	-3738
▁阿爾及	-3739
▁阿特靈	-3740
▁阿馬爾	-3741
▁馬德里	-3742
一個人呆	-3743
一定會懷	-3744
一發布的	-3745
一種更為	-3746
一致好評	-3747
一起探討	-3748
一部影片	-3749
一面是對	-3750
七大洲的	-3751
三年內貸	-3752
三百萬冊	-3753
三首歌曲	-3754
上進行的	-3755
不再願意	-3756
不在片場	-3757
不存在此	-3758
不應該就	-3759
不斷擴展	-3760
不比在尼	-3761
並未透露	-3762
並發布了	-3763
中扮演精	-3764
主持人克	-3765
之平行的	-3766
之後存活	-3767
也不會倒	-3768
也利用了	-3769
也在之後	-3770
也推動了	-3771
也留下了	-3772
了一場在	-3773
了使用單	-3774
了使用家	-3775
了所有七	-3776
了整個西	-3777
了腓尼基	-3778
了色雷斯	-3779
了西西里	-3780
了重大的	-3781
二十年內	-3782
五個港口	-3783
五百萬冊	-3784
些所謂的	-3785
人均收入	-3786
人想要阻	-3787
人數很少	-3788
人理事會	-3789
什大樓為	-3790
他已經拍	-3791
他的法令	-3792
他的真實	-3793
他自己近	-3794
代表著富	-3795
代表著島	-3796
代表透露	-3797
令人驚訝	-3798
以奪回席	-3799
▁執行	-3800
了嚴格	-3801
他周圍	-3802
否則會	-3803
告誡其	-3804
呼聲傳	-3805
和不來	-3806
嘗試在	-3807
嘗試著	-3808
嚴格的	-3809
四月在	-3810
四月襲	-3811
因而替	-3812
困擾著	-3813
在同一	-3814
執行官	-3815
基於政	-3816
太平洋	-3817
她和她	-3818
從向著	-3819
從周圍	-3820
是基於	-3821
源單元	-3822
的圖片	-3823
薩圖片	-3824
避和不	-3825
項團體	-3826
▁城市中	-3827
▁後者讓	-3828
任職變遷	-3829
份關於該	-3830
休息環節	-3831
但最新的	-3832
但權力的	-3833
佈為野生	-3834
位置近海	-3835
作他激進	-3836
作曲家吉	-3837
作為食物	-3838
使用了原	-3839
使這兩個	-3840
來源於伯	-3841
來衡量的	-3842
來計算的	-3843
保持穩步	-3844
個系統在	-3845
傷阿伯茨	-3846
像海外資	-3847
億英鎊和	-3848
克萊恩沉	-3849
兒子安德	-3850
內地旅行	-3851
全克萊德	-3852
全副武裝	-3853
公共場合	-3854
公司損失	-3855
六年間失	-3856
六月至八	-3857
共同採取	-3858
其他人則	-3859
其他團體	-3860
兼匈牙利	-3861
冰島語中	-3862
出生於多	-3863
別林斯高	-3864
到底是誰	-3865
券會被生	-3866
前克萊恩	-3867
創作了六	-3868
劇打入了	-3869
加亞聯軍	-3870
勒斯蒂芬	-3871
動地講述	-3872
動物很少	-3873
動物還能	-3874
匈妥協協	-3875
匈牙利施	-3876
北愛爾蘭	-3877
十七年後	-3878
半島的後	-3879
南部緊鄰	-3880
卡塔拉諾	-3881
卡塔東部	-3882
卡洛斯四	-3883
印度洋的	-3884
去希羅底	-3885
去除空氣	-3886
又有意思	-3887
受好評的	-3888
受疼痛折	-3889
口葡萄酒	-3890
可持續到	-3891
可持續數	-3892
可疑的漏	-3893
可疑的現	-3894
史以來最	-3895
史達林接	-3896
同上船的	-3897
向飛行員	-3898
否則到了	-3899
▁南非	-3900
▁同年	-3901
丶南非	-3902
他同年	-3903
但即使	-3904
傾向著	-3905
力協助	-3906
北海是	-3907
南亞祖	-3908
南亞種	-3909
博客撰	-3910
卡拉布	-3911
卡森已	-3912
即將離	-3913
參賽者	-3914
反法西	-3915
取代了	-3916
叛軍的	-3917
史前手	-3918
向南走	-3919
在史密	-3920
就只能	-3921
底去除	-3922
整合了	-3923
日參賽	-3924
穿南極	-3925
適合了	-3926
都很有	-3927
中底去除	-3928
丶南非丶	-3929
主要由古	-3930
但即使是	-3931
作整合了	-3932
傾向著稱	-3933
北海是指	-3934
南亞祖先	-3935
南亞種植	-3936
南極大陸	-3937
博客撰稿	-3938
卡拉布里	-3939
卡拉皇帝	-3940
卡森已幾	-3941
即使非常	-3942
反法同盟	-3943
古老歷史	-3944
史前手工	-3945
史密斯的	-3946
同盟叛軍	-3947
向南推進	-3948
含蓄謙遜	-3949
告誡不要	-3950
告誡其教	-3951
呼聲傳遍	-3952
和一系列	-3953
和中國等	-3954
和國民警	-3955
和多元高	-3956
和女演員	-3957
和林肯執	-3958
和法國在	-3959
和烏克蘭	-3960
和程序上	-3961
和腓尼基	-3962
品批發商	-3963
品牌首席	-3964
哈雷戴維	-3965
員效忠於	-3966
嗆肺的霧	-3967
嚴格的劍	-3968
四名學生	-3969
四月在蒙	-3970
回到火車	-3971
因糟糕的	-3972
圍內造成	-3973
圍限制在	-3974
在之後塑	-3975
在兩千年	-3976
在大火中	-3977
在好幾個	-3978
在歡樂的	-3979
在沙漠裡	-3980
在等我們	-3981
在紐約州	-3982
在聖塞西	-3983
在通知中	-3984
在達菲的	-3985
地點符合	-3986
址都很有	-3987
均收入是	-3988
基於政績	-3989
基普林的	-3990
基督教的	-3991
塔斯一世	-3992
塞地區和	-3993
塞密爾於	-3994
增長率比	-3995
壇留下了	-3996
壞的情況	-3997
士不得不	-3998
士兵出現	-3999
下加利	-4000
來勢力	-4001
出於天	-4002
分鐘左	-4003
分離的	-4004
初選中	-4005
前線作	-4006
前進的	-4007
割讓給	-4008
力的呼	-4009
加利修	-4010
加工品	-4011
助理科	-4012
勞動力	-4013
化學浴	-4014
向前進	-4015
地制度	-4016
寫劇本	-4017
最有名	-4018
的前線	-4019
的助理	-4020
而十個	-4021
重力的	-4022
釙分離	-4023
驅動力	-4024
下加利福	-4025
了分離的	-4026
了數千年	-4027
來勢力間	-4028
克斯勳爵	-4029
再次流行	-4030
出於天真	-4031
出於管理	-4032
分鐘左右	-4033
初選中瑞	-4034
制度之前	-4035
前線作戰	-4036
力的呼籲	-4037
加低斯的	-4038
加利修正	-4039
助理科瑞	-4040
化學浴徹	-4041
化的第一	-4042
化的語言	-4043
士李維被	-4044
多數人毀	-4045
多於圍著	-4046
多於答案	-4047
多而食物	-4048
大多數席	-4049
大都會俱	-4050
天皇死後	-4051
太平洋的	-4052
太陽和滿	-4053
失望的人	-4054
契丹遼朝	-4055
女巫之槌	-4056
她在一個	-4057
她客串了	-4058
她寫的歌	-4059
她是反對	-4060
存活下來	-4061
季節性的	-4062
學者爭論	-4063
學院的學	-4064
它們的糞	-4065
它們符合	-4066
它為地區	-4067
它重現了	-4068
完成了撤	-4069
官方自傳	-4070
宣布獲勝	-4071
室內製作	-4072
實驗室是	-4073
寫作興致	-4074
將會受限	-4075
將能降低	-4076
將要來臨	-4077
專業人士	-4078
對他們註	-4079
對情侶了	-4080
對我們耍	-4081
小塊釙使	-4082
少數族裔	-4083
尤其是在	-4084
就檢測不	-4085
尷尬局面	-4086
局的特工	-4087
展現了強	-4088
展現的怠	-4089
岩島嶼則	-4090
崔絲已返	-4091
州的百分	-4092
巨額銀行	-4093
差不多是	-4094
差異大於	-4095
市長決定	-4096
希羅底的	-4097
帕克所說	-4098
帖中都有	-4099
▁假期	-4100
中充分	-4101
信號燈	-4102
修建所	-4103
做了省	-4104
停留時	-4105
優秀的	-4106
儲蓄和	-4107
克頓的	-4108
公國在	-4109
地假設	-4110
拉公國	-4111
會傷害	-4112
病傳播	-4113
的傷害	-4114
的充分	-4115
認出來	-4116
中充分讚	-4117
他們兩人	-4118
他們兩者	-4119
伊斯內爾	-4120
修建所耗	-4121
停留了八	-4122
債券全部	-4123
優步以及	-4124
優步公司	-4125
儲蓄賬戶	-4126
充滿希望	-4127
充滿意義	-4128
克斯兩次	-4129
克頓的黑	-4130
公主出現	-4131
公國在當	-4132
反應出來	-4133
在停留時	-4134
導致債務	-4135
展覽公寓	-4136
師和紡織	-4137
帶來讓人	-4138
常的呼聲	-4139
年一樣的	-4140
年代初期	-4141
年代就在	-4142
年度調查	-4143
年後加入	-4144
年間領導	-4145
幾十億的	-4146
幾首歌曲	-4147
庫莫夫在	-4148
延續了多	-4149
建立生者	-4150
建設中的	-4151
建設看到	-4152
建議環節	-4153
引用他的	-4154
引用學者	-4155
形容她為	-4156
影響深遠	-4157
影響還未	-4158
很多能使	-4159
很容易進	-4160
很快就破	-4161
很有趣的	-4162
後的意圖	-4163
後者同意	-4164
從未接觸	-4165
從而使得	-4166
御所需的	-4167
德國和納	-4168
德國官員	-4169
德國農民	-4170
徹底從中	-4171
心的機會	-4172
思主義的	-4173
性別暴力	-4174
性別歧視	-4175
性在兩個	-4176
恰當的儀	-4177
愚蠢至極	-4178
愛丁堡晚	-4179
感受到了	-4180
感覺是家	-4181
慰是可以	-4182
憶在生者	-4183
應用程序	-4184
成員大衛	-4185
成更注重	-4186
我排除在	-4187
我會感到	-4188
我覺得她	-4189
我都要坐	-4190
或在酒吧	-4191
或者說本	-4192
或至少能	-4193
戰役得以	-4194
戰役的學	-4195
戰後的柏	-4196
戰後的煩	-4197
所有的醫	-4198
手術才能	-4199
▁維加	-4200
▁維勒	-4201
上任的	-4202
並保留	-4203
乘坐纜	-4204
了使該	-4205
人乘坐	-4206
人休息	-4207
佔有下	-4208
你更煩	-4209
你的弱	-4210
使他對	-4211
使其更	-4212
使其與	-4213
來分配	-4214
來分隔	-4215
到你的	-4216
劣童工	-4217
情使他	-4218
比你更	-4219
海保留	-4220
的保障	-4221
算佔領	-4222
誕不經	-4223
警信號	-4224
類似的	-4225
黨保守	-4226
▁維勒訥	-4227
世的女兒	-4228
並保留了	-4229
乘坐纜車	-4230
也使其與	-4231
人休息和	-4232
他被給予	-4233
任的總統	-4234
但他拒絕	-4235
佔領古巴	-4236
作出通過	-4237
你更煩躁	-4238
你的弱項	-4239
使其更有	-4240
來分配的	-4241
來分隔兩	-4242
劣童工形	-4243
報警信號	-4244
市場佔有	-4245
性情使他	-4246
才能進去	-4247
打算佔領	-4248
打鬥和打	-4249
投入使用	-4250
拉博夫裸	-4251
拉美西斯	-4252
拉迪亞德	-4253
授予塞爾	-4254
授權能在	-4255
排字版的	-4256
採取了多	-4257
接下來她	-4258
接到你的	-4259
推特簡訊	-4260
推特賬號	-4261
揚了使該	-4262
揭示了他	-4263
摧毀的市	-4264
擁有滿意	-4265
擔的人數	-4266
支付巨額	-4267
效的條件	-4268
教皇保羅	-4269
教皇方濟	-4270
數個小時	-4271
數次要求	-4272
文明均因	-4273
文明均在	-4274
料的藥丸	-4275
斯佩達爾	-4276
斯巴達在	-4277
新上任的	-4278
方向前進	-4279
於活動中	-4280
於西方的	-4281
於馬德里	-4282
施普林格	-4283
日出生於	-4284
日期只能	-4285
早期發明	-4286
明會牧師	-4287
是一名漫	-4288
是一名臥	-4289
是其陳腐	-4290
是其領土	-4291
是否認識	-4292
是政府中	-4293
是政府最	-4294
時期出現	-4295
景使他對	-4296
更為優異	-4297
最有影響	-4298
最高溫度	-4299
了對心	-4300
事情上	-4301
互相調	-4302
五年婚	-4303
交了上	-4304
他將之	-4305
他會上	-4306
到他了	-4307
擬人機	-4308
是事實	-4309
無人機	-4310
給他了	-4311
轉了對	-4312
了十五年	-4313
了對心理	-4314
二十世紀	-4315
互相調笑	-4316
五年婚約	-4317
交了上訴	-4318
人數有所	-4319
人民共同	-4320
他也成了	-4321
他就承認	-4322
他就明白	-4323
全是事實	-4324
參與了該	-4325
嫁給他了	-4326
扭轉了對	-4327
擁有互相	-4328
擬人機器	-4329
會導致射	-4330
月的升起	-4331
月的繁殖	-4332
有一位敲	-4333
有些人在	-4334
有些國家	-4335
有利選項	-4336
有意在兩	-4337
有的作品	-4338
朝代年號	-4339
期的所謂	-4340
未出生的	-4341
未完工的	-4342
未發育的	-4343
末標誌著	-4344
本地勢力	-4345
染色體的	-4346
柔的一面	-4347
業的諾瑪	-4348
概念藝術	-4349
槍殺了蘇	-4350
歇的歡樂	-4351
歌曲是由	-4352
歐盟官員	-4353
正是這家	-4354
此概念叫	-4355
此次干預	-4356
歲的朱婷	-4357
歷史的書	-4358
歸而被控	-4359
死亡人口	-4360
每人平均	-4361
比你更有	-4362
比例一致	-4363
沒有見過	-4364
河流均有	-4365
法國在馬	-4366
法國據此	-4367
法就被推	-4368
法部部長	-4369
波的抗議	-4370
波蘭及波	-4371
洛克堅定	-4372
派系變的	-4373
流行緊密	-4374
浪的機會	-4375
海報能夠	-4376
海峽要道	-4377
深對人類	-4378
深的交通	-4379
深的平壤	-4380
準確結婚	-4381
滴從周圍	-4382
滿族統治	-4383
潘沃爾卡	-4384
澳洲網球	-4385
激烈的思	-4386
濟拉島和	-4387
災難性的	-4388
為中心的	-4389
為基礎的	-4390
為她寫歌	-4391
為拉博夫	-4392
烏爾里希	-4393
無法計算	-4394
煤電站也	-4395
營中獨自	-4396
爭取更多	-4397
爵位具有	-4398
片圍繞著	-4399
不想被	-4400
丘吉爾	-4401
丟了六	-4402
中吸收	-4403
中吸煙	-4404
中移除	-4405
主導的	-4406
之於人	-4407
之於常	-4408
了不少	-4409
了不管	-4410
了大公	-4411
壞了它	-4412
對丘吉	-4413
會主席	-4414
本主演	-4415
群中央	-4416
解了它	-4417
▁他主張	-4418
下了中央	-4419
不想被賣	-4420
丑之於人	-4421
丘吉爾頒	-4422
丟了六分	-4423
中吸收並	-4424
之於常人	-4425
也是全球	-4426
了不少便	-4427
了不管他	-4428
了十年的	-4429
了大公牆	-4430
你主導的	-4431
善會主席	-4432
因此丟了	-4433
將其主張	-4434
會傷害小	-4435
法律中移	-4436
版本中演	-4437
牧師拜訪	-4438
物的期待	-4439
特拉公國	-4440
獨立寫作	-4441
獨自一人	-4442
獲獎建築	-4443
獲獎影片	-4444
現在是上	-4445
理和近海	-4446
甚至比在	-4447
生中吸煙	-4448
生活的社	-4449
生肖是猴	-4450
用同樣的	-4451
用第三方	-4452
由法令確	-4453
當作提高	-4454
當年是引	-4455
當罕見的	-4456
疾病傳播	-4457
病人來說	-4458
瘤是一種	-4459
發生打鬥	-4460
發生率為	-4461
發育長期	-4462
白人男性	-4463
百五十萬	-4464
的人得以	-4465
的人數眾	-4466
的人而言	-4467
的人轉而	-4468
的內容更	-4469
的吉他手	-4470
的女巫琳	-4471
的安德魯	-4472
的帕爾馬	-4473
的志願者	-4474
的志願軍	-4475
的情況為	-4476
的托利黨	-4477
的技術來	-4478
的指揮權	-4479
的新公寓	-4480
的新形式	-4481
的梅爾丁	-4482
的正確組	-4483
的疑問也	-4484
的知識產	-4485
的破壞極	-4486
的祖母是	-4487
的第三方	-4488
的第二個	-4489
的系統和	-4490
的紀念碑	-4491
的結構和	-4492
的繼承者	-4493
的聊天軟	-4494
的著陸襟	-4495
的證據是	-4496
的賽車手	-4497
的轉變和	-4498
的飛行員	-4499
▁科隆	-4500
▁蘇伊	-4501
▁除此	-4502
一座大	-4503
一般因	-4504
三角洲	-4505
上並毀	-4506
上很勉	-4507
下面將	-4508
不久前	-4509
不合格	-4510
不合適	-4511
不大切	-4512
不想給	-4513
了下來	-4514
撈上限	-4515
濱一帶	-4516
站上並	-4517
▁蘇伊士	-4518
一座大金	-4519
一般因矽	-4520
上很勉強	-4521
下面將小	-4522
不久前剛	-4523
不合適的	-4524
不大切合	-4525
其不合格	-4526
剩了下來	-4527
捕撈上限	-4528
新傳統是	-4529
最高一座	-4530
東三角洲	-4531
海濱一帶	-4532
皇亞歷山	-4533
監管船隻	-4534
目前為止	-4535
目的是在	-4536
相信是上	-4537
相對較低	-4538
真正共處	-4539
短的時間	-4540
石材料的	-4541
研究的實	-4542
砲兵軍官	-4543
破解了它	-4544
硬的一面	-4545
確實很可	-4546
磁浮線的	-4547
礦物資源	-4548
社發生了	-4549
祀遺跡由	-4550
福特公司	-4551
福的追求	-4552
科幻電影	-4553
科羅拉多	-4554
種罕見的	-4555
積極防衛	-4556
突變的數	-4557
立石為南	-4558
符拉迪沃	-4559
第一位在	-4560
第一位女	-4561
等城市中	-4562
節勞動力	-4563
簡直是太	-4564
系統添加	-4565
紀念碑和	-4566
組織優先	-4567
經過一些	-4568
經過近期	-4569
網上信息	-4570
緊鄰色雷	-4571
線的局勢	-4572
練工人提	-4573
總統想要	-4574
總體的鐵	-4575
缺席的人	-4576
羅娜發明	-4577
羅馬人把	-4578
美國公民	-4579
美國醫療	-4580
美拉尼西	-4581
美洲史前	-4582
美西斯在	-4583
而我寧願	-4584
而有給予	-4585
聯邦開支	-4586
聲波檢測	-4587
聽證會的	-4588
肥料價值	-4589
育的守護	-4590
背部疼痛	-4591
能使植物	-4592
能夠遠離	-4593
能接收到	-4594
自己即將	-4595
致命的一	-4596
與其城堡	-4597
與崔絲一	-4598
與西方的	-4599
gui	-4600
sea	-4601
tur	-4602
twi	-4603
tzi	-4604
▁如峽	-4605
▁白色	-4606
▁相比	-4607
▁確保	-4608
▁確定	-4609
▁科朵	-4610
▁衣服	-4611
anzi	-4612
erts	-4613
guil	-4614
igui	-4615
juan	-4616
jutt	-4617
nott	-4618
orie	-4619
sele	-4620
spie	-4621
tsch	-4622
tube	-4623
turn	-4624
twit	-4625
ötzi	-4626
▁你必須	-4627
▁其警察	-4628
▁其重要	-4629
▁如峽灣	-4630
▁確保了	-4631
▁科朵拉	-4632
與謀殺案	-4633
船的記錄	-4634
英國船隻	-4635
英格蘭和	-4636
荒誕不經	-4637
菩薩圖片	-4638
薩拉託加	-4639
薩米方言	-4640
藉由完成	-4641
藉由建立	-4642
虔誠所感	-4643
行中移除	-4644
行進到把	-4645
衛軍軍官	-4646
表示遺憾	-4647
被割讓給	-4648
被征服的	-4649
被當作籌	-4650
被遺忘了	-4651
西西里島	-4652
西部邊緣	-4653
要么成為	-4654
視為兩個	-4655
視為有生	-4656
觀的交易	-4657
角度考慮	-4658
角色擺脫	-4659
記本錄製	-4660
訪問了堪	-4661
設計師比	-4662
該系統在	-4663
詳細檢查	-4664
語版的聖	-4665
語的元素	-4666
調查四名	-4667
請願書的	-4668
論發生了	-4669
謀殺罪和	-4670
變為廢墟	-4671
谷最高的	-4672
貌的破壞	-4673
貝貝一起	-4674
財政監管	-4675
貿易港口	-4676
資金全部	-4677
資金投資	-4678
賓主持人	-4679
購物平台	-4680
贊助醜聞	-4681
超級英雄	-4682
軍隊摧毀	-4683
較為少見	-4684
輪到他了	-4685
轉而專心	-4686
轉變都是	-4687
辦公室景	-4688
近完成了	-4689
迴避和不	-4690
這也導致	-4691
這個假期	-4692
這個假設	-4693
這個顯然	-4694
這兩本書	-4695
通過平台	-4696
通過觀察	-4697
週六中午	-4698
過去二十	-4699
56%	-4700
999	-4701
cup	-4702
eit	-4703
how	-4704
ifu	-4705
ñez	-4706
,999	-4707
1165	-4708
1340	-4709
1365	-4710
1882	-4711
1962	-4712
2900	-4713
40%,	-4714
bach	-4715
cifu	-4716
emic	-4717
erba	-4718
john	-4719
show	-4720
zeit	-4721
áñez	-4722
城市每年	-4723
道德淪喪	-4724
遜導演的	-4725
選出歷史	-4726
選活動中	-4727
還有布魯	-4728
還未結束	-4729
還沒決定	-4730
還能作為	-4731
還需要做	-4732
還需要對	-4733
邊緣形成	-4734
那幢大樓	-4735
那年夏天	-4736
部件有所	-4737
部部長傑	-4738
都打平手	-4739
都有其含	-4740
醫療總局	-4741
里或在櫃	-4742
里的補助	-4743
重新掌權	-4744
重新錄製	-4745
重要養分	-4746
釙樣本的	-4747
鏈接和附	-4748
長出來的	-4749
開始的前	-4750
開普敦的	-4751
間站上並	-4752
闊的遺跡	-4753
關於該話	-4754
關進入了	-4755
阿特靈被	-4756
降低溫度	-4757
限的保護	-4758
除指揮權	-4759
隨時在您	-4760
險的飆升	-4761
集團已經	-4762
離婚後卻	-4763
雨的季節	-4764
雷暴報告	-4765
電影是由	-4766
電影海報	-4767
電源單元	-4768
非常滿意	-4769
靠的信息	-4770
預算赤字	-4771
預算超過	-4772
預言稱他	-4773
頭銜的人	-4774
風力發電	-4775
風格似的	-4776
餐飲集團	-4777
騎兵部隊	-4778
高爾夫球	-4779
髮通常是	-4780
鬆的歷史	-4781
鬥志昂揚	-4782
鬧劇和沈	-4783
黨保守派	-4784
龐培取得	-4785
,1904	-4786
,1994	-4787
,1996	-4788
30-10	-4789
bruno	-4790
buena	-4791
báñez	-4792
conte	-4793
david	-4794
ettel	-4795
horie	-4796
illic	-4797
immer	-4798
knuck	-4799
knott	-4800
north	-4801
offre	-4802
perts	-4803
steph	-4804
strum	-4805
trump	-4806
vigui	-4807
ángel	-4808
▁1075	-4809
▁1566	-4810
▁1856	-4811
▁1882	-4812
▁1896	-4813
▁1969	-4814
▁clar	-4815
▁三島生前	-4816
▁中國戰敗	-4817
▁他主張嚴	-4818
▁他也表示	-4819
▁他也討論	-4820
▁他的夢想	-4821
▁他警告說	-4822
▁他還指出	-4823
▁但在史密	-4824
▁但有旅行	-4825
▁位於歐洲	-4826
▁你必須受	-4827
▁假期期間	-4828
▁全球變暖	-4829
▁共和黨在	-4830
▁其他國家	-4831
▁卡塔拉諾	-4832
▁哈雷戴維	-4833
▁喬治為他	-4834
▁國際可再	-4835
▁在中世紀	-4836
▁在亞歷山	-4837
▁在其家庭	-4838
▁在十月初	-4839
▁執行機構	-4840
▁多族裔的	-4841
▁大多數人	-4842
▁大部分的	-4843
▁對羅馬人	-4844
▁工業革命	-4845
▁希拉里向	-4846
▁希拉里的	-4847
▁後者在監	-4848
▁德國報紙	-4849
▁我的下一	-4850
▁投資在溢	-4851
▁接下來她	-4852
▁曾發揮出	-4853
▁有人預測	-4854
▁棲息地被	-4855
▁正如指出	-4856
▁歷史學家	-4857
▁沒有遊行	-4858
▁沙塵暴是	-4859
▁法國工人	-4860
▁潘沃爾卡	-4861
▁為了娛樂	-4862
▁然而對科	-4863
▁特別是在	-4864
▁特朗普的	-4865
▁瓦倫蒂諾	-4866
▁由於顧客	-4867
▁當時那里	-4868
▁目前的等	-4869
▁維勒訥沃	-4870
▁羅娜發明	-4871
▁聯合國回	-4872
▁英國乃至	-4873
▁警方表示	-4874
▁赫爾茨心	-4875
▁農業用地	-4876
▁這個比例	-4877
▁這裡提供	-4878
▁通常由於	-4879
▁阿特靈結	-4880
▁除了他們	-4881
▁除了直接	-4882
▁除此之外	-4883
▁雖然直至	-4884
▁電影記錄	-4885
▁顯而易見	-4886
一位有貴族	-4887
一個百分點	-4888
一定會懷念	-4889
一樣的學生	-4890
一次降到了	-4891
一直保持著	-4892
一直在穩步	-4893
一部影片是	-4894
一面是成為	-4895
七百五十萬	-4896
三個平行的	-4897
三年內貸款	-4898
上並毀滅了	-4899
▁約瑟夫	-4900
▁而不是	-4901
人還可以	-4902
他補充道	-4903
克薩斯州	-4904
士補充道	-4905
她被指控	-4906
於芬蘭語	-4907
是芬蘭語	-4908
河附近的	-4909
特阿拉伯	-4910
現被稱為	-4911
球錦標賽	-4912
的阿拉伯	-4913
紅銅時代	-4914
經驗的範	-4915
羅解釋說	-4916
菲利普五	-4917
菲利普召	-4918
行為的限	-4919
被認為能	-4920
說明了這	-4921
迪士尼寫	-4922
迪士尼的	-4923
運動會將	-4924
還可以去	-4925
還被指控	-4926
2015-	-4927
lucas	-4928
▁公元前五	-4929
▁在過去的	-4930
▁當西格爾	-4931
▁紅銅時代	-4932
▁而不是把	-4933
一直圍繞著	-4934
上很勉強的	-4935
上很重要的	-4936
上第一位女	-4937
上進行的旅	-4938
下所需要的	-4939
下的獨木舟	-4940
下面將小球	-4941
不全是事實	-4942
不大適合了	-4943
不太受歡迎	-4944
不存在爭議	-4945
不應該就任	-4946
不比在尼羅	-4947
丑之於人性	-4948
世界大戰戰	-4949
世界廣播電	-4950
世的劇作家	-4951
丘吉爾頒布	-4952
並在重力的	-4953
並數次要求	-4954
並未透露多	-4955
並賠償實行	-4956
中反應出來	-4957
中國不得不	-4958
中底去除角	-4959
中扮演精神	-4960
中發現的最	-4961
中詳細探討	-4962
主要由移民	-4963
之前的疑問	-4964
之平行的博	-4965
之間的交易	-4966
之間的防衛	-4967
乘坐纜車穿	-4968
也不會倒退	-4969
也利用了她	-4970
也在之後和	-4971
也正是這家	-4972
也開始哭泣	-4973
乾旱地區和	-4974
了一所學校	-4975
了一系列長	-4976
了不少便宜	-4977
了他未來的	-4978
了使用家用	-4979
了對心理學	-4980
了所有七個	-4981
了整個領域	-4982
了自己的政	-4983
了迦南人的	-4984
事情就已經	-4985
互相調笑和	-4986
五人理事會	-4987
五個港口向	-4988
亞加亞聯軍	-4989
人們習慣稱	-4990
人有意在兩	-4991
人民共同的	-4992
人民共和國	-4993
人物的期待	-4994
人見過這些	-4995
人還可以享	-4996
他不想被賣	-4997
他們才會被	-4998
他們最關心	-4999
▁消費者	-5000
億的選民	-5001
場比賽中	-5002
好的人才	-5003
工的工作	-5004
掉的時候	-5005
新法蘭西	-5006
晨的行動	-5007
某程度上	-5008
法蘭西的	-5009
的社會住	-5010
的選民有	-5011
茨的成功	-5012
記的選民	-5013
重的社會	-5014
頓的支持	-5015
▁新法蘭西	-5016
事件發生在	-5017
他們至少能	-5018
他周圍人的	-5019
他在那里為	-5020
他宣布破產	-5021
他將之描述	-5022
他採取了多	-5023
他會上大學	-5024
他的妻子愛	-5025
他被給予了	-5026
付更多責任	-5027
代表了公民	-5028
代表了日常	-5029
以奪回席位	-5030
任的總統尤	-5031
但他並不是	-5032
但如果形式	-5033
但蓋耶已經	-5034
位於北部的	-5035
位資本支出	-5036
住在帕爾馬	-5037
佔有下埃及	-5038
佛羅里達州	-5039
作曲家吉姆	-5040
使用了原創	-5041
使這兩個敵	-5042
來分隔兩地	-5043
來到片場後	-5044
來源於伯納	-5045
來源於去年	-5046
例如萊茵河	-5047
便還能作為	-5048
俄國的所有	-5049
保全克萊德	-5050
保持著關鍵	-5051
保障消費者	-5052
個男人告訴	-5053
候選人薩拉	-5054
做了省警察	-5055
傑濟拉島和	-5056
億的選民投	-5057
優秀的助手	-5058
充滿意義的	-5059
先生在七月	-5060
克圖特摩斯	-5061
克斯兩次被	-5062
克斯洛伐克	-5063
克萊恩沉默	-5064
克頓的黑暗	-5065
內代理人的	-5066
兩位劇作家	-5067
公司就只能	-5068
公國在當今	-5069
公眾為他們	-5070
六年間失業	-5071
其他事情上	-5072
其他人則讚	-5073
其作為主要	-5074
其北部區域	-5075
其展覽公寓	-5076
其後出現在	-5077
其關閉原因	-5078
凱拉的嬰兒	-5079
凱撒的宣言	-5080
凱爾特海和	-5081
出現了破裂	-5082
出生的月份	-5083
利卡塔東部	-5084
利塞地區和	-5085
利用了河流	-5086
到了好幾個	-5087
到目前為止	-5088
券會被生成	-5089
刺傷阿伯茨	-5090
前進的德國	-5091
剩下了中央	-5092
創作了六部	-5093
創作了歌曲	-5094
加低斯的圖	-5095
勒牧師拜訪	-5096
勝餐飲集團	-5097
勞工的工作	-5098
匈牙利施壓	-5099
.7	-5100
▁石	-5101
▁硫	-5102
主國	-5103
入氣	-5104
吉龍	-5105
國務	-5106
小麥	-5107
底下	-5108
擊機	-5109
潛力	-5110
為過	-5111
的觀	-5112
種把	-5113
罰款	-5114
莉婭	-5115
被帶	-5116
親密	-5117
註銷	-5118
達訂	-5119
3.7	-5120
▁石油	-5121
下達訂	-5122
入氣流	-5123
兩個宇	-5124
午的觀	-5125
國務大	-5126
奇莉婭	-5127
婦安娜	-5128
宗主國	-5129
擊機和	-5130
改變的	-5131
更親密	-5132
為過世	-5133
的共同	-5134
的潛力	-5135
種把戲	-5136
罰款是	-5137
造音樂	-5138
▁白吉龍	-5139
一小塊釙	-5140
下下達訂	-5141
下午的觀	-5142
但如果連	-5143
像是小麥	-5144
入氣流中	-5145
兩個宇宙	-5146
創造音樂	-5147
博格達汗	-5148
國務大臣	-5149
在奇莉婭	-5150
寡婦安娜	-5151
對改變的	-5152
恐怖底下	-5153
殲擊機和	-5154
現代教育	-5155
的人註銷	-5156
藥的潛力	-5157
誰能挑剔	-5158
顆粒被帶	-5159
103.7	-5160
▁硫是一種	-5161
下下達訂單	-5162
下午的觀賞	-5163
不要為過世	-5164
些顆粒被帶	-5165
但如果連著	-5166
化的第一階	-5167
北京的立法	-5168
北部區域亦	-5169
十年內成為	-5170
協議提及將	-5171
南部緊鄰的	-5172
博客中寫道	-5173
卡唱片公司	-5174
卡拉布里亞	-5175
卡鬆的歷史	-5176
印度西北部	-5177
危機顯示了	-5178
即約公元前	-5179
去了葡萄牙	-5180
去希羅底那	-5181
參與不道德	-5182
又再次流行	-5183
及其船員共	-5184
及新傳統是	-5185
反應說明了	-5186
反法西斯的	-5187
受疼痛折磨	-5188
受社會主義	-5189
叛亂的收益	-5190
叛亂的發生	-5191
叛軍的軍事	-5192
古老歷史資	-5193
只有在美國	-5194
可歸而被控	-5195
可疑的漏洞	-5196
可疑的現金	-5197
可靠的信息	-5198
史以來最低	-5199
上就	-5200
人家	-5201
入空	-5202
在房	-5203
對芳	-5204
會擊	-5205
有鮑	-5206
流離	-5207
深入	-5208
準媽	-5209
耶區	-5210
與輔	-5211
連鎖	-5212
遵守	-5213
里米	-5214
開墾	-5215
閒逛	-5216
間裡	-5217
面有	-5218
▁流離	-5219
一些大	-5220
一個字	-5221
上就毫	-5222
以自由	-5223
克里米	-5224
入空中	-5225
凱莎和	-5226
和遵守	-5227
對芳特	-5228
成妥協	-5229
戶人家	-5230
新成立	-5231
會擊中	-5232
有鮑勃	-5233
準媽媽	-5234
維耶區	-5235
與輔導	-5236
藏家的	-5237
這方面	-5238
間還是	-5239
▁凱莎和	-5240
▁流離失	-5241
▁裡面有	-5242
一些大致	-5243
一個字源	-5244
上就毫無	-5245
以及能夠	-5246
以自由州	-5247
克里米亞	-5248
十戶人家	-5249
土地開墾	-5250
在房間裡	-5251
彈入空中	-5252
形成連鎖	-5253
收藏家的	-5254
新成立的	-5255
有鮑勃在	-5256
的準媽媽	-5257
節目有關	-5258
街上閒逛	-5259
軍隊深入	-5260
迪猶太人	-5261
達成妥協	-5262
間還是不	-5263
電子郵件	-5264
面的意義	-5265
▁流離失所	-5266
一些大致上	-5267
以及能夠溶	-5268
來自塞西亞	-5269
包括對芳特	-5270
史密斯的科	-5271
史達林接替	-5272
右肺的腫瘤	-5273
司法部部長	-5274
合作完成的	-5275
合法葬禮罪	-5276
合理地假設	-5277
吉卜林很大	-5278
吉拉德女士	-5279
同樣的鬥志	-5280
同盟叛軍於	-5281
名獲勝之前	-5282
名這片土地	-5283
向埃及法老	-5284
向獨立寫作	-5285
否則會非常	-5286
告誡不要採	-5287
告誡其教徒	-5288
呼聲傳遍了	-5289
和五百萬冊	-5290
和他的妻子	-5291
和卡森已幾	-5292
和女演員葛	-5293
和平的友誼	-5294
和歷史組成	-5295
和烏克蘭的	-5296
和監管船隻	-5297
和福特公司	-5298
和穿戴別人	-5299
交錯	-5300
在民	-5301
將是	-5302
展會	-5303
強烈	-5304
普魯	-5305
殺戮	-5306
特蕾	-5307
財產	-5308
在民用	-5309
對殺戮	-5310
強烈慾	-5311
斯普魯	-5312
特蕾莎	-5313
產品的	-5314
產生多	-5315
▁大熱的	-5316
個人財產	-5317
可產生多	-5318
奠定了融	-5319
將是北京	-5320
對殺戮的	-5321
幫助客戶	-5322
強烈慾望	-5323
此次展會	-5324
為國家的	-5325
觸產品的	-5326
andre	-5327
▁蘇格蘭人	-5328
交錯的文化	-5329
列為國家的	-5330
可產生多達	-5331
可觸產品的	-5332
和遵守了多	-5333
哥將會有一	-5334
商學院的學	-5335
問題的法國	-5336
問題的激增	-5337
善會主席喬	-5338
單上就毫無	-5339
嘉砲兵軍官	-5340
嘉賓主持人	-5341
四十戶人家	-5342
四名學生髮	-5343
四月在蒙特	-5344
回舊殖民地	-5345
因為這兩個	-5346
因而登上了	-5347
困擾的日子	-5348
國際比賽中	-5349
在一個工作	-5350
在他的電影	-5351
在克里米亞	-5352
在公元前約	-5353
在公共場合	-5354
在前線作戰	-5355
在大火中被	-5356
在奇莉婭灣	-5357
在東三角洲	-5358
在格拉斯哥	-5359
在民用航空	-5360
在波蘭放棄	-5361
在約公元前	-5362
在聖塞西莉	-5363
在街上閒逛	-5364
地保持穩步	-5365
地剩了下來	-5366
地思考未來	-5367
地理和近海	-5368
地表的細微	-5369
址都很有名	-5370
坎伯蘭公爵	-5371
城市每年有	-5372
基於政績的	-5373
壇留下了光	-5374
外來勢力間	-5375
多於圍著我	-5376
大眾的注意	-5377
大約是清朝	-5378
大部分的班	-5379
大都會俱樂	-5380
大都會城市	-5381
天氣預報中	-5382
奧匈妥協協	-5383
奧古斯塔斯	-5384
奧爾尼奪回	-5385
奧聯軍感到	-5386
奧運會是在	-5387
女士和這片	-5388
女士補充道	-5389
她和她與其	-5390
她是反對欺	-5391
她被指控兩	-5392
如殲擊機和	-5393
妥善的健康	-5394
妻子也開始	-5395
威爾斯市長	-5396
子之於常人	-5397
存活下來時	-5398
學校受到了	-5399
不止	-5400
了很	-5401
共通	-5402
員票	-5403
寂寞	-5404
將延	-5405
搏鬥	-5406
明確	-5407
更大	-5408
梅塞	-5409
片人	-5410
當然	-5411
的返	-5412
盤上	-5413
規則	-5414
諾的	-5415
通往	-5416
長度	-5417
不止是	-5418
你們施	-5419
促進了	-5420
克爾頓	-5421
共通的	-5422
國王阿	-5423
多將延	-5424
寂寞的	-5425
所當然	-5426
搏鬥中	-5427
文學碩	-5428
的返現	-5429
的長度	-5430
的黨派	-5431
盤上方	-5432
碼方面	-5433
華盛頓	-5434
萊諾的	-5435
製片人	-5436
議員票	-5437
通往弗	-5438
釁性的	-5439
上的管理	-5440
不止是電	-5441
並不明確	-5442
似乎希望	-5443
你們施加	-5444
克爾頓爵	-5445
國王阿閔	-5446
多將延長	-5447
存在了很	-5448
寂寞的豬	-5449
密碼方面	-5450
小型自治	-5451
所當然地	-5452
承擔責任	-5453
文學碩士	-5454
更大趨勢	-5455
期的投票	-5456
梅塞將軍	-5457
派的黨派	-5458
無論規則	-5459
發展特徵	-5460
知識分子	-5461
薩萊諾的	-5462
處罰條款	-5463
被的保護	-5464
通往弗倫	-5465
釁性的談	-5466
鍵盤上方	-5467
▁密碼方面	-5468
▁梅爾里斯	-5469
▁無論規則	-5470
上了太陽眼	-5471
不止是電話	-5472
似乎希望元	-5473
你們施加哪	-5474
個小型自治	-5475
僅存在了很	-5476
克爾頓爵士	-5477
初期的投票	-5478
夫承擔責任	-5479
奇蹟和每個	-5480
學生被告知	-5481
它們共通的	-5482
它們會擊中	-5483
它們的相似	-5484
它重現了冷	-5485
安塞密爾於	-5486
安慰是可以	-5487
安東尼霸占	-5488
官在達菲的	-5489
定它們符合	-5490
宣佈為野生	-5491
室內製作動	-5492
實際完成的	-5493
實驗的結果	-5494
寫作興致勢	-5495
將其主張的	-5496
將能與巴西	-5497
專家警告說	-5498
尋求與猶太	-5499
台階	-5500
各樣	-5501
在橄	-5502
戰意	-5503
擊和	-5504
新結	-5505
高昂	-5506
▁可以	-5507
台階上	-5508
各樣的	-5509
在橄欖	-5510
擊和適	-5511
新結論	-5512
舊區域	-5513
aret	-5514
▁可以說	-5515
戰意高昂	-5516
舊區域也	-5517
garet	-5518
出了新結論	-5519
各樣的觀眾	-5520
妙的挑戰的	-5521
對丘吉爾的	-5522
對人類社會	-5523
對他們來說	-5524
對他們註冊	-5525
對埃爾多安	-5526
對尼古拉斯	-5527
對尼羅河的	-5528
對情侶可以	-5529
對派系變的	-5530
就像大多數	-5531
就是拿破崙	-5532
就檢測不到	-5533
尼特拉公國	-5534
展現的怠慢	-5535
層面的意義	-5536
屬部件有所	-5537
山任職變遷	-5538
岡法律中移	-5539
岩島嶼則如	-5540
工作奠定了	-5541
工作時間中	-5542
工業革命都	-5543
已經疏遠了	-5544
巴庫莫夫在	-5545
巴爾幹同盟	-5546
巴達爾普爾	-5547
布什大樓為	-5548
布朗特擔任	-5549
希斯帕尼亞	-5550
希望即將離	-5551
希臘字母表	-5552
師和紡織業	-5553
帶來了一場	-5554
常染色體的	-5555
年在三十年	-5556
年度調查還	-5557
年後加入北	-5558
年春天告終	-5559
年的專業而	-5560
幸的是再次	-5561
幸運兔奧斯	-5562
幾乎沒有借	-5563
府代理人的	-5564
座青銅時代	-5565
廣受好評的	-5566
廣闊的遺跡	-5567
建立生者與	-5568
建議讓羅娜	-5569
強制受洗後	-5570
強制受洗有	-5571
形成了一種	-5572
影響最深遠	-5573
很令人驚訝	-5574
很可能是指	-5575
很快得到了	-5576
很有趣的求	-5577
從中世紀中	-5578
從向著他的	-5579
從哪兒來的	-5580
從挪威南部	-5581
從未接觸過	-5582
御所需的技	-5583
復興時期的	-5584
徵收的最高	-5585
德克薩斯州	-5586
德發現大陸	-5587
快速地打開	-5588
怎麼樣才能	-5589
性別歧視者	-5590
惡劣童工形	-5591
意味著他們	-5592
意味著需要	-5593
意圖是什麼	-5594
慶祝他們的	-5595
應可持續到	-5596
成年人中有	-5597
我們會繼續	-5598
我們的日常	-5599
▁漢	-5600
了被	-5601
人開	-5602
們搬	-5603
到在	-5604
前戴	-5605
國籍	-5606
城的	-5607
將它	-5608
後是	-5609
曾選	-5610
深圳	-5611
牧場	-5612
的警	-5613
筋暴	-5614
羅曼	-5615
艾賓	-5616
見到	-5617
辛巴	-5618
isp	-5619
▁深圳	-5620
▁漢斯	-5621
了被沖	-5622
人開玩	-5623
即擁有	-5624
和牧場	-5625
在將它	-5626
女們搬	-5627
拍到在	-5628
於今年	-5629
曾選用	-5630
法老王	-5631
然後是	-5632
獲得植	-5633
的警官	-5634
筋暴起	-5635
羅曼諾	-5636
色城的	-5637
艾賓根	-5638
萊辛巴	-5639
訪前戴	-5640
hisp	-5641
▁深圳市	-5642
了被沖上	-5643
人開玩笑	-5644
修女們搬	-5645
在將它從	-5646
地和牧場	-5647
基色城的	-5648
掉法老王	-5649
於今年較	-5650
維亞國籍	-5651
羅曼諾夫	-5652
萊辛巴哈	-5653
被拍到在	-5654
見到她的	-5655
采訪前戴	-5656
青筋暴起	-5657
▁喬治極度	-5658
▁深圳市交	-5659
主要由古代	-5660
人開玩笑說	-5661
以前曾選用	-5662
回了艾賓根	-5663
城市的警官	-5664
我已經完全	-5665
我排除在外	-5666
我都要坐牢	-5667
或唱片公司	-5668
或組織優先	-5669
或者說本應	-5670
或至少能減	-5671
戰役的學術	-5672
戰線的局勢	-5673
戰鬥中表現	-5674
所以我就像	-5675
扭轉了對抗	-5676
批發方面的	-5677
把兒子安德	-5678
把日出標記	-5679
把路途時間	-5680
投資人極度	-5681
拉博夫裸體	-5682
拉的嬰兒的	-5683
拉美西斯二	-5684
拉迪亞德吉	-5685
拿出自己的	-5686
拿破崙確信	-5687
掉法老王理	-5688
排除其他人	-5689
接下來的多	-5690
接觸的主要	-5691
控制促進了	-5692
推特簡訊上	-5693
揭示了他對	-5694
揭示了他的	-5695
揭露後的那	-5696
搏鬥中通常	-5697
摩納哥提供	-5698
摩納哥條約	-5699
▁法	-5700
一體	-5701
代替	-5702
出能	-5703
反信	-5704
局長	-5705
峙時	-5706
工會	-5707
敦促	-5708
波拿	-5709
發的	-5710
秒鐘	-5711
規定	-5712
諮詢	-5713
001	-5714
並敦促	-5715
代替政	-5716
保護區	-5717
六秒鐘	-5718
出發的	-5719
出能跨	-5720
反信託	-5721
局局長	-5722
年開始	-5723
波拿巴	-5724
為一體	-5725
的活動	-5726
的規定	-5727
總工會	-5728
鐵元素	-5729
,001	-5730
▁對峙時	-5731
之後不久	-5732
代替政壇	-5733
出能跨海	-5734
包括一名	-5735
反信託庭	-5736
局局長穆	-5737
敵的活動	-5738
沒有諮詢	-5739
牌的目標	-5740
猜測僅僅	-5741
融為一體	-5742
還在調查	-5743
代替政壇老	-5744
力量總工會	-5745
動物保護區	-5746
匹敵的活動	-5747
反信託庭審	-5748
大陸出發的	-5749
局局長穆罕	-5750
年開始據此	-5751
擁有滿意的	-5752
擊和適當的	-5753
擔任財務長	-5754
擬人機器人	-5755
擬定為羅馬	-5756
收到了美國	-5757
改用第三方	-5758
放的人得以	-5759
政府科學家	-5760
政府開支的	-5761
政權轉移能	-5762
教皇方濟各	-5763
文學碩士學	-5764
斯巴達在伯	-5765
斯洛伐克西	-5766
新的鐵元素	-5767
方言的共同	-5768
於今年較早	-5769
於西方的蠅	-5770
早前克萊恩	-5771
早至公元前	-5772
明會牧師海	-5773
是一名漫畫	-5774
是一名臥底	-5775
是一項團體	-5776
是不合適的	-5777
是政府最不	-5778
是由於印度	-5779
是芬蘭語和	-5780
是購物平台	-5781
時不在片場	-5782
時丟了六分	-5783
晨的行動中	-5784
更大趨勢中	-5785
更好地保護	-5786
曼谷最高的	-5787
曾因糟糕的	-5788
曾經發生在	-5789
最壞的情況	-5790
最新的事件	-5791
最有可能在	-5792
最有可能從	-5793
最有影響力	-5794
最近的一次	-5795
最高一座高	-5796
會導致射擊	-5797
會議中心的	-5798
月份的長度	-5799
▁湯	-5800
不忙	-5801
佩特	-5802
少年	-5803
州離	-5804
損傷	-5805
斯轉	-5806
最廣	-5807
機場	-5808
疏通	-5809
的觸	-5810
積物	-5811
限額	-5812
露天	-5813
▁他於	-5814
▁湯普	-5815
不忙地	-5816
佩特森	-5817
傳統中	-5818
名人的	-5819
少年大	-5820
州離岸	-5821
您就能	-5822
感狀態	-5823
才能擯	-5824
斯轉身	-5825
是最廣	-5826
會原本	-5827
淤積物	-5828
當天的	-5829
疏通了	-5830
的觸控	-5831
葬地點	-5832
都屬於	-5833
illa	-5834
▁湯普遜	-5835
不忙地穿	-5836
了淤積物	-5837
受到損傷	-5838
埋葬地點	-5839
少年大腦	-5840
情感狀態	-5841
才能擯除	-5842
是最廣為	-5843
最高限額	-5844
會原本定	-5845
瑟斯轉身	-5846
秘傳統中	-5847
窄的觸控	-5848
者的歷史	-5849
認為機場	-5850
選舉已經	-5851
露天劇場	-5852
villa	-5853
▁最高限額	-5854
▁湯普遜的	-5855
他情感狀態	-5856
佩特森能夠	-5857
公司的選擇	-5858
名人的名字	-5859
少年大腦的	-5860
尼亞州離岸	-5861
慌不忙地穿	-5862
成功疏通了	-5863
才能擯除分	-5864
教皇保羅六	-5865
會原本定在	-5866
會認為機場	-5867
有一段時刻	-5868
有了分離的	-5869
有人轟炸了	-5870
有相似之處	-5871
有著重大的	-5872
有關被征服	-5873
有限的保護	-5874
未來的目標	-5875
未發育的肺	-5876
板塊斷層上	-5877
某種程度上	-5878
柴油價格為	-5879
根相信是上	-5880
格來分配的	-5881
梅飽受批評	-5882
條約的延續	-5883
業生成就展	-5884
業的諾瑪城	-5885
極其不合格	-5886
概念藝術並	-5887
槍殺了蘇台	-5888
樂命令不得	-5889
模糊的細節	-5890
權力的遊戲	-5891
歐洲人探索	-5892
此局面有所	-5893
此概念叫做	-5894
歲的參賽者	-5895
歷史的南部	-5896
母語版的聖	-5897
毛髮通常是	-5898
氣中吸收並	-5899
▁特	-5900
位神	-5901
加強	-5902
只把	-5903
和波	-5904
噴氣	-5905
地敲	-5906
子輕	-5907
德勒	-5908
擊起	-5909
放異	-5910
灣和	-5911
用錘	-5912
華的	-5913
落架	-5914
詩歌	-5915
都獨	-5916
▁特魯	-5917
並用錘	-5918
人口和	-5919
他加強	-5920
位神祗	-5921
危險的	-5922
只把其	-5923
噴氣機	-5924
大放異	-5925
奢華的	-5926
子輕輕	-5927
德勒和	-5928
扮演者	-5929
灣和濕	-5930
相關演	-5931
詩歌只	-5932
他加強了	-5933
危險的軍	-5934
和波斯的	-5935
在人口和	-5936
地敲擊起	-5937
大放異彩	-5938
它為數個	-5939
官的職位	-5940
德勒和威	-5941
灣和濕地	-5942
相關演說	-5943
都獨特的	-5944
首詩歌只	-5945
▁每位神祗	-5946
不要只把其	-5947
他就承認了	-5948
和波斯的精	-5949
國在人口和	-5950
奢華的花費	-5951
它為數個社	-5952
就是在這裡	-5953
德勒和威勒	-5954
民官的職位	-5955
沙皇亞歷山	-5956
河流均來自	-5957
河流均有源	-5958
法克斯勳爵	-5959
法國在馬倫	-5960
法國據此為	-5961
法蘭西的伊	-5962
波蘭及波羅	-5963
洛士不得不	-5964
活動這方面	-5965
派傾向著稱	-5966
海岸附近的	-5967
準確地表達	-5968
溫柔的一面	-5969
演員和員工	-5970
漿一般因矽	-5971
激對改變的	-5972
激烈的地區	-5973
激烈的思想	-5974
為他的電影	-5975
為對的靈感	-5976
然後是星期	-5977
煤電站也將	-5978
熟練工人提	-5979
熱的吉他手	-5980
父親的葬禮	-5981
爾斯被認為	-5982
爾變得更加	-5983
片和印第安	-5984
特別規劃區	-5985
特阿拉伯國	-5986
特點是衣服	-5987
犯了重大的	-5988
獨立審查主	-5989
獨立的民族	-5990
王安石的淤	-5991
現代教育方	-5992
現在是上演	-5993
理埃爾多安	-5994
理所當然地	-5995
瑞典的托爾	-5996
瑞典的研究	-5997
環境規劃署	-5998
甚至比在矽	-5999
▁樞	-6000
世凱	-6001
契諾	-6002
年開	-6003
掛了	-6004
過時	-6005
長哈	-6006
霍默	-6007
▁審查	-6008
▁樞密	-6009
型形象	-6010
契諾河	-6011
帕爾雷	-6012
是霍默	-6013
袁世凱	-6014
議長哈	-6015
都掛了	-6016
集手機	-6017
▁樞密院	-6018
典型形象	-6019
契諾河和	-6020
她是不是	-6021
幾集手機	-6022
的袁世凱	-6023
議長哈利	-6024
過時兩年	-6025
面的人口	-6026
▁審查處理	-6027
▁衣服上的	-6028
全面的人口	-6029
和林肯執政	-6030
問她是不是	-6031
契諾河和寶	-6032
幾集手機就	-6033
是可以合法	-6034
生動地講述	-6035
生活的實際	-6036
生活的社區	-6037
用名字稱呼	-6038
用恰當的儀	-6039
用的聊天軟	-6040
由一座大金	-6041
由官方建立	-6042
由於被指控	-6043
由法令確定	-6044
由滿族統治	-6045
當地舊金山	-6046
當增長率比	-6047
瘤是一種在	-6048
登的梅爾丁	-6049
發揮了關鍵	-6050
發生變化了	-6051
發起一系列	-6052
發電機停運	-6053
白人男性身	-6054
的一次進行	-6055
的人數眾多	-6056
的人物一樣	-6057
的人物形象	-6058
的休息環節	-6059
的修女們搬	-6060
的充分準備	-6061
的另一主題	-6062
的圖片之間	-6063
的地標建築	-6064
的城市發展	-6065
的多元目標	-6066
的大台階上	-6067
的女巫琳達	-6068
的建議環節	-6069
的微小變化	-6070
的德國和納	-6071
的志願者就	-6072
的情況為其	-6073
的想法仍舊	-6074
的應用程序	-6075
的所有內容	-6076
的所有指控	-6077
的方向前進	-6078
的是在快速	-6079
的最高法庭	-6080
的有利選項	-6081
的死亡人口	-6082
的比例一致	-6083
的破壞極大	-6084
的祖母是德	-6085
的神壇地位	-6086
的科幻故事	-6087
的著陸襟翼	-6088
的處罰條款	-6089
的行動告訴	-6090
的要求作出	-6091
的警方表示	-6092
的轉變和新	-6093
的還有布魯	-6094
的阿拉伯起	-6095
的黨內初選	-6096
目擊者告訴	-6097
目標是霍默	-6098
看作他激進	-6099
之人	-6100
入石	-6101
劇情	-6102
外國	-6103
如錢	-6104
姍來	-6105
山峰	-6106
岩的	-6107
律賓	-6108
所欽	-6109
箋和	-6110
艱難	-6111
講話	-6112
鐵站	-6113
關島	-6114
陶冶	-6115
需時	-6116
保護年	-6117
入石灰	-6118
分講話	-6119
劇情片	-6120
地鐵站	-6121
她所欽	-6122
姍來遲	-6123
岩的墳	-6124
已有人	-6125
年發生	-6126
故之人	-6127
方箋和	-6128
比賽越	-6129
河需時	-6130
石製墓	-6131
艱難的	-6132
菲律賓	-6133
諾斯為	-6134
陶冶情	-6135
fran	-6136
▁已有人	-6137
允許外國	-6138
兩個山峰	-6139
她所欽佩	-6140
姍姍來遲	-6141
岩的墳墓	-6142
嵌入石灰	-6143
已故之人	-6144
方箋和疫	-6145
比賽越多	-6146
河需時約	-6147
石製墓塚	-6148
薩諾斯為	-6149
部劇情片	-6150
關島以及	-6151
陶冶情操	-6152
際地鐵站	-6153
frank	-6154
tarlo	-6155
問題也可以	-6156
她所欽佩的	-6157
惡薩諾斯為	-6158
方箋和疫苗	-6159
河流保護年	-6160
河需時約四	-6161
的比賽越多	-6162
真正有地位	-6163
知識分子會	-6164
知道戴維斯	-6165
研究的平均	-6166
碳的技術來	-6167
確實很可怕	-6168
礦物資源尤	-6169
祀遺跡由一	-6170
神秘傳統中	-6171
科斯佩達爾	-6172
科羅拉多州	-6173
秘密訪問了	-6174
種族主義者	-6175
稿風格似的	-6176
突變的數目	-6177
窄窄的觸控	-6178
節都有其含	-6179
範圍限制在	-6180
簡直是太仁	-6181
糟糕的狀況	-6182
系統添加到	-6183
系統的成功	-6184
約十七年後	-6185
約瑟夫一世	-6186
紐約市健康	-6187
絕大多數席	-6188
絲共同出演	-6189
維耶區進行	-6190
總統想要傳	-6191
總統的要求	-6192
總體的鐵儲	-6193
繼續向南走	-6194
罪行中移除	-6195
羅娜的費用	-6196
羅馬舉辦的	-6197
美國人說道	-6198
美國的許多	-6199
一閃	-6200
不順	-6201
十世	-6202
強尼	-6203
得多	-6204
懂了	-6205
扎於	-6206
柏拉	-6207
畫掙	-6208
的碑	-6209
者們	-6210
處有	-6211
行性	-6212
造並	-6213
遭遇	-6214
錯了	-6215
鮮活	-6216
▁柏拉	-6217
一閃而	-6218
人懂了	-6219
他錯了	-6220
保鮮活	-6221
刻畫掙	-6222
可行性	-6223
扎於母	-6224
會遭遇	-6225
氣候與	-6226
決定退	-6227
由航空	-6228
的碑文	-6229
該處有	-6230
造並修	-6231
▁柏拉圖	-6232
一閃而過	-6233
些人懂了	-6234
健康承擔	-6235
安全得多	-6236
扎於母子	-6237
是他錯了	-6238
永保鮮活	-6239
決定退黨	-6240
警察正在	-6241
路易十世	-6242
造並修葺	-6243
關於強尼	-6244
區的氣候與	-6245
可行性研究	-6246
因為該處有	-6247
在英國特別	-6248
地點的碑文	-6249
市場會遭遇	-6250
應該由航空	-6251
描述了戰爭	-6252
消費者服務	-6253
當是他錯了	-6254
的研究學習	-6255
的警察正在	-6256
美拉尼西亞	-6257
美洲史前圖	-6258
美西斯在後	-6259
群島和位於	-6260
者所需要的	-6261
而十個中有	-6262
而受到影響	-6263
而我們必須	-6264
耕地和牧場	-6265
聖羅馬帝國	-6266
肯瑟斯轉身	-6267
背後的意圖	-6268
能接收到一	-6269
自己的統計	-6270
自己高爾夫	-6271
自由的保障	-6272
至八世紀末	-6273
與其城堡要	-6274
與完工進入	-6275
與希羅底的	-6276
與西方的往	-6277
與謀殺案案	-6278
與輔導員會	-6279
舉辦了演唱	-6280
般的手術和	-6281
茲福德地區	-6282
菲利普召集	-6283
菲利普隨後	-6284
菲律賓割讓	-6285
萬歐元可以	-6286
著作整合了	-6287
著大麻作為	-6288
著海峽要道	-6289
蘇格蘭人報	-6290
虔誠所感染	-6291
處於宗主國	-6292
血紅蛋白所	-6293
行為的了解	-6294
行為的代理	-6295
行為的限度	-6296
街上華盛頓	-6297
被妥善利用	-6298
被徹底改變	-6299
24	-6300
並由	-6301
亥俄	-6302
其實	-6303
噪音	-6304
威懾	-6305
年雨	-6306
庸國	-6307
您的	-6308
斯時	-6309
無以	-6310
福利	-6311
談中	-6312
講到	-6313
隊的	-6314
高登	-6315
並成功	-6316
並由其	-6317
亥俄河	-6318
但其實	-6319
使用費	-6320
到您的	-6321
年雨月	-6322
形石製	-6323
的福利	-6324
艦隊的	-6325
訪談中	-6326
賞識的	-6327
附庸國	-6328
一個噪音	-6329
並成功挺	-6330
其中講到	-6331
到您的錢	-6332
加低斯時	-6333
取使用費	-6334
威懾對方	-6335
完全反對	-6336
方形石製	-6337
民的福利	-6338
的附庸國	-6339
艦隊的堵	-6340
賞識的司	-6341
下一個噪音	-6342
並成功挺進	-6343
並由其主持	-6344
他們對穀物	-6345
但其實業務	-6346
和國民警衛	-6347
居民的福利	-6348
廢墟進行了	-6349
拿到您的錢	-6350
捕加低斯時	-6351
收取使用費	-6352
無以倫比的	-6353
與完全反對	-6354
艦隊的堵塞	-6355
被授予塞爾	-6356
被當作孩子	-6357
被稱為立石	-6358
被視為兩個	-6359
被認為具有	-6360
被調查很多	-6361
製作實驗室	-6362
製片人最後	-6363
西格爾提出	-6364
西西里島及	-6365
親含蓄謙遜	-6366
角度考慮而	-6367
記憶在生者	-6368
記者都穿戴	-6369
訪問了堪察	-6370
訪談中說道	-6371
設備和紡織	-6372
設計師比爾	-6373
設計的這座	-6374
評選活動中	-6375
試圖讓飛機	-6376
該城市的最	-6377
該電影由尼	-6378
該電影由萊	-6379
認識的許多	-6380
說明了這三	-6381
說法就被推	-6382
誰能挑剔格	-6383
課程的內容	-6384
談了自己的	-6385
談論發生了	-6386
請願書的作	-6387
諷以及其他	-6388
講述自己的	-6389
警方發言人	-6390
護加拿大的	-6391
變得更加刻	-6392
讓人感覺到	-6393
負擔的人數	-6394
資金投資和	-6395
賞識的司令	-6396
賬戶添加免	-6397
賬戶餘額為	-6398
賬戶餘額的	-6399
伊雷	-6400
其侄	-6401
地聽	-6402
層或	-6403
打成	-6404
時至	-6405
會更	-6406
次以	-6407
生內	-6408
的戈	-6409
終身	-6410
致敬	-6411
號也	-6412
階級	-6413
▁時至	-6414
云層或	-6415
伊雷娜	-6416
你會更	-6417
其侄子	-6418
其致敬	-6419
員能夠	-6420
地聽到	-6421
打成平	-6422
次以色	-6423
法西斯	-6424
產階級	-6425
的戈梅	-6426
號也起	-6427
負責將	-6428
餘生內	-6429
▁時至此	-6430
中產階級	-6431
云層或煙	-6432
信伊雷娜	-6433
向其致敬	-6434
恰當的神	-6435
打成平局	-6436
新的一集	-6437
有著政治	-6438
次以色列	-6439
的戈梅里	-6440
的經濟已	-6441
積極思考	-6442
號也起自	-6443
讓其侄子	-6444
負責將氧	-6445
▁時至此刻	-6446
並在餘生內	-6447
並讓其侄子	-6448
也向其致敬	-6449
云層或煙霧	-6450
你會更清楚	-6451
受到的影響	-6452
國家的實際	-6453
奧斯卡終身	-6454
將會在美國	-6455
恰當的神學	-6456
控制員能夠	-6457
法西斯分子	-6458
猶太人當中	-6459
致信伊雷娜	-6460
諡號也起自	-6461
負責將氧氣	-6462
起謀殺罪和	-6463
超級錦標賽	-6464
路途時間包	-6465
較舊區域也	-6466
迪斯導演的	-6467
迫害的經歷	-6468
追求和平的	-6469
這也導致了	-6470
這些挑戰的	-6471
這些領導人	-6472
這位比利時	-6473
這部電影處	-6474
通儲蓄賬戶	-6475
通常是那種	-6476
通過觀察高	-6477
連接到你的	-6478
進口葡萄酒	-6479
進行的準備	-6480
過時兩年了	-6481
道德淪喪而	-6482
遜河附近的	-6483
選他的妻子	-6484
選擇要么撤	-6485
選舉已經變	-6486
選舉日之前	-6487
選舉的瘋狂	-6488
邀才能進去	-6489
邊的太平洋	-6490
那些在選舉	-6491
那些等我們	-6492
部落和主要	-6493
部落在歐洲	-6494
部部長傑夫	-6495
都全副武裝	-6496
都屬於歐盟	-6497
都很容易進	-6498
都被遺忘了	-6499
▁斯	-6500
以此	-6501
入侵	-6502
共享	-6503
尚未	-6504
恢復	-6505
沿用	-6506
獻者	-6507
的反	-6508
部內	-6509
tad	-6510
▁斯大	-6511
並以此	-6512
中那個	-6513
人沿用	-6514
入侵了	-6515
公司也	-6516
回追溯	-6517
它們在	-6518
捐獻者	-6519
極佳的	-6520
絲說道	-6521
要求返	-6522
部內組	-6523
tado	-6524
▁斯大林	-6525
公眾的反	-6526
利用阿爾	-6527
奧古斯都	-6528
對它們在	-6529
尚未穩定	-6530
幫助恢復	-6531
文章顯示	-6532
最後還是	-6533
每個島嶼	-6534
注重在兩	-6535
看到瘋狂	-6536
要求返場	-6537
部內組建	-6538
駁回追溯	-6539
麗絲說道	-6540
▁利用阿爾	-6541
中那個處於	-6542
公司也不斷	-6543
具有極佳的	-6544
和公眾的反	-6545
尚未穩定的	-6546
希臘人沿用	-6547
愛丁堡晚報	-6548
注重在兩國	-6549
看到瘋狂又	-6550
蘭駁回追溯	-6551
被奧古斯都	-6552
路易入侵了	-6553
釁性的談判	-6554
里展現了強	-6555
重要的差異	-6556
野心的機會	-6557
金牌的目標	-6558
鎮一閃而過	-6559
開展研究所	-6560
開鏈接和附	-6561
關於該話題	-6562
阿拉伯人的	-6563
阿拉斯加僅	-6564
阿普利亞來	-6565
阿普利亞和	-6566
阿特靈被人	-6567
降到了大約	-6568
隕石材料的	-6569
隨後找到了	-6570
雞永不滿足	-6571
雷斯特德於	-6572
雷暴報告的	-6573
電影是由亞	-6574
非常艱難的	-6575
音樂舞台劇	-6576
項目中表示	-6577
預測的那樣	-6578
願景使他對	-6579
顯示了在一	-6580
風險的飆升	-6581
食品提供了	-6582
飲料的藥丸	-6583
餘額中賺取	-6584
首席執行官	-6585
騎兵在發起	-6586
默塞特郡的	-6587
黨保守派把	-6588
黨派領導人	-6589
黨衛軍軍官	-6590
$15000	-6591
.30-10	-6592
15,001	-6593
19,999	-6594
andrew	-6595
antill	-6596
asktel	-6597
athina	-6598
carlos	-6599
▁數	-6600
及時	-6601
和違	-6602
大群	-6603
從事	-6604
按照	-6605
放下	-6606
是區	-6607
是堅	-6608
會為	-6609
機關	-6610
洗清	-6611
碳酸	-6612
稱提	-6613
莉嫁	-6614
▁放下	-6615
一大群	-6616
中洗清	-6617
區以前	-6618
及時事	-6619
是按照	-6620
稱提庇	-6621
稱是區	-6622
聖羅斯	-6623
arel	-6624
▁上個月	-6625
▁放下麥	-6626
▁數十年	-6627
一大群自	-6628
中洗清了	-6629
區以前木	-6630
因為如此	-6631
團隊在同	-6632
年代仍在	-6633
政府會為	-6634
政府機關	-6635
是堅不可	-6636
欺詐和違	-6637
產生碳酸	-6638
稱提庇留	-6639
聖羅斯季	-6640
莉嫁給了	-6641
karel	-6642
▁放下麥克	-6643
▁政府會為	-6644
▁數十年來	-6645
一直在從事	-6646
但這一想法	-6647
區以前木偶	-6648
及時事工作	-6649
是堅不可摧	-6650
是按照中國	-6651
正因為如此	-6652
水產生碳酸	-6653
cifuen	-6654
goffre	-6655
guilbe	-6656
hispan	-6657
hopley	-6658
intado	-6659
javier	-6660
jeffre	-6661
kerber	-6662
khanzi	-6663
millic	-6664
norman	-6665
simple	-6666
winham	-6667
zettel	-6668
£3,000	-6669
£5,000	-6670
▁他不久前剛	-6671
▁他也討論了	-6672
▁他形容她為	-6673
▁他獨自一人	-6674
▁他被認為能	-6675
▁但北愛爾蘭	-6676
▁但是在新生	-6677
▁位於地中海	-6678
▁你必須受得	-6679
▁俄羅斯帝國	-6680
▁共和黨經濟	-6681
▁同時第一次	-6682
▁哈雷戴維森	-6683
▁在他們之間	-6684
▁在佛羅里達	-6685
▁在你主導的	-6686
▁在六十年代	-6687
▁在其家庭在	-6688
▁在美國公民	-6689
▁在過去的五	-6690
▁在過去的兩	-6691
▁奧斯曼帝國	-6692
▁她還被指控	-6693
▁它帶有一個	-6694
▁它是一個供	-6695
▁安第斯山脈	-6696
▁對羅曼諾夫	-6697
▁工業革命令	-6698
▁布洛克堅定	-6699
事後	-6700
光燈	-6701
判所	-6702
墨則	-6703
大也	-6704
奧茲	-6705
山上	-6706
德爾	-6707
改良	-6708
氧化	-6709
界限	-6710
相格	-6711
維持	-6712
與茱	-6713
若有	-6714
莎拉	-6715
薩謨	-6716
薪資	-6717
跑道	-6718
閣下	-6719
二氧化	-6720
人奧茲	-6721
但若有	-6722
光燈下	-6723
和能力	-6724
在山上	-6725
居住在	-6726
後部隊	-6727
戰役之	-6728
手莎拉	-6729
曼德爾	-6730
歐與茱	-6731
淚模糊	-6732
相格林	-6733
維持長	-6734
莫墨則	-6735
薩謨奈	-6736
裁判所	-6737
運動場	-6738
革命後	-6739
▁在電影	-6740
▁我事後	-6741
二氧化碳	-6742
他霸占此	-6743
作品創作	-6744
克林頓和	-6745
冰人奧茲	-6746
包括改良	-6747
和曼德爾	-6748
和莫墨則	-6749
大也一樣	-6750
威爾閣下	-6751
密歐與茱	-6752
巧和能力	-6753
後部隊還	-6754
戰役之時	-6755
產品都是	-6756
眼淚模糊	-6757
聚光燈下	-6758
進入跑道	-6759
選手莎拉	-6760
都居住在	-6761
首相格林	-6762
之間的界限	-6763
伊冰人奧茲	-6764
俄國革命後	-6765
克林頓和盟	-6766
包括薩謨奈	-6767
原本在山上	-6768
大學運動場	-6769
子選手莎拉	-6770
宗教裁判所	-6771
密歐與茱麗	-6772
技巧和能力	-6773
於聚光燈下	-6774
無法維持長	-6775
用產品都是	-6776
的眼淚模糊	-6777
芙和莫墨則	-6778
解二氧化碳	-6779
▁希斯帕尼亞	-6780
▁年度調查還	-6781
▁後者在監督	-6782
▁我們很失望	-6783
▁我們要評估	-6784
▁我的下一站	-6785
▁我認為這是	-6786
▁投資在溢價	-6787
▁撤退的消息	-6788
▁據帕克所說	-6789
▁放下麥克風	-6790
▁斯大林開始	-6791
▁有些人懂了	-6792
▁有人曾預計	-6793
▁梅爾里斯說	-6794
▁沒有人知道	-6795
▁沙塵暴通常	-6796
▁消費者可以	-6797
▁澳大利亞的	-6798
▁理所當然地	-6799
售出	-6800
慶賀	-6801
把它	-6802
救它	-6803
目點	-6804
絕對	-6805
並把它	-6806
事的角	-6807
增加而	-6808
挽救它	-6809
植物園	-6810
盲目點	-6811
落地面	-6812
都已經	-6813
集了在	-6814
事的角逐	-6815
值得慶賀	-6816
在邁錫尼	-6817
息的地方	-6818
我們絕對	-6819
收集了在	-6820
米爾德里	-6821
落地面後	-6822
街上有一	-6823
身份加入	-6824
量增加而	-6825
並把它變為	-6826
和米爾德里	-6827
安息的地方	-6828
或者盲目點	-6829
爾街上有一	-6830
用量增加而	-6831
能夠挽救它	-6832
裡有植物園	-6833
這些都已經	-6834
降落地面後	-6835
領事的角逐	-6836
▁研究人員付	-6837
▁研究人員說	-6838
▁科隆和不來	-6839
▁第二季目前	-6840
▁聯合國回顧	-6841
▁聯邦政府主	-6842
▁聯邦政府和	-6843
▁自二十世紀	-6844
▁至八世紀末	-6845
▁菲利普隨後	-6846
▁蘇伊士運河	-6847
▁衣服上的血	-6848
▁裡面有馬丁	-6849
▁許多科學家	-6850
▁賴特是新生	-6851
▁追求和平的	-6852
▁這也推動了	-6853
▁這奠定了融	-6854
▁雖然直至較	-6855
▁電影記錄了	-6856
▁馬德里自治	-6857
一一位有貴族	-6858
一位歐盟官員	-6859
一個日期只能	-6860
一個研究的實	-6861
一定會懷念他	-6862
一定會有抗議	-6863
一直代表著富	-6864
一直保持著樂	-6865
一直有著政治	-6866
一直飽受批評	-6867
一起探討軍事	-6868
三個平行的小	-6869
上一部影片是	-6870
上了太陽眼鏡	-6871
上個月報導說	-6872
上很重要的六	-6873
上慶祝他們的	-6874
上的管理解決	-6875
下一波的抗議	-6876
下來的伊斯蘭	-6877
下用的聊天軟	-6878
下面將小球彈	-6879
下面帶有一個	-6880
不僅會傷害小	-6881
不大切合實際	-6882
不存在此特徵	-6883
不應該被忽視	-6884
不比在尼羅河	-6885
不知道為什麼	-6886
丑之於人性就	-6887
世界大戰戰末	-6888
世界廣播電台	-6889
並且在好幾個	-6890
並且被拍到在	-6891
並以此為基礎	-6892
並未透露多少	-6893
並用錘子輕輕	-6894
並連接到你的	-6895
中國將在本週	-6896
中底去除角質	-6897
中期青銅時代	-6898
中洗清了達菲	-6899
▁或	-6900
▁戴	-6901
付款	-6902
到此	-6903
半學	-6904
喬瓦	-6905
就越	-6906
想和	-6907
把玩	-6908
斯碼	-6909
於圖	-6910
日表	-6911
昂貴	-6912
珠港	-6913
總的	-6914
費制	-6915
這週	-6916
過度	-6917
陶醉	-6918
點點	-6919
▁國王	-6920
▁在這	-6921
▁或許	-6922
▁戴高	-6923
一點點	-6924
付款收	-6925
和廣告	-6926
喬瓦尼	-6927
工半學	-6928
斯碼頭	-6929
於圖案	-6930
昂貴的	-6931
樂隊的	-6932
珍珠港	-6933
總的銷	-6934
肯尼亞	-6935
與其他	-6936
英國喜	-6937
賃市場	-6938
這週早	-6939
過度崇	-6940
部舉行	-6941
▁國王在	-6942
▁在這條	-6943
▁我想和	-6944
▁或許這	-6945
他們陶醉	-6946
到此結束	-6947
半工半學	-6948
和廣告來	-6949
和肯尼亞	-6950
喜歡把玩	-6951
就越經常	-6952
工作日表	-6953
斯碼頭賽	-6954
於圖案和	-6955
柴油價格	-6956
樂隊的隊	-6957
獎與其他	-6958
用珍珠港	-6959
的經濟就	-6960
租賃市場	-6961
總的銷量	-6962
聖喬瓦尼	-6963
英國喜劇	-6964
表達遺憾	-6965
說明了國	-6966
警告歐洲	-6967
這週早些	-6968
過度崇拜	-6969
預付款收	-6970
▁國王在逃	-6971
只有一點點	-6972
和廣告來盈	-6973
和柴油價格	-6974
和肯尼亞山	-6975
她表達遺憾	-6976
斯碼頭賽道	-6977
昂貴的標準	-6978
樂隊的隊友	-6979
獎與其他普	-6980
美總的銷量	-6981
警告歐洲說	-6982
▁國王在逃跑	-6983
▁在這條信息	-6984
▁我喜歡把玩	-6985
▁我想和他們	-6986
▁或許這並不	-6987
中產階級已經	-6988
丹麥語的元素	-6989
乃伊冰人奧茲	-6990
之中永保鮮活	-6991
之前的疑問的	-6992
之後迴避和不	-6993
乘坐纜車穿越	-6994
也不會倒退回	-6995
也使其與很多	-6996
也包括薩謨奈	-6997
也在之後和馬	-6998
也許荒誕不經	-6999
丶那	-7000
兩名	-7001
或更	-7002
納什	-7003
運中	-7004
具藝術	-7005
引正在	-7006
或更確	-7007
的年度	-7008
空運中	-7009
飛機沉	-7010
丶那兩名	-7011
人們認為	-7012
具藝術性	-7013
州的納什	-7014
或更確切	-7015
指引正在	-7016
林空運中	-7017
讓飛機沉	-7018
▁它的年度	-7019
了整個西伯	-7020
便讓飛機沉	-7021
西州的納什	-7022
丶那兩名女孩	-7023
也利用了她與	-7024
亂合法葬禮罪	-7025
了一系列故事	-7026
了一系列長遠	-7027
了使用家用筆	-7028
了八部劇情片	-7029
了十年的改革	-7030
了所有七個選	-7031
了自己的健康	-7032
了被沖上東非	-7033
事件的發生率	-7034
互相調笑和表	-7035
些所謂的真實	-7036
亞加亞聯軍的	-7037
人們認為古典	-7038
人從未接觸過	-7039
人數有所增加	-7040
人曾在四月襲	-7041
人有意在兩到	-7042
人的南亞祖先	-7043
人還可以享用	-7044
人類經驗的範	-7045
仍舊有很大的	-7046
他一直在從事	-7047
他不想被賣掉	-7048
他們兩者似乎	-7049
他們才會被激	-7050
他加強了埃及	-7051
他同年在那裡	-7052
他宣布破產後	-7053
他採取了多種	-7054
他收到了美國	-7055
他極其不合格	-7056
他的命令不得	-7057
他的電影主題	-7058
他被給予了些	-7059
代替政壇老手	-7060
代表了最保守	-7061
代表了最激進	-7062
以便讓飛機沉	-7063
以及能夠溶於	-7064
以天皇在位的	-7065
以自由州還是	-7066
件改用第三方	-7067
任的總統尤多	-7068
任總統的要求	-7069
伊斯蘭教傳播	-7070
伯爵瑪格麗特	-7071
似乎希望元老	-7072
但他拒絕相信	-7073
但在冰島語中	-7074
但在離婚後卻	-7075
但大部分的班	-7076
但如果你知道	-7077
但希臘人沿用	-7078
但是人數很少	-7079
但是基普林的	-7080
但權力的和平	-7081
但總體的鐵儲	-7082
但這一想法遭	-7083
佈了一個新的	-7084
位於太平洋的	-7085
住在帕爾馬的	-7086
佔了不少便宜	-7087
佔絕大多數席	-7088
佔領古巴之後	-7089
佛商學院的學	-7090
佛羅里達州已	-7091
作為主要的水	-7092
作為食物以外	-7093
你們施加哪怕	-7094
使澳大利亞人	-7095
使用了大量的	-7096
使該公司損失	-7097
來一直在穩步	-7098
來保障消費者	-7099
▁把	-7100
三公	-7101
中把	-7102
乘風	-7103
他跟	-7104
住到	-7105
信簽	-7106
個里	-7107
克雷	-7108
向該	-7109
否決	-7110
和對	-7111
埃德	-7112
存儲	-7113
對內	-7114
展開	-7115
川普	-7116
希邦	-7117
引誘	-7118
憑藉	-7119
時機	-7120
歸咎	-7121
流和	-7122
界的	-7123
的銥	-7124
章曾	-7125
結構	-7126
脫口	-7127
芽生	-7128
行讓	-7129
見面	-7130
質詢	-7131
車的	-7132
輕易	-7133
門票	-7134
閣的	-7135
阿明	-7136
非同	-7137
飢荒	-7138
str	-7139
▁埃德	-7140
▁憑藉	-7141
▁脫口	-7142
乘風破	-7143
亞音樂	-7144
個里面	-7145
克雷默	-7146
區的選	-7147
否決了	-7148
和對外	-7149
在對內	-7150
好時機	-7151
存儲在	-7152
展開較	-7153
希邦登	-7154
憲章曾	-7155
應媒體	-7156
歸咎於	-7157
界的寵	-7158
發芽生	-7159
的希臘	-7160
總統了	-7161
見面了	-7162
賽車的	-7163
輕易地	-7164
電信簽	-7165
非同尋	-7166
2000	-7167
▁埃德加	-7168
▁憲章曾	-7169
▁把時間	-7170
▁脫口秀	-7171
一直住到	-7172
上發芽生	-7173
中把責任	-7174
他跟德國	-7175
企業質詢	-7176
倫在對內	-7177
克雷默是	-7178
區的選票	-7179
含量的銥	-7180
哪個里面	-7181
回應媒體	-7182
在周三公	-7183
導致全球	-7184
展開較量	-7185
川普這種	-7186
希邦登堡	-7187
引誘前往	-7188
戰術錯誤	-7189
流和七月	-7190
界的寵兒	-7191
發生飢荒	-7192
的好時機	-7193
的行動時	-7194
經濟結構	-7195
輕易地稱	-7196
這一行讓	-7197
閣的發言	-7198
首先向該	-7199
下滑	-7200
不朽	-7201
它才	-7202
急劇	-7203
查局	-7204
現為	-7205
薩科	-7206
add	-7207
一個讓	-7208
世不朽	-7209
位於印	-7210
和烏夏	-7211
它才浮	-7212
投票給	-7213
敗告終	-7214
是值得	-7215
時繼續	-7216
普查局	-7217
沒有涵	-7218
薩科齊	-7219
▁高海拔	-7220
一個讓她	-7221
一直急劇	-7222
中沒有涵	-7223
位於印澳	-7224
做是值得	-7225
合法移民	-7226
和烏夏克	-7227
失敗告終	-7228
它才浮出	-7229
巧妙的口	-7230
放棄收益	-7231
是一個混	-7232
暫時繼續	-7233
會投票給	-7234
正如他和	-7235
永世不朽	-7236
貴族成員	-7237
adden	-7238
▁在第二次	-7239
▁從這一點	-7240
▁把時間快	-7241
一個讓她感	-7242
中沒有涵蓋	-7243
亞音樂學校	-7244
人口普查局	-7245
以失敗告終	-7246
伯倫在對內	-7247
做是值得的	-7248
共和國的命	-7249
區發生飢荒	-7250
名貴族成員	-7251
和烏夏克吞	-7252
在哪個里面	-7253
她暫時繼續	-7254
存儲在國際	-7255
它才浮出水	-7256
居里研究所	-7257
層是一個混	-7258
巧妙的口頭	-7259
放棄收益會	-7260
流和七月份	-7261
的希臘雅典	-7262
而不是是否	-7263
而永世不朽	-7264
薩科齊表示	-7265
賽車的門票	-7266
輕易地稱之	-7267
迪希邦登堡	-7268
addenb	-7269
▁在第二次美	-7270
▁迪希邦登堡	-7271
一直急劇下滑	-7272
上發芽生長的	-7273
人們會投票給	-7274
企業質詢了其	-7275
但以失敗告終	-7276
來自基色城的	-7277
俄國的所有製	-7278
保全克萊德造	-7279
信那些等我們	-7280
個小型自治城	-7281
個是購物平台	-7282
個男人告訴他	-7283
個隕石材料的	-7284
們的相似之處	-7285
做一些不同的	-7286
做的目的是在	-7287
停留了八個月	-7288
債券全部售出	-7289
像是小麥這樣	-7290
兄弟們並沒有	-7291
克圖特摩斯聖	-7292
克萊恩沉默寡	-7293
內高加索地區	-7294
全球性別暴力	-7295
兩個德國農民	-7296
兩次宣布破產	-7297
公國在當今的	-7298
公開回應媒體	-7299
▁庫	-7300
▁胡	-7301
中東	-7302
了五	-7303
原都	-7304
好搖	-7305
搖頭	-7306
村野	-7307
薄時	-7308
開闊	-7309
▁庫恩	-7310
▁胡安	-7311
了五座	-7312
了支持	-7313
原都被	-7314
只好搖	-7315
向安迪	-7316
對事件	-7317
政治辭	-7318
村野餐	-7319
marr	-7320
人的中東	-7321
對事件處	-7322
提供開闊	-7323
政府希望	-7324
政治辭令	-7325
更偉大的	-7326
村野餐區	-7327
也不會發生	-7328
了五座傳統	-7329
內提供開闊	-7330
原都被海洋	-7331
只好搖搖頭	-7332
對事件處之	-7333
必須向安迪	-7334
房地產市場	-7335
與政治辭令	-7336
鄉村野餐區	-7337
不幸的是再次	-7338
六十年代以來	-7339
六秒鐘的藝術	-7340
共同採取根本	-7341
共和國是清朝	-7342
其他人則讚賞	-7343
其他更為優異	-7344
其後出現在漫	-7345
兼匈牙利國王	-7346
冊中沒有涵蓋	-7347
再一次獲得了	-7348
冬季運動會將	-7349
凱拉的嬰兒是	-7350
出了一個新的	-7351
出能跨海的大	-7352
分解二氧化碳	-7353
列為國家的首	-7354
利對尼古拉斯	-7355
到了格拉斯哥	-7356
到進口葡萄酒	-7357
刺激對改變的	-7358
前往契丹遼朝	-7359
前的大台階上	-7360
創作了六部歌	-7361
創造音樂幾乎	-7362
力發電的條件	-7363
加低斯的圖尼	-7364
加拿大的邊界	-7365
勒牧師拜訪了	-7366
勞工的工作和	-7367
募政府開支的	-7368
包括土著群體	-7369
化的第一階段	-7370
北京的立法者	-7371
北卡羅來納州	-7372
半島一分為二	-7373
半島的後古典	-7374
南海與崔絲一	-7375
南美洲的想法	-7376
南邊的太平洋	-7377
博格達汗統治	-7378
卡拉皇帝提出	-7379
印度和中國等	-7380
即巴拿馬地峽	-7381
原都被海洋或	-7382
去除空氣中的	-7383
參與了該項目	-7384
受疼痛折磨的	-7385
受邀才能進去	-7386
古老文明均因	-7387
古老歷史資料	-7388
只剩下了中央	-7389
可以在華盛頓	-7390
可疑的漏洞和	-7391
可能也適用於	-7392
可能導致債務	-7393
可行性研究估	-7394
可親含蓄謙遜	-7395
可追溯的神經	-7396
史達林同時還	-7397
司法部部長譴	-7398
吉拉德女士說	-7399
一詞	-7400
乾預	-7401
今晚	-7402
光束	-7403
帖子	-7404
弗裡	-7405
戶使	-7406
治的	-7407
漢日	-7408
的突	-7409
背後	-7410
迪恩	-7411
霍頓	-7412
高激	-7413
鮑爾	-7414
▁帖子	-7415
一詞的	-7416
丁漢日	-7417
今晚將	-7418
和乾預	-7419
好面對	-7420
帳戶使	-7421
投降時	-7422
杰弗裡	-7423
正日的	-7424
治的信	-7425
的突破	-7426
的背後	-7427
行為是	-7428
鮑爾說	-7429
▁帖子上	-7430
丁漢日報	-7431
使用高激	-7432
做好面對	-7433
光束進行	-7434
性一局的	-7435
性和武器	-7436
捕行為是	-7437
治的信心	-7438
由杰弗裡	-7439
的突破了	-7440
的背後也	-7441
破裂以及	-7442
金正日的	-7443
▁帖子上寫	-7444
▁金正日的	-7445
一詞的來源	-7446
動性和武器	-7447
和乾預導致	-7448
帳戶使政府	-7449
幸福的追求	-7450
我們今晚將	-7451
治的信心是	-7452
的破裂以及	-7453
的突破了新	-7454
的背後也總	-7455
諾丁漢日報	-7456
轉而專心在	-7457
逮捕行為是	-7458
還需要對付	-7459
重現的資源	-7460
▁帖子上寫著	-7461
一詞的來源備	-7462
做好面對海外	-7463
光束進行處罰	-7464
動性和武器的	-7465
同上船的佛羅	-7466
同時允許外國	-7467
同時它們的糞	-7468
同樣也適用於	-7469
同樣宣布獲勝	-7470
名人的名字最	-7471
名警方發言人	-7472
名這片土地的	-7473
向丘吉爾頒布	-7474
向自己的政治	-7475
向飛行員發送	-7476
否則會非常炎	-7477
告誡不要採用	-7478
和一個巨大的	-7479
和城鎮化擴展	-7480
和女演員葛洛	-7481
和幸福的追求	-7482
和廣告來盈利	-7483
和批發方面的	-7484
和曼德爾一起	-7485
和法國在這個	-7486
和波斯的精英	-7487
和福特公司於	-7488
和程序上存在	-7489
和米爾德里德	-7490
和遵守了多少	-7491
品牌首席代表	-7492
哥將會有一項	-7493
唱片公司正在	-7494
因此丟了工作	-7495
因為他們缺乏	-7496
因為這些東西	-7497
因為這些節日	-7498
因為這兩個區	-7499
人替	-7500
仍是	-7501
來以	-7502
地連	-7503
安提	-7504
年份	-7505
年最	-7506
格德	-7507
民意	-7508
沙爾	-7509
紅細	-7510
總部	-7511
著火	-7512
葵格	-7513
躍奇	-7514
軒然	-7515
輸三	-7516
離引	-7517
來以鷹	-7518
到一起	-7519
安提帕	-7520
家電影	-7521
戰民意	-7522
未能在	-7523
發生瞭	-7524
的話題	-7525
紅細胞	-7526
能緩解	-7527
葵格和	-7528
調離引	-7529
起軒然	-7530
躍奇緣	-7531
輸三局	-7532
▁布沙爾	-7533
一些國家	-7534
厭戰民意	-7535
安提帕斯	-7536
實施他的	-7537
少數人替	-7538
年份仍是	-7539
從未有人	-7540
拉到一起	-7541
最後同樣	-7542
的調離引	-7543
突然著火	-7544
能緩解情	-7545
葵格和姬	-7546
行為表示	-7547
起軒然大	-7548
院發生瞭	-7549
震驚地連	-7550
首家電影	-7551
魚躍奇緣	-7552
▁首家電影	-7553
他們未能在	-7554
共和黨總部	-7555
另一個助手	-7556
多次的合作	-7557
年最成功的	-7558
律安提帕斯	-7559
從未有人用	-7560
格德和索爾	-7561
的行為表示	-7562
第一位在暗	-7563
紅細胞中的	-7564
能緩解情緒	-7565
葵格和姬絲	-7566
被拉到一起	-7567
變遷和復興	-7568
起軒然大波	-7569
▁布沙爾令人	-7570
下被拉到一起	-7571
但是最後同樣	-7572
動物還能提供	-7573
厭戰民意之下	-7574
因用量增加而	-7575
國務大臣作為	-7576
國家公園建立	-7577
國家所需要的	-7578
國的要求作出	-7579
圍內造成影響	-7580
團隊在同一場	-7581
土地開墾項目	-7582
土耳其的工作	-7583
在停留時多次	-7584
在兩千年前的	-7585
在北卡羅來納	-7586
在周一發布的	-7587
在地中海地區	-7588
在大火中被焚	-7589
在戰後部隊還	-7590
在生命的最後	-7591
在英國特別活	-7592
在英國登上了	-7593
在講述自己的	-7594
在通知中表明	-7595
在邁錫尼文明	-7596
地在地中海的	-7597
地敲擊起落架	-7598
均由滿族統治	-7599
cr	-7600
三星	-7601
價的	-7602
克拉	-7603
化合	-7604
和清	-7605
寫在	-7606
暴亂	-7607
粘稠	-7608
處冷	-7609
風是	-7610
crt	-7611
dit	-7612
三星的	-7613
不可靠	-7614
克拉納	-7615
化合物	-7616
和清醒	-7617
因研究	-7618
季風是	-7619
提高油	-7620
深處冷	-7621
與法國	-7622
規處罰	-7623
這樣一	-7624
革命的	-7625
crtc	-7626
▁季風是	-7627
三星的挫	-7628
來提高油	-7629
價的決定	-7630
克拉納赫	-7631
地方成為	-7632
城鎮市民	-7633
基因研究	-7634
寫在聯盟	-7635
往不可靠	-7636
村革命的	-7637
武裝暴亂	-7638
深處冷卻	-7639
碳化合物	-7640
較為粘稠	-7641
這樣一份	-7642
三星的挫折	-7643
和清醒的頭	-7644
工業革命比	-7645
往往不可靠	-7646
氟碳化合物	-7647
由城鎮市民	-7648
總統的最後	-7649
而較為粘稠	-7650
與法國經濟	-7651
農村革命的	-7652
這樣一份文	-7653
非常規處罰	-7654
韓的經濟已	-7655
reddit	-7656
▁農村革命的	-7657
三星的挫折中	-7658
其他地方成為	-7659
南韓的經濟已	-7660
和清醒的頭腦	-7661
均被奧古斯都	-7662
埃及法老因此	-7663
埋葬地點以及	-7664
城市海濱一帶	-7665
基因研究表明	-7666
基於政績的考	-7667
報告中充分讚	-7668
報紙文章顯示	-7669
場地剩了下來	-7670
塔爾羅解釋說	-7671
塢已經疏遠了	-7672
壇留下了光輝	-7673
士李維被釋放	-7674
多數的第三方	-7675
多是出於天真	-7676
多次的合作中	-7677
大的高爾夫球	-7678
天氣預報節目	-7679
天的菩薩圖片	-7680
她和她與其它	-7681
她寫的歌成功	-7682
她把兒子安德	-7683
她是反對欺凌	-7684
她的未出生的	-7685
如瑞典的托爾	-7686
妻子也開始了	-7687
姍姍來遲還是	-7688
威尼斯募集的	-7689
威尼斯的人口	-7690
威爾斯市長大	-7691
威爾閣下拒絕	-7692
媽法蘭西的伊	-7693
存儲在國際空	-7694
學生還沒決定	-7695
它才浮出水面	-7696
它未來的目標	-7697
它為地區帶來	-7698
它重現了冷戰	-7699
不見	-7700
他獲	-7701
來就	-7702
入密	-7703
城戰	-7704
小木	-7705
抖動	-7706
正朝	-7707
燒毀	-7708
皮特	-7709
約的	-7710
與以	-7711
議案	-7712
豫要	-7713
▁小木	-7714
了重要	-7715
些歷史	-7716
他獲派	-7717
加工業	-7718
匯入密	-7719
從來就	-7720
情況宛	-7721
攻城戰	-7722
正朝著	-7723
比能在	-7724
清朝時	-7725
猶豫要	-7726
當時她	-7727
皮特庫	-7728
而不見	-7729
與以往	-7730
都認為	-7731
▁對議案	-7732
▁小木屋	-7733
不斷抖動	-7734
也都認為	-7735
他獲派遣	-7736
在清朝時	-7737
在猶豫要	-7738
完全燒毀	-7739
必須保持	-7740
情況宛如	-7741
械加工業	-7742
沒有協議	-7743
的攻城戰	-7744
皮特庫賽	-7745
約的國家	-7746
蒂文以北	-7747
視而不見	-7748
arden	-7749
▁小木屋被	-7750
▁確定最終	-7751
▁那些歷史	-7752
也都認為那	-7753
了重要角色	-7754
你必須保持	-7755
匯入密西西	-7756
從來就沒有	-7757
情況宛如露	-7758
我們正朝著	-7759
手不斷抖動	-7760
機械加工業	-7761
比能在飛機	-7762
沒有協議時	-7763
當時她只有	-7764
約的國家中	-7765
與以往有所	-7766
garden	-7767
▁確定最終外	-7768
也都認為那會	-7769
人士在猶豫要	-7770
克斯蒂文以北	-7771
匯入密西西比	-7772
安全局的特工	-7773
安全部內組建	-7774
室內製作動畫	-7775
家可歸而被控	-7776
密歐與茱麗葉	-7777
實施他的計劃	-7778
實現更偉大的	-7779
實際上可能會	-7780
寫在聯盟合同	-7781
將能與巴西狂	-7782
將能降低這些	-7783
對事件處之泰	-7784
對他們註冊的	-7785
對匈牙利施壓	-7786
對廢墟進行了	-7787
對我們耍的一	-7788
對此局面有所	-7789
對殺戮的某種	-7790
小塊釙使羅娜	-7791
就像大多數南	-7792
就像超級英雄	-7793
就是在這裡偷	-7794
就是為什麼當	-7795
就會選出歷史	-7796
就致信伊雷娜	-7797
就被視為有生	-7798
尼亞戰爭期間	-7799
也讓	-7800
呼吸	-7801
大大	-7802
她脖	-7803
常見	-7804
彌補	-7805
我也	-7806
撰寫	-7807
極天	-7808
殼潛	-7809
紅帽	-7810
線鏈	-7811
翼翼	-7812
跟女	-7813
項全	-7814
一項全	-7815
上運輸	-7816
但也讓	-7817
偶極天	-7818
印度群	-7819
呼吸裡	-7820
地殼潛	-7821
她脖子	-7822
年撰寫	-7823
心翼翼	-7824
條線鏈	-7825
的話則	-7826
紅帽子	-7827
達州的	-7828
上運輸的	-7829
偶極天線	-7830
印度群島	-7831
呼吸裡都	-7832
地殼潛沒	-7833
大大限制	-7834
她脖子前	-7835
小心翼翼	-7836
常見程度	-7837
年撰寫的	-7838
我也明白	-7839
擋的話則	-7840
烈的討論	-7841
紅帽子的	-7842
華達州的	-7843
蒙古的大	-7844
跟女朋友	-7845
這一點嗎	-7846
那條線鏈	-7847
需要彌補	-7848
一項全面的	-7849
上運輸的貨	-7850
但也讓公共	-7851
內華達州的	-7852
十分受歡迎	-7853
呼吸裡都充	-7854
外蒙古的大	-7855
她脖子前伸	-7856
小心翼翼的	-7857
擋的話則行	-7858
次初選中瑞	-7859
熱烈的討論	-7860
痕需要彌補	-7861
的偶極天線	-7862
第一個不同	-7863
紅帽子的守	-7864
西印度群島	-7865
▁內華達州的	-7866
上運輸的貨物	-7867
中的那條線鏈	-7868
前外蒙古的大	-7869
叛亂的收益指	-7870
呼吸裡都充斥	-7871
地殼潛沒形成	-7872
大大限制了其	-7873
局局長穆罕默	-7874
展示了淤積物	-7875
層是一個混沌	-7876
山和肯尼亞山	-7877
岩島嶼則如聖	-7878
岩漿一般因矽	-7879
島嶼位於印澳	-7880
崔絲已返回了	-7881
州的百分之一	-7882
工業界的寵兒	-7883
工業革命都早	-7884
巧妙的口頭修	-7885
巴拿馬地峽北	-7886
巴爾幹的目標	-7887
巴西丶南非丶	-7888
巴黎協定中的	-7889
市房地產市場	-7890
布雷斯特德於	-7891
希區柯克因為	-7892
希臘一分為二	-7893
帝國的附庸國	-7894
師和紡織業工	-7895
帶領的托利黨	-7896
幫助已故之人	-7897
幫助恢復公眾	-7898
干預是必要的	-7899
不禮	-7900
以確	-7901
呼其	-7902
會顯	-7903
殊閏	-7904
注目	-7905
的理	-7906
皇室	-7907
通用	-7908
魚和	-7909
不禮貌	-7910
了敵人	-7911
人注目	-7912
以確保	-7913
保使用	-7914
大革命	-7915
政府仍	-7916
是皇室	-7917
會顯得	-7918
望每年	-7919
殊閏月	-7920
的理想	-7921
的計劃	-7922
直呼其	-7923
被最高	-7924
魚和明	-7925
1984	-7926
利亞北部	-7927
安保使用	-7928
引人注目	-7929
日被最高	-7930
有望每年	-7931
特殊閏月	-7932
通用公司	-7933
魚和明太	-7934
三島的計劃	-7935
供安保使用	-7936
利亞北部地	-7937
名字會顯得	-7938
大革命之後	-7939
對方是皇室	-7940
擊敗了敵人	-7941
政府仍將要	-7942
爾的加拿大	-7943
王朝的理想	-7944
該地區澳洲	-7945
非常不禮貌	-7946
魚和明太魚	-7947
倫三島的計劃	-7948
入了特殊閏月	-7949
利亞北部地處	-7950
利擊敗了敵人	-7951
平均最高溫度	-7952
年代仍在使用	-7953
年俄國革命後	-7954
年夏天大部分	-7955
年夏季奧運會	-7956
年建造並修葺	-7957
年撰寫的第一	-7958
年的專業而友	-7959
年選舉日之前	-7960
幸運兔奧斯瓦	-7961
幾乎每個島嶼	-7962
幾乎沒有借用	-7963
幾乎沒有被評	-7964
幾十億的對象	-7965
座青銅時代的	-7966
廣工作奠定了	-7967
建立一種更為	-7968
建立生者與死	-7969
建立起了商業	-7970
建設中的城市	-7971
建設看到日本	-7972
張伯倫在對內	-7973
強制受洗後都	-7974
強制受洗有悖	-7975
形成連鎖反應	-7976
影子之於常人	-7977
征服了色雷斯	-7978
很可能是其中	-7979
很多未完工的	-7980
很多能使協議	-7981
很快就破滅了	-7982
很有趣的求婚	-7983
從來就沒有過	-7984
從挪威南部的	-7985
從而使得地面	-7986
從而在之後塑	-7987
御所需的技能	-7988
性在兩個事實	-7989
情況視而不見	-7990
惡薩諾斯為主	-7991
意見表示遺憾	-7992
感到失望的人	-7993
感受到了權利	-7994
成為世界冠軍	-7995
成為了迪士尼	-7996
我們絕對無法	-7997
我認識的許多	-7998
或擁有滿意的	-7999
▁讚	-8000
中某	-8001
內涵	-8002
區別	-8003
屬南	-8004
扭屁	-8005
持卡	-8006
時尚	-8007
淡水	-8008
的利	-8009
的威	-8010
考察	-8011
與他	-8012
舌爾	-8013
議程	-8014
辭職	-8015
▁我看	-8016
▁讚美	-8017
人到達	-8018
兩個尖	-8019
喜歡五	-8020
塞舌爾	-8021
對扭屁	-8022
文內涵	-8023
淡水湖	-8024
照片被	-8025
的利率	-8026
的威脅	-8027
的持卡	-8028
與他一	-8029
與考察	-8030
英屬南	-8031
選擇在	-8032
tima	-8033
▁我看過	-8034
▁讚美詩	-8035
中某部分	-8036
人到達了	-8037
任何區別	-8038
兩個尖塔	-8039
共同議程	-8040
前英屬南	-8041
卡的持卡	-8042
員工辭職	-8043
喜歡五彩	-8044
塞舌爾和	-8045
對扭屁股	-8046
對照片被	-8047
所有的精	-8048
湊車型漫	-8049
現在變得	-8050
當我看到	-8051
的利率也	-8052
美國公司	-8053
與他一道	-8054
átima	-8055
▁這並沒有	-8056
公司的顧客	-8057
喜歡五彩繽	-8058
塞舌爾和刁	-8059
布里斯班大	-8060
應該選擇在	-8061
所有的精力	-8062
比現在變得	-8063
派對照片被	-8064
淡水湖通常	-8065
湊車型漫步	-8066
的人文內涵	-8067
與考察工作	-8068
著兩個尖塔	-8069
fátima	-8070
▁讚美詩獲得	-8071
公司的顧客要	-8072
喜歡五彩繽紛	-8073
塞舌爾和刁曼	-8074
對於堪薩斯州	-8075
布里斯班大市	-8076
性情使他無法	-8077
或更確切的說	-8078
或至少能減輕	-8079
戰爭將要來臨	-8080
戰爭爆發之前	-8081
戰爭開始的前	-8082
所以當我看到	-8083
所接收的投票	-8084
打鬥和打人的	-8085
把我排除在外	-8086
把日出標記在	-8087
拉博夫裸體出	-8088
拉的嬰兒的三	-8089
拉迪亞德吉湖	-8090
拉迪斯導演的	-8091
拜登的梅爾丁	-8092
指引正在著陸	-8093
掉法老王理智	-8094
接下來的選舉	-8095
接到了好幾個	-8096
接受嚴格的劍	-8097
接受采訪前戴	-8098
推動武裝暴亂	-8099
但卻	-8100
各有	-8101
吼聲	-8102
曲線	-8103
禍首	-8104
諾克	-8105
通信	-8106
齊平	-8107
▁在已	-8108
人和解	-8109
在脆弱	-8110
大廈的	-8111
孩子具	-8112
實小說	-8113
徵意義	-8114
政府是	-8115
論諾克	-8116
魁禍首	-8117
人和解並	-8118
但卻沒有	-8119
各有不同	-8120
吼聲是從	-8121
學習曲線	-8122
實小說是	-8123
市場齊平	-8124
希望用戶	-8125
樓大廈的	-8126
罪魁禍首	-8127
般的債務	-8128
象徵意義	-8129
▁在已開展	-8130
人和解並為	-8131
孩子具有一	-8132
山般的債務	-8133
建立起了利	-8134
是罪魁禍首	-8135
當地政府是	-8136
紀實小說是	-8137
試圖在脆弱	-8138
論諾克斯的	-8139
高樓大廈的	-8140
▁在已開展了	-8141
人和解並為此	-8142
如山般的債務	-8143
建立起了利潤	-8144
提契諾河和寶	-8145
揭示了他的成	-8146
撒哈拉沙漠的	-8147
擬定為羅馬法	-8148
支付巨額賠償	-8149
支持這個假設	-8150
收集了在實驗	-8151
改善會主席喬	-8152
放在化學浴徹	-8153
教人們如何應	-8154
數據的幫助下	-8155
文化發展特徵	-8156
文字又有意思	-8157
文學碩士學位	-8158
斯巴達在伯羅	-8159
斯托聖喬瓦尼	-8160
新上任的英國	-8161
新紀實小說是	-8162
方面來衡量的	-8163
方面的投資在	-8164
於神秘傳統中	-8165
於西方的蠅頭	-8166
施普林格一直	-8167
日下午的觀賞	-8168
明治天皇以前	-8169
明治天皇開始	-8170
是一個永不停	-8171
是一名漫畫家	-8172
是一對情侶了	-8173
是另一個助手	-8174
是可以合法出	-8175
是否具藝術性	-8176
是否認識作家	-8177
是因為有很多	-8178
是在深處冷卻	-8179
是基於有可能	-8180
是堅不可摧的	-8181
是撒哈拉沙漠	-8182
是最廣為接受	-8183
時的工作時間	-8184
晨的行動中製	-8185
智能手機模型	-8186
暗諷以及其他	-8187
更令人擔憂丶	-8188
最好的情況下	-8189
最後還是決定	-8190
最糟糕的狀況	-8191
會導致射擊場	-8192
會山任職變遷	-8193
會快速地打開	-8194
會議員效忠於	-8195
月秘密訪問了	-8196
有三棵棕櫚樹	-8197
有些國家甚至	-8198
有史以來最低	-8199
利山	-8200
安托	-8201
想在	-8202
操縱	-8203
河系	-8204
為七	-8205
笑他	-8206
納亞	-8207
維和	-8208
職的	-8209
讓步	-8210
轉運	-8211
週後	-8212
佛利山	-8213
僅為七	-8214
嘲笑他	-8215
想在黑	-8216
操縱數	-8217
比安托	-8218
河系漫	-8219
稱職的	-8220
管理的	-8221
該課程	-8222
跟這個	-8223
這一天	-8224
阿納亞	-8225
不稱職的	-8226
他的維和	-8227
佛利山莊	-8228
僅為七天	-8229
可能是一	-8230
含在工作	-8231
地區以外	-8232
專家調查	-8233
對該課程	-8234
情況相似	-8235
操縱數位	-8236
河系漫遊	-8237
的兩週後	-8238
管理的商	-8239
網絡討論	-8240
蘇比安托	-8241
佛利山莊酒	-8242
俄國想在黑	-8243
北地區以外	-8244
可能是一隻	-8245
含在工作時	-8246
奧斯曼人在	-8247
對該課程的	-8248
數僅為七天	-8249
的一個朋友	-8250
的網絡討論	-8251
管理的商人	-8252
翻他的維和	-8253
跟這個世界	-8254
進一步轉運	-8255
銀河系漫遊	-8256
不稱職的中國	-8257
佛利山莊酒店	-8258
同時操縱數位	-8259
含在工作時長	-8260
和俄國想在黑	-8261
天數僅為七天	-8262
奧巴馬嘲笑他	-8263
對該課程的設	-8264
投票的兩週後	-8265
有很多不同的	-8266
有很大的需求	-8267
有望每年獲得	-8268
朋友間還是不	-8269
未被妥善利用	-8270
本主演的電影	-8271
本先生在七月	-8272
東南部的賽道	-8273
東部緊鄰色雷	-8274
某些顆粒被帶	-8275
查爾斯被認為	-8276
根據工作日表	-8277
梅塞將軍也被	-8278
條窄窄的觸控	-8279
業務不斷擴展	-8280
樂隊成員大衛	-8281
樂隊的隊友艾	-8282
機的應用程序	-8283
權力派的黨派	-8284
次初選中瑞啟	-8285
歐洲人發現了	-8286
每人平均大約	-8287
比你更有資格	-8288
比賽中打平手	-8289
民主黨的爭論	-8290
汽車突然著火	-8291
沒一個讓她感	-8292
沒有任何區別	-8293
沒有見過有人	-8294
沒有這些工具	-8295
沙克爾頓爵士	-8296
河流均有源頭	-8297
油和柴油價格	-8298
法國代表透露	-8299
伽巴	-8300
來追	-8301
吸納	-8302
夫婦	-8303
川家	-8304
左岸	-8305
復一	-8306
恰郡	-8307
拜占	-8308
流士	-8309
緊張	-8310
縱觀	-8311
里繆	-8312
首腦	-8313
700	-8314
▁縱觀	-8315
主要是	-8316
伽巴佐	-8317
來追踪	-8318
公爵被	-8319
合議會	-8320
吸納了	-8321
在私人	-8322
基里繆	-8323
川家康	-8324
復一日	-8325
愛夫婦	-8326
拜占廷	-8327
爾恰郡	-8328
▁大流士	-8329
伽巴佐斯	-8330
但主要是	-8331
公爵被曝	-8332
合議會演	-8333
圖爾恰郡	-8334
地方總督	-8335
基里繆爾	-8336
川家康的	-8337
政府首腦	-8338
日復一日	-8339
日期以及	-8340
深愛夫婦	-8341
緊張關係	-8342
而且這些	-8343
起了減少	-8344
▁縱觀歷史	-8345
公爵被曝與	-8346
合議會演講	-8347
吸納了許多	-8348
在私人公司	-8349
如果年輕的	-8350
川家康的直	-8351
社交媒體來	-8352
美伽巴佐斯	-8353
製造了一個	-8354
負起了減少	-8355
霾日復一日	-8356
▁大流士十分	-8357
也製造了一個	-8358
但主要是為了	-8359
來追踪無人機	-8360
公爵被曝與人	-8361
在私人公司內	-8362
地方總督宣布	-8363
官美伽巴佐斯	-8364
川家康的直系	-8365
擔負起了減少	-8366
日期以及生肖	-8367
殖民地拜占廷	-8368
法國在馬倫哥	-8369
注重在兩國平	-8370
流和七月份的	-8371
流行緊密相關	-8372
海上風力發電	-8373
深的交通系統	-8374
溫斯頓進入了	-8375
滴從周圍的空	-8376
演出的好時機	-8377
澳大利亞人蒙	-8378
澳洲網球公開	-8379
炸雞永不滿足	-8380
為中心的數個	-8381
為基礎的全球	-8382
為最有可能從	-8383
為賬戶添加免	-8384
烏爾里希仍在	-8385
無法計算實際	-8386
然後是星期幾	-8387
熟練工人提升	-8388
燃煤電站也將	-8389
營中獨自探索	-8390
爾卡鬆的歷史	-8391
爾德發現大陸	-8392
爾的早期發明	-8393
爾街上有一席	-8394
爾變得更加善	-8395
片圍繞著地球	-8396
版本中演對手	-8397
特別引人注目	-8398
特利茨的成功	-8399
不一	-8400
他寫	-8401
加林	-8402
埋在	-8403
年前	-8404
很棒	-8405
擴建	-8406
曾是	-8407
格局	-8408
由靜	-8409
簡短	-8410
而足	-8411
英尺	-8412
該效	-8413
道格	-8414
隨即	-8415
dom	-8416
ust	-8417
▁埋在	-8418
他寫過	-8419
口曾是	-8420
國民保	-8421
在三個	-8422
在銀行	-8423
很棒的	-8424
時由靜	-8425
格局從	-8426
泰加林	-8427
道格拉	-8428
ulti	-8429
不一而足	-8430
他寫過不	-8431
以及國防	-8432
像在三個	-8433
國民保健	-8434
在銀行死	-8435
年前就已	-8436
戰時由靜	-8437
擴建這一	-8438
格局從一	-8439
胃口曾是	-8440
隨即被解	-8441
beust	-8442
domen	-8443
multi	-8444
他寫過不少	-8445
像在三個朝	-8446
國民保健署	-8447
年前就已傳	-8448
很棒的團隊	-8449
得到了合法	-8450
戰時由靜態	-8451
擴建這一項	-8452
泰加林具有	-8453
的格局從一	-8454
的胃口曾是	-8455
聯社發生了	-8456
道格拉斯的	-8457
domeni	-8458
以及國防方面	-8459
即使非常簡短	-8460
員工在銀行死	-8461
國民保健署正	-8462
奧巴馬的特別	-8463
好像在三個朝	-8464
年前就已傳至	-8465
得到了合法化	-8466
戰時由靜態防	-8467
特朗普的勝利	-8468
狂熱的吉他手	-8469
獨立審查主任	-8470
王安石的淤泥	-8471
王安石的賞識	-8472
理論上您就能	-8473
甚至比在矽谷	-8474
生活了數千年	-8475
生活在公元前	-8476
產品當作提高	-8477
用來分隔兩地	-8478
用同樣的方式	-8479
用恰當的儀式	-8480
用珍珠港事件	-8481
由於他們兩人	-8482
畢業生成就展	-8483
當地薩萊諾的	-8484
當總統的最後	-8485
當賬戶餘額為	-8486
當針對克林頓	-8487
疑問多於答案	-8488
發展的房地產	-8489
白人男性身分	-8490
百勝餐飲集團	-8491
的一個朋友的	-8492
的主要驅動力	-8493
的人均收入是	-8494
的人對扭屁股	-8495
的人註銷服務	-8496
的內容更多是	-8497
的利率也同樣	-8498
的地標建築南	-8499
下配	-8500
也與	-8501
倫薩	-8502
入愛	-8503
匹種	-8504
吉祥	-8505
因素	-8506
堡壘	-8507
愛侶	-8508
本會	-8509
歲高	-8510
殿有	-8511
略了	-8512
謹慎	-8513
一匹種	-8514
也與在	-8515
了堡壘	-8516
倫薩葛	-8517
入愛河	-8518
因素是	-8519
夠謹慎	-8520
布商業	-8521
後殿有	-8522
省略了	-8523
經常被	-8524
不夠謹慎	-8525
具體計劃	-8526
吉祥顏色	-8527
墜入愛河	-8528
布商業崗	-8529
明顯的分	-8530
的小教堂	-8531
研究報導	-8532
系列下配	-8533
項因素是	-8534
▁在後殿有	-8535
修建了堡壘	-8536
倫薩葛拉德	-8537
其中一匹種	-8538
具體計劃而	-8539
吉祥顏色是	-8540
向的小教堂	-8541
布商業崗哨	-8542
平均水平高	-8543
明顯的分隔	-8544
時不夠謹慎	-8545
本會看起來	-8546
研究報導稱	-8547
經常被標記	-8548
防報警信號	-8549
電影省略了	-8550
▁在七大洲的	-8551
並且墜入愛河	-8552
倫薩葛拉德相	-8553
吉卜林也與在	-8554
在一系列下配	-8555
地點符合瑪雅	-8556
布商業崗哨的	-8557
橫向的小教堂	-8558
沒明顯的分隔	-8559
消防報警信號	-8560
的地標燈塔和	-8561
的威脅困擾著	-8562
的工業革命比	-8563
的帕爾馬早了	-8564
的微小變化會	-8565
的德國和納粹	-8566
的志願者就有	-8567
的戈梅里表示	-8568
的擬人機器人	-8569
的放棄收益會	-8570
的是新的一集	-8571
的正確組合的	-8572
的死亡人口最	-8573
的目標這件事	-8574
的破壞極大地	-8575
的網絡討論後	-8576
的背後也總有	-8577
的行動告訴了	-8578
的記者都穿戴	-8579
的諡號也起自	-8580
的電影刻畫掙	-8581
的餘額中賺取	-8582
皮洛士不得不	-8583
皮特庫賽以及	-8584
省內代理人的	-8585
看到瘋狂又古	-8586
看幾集手機就	-8587
看的比賽越多	-8588
知道戴維斯盃	-8589
示是一名臥底	-8590
社交媒體來跟	-8591
祭祀遺跡由一	-8592
种子選手莎拉	-8593
科羅拉多州丹	-8594
程度相對較低	-8595
種罕見的情況	-8596
稱提庇留離開	-8597
稿風格似的影	-8598
穿過邊境之後	-8599
以下	-8600
修補	-8601
名人	-8602
怪奇	-8603
捕魚	-8604
揭發	-8605
漬化	-8606
粉絲	-8607
被當	-8608
鐳學	-8609
了新的	-8610
他希望	-8611
冬季白	-8612
怪奇物	-8613
生產已	-8614
產業和	-8615
被揭發	-8616
miam	-8617
uber	-8618
▁她的黃	-8619
他希望能	-8620
來自捕魚	-8621
冬季白天	-8622
布魯克斯	-8623
很多名人	-8624
怪奇物語	-8625
更微小的	-8626
的生產已	-8627
粉絲甚至	-8628
記者被當	-8629
miami	-8630
▁她的黃道	-8631
化學產業和	-8632
回到了鐳學	-8633
更微小的塵	-8634
省記者被當	-8635
進行了修補	-8636
開放了新的	-8637
一直行進到把	-8638
他希望能到達	-8639
他情感狀態不	-8640
使用者的歷史	-8641
來自捕魚以及	-8642
克省記者被當	-8643
後進行了修補	-8644
更微小的塵埃	-8645
的生產已完全	-8646
穿過邊境進入	-8647
突然發生變化	-8648
立於聚光燈下	-8649
立由城鎮市民	-8650
符拉迪沃斯托	-8651
第一個不同於	-8652
第一次偉大的	-8653
管不好核武器	-8654
管不好自己的	-8655
節日各有不同	-8656
節目有關太空	-8657
節都有其含義	-8658
簡直是太仁慈	-8659
系統中某部分	-8660
系統投入使用	-8661
系統的成功研	-8662
約克公爵三世	-8663
約夫承擔責任	-8664
約的國家中撤	-8665
紅帽子的守衛	-8666
絕妙的挑戰的	-8667
經常一個人呆	-8668
經常被標記為	-8669
經過一些奇蹟	-8670
總督瑪格麗特	-8671
總統的袁世凱	-8672
罰參與不道德	-8673
羅大眾的注意	-8674
羅馬出於管理	-8675
美國科幻電影	-8676
美洲土著群體	-8677
美西斯在後勤	-8678
義扭轉了對抗	-8679
習慣法建立了	-8680
者們安全得多	-8681
者和公眾的反	-8682
而其北部區域	-8683
而十個中有九	-8684
而我寧願別人	-8685
而有力的呼籲	-8686
而當增長率比	-8687
而黨派領導人	-8688
聯邦贊助醜聞	-8689
聯邦開支也會	-8690
聲波檢測變得	-8691
能使植物健康	-8692
能力將會受限	-8693
能合理地假設	-8694
能夠陶冶情操	-8695
能接收到一款	-8696
能緩解情緒的	-8697
自凱爾特海和	-8698
自己高爾夫打	-8699
也少	-8700
了美	-8701
仔褲	-8702
埃森	-8703
夠多	-8704
失去	-8705
將該	-8706
對抗	-8707
快的	-8708
手旁	-8709
把該	-8710
旁袖	-8711
而是	-8712
藉記	-8713
複雜	-8714
鋼琴	-8715
隊伍	-8716
雅茲	-8717
▁就職	-8718
不快的	-8719
也少了	-8720
了美孚	-8721
內展示	-8722
力對抗	-8723
台鋼琴	-8724
夠多了	-8725
娜同樣	-8726
將該案	-8727
手旁觀	-8728
牛仔褲	-8729
自己看	-8730
藉記卡	-8731
要失去	-8732
雅茲迪	-8733
chez	-8734
兵力對抗	-8735
四台鋼琴	-8736
在一旁袖	-8737
將該案打	-8738
就要失去	-8739
琳娜同樣	-8740
穿牛仔褲	-8741
而是稱呼	-8742
自己看了	-8743
複雜起來	-8744
隊伍包括	-8745
yerba	-8746
▁在藉記卡	-8747
▁對於離開	-8748
▁就職之前	-8749
一個雅茲迪	-8750
不快的言論	-8751
也少了很多	-8752
了美孚公司	-8753
內展示許多	-8754
奧地利皇帝	-8755
已經夠多了	-8756
我已經準備	-8757
捷琳娜同樣	-8758
的原因把該	-8759
統治時期的	-8760
署兵力對抗	-8761
而是稱呼姓	-8762
通過了嚴格	-8763
zayion	-8764
ánchez	-8765
他們在一旁袖	-8766
卡捷琳娜同樣	-8767
年通過了嚴格	-8768
我已經準備好	-8769
最後將該案打	-8770
與之平行的博	-8771
與他一道推進	-8772
與可觸產品的	-8773
與我們的日常	-8774
與西方的往來	-8775
與輔導員會面	-8776
艘該地區澳洲	-8777
花費數個小時	-8778
英國喜劇電影	-8779
英格蘭和威爾	-8780
茉莉公主出現	-8781
茲福德地區有	-8782
莫利塞地區和	-8783
著作整合了過	-8784
蒂岡法律中移	-8785
處方箋和疫苗	-8786
處於半工半學	-8787
處有關被征服	-8788
血紅蛋白水平	-8789
行為的代理商	-8790
被當作孩子來	-8791
被調查很多年	-8792
被迫害的經歷	-8793
被進一步轉運	-8794
裁定它們符合	-8795
裂痕需要彌補	-8796
裔猶太人當中	-8797
補助來提高油	-8798
製作出自己的	-8799
半決	-8800
名詞	-8801
已登	-8802
性水	-8803
排十	-8804
檢討	-8805
率頭	-8806
玫瑰	-8807
現場	-8808
覆蓋	-8809
轟動	-8810
邁科	-8811
里訂	-8812
之成為	-8813
代名詞	-8814
例如麥	-8815
半決賽	-8816
台擔任	-8817
它覆蓋	-8818
性水果	-8819
我都遇	-8820
排十座	-8821
的玫瑰	-8822
要檢討	-8823
里訂立	-8824
▁在現場	-8825
一場大火	-8826
並不總是	-8827
使之成為	-8828
例如麥加	-8829
半決賽中	-8830
可以打開	-8831
地區以及	-8832
引發轟動	-8833
性水果酒	-8834
的	-8835
,	-8836
▁	-8837
。	-8838
在	-8839
了	-8840
一	-8841
是	-8842
他	-8843
人	-8844
1	-8845
有	-8846
年	-8847
0	-8848
和	-8849
為	-8850
國	-8851
這	-8852
中	-8853
個	-8854
大	-8855
a	-8856
們	-8857
不	-8858
斯	-8859
地	-8860
於	-8861
e	-8862
r	-8863
來	-8864
n	-8865
時	-8866
會	-8867
以	-8868
2	-8869
(	-8870
)	-8871
後	-8872
i	-8873
能	-8874
爾	-8875
上	-8876
到	-8877
之	-8878
發	-8879
9	-8880
多	-8881
對	-8882
o	-8883
作	-8884
·	-8885
其	-8886
被	-8887
但	-8888
可	-8889
我	-8890
成	-8891
法	-8892
生	-8893
出	-8894
_	-8895
用	-8896
部	-8897
公	-8898
最	-8899
t	-8900
s	-8901
特	-8902
要	-8903
自	-8904
前	-8905
、	-8906
利	-8907
行	-8908
月	-8909
3	-8910
家	-8911
說	-8912
c	-8913
”	-8914
分	-8915
區	-8916
l	-8917
世	-8918
拉	-8919
“	-8920
過	-8921
並	-8922
而	-8923
方	-8924
經	-8925
西	-8926
克	-8927
得	-8928
5	-8929
同	-8930
工	-8931
也	-8932
亞	-8933
現	-8934
當	-8935
美	-8936
因	-8937
她	-8938
學	-8939
就	-8940
所	-8941
開	-8942
海	-8943
德	-8944
代	-8945
加	-8946
很	-8947
及	-8948
如	-8949
間	-8950
下	-8951
戰	-8952
m	-8953
些	-8954
次	-8955
那	-8956
8	-8957
事	-8958
位	-8959
羅	-8960
d	-8961
內	-8962
從	-8963
政	-8964
與	-8965
進	-8966
都	-8967
主	-8968
民	-8969
統	-8970
6	-8971
它	-8972
者	-8973
著	-8974
天	-8975
已	-8976
影	-8977
新	-8978
期	-8979
表	-8980
該	-8981
尼	-8982
日	-8983
面	-8984
馬	-8985
第	-8986
還	-8987
兩	-8988
電	-8989
7	-8990
動	-8991
機	-8992
立	-8993
里	-8994
關	-8995
高	-8996
4	-8997
《	-8998
》	-8999
子	-9000
道	-9001
布	-9002
建	-9003
格	-9004
比	-9005
由	-9006
安	-9007
數	-9008
本	-9009
此	-9010
理	-9011
約	-9012
h	-9013
元	-9014
力	-9015
場	-9016
定	-9017
市	-9018
希	-9019
至	-9020
b	-9021
將	-9022
接	-9023
使	-9024
全	-9025
英	-9026
起	-9027
選	-9028
十	-9029
通	-9030
達	-9031
長	-9032
受	-9033
巴	-9034
常	-9035
平	-9036
明	-9037
種	-9038
南	-9039
據	-9040
議	-9041
軍	-9042
g	-9043
任	-9044
名	-9045
投	-9046
樣	-9047
演	-9048
u	-9049
意	-9050
教	-9051
業	-9052
洲	-9053
變	-9054
資	-9055
奧	-9056
導	-9057
然	-9058
總	-9059
保	-9060
卡	-9061
合	-9062
提	-9063
歐	-9064
沒	-9065
紀	-9066
蘭	-9067
三	-9068
司	-9069
治	-9070
直	-9071
信	-9072
北	-9073
員	-9074
外	-9075
小	-9076
少	-9077
普	-9078
更	-9079
產	-9080
相	-9081
阿	-9082
度	-9083
手	-9084
水	-9085
示	-9086
系	-9087
裡	-9088
解	-9089
重	-9090
入	-9091
城	-9092
展	-9093
文	-9094
目	-9095
認	-9096
隊	-9097
件	-9098
好	-9099
實	-9100
性	-9101
界	-9102
非	-9103
去	-9104
史	-9105
回	-9106
女	-9107
化	-9108
始	-9109
把	-9110
無	-9111
爭	-9112
物	-9113
術	-9114
p	-9115
共	-9116
向	-9117
告	-9118
報	-9119
島	-9120
正	-9121
看	-9122
稱	-9123
處	-9124
量	-9125
y	-9126
基	-9127
府	-9128
情	-9129
果	-9130
根	-9131
歷	-9132
河	-9133
科	-9134
讓	-9135
k	-9136
山	-9137
己	-9138
幾	-9139
心	-9140
片	-9141
獲	-9142
計	-9143
許	-9144
論	-9145
賽	-9146
頓	-9147
—	-9148
助	-9149
只	-9150
士	-9151
想	-9152
持	-9153
未	-9154
標	-9155
氣	-9156
活	-9157
聯	-9158
近	-9159
體	-9160
二	-9161
令	-9162
制	-9163
劇	-9164
放	-9165
權	-9166
決	-9167
程	-9168
言	-9169
金	-9170
顯	-9171
黨	-9172
;	-9173
別	-9174
品	-9175
應	-9176
查	-9177
致	-9178
運	-9179
需	-9180
領	-9181
f	-9182
且	-9183
夫	-9184
或	-9185
指	-9186
樂	-9187
每	-9188
維	-9189
薩	-9190
費	-9191
隨	-9192
響	-9193
項	-9194
首	-9195
:	-9196
低	-9197
候	-9198
包	-9199
協	-9200
圖	-9201
土	-9202
括	-9203
源	-9204
皇	-9205
管	-9206
給	-9207
見	-9208
調	-9209
越	-9210
雷	-9211
麼	-9212
.	-9213
v	-9214
原	-9215
古	-9216
命	-9217
四	-9218
增	-9219
東	-9220
林	-9221
求	-9222
球	-9223
納	-9224
製	-9225
語	-9226
院	-9227
離	-9228
點	-9229
%	-9230
供	-9231
倫	-9232
口	-9233
問	-9234
帶	-9235
息	-9236
擔	-9237
收	-9238
望	-9239
條	-9240
極	-9241
票	-9242
超	-9243
預	-9244
-	-9245
伊	-9246
伯	-9247
傳	-9248
像	-9249
兒	-9250
六	-9251
具	-9252
功	-9253
域	-9254
夠	-9255
太	-9256
字	-9257
州	-9258
形	-9259
獨	-9260
班	-9261
眾	-9262
研	-9263
破	-9264
確	-9265
舉	-9266
設	-9267
諾	-9268
警	-9269
造	-9270
際	-9271
勒	-9272
參	-9273
取	-9274
型	-9275
塞	-9276
宣	-9277
控	-9278
易	-9279
牙	-9280
究	-9281
續	-9282
義	-9283
萬	-9284
視	-9285
記	-9286
車	-9287
迪	-9288
邊	-9289
頭	-9290
題	-9291
z	-9292
乎	-9293
務	-9294
印	-9295
另	-9296
均	-9297
寫	-9298
局	-9299
托	-9300
技	-9301
朝	-9302
死	-9303
溫	-9304
空	-9305
節	-9306
組	-9307
結	-9308
色	-9309
角	-9310
除	-9311
音	-9312
五	-9313
似	-9314
你	-9315
例	-9316
威	-9317
季	-9318
完	-9319
客	-9320
引	-9321
打	-9322
拿	-9323
支	-9324
族	-9325
曼	-9326
曾	-9327
濟	-9328
知	-9329
社	-9330
蒂	-9331
證	-9332
護	-9333
週	-9334
住	-9335
做	-9336
僅	-9337
先	-9338
再	-9339
則	-9340
友	-9341
反	-9342
埃	-9343
塔	-9344
密	-9345
強	-9346
必	-9347
戶	-9348
摩	-9349
擊	-9350
改	-9351
早	-9352
曲	-9353
服	-9354
朗	-9355
歌	-9356
殺	-9357
流	-9358
王	-9359
瑪	-9360
聖	-9361
萊	-9362
話	-9363
責	-9364
邦	-9365
集	-9366
?	-9367
何	-9368
備	-9369
吉	-9370
哥	-9371
境	-9372
存	-9373
往	-9374
愛	-9375
感	-9376
才	-9377
況	-9378
洛	-9379
派	-9380
澳	-9381
率	-9382
盟	-9383
臘	-9384
華	-9385
觀	-9386
評	-9387
路	-9388
轉	-9389
遠	-9390
降	-9391
風	-9392
麥	-9393
w	-9394
丁	-9395
交	-9396
什	-9397
份	-9398
佔	-9399
價	-9400
典	-9401
列	-9402
創	-9403
勢	-9404
單	-9405
堡	-9406
娜	-9407
孩	-9408
官	-9409
帝	-9410
廣	-9411
推	-9412
故	-9413
效	-9414
波	-9415
消	-9416
深	-9417
滿	-9418
激	-9419
石	-9420
老	-9421
藝	-9422
難	-9423
飛	-9424
j	-9425
七	-9426
丹	-9427
仍	-9428
俄	-9429
修	-9430
劃	-9431
博	-9432
台	-9433
各	-9434
否	-9435
商	-9436
失	-9437
奇	-9438
居	-9439
屬	-9440
席	-9441
承	-9442
斷	-9443
止	-9444
清	-9445
火	-9446
爵	-9447
白	-9448
突	-9449
米	-9450
終	-9451
絕	-9452
網	-9453
貝	-9454
遊	-9455
限	-9456
革	-9457
億	-9458
優	-9459
凱	-9460
升	-9461
即	-9462
姆	-9463
專	-9464
座	-9465
式	-9466
張	-9467
態	-9468
戲	-9469
找	-9470
擁	-9471
施	-9472
案	-9473
步	-9474
沙	-9475
測	-9476
準	-9477
版	-9478
獎	-9479
瑞	-9480
環	-9481
瓦	-9482
百	-9483
移	-9484
穿	-9485
等	-9486
繼	-9487
缺	-9488
習	-9489
船	-9490
訴	-9491
負	-9492
身	-9493
較	-9494
適	-9495
釋	-9496
防	-9497
雅	-9498
須	-9499
類	-9500
鬥	-9501
充	-9502
初	-9503
呼	-9504
哈	-9505
夏	-9506
害	-9507
容	-9508
察	-9509
帕	-9510
幫	-9511
律	-9512
挑	-9513
整	-9514
暴	-9515
書	-9516
歡	-9517
歲	-9518
殖	-9519
減	-9520
港	-9521
男	-9522
略	-9523
疑	-9524
省	-9525
站	-9526
緊	-9527
群	-9528
育	-9529
舊	-9530
花	-9531
試	-9532
象	-9533
輕	-9534
農	-9535
追	-9536
銀	-9537
陸	-9538
露	-9539
願	-9540
魚	-9541
依	-9542
係	-9543
值	-9544
停	-9545
兵	-9546
勝	-9547
周	-9548
喜	-9549
圍	-9550
底	-9551
庭	-9552
康	-9553
弗	-9554
快	-9555
恩	-9556
房	-9557
抗	-9558
排	-9559
撒	-9560
料	-9561
校	-9562
梅	-9563
毀	-9564
母	-9565
注	-9566
甚	-9567
登	-9568
益	-9569
督	-9570
礦	-9571
精	-9572
素	-9573
線	-9574
織	-9575
聲	-9576
職	-9577
菲	-9578
蒙	-9579
蘇	-9580
訪	-9581
足	-9582
遺	-9583
鎮	-9584
鐵	-9585
附	-9586
額	-9587
香	-9588
"	-9589
á	-9590
京	-9591
今	-9592
債	-9593
冬	-9594
半	-9595
卻	-9596
又	-9597
含	-9598
吸	-9599
喬	-9600
嚴	-9601
園	-9602
塊	-9603
妻	-9604
婚	-9605
宗	-9606
室	-9607
層	-9608
岸	-9609
弟	-9610
復	-9611
徵	-9612
戴	-9613
敦	-9614
朋	-9615
木	-9616
植	-9617
構	-9618
模	-9619
款	-9620
汽	-9621
洋	-9622
熱	-9623
留	-9624
真	-9625
積	-9626
簽	-9627
索	-9628
興	-9629
艾	-9630
茨	-9631
落	-9632
號	-9633
衝	-9634
補	-9635
規	-9636
親	-9637
討	-9638
識	-9639
質	-9640
跟	-9641
述	-9642
退	-9643
遜	-9644
邁	-9645
酒	-9646
醫	-9647
食	-9648
餘	-9649
麗	-9650
互	-9651
付	-9652
便	-9653
傷	-9654
券	-9655
唱	-9656
團	-9657
堂	-9658
墨	-9659
契	-9660
尋	-9661
巨	-9662
征	-9663
思	-9664
批	-9665
採	-9666
揮	-9667
撤	-9668
攻	-9669
束	-9670
某	-9671
棄	-9672
森	-9673
歸	-9674
泰	-9675
滅	-9676
礎	-9677
神	-9678
福	-9679
競	-9680
級	-9681
績	-9682
置	-9683
考	-9684
聞	-9685
肯	-9686
脈	-9687
航	-9688
衛	-9689
覺	-9690
訂	-9691
賬	-9692
赫	-9693
走	-9694
輯	-9695
辦	-9696
迫	-9697
逐	-9698
野	-9699
錄	-9700
靈	-9701
驗	-9702
魯	-9703
黎	-9704
£	-9705
久	-9706
乾	-9707
亂	-9708
予	-9709
亡	-9710
佛	-9711
健	-9712
傑	-9713
兄	-9714
刻	-9715
千	-9716
危	-9717
善	-9718
坐	-9719
壓	-9720
壞	-9721
守	-9722
審	-9723
嶼	-9724
師	-9725
幅	-9726
念	-9727
恐	-9728
惡	-9729
慶	-9730
扮	-9731
拒	-9732
描	-9733
擇	-9734
敗	-9735
敵	-9736
旅	-9737
星	-9738
智	-9739
析	-9740
概	-9741
油	-9742
烈	-9743
照	-9744
猶	-9745
畫	-9746
瘤	-9747
療	-9748
監	-9749
私	-9750
童	-9751
築	-9752
細	-9753
絲	-9754
練	-9755
耳	-9756
般	-9757
芬	-9758
莉	-9759
莎	-9760
莫	-9761
藉	-9762
訓	-9763
谷	-9764
財	-9765
貿	-9766
賴	-9767
贏	-9768
返	-9769
途	-9770
釙	-9771
鎊	-9772
門	-9773
隆	-9774
雨	-9775
靠	-9776
驚	-9777
黃	-9778
默	-9779
丶	-9780
乘	-9781
九	-9782
休	-9783
估	-9784
佈	-9785
佳	-9786
侵	-9787
假	-9788
光	-9789
冊	-9790
冠	-9791
冰	-9792
剛	-9793
匹	-9794
占	-9795
叛	-9796
哪	-9797
唐	-9798
嗎	-9799
器	-9800
執	-9801
壇	-9802
奈	-9803
媒	-9804
尤	-9805
峽	-9806
差	-9807
幸	-9808
庫	-9809
廢	-9810
役	-9811
待	-9812
徒	-9813
微	-9814
抱	-9815
抵	-9816
拍	-9817
授	-9818
探	-9819
揭	-9820
擴	-9821
春	-9822
晚	-9823
景	-9824
板	-9825
染	-9826
檢	-9827
武	-9828
沃	-9829
湖	-9830
漠	-9831
漢	-9832
漫	-9833
漲	-9834
漸	-9835
狂	-9836
瑟	-9837
病	-9838
皮	-9839
盛	-9840
眼	-9841
碑	-9842
碳	-9843
穩	-9844
章	-9845
笑	-9846
算	-9847
簡	-9848
紅	-9849
緩	-9850
罪	-9851
罰	-9852
署	-9853
耶	-9854
腫	-9855
臨	-9856
葉	-9857
血	-9858
街	-9859
裂	-9860
裔	-9861
裝	-9862
誰	-9863
講	-9864
趣	-9865
跡	-9866
連	-9867
遭	-9868
避	-9869
郵	-9870
錢	-9871
雖	-9872
霍	-9873
順	-9874
龍	-9875
ü	-9876
乏	-9877
亨	-9878
企	-9879
佐	-9880
佩	-9881
偶	-9882
儘	-9883
儲	-9884
允	-9885
八	-9886
冷	-9887
切	-9888
勞	-9889
勵	-9890
午	-9891
卑	-9892
味	-9893
售	-9894
喀	-9895
困	-9896
坦	-9897
培	-9898
堅	-9899
夢	-9900
妥	-9901
委	-9902
寶	-9903
封	-9904
岡	-9905
岩	-9906
巧	-9907
幻	-9908
志	-9909
怎	-9910
您	-9911
戈	-9912
截	-9913
拔	-9914
拜	-9915
捕	-9916
搬	-9917
播	-9918
暗	-9919
曆	-9920
替	-9921
末	-9922
柯	-9923
棒	-9924
棲	-9925
榮	-9926
段	-9927
永	-9928
污	-9929
沈	-9930
沉	-9931
沿	-9932
溯	-9933
炸	-9934
烏	-9935
煩	-9936
燈	-9937
爆	-9938
牌	-9939
牢	-9940
犯	-9941
狀	-9942
畢	-9943
異	-9944
短	-9945
祖	-9946
禁	-9947
秘	-9948
穀	-9949
符	-9950
答	-9951
糊	-9952
綠	-9953
緣	-9954
繫	-9955
翰	-9956
翼	-9957
肺	-9958
脫	-9959
良	-9960
茲	-9961
荷	-9962
葛	-9963
葬	-9964
蓋	-9965
裁	-9966
觸	-9967
詞	-9968
課	-9969
談	-9970
請	-9971
諸	-9972
讀	-9973
賓	-9974
賞	-9975
購	-9976
踪	-9977
輸	-9978
速	-9979
遇	-9980
遷	-9981
配	-9982
針	-9983
銅	-9984
銷	-9985
錯	-9986
鍵	-9987
鐘	-9988
阻	-9989
障	-9990
青	-9991
顏	-9992
飲	-9993
髮	-9994
鮮	-9995
鴉	-9996
$	-9997
乃	-9998
享	-9999
仰	-10000
伐	-10001
侶	-10002
免	-10003
刺	-10004
削	-10005
割	-10006
努	-10007
勳	-10008
匈	-10009
吞	-10010
嘉	-10011
坎	-10012
埋	-10013
堪	-10014
塑	-10015
塵	-10016
壤	-10017
央	-10018
妙	-10019
妹	-10020
婦	-10021
媽	-10022
嫌	-10023
嬰	-10024
孕	-10025
宜	-10026
富	-10027
峰	-10028
巫	-10029
幣	-10030
干	-10031
幹	-10032
序	-10033
廈	-10034
延	-10035
弱	-10036
彈	-10037
彩	-10038
徑	-10039
徹	-10040
怖	-10041
怪	-10042
恰	-10043
憂	-10044
扎	-10045
捷	-10046
掉	-10047
掌	-10048
措	-10049
揚	-10050
損	-10051
摧	-10052
擬	-10053
擾	-10054
旁	-10055
旱	-10056
昂	-10057
暫	-10058
朱	-10059
李	-10060
材	-10061
柴	-10062
核	-10063
桑	-10064
棕	-10065
楚	-10066
樓	-10067
樹	-10068
欺	-10069
殊	-10070
汗	-10071
池	-10072
洗	-10073
浮	-10074
涯	-10075
混	-10076
湯	-10077
灣	-10078
災	-10079
父	-10080
牛	-10081
牧	-10082
獻	-10083
瘋	-10084
皈	-10085
碼	-10086
礁	-10087
祭	-10088
禮	-10089
秀	-10090
稅	-10091
稿	-10092
竟	-10093
策	-10094
範	-10095
粒	-10096
糕	-10097
糟	-10098
紙	-10099
絡	-10100
編	-10101
罕	-10102
聽	-10103
股	-10104
肥	-10105
背	-10106
腦	-10107
茉	-10108
草	-10109
荒	-10110
蓄	-10111
藥	-10112
蛋	-10113
複	-10114
覽	-10115
訥	-10116
詩	-10117
詹	-10118
誤	-10119
誼	-10120
讚	-10121
豬	-10122
貌	-10123
貨	-10124
貴	-10125
買	-10126
貸	-10127
賣	-10128
贊	-10129
趨	-10130
輪	-10131
轟	-10132
辭	-10133
迷	-10134
送	-10135
遍	-10136
郡	-10137
鄰	-10138
銜	-10139
錦	-10140
鏈	-10141
鏡	-10142
閒	-10143
陽	-10144
階	-10145
隔	-10146
險	-10147
隻	-10148
雲	-10149
震	-10150
頻	-10151
顆	-10152
顧	-10153
養	-10154
館	-10155
騎	-10156
鬆	-10157
鬧	-10158
鮑	-10159
麻	-10160
黑	-10161
鼓	-10162
龐	-10163
/	-10164
ä	-10165
丘	-10166
丟	-10167
串	-10168
么	-10169
亦	-10170
亮	-10171
促	-10172
借	-10173
偉	-10174
偏	-10175
傻	-10176
傾	-10177
償	-10178
兼	-10179
凳	-10180
刑	-10181
判	-10182
剩	-10183
副	-10184
劍	-10185
募	-10186
匯	-10187
卜	-10188
厭	-10189
叫	-10190
右	-10191
君	-10192
吹	-10193
哭	-10194
喪	-10195
嘗	-10196
噁	-10197
固	-10198
墓	-10199
墜	-10200
墟	-10201
夜	-10202
奏	-10203
奠	-10204
奢	-10205
奪	-10206
姍	-10207
娛	-10208
婷	-10209
嫁	-10210
寒	-10211
寓	-10212
寡	-10213
寧	-10214
射	-10215
尚	-10216
尾	-10217
屆	-10218
崔	-10219
崗	-10220
崙	-10221
嶄	-10222
川	-10223
左	-10224
帆	-10225
帖	-10226
床	-10227
廉	-10228
廠	-10229
廳	-10230
廷	-10231
彼	-10232
忘	-10233
忙	-10234
忠	-10235
忽	-10236
怒	-10237
怕	-10238
急	-10239
惑	-10240
愚	-10241
慢	-10242
慣	-10243
慮	-10244
憾	-10245
懷	-10246
扭	-10247
折	-10248
按	-10249
挪	-10250
捐	-10251
搖	-10252
撰	-10253
擋	-10254
操	-10255
擺	-10256
救	-10257
敲	-10258
暖	-10259
村	-10260
杯	-10261
枝	-10262
架	-10263
柏	-10264
榜	-10265
橋	-10266
橫	-10267
櫚	-10268
歧	-10269
殿	-10270
毛	-10271
氧	-10272
沖	-10273
泣	-10274
泥	-10275
涉	-10276
液	-10277
涵	-10278
淡	-10279
淤	-10280
添	-10281
滴	-10282
潛	-10283
煙	-10284
煤	-10285
營	-10286
牆	-10287
猜	-10288
獸	-10289
玩	-10290
珠	-10291
琳	-10292
琴	-10293
瑙	-10294
疏	-10295
疼	-10296
痛	-10297
盔	-10298
盧	-10299
矽	-10300
砲	-10301
硬	-10302
碰	-10303
礙	-10304
祈	-10305
祝	-10306
禱	-10307
秋	-10308
穆	-10309
窄	-10310
箭	-10311
篇	-10312
粉	-10313
紐	-10314
紛	-10315
紡	-10316
縱	-10317
繁	-10318
繞	-10319
翻	-10320
聊	-10321
聘	-10322
肖	-10323
胡	-10324
脆	-10325
腓	-10326
臉	-10327
舞	-10328
舟	-10329
艦	-10330
芳	-10331
茵	-10332
萄	-10333
葡	-10334
蕉	-10335
虔	-10336
蜂	-10337
融	-10338
蠢	-10339
衡	-10340
衣	-10341
衰	-10342
裸	-10343
覆	-10344
訊	-10345
託	-10346
訝	-10347
註	-10348
詐	-10349
詢	-10350
詳	-10351
誌	-10352
誓	-10353
誠	-10354
誡	-10355
諷	-10356
謀	-10357
謂	-10358
謙	-10359
譽	-10360
賀	-10361
賠	-10362
賺	-10363
赤	-10364
赦	-10365
跑	-10366
蹟	-10367
躍	-10368
軟	-10369
輔	-10370
迎	-10371
迦	-10372
迴	-10373
逃	-10374
透	-10375
逛	-10376
逝	-10377
遼	-10378
鄉	-10379
酸	-10380
醜	-10381
鋼	-10382
錫	-10383
鑑	-10384
閉	-10385
閣	-10386
闊	-10387
陶	-10388
陷	-10389
雀	-10390
雪	-10391
霧	-10392
霸	-10393
鞋	-10394
韓	-10395
飽	-10396
餐	-10397
駁	-10398
駛	-10399
驅	-10400
魁	-10401
鱈	-10402
鷹	-10403
麽	-10404
齊	-10405
'	-10406
q	-10407
é	-10408
î	-10409
ñ	-10410
ó	-10411
ö	-10412
α	-10413
‘	-10414
’	-10415
•	-10416
丈	-10417
丑	-10418
丸	-10419
乞	-10420
云	-10421
亥	-10422
仁	-10423
仔	-10424
仙	-10425
伍	-10426
伏	-10427
伸	-10428
伽	-10429
併	-10430
侄	-10431
侈	-10432
俗	-10433
俯	-10434
俱	-10435
倉	-10436
倍	-10437
倒	-10438
倖	-10439
偷	-10440
傲	-10441
僱	-10442
儀	-10443
兇	-10444
兔	-10445
冕	-10446
冶	-10447
准	-10448
凌	-10449
凍	-10450
凜	-10451
凡	-10452
刁	-10453
刊	-10454
刷	-10455
剔	-10456
劣	-10457
勃	-10458
勉	-10459
勤	-10460
勿	-10461
匆	-10462
匠	-10463
卸	-10464
厩	-10465
厲	-10466
叢	-10467
召	-10468
吧	-10469
吼	-10470
呂	-10471
呆	-10472
呢	-10473
咎	-10474
哨	-10475
唯	-10476
啟	-10477
啤	-10478
嗆	-10479
嘲	-10480
嘿	-10481
噪	-10482
噬	-10483
噴	-10484
噸	-10485
圓	-10486
圳	-10487
圾	-10488
址	-10489
垃	-10490
堆	-10491
堵	-10492
塚	-10493
塢	-10494
墊	-10495
墮	-10496
墳	-10497
墾	-10498
壘	-10499
壯	-10500
奉	-10501
奎	-10502
奔	-10503
套	-10504
奴	-10505
妮	-10506
姓	-10507
姦	-10508
姨	-10509
姬	-10510
娶	-10511
婭	-10512
孚	-10513
孤	-10514
宇	-10515
宙	-10516
宛	-10517
寂	-10518
寞	-10519
寬	-10520
寵	-10521
寸	-10522
尊	-10523
尖	-10524
尬	-10525
尷	-10526
尺	-10527
屁	-10528
屋	-10529
屍	-10530
屏	-10531
峙	-10532
崇	-10533
嵌	-10534
巔	-10535
巡	-10536
巾	-10537
帳	-10538
帽	-10539
幢	-10540
庇	-10541
店	-10542
庸	-10543
廊	-10544
彌	-10545
徐	-10546
徙	-10547
御	-10548
怠	-10549
怨	-10550
恢	-10551
恭	-10552
悔	-10553
悖	-10554
患	-10555
悶	-10556
惠	-10557
惱	-10558
愍	-10559
慈	-10560
慌	-10561
慎	-10562
慰	-10563
慾	-10564
憑	-10565
憤	-10566
憲	-10567
憶	-10568
懂	-10569
懣	-10570
懲	-10571
懸	-10572
懼	-10573
懾	-10574
戚	-10575
戮	-10576
扣	-10577
抓	-10578
抖	-10579
抹	-10580
拂	-10581
拆	-10582
招	-10583
拯	-10584
拱	-10585
拼	-10586
挫	-10587
挺	-10588
挽	-10589
掀	-10590
掃	-10591
掘	-10592
掙	-10593
掛	-10594
換	-10595
握	-10596
搏	-10597
撈	-10598
撞	-10599
擯	-10600
攔	-10601
攝	-10602
敖	-10603
散	-10604
敬	-10605
斗	-10606
斜	-10607
斥	-10608
旦	-10609
映	-10610
昨	-10611
昭	-10612
晉	-10613
晨	-10614
晰	-10615
曉	-10616
曝	-10617
朵	-10618
朽	-10619
杉	-10620
杭	-10621
杰	-10622
枯	-10623
柔	-10624
柳	-10625
柵	-10626
框	-10627
桌	-10628
梯	-10629
械	-10630
梵	-10631
棉	-10632
棍	-10633
棵	-10634
榔	-10635
槌	-10636
槍	-10637
樑	-10638
樞	-10639
橄	-10640
檯	-10641
檳	-10642
櫃	-10643
欄	-10644
欖	-10645
欠	-10646
欣	-10647
欽	-10648
歇	-10649
殲	-10650
殼	-10651
毅	-10652
毒	-10653
毫	-10654
氟	-10655
氫	-10656
氾	-10657
汀	-10658
汴	-10659
沌	-10660
沮	-10661
泉	-10662
洞	-10663
津	-10664
洪	-10665
洶	-10666
浪	-10667
浴	-10668
涸	-10669
淚	-10670
淪	-10671
淺	-10672
渴	-10673
湊	-10674
湧	-10675
溉	-10676
溢	-10677
溶	-10678
滋	-10679
滑	-10680
滯	-10681
漂	-10682
漏	-10683
漬	-10684
漿	-10685
潘	-10686
潤	-10687
潮	-10688
濕	-10689
濫	-10690
濱	-10691
灌	-10692
灰	-10693
炎	-10694
焚	-10695
煽	-10696
熟	-10697
熬	-10698
燃	-10699
燒	-10700
燙	-10701
燥	-10702
爛	-10703
牠	-10704
牽	-10705
猴	-10706
獵	-10707
玫	-10708
珍	-10709
瑰	-10710
璧	-10711
瓶	-10712
田	-10713
甲	-10714
申	-10715
畸	-10716
疇	-10717
疫	-10718
疾	-10719
症	-10720
痕	-10721
痴	-10722
瘓	-10723
癌	-10724
癱	-10725
盃	-10726
盈	-10727
盜	-10728
盤	-10729
盪	-10730
盲	-10731
盾	-10732
睛	-10733
睡	-10734
瞭	-10735
瞰	-10736
矛	-10737
硫	-10738
碎	-10739
碩	-10740
磁	-10741
磨	-10742
磯	-10743
祀	-10744
祗	-10745
祥	-10746
禍	-10747
禦	-10748
种	-10749
秒	-10750
租	-10751
稍	-10752
稠	-10753
穌	-10754
竭	-10755
端	-10756
筆	-10757
筋	-10758
箋	-10759
箱	-10760
籌	-10761
籍	-10762
籲	-10763
粘	-10764
粹	-10765
糖	-10766
糞	-10767
糧	-10768
糾	-10769
累	-10770
絨	-10771
緒	-10772
緬	-10773
縮	-10774
繆	-10775
繭	-10776
繽	-10777
纜	-10778
耍	-10779
耕	-10780
耗	-10781
联	-10782
聚	-10783
肩	-10784
胃	-10785
胎	-10786
胖	-10787
胞	-10788
胱	-10789
脅	-10790
脖	-10791
腐	-10792
腳	-10793
膀	-10794
臣	-10795
臥	-10796
舌	-10797
舒	-10798
艘	-10799
艱	-10800
芋	-10801
芙	-10802
芝	-10803
芭	-10804
芽	-10805
苗	-10806
若	-10807
范	-10808
茱	-10809
莊	-10810
菩	-10811
董	-10812
葵	-10813
葺	-10814
蓮	-10815
蔑	-10816
蕩	-10817
蕾	-10818
薄	-10819
薪	-10820
藍	-10821
藏	-10822
藹	-10823
蘊	-10824
蘋	-10825
蛹	-10826
蜍	-10827
蜒	-10828
蜜	-10829
蜿	-10830
蝕	-10831
蟾	-10832
蠅	-10833
蠶	-10834
袁	-10835
袖	-10836
裕	-10837
裙	-10838
褲	-10839
襟	-10840
襲	-10841
訟	-10842
誕	-10843
誘	-10844
諡	-10845
諧	-10846
諮	-10847
謠	-10848
謨	-10849
謹	-10850
譴	-10851
豆	-10852
豐	-10853
豪	-10854
豫	-10855
貢	-10856
貶	-10857
貼	-10858
賃	-10859
趕	-10860
跨	-10861
跳	-10862
蹩	-10863
躁	-10864
軒	-10865
載	-10866
輝	-10867
轄	-10868
辛	-10869
辨	-10870
逗	-10871
逮	-10872
遏	-10873
違	-10874
遞	-10875
遣	-10876
遨	-10877
遮	-10878
遲	-10879
遵	-10880
邀	-10881
邏	-10882
邪	-10883
酵	-10884
醉	-10885
醒	-10886
釁	-10887
采	-10888
鈷	-10889
鉛	-10890
鉬	-10891
銥	-10892
鋅	-10893
錘	-10894
錳	-10895
鍍	-10896
鎖	-10897
鎳	-10898
鐳	-10899
鑽	-10900
鑿	-10901
閃	-10902
閏	-10903
閔	-10904
閱	-10905
阱	-10906
陪	-10907
陳	-10908
隕	-10909
隸	-10910
雄	-10911
雕	-10912
雜	-10913
雞	-10914
零	-10915
霾	-10916
靜	-10917
鞭	-10918
韋	-10919
頁	-10920
頂	-10921
頃	-10922
頒	-10923
顫	-10924
飆	-10925
飢	-10926
